{
  "version": "1.0",
  "truncation": null,
  "padding": null,
  "added_tokens": [],
  "normalizer": null,
  "pre_tokenizer": {
    "type": "Sequence",
    "pretokenizers": [
      {
        "type": "Split",
        "pattern": {
          "Regex": " ?\\S+|\\s+"
        },
        "behavior": "Isolated",
        "invert": false
      },
      {
        "type": "ByteLevel",
        "add_prefix_space": false,
        "trim_offsets": true,
        "use_regex": false
      }
    ]
  },
  "post_processor": null,
  "decoder": {
    "type": "ByteLevel",
    "add_prefix_space": true,
    "trim_offsets": true,
    "use_regex": true
  },
  "model": {
    "type": "BPE",
    "dropout": null,
    "unk_token": null,
    "continuing_subword_prefix": null,
    "end_of_word_suffix": null,
    "fuse_unk": false,
    "byte_fallback": false,
    "ignore_merges": false,
    "vocab": {
      "!": 0,
      "\"": 1,
      "#": 2,
      "$": 3,
      "%": 4,
      "&": 5,
      "'": 6,
      "(": 7,
      ")": 8,
      "*": 9,
      "+": 10,
      ",": 11,
      "-": 12,
      ".": 13,
      "/": 14,
      "0": 15,
      "1": 16,
      "2": 17,
      "3": 18,
      "4": 19,
      "5": 20,
      "6": 21,
      "7": 22,
      "8": 23,
      "9": 24,
      ":": 25,
      ";": 26,
      "<": 27,
      "=": 28,
      ">": 29,
      "?": 30,
      "@": 31,
      "A": 32,
      "B": 33,
      "C": 34,
      "D": 35,
      "E": 36,
      "F": 37,
      "G": 38,
      "H": 39,
      "I": 40,
      "J": 41,
      "K": 42,
      "L": 43,
      "M": 44,
      "N": 45,
      "O": 46,
      "P": 47,
      "Q": 48,
      "R": 49,
      "S": 50,
      "T": 51,
      "U": 52,
      "V": 53,
      "W": 54,
      "X": 55,
      "Y": 56,
      "Z": 57,
      "[": 58,
      "\\": 59,
      "]": 60,
      "^": 61,
      "_": 62,
      "`": 63,
      "a": 64,
      "b": 65,
      "c": 66,
      "d": 67,
      "e": 68,
      "f": 69,
      "g": 70,
      "h": 71,
      "i": 72,
      "j": 73,
      "k": 74,
      "l": 75,
      "m": 76,
      "n": 77,
      "o": 78,
      "p": 79,
      "q": 80,
      "r": 81,
      "s": 82,
      "t": 83,
      "u": 84,
      "v": 85,
      "w": 86,
      "x": 87,
      "y": 88,
      "z": 89,
      "{": 90,
      "|": 91,
      "}": 92,
      "~": 93,
      "¡": 94,
      "¢": 95,
      "£": 96,
      "¤": 97,
      "¥": 98,
      "¦": 99,
      "§": 100,
      "¨": 101,
      "©": 102,
      "ª": 103,
      "«": 104,
      "¬": 105,
      "®": 106,
      "¯": 107,
      "°": 108,
      "±": 109,
      "²": 110,
      "³": 111,
      "´": 112,
      "µ": 113,
      "¶": 114,
      "·": 115,
      "¸": 116,
      "¹": 117,
      "º": 118,
      "»": 119,
      "¼": 120,
      "½": 121,
      "¾": 122,
      "¿": 123,
      "À": 124,
      "Á": 125,
      "Â": 126,
      "Ã": 127,
      "Ä": 128,
      "Å": 129,
      "Æ": 130,
      "Ç": 131,
      "È": 132,
      "É": 133,
      "Ê": 134,
      "Ë": 135,
      "Ì": 136,
      "Í": 137,
      "Î": 138,
      "Ï": 139,
      "Ð": 140,
      "Ñ": 141,
      "Ò": 142,
      "Ó": 143,
      "Ô": 144,
      "Õ": 145,
      "Ö": 146,
      "×": 147,
      "Ø": 148,
      "Ù": 149,
      "Ú": 150,
      "Û": 151,
      "Ü": 152,
      "Ý": 153,
      "Þ": 154,
      "ß": 155,
      "à": 156,
      "á": 157,
      "â": 158,
      "ã": 159,
      "ä": 160,
      "å": 161,
      "æ": 162,
      "ç": 163,
      "è": 164,
      "é": 165,
      "ê": 166,
      "ë": 167,
      "ì": 168,
      "í": 169,
      "î": 170,
      "ï": 171,
      "ð": 172,
      "ñ": 173,
      "ò": 174,
      "ó": 175,
      "ô": 176,
      "õ": 177,
      "ö": 178,
      "÷": 179,
      "ø": 180,
      "ù": 181,
      "ú": 182,
      "û": 183,
      "ü": 184,
      "ý": 185,
      "þ": 186,
      "ÿ": 187,
      "Ā": 188,
      "ā": 189,
      "Ă": 190,
      "ă": 191,
      "Ą": 192,
      "ą": 193,
      "Ć": 194,
      "ć": 195,
      "Ĉ": 196,
      "ĉ": 197,
      "Ċ": 198,
      "ċ": 199,
      "Č": 200,
      "č": 201,
      "Ď": 202,
      "ď": 203,
      "Đ": 204,
      "đ": 205,
      "Ē": 206,
      "ē": 207,
      "Ĕ": 208,
      "ĕ": 209,
      "Ė": 210,
      "ė": 211,
      "Ę": 212,
      "ę": 213,
      "Ě": 214,
      "ě": 215,
      "Ĝ": 216,
      "ĝ": 217,
      "Ğ": 218,
      "ğ": 219,
      "Ġ": 220,
      "ġ": 221,
      "Ģ": 222,
      "ģ": 223,
      "Ĥ": 224,
      "ĥ": 225,
      "Ħ": 226,
      "ħ": 227,
      "Ĩ": 228,
      "ĩ": 229,
      "Ī": 230,
      "ī": 231,
      "Ĭ": 232,
      "ĭ": 233,
      "Į": 234,
      "į": 235,
      "İ": 236,
      "ı": 237,
      "Ĳ": 238,
      "ĳ": 239,
      "Ĵ": 240,
      "ĵ": 241,
      "Ķ": 242,
      "ķ": 243,
      "ĸ": 244,
      "Ĺ": 245,
      "ĺ": 246,
      "Ļ": 247,
      "ļ": 248,
      "Ľ": 249,
      "ľ": 250,
      "Ŀ": 251,
      "ŀ": 252,
      "Ł": 253,
      "ł": 254,
      "Ń": 255,
      "áĪ": 256,
      "Ġá": 257,
      "áī": 258,
      "áĬ": 259,
      "áĭ": 260,
      "an": 261,
      "ar": 262,
      "in": 263,
      "áĮ": 264,
      "Ġáĭ": 265,
      "ĠáĬ": 266,
      "Ġt": 267,
      "Ġk": 268,
      "Ġn": 269,
      "wa": 270,
      "ĠáĪ": 271,
      "áį": 272,
      "Ġa": 273,
      "Ġd": 274,
      "áĬķ": 275,
      "»į": 276,
      "ÃŃ": 277,
      "Ġáī": 278,
      "ĠÃ": 279,
      "Ġm": 280,
      "Ġs": 281,
      "á»į": 282,
      "ya": 283,
      "º¹": 284,
      "on": 285,
      "áīµ": 286,
      "er": 287,
      "áº¹": 288,
      "en": 289,
      "li": 290,
      "áĪŃ": 291,
      "at": 292,
      "un": 293,
      "Ġl": 294,
      "ka": 295,
      "Ġáĭ¨": 296,
      "áĭį": 297,
      "áº¹Ì": 298,
      "es": 299,
      "Ġya": 300,
      "Ã©": 301,
      "Ġda": 302,
      "ĠA": 303,
      "Ãł": 304,
      "Ġo": 305,
      "am": 306,
      "łáĪ": 307,
      "is": 308,
      "Ġwa": 309,
      "Ã¡": 310,
      "as": 311,
      "áĪĿ": 312,
      "Ġb": 313,
      "áĪį": 314,
      "áĪµ": 315,
      "Ġ(": 316,
      "he": 317,
      "ĠM": 318,
      "Ġ1": 319,
      "á»įÌ": 320,
      "Ġc": 321,
      "Ġp": 322,
      "or": 323,
      "ti": 324,
      "Ãº": 325,
      "Ġf": 326,
      "Ġi": 327,
      "al": 328,
      "Ã¬": 329,
      "hi": 330,
      "Ġna": 331,
      "Ġg": 332,
      "áį¢": 333,
      "ha": 334,
      "Ġw": 335,
      "ur": 336,
      "áĬĵ": 337,
      "Ġáīł": 338,
      "áī°": 339,
      "le": 340,
      "ĠK": 341,
      "ba": 342,
      "áĭ«": 343,
      "áĪĪ": 344,
      "ta": 345,
      "ĠáĮ": 346,
      "ĠÃł": 347,
      "Ġr": 348,
      "ĠS": 349,
      "Ġj": 350,
      "Ġku": 351,
      "áĭŃ": 352,
      "áĪĺ": 353,
      "ĠáĬ¥": 354,
      "ir": 355,
      "áº¹ÌĢ": 356,
      "áī½": 357,
      "áº¹Ìģ": 358,
      "Ġta": 359,
      "ĠN": 360,
      "á»įÌģ": 361,
      "ma": 362,
      "ik": 363,
      "us": 364,
      "ĠI": 365,
      "da": 366,
      "ia": 367,
      "ĠáĬł": 368,
      "Ġni": 369,
      "ĠB": 370,
      "Ã¨": 371,
      "¹£": 372,
      "Ã³": 373,
      "áĭ°": 374,
      "ati": 375,
      "áĬĲ": 376,
      "Ġ2": 377,
      "to": 378,
      "la": 379,
      "gb": 380,
      "áī¥": 381,
      "áĪ¨": 382,
      "áĮĪ": 383,
      "Ġ19": 384,
      "áĭµ": 385,
      "ĠnÃŃ": 386,
      "á»įn": 387,
      "ĠT": 388,
      "it": 389,
      "áĪĭ": 390,
      "ĠáĬĲ": 391,
      "áĮį": 392,
      "ara": 393,
      "ĠáĪĺ": 394,
      "Ġma": 395,
      "ana": 396,
      "ĠC": 397,
      "om": 398,
      "áīł": 399,
      "za": 400,
      "ed": 401,
      "ĠÃ¬": 402,
      "áĪ«": 403,
      "áī³": 404,
      "ĠáĬ¨": 405,
      "wá»įn": 406,
      "Ġy": 407,
      "Ã¹": 408,
      "and": 409,
      "ri": 410,
      "el": 411,
      "Ġh": 412,
      "Ġá»į": 413,
      "áĬŃ": 414,
      "Ã²": 415,
      "ĠW": 416,
      "ga": 417,
      "ĠP": 418,
      "di": 419,
      "á¹£": 420,
      "Ġthe": 421,
      "ĠO": 422,
      "áĪĽ": 423,
      "Ġin": 424,
      "Ġ20": 425,
      "áĪ³": 426,
      "um": 427,
      "em": 428,
      "áī£": 429,
      "ani": 430,
      "Ġla": 431,
      "Ġáį": 432,
      "ĠG": 433,
      "ĠD": 434,
      "Ġof": 435,
      "ĠL": 436,
      "et": 437,
      "si": 438,
      "ĠJ": 439,
      "Ãºn": 440,
      "sa": 441,
      "ut": 442,
      "âĢ": 443,
      "ĠF": 444,
      "ĠtÃŃ": 445,
      "ent": 446,
      "ing": 447,
      "á»įÌĢ": 448,
      "áĬĽ": 449,
      "Ġde": 450,
      "Ġáī°": 451,
      "bi": 452,
      "áĪª": 453,
      "ĠáĭŃ": 454,
      "ke": 455,
      "ĠáīłáĪ": 456,
      "Ġáĭ¨áĪ": 457,
      "ol": 458,
      "il": 459,
      "ĠR": 460,
      "ĠáĬłáĪ": 461,
      "ĠH": 462,
      "áĪħ": 463,
      "áĮ¥": 464,
      "áĬ¨": 465,
      "áį£": 466,
      "Ġti": 467,
      "ra": 468,
      "rÃŃ": 469,
      "ko": 470,
      "ce": 471,
      "ch": 472,
      "ĠáĪĿ": 473,
      "Ġba": 474,
      "Ġáĭ¨áĬ": 475,
      "ari": 476,
      "ro": 477,
      "Ġ-": 478,
      "ĠáĭĪ": 479,
      "ki": 480,
      "áį¡": 481,
      "ĠE": 482,
      "ul": 483,
      "ĠU": 484,
      "áįį": 485,
      "re": 486,
      "áĭ³": 487,
      "ĠáĬĲáĭį": 488,
      "áīĢ": 489,
      "ku": 490,
      "ji": 491,
      "Ġha": 492,
      "áĭ¨": 493,
      "ci": 494,
      "ĠáĬ¥áĬķ": 495,
      "áĭĪ": 496,
      "ĠÃ³": 497,
      "ye": 498,
      "láº¹ÌĢ": 499,
      "ama": 500,
      "áĪ°": 501,
      "áīħ": 502,
      "are": 503,
      "qu": 504,
      "de": 505,
      "Ġv": 506,
      "áĪĮ": 507,
      "áĬ«": 508,
      "ÆĻ": 509,
      "ĠáĪĪ": 510,
      "os": 511,
      "eri": 512,
      "Ġto": 513,
      "Ġz": 514,
      "ini": 515,
      "áĬł": 516,
      "pa": 517,
      "00": 518,
      "ĠáĬĲáĭįáį¢": 519,
      "im": 520,
      "ĠáĪµ": 521,
      "ata": 522,
      "áī¸": 523,
      "bu": 524,
      "Ġáĭ«": 525,
      "Ġza": 526,
      "ĠÃĢ": 527,
      "gi": 528,
      "yar": 529,
      "áĪī": 530,
      "Ġkuma": 531,
      "Ġsa": 532,
      "Ġáĭĵ": 533,
      "ÌĢ": 534,
      "ina": 535,
      "Ġkwa": 536,
      "Ãłn": 537,
      "yo": 538,
      "kar": 539,
      "Ġand": 540,
      "e,": 541,
      "Ġshe": 542,
      "ĠÃłwá»įn": 543,
      "if": 544,
      "áīłáĪ": 545,
      "19": 546,
      "áĭĬ": 547,
      "áĭĭ": 548,
      "Ġu": 549,
      "áĪ®": 550,
      "áī±": 551,
      "İáī½": 552,
      "bo": 553,
      "te": 554,
      "áī¸áĭį": 555,
      "ation": 556,
      "áįĪ": 557,
      "iki": 558,
      "ad": 559,
      "Ġáĭ¨áĪļ": 560,
      "toka": 561,
      "áĭĿ": 562,
      "Ġáº¹": 563,
      "ĠÆĻ": 564,
      "áĮ£": 565,
      "áĪįáį¢": 566,
      "áĪĨ": 567,
      "ĠáĪĽ": 568,
      "ali": 569,
      "ĠY": 570,
      "ikin": 571,
      "Ġe": 572,
      "zi": 573,
      "áĭļ": 574,
      "wan": 575,
      "áī¶": 576,
      "áĪ³áĪĮ": 577,
      "Ġ201": 578,
      "ig": 579,
      "áĮł": 580,
      "yan": 581,
      "Ġne": 582,
      "fi": 583,
      "kan": 584,
      "áĮī": 585,
      "Ġá¹£": 586,
      "gu": 587,
      "rin": 588,
      "Ġsu": 589,
      "áĮĭ": 590,
      "Ġka": 591,
      "ĠMa": 592,
      "ĠáīłáĬ": 593,
      "áĭ®": 594,
      "op": 595,
      "ni": 596,
      "Ġal": 597,
      "Ġ\"": 598,
      "hin": 599,
      "ge": 600,
      "Ġle": 601,
      "ĠáĪĿáĪ³áĪĮ": 602,
      "lÃ©": 603,
      "Ġga": 604,
      "á»įÌģn": 605,
      "ant": 606,
      "go": 607,
      "fa": 608,
      "asa": 609,
      "est": 610,
      "Ġshi": 611,
      "ĠÃ¨": 612,
      "ĠáĪ²": 613,
      "ĠÃłti": 614,
      "áĭ²": 615,
      "Ġkati": 616,
      ").": 617,
      "áĬķáĭµ": 618,
      "ec": 619,
      "ĠáĮį": 620,
      "ers": 621,
      "Ġáīµ": 622,
      "har": 623,
      "ann": 624,
      "ja": 625,
      "ĠÃĮ": 626,
      "war": 627,
      "ĠâĢ": 628,
      "áĭİáī½": 629,
      "dÃºn": 630,
      "una": 631,
      "Ġáĭĺ": 632,
      "Ġen": 633,
      "Ġjáº¹Ìģ": 634,
      "áĪ¥": 635,
      "lÃº": 636,
      "áīĥ": 637,
      "Ã¬n": 638,
      "ĠÃĢwá»įn": 639,
      "ot": 640,
      "ĠsÃŃ": 641,
      "ban": 642,
      "ic": 643,
      "ÅĦ": 644,
      "áĬĸ": 645,
      "áĪŀ": 646,
      "áĭĺ": 647,
      "Ġcikin": 648,
      "uwa": 649,
      "ist": 650,
      "ĠNa": 651,
      "ĠlÃ¡": 652,
      "Ġwas": 653,
      "waka": 654,
      "Ġam": 655,
      "Ġáĭ¨áī°": 656,
      "fu": 657,
      "Ġkan": 658,
      "id": 659,
      "yin": 660,
      "ĠáĬ¥áĬĵ": 661,
      "st": 662,
      "ĠÃ²": 663,
      "Ġali": 664,
      "Ã¹n": 665,
      "áĬĲáīµ": 666,
      "ĠáĪ°": 667,
      "Ġbi": 668,
      "we": 669,
      "Ġ200": 670,
      "me": 671,
      "Ġáī¥": 672,
      "áĬ¥": 673,
      "lo": 674,
      "áĪĬ": 675,
      "),": 676,
      "áĪ©": 677,
      "ere": 678,
      "ili": 679,
      "Ġkas": 680,
      "Ġhi": 681,
      "ĠAf": 682,
      "Ġdaga": 683,
      "Ġáĭį": 684,
      "du": 685,
      "áĪĻ": 686,
      "po": 687,
      "hu": 688,
      "anda": 689,
      "ĠV": 690,
      "Ġko": 691,
      "áĬķáĮį": 692,
      "Ġet": 693,
      "Ġje": 694,
      "kin": 695,
      "tion": 696,
      "ĠáīĢ": 697,
      "Ġkatika": 698,
      "ĠAm": 699,
      "Ġun": 700,
      "ho": 701,
      "ÃŃn": 702,
      "Ġon": 703,
      "ĠÅĦ": 704,
      "cin": 705,
      "áīłáĪŃ": 706,
      "lu": 707,
      "ĭáĭŃ": 708,
      "Ġáĭ°": 709,
      "Ġkar": 710,
      "chi": 711,
      "ĠáĬ¥áĬķáĭ°": 712,
      "Ġráº¹ÌĢ": 713,
      "ne": 714,
      "Ġá»įdÃºn": 715,
      "Ġan": 716,
      "Ġhu": 717,
      "áĭĽ": 718,
      "zo": 719,
      "eriya": 720,
      "Ġsi": 721,
      "Ġáĭ¨áĬłáĪ": 722,
      "dÃ¨": 723,
      "jeriya": 724,
      "áĪļ": 725,
      "Ġmwaka": 726,
      "ÉĹ": 727,
      "je": 728,
      "ĠáĬŃ": 729,
      "ans": 730,
      "áĪİ": 731,
      "ter": 732,
      "ug": 733,
      "Ġati": 734,
      "won": 735,
      "Ġdu": 736,
      "gbÃł": 737,
      "bÃŃ": 738,
      "do": 739,
      "uni": 740,
      "Ġ18": 741,
      "áĮħ": 742,
      "áī²": 743,
      "Ġshekar": 744,
      "yi": 745,
      "Ġar": 746,
      "áī¢": 747,
      "ĠIn": 748,
      "Ġce": 749,
      "th": 750,
      "ĠÂ": 751,
      "áĬĳ": 752,
      "wo": 753,
      "ab": 754,
      "ine": 755,
      "Ġfi": 756,
      "tokasi": 757,
      "áįĭ": 758,
      "ĠáĪį": 759,
      "ĠbÃŃ": 760,
      "ber": 761,
      "Ġre": 762,
      "jo": 763,
      "Ġwá»įÌģn": 764,
      "Ġlo": 765,
      "20": 766,
      "rÃ©": 767,
      "so": 768,
      "Ġmat": 769,
      "ká»įÌģ": 770,
      "Ġ3": 771,
      "áĬĿ": 772,
      "kuwa": 773,
      "Ġis": 774,
      "Ġ.": 775,
      "ĠAl": 776,
      "áĪ±": 777,
      "Ã¡Ãł": 778,
      "ĠAn": 779,
      "áį¤": 780,
      "Ġmas": 781,
      "áĪĨáĬķ": 782,
      "Ġki": 783,
      "áĪ½": 784,
      "Ġke": 785,
      "Ġse": 786,
      "kara": 787,
      "áĮİ": 788,
      "Ġ199": 789,
      "Ġli": 790,
      "ĠáĪĭáĭŃ": 791,
      "Ġili": 792,
      "âĢĻ": 793,
      "áĭ«áĬķ": 794,
      "ĠItokasi": 795,
      "áĪĪáĭį": 796,
      "Ġdes": 797,
      "Ġáī³": 798,
      "Ġáĭµ": 799,
      "má»į": 800,
      "ĠNo": 801,
      "»Į": 802,
      "ve": 803,
      "Ġyi": 804,
      "áĪŃáĬĽ": 805,
      "Ġas": 806,
      "áĭ±": 807,
      "our": 808,
      "áĪģ": 809,
      "Ġáī£": 810,
      "alio": 811,
      "tan": 812,
      "ami": 813,
      "ĠWa": 814,
      "fin": 815,
      "ly": 816,
      "Ġl'": 817,
      "amu": 818,
      "ĠfÃºn": 819,
      "áĭļáĪħ": 820,
      "¢áīµ": 821,
      "que": 822,
      "ris": 823,
      "yu": 824,
      "res": 825,
      "Ġá¹£e": 826,
      "Ġol": 827,
      "ala": 828,
      "ĽáĪŃáĬĽ": 829,
      "¢áīµáĭ®": 830,
      "áĮµ": 831,
      "áĬĴ": 832,
      "Ġcon": 833,
      "áĭķ": 834,
      "ĠtÃ³": 835,
      "Ġfor": 836,
      "áīĨ": 837,
      "ĠnÃŃn": 838,
      "be": 839,
      "tu": 840,
      "s,": 841,
      "áĮĢ": 842,
      "ĠorÃŃ": 843,
      "ĠáīłáĪĺ": 844,
      "sÃŃ": 845,
      "ance": 846,
      "¢áīµáĭ®áĮµ": 847,
      "Ġpar": 848,
      "Ġshekara": 849,
      "Ã¡n": 850,
      "Ġcha": 851,
      "já»įÌģ": 852,
      "ang": 853,
      "áĪĪáīµ": 854,
      "pe": 855,
      "Ġau": 856,
      "Ġshekarar": 857,
      "já»į": 858,
      "áĮ½": 859,
      "mi": 860,
      "áĮĪáĪŃ": 861,
      "áĪ¬": 862,
      "Ġmai": 863,
      "Ġaka": 864,
      "mo": 865,
      "ada": 866,
      "Ġ|": 867,
      "Ġra": 868,
      "anz": 869,
      "áī¡": 870,
      "áĪµáĮ¥": 871,
      "Ġáº¹ÌĢ": 872,
      "jÃº": 873,
      "¢áīµáĭ®áĮµáĭ«": 874,
      "ĠWalio": 875,
      "Ġáĭ¨áĬłáĪĽáĪŃáĬĽ": 876,
      "ĠNajeriya": 877,
      "áĪ¨áīµ": 878,
      "Ġth": 879,
      "asar": 880,
      "ĠAfri": 881,
      "isi": 882,
      "liwa": 883,
      "gun": 884,
      "ĠÂ«": 885,
      "áīłáīµ": 886,
      "ĠáĬĲáīłáĪŃ": 887,
      "áĭľ": 888,
      "ĠnÃ¡Ãł": 889,
      "ĠáĮ¥": 890,
      "enye": 891,
      "ou": 892,
      "od": 893,
      "áĪĺáĬķ": 894,
      "oni": 895,
      "Ġ198": 896,
      "Ġkutoka": 897,
      "áĪ»": 898,
      "ita": 899,
      "se": 900,
      "mu": 901,
      "Ġdi": 902,
      "Ġ:": 903,
      "ate": 904,
      "ĠáĭĪáĭ°": 905,
      "ĠáĪĨ": 906,
      "ru": 907,
      "na": 908,
      "ĠáĮĪ": 909,
      "á¹£áº¹Ìģ": 910,
      "áĪµáīµ": 911,
      "ĠáĬ¨áī°": 912,
      "ver": 913,
      "jÃŃ": 914,
      "18": 915,
      "ĠnÃŃnÃº": 916,
      "far": 917,
      "erÃ©": 918,
      "Ġles": 919,
      "áī»": 920,
      "ÃĢ": 921,
      "Ġina": 922,
      "'a": 923,
      "Ġcom": 924,
      "ano": 925,
      "ĠáĬķ": 926,
      "arin": 927,
      "ĠZ": 928,
      "Ġá»įÌĢ": 929,
      "iri": 930,
      "Ġá»įmá»į": 931,
      "áĭ©": 932,
      "ct": 933,
      "Ġ197": 934,
      "Ġso": 935,
      "ihar": 936,
      "Ġá»Į": 937,
      "áĭĵ": 938,
      "bel": 939,
      "Ma": 940,
      "Ġ196": 941,
      "Ġgb": 942,
      "ĠlÃ¡ti": 943,
      "áįĬ": 944,
      "anar": 945,
      "ká»į": 946,
      "man": 947,
      "áĭįáĬķ": 948,
      "áī¶áī½": 949,
      "Ġwanda": 950,
      "asi": 951,
      "atu": 952,
      "rÃŃÃł": 953,
      "gba": 954,
      "ori": 955,
      "ĠáĬ¥áĪµ": 956,
      "Â»": 957,
      "ÃłÃ¬": 958,
      "Ġ'": 959,
      "ĠáĭįáĪµáĮ¥": 960,
      "ity": 961,
      "ĠáĬłáĭŃ": 962,
      "Ġpro": 963,
      "ran": 964,
      "Ġgba": 965,
      "áĪŃáĮī": 966,
      "ĠlÃ³": 967,
      "ag": 968,
      "su": 969,
      "ĠThe": 970,
      "Ba": 971,
      "Ĭáĭľ": 972,
      "ĠâĢĵ": 973,
      "áĮłáĪ": 974,
      "s.": 975,
      "au": 976,
      "áĪªáĭ«": 977,
      "Ã¬ÃŃ": 978,
      "áĬĶ": 979,
      "amar": 980,
      "Ġ4": 981,
      "og": 982,
      "jÃŃrÃŃÃł": 983,
      "ĠsÃ¬": 984,
      "ĠNÃłÃ¬": 985,
      "áīĭ": 986,
      "ĠÃ©": 987,
      "ĠáĪģ": 988,
      "ham": 989,
      "áĭ¶": 990,
      "Ġsun": 991,
      "ane": 992,
      "ep": 993,
      "áĪ²": 994,
      "ĠNÃłÃ¬jÃŃrÃŃÃł": 995,
      "áĬĽáĭį": 996,
      "áĬłáĪ": 997,
      "ary": 998,
      "uri": 999,
      "áī¦": 1000,
      "ĠKi": 1001,
      "áĭŃáĪĿ": 1002,
      "und": 1003,
      "ement": 1004,
      "lis": 1005,
      "usu": 1006,
      "vi": 1007,
      "Ġmw": 1008,
      "ire": 1009,
      "ĠPa": 1010,
      "áĪŃáĪµ": 1011,
      "áĬ¤": 1012,
      "áĪľ": 1013,
      "200": 1014,
      "ira": 1015,
      "les": 1016,
      "isha": 1017,
      "Ġáīłáī°": 1018,
      "gbe": 1019,
      "Ġqu": 1020,
      "áĪĲ": 1021,
      "áĭĻ": 1022,
      "Ġ5": 1023,
      "annan": 1024,
      "áĬ®": 1025,
      "ck": 1026,
      "ĠNobel": 1027,
      "art": 1028,
      "ĠdÃ©": 1029,
      "kÃł": 1030,
      "áī¤": 1031,
      "Ġwali": 1032,
      "Ġáīħ": 1033,
      "ment": 1034,
      "Ġd'": 1035,
      "Ġpe": 1036,
      "ĠáĬłáĪµ": 1037,
      "Ġzuwa": 1038,
      "ĠáĪ¥": 1039,
      "Ġmo": 1040,
      "ort": 1041,
      "Ġáī¤": 1042,
      "le-": 1043,
      "ĠáĬ«": 1044,
      "Ġtare": 1045,
      "Ġ(19": 1046,
      "á¹£Ã¹": 1047,
      "ĠáīµáĪŃáĮī": 1048,
      "Ġáĭ¨áĪĺ": 1049,
      "hen": 1050,
      "Ã¨dÃ¨": 1051,
      "Ġfar": 1052,
      "áĬ©": 1053,
      "Ġdon": 1054,
      "ub": 1055,
      "sayin": 1056,
      "ĠáĮįáĬķ": 1057,
      "áĪªáĬŃ": 1058,
      "Ġkama": 1059,
      "Ġor": 1060,
      "ca": 1061,
      "ĠáĬ¥áĬķáĭ²": 1062,
      "Ġawon": 1063,
      "ĠBa": 1064,
      "Ġá»įjá»įÌģ": 1065,
      "ĠorÃŃláº¹ÌĢ": 1066,
      "ud": 1067,
      "ll": 1068,
      "ede": 1069,
      "The": 1070,
      "zaliwa": 1071,
      "ia.": 1072,
      "lÃ¡": 1073,
      "ĠáĮĭ": 1074,
      "ure": 1075,
      "Ġáĭ¨áĬł": 1076,
      "yÃłn": 1077,
      "yÃ©": 1078,
      "áīģ": 1079,
      "áĮ¨": 1080,
      "ust": 1081,
      "kwa": 1082,
      "Ġyan": 1083,
      "ĠilÃ©": 1084,
      "á¹£Ã¨": 1085,
      "kun": 1086,
      "Ġmut": 1087,
      "Ãĵ": 1088,
      "pá»įÌĢ": 1089,
      "-Ã¨dÃ¨": 1090,
      "lia": 1091,
      "bar": 1092,
      "áī¹": 1093,
      "pÃŃn": 1094,
      "ĠRo": 1095,
      "ju": 1096,
      "ale": 1097,
      "áīłáĪ¨": 1098,
      "'s": 1099,
      "ĠáĪ²áĪĨáĬķ": 1100,
      "Ġwá»įn": 1101,
      "áį¡áį¡": 1102,
      "ĭáĪĭ": 1103,
      "ith": 1104,
      "jÃ¬": 1105,
      "An": 1106,
      "shin": 1107,
      "pp": 1108,
      "Ġest": 1109,
      "áĮĥ": 1110,
      "inu": 1111,
      "áĬŃáĪį": 1112,
      "Ġbe": 1113,
      "áĪĥ": 1114,
      "»áį": 1115,
      "ew": 1116,
      "amo": 1117,
      "ĠÉĹ": 1118,
      "gbo": 1119,
      "dun": 1120,
      "ĠáīµáĪŃáĮīáĪĻ": 1121,
      "ĠSt": 1122,
      "ĠáĬĲáīłáĪŃáį¢": 1123,
      "Ġwatan": 1124,
      "Ġmu": 1125,
      "Ġpl": 1126,
      "Ġmatsayin": 1127,
      "ĠáīłáĬł": 1128,
      "ĠáĬłáĬķ": 1129,
      "ĠHa": 1130,
      "Ġ195": 1131,
      "ĠÃ¬lÃº": 1132,
      "áĪ´": 1133,
      "Ġori": 1134,
      "ĠAr": 1135,
      "Ġhaif": 1136,
      ".áĪĿ": 1137,
      "Ġnchi": 1138,
      "Ġkuwa": 1139,
      "bÃ¡": 1140,
      "pin": 1141,
      "ura": 1142,
      "end": 1143,
      "kÃ³": 1144,
      "ĠáĪ³": 1145,
      "²áį": 1146,
      "kati": 1147,
      "áī´": 1148,
      "ĠNig": 1149,
      "Ġ6": 1150,
      "Ġfun": 1151,
      "ĠLe": 1152,
      "áĮŃ": 1153,
      "ĠáĪĺáĬķáĮį": 1154,
      "ĠSa": 1155,
      "rom": 1156,
      "ĠáĮĬáĭľ": 1157,
      "Ġci": 1158,
      "ong": 1159,
      "má»įÌĢ": 1160,
      "ish": 1161,
      "ĠáīĢáĬķ": 1162,
      "ele": 1163,
      "ĠáĭĪáĭŃáĪĿ": 1164,
      "Ġáĭĭ": 1165,
      "Ġwasan": 1166,
      "Ġara": 1167,
      "Ġsuka": 1168,
      "es,": 1169,
      "Ġyake": 1170,
      "áī³áīµ": 1171,
      "Ġyana": 1172,
      "Ġawá»įn": 1173,
      "ĠNi": 1174,
      "hari": 1175,
      "Ġáĭĵ.áĪĿ": 1176,
      "bin": 1177,
      "tic": 1178,
      "ond": 1179,
      "Ġat": 1180,
      "arta": 1181,
      "risto": 1182,
      "ĠTu": 1183,
      "Ġhar": 1184,
      "kani": 1185,
      "pÃŃnláº¹ÌĢ": 1186,
      "ĠAd": 1187,
      "vers": 1188,
      "ania": 1189,
      "wÃ©": 1190,
      "áĪªáĬ«": 1191,
      "ts": 1192,
      "nÃ¬": 1193,
      "ĠMare": 1194,
      "ĠarÃ¡": 1195,
      "Ġmi": 1196,
      "fan": 1197,
      "y,": 1198,
      "Ġbir": 1199,
      "ĠRa": 1200,
      "yÃŃ": 1201,
      "ĠáĪµáĪĪ": 1202,
      "ĠSo": 1203,
      "ĠáĬĵ": 1204,
      "ore": 1205,
      "Ġlati": 1206,
      "ĠáĬłáĪĪ": 1207,
      "Ġ9": 1208,
      "áĪ¨áīµáĬĵ": 1209,
      "ĠáĪĬ": 1210,
      "áĮ»": 1211,
      "Ġsha": 1212,
      "iku": 1213,
      "Ġby": 1214,
      "Ġáī¢": 1215,
      "ĠáįĪ": 1216,
      "angu": 1217,
      "ĠáĬ¥áĪµáĬ¨": 1218,
      "Ġfa": 1219,
      "áĪĪáĪĿ": 1220,
      "ene": 1221,
      "emi": 1222,
      "fariki": 1223,
      "ĠMar": 1224,
      "ĠáĬķáĮī": 1225,
      "Ġad": 1226,
      "ĠáīłáĬĭáĪĭ": 1227,
      "ĠÆĻasar": 1228,
      "Ġvya": 1229,
      "Ta": 1230,
      "Ġlá»į": 1231,
      "ord": 1232,
      "áĪ¥áīµ": 1233,
      "ow": 1234,
      "isa": 1235,
      "Ġch": 1236,
      "áį»áį": 1237,
      "ĠáĭŃáĪħ": 1238,
      "rÃ¹n": 1239,
      "Ġ17": 1240,
      "ungi": 1241,
      "Ġmata": 1242,
      "ĠáĭĺáĪĺáĬķ": 1243,
      "áĪ¨áĪµ": 1244,
      "gbÃ©": 1245,
      "áĬķáĪĿ": 1246,
      "ĠerÃ©": 1247,
      "uru": 1248,
      "ĠwÃł": 1249,
      "ĠCh": 1250,
      "ÃĮ": 1251,
      "huga": 1252,
      "ida": 1253,
      "ĠáĬŃáįį": 1254,
      "che": 1255,
      "áĪ®áī½": 1256,
      "ard": 1257,
      "Ġáī°áĪ¨áīµáĬĵ": 1258,
      "o,": 1259,
      "ap": 1260,
      "áĪķ": 1261,
      "Ġ7": 1262,
      "ame": 1263,
      "áĮ«": 1264,
      "Ġkw": 1265,
      "ĠáĬ¨áī°áĪĽ": 1266,
      "kum": 1267,
      "eb": 1268,
      "ces": 1269,
      "oh": 1270,
      "ont": 1271,
      "yÃ¬n": 1272,
      "anaz": 1273,
      "Ġiláº¹ÌĢ": 1274,
      "ĠTuzo": 1275,
      "ĠpÃ©": 1276,
      "ishi": 1277,
      "ht": 1278,
      "usi": 1279,
      "áĮĪáĬ": 1280,
      "áĭİ": 1281,
      "rit": 1282,
      "anazarta": 1283,
      "Ġ194": 1284,
      "Ġjihar": 1285,
      "kuu": 1286,
      "rÃ²": 1287,
      "wÃ²": 1288,
      "ĠAfrika": 1289,
      "ĠáĭĵáĪĺ": 1290,
      "Ġ8": 1291,
      "tÃł": 1292,
      "Ġáĭĵ.áĪĿ.": 1293,
      "oli": 1294,
      "ĠKar": 1295,
      "Ġvi": 1296,
      "Ġex": 1297,
      "ĠÃ¨dÃ¨": 1298,
      "gbÃ¨": 1299,
      "ĠMarekani": 1300,
      "ĠorÃŃláº¹ÌĢ-Ã¨dÃ¨": 1301,
      "wam": 1302,
      "..": 1303,
      "Ġloka": 1304,
      "áĪŃáĭ«": 1305,
      "rÃŃkÃł": 1306,
      "ĠáĪĪáĪĺ": 1307,
      "uniya": 1308,
      "nin": 1309,
      "Ġ,": 1310,
      "áįĵ": 1311,
      "Ġáĭķ": 1312,
      "áĮĢáĪĺ": 1313,
      "ast": 1314,
      "ĠkÃŃ": 1315,
      "lim": 1316,
      "Ġhii": 1317,
      "Ġamba": 1318,
      "can": 1319,
      "áī°áĬĽ": 1320,
      "ĠTa": 1321,
      "ĠWaliozaliwa": 1322,
      "lá»į": 1323,
      "Ġkasance": 1324,
      "16": 1325,
      "ĠbÃ¡": 1326,
      "áĭ´": 1327,
      "000": 1328,
      "anu": 1329,
      "kana": 1330,
      "ĠYor": 1331,
      "gbÃ¡": 1332,
      "all": 1333,
      "ry": 1334,
      "ĠolÃ³": 1335,
      "ugha": 1336,
      "15": 1337,
      "ĠWaliofariki": 1338,
      "áĮįáĪŀ": 1339,
      "NÃŃ": 1340,
      "olo": 1341,
      "husu": 1342,
      "yáº¹": 1343,
      "up": 1344,
      "ĠAmeri": 1345,
      "ĠmÃ¡": 1346,
      "áį¦": 1347,
      "tá»įÌģ": 1348,
      "Ġtsa": 1349,
      "Ġáĭ«áĪį": 1350,
      "tÃ¬": 1351,
      "ff": 1352,
      "Ġst": 1353,
      "her": 1354,
      "Ġwith": 1355,
      "ĠDa": 1356,
      "áĭµáĪŃ": 1357,
      "ÃĢwá»įn": 1358,
      "e.": 1359,
      "on,": 1360,
      "Ġoá¹£Ã¹": 1361,
      "ence": 1362,
      "ĠyÃ¬ÃŃ": 1363,
      "ĠÃĴ": 1364,
      "ĠáĮĢ": 1365,
      "ĠkÃ³": 1366,
      "usa": 1367,
      "Ġdan": 1368,
      "áĪ¶": 1369,
      "ĠáĬĲáĮĪ": 1370,
      "hun": 1371,
      "Ġpia": 1372,
      "Ġáįį": 1373,
      "ĠáĬ¢": 1374,
      "tÃ©": 1375,
      "lÃ³": 1376,
      "yÃ¨": 1377,
      "áī³áĭĪ": 1378,
      "Ġhe": 1379,
      "Ġkam": 1380,
      "ĠLa": 1381,
      "Baada": 1382,
      "Ġáīģ": 1383,
      "17": 1384,
      "Ġfarko": 1385,
      "le-ede": 1386,
      "shindi": 1387,
      "yya": 1388,
      "nÃ¬yÃłn": 1389,
      "áīµáĬķ": 1390,
      "ĠáĪķ": 1391,
      "ĠáĮĭáĪŃ": 1392,
      "ĠáīłáĪĽ": 1393,
      "Ġts": 1394,
      "ongo": 1395,
      "Ġtun": 1396,
      "Ġfrom": 1397,
      "Ġ15": 1398,
      "Ġkáº¹": 1399,
      "bwa": 1400,
      "Ġ(200": 1401,
      "emba": 1402,
      "Ġwani": 1403,
      "ia,": 1404,
      "ction": 1405,
      "áĬŃáĪįáīł": 1406,
      "Ġáį¡": 1407,
      "Ġju": 1408,
      "Ġ16": 1409,
      "º¸": 1410,
      "0,": 1411,
      "cho": 1412,
      "kÃ²": 1413,
      "mar": 1414,
      "ember": 1415,
      "áĪīáį¢": 1416,
      "sÃ¬": 1417,
      "áīĤ": 1418,
      "ĠtÃºn": 1419,
      "shi": 1420,
      "ĠáĭĵáĬŃáĪįáīł": 1421,
      "ĠNiger": 1422,
      "áĪİáī½": 1423,
      "ká»įÌĢ": 1424,
      "áĮ¡": 1425,
      "áĭ°áĪ¨": 1426,
      "ĠÃ¨nÃ¬yÃłn": 1427,
      "Ġninu": 1428,
      "ĠUni": 1429,
      "Ġdans": 1430,
      "u,": 1431,
      "ĠMo": 1432,
      "ĠáĪļ": 1433,
      "ĠManazarta": 1434,
      "¦áĪŃ": 1435,
      "Ġwon": 1436,
      "Ġáĭ°áĮįáĪŀ": 1437,
      "Ġranar": 1438,
      "Ġtana": 1439,
      "Ġare": 1440,
      "ĠáĬłáĬķáĭµ": 1441,
      "Ġita": 1442,
      "Ġile": 1443,
      "ĠEn": 1444,
      "anan": 1445,
      "âĢĵ": 1446,
      "áĭ°áĪŃ": 1447,
      "ok": 1448,
      "Ġ=": 1449,
      "omin": 1450,
      "ĠáĬłáĪį": 1451,
      "ĠáĭĵáĬŃáĪįáīł.": 1452,
      "áī°áĪ¨": 1453,
      "i,": 1454,
      "dÃŃ": 1455,
      "Ġibi": 1456,
      "jin": 1457,
      "áĪĺáĬĲ": 1458,
      "cc": 1459,
      "mp": 1460,
      "land": 1461,
      "ational": 1462,
      "llon": 1463,
      "Ġhaife": 1464,
      "ĠAs": 1465,
      "ifa": 1466,
      "ola": 1467,
      "áĮĪáĬĿ": 1468,
      "dÃ©": 1469,
      "14": 1470,
      "áĪŃáīµ": 1471,
      "ĠkÃ²": 1472,
      "ens": 1473,
      "Ġsuna": 1474,
      "gin": 1475,
      "Ġmshindi": 1476,
      "Ġil": 1477,
      "Ġune": 1478,
      "o.": 1479,
      "áĬķáīµ": 1480,
      "dÃ¡": 1481,
      "ble": 1482,
      "Ġ193": 1483,
      "kio": 1484,
      "ĠrÃ©": 1485,
      "1,": 1486,
      "Ġáĭ¨áĬ¢áīµáĭ®áĮµáĭ«": 1487,
      "Ġpa": 1488,
      "ĠáĪĺáĬķáĮįáĪ¥áīµ": 1489,
      "áĬķáĪµ": 1490,
      "áĪĶ": 1491,
      "idi": 1492,
      "áº¹Ìģg": 1493,
      "vu": 1494,
      "Ġ(20": 1495,
      "10": 1496,
      "ungiyar": 1497,
      "jÃ¡": 1498,
      "Ġbu": 1499,
      "Ġlokacin": 1500,
      "ĠáĪĪáĪĽ": 1501,
      "tÃ²": 1502,
      "Ġbayan": 1503,
      "eng": 1504,
      "era": 1505,
      "wÃ¡": 1506,
      "âĢĿ": 1507,
      "áīłáĪ©": 1508,
      "Ġmasu": 1509,
      "Ġgbo": 1510,
      "ĠÃ¬gbÃł": 1511,
      "áĬķáīĭ": 1512,
      "cha": 1513,
      "Ġorile-ede": 1514,
      "istor": 1515,
      "áī½áĬķ": 1516,
      "ĠKa": 1517,
      "áĬª": 1518,
      "Ġbiyu": 1519,
      "Ã©e": 1520,
      "ward": 1521,
      "ung": 1522,
      "áĪĭáĪįáį¢": 1523,
      "áº¹ÌĢr": 1524,
      "ij": 1525,
      "ĠÃ¡": 1526,
      "ĠáĪĨáĬĲ": 1527,
      "Ġáĭ¨áĬĲ": 1528,
      "áĬĵáīµ": 1529,
      "ux": 1530,
      "Ġhan": 1531,
      "ande": 1532,
      "kon": 1533,
      "va": 1534,
      "Ġkasar": 1535,
      "ansa": 1536,
      "tern": 1537,
      "ĠáĪįáĮħ": 1538,
      "ass": 1539,
      "ĠTanz": 1540,
      "kala": 1541,
      "Ġfil": 1542,
      "dÃ¬": 1543,
      "á»įÌĢn": 1544,
      "áº¹Ìģgáº¹Ìģ": 1545,
      "min": 1546,
      "In": 1547,
      "atukio": 1548,
      "tÃŃ": 1549,
      "rÃ¨": 1550,
      "Ġ/": 1551,
      "ĠÃ²á¹£Ã¨": 1552,
      "Ġfara": 1553,
      "ĠdÃ¡": 1554,
      "ons": 1555,
      "ĠAb": 1556,
      "ĠáĭµáĪ¨áĪµ": 1557,
      "ĠPapa": 1558,
      "ĠáĭĿ": 1559,
      "es.": 1560,
      "Ġzama": 1561,
      "ĠMatukio": 1562,
      "áĭļáĭ«": 1563,
      "2,": 1564,
      "ĠMu": 1565,
      "er,": 1566,
      "áįī": 1567,
      "Ġthat": 1568,
      "ell": 1569,
      "oro": 1570,
      "Ġ10": 1571,
      "Ġáĭ«áĪįáī°": 1572,
      "ila": 1573,
      "anta": 1574,
      "ĠIs": 1575,
      "Ġbab": 1576,
      "Ġbirnin": 1577,
      "ĠâĢľ": 1578,
      "1.": 1579,
      "Ġalikuwa": 1580,
      "Ġpáº¹ÌĢ": 1581,
      "áĭ°áī¥": 1582,
      "fe": 1583,
      "Ġjáº¹": 1584,
      "áī°áĪ¨áĮİ": 1585,
      "versity": 1586,
      "kini": 1587,
      "ld": 1588,
      "ph": 1589,
      "Ġny": 1590,
      "ĠáĪħ": 1591,
      "une": 1592,
      "áĮĬ": 1593,
      "din": 1594,
      "ĠáĬ¤": 1595,
      "áī£áĪį": 1596,
      "pÃ©": 1597,
      "Ġáĭ¨áĬ¥": 1598,
      "Ġiya": 1599,
      "jer": 1600,
      "Ġáīĭ": 1601,
      "ĠáĪµáĪĿ": 1602,
      "hugaban": 1603,
      "ĠáĪĮ": 1604,
      "áĪ£": 1605,
      "áĪĨáĬĳ": 1606,
      "i.": 1607,
      "vel": 1608,
      "áĪ¸": 1609,
      "ĠmÃ©": 1610,
      "ĠÃĮpÃŃnláº¹ÌĢ": 1611,
      "ĠáĬłáĮĪ": 1612,
      "ĠáīłáĬ¥": 1613,
      "ĠáĪĢ": 1614,
      "ĠNew": 1615,
      "Ġhadi": 1616,
      "²áį±": 1617,
      "utar": 1618,
      "int": 1619,
      "ereza": 1620,
      "áī¸áĭįáį¢": 1621,
      "Ġyawan": 1622,
      "12": 1623,
      "áĬķáĭ«": 1624,
      "13": 1625,
      "elu": 1626,
      "ĠáĪĽáĪĪáīµ": 1627,
      "Ġdo": 1628,
      "ĠKu": 1629,
      "Ġiá¹£áº¹Ìģ": 1630,
      "ingereza": 1631,
      "yÃł": 1632,
      "ise": 1633,
      "ĠMas": 1634,
      "irka": 1635,
      "ĠAg": 1636,
      "Ġmji": 1637,
      "já»įba": 1638,
      "áĪĬáĭĿ": 1639,
      "ĠVi": 1640,
      "ungu": 1641,
      "ya,": 1642,
      "Ġqui": 1643,
      "dan": 1644,
      "ya.": 1645,
      "áĪłáĪ": 1646,
      "ĠáĪĥ": 1647,
      "áī¸áĭįáĬķ": 1648,
      "Ġ14": 1649,
      "Ġkwenye": 1650,
      "wá»įÌģ": 1651,
      "ĠÆĻwa": 1652,
      "ĠáĬķáĮīáĪ¥": 1653,
      "ĠGu": 1654,
      "áĬ¨áī°": 1655,
      "Ġgáº¹Ìģgáº¹Ìģ": 1656,
      "áī±áĬķ": 1657,
      "ote": 1658,
      "jen": 1659,
      "áĪµáī°": 1660,
      "áĭįáĭ«áĬķ": 1661,
      "tá»įÌģka": 1662,
      "áįķ": 1663,
      "jÃł": 1664,
      "Ġme": 1665,
      "Ġpour": 1666,
      "áī°áĪ¨áĮİáĪĺ": 1667,
      "ĠNijeriya": 1668,
      "Ġáĭ¨áĪļáĭ«": 1669,
      "\".": 1670,
      "ĠKristo": 1671,
      "ona": 1672,
      "áĪĢ": 1673,
      "alla": 1674,
      "ĠUniversity": 1675,
      "ĠtÃł": 1676,
      "áī£áī¢": 1677,
      "antar": 1678,
      "ĠÃĪ": 1679,
      "Ġman": 1680,
      "one": 1681,
      "áº¹Ìģr": 1682,
      "ĠáĬłáĪĺ": 1683,
      "Ġpáº¹ÌĢlÃº": 1684,
      "Ġus": 1685,
      "Ġsur": 1686,
      "co": 1687,
      "tum": 1688,
      "Ġáī³áĪªáĬŃ": 1689,
      "Ġlugha": 1690,
      "vyo": 1691,
      "Ġlá»įÌģ": 1692,
      "áĬķáĮ": 1693,
      "gbáº¹Ìģ": 1694,
      "Ġ(A": 1695,
      "ĠáīłáĬłáĪ": 1696,
      "Ġáĭ«áĪįáī°áī°áĪ¨áĮİáĪĺ": 1697,
      "²áį±áį»áį": 1698,
      "iwa": 1699,
      "ill": 1700,
      "á¹£e": 1701,
      "uwan": 1702,
      "ren": 1703,
      "áĪĦ": 1704,
      "him": 1705,
      "5,": 1706,
      "ĠáĮī": 1707,
      "Ã³n": 1708,
      "ect": 1709,
      "ĠáĪ°áĭį": 1710,
      "ĠwÃ¡": 1711,
      "alin": 1712,
      "atar": 1713,
      "ib": 1714,
      "0.": 1715,
      "ĠlÃ³rÃŃ": 1716,
      "Ġhis": 1717,
      "ze": 1718,
      "áĭĽáīµ": 1719,
      "ĠáīĭáĬķáīĭ": 1720,
      "ite": 1721,
      "ĠCom": 1722,
      "Ġaiki": 1723,
      "Ġwana": 1724,
      "Makala": 1725,
      "u.": 1726,
      "ĠÆĻa": 1727,
      "Ġkasa": 1728,
      "Ġinahusu": 1729,
      "wamn": 1730,
      "áº¹ÌģrÃŃkÃł": 1731,
      "han": 1732,
      "wa,": 1733,
      "áĪŀáī½": 1734,
      "áº¹ÌĢráº¹ÌĢ": 1735,
      "anin": 1736,
      "áĮ¥áĪŃ": 1737,
      "ult": 1738,
      "1-": 1739,
      "ĠTanzania": 1740,
      "kazi": 1741,
      "gÃºn": 1742,
      "áĪ«áīµ": 1743,
      "Ġana": 1744,
      "Ġáĭ³": 1745,
      "Ġáį£": 1746,
      "ĠAmáº¹ÌģrÃŃkÃł": 1747,
      "áī£áīµ": 1748,
      "ĠMe": 1749,
      "áī¥áĪŃ": 1750,
      "ars": 1751,
      "ĠáĬłáĬ«": 1752,
      "amba": 1753,
      "áĪł": 1754,
      "tawa": 1755,
      "áĪįáĬŃ": 1756,
      "Ġab": 1757,
      "sar": 1758,
      "wÃ³": 1759,
      "Ġáĭ¨áĪĽ": 1760,
      "ĠJam": 1761,
      "/áĪĿ": 1762,
      "áĭĭáĪįáį¢": 1763,
      "Ġmili": 1764,
      "láº¹Ìģ": 1765,
      "Ġáī¥áĭĻ": 1766,
      "ĠRe": 1767,
      "3,": 1768,
      "ins": 1769,
      "hemu": 1770,
      "ous": 1771,
      "6,": 1772,
      "ráº¹": 1773,
      "ĠMus": 1774,
      "Ġinda": 1775,
      "kali": 1776,
      "Ġup": 1777,
      "rÃłn": 1778,
      "2.": 1779,
      "ingi": 1780,
      "ern": 1781,
      "Ya": 1782,
      "áĪĭáīµ": 1783,
      "ĠáĭŃáĮĪ": 1784,
      "Wa": 1785,
      "lá»įÌģ": 1786,
      "áĬ¨áĪį": 1787,
      "ĠAfirka": 1788,
      "áĪĿáĪ®": 1789,
      "ĠKristo).": 1790,
      "-áº¹ÌĢ": 1791,
      "lic": 1792,
      "Ġ(Baada": 1793,
      "for": 1794,
      "7,": 1795,
      "Ġáĭĵ/áĪĿ": 1796,
      "Ġráº¹": 1797,
      "uth": 1798,
      "bÃł": 1799,
      "ĠáĪŀ": 1800,
      "6.": 1801,
      "ĠAp": 1802,
      "Ġkafa": 1803,
      "oma": 1804,
      "áĪĭáĪį": 1805,
      "ĠmÃ¡a": 1806,
      "ĠÃ²á¹£Ã¨rÃ©": 1807,
      "ĠáĮł": 1808,
      "bali": 1809,
      "áĪ³áĭŃ": 1810,
      "kÃ¬": 1811,
      "Ġcomp": 1812,
      "ors": 1813,
      "eo": 1814,
      "ĠáĪĻ": 1815,
      "elle": 1816,
      "ĠCo": 1817,
      "8,": 1818,
      "ese": 1819,
      "Ġav": 1820,
      "áī³áĭĬ": 1821,
      "ĠJu": 1822,
      "iko": 1823,
      "y.": 1824,
      "ĠII": 1825,
      "ĠkÃ©": 1826,
      "illi": 1827,
      "Ġ192": 1828,
      "ĠyÃŃ": 1829,
      "tá»įÌģkasÃŃ": 1830,
      "ĠtÃłbÃŃ": 1831,
      "emp": 1832,
      "ĠáĬłáĪµáī°": 1833,
      "ash": 1834,
      "7.": 1835,
      "áĪĿáĪħ": 1836,
      "á¹£áº¹": 1837,
      "ĠalÃ¡": 1838,
      "áĮĤ": 1839,
      "ĠáĮ½": 1840,
      "att": 1841,
      "ohn": 1842,
      "ka.": 1843,
      "ĠCol": 1844,
      "ĠÃ¨yÃŃ": 1845,
      "ĠÆĻwallon": 1846,
      "ĠáĮİ": 1847,
      "iz": 1848,
      "Ġgu": 1849,
      "umani": 1850,
      "4,": 1851,
      "5.": 1852,
      "ľáĪªáĬ«": 1853,
      "áĪĺáĪŃ": 1854,
      "ĠáĪ³áĭŃ": 1855,
      "lÃ¹": 1856,
      "ima": 1857,
      "Ġwata": 1858,
      "ĠáĬ¥áĬķáĭ³": 1859,
      "Ġmag": 1860,
      "urs": 1861,
      "Ġkim": 1862,
      "Ġkwan": 1863,
      "áĬķáĭ³": 1864,
      "yen": 1865,
      "Ġap": 1866,
      "Ġmar": 1867,
      "ĠáĭĭáĬĵ": 1868,
      "ĠáĬ®": 1869,
      "áĮĨ": 1870,
      "ĠáīłáĪļ": 1871,
      "áĭ²áĪµ": 1872,
      "3.": 1873,
      "rá»įÌĢ": 1874,
      "Ġká»į": 1875,
      "ĠonÃŃ": 1876,
      ".áĬł": 1877,
      "4.": 1878,
      "amoja": 1879,
      "anci": 1880,
      "ĠáĪĺáĬķ": 1881,
      "áĮįáĪŃ": 1882,
      "ome": 1883,
      "Ġduniya": 1884,
      "Ġohun": 1885,
      "ĠáĪĺáĪµ": 1886,
      "fal": 1887,
      "áī·": 1888,
      "La": 1889,
      "Ġdake": 1890,
      "isiwa": 1891,
      "jerumani": 1892,
      "katifu": 1893,
      "ibi": 1894,
      "áĮłáĪŃ": 1895,
      "ations": 1896,
      "ys": 1897,
      "Ġáī¤áī°": 1898,
      "Ġque": 1899,
      "ost": 1900,
      "Ġ12": 1901,
      "ena": 1902,
      "Ġomo": 1903,
      "Ġáį¢": 1904,
      "áĭĿáī¥": 1905,
      "an,": 1906,
      "Ġtele": 1907,
      "Éĵ": 1908,
      "ĠOk": 1909,
      "Le": 1910,
      "engi": 1911,
      "lÃł": 1912,
      "áĪĭáĭŃ": 1913,
      "áĮĪáĬĺ": 1914,
      "ĠÆ": 1915,
      "Ġuli": 1916,
      "Ġcewa": 1917,
      "lin": 1918,
      "Ġco": 1919,
      "8.": 1920,
      "ĠolÃ¹": 1921,
      "ĠJihar": 1922,
      "'ar": 1923,
      "ated": 1924,
      "à¤": 1925,
      "áįĸ": 1926,
      "ĠBo": 1927,
      "Ġ(an": 1928,
      "ron": 1929,
      "atun": 1930,
      "Ġmul": 1931,
      "Ġsan": 1932,
      "Ġake": 1933,
      "enti": 1934,
      "iv": 1935,
      "Ġbabban": 1936,
      "ka,": 1937,
      "sion": 1938,
      "yyar": 1939,
      "ĠBK": 1940,
      "ĠBen": 1941,
      "ĠáĪģáĪī": 1942,
      "ue": 1943,
      "Ġzam": 1944,
      "Ġwannan": 1945,
      "Ġáĭ¨áĪĨ": 1946,
      "Ġmwan": 1947,
      "Ġwake": 1948,
      "áĭī": 1949,
      "ĠFar": 1950,
      "Ġit": 1951,
      "ĠjÃ¹": 1952,
      "Ġkus": 1953,
      "Ġwatu": 1954,
      "Ġgbogbo": 1955,
      "cal": 1956,
      "iaka": 1957,
      "Ġyar": 1958,
      "ora": 1959,
      "Ġáº¸": 1960,
      "mÃ¹": 1961,
      "ĠlÃ¨": 1962,
      "dar": 1963,
      "ĠáįĬ": 1964,
      "yy": 1965,
      "ept": 1966,
      "Ġ;": 1967,
      "Ġmus": 1968,
      "áĬŀ": 1969,
      "--": 1970,
      "1)": 1971,
      "ited": 1972,
      "ÃłÃ¡": 1973,
      "rÃº": 1974,
      "ĠgbÃ©": 1975,
      "Ġhukum": 1976,
      "ĠKarne": 1977,
      "ĠáĬłáĪĿ": 1978,
      "ĠUn": 1979,
      "áĮĢáĪĺáĪªáĭ«": 1980,
      "ua": 1981,
      "Ġáĭ¨áĪĿ": 1982,
      "ziki": 1983,
      "Ġmáº¹Ìģ": 1984,
      "ashin": 1985,
      "ĠnÃŃgbÃł": 1986,
      "áĪŃáĪµáī²": 1987,
      "Ġyankin": 1988,
      "mÃŃ": 1989,
      "5)": 1990,
      "áĪĨáĬĲ": 1991,
      "ta,": 1992,
      "Ġwad": 1993,
      "Ġson": 1994,
      "Ġsehemu": 1995,
      "Ġjama": 1996,
      "ĠáĪĺáĭ°áī¥": 1997,
      "Ġou": 1998,
      "áĪ«áĭĬ": 1999,
      "ĠIta": 2000,
      "ĠØ": 2001,
      "lÃ¨": 2002,
      "ĠáĪ°áĭİáī½": 2003,
      "Ġro": 2004,
      "eshi": 2005,
      "ĠIngi": 2006,
      "ats": 2007,
      "der": 2008,
      "ende": 2009,
      "unt": 2010,
      "Ġmkuu": 2011,
      "ille": 2012,
      "jáº¹Ìģ": 2013,
      "kÃ¹n": 2014,
      "á»Į": 2015,
      "amb": 2016,
      "áī½áį¢": 2017,
      "ĠMata": 2018,
      "kÃłn": 2019,
      "Ġáīłáĭĺ": 2020,
      "á¹£Ãł": 2021,
      "ika": 2022,
      "Ġcomm": 2023,
      "Ġlakini": 2024,
      "ĠÆĻafa": 2025,
      "jáº¹": 2026,
      "Ġwhi": 2027,
      "Ġkamar": 2028,
      "Ġá»ĮÌĢ": 2029,
      "Ġáī¦": 2030,
      "Ġ13": 2031,
      "Ġpamoja": 2032,
      "ĠJanu": 2033,
      "ĠáĬĲáĮĪáĪŃ": 2034,
      "áįİ": 2035,
      "oc": 2036,
      "Ã¨re": 2037,
      "-Ã¬": 2038,
      "ea": 2039,
      "Ġá»įdun": 2040,
      "hine": 2041,
      "Ġsá»į": 2042,
      "mba": 2043,
      "bun": 2044,
      "in,": 2045,
      "Ġorin": 2046,
      "Ġmiaka": 2047,
      "ign": 2048,
      "ĠPro": 2049,
      "ose": 2050,
      "áĬķáĮįáĪĬáĭĿ": 2051,
      "Ġsamu": 2052,
      "pi": 2053,
      "ĠGo": 2054,
      "Ni": 2055,
      "ĠáĭĵáĪĿ": 2056,
      "áī°áĭį": 2057,
      "Ġáī°áĪĺ": 2058,
      "áī¦áī½": 2059,
      "kwai": 2060,
      "3)": 2061,
      "áĪĿáį¢": 2062,
      "falme": 2063,
      "fo": 2064,
      "Ġnje": 2065,
      "áĮ¸": 2066,
      "ess": 2067,
      "ijir": 2068,
      "ma,": 2069,
      "orn": 2070,
      "chool": 2071,
      "ĠJami": 2072,
      "ĠfÃŃ": 2073,
      "Ġplus": 2074,
      "Ġsiku": 2075,
      "ĠáĭĵáĪĺáīµ": 2076,
      "Ã¹bÃ¡": 2077,
      "Da": 2078,
      "Ã¬bÃŃ": 2079,
      "kea": 2080,
      "áį¥": 2081,
      "4)": 2082,
      "fani": 2083,
      "áĮłáīĢ": 2084,
      "ĠDe": 2085,
      "wa.": 2086,
      "ĠÂ»": 2087,
      "Ã¬nrin": 2088,
      "ĠNigeria": 2089,
      "ĠNaijir": 2090,
      "áĪĽáĪª": 2091,
      "ĠQ": 2092,
      "Ġmaj": 2093,
      "ĠáīĨ": 2094,
      "rans": 2095,
      "Ġáĭ¨áĪļáĮĪáĬĿ": 2096,
      "Ġ(S": 2097,
      "ques": 2098,
      "ĠIngila": 2099,
      "Ġáº¹ÌĢká»įÌģ": 2100,
      "ven": 2101,
      "Ġ190": 2102,
      "tÃłn": 2103,
      "Ġdaya": 2104,
      "ato": 2105,
      "6)": 2106,
      "Ġgir": 2107,
      "ĠÃłká»įÌģ": 2108,
      "Ġyin": 2109,
      "anen": 2110,
      "lan": 2111,
      "Ġwasu": 2112,
      "ĠAust": 2113,
      "Ġru": 2114,
      "áĪ¨áĭį": 2115,
      "Ġaf": 2116,
      "Ġsai": 2117,
      "Ġasi": 2118,
      "Ãª": 2119,
      "Ġala": 2120,
      "Ġja": 2121,
      "annin": 2122,
      "Ġcont": 2123,
      "Ġolu": 2124,
      "joba": 2125,
      "Ġmutane": 2126,
      "mÃ¬": 2127,
      "9,": 2128,
      "istoria": 2129,
      "rÃ¬": 2130,
      "áĮĵ": 2131,
      "Ġac": 2132,
      "Ġsam": 2133,
      "7)": 2134,
      "tor": 2135,
      "áĭŀ": 2136,
      "pinle": 2137,
      "esa": 2138,
      "ĠáĬª": 2139,
      "anga": 2140,
      "Ġsana": 2141,
      "áįĬáīµ": 2142,
      "ĠRi": 2143,
      "áĮįáī¥": 2144,
      "Ġgab": 2145,
      "Ġte": 2146,
      "Ġkwanza": 2147,
      "9.": 2148,
      "bÃ¬nrin": 2149,
      "hana": 2150,
      "ĠáĪĿáĬŃ": 2151,
      "áĬ¢": 2152,
      "áĭ±áĪµ": 2153,
      "ĠJohn": 2154,
      "ĠAward": 2155,
      "son": 2156,
      "ĠáĬ¥áĭ¨": 2157,
      "Ġbaada": 2158,
      "Ġzina": 2159,
      "Ġib": 2160,
      "áĪģáĪĿ": 2161,
      ".áĬ¤": 2162,
      "áĪĭáĬķáĭµ": 2163,
      "áĭ³áĬķ": 2164,
      "áĬĸáī½": 2165,
      "ike": 2166,
      "itÃ©": 2167,
      "zini": 2168,
      "per": 2169,
      "Ġnom": 2170,
      "pÃ²": 2171,
      "áįĴ": 2172,
      "fuata": 2173,
      "ÙĦ": 2174,
      "ĠwÃŃ": 2175,
      "ww": 2176,
      "ĠRD": 2177,
      "kÃ¨": 2178,
      "ĠSept": 2179,
      "Ġum": 2180,
      "ebru": 2181,
      "ĠáĪĭ": 2182,
      "ĠnÃŃpa": 2183,
      "Ġdin": 2184,
      "enn": 2185,
      "andishi": 2186,
      "Ġáī¤áīµ": 2187,
      "2)": 2188,
      "áĮĮ": 2189,
      "Ġshugaban": 2190,
      "áĬ¥áĬķ": 2191,
      "áĮ¨áĪ¨": 2192,
      "Ġáīĥ": 2193,
      "ope": 2194,
      "Ġes": 2195,
      "ĠYorÃ¹bÃ¡": 2196,
      "-19": 2197,
      "nÃŃ": 2198,
      "ĠÃłrÃ¹n": 2199,
      "Ġgarin": 2200,
      "tawala": 2201,
      "ĠpÃ¨": 2202,
      "Ġ(C": 2203,
      "áī³áī¸áĭį": 2204,
      "áĬłáī¥": 2205,
      "kÃº": 2206,
      "eni": 2207,
      "cial": 2208,
      "áĭŃáĪħ": 2209,
      "Ġá»įjá»įÌģÃ¬bÃŃ": 2210,
      "iss": 2211,
      "uba": 2212,
      "Ìģ": 2213,
      "áĪ¨áĬķ": 2214,
      "ĠáĪĺáĬ«": 2215,
      "Ġzili": 2216,
      "wá»įÌĢ": 2217,
      "áº¹ÌģyÃ¬n": 2218,
      "Ġaikin": 2219,
      "ĠrÃŃ": 2220,
      "ĠAbu": 2221,
      "Ġduk": 2222,
      "Ġmakar": 2223,
      "áĮ¦": 2224,
      "áĪ¨áĮĥ": 2225,
      "Ġnot": 2226,
      "ĠáĪĲ": 2227,
      "Sa": 2228,
      "Ġtra": 2229,
      "áīħáĪĿ": 2230,
      "wi": 2231,
      "yn": 2232,
      "Ġbo": 2233,
      "ĠjÃ¡": 2234,
      "ĠAla": 2235,
      "ungo": 2236,
      "ĠáĬłáī¥": 2237,
      "Ġ2019": 2238,
      "Ġeneo": 2239,
      "ĠNov": 2240,
      "Ġhasa": 2241,
      "chini": 2242,
      "atin": 2243,
      "ĠÉĹan": 2244,
      "com": 2245,
      "ĠChi": 2246,
      "ĠNÃłÃ¬jÃŃrÃŃÃł.": 2247,
      "Ġodun": 2248,
      "ĠáĬ¨áĬł": 2249,
      "áĪĪáĭ«": 2250,
      "uti": 2251,
      "áī°áĪŃ": 2252,
      "Ġáī°áīĢ": 2253,
      ".áĬł.": 2254,
      "áĪĿáĬĵ": 2255,
      "Ġmá»įÌģ": 2256,
      "ĠáĬĲáīłáĪ¨": 2257,
      "ree": 2258,
      "iá¹£áº¹Ìģ": 2259,
      "kazini": 2260,
      "ute": 2261,
      "ĠTh": 2262,
      "ĠFr": 2263,
      "Ġwakazi": 2264,
      "áĮĪáĭµ": 2265,
      "áīĨáĮ£": 2266,
      "pt": 2267,
      "dha": 2268,
      "ĠáĪĨáĬĸ": 2269,
      "yoyin": 2270,
      "Ġgwamn": 2271,
      "áº¹Ìģáº¹ÌĢ": 2272,
      "áĪ°áĭį": 2273,
      "áĪĺáĬĵ": 2274,
      "ĠáĬłáĮĪáĪŃ": 2275,
      "ĠáīłáĪµ": 2276,
      "ĠHar": 2277,
      "\",": 2278,
      "eno": 2279,
      "kÃ¡": 2280,
      "Ġwengi": 2281,
      "uli": 2282,
      "hariki": 2283,
      "ĠáĬłáī£": 2284,
      "áĪ¨áĭ³": 2285,
      "áĪīáīµ": 2286,
      "gbÃ²": 2287,
      "ram": 2288,
      "ĠáīłáĬ¢áīµáĭ®áĮµáĭ«": 2289,
      "ĠbÃŃi": 2290,
      "ashi": 2291,
      "Ġfir": 2292,
      "Ġkya": 2293,
      "Ġgaba": 2294,
      "gar": 2295,
      "ashe": 2296,
      "áĬĲáĭļáĪħ": 2297,
      "áĭµáĬķ": 2298,
      "ase": 2299,
      "áĪĶáĪŃ": 2300,
      "Ġpo": 2301,
      "áĪĺáĪµ": 2302,
      "áĪĽáĭĬ": 2303,
      "dÃŃn": 2304,
      "ĠáĬĵáī¸áĭįáį¢": 2305,
      "áĪ°áī¥": 2306,
      "mad": 2307,
      "ĠáĪ´": 2308,
      "Ġáįķ": 2309,
      "uran": 2310,
      "hili": 2311,
      "Ġáº¹gbáº¹Ìģ": 2312,
      "áīª": 2313,
      "ĠmÃº": 2314,
      "ĠáĭĺáĬķáĭµ": 2315,
      "ĠÃ¬já»įba": 2316,
      "ĠkÃº": 2317,
      "Ġilu": 2318,
      "Ġjina": 2319,
      "áīµáĬĵ": 2320,
      "gbá»įÌģn": 2321,
      "áįħ": 2322,
      "ĠIb": 2323,
      "Ġmaha": 2324,
      "Ġáĭ¨áĪ°": 2325,
      "áĮĪáĬĻ": 2326,
      "ĠáĮ¨": 2327,
      "ĠÃ¨tÃ²": 2328,
      "Ġji": 2329,
      "ogra": 2330,
      "orld": 2331,
      "Ġáī£áĪĪ": 2332,
      "ĠáĮĢáĪĿáĪ®": 2333,
      "ĠBab": 2334,
      "Ġmafi": 2335,
      "Ġzaidi": 2336,
      "ĠÃĵ": 2337,
      "umi": 2338,
      "Al": 2339,
      "sc": 2340,
      "ress": 2341,
      "áĭ¥": 2342,
      "ĠáĪ«": 2343,
      "ambo": 2344,
      "Ġkubwa": 2345,
      "ĠFebru": 2346,
      "ty": 2347,
      "áĮ½áĪĲ": 2348,
      "ĠGe": 2349,
      "Ġlangu": 2350,
      "Ġnchini": 2351,
      "Ġáĭ«áĪĪ": 2352,
      "9)": 2353,
      "ĠGhana": 2354,
      "ĠJa": 2355,
      "láº¹": 2356,
      "ĠayÃ©": 2357,
      "zaji": 2358,
      "Ùİ": 2359,
      "áĪŃáĪ±": 2360,
      "ĠAfrica": 2361,
      "Ġáįĵ": 2362,
      "asu": 2363,
      "ĠSchool": 2364,
      "pen": 2365,
      "ĠáĬ¢áīµáĭ®áĮµáĭ«": 2366,
      "Ġjama'a": 2367,
      "Ġpr": 2368,
      "ĠYa": 2369,
      "Ġsaba": 2370,
      "Ġwhich": 2371,
      "Ha": 2372,
      "wÃł": 2373,
      "ikia": 2374,
      "Ġri": 2375,
      "Ã©r": 2376,
      "vid": 2377,
      "ĠáĮ¦áĪŃ": 2378,
      "tt": 2379,
      "Ġshine": 2380,
      "uk": 2381,
      "an.": 2382,
      "ĠPar": 2383,
      "ĠSe": 2384,
      "huri": 2385,
      "Ġsont": 2386,
      "wu": 2387,
      "ishwa": 2388,
      "ĠáĮ¸": 2389,
      "áĭ¨áĪŃ": 2390,
      "Ġáĭ«áĪĪáĭį": 2391,
      "áī¡áī¥": 2392,
      "Ġavec": 2393,
      "Ġkm": 2394,
      "8)": 2395,
      "ĠâĢĺ": 2396,
      "Ġáī¥áī»": 2397,
      "le,": 2398,
      "kanin": 2399,
      "áĬķáĬķ": 2400,
      "áī£áĪĪ": 2401,
      "Ġkungiyar": 2402,
      "ashen": 2403,
      "áĬ¤áĪį": 2404,
      "Ġáī°áĭĪ": 2405,
      "mÃ¬n": 2406,
      "is,": 2407,
      "En": 2408,
      "org": 2409,
      "áĪłáĪ¨": 2410,
      "itu": 2411,
      "áĪįáĮ£": 2412,
      "tom": 2413,
      "Ġgud": 2414,
      "Ġtara": 2415,
      "ĥáĭŃ": 2416,
      "ĠáĬ¨áįį": 2417,
      "Â«": 2418,
      "ĠáĪĺáĪį": 2419,
      "Ġamfani": 2420,
      "ani.": 2421,
      "inc": 2422,
      "Ġáĭ¨áĭĪ": 2423,
      "áĭĭáĪį": 2424,
      "ĠApri": 2425,
      "Ġres": 2426,
      "Ġ'yan": 2427,
      "ĠOkto": 2428,
      "ĠkÃ©k": 2429,
      "Ã§": 2430,
      "anza": 2431,
      "sÃłn": 2432,
      "yá»į": 2433,
      "Ġ)": 2434,
      "ĠáĬłáĭį": 2435,
      "Ġiliyo": 2436,
      "Ġ[": 2437,
      "ther": 2438,
      "áī³áĪįáį¢": 2439,
      "áĪĭáī¸áĭį": 2440,
      "ĠlÃ©": 2441,
      "olog": 2442,
      "Ġele": 2443,
      "low": 2444,
      "Ġgasar": 2445,
      "ĠáĬ¥.áĬ¤": 2446,
      "yyu": 2447,
      "a.": 2448,
      "Ġjir": 2449,
      "Ġlili": 2450,
      "ĠáĬ¦": 2451,
      "Ġshiga": 2452,
      "ĠÃ¬pÃŃnláº¹ÌĢ": 2453,
      "ĠWar": 2454,
      "Ġfim": 2455,
      "lish": 2456,
      "Ġter": 2457,
      "erin": 2458,
      "Ġáī°áĬ¨": 2459,
      "ĠMuham": 2460,
      "ĠkÃ©kerÃ©": 2461,
      "dÃł": 2462,
      "a,": 2463,
      "endele": 2464,
      "áĭµáĪĿ": 2465,
      "Ġuku": 2466,
      "ĠÃ¬wÃ©": 2467,
      "dÃº": 2468,
      "Ġhali": 2469,
      "Ġkal": 2470,
      "áį²áį±áį»áį": 2471,
      "Ġmara": 2472,
      "gbÃ¨gbÃ¨": 2473,
      "Mwaka": 2474,
      "alisar": 2475,
      "agos": 2476,
      "rÃ³": 2477,
      "áĬħ": 2478,
      "Ġtu": 2479,
      "isp": 2480,
      "Ġsiya": 2481,
      "ĠFran": 2482,
      "Ġjami": 2483,
      "áĪļáĭ«": 2484,
      "ĠKen": 2485,
      "Ã©s": 2486,
      "ĠáīģáĮ¥áĪŃ": 2487,
      "//": 2488,
      "ulo": 2489,
      "Ġapp": 2490,
      "Ġtarehe": 2491,
      "0)": 2492,
      "ton": 2493,
      "run": 2494,
      "gbegbe": 2495,
      "Ġcin": 2496,
      "tar": 2497,
      "ĠáĪ¥áĪŃ": 2498,
      "Ġ(M": 2499,
      "ĠáĪī": 2500,
      "Ç¹": 2501,
      "gn": 2502,
      "mÃ¡": 2503,
      "://": 2504,
      "fun": 2505,
      "ilaya": 2506,
      "Ġhad": 2507,
      "Ġkir": 2508,
      "Ġsannan": 2509,
      "ĠLo": 2510,
      "Ġtele.": 2511,
      "Kati": 2512,
      "cy": 2513,
      "cce": 2514,
      "vo": 2515,
      "tain": 2516,
      "Ġáĭ¨áīĢ": 2517,
      "áĬĵáĪį": 2518,
      "old": 2519,
      "Ġal'": 2520,
      "Ġáĭ¨áĪĨáĬĲ": 2521,
      "ĠOktoba": 2522,
      "-áº¹ÌĢká»įÌģ": 2523,
      "Ġáĭ®": 2524,
      "ĠáĬłáīł": 2525,
      "Ã³Ã²": 2526,
      "ĠAre": 2527,
      "Ġwakati": 2528,
      "ĠBar": 2529,
      "ĠJap": 2530,
      "áĪ¥áī³áīµ": 2531,
      "Ã¬dÃ¬": 2532,
      "ĠBir": 2533,
      "Ġ(N": 2534,
      "Ali": 2535,
      "áĪŃáĬŃ": 2536,
      "Ġkuto": 2537,
      "ĠáĭĪáĬķ": 2538,
      "ĠáĮ£": 2539,
      "ĠkÃ³pa": 2540,
      "ĠIntern": 2541,
      "isho": 2542,
      "fer": 2543,
      "Ã©es": 2544,
      "ĠáīłáĪĿ": 2545,
      "áī¢áĭ«": 2546,
      "ĠBe": 2547,
      "Ġ&": 2548,
      "haribi": 2549,
      "oloni": 2550,
      "11": 2551,
      "bili": 2552,
      "áĬ¦": 2553,
      "ĠNor": 2554,
      "ugh": 2555,
      "rÃ¡": 2556,
      "ĠKing": 2557,
      "itwa": 2558,
      "ikwa": 2559,
      "Ġáº¹láº¹Ìģ": 2560,
      "Ġkai": 2561,
      "áĮ¨áĪ¨áĪ»": 2562,
      "ates": 2563,
      "áĮłáĪ«": 2564,
      "Ġshir": 2565,
      "ta.": 2566,
      "áĮ¤": 2567,
      "lah": 2568,
      "Ġmaka": 2569,
      "ĠáĪľ": 2570,
      "ĠáīłáĭļáĪħ": 2571,
      "ĠáĭµáĪŃ": 2572,
      "ĠÉĹa": 2573,
      "ĠTi": 2574,
      "bert": 2575,
      "ĠAt": 2576,
      "ĠTe": 2577,
      "omi": 2578,
      "ĠItalia": 2579,
      "jia": 2580,
      "k.": 2581,
      "áĪ³áīµ": 2582,
      "idan": 2583,
      "áĪľáĬķ": 2584,
      "vent": 2585,
      "Ġamma": 2586,
      "tÃ³": 2587,
      "á»įÌģÃ¬dÃ¬": 2588,
      "áº¹Ìģrá»įÌģÃ¬dÃ¬": 2589,
      "ken": 2590,
      "Ġáī¡": 2591,
      "Ġhiyo": 2592,
      "ĠáĪĺáĬ«áĬ¨áĪį": 2593,
      "ĠÃ¡st": 2594,
      "ĠlÃ¡ra": 2595,
      "ĠÃ¡stáº¹Ìģrá»įÌģÃ¬dÃ¬": 2596,
      "Ġform": 2597,
      "zama": 2598,
      "ĠáīłáĪĭáĭŃ": 2599,
      "ks": 2600,
      "ĠÃģ": 2601,
      "áĭİáī¹": 2602,
      "ĠBur": 2603,
      "ĠáīłáĭĺáĪĺáĬĲ": 2604,
      "ĠShe": 2605,
      "bre": 2606,
      "áĮįáĭļ": 2607,
      "ĠpÃł": 2608,
      "ĠAmur": 2609,
      "ĠLi": 2610,
      "áĬķáĮī": 2611,
      "ĠáĬ¨áĪĺ": 2612,
      "dio": 2613,
      "lai": 2614,
      "bÃ¹n": 2615,
      "ĠX": 2616,
      "ĠNajeriya.": 2617,
      "-A": 2618,
      "ĠOn": 2619,
      "pÃ¡": 2620,
      "áĬ³": 2621,
      "enda": 2622,
      "gas": 2623,
      "ero": 2624,
      "ĠTo": 2625,
      "ĠMut": 2626,
      "Ġfo": 2627,
      "ĠáīłáĪ°": 2628,
      "92": 2629,
      "Ġseri": 2630,
      "usini": 2631,
      "eral": 2632,
      "ĠDes": 2633,
      "ĠprÃ©": 2634,
      "ingine": 2635,
      "ĠKo": 2636,
      "uis": 2637,
      "áīħáĪŃ": 2638,
      "Ġkaratun": 2639,
      "ony": 2640,
      "ĠUjerumani": 2641,
      "ĠáĬŃáįįáĪĪ": 2642,
      "áī¥áĪ¨": 2643,
      "áĪĽáĭŃ": 2644,
      "áĪħáĪį": 2645,
      "ÉĹa": 2646,
      "Ġipa": 2647,
      "Ġ2020": 2648,
      "omo": 2649,
      "jini": 2650,
      "ĠHe": 2651,
      "erian": 2652,
      "Ġhanyar": 2653,
      "boda": 2654,
      "ĠáĬłáĪŃ": 2655,
      "hy": 2656,
      "áĪĺáĪĪ": 2657,
      "ĠUingereza": 2658,
      "Wá»įÌģn": 2659,
      "sáº¹ÌĢ": 2660,
      "ĠÃĪkÃ³": 2661,
      "ett": 2662,
      "Ġhada": 2663,
      "áĪĿáĪħáĪŃáīµ": 2664,
      "ĠLagos": 2665,
      "esi": 2666,
      "ĠKe": 2667,
      "wn": 2668,
      "urin": 2669,
      "Ġ(m": 2670,
      "Ġne,": 2671,
      "fáº¹Ìģ": 2672,
      "sti": 2673,
      "Ġáīł19": 2674,
      "zwa": 2675,
      "ĠorÃº": 2676,
      "Ġshekaru": 2677,
      "Ġjuu": 2678,
      "áĭŃáĭĪ": 2679,
      "ory": 2680,
      "áįĥ": 2681,
      "Ġbuga": 2682,
      "edi": 2683,
      "áīĦ": 2684,
      "Ġbaya": 2685,
      "tun": 2686,
      "áĬķáĮįáĪĬáĭĿáĬĽ": 2687,
      "Ġabin": 2688,
      "áīµáį¢": 2689,
      "Ġwere": 2690,
      "Ġilikuwa": 2691,
      "Ġbáº¹ÌĢráº¹ÌĢ": 2692,
      "imo": 2693,
      "áĬķáĬĵ": 2694,
      "Ġtabi": 2695,
      "ĠKam": 2696,
      "Ġakan": 2697,
      "ĠáĬ¥áĬķáĭ²áĪģáĪĿ": 2698,
      "Ġsama": 2699,
      "use": 2700,
      "ĠlâĢĻ": 2701,
      "Ġupande": 2702,
      "ĠáĪ½": 2703,
      "áīµáį£": 2704,
      "áīĨáĮ£áĮłáĪŃ": 2705,
      "Ġne.": 2706,
      "Ġwenye": 2707,
      "Kwa": 2708,
      "rand": 2709,
      "form": 2710,
      "Ġáĭ¨áĮį": 2711,
      "áĪµáī³": 2712,
      "wani": 2713,
      "bia": 2714,
      "thi": 2715,
      "Ġká»įÌģ": 2716,
      "iro": 2717,
      "Ġmoja": 2718,
      "Ġwaki": 2719,
      "kubwa": 2720,
      "Ġáī¦áī³": 2721,
      "Ġ(199": 2722,
      "Ġpad": 2723,
      "alo": 2724,
      "áĮįáĭļáĬłáī¥": 2725,
      "He": 2726,
      "Ġdig": 2727,
      "ĠKan": 2728,
      "Ġkif": 2729,
      "Ġmba": 2730,
      "ĠÃ¬dÃŃ": 2731,
      "joibi": 2732,
      "áĮģ": 2733,
      "áĭįáį¢": 2734,
      "Ġyali": 2735,
      "ĠgbÃł": 2736,
      "lex": 2737,
      "ĠKas": 2738,
      "Il": 2739,
      "fri": 2740,
      "lÃŃ": 2741,
      "en,": 2742,
      "ĠKis": 2743,
      "Ġmaso": 2744,
      "Ku": 2745,
      "rodha": 2746,
      "áī¥áĪ«": 2747,
      "ĠjÃ¹lá»į": 2748,
      "ople": 2749,
      "Ġper": 2750,
      "ĠKusini": 2751,
      "ĠAli": 2752,
      "ĠHausa": 2753,
      "Th": 2754,
      "Ġcan": 2755,
      "50": 2756,
      "yÃ¡": 2757,
      "áº¹ÌģtÃ¬": 2758,
      "ĠIpinle": 2759,
      "ĠáĬ¥.áĬ¤.áĬł.": 2760,
      "ĠMin": 2761,
      "áĮĪáĬķ": 2762,
      "ular": 2763,
      "ĠAmerika": 2764,
      "30": 2765,
      "ĠáīłáīĢ": 2766,
      "ĠplÃ¡n": 2767,
      "áĬŀáī½": 2768,
      "bila": 2769,
      "má»įÌģ": 2770,
      "ĠáĬĲáīłáĪ©": 2771,
      "Ġkarne": 2772,
      "Ġtsakanin": 2773,
      "ĠÃ¬gbÃłjÃ¡": 2774,
      "áĪµáĬĵ": 2775,
      "Ġabo": 2776,
      "olu": 2777,
      "sÃ¹": 2778,
      "Ġwo": 2779,
      "áĭ¬": 2780,
      "Ġye": 2781,
      "Ġtso": 2782,
      "áĮĨáī½": 2783,
      "ĠCon": 2784,
      "Ġvita": 2785,
      "áĭ°áīµ": 2786,
      "age": 2787,
      "ĠDi": 2788,
      "Ġáī°áī¥": 2789,
      "áĪŃáĪµáī²áĭ«áĬķ": 2790,
      "fÃł": 2791,
      "koa": 2792,
      "Ġtáº¹Ìģ": 2793,
      "Ġ189": 2794,
      "ologi": 2795,
      "áĮ¥áĬķ": 2796,
      "ĠplÃ¡náº¹ÌģtÃ¬": 2797,
      "Ã©n": 2798,
      "Ġáīħáĭ±áĪµ": 2799,
      "ĠAug": 2800,
      "Ġkum": 2801,
      "áĭķáĪ«": 2802,
      "Ġdara": 2803,
      "led": 2804,
      "ĠKwa": 2805,
      "Ġchini": 2806,
      "illiam": 2807,
      "tiv": 2808,
      "kuma": 2809,
      "Ġyanz": 2810,
      "ÃĴ": 2811,
      "áĮįáĭļáĬłáī¥áĪĶáĪŃ": 2812,
      "Ġuna": 2813,
      "áī¤áīµ": 2814,
      "ĠáĭŃáĮĪáĬĽ": 2815,
      "Ġ11": 2816,
      "Ġim": 2817,
      "us,": 2818,
      "á¹£áº¹ÌĢ": 2819,
      "ĠMi": 2820,
      "entre": 2821,
      "pá»į": 2822,
      "ĠÃ¡stáº¹Ìģrá»įÌģÃ¬dÃ¬.": 2823,
      "Ġkuna": 2824,
      "own": 2825,
      "bara": 2826,
      "³áĪµ": 2827,
      "Ø§": 2828,
      "Ġáĭ¨áĪµ": 2829,
      "fanin": 2830,
      "Ġhas": 2831,
      "ved": 2832,
      "ĠdÃŃ": 2833,
      "Ġinc": 2834,
      "Ġnan": 2835,
      "ĠBu": 2836,
      "ĠáĪ¨": 2837,
      "ĠáĪĿáĬŃáĬķáĭ«": 2838,
      "Ġpla": 2839,
      "ĠmÃ©jÃ¬": 2840,
      "ĠÆĻar": 2841,
      "áĭ¶áī½": 2842,
      "atoli": 2843,
      "áĭįáĪĿ": 2844,
      "áĪº": 2845,
      "áĬŃáīµ": 2846,
      "Ġmaji": 2847,
      "kristo": 2848,
      "áī£áĪĪáĭį": 2849,
      "ĠJami'ar": 2850,
      "ĠáĬłáĪī": 2851,
      "faransa": 2852,
      "ĠáĪĿáĬķ": 2853,
      "áĮ£áĪį": 2854,
      "dani": 2855,
      "vern": 2856,
      "Ġtari": 2857,
      "Ġaá¹£": 2858,
      "ps": 2859,
      "ĠUnited": 2860,
      "nu": 2861,
      "ĠViungo": 2862,
      "Ġno": 2863,
      "ĠSan": 2864,
      "ĠHu": 2865,
      "ĠPe": 2866,
      "limbali": 2867,
      ",000": 2868,
      "ĠEng": 2869,
      "áº¸": 2870,
      "Ġwato": 2871,
      "áĮĪáĬĵ": 2872,
      "ĠkejÃ¬": 2873,
      "ette": 2874,
      "Ġime": 2875,
      "orun": 2876,
      "Ġmbalimbali": 2877,
      "gÃ¹n": 2878,
      "ĠKano": 2879,
      "ĠáĭŃáī£": 2880,
      "aribu": 2881,
      "Ġgo": 2882,
      "Ġeni": 2883,
      "Ġalso": 2884,
      "rÃł": 2885,
      "ally": 2886,
      "takatifu": 2887,
      "áĪ«áĪį": 2888,
      "Ġel": 2889,
      "engine": 2890,
      "Ġmwandishi": 2891,
      "bur": 2892,
      "Ġms": 2893,
      "áĭŃáĬķ": 2894,
      "áĮĪáī£": 2895,
      "wá»į": 2896,
      "hir": 2897,
      "ĠorÃºká»į": 2898,
      "Ġsini": 2899,
      "nÃł": 2900,
      "ĠDuniya": 2901,
      "Ġ188": 2902,
      "hon": 2903,
      "iyar": 2904,
      "undi": 2905,
      "fic": 2906,
      "Ġáĭ¨áĬĲáīłáĪ¨": 2907,
      "ĠIlÃ©": 2908,
      "rÃŃn": 2909,
      "ĠgbajÃº": 2910,
      "Ã©ri": 2911,
      "osti": 2912,
      "áĬĴáĭ«": 2913,
      "Ã´": 2914,
      "Ġbáº¹Ìģáº¹ÌĢ": 2915,
      "ĠáĬŃáįįáĪį": 2916,
      "eneo": 2917,
      "Ġdau": 2918,
      "áĬĸáĪŃ": 2919,
      "ambar": 2920,
      "yyana": 2921,
      "ft": 2922,
      "mma": 2923,
      "ĠÃ¬má»įÌĢ": 2924,
      "áī±áĪĿ": 2925,
      "ĠÃ¬tá»įÌģkasÃŃ": 2926,
      "ĠOl": 2927,
      "Ġsami": 2928,
      "Ġáĭ²": 2929,
      "aren": 2930,
      "ĠUs": 2931,
      "Ġrep": 2932,
      "ĠáĪŃ": 2933,
      "Ġguda": 2934,
      "velop": 2935,
      "Ġwacce": 2936,
      "Ġ(2": 2937,
      "Ġsaboda": 2938,
      "isl": 2939,
      "des": 2940,
      "Ġann": 2941,
      "lla": 2942,
      "bab": 2943,
      "lÃ³gÃºn": 2944,
      "ĠAfrican": 2945,
      "ĠáĬłáĬ«áī£áī¢": 2946,
      "ĠnÃŃbi": 2947,
      "ĠjÃ¡de": 2948,
      "áĪĪáī°": 2949,
      "ĠáĬ¥áĬķáĮį": 2950,
      "ĠColle": 2951,
      "áĮ½áĪĲáįį": 2952,
      "¹¢": 2953,
      "p://": 2954,
      "ĠOá¹£Ã¹": 2955,
      "Ġsamar": 2956,
      "áĭ°áĪ¨áĮĪ": 2957,
      "rÃ¨s": 2958,
      "Ġmon": 2959,
      "ĠwÃŃpÃ©": 2960,
      "ba,": 2961,
      "II": 2962,
      "dda": 2963,
      "Ġáįĸ": 2964,
      "ĠNe": 2965,
      "Ġkwamba": 2966,
      "irin": 2967,
      "Ġmá»įÌĢ": 2968,
      "áīĢáīµ": 2969,
      "ĠáĬłáīĨáĮ£áĮłáĪŃ": 2970,
      "Katika": 2971,
      "áĭŃáĬĵ": 2972,
      "Ġmwana": 2973,
      "Ġnuna": 2974,
      "ublic": 2975,
      "2-": 2976,
      "phi": 2977,
      "ĠAc": 2978,
      "áĪįáīħ": 2979,
      "áĭ®áĬķ": 2980,
      "ĠComm": 2981,
      "Ġak": 2982,
      "Ġ(o": 2983,
      "Ġsy": 2984,
      "ric": 2985,
      "umo": 2986,
      "ĠSha": 2987,
      "Ġnyingi": 2988,
      "ĠáīłáĮį": 2989,
      "ĠBan": 2990,
      "áĪ¨áĮį": 2991,
      "Ġalif": 2992,
      "ĠáĬłáĬķáĭ±": 2993,
      "rá»į": 2994,
      "Ġako": 2995,
      "unci": 2996,
      "yuwa": 2997,
      "ath": 2998,
      "Ġwalio": 2999,
      "áĬķáĮĭ": 3000,
      "Ġmwa": 3001,
      "áĪŃáĭĿ": 3002,
      "áĮłáīĥ": 3003,
      "ĠáĮįáĭĽáīµ": 3004,
      "ĠáĬ¥áĭ«": 3005,
      "Ġgame": 3006,
      "áįĪáĪŃ": 3007,
      "Ġkafin": 3008,
      "on.": 3009,
      "ral": 3010,
      "Ġmin": 3011,
      "istan": 3012,
      "Ġaki": 3013,
      "ĠTara": 3014,
      "orin": 3015,
      "Ġsababu": 3016,
      "áĭµáĪŀ": 3017,
      "áī³áĪį": 3018,
      "ĠÃłká»įÌģká»įÌģ": 3019,
      "ani,": 3020,
      "mes": 3021,
      "áĮĪáĪĪ": 3022,
      "Ġsau": 3023,
      "Ġ(18": 3024,
      "Ġkawa": 3025,
      "ĠInd": 3026,
      "áĪĿáĬķ": 3027,
      "Ġáīłáī¥": 3028,
      "Ġrec": 3029,
      "ĠAare": 3030,
      "Ġáīłáĭ°": 3031,
      "áĮİáĪŃ": 3032,
      "ĠáĬ¨áī°áĪŀáī½": 3033,
      "fanya": 3034,
      "bÃ²": 3035,
      "atta": 3036,
      "Ġlori": 3037,
      "Ġ(B": 3038,
      "Ġmto": 3039,
      "ĠáĬłáĪĭ": 3040,
      "áįĢ": 3041,
      "ĠáĬ¥áĬķáĭ°áĪļ": 3042,
      "Ġáº¹ni": 3043,
      "ÃĪ": 3044,
      "k,": 3045,
      "Ġmf": 3046,
      "pan": 3047,
      "ĠBel": 3048,
      "áĭ¨áīµ": 3049,
      "she": 3050,
      "hara": 3051,
      "Ġdif": 3052,
      "ĠáĬĥáĭŃ": 3053,
      "con": 3054,
      "ĠáĪ¶": 3055,
      "gal": 3056,
      "ves": 3057,
      "Ãłráº¹": 3058,
      "ĠUla": 3059,
      "Ġ30": 3060,
      "gÃ©": 3061,
      "Ġpáº¹": 3062,
      "ĠáīłáįĬáīµ": 3063,
      "Ġtake": 3064,
      "Ġ(P": 3065,
      "áĬĺ": 3066,
      "ĠáĭŃáī½": 3067,
      "Ġkusini": 3068,
      "Ġkab": 3069,
      "Ġfirst": 3070,
      "kokin": 3071,
      "Ġmulkin": 3072,
      "ĠDo": 3073,
      "Ġfito": 3074,
      "ĠPart": 3075,
      "áĪĽáĬĸ": 3076,
      "áīµáĪŃ": 3077,
      "Ġkoma": 3078,
      "Ġparti": 3079,
      "Ġmakarantar": 3080,
      "ĠÆĻasa": 3081,
      "pat": 3082,
      "lÃ²": 3083,
      "ten": 3084,
      "Ùħ": 3085,
      "Ġ25": 3086,
      "ĠMusul": 3087,
      "ĠArewa": 3088,
      "fÃŃ": 3089,
      "ĠáĪĽáĪŃ": 3090,
      "anzia": 3091,
      "ĠáĪģáĪĪáīµ": 3092,
      "áĪĪáĭ«áĭ©": 3093,
      "Ġaká»į": 3094,
      "ĠagbÃ¨gbÃ¨": 3095,
      "á¹£Ã¨lÃº": 3096,
      "wood": 3097,
      "bon": 3098,
      "bit": 3099,
      "ĠLond": 3100,
      "ĠJos": 3101,
      "Ġjim": 3102,
      "ĠáĭŃáī³": 3103,
      "Ġal-": 3104,
      "sÃ¡": 3105,
      "áĪı": 3106,
      "áĪĳ": 3107,
      "áĪ°áĪ«": 3108,
      "arabu": 3109,
      "ĠOr": 3110,
      "ĠMat": 3111,
      "Ġsp": 3112,
      "áī¥áĪµ": 3113,
      "moja": 3114,
      "ĠTur": 3115,
      "ras": 3116,
      "amin": 3117,
      "áīĢáĭį": 3118,
      "ĠáĪ¸": 3119,
      "Ġtaka": 3120,
      "áĬ¬": 3121,
      "áĬŃáĪµ": 3122,
      "ĠMay": 3123,
      "ĠáĭĺáĪĺ": 3124,
      "ĠDan": 3125,
      "atoliki": 3126,
      "ĠmÃŃ": 3127,
      "dÃ³": 3128,
      "ĠNaijiria": 3129,
      "Ġwasa": 3130,
      "Ġgida": 3131,
      "áĮ£áĪĿ": 3132,
      "Ġhivyo": 3133,
      "Ġits": 3134,
      "ĠáĪĿáĬķáĮ": 3135,
      "Ġsamun": 3136,
      "ĠGre": 3137,
      "Ġkil": 3138,
      "áĭĸ": 3139,
      "Ġáī´": 3140,
      "Ġfilamu": 3141,
      "san": 3142,
      "insi": 3143,
      "ume": 3144,
      "Ġhaka": 3145,
      "Ġáĭ©": 3146,
      "Ġ2000": 3147,
      "ĠCar": 3148,
      "ative": 3149,
      "Ġinayo": 3150,
      "ĠáĬłáīłáī£": 3151,
      "Ġhal": 3152,
      "ĠÃłmÃ¬": 3153,
      "Ġkad": 3154,
      "Ġcomme": 3155,
      "utu": 3156,
      "Bayan": 3157,
      "ger": 3158,
      "Ġche": 3159,
      "áĪĪáĭŃ": 3160,
      "tá»įÌĢ": 3161,
      "koso": 3162,
      "ĠState": 3163,
      "áĪ«áīħ": 3164,
      "ĠáĪĮáĪĭ": 3165,
      "áī£áĭŃ": 3166,
      "Ġwan": 3167,
      "ĠagbÃ¡": 3168,
      "Ġida": 3169,
      "Ġpas": 3170,
      "ef": 3171,
      "igi": 3172,
      "Les": 3173,
      "Ġyayin": 3174,
      "ĠáĭĪáīħ": 3175,
      "warar": 3176,
      "ĠáĭĺáĪĺáĬĲ": 3177,
      "ĠSu": 3178,
      "ĠAugust": 3179,
      "pata": 3180,
      "Ġos": 3181,
      "yuwar": 3182,
      "Ġ(K": 3183,
      "anzi": 3184,
      "emb": 3185,
      "ká»įÌĢá»įÌģ": 3186,
      "gy": 3187,
      "³áį": 3188,
      "ĠÃŃ": 3189,
      "áĪįáĮį": 3190,
      "Ã¬mÃ¹": 3191,
      "Ġtrans": 3192,
      "Ġdomin": 3193,
      "áĬķáį¡": 3194,
      "áĪĿáį£": 3195,
      "Ġbar": 3196,
      "áĪ®áįĵ": 3197,
      "ĠáĭĵáĪĺáī³áīµ": 3198,
      "ind": 3199,
      "Ġmal": 3200,
      "Ġ(T": 3201,
      "atic": 3202,
      "Ġwajen": 3203,
      "áĪĿáĪŃ": 3204,
      "ision": 3205,
      "ĠáĮ¦áĪŃáĬĲáīµ": 3206,
      "iya": 3207,
      "áĪĺáĪ¨": 3208,
      "ĠáĪĥáĭŃ": 3209,
      "ĠBrit": 3210,
      "áĪŃáĪĺáĬķ": 3211,
      "áĮįáī£": 3212,
      "ĠNijeriya.": 3213,
      "ĠÃĮtá»įÌģkasÃŃ": 3214,
      "gan": 3215,
      "Ġimp": 3216,
      "ĠáĪµáĪ«": 3217,
      "áĪªáĬ«áĭĬ": 3218,
      "ĠKem": 3219,
      "ĠRoma": 3220,
      "lar": 3221,
      "med": 3222,
      "score": 3223,
      "ĠKenya": 3224,
      "Ġáĭ¨áĭį": 3225,
      "Ġáĭ¨áĭĵ": 3226,
      "Ġras": 3227,
      "ĠáĬ¨áĪļ": 3228,
      "ĠáĪµáĪŃ": 3229,
      "Ġáĭ¨áĪĺáĮĢáĪĺáĪªáĭ«": 3230,
      "ĠNigerian": 3231,
      "ĠWorld": 3232,
      "paka": 3233,
      "Ġuh": 3234,
      "áĮįáĪ«": 3235,
      "ĠWest": 3236,
      "ĠáĪ²áĭ«": 3237,
      "els": 3238,
      "Ġ100": 3239,
      "ĠAde": 3240,
      "ĠáĬłáĭŃáĬĲáīµ": 3241,
      "ĠáĬłáĪ¨": 3242,
      "áĪĲáĬķáĪµ": 3243,
      "ĠEur": 3244,
      "ced": 3245,
      "Ġkili": 3246,
      "Ġyanzu": 3247,
      "las": 3248,
      "ĠCa": 3249,
      "áĪĺáīµ": 3250,
      "áĪĭáĪĪ": 3251,
      "áĮłáĪ¨": 3252,
      "áĪįáĭµ": 3253,
      "weza": 3254,
      "Ġmutu": 3255,
      "Ra": 3256,
      "ĠáĬĲáīłáĪ¨áį¢": 3257,
      "ĠMal": 3258,
      "Ã²rÃ¹n": 3259,
      "unif": 3260,
      "ĠáĭĽ": 3261,
      "áĪŃáĭµ": 3262,
      "ĠÃłwon": 3263,
      "áīłáī¥": 3264,
      "ĠnÃ¡Ãł.": 3265,
      "'in": 3266,
      "Ġagba": 3267,
      "Ġá»įÌĢpá»įÌĢ": 3268,
      "Ġ(I": 3269,
      "ulu": 3270,
      "Ġbut": 3271,
      "Ġjam": 3272,
      "ĠInternational": 3273,
      "dition": 3274,
      "icha": 3275,
      "ananan": 3276,
      "endelea": 3277,
      "ĠáĬ¨áĭļáĭ«": 3278,
      "Ġbayyana": 3279,
      "ĠUfaransa": 3280,
      "cip": 3281,
      "Ġdis": 3282,
      "ĠKad": 3283,
      "áĬĲáĮĪáĪŃ": 3284,
      "Ġáį²áį±áį»áį": 3285,
      "ĠAnd": 3286,
      "ĠRD1-": 3287,
      "tre": 3288,
      "ĠDec": 3289,
      "áįįáĪ«": 3290,
      "Ġmanyan": 3291,
      "ĠáĬ¨áįįáī°áĬĽ": 3292,
      "ĠNational": 3293,
      "Yan": 3294,
      "ĠáĬ¥áĪŃ": 3295,
      "w.": 3296,
      "red": 3297,
      "ĠyÃ³Ã²": 3298,
      "atur": 3299,
      "ĠáĬłáĭ²áĪµ": 3300,
      "áĭ°áĪį": 3301,
      "ĠáĭĪáĪŃ": 3302,
      "ĠMaj": 3303,
      "Ġabu": 3304,
      "Ġpelu": 3305,
      "bÃº": 3306,
      "cto": 3307,
      "ĠOs": 3308,
      "sa,": 3309,
      "par": 3310,
      "Ġyenye": 3311,
      "ĠáĬĲáĮĪáĪ¥áī³áīµ": 3312,
      "ĠKáº¹": 3313,
      "jar": 3314,
      "Ġ24": 3315,
      "ashara": 3316,
      "'i": 3317,
      "ĠáĪłáĪ": 3318,
      "Ġ21": 3319,
      "áĮĢáĪĺáĪŃáĭ«": 3320,
      "ĠáĪĮáĪİáī½": 3321,
      "ĠFo": 3322,
      "ĠáĬ³áĪµ": 3323,
      "ĠáĬ¥áĮħ": 3324,
      "áĪĭáĪĿ": 3325,
      "wahili": 3326,
      "Ġkira": 3327,
      "-o": 3328,
      "21": 3329,
      "25": 3330,
      "Ġnaa": 3331,
      "ĠJanuari": 3332,
      "Ġyawa": 3333,
      "ĠáĪĽáĪµ": 3334,
      "Ġambayo": 3335,
      "Ġwadanda": 3336,
      "ĠIngila.": 3337,
      "ĠsÃŃláº¹ÌĢ": 3338,
      "ĠÃ²á¹£": 3339,
      "uta": 3340,
      "ĠáĪĺáĮł": 3341,
      "ĠUg": 3342,
      "Ġ23": 3343,
      "ĠáĬ©": 3344,
      "Ġgina": 3345,
      "Ġirin": 3346,
      "ĠWilliam": 3347,
      "dogo": 3348,
      "áĭĮ": 3349,
      "Ġyadda": 3350,
      "ĠAh": 3351,
      "shen": 3352,
      "fuat": 3353,
      "ĠIbi": 3354,
      "ĠáĬłáįį": 3355,
      "ĠAgosti": 3356,
      "ĠJi": 3357,
      "®áī½": 3358,
      "BC": 3359,
      "áĪ¬áīµ": 3360,
      "pas": 3361,
      "Ġtas": 3362,
      "ĠáĪĺáĪ°": 3363,
      "ĠáĪĿáĭµáĪŃ": 3364,
      "gion": 3365,
      "áīłáĪĭ": 3366,
      "ĠáĪįáĭ©": 3367,
      "Ġserikali": 3368,
      "ĠCha": 3369,
      "islamu": 3370,
      "Ġob": 3371,
      "ĠÃłgbÃ©": 3372,
      "áº¹ÌĢáº¹Ìģ": 3373,
      "ÙĬ": 3374,
      "er.": 3375,
      "áĪªáĭİáī½": 3376,
      "áįĪáĪ¨áĬķ": 3377,
      "Ġfam": 3378,
      "umu": 3379,
      "Ġkaskazini": 3380,
      "Ġexp": 3381,
      "Ġtro": 3382,
      "Ġpremi": 3383,
      "Ġ(F": 3384,
      "áī³áĭŃ": 3385,
      "umba": 3386,
      "Ġhave": 3387,
      "áī¶áĪµ": 3388,
      "-a": 3389,
      "Ġcent": 3390,
      "Ġsec": 3391,
      "áĬ¥áĪµ": 3392,
      "imu": 3393,
      "áĭĵáīµ": 3394,
      "ĠáĭķáĪĪáīµ": 3395,
      "báº¹ÌĢráº¹ÌĢ": 3396,
      "Ġ(ojoibi": 3397,
      "ria": 3398,
      "ley": 3399,
      "Ġáĭľ": 3400,
      "áĪįáį£": 3401,
      "Ġsar": 3402,
      "ĠAgba": 3403,
      "Ã¹gbá»įÌģn": 3404,
      "BN": 3405,
      "ĠáĭĻ": 3406,
      "áĬ¨áĭļáĪħ": 3407,
      "60": 3408,
      "Ġcol": 3409,
      "ĠgÃŃ": 3410,
      "ĠilÃ©-áº¹ÌĢká»įÌģ": 3411,
      "áĪµáĪĪ": 3412,
      "áī²áĬ«": 3413,
      "áĮ¨áĪĽáĪª": 3414,
      "Ġgar": 3415,
      "ms": 3416,
      "de,": 3417,
      "ak": 3418,
      "ĠnÃŃnu": 3419,
      "ĠOgun": 3420,
      "ĠGab": 3421,
      "áĭ°áĭį": 3422,
      "áĭİáĪµ": 3423,
      "unia": 3424,
      "Ġlit": 3425,
      "ĠFil": 3426,
      "ĠAbd": 3427,
      "Ġakwai": 3428,
      "ĠMan": 3429,
      "chagu": 3430,
      "ros": 3431,
      "ĠáīłáĪŃ": 3432,
      "áįįáīµ": 3433,
      "ĠÃ²un": 3434,
      "Ġtar": 3435,
      "áĬķáį£": 3436,
      "unan": 3437,
      "áĪĭáīħ": 3438,
      "Ġogun": 3439,
      "Ġran": 3440,
      "dÃ¹": 3441,
      "ĠKim": 3442,
      "pele": 3443,
      "ĠJamhuri": 3444,
      "áĮ¢": 3445,
      "ĠáĬłáĭµáĪŃ": 3446,
      "ĠÃłkÃ³": 3447,
      "Ġmp": 3448,
      "ĠáĪĽáĭķ": 3449,
      "Ġgudanar": 3450,
      "áĪ¹": 3451,
      "Ġmaeneo": 3452,
      "áįĭáīµ": 3453,
      "23": 3454,
      "Ġáĭ«áĪµ": 3455,
      "80": 3456,
      "Ġ1,": 3457,
      "áĬ¨áĪĪ": 3458,
      "sÃ¬n": 3459,
      "tique": 3460,
      "Ġ1.": 3461,
      "ĠChar": 3462,
      "igh": 3463,
      "amp": 3464,
      "baki": 3465,
      "gbÃ³": 3466,
      "ffi": 3467,
      "Ġbara": 3468,
      "gaji": 3469,
      "áĭ²áĭ«": 3470,
      "ĠáīĥáĪį": 3471,
      "Ġáº¹láº¹ÌģbÃ¹n": 3472,
      "ding": 3473,
      "ģáĬķ": 3474,
      "áĪĭáĭĬ": 3475,
      "fiya": 3476,
      "Ġáī¥áĪİ": 3477,
      "onn": 3478,
      "ĠEl": 3479,
      "ĠJuni": 3480,
      "le.": 3481,
      "ĠFiz": 3482,
      "ĠáĬłáĪµáī°áĭ³": 3483,
      "ĠJanuary": 3484,
      "ĠáĭĪáīħáīµ": 3485,
      "Ġfina": 3486,
      "ĠIS": 3487,
      "ĠAra": 3488,
      "Ġgidan": 3489,
      "áīłáĪį": 3490,
      "Daga": 3491,
      "igizaji": 3492,
      "Ġge": 3493,
      "kÃ¹nrin": 3494,
      "cent": 3495,
      "áĬ¢áīµáĭ®áĮµáĭ«": 3496,
      "ussi": 3497,
      "áĪĭáĬŃ": 3498,
      "ĠAllah": 3499,
      "ĠNajeriya,": 3500,
      "ĠChina": 3501,
      "ĠJulai": 3502,
      "ĠKaduna": 3503,
      "Ġ(U": 3504,
      "ĠSouth": 3505,
      "ex": 3506,
      "Ġpoli": 3507,
      "áī«": 3508,
      "áĪĿáį¡": 3509,
      "ĠáĬ¨áĬĲ": 3510,
      "ĠPres": 3511,
      "ĠCity": 3512,
      "22": 3513,
      "Ġ(áĭ¨": 3514,
      "Ġigba": 3515,
      "ĠLu": 3516,
      "áī¨": 3517,
      "ĠFa": 3518,
      "ĠMachi": 3519,
      "ĠáīµáĪĿáĪħáĪŃáīµ": 3520,
      "áĪĬáĭ«": 3521,
      "Ġmutum": 3522,
      "áīłáĭļáĪħ": 3523,
      "ĠEd": 3524,
      "áįĪáĭį": 3525,
      "wara": 3526,
      "rÃ²yÃ¬n": 3527,
      "Ġfin": 3528,
      "ĠáĬłáĪ«": 3529,
      "Ġáº¸ÌĢ": 3530,
      "yyukan": 3531,
      "ĠMuhammad": 3532,
      "ĠUr": 3533,
      "los": 3534,
      "mala": 3535,
      "ĠsinimÃ¡": 3536,
      "Ġprodu": 3537,
      "da,": 3538,
      "Ġ(áĬ¨": 3539,
      "áīĢáĪĺ": 3540,
      "Ġáī£áĪħ": 3541,
      "ĠAmerican": 3542,
      "Ġsanya": 3543,
      "láº¹ÌĢ-Ã¨dÃ¨": 3544,
      "Ġáĭ¨áī³": 3545,
      "Ġáį²áį": 3546,
      "Ġáī°áĪ«": 3547,
      "Ġwak": 3548,
      "ĠSh": 3549,
      "Ġlake": 3550,
      "ki,": 3551,
      "Ġpáº¹lu": 3552,
      "Ġmita": 3553,
      "ĠAk": 3554,
      "Ġgabatar": 3555,
      "ĠfÃŃÃ¬mÃ¹": 3556,
      "ĠpadÃł": 3557,
      "uro": 3558,
      "ling": 3559,
      "áī³áĭį": 3560,
      "áįĮ": 3561,
      "ĠojÃº": 3562,
      "áĭ®áī½": 3563,
      "ĠgbajÃºmá»įÌĢ": 3564,
      "ĠSec": 3565,
      "asihi": 3566,
      "ĠRom": 3567,
      "ĠáĬ¨áĭļáĪħ": 3568,
      "áīĢáĪŃ": 3569,
      "Ġ*": 3570,
      "Ġdai": 3571,
      "amman": 3572,
      "ism": 3573,
      "ĠPet": 3574,
      "Ġaux": 3575,
      "its": 3576,
      "wÃ¡jÃº": 3577,
      "ĠYork": 3578,
      "lam": 3579,
      "ĠMis": 3580,
      "ĠáĪĦ": 3581,
      "Ġkasuwan": 3582,
      "áĪ½áĬķ": 3583,
      "Ġáĭ®áĪĲáĬķáĪµ": 3584,
      "ight": 3585,
      "ge,": 3586,
      "Ġmfalme": 3587,
      "als": 3588,
      "Ġmahaif": 3589,
      "Ġijoba": 3590,
      "ĠÐ": 3591,
      "ĠlÃ¡Ãł": 3592,
      "bb": 3593,
      "ĠáĬ¨áĬłáĪ": 3594,
      "fia": 3595,
      "ents": 3596,
      "ĠIndi": 3597,
      "ĠÃ¬tÃłn": 3598,
      "Ġtangu": 3599,
      "áīłáĪ«": 3600,
      "áĭİáī½áĬķ": 3601,
      "Ġ27": 3602,
      "ÙĨ": 3603,
      "ĠKir": 3604,
      "Ã®": 3605,
      "ĠMtakatifu": 3606,
      "ĠáīłáĭĪ": 3607,
      "áĭŃáĭĪáīµ": 3608,
      "ince": 3609,
      "Ġbec": 3610,
      "hali": 3611,
      "Ġpop": 3612,
      "ĠáīłáĮ£áĪĿ": 3613,
      "áĪĽáīµ": 3614,
      "ĠwÃ³n": 3615,
      "Ġráº¹ÌĢ.": 3616,
      "soci": 3617,
      "aru": 3618,
      "Ġn.": 3619,
      "áº¹ráº¹": 3620,
      "esha": 3621,
      "ork": 3622,
      "áĮĬáĭľ": 3623,
      "ĠáĭŃáī³áĭĪ": 3624,
      "Ġzai": 3625,
      "yon": 3626,
      "yl": 3627,
      "ĠÃłÃ¬": 3628,
      "á¹£u": 3629,
      "Ġsh": 3630,
      "ĠáĬłáĪĽ": 3631,
      "Ġáī¥áĪŃ": 3632,
      "atsina": 3633,
      "ĠBro": 3634,
      "áĪ«áĬķ": 3635,
      "Ġkammala": 3636,
      "Ġáį¡áį¡": 3637,
      "ĠMashariki": 3638,
      "roup": 3639,
      "ÃłÃł": 3640,
      "badan": 3641,
      "Ġtáº¹": 3642,
      "ĠAng": 3643,
      "ĠOlÃ³": 3644,
      "ĠGa": 3645,
      "áīłáī°": 3646,
      "áĪ³áĭĬ": 3647,
      "Ġpeke": 3648,
      "ĠPol": 3649,
      "Ġkaribu": 3650,
      "Ġcar": 3651,
      "ĠWan": 3652,
      "rÃ¬n": 3653,
      "ĠsÃ¡": 3654,
      "gbá»įÌĢn": 3655,
      "á¹£i": 3656,
      "gh": 3657,
      "Ġduni": 3658,
      "Ġyayi": 3659,
      "Ġmaza": 3660,
      "áĬĸáĪµ": 3661,
      "Ġaliye": 3662,
      "ĠDesemba": 3663,
      "orge": 3664,
      "d.": 3665,
      "bÃŃláº¹ÌĢ": 3666,
      "ĠFor": 3667,
      "áĭ°áĪĿ": 3668,
      "áĬĽáį¦": 3669,
      "Ġhuko": 3670,
      "kama": 3671,
      "Ġkula": 3672,
      "áĪ«áĪ±": 3673,
      "ĠáĪĿáĬŃáĬķáĭ«áīµ": 3674,
      "Ã¢": 3675,
      "sa.": 3676,
      "bal": 3677,
      "cri": 3678,
      "asan": 3679,
      "uss": 3680,
      "ĠáĬ£": 3681,
      "Ġkuanzia": 3682,
      "Ġrubu": 3683,
      "Ġjirgin": 3684,
      "ĠSeptember": 3685,
      "Ġ22": 3686,
      "madu": 3687,
      "áĪ³áī¥": 3688,
      "oselu": 3689,
      "Ġall": 3690,
      "áĬĲáĭį": 3691,
      "áĮĪáĪ©": 3692,
      "ĠÂ«áĭ¨": 3693,
      "ĠMei": 3694,
      "ation,": 3695,
      "áī£áī¸áĭį": 3696,
      "ĠáĪ¥áĪ«": 3697,
      "Ġbirni": 3698,
      "antu": 3699,
      "40": 3700,
      "ater": 3701,
      "Ġ28": 3702,
      "áĭĪáĭ°": 3703,
      "ĠLegas": 3704,
      "Ġhukumar": 3705,
      "ĠAprili": 3706,
      "Ġpá»įÌĢ": 3707,
      "lá»įpá»įÌĢ": 3708,
      "Ġiye": 3709,
      "ĠBra": 3710,
      "Ġhann": 3711,
      "asara": 3712,
      "Ġkáº¹Ìģ": 3713,
      "ĠBer": 3714,
      "ĠJe": 3715,
      "ĠSar": 3716,
      "Ġdama": 3717,
      "Ġdaban": 3718,
      "áĭŃáīµ": 3719,
      "ĠDecember": 3720,
      "ĠáĪ±": 3721,
      "áĬķáī²": 3722,
      "Ġchake": 3723,
      "ĠAmurka": 3724,
      "ants": 3725,
      "r.": 3726,
      "que,": 3727,
      "Ã¡Ã¬": 3728,
      "Ġtheir": 3729,
      "Ġsake": 3730,
      "Ġkwaikwa": 3731,
      "...": 3732,
      "Ġkilom": 3733,
      "lÃ¬": 3734,
      "Ġada": 3735,
      "Ġáĭ¶": 3736,
      "ĠáĬłáīĢ": 3737,
      "ĠáĪĺáĪłáĪ¨": 3738,
      "ĠáĪĺáĮ½áĪĲáįį": 3739,
      "gue": 3740,
      "ĠdâĢĻ": 3741,
      "ĠSeptemba": 3742,
      "eth": 3743,
      "áĭĲ": 3744,
      "Ġsuke": 3745,
      "áĪįáĪµ": 3746,
      "ĠwaÉĹ": 3747,
      "ĠáĬłáīµ": 3748,
      "gbon": 3749,
      "ĠáĬłáĪľáĪªáĬ«": 3750,
      "ĠáĭĪáĬķáĭµ": 3751,
      "kiyar": 3752,
      "ĠáĪĪáĬł": 3753,
      "áĬĸáĪ©": 3754,
      "ĠáĮ¥áīħáĪĿ": 3755,
      "áĮĪáĬĺáĭį": 3756,
      "en.": 3757,
      "Ġ(198": 3758,
      "ĠParty": 3759,
      "lima": 3760,
      "Ġ187": 3761,
      "Ġáº¹ÌĢyÃł": 3762,
      "ĠáĪª": 3763,
      "ĠEm": 3764,
      "ĠUlaya": 3765,
      "âĢİ": 3766,
      "dÃ²": 3767,
      "Ġere": 3768,
      "Ġáī½": 3769,
      "Ġkudu": 3770,
      "Ġáĭ°áĪ¨áĮĥ": 3771,
      "iti": 3772,
      "ĠPri": 3773,
      "Ġáĭ¨áĪħ": 3774,
      "pend": 3775,
      "ĠOrÃŃ": 3776,
      "dom": 3777,
      "ĠinÃº": 3778,
      "ĠáĪĨáĬĲáį¢": 3779,
      "ĠÉĹaya": 3780,
      "kÃ¹": 3781,
      "ĠSer": 3782,
      "ĠPer": 3783,
      "Ġiko": 3784,
      "binrin": 3785,
      "ĠáĬłáĭ«": 3786,
      "ĠáīĭáĬķáīĭáĭİáī½": 3787,
      "rÃ¡n": 3788,
      "Ġpri": 3789,
      "Ġkik": 3790,
      "Ġqu'": 3791,
      "gbáº¹": 3792,
      "áĭĪáĪ°": 3793,
      "Ġmwigizaji": 3794,
      "Ġlin": 3795,
      "Ġndani": 3796,
      "áįĲ": 3797,
      "ĠáĬ¥áĮįáĪŃ": 3798,
      "áī¥áīµ": 3799,
      "ĠáĪĿáĪµ": 3800,
      "Ġáĭ¨áĬ¤": 3801,
      "ĠáĪ¥áĬĲ": 3802,
      "Ġuhuru": 3803,
      "opo": 3804,
      "Ġwaje": 3805,
      "Ġid": 3806,
      "ĠáĪĽáĬķ": 3807,
      "áīĥáĪµ": 3808,
      "áĪĬáĬŃ": 3809,
      "uld": 3810,
      "Walio": 3811,
      "Ġban": 3812,
      "Ġce,": 3813,
      "mÃ¬nÃł": 3814,
      "Ġcour": 3815,
      "Ġthis": 3816,
      "Ġkutokana": 3817,
      "ctober": 3818,
      "thiop": 3819,
      "ĠEle": 3820,
      "áĬĻ": 3821,
      "áĪŃáĪµáī¶áĪµ": 3822,
      "cess": 3823,
      "ology": 3824,
      "ĠáĭĪáĬķáĭĿ": 3825,
      "ĠMed": 3826,
      "eme": 3827,
      "8-": 3828,
      "áĪĿáĬĲáīµ": 3829,
      "Ġfannin": 3830,
      "Ġáīłáī³": 3831,
      "ĠÃĢÃłráº¹": 3832,
      "ĠShi": 3833,
      "ĠZa": 3834,
      "istri": 3835,
      "áĮ£áīµ": 3836,
      "ikuu": 3837,
      "torÃŃ": 3838,
      "ĠFebruari": 3839,
      "áĪįáĮ£áĬķ": 3840,
      "ght": 3841,
      "Ġser": 3842,
      "Ġeniyan": 3843,
      "Ġher": 3844,
      "Ġáī°áī¥áĪİ": 3845,
      "ĠSal": 3846,
      "t,": 3847,
      "ĠTiba": 3848,
      "la,": 3849,
      "Ġá¹£ÃŃ": 3850,
      "Ġá¹£iá¹£áº¹Ìģ": 3851,
      "áĭĭáīĤ": 3852,
      "FA": 3853,
      "part": 3854,
      "Ġyao": 3855,
      "ĠÃłgbÃł": 3856,
      "olly": 3857,
      "ĠáĪįáĮĨáī½": 3858,
      "ĠDis": 3859,
      "chu": 3860,
      "ĠEbun": 3861,
      "sÃ¨": 3862,
      "áĪĪáĬķ": 3863,
      "Ġmutanen": 3864,
      "Ġgirma": 3865,
      "ĠáĬĲáīłáĪ©áį¢": 3866,
      "hed": 3867,
      "oth": 3868,
      "www.": 3869,
      "eli": 3870,
      "asha": 3871,
      "ĠáĭĿáĪŃáĭĿ": 3872,
      "ĠNovemba": 3873,
      "Ġ29": 3874,
      "sÃŃláº¹ÌĢ": 3875,
      "Ġbiyar": 3876,
      "ires": 3877,
      "Ġoloselu": 3878,
      "agor": 3879,
      "áĪįáĪĿ": 3880,
      "ĠáĮŃ": 3881,
      "ĠMad": 3882,
      "ĠSp": 3883,
      "ĠBabban": 3884,
      "24": 3885,
      "Ġ26": 3886,
      "báº¹ÌĢ": 3887,
      "ĠRep": 3888,
      "urn": 3889,
      "áīŃ": 3890,
      "ĠáĬłáįĪ": 3891,
      "Ġone": 3892,
      "Ã³mÃ¬nÃł": 3893,
      "Ġ2011": 3894,
      "Ġinter": 3895,
      "Ġbas": 3896,
      "ĠGer": 3897,
      "erre": 3898,
      "Ġfran": 3899,
      "kawa": 3900,
      "ĠáĮįáī¥": 3901,
      "ben": 3902,
      "di,": 3903,
      "ges": 3904,
      "Ġ2015": 3905,
      "ĠNorth": 3906,
      "ret": 3907,
      "Ġbin": 3908,
      "ser": 3909,
      "ĠOrodha": 3910,
      "áĪ®áĪµ": 3911,
      "Ġkaramar": 3912,
      "ÉĹin": 3913,
      "Ġl'Ã©": 3914,
      "ĠáĪĺáĬķáĮĪáĭµ": 3915,
      "ĠShugaban": 3916,
      "áĮĪáĪ«": 3917,
      "áĪĭáĭį": 3918,
      "asiasa": 3919,
      "ĠRais": 3920,
      "-I": 3921,
      "lÃ©wÃ²": 3922,
      "ispania": 3923,
      "áĪĪáī²áĬ«": 3924,
      "Ġáĭ¨áĬ¢": 3925,
      "Ġáī¥áĪĶ": 3926,
      "ĠSi": 3927,
      "tani": 3928,
      "Äģ": 3929,
      "ĠMag": 3930,
      "risti": 3931,
      "Ġmawa": 3932,
      "ĠáĮ¥áĬĵáīµ": 3933,
      "ĠDem": 3934,
      "ĠDar": 3935,
      "Ġut": 3936,
      "áĭĪáĪĪ": 3937,
      "áĭĪáī½": 3938,
      "adem": 3939,
      "ĠáĮ¥áĬķ": 3940,
      "91": 3941,
      "Ġmis": 3942,
      "Ġdeux": 3943,
      "-M": 3944,
      "Ġwá»į": 3945,
      "ĠBi": 3946,
      "ĠáĪĺáĪŃ": 3947,
      "áĭĬáīµ": 3948,
      "áĮłáīħ": 3949,
      "Ġwho": 3950,
      "Ã§a": 3951,
      "Pa": 3952,
      "áĪµáįĭ": 3953,
      "áĬ¨áīµ": 3954,
      "ĠáĭŃáī£áĪĭáĪįáį¢": 3955,
      "Ġother": 3956,
      "Ġdang": 3957,
      "Ġkilomita": 3958,
      "kand": 3959,
      "ĠrÃ¨": 3960,
      "Ġruwa": 3961,
      "fauti": 3962,
      "áĬĶáī³": 3963,
      "inai": 3964,
      "rop": 3965,
      "ĠYam": 3966,
      "Ġláº¹ÌģyÃ¬n": 3967,
      "ĠgÃŃga": 3968,
      "wana": 3969,
      "ĠáĪ®": 3970,
      "likana": 3971,
      "ĠáĪĪáĪĿ": 3972,
      "áĭĺáĮĭ": 3973,
      "Ġ186": 3974,
      "ĠkÃ¡": 3975,
      "-f": 3976,
      "Ãī": 3977,
      "áĪŁ": 3978,
      "gawa": 3979,
      "LÃ¡": 3980,
      "mÃº": 3981,
      "zu": 3982,
      "Ġsauran": 3983,
      "áĭĭáĬķ": 3984,
      "ido": 3985,
      "áĪĺáĬĵáĭĬ": 3986,
      "ĠáĪīáīĥáĪµ": 3987,
      "gÃ¡": 3988,
      "ĠbÃł": 3989,
      "dini": 3990,
      "gra": 3991,
      "Ġca": 3992,
      "Ġáī°áĪ°": 3993,
      "jeo": 3994,
      "3-": 3995,
      "Ġmais": 3996,
      "áĪ¾": 3997,
      "Ġwilaya": 3998,
      "áĪ¨áĪĿ": 3999,
      "Ġrayuwa": 4000,
      "Ġrasmi": 4001,
      "ĠâĢ¢": 4002,
      "Ġise": 4003,
      "Ġáīłáĭ¨": 4004,
      "Ġáĭ¨áĪķ": 4005,
      "hÃ¹n": 4006,
      "áĪĽáĬķ": 4007,
      "áĭķáĪ«áī¥": 4008,
      "Ġtena": 4009,
      "ature": 4010,
      "90": 4011,
      "Ġnu": 4012,
      "Ġgi": 4013,
      "Ġmusul": 4014,
      "al,": 4015,
      "áįĪáĪį": 4016,
      "Ġáĭ¨áĬłáĪľáĪªáĬ«": 4017,
      "'est": 4018,
      "-C": 4019,
      "arÃŃ": 4020,
      "ce,": 4021,
      "27": 4022,
      "ĠCollege": 4023,
      "Ġáīłáĭĵ": 4024,
      "ĠáīħáĪŃ": 4025,
      "por": 4026,
      "kÃŃ": 4027,
      "ĠmÃ¬ÃŃ": 4028,
      "áįİáī½": 4029,
      "ĠPort": 4030,
      "ĠáĬ¥áĬķáĮĤ": 4031,
      "dÃłn": 4032,
      "hel": 4033,
      "Ġbaba": 4034,
      "ÙĪ": 4035,
      "ĠolÃ³rin": 4036,
      "gen": 4037,
      "Ġact": 4038,
      "Ġjo": 4039,
      "Ġáĭ¨áĪļáĪĪáĭį": 4040,
      "á»įÌģá»įÌĢ": 4041,
      "mbo": 4042,
      "hidi": 4043,
      "ĠSte": 4044,
      "ĠáĬ¨áĬ¥": 4045,
      "ĠFebruary": 4046,
      "Ġses": 4047,
      "Ġ(D": 4048,
      "Ġá»įÌĢkan": 4049,
      "ĠEx": 4050,
      "Ġhai": 4051,
      "ĠáĮīáĭ³": 4052,
      "Ġhukumomin": 4053,
      "ino": 4054,
      "báº¹Ìģ": 4055,
      "á»įÌĢrá»įÌĢ": 4056,
      "ĠáĭĪáĭŃ": 4057,
      "ĠáĬŃáĪį": 4058,
      "Ġasili": 4059,
      "-Ãł": 4060,
      "d,": 4061,
      "ander": 4062,
      "ĠNovember": 4063,
      "kashin": 4064,
      "Ġ(áīł": 4065,
      "áĬĲáĪ³": 4066,
      "uly": 4067,
      "omen": 4068,
      "Ġaji": 4069,
      "yoyi": 4070,
      "ĠáĬķáĮį": 4071,
      "ĠmÃ¬ÃŃrÃłn": 4072,
      "ikana": 4073,
      "sÃł": 4074,
      "Ġkarni": 4075,
      "Am": 4076,
      "ĠAnna": 4077,
      "kw": 4078,
      "Ġáĭ¨áīµ": 4079,
      "ĠáĮĮ": 4080,
      "ĠáĬ¥áĬķáĭ²áĪħ": 4081,
      "ĠáĭŃáī³áĭĪáīĥ": 4082,
      "Ġshu": 4083,
      "áĪİáīµ": 4084,
      "as,": 4085,
      "lejin": 4086,
      "ĠáĭŃáīĢ": 4087,
      "ĠáīµáĬķ": 4088,
      "Ġilimi": 4089,
      "attalin": 4090,
      "ĠobÃ¬nrin": 4091,
      "áī¥áĪ¨áīµ": 4092,
      "ĠáĪģáĪĪ": 4093,
      "Ġtsarin": 4094,
      "ĠáįķáĪ¬": 4095,
      "Ġyamma": 4096,
      "Ġlashe": 4097,
      "ĠáĪķáĭĿáī¥": 4098,
      "jáº¹ÌĢ": 4099,
      "wezi": 4100,
      "âĢĻa": 4101,
      "ĠdÃ¡ra": 4102,
      "ĠFrance": 4103,
      "Ġ2007": 4104,
      "Ġdigiri": 4105,
      "Ġmkubwa": 4106,
      "áĪµáĬķ": 4107,
      "ĠKik": 4108,
      "Ġkuli": 4109,
      "áĬŃáĪī": 4110,
      "áĭĪáĮ£": 4111,
      "Ġáī³áĪªáĬ«áĭĬ": 4112,
      "amuziki": 4113,
      "ime": 4114,
      "zer": 4115,
      "Ġver": 4116,
      "ĠilÃ©-": 4117,
      "Ġwh": 4118,
      "Ġ2006": 4119,
      "way": 4120,
      "ĠKatsina": 4121,
      "Ġacc": 4122,
      "ĠáĪĺáĮ¨áĪ¨áĪ»": 4123,
      "'ad": 4124,
      "ĠIbadan": 4125,
      "Ġinclu": 4126,
      "ures": 4127,
      "áĬĲáī±": 4128,
      "ily": 4129,
      "Ġeyi": 4130,
      "Ġá¹£Ãł": 4131,
      "dÃºgbÃ²": 4132,
      "Ġtit": 4133,
      "uring": 4134,
      "áĪĺáĭį": 4135,
      "áĪ¨áĪ°": 4136,
      "dá»įÌĢ": 4137,
      "Ġomi": 4138,
      "kata": 4139,
      "45": 4140,
      "in.": 4141,
      "áĪŃáī²": 4142,
      "Ġpers": 4143,
      "ĠáīłáĬĲ": 4144,
      "rie": 4145,
      "ĠTazama": 4146,
      "ĠipÃ²": 4147,
      "lack": 4148,
      "ury": 4149,
      "ombe": 4150,
      "ĠAlakoso": 4151,
      "ĠCor": 4152,
      "ĠáĬĲáĭįáį¡áį¡": 4153,
      "ĠáĬĵáī¸áĭį": 4154,
      "-O": 4155,
      "c.": 4156,
      "Ġ(O": 4157,
      "26": 4158,
      "áĭįáĪ®áįĵ": 4159,
      "Ġolo": 4160,
      "Ġ(G": 4161,
      "ĠáĭĿáĪŃáĭĿáĪŃ": 4162,
      "áīłáĪ©áīµ": 4163,
      "tions": 4164,
      "ical": 4165,
      "¶áį": 4166,
      "áĪĺáĭµ": 4167,
      "áĬ¨áī°áĪĽ": 4168,
      "t.": 4169,
      "Ġtáº¹ÌĢ": 4170,
      "Ġ2010": 4171,
      "sÃ¬kÃ²": 4172,
      "Ġlá»įÌģwá»įÌģ": 4173,
      "umb": 4174,
      "Ġba.": 4175,
      "wanda": 4176,
      "áī°áĬķ": 4177,
      "ĠÆĺ": 4178,
      "A.": 4179,
      "Ġile-": 4180,
      "Ġwote": 4181,
      "áĬĵáī¸áĭį": 4182,
      "ĠáīłáĬ©": 4183,
      "Ġmusamman": 4184,
      "Ġkwaikwayo": 4185,
      "-da": 4186,
      "70": 4187,
      "men": 4188,
      "ĠEthiop": 4189,
      "ĠBahari": 4190,
      "Ġagbegbe": 4191,
      "áĬĵáĪįáį¢": 4192,
      "ĠáĮĬ": 4193,
      "áĪĺáĪį": 4194,
      "Ġáįĭ": 4195,
      "ĠáĪģáĬĶáī³": 4196,
      "Ġlá»įÌģdÃºn": 4197,
      "Ġhtt": 4198,
      "ĠYar": 4199,
      "htt": 4200,
      "vement": 4201,
      "áī¤áī°": 4202,
      "Ø±": 4203,
      "Ġkila": 4204,
      "áĪ«áĪ²": 4205,
      "kiya": 4206,
      "Ġáĭ¨áĬ¥áĪµ": 4207,
      "Ã©,": 4208,
      "iter": 4209,
      "Ġ(p": 4210,
      "28": 4211,
      "Ġ(J": 4212,
      "áĮĦ": 4213,
      "Ġáī»": 4214,
      "ĠOctober": 4215,
      "Ġ2012": 4216,
      "Ġd'un": 4217,
      "Ġ2014": 4218,
      "29": 4219,
      "-m": 4220,
      "ing,": 4221,
      "angan": 4222,
      "Ġvile": 4223,
      "Ġtáº¹Ìģláº¹ÌĢ": 4224,
      "Ġsyst": 4225,
      "ugu": 4226,
      "iru": 4227,
      "Ġtaima": 4228,
      "tokea": 4229,
      "ĠáĬĲáĮ»": 4230,
      "Ġsub": 4231,
      "Ġáī±": 4232,
      "Ġmaa": 4233,
      "áĪħáĬķ": 4234,
      "Ġentre": 4235,
      "Ġbila": 4236,
      "ĠÃī": 4237,
      "áĭ«áĭĬ": 4238,
      "áĪĪáī½": 4239,
      "áĪĪáĪĽ": 4240,
      "ĠáĪĺáĪįáĬŃ": 4241,
      "Ġkamfanin": 4242,
      "ĠMajalisar": 4243,
      "col": 4244,
      "Ġfáº¹Ìģ": 4245,
      "itt": 4246,
      "rew": 4247,
      "ĠáĮįáĭµáĪĿ": 4248,
      "áĪ¶áī½": 4249,
      "ĠáĪļáĬĴ": 4250,
      "illa": 4251,
      "ĠMon": 4252,
      "ĠPo": 4253,
      "Tare": 4254,
      "ĠMto": 4255,
      "kua": 4256,
      "Ġbeen": 4257,
      "ĠáįĪáĪŃ": 4258,
      "Ġarewa": 4259,
      "Ġsiyasa": 4260,
      "rid": 4261,
      "Ġmama": 4262,
      "ĠÃ¬gbÃ©": 4263,
      "ollywood": 4264,
      "alu": 4265,
      "Ġutawala": 4266,
      "áĭļáīĥ": 4267,
      "kur": 4268,
      "ĠOb": 4269,
      "jÃ²": 4270,
      "ĠOba": 4271,
      "ĠáĬŃáĪŃáĪµáī²áĭ«áĬķ": 4272,
      "tÃłkÃ¬": 4273,
      "ĠÃģf": 4274,
      "ed.": 4275,
      "eman": 4276,
      "ki.": 4277,
      "ĠAlex": 4278,
      "ĠIII": 4279,
      "áĬĵáĬķ": 4280,
      "Ġzaman": 4281,
      "ĠFizikia": 4282,
      "ĠNÃŃ": 4283,
      "áĭĭáĬĵ": 4284,
      "ĠáĬłáĪĺáīµ": 4285,
      "ĠolÃº": 4286,
      "unifÃ¡": 4287,
      "ers,": 4288,
      "Ġlambar": 4289,
      "Ġáĭ¨áī£": 4290,
      "Ġjagor": 4291,
      "ĠáĬĲáĮĪáĪ®áī½": 4292,
      "ĠFaransa": 4293,
      "Ġidadi": 4294,
      "Ġ|-": 4295,
      "ĠAdÃ©": 4296,
      "ĠDu": 4297,
      "ĠHot": 4298,
      "áĪģáĬķ": 4299,
      "ĠKiingereza": 4300,
      "áī´áĭİáĪµ": 4301,
      "tive": 4302,
      "arch": 4303,
      "Ġá¹¢": 4304,
      "áĬ¸": 4305,
      "Ġayyukan": 4306,
      "Ġsani": 4307,
      "Ġáīłáĭį": 4308,
      "Ġkarkashin": 4309,
      "Ġáī¢áĪĨáĬķ": 4310,
      "tim": 4311,
      "amad": 4312,
      "ov": 4313,
      "||": 4314,
      "ĠáĭĺáĪŃ": 4315,
      "julikana": 4316,
      "Ġ(E": 4317,
      "ĠÃģfrÃŃkÃł": 4318,
      "ulation": 4319,
      "ĠCent": 4320,
      "keo": 4321,
      "Ita": 4322,
      "h,": 4323,
      "ĠáĭŃáĪĺáĪµ": 4324,
      "Ġkazi": 4325,
      "áī»áī¸áĭį": 4326,
      "Ġáĭ¨áĪĽáĭŃ": 4327,
      "ĠQu": 4328,
      "dá»įÌģ": 4329,
      "Ġmá»į": 4330,
      "score0": 4331,
      "Ka": 4332,
      "Ð°": 4333,
      "ancin": 4334,
      "ĠKati": 4335,
      "Ġjari": 4336,
      "ely": 4337,
      "ĠYo": 4338,
      "Ġá»įÌĢrá»įÌĢ": 4339,
      "áĮĪáĭ°": 4340,
      "Ġáĭ«áĪħáĪį": 4341,
      "yansi": 4342,
      "ffun": 4343,
      "ĠáĭŃáĮĪáĬĽáĪįáį¢": 4344,
      "Ġ0": 4345,
      "Ġasa": 4346,
      "Ġdir": 4347,
      "my": 4348,
      "pÃ¨": 4349,
      "áĪĤ": 4350,
      "ye-": 4351,
      "ĠáĭŃáĪħáĪĿ": 4352,
      "tab": 4353,
      "ĠAbdul": 4354,
      "Ġapa": 4355,
      "áīłáĬł": 4356,
      "Ġáįª": 4357,
      "Ġhukuma": 4358,
      "lor": 4359,
      "bÃłdÃłn": 4360,
      "atan": 4361,
      "ĠáĪ¦": 4362,
      "Ġbang": 4363,
      "Ġidi": 4364,
      "ĠáĭŃáĪĨ": 4365,
      "ĠáīłáĪĻ": 4366,
      "ĠMarch": 4367,
      "ĠáĭµáĪŃáĮħ": 4368,
      "Ki": 4369,
      "Ġmod": 4370,
      "Ġá¹£Ã¹gbá»įÌģn": 4371,
      "ĠÃ²á¹£erÃ©": 4372,
      "Ġinto": 4373,
      "Ġsim": 4374,
      "ĠAir": 4375,
      "yyun": 4376,
      "ĠTura": 4377,
      "Ġkn": 4378,
      "áįĶ": 4379,
      "umma": 4380,
      "áĮłáĭį": 4381,
      "Ġkayan": 4382,
      "Ġasalin": 4383,
      "ongozi": 4384,
      "áī·áĪįáį¢": 4385,
      "p://www.": 4386,
      "Ġdali": 4387,
      "kiwa": 4388,
      "adhi": 4389,
      "Ġfilm": 4390,
      "Itokasi": 4391,
      "pÃ¹": 4392,
      "gbÃ¬": 4393,
      "ĠFasihi": 4394,
      "ci,": 4395,
      "áĮĢáĪŃáĪĺáĬķ": 4396,
      "Vi": 4397,
      "endo": 4398,
      "ondo": 4399,
      "ĠDel": 4400,
      "ĠáĬ¡": 4401,
      "Ġcal": 4402,
      "áĪĺáĮ£": 4403,
      "ĠáĬ¥áĬĲ": 4404,
      "áĬ¥áĬķáĮįáĪĬáĭĿáĬĽ": 4405,
      "Ġsunan": 4406,
      "ifaffun": 4407,
      "tomon": 4408,
      "ĠnÃ¬": 4409,
      "ÃŃnÃŃ": 4410,
      "Ġmalla": 4411,
      "Ġ(L": 4412,
      "ĠáĪĺáĮĢáĪĺáĪŃáĭ«": 4413,
      "ko,": 4414,
      "ĠRoma,": 4415,
      "Na": 4416,
      "Ġfe": 4417,
      "yika": 4418,
      "-áĬł": 4419,
      "is.": 4420,
      "Ġwat": 4421,
      "ĠáĭŃáĭĺ": 4422,
      "Ġhak": 4423,
      "áįĪáĮ¥": 4424,
      "ĠAcadem": 4425,
      "Ġ(s": 4426,
      "Ġmn": 4427,
      "ĠUganda": 4428,
      "ĠÃłgbÃ©lÃ©wÃ²": 4429,
      "Ġbisa": 4430,
      "Ġprin": 4431,
      "ete": 4432,
      "ĠáĪĿáĬķáĪĿ": 4433,
      "0,000": 4434,
      "ĠáĪĿáĬķáĮ®áī½": 4435,
      "Ġd'a": 4436,
      "ĠTari": 4437,
      "Ġnau": 4438,
      "anisha": 4439,
      "ÃºsÃ¹": 4440,
      "Ġiá¹£": 4441,
      "ĠPi": 4442,
      "ĠáīłáĪ½": 4443,
      "Ġkifo": 4444,
      "-S": 4445,
      "arci": 4446,
      "Ġmot": 4447,
      "Ġkwallon": 4448,
      "aux": 4449,
      "áĪĽáĬĸáīµ": 4450,
      "Ġpres": 4451,
      "ĠPl": 4452,
      "âĢĻar": 4453,
      "ĠSun": 4454,
      "ĠAbi": 4455,
      "ĠAmerika.": 4456,
      "áĪ·": 4457,
      "áĬķáĭ±": 4458,
      "áĪĺáĪ°": 4459,
      "áĪĭáĪ´": 4460,
      "ĠáĪĿáĪŃ": 4461,
      "Ġáĭĭáī¢": 4462,
      "tÃ¡": 4463,
      "ĠAlÃ¡": 4464,
      "gne": 4465,
      "áĬķáĭ°": 4466,
      "ĠKananan": 4467,
      "Ġkup": 4468,
      "ĠGir": 4469,
      "sin": 4470,
      "ĠáĪł": 4471,
      "Ġlar": 4472,
      "Ġnada": 4473,
      "ĠnÃŃtorÃŃ": 4474,
      "Ġ185": 4475,
      "ĠNaijiria.": 4476,
      "áĮĪáĪį": 4477,
      "Ġáĭ¨áĬ«": 4478,
      "Ġáĭ¨áī°áĪ°": 4479,
      "huwar": 4480,
      "ĠáĭŃáĪħáĬķ": 4481,
      "áĬ¥áĬķáĭ°": 4482,
      "ĠSaint": 4483,
      "ĠAwards": 4484,
      "Ġojo": 4485,
      "ĠalÃłÃł": 4486,
      "Ġshirin": 4487,
      "Ġbiashara": 4488,
      "gbÃ¡yÃ©": 4489,
      "ĠalÃłÃłyÃ¨": 4490,
      "sÃ³": 4491,
      "ilu": 4492,
      "Ġused": 4493,
      "Ġdari": 4494,
      "Ar": 4495,
      "ĠDola": 4496,
      "199": 4497,
      "ID": 4498,
      "·áį": 4499,
      "áĬŃáĪŃ": 4500,
      "ĠHo": 4501,
      "áīłáĪĪ": 4502,
      "ĠKudu": 4503,
      "Ġtsohon": 4504,
      "ania.": 4505,
      "ĠOri": 4506,
      "Ġd'une": 4507,
      "yÃłwÃ³": 4508,
      "ĠpÃłtÃłkÃ¬": 4509,
      "Ġwe": 4510,
      "iste": 4511,
      "Ġkuhusu": 4512,
      "Ġ2.": 4513,
      "ĠáĪĺáĪĨáĬĳ": 4514,
      "Ġambao": 4515,
      "Ġkara": 4516,
      "hÃłn": 4517,
      "wá»įÌĢn": 4518,
      "Ġyabo": 4519,
      "á»ĮÌĢ": 4520,
      "ler": 4521,
      "áīłáĪĺ": 4522,
      "vernment": 4523,
      "S.": 4524,
      "káº¹Ìģ": 4525,
      "hem": 4526,
      "Ġhata": 4527,
      "Ġvo": 4528,
      "ĠáĮ½áĪĳ": 4529,
      "ĠáĪĽáĪŃáīĨ": 4530,
      "Ġ2013": 4531,
      "As": 4532,
      "badi": 4533,
      "Ġyo": 4534,
      "Ġede": 4535,
      "Ġnjia": 4536,
      "yayyun": 4537,
      "Ġciki": 4538,
      "ĠÃ¬bÃŃláº¹ÌĢ": 4539,
      "ages": 4540,
      "ĠKanisa": 4541,
      "ĠLondon": 4542,
      "istory": 4543,
      "Ġchi": 4544,
      "ĠRu": 4545,
      "himu": 4546,
      "1892": 4547,
      "ĠáĪ¥áĪŃáĭĪ": 4548,
      "ĠkÃ¬": 4549,
      "alis": 4550,
      "Ġ2003": 4551,
      "lie": 4552,
      "indi": 4553,
      "ĠáĪµáĪĻ": 4554,
      "cer": 4555,
      "ĠAsi": 4556,
      "Ġ2,": 4557,
      "Ġ2005": 4558,
      "ĠáĮłáĪ": 4559,
      "ĠáĪĺáĭµ": 4560,
      "áĭ³áĪŃ": 4561,
      "ĠKiswahili": 4562,
      "ĠáĪłáĪ«": 4563,
      "ĠdÃł": 4564,
      "chni": 4565,
      "ĠáĬħ": 4566,
      "ari,": 4567,
      "áĭ¨áĪ±": 4568,
      "Ġ'yar": 4569,
      "Ġ'Yan": 4570,
      "6-": 4571,
      "ford": 4572,
      "35": 4573,
      "kri": 4574,
      "ji,": 4575,
      "áĭ¨áĪĿ": 4576,
      "Ġáĭ°áĪ´": 4577,
      "Ġmasa": 4578,
      "huo": 4579,
      "Ġten": 4580,
      "ĠáĪĤ": 4581,
      "ences": 4582,
      "Ġjerin": 4583,
      "ĠáĬłáĪ³": 4584,
      "ĠØ§": 4585,
      "ĠAll": 4586,
      "ĠnÃ¡Ãł,": 4587,
      "Ġá»ĮdÃºn": 4588,
      "-áº¹ÌĢyáº¹": 4589,
      "áĬĵáĭĬ": 4590,
      "áĪĭáĪĽ": 4591,
      "Ġáĭ¨áĪ¥": 4592,
      "ĠáĪĿáĪįáĬŃ": 4593,
      "Ġvisiwa": 4594,
      "vie": 4595,
      "gent": 4596,
      "ji.": 4597,
      "ation.": 4598,
      "Ġláº¹Ìģ": 4599,
      "ĠIle": 4600,
      "onge": 4601,
      "ach": 4602,
      "Ġáį¤": 4603,
      "áĭļáĪģ": 4604,
      "áįĪáĪ¨áĬķáĪ³áĭŃ": 4605,
      "Ġpos": 4606,
      "ĠISBN": 4607,
      "ká»įÌĢwÃ©": 4608,
      "Ġmace": 4609,
      "asaha": 4610,
      "áĪ¡": 4611,
      "iran": 4612,
      "phy": 4613,
      "-B": 4614,
      "fáº¹ÌĢ": 4615,
      "hal": 4616,
      "bakar": 4617,
      "ĠáĪĺáĪª": 4618,
      "ĠáĭŃáĪ°": 4619,
      "ĠHistoria": 4620,
      "ĠolÃ³á¹£Ã¨lÃº": 4621,
      "Ġmajalisar": 4622,
      "Ġosere": 4623,
      "Ġá»įÌĢpá»įÌĢlá»įpá»įÌĢ": 4624,
      "tr": 4625,
      "áĪ¯": 4626,
      "ĠáĬĴ": 4627,
      "ĠáĬĸ": 4628,
      "Ġlu": 4629,
      "ĠáĭĪáĪ¨áĭ³": 4630,
      "ĠáĭĪáĮĪáĬķ": 4631,
      "ĠdÃ©c": 4632,
      "ĠáĬłáĪĪáīĥ": 4633,
      "AN": 4634,
      "ĠdÃº": 4635,
      "Ġlanguage": 4636,
      "mer": 4637,
      "enne": 4638,
      "Ġ(n": 4639,
      "Ġkusa": 4640,
      "ĠGeorge": 4641,
      "anti": 4642,
      "ĠMungu": 4643,
      "Ġmasana": 4644,
      "áĭķáĪį": 4645,
      "áĪłáĪ«": 4646,
      "ĠYamma": 4647,
      "ĠKya": 4648,
      "row": 4649,
      "198": 4650,
      "Ġafter": 4651,
      "ĠáĮħ": 4652,
      "Ġyara": 4653,
      "ĠMusulunci": 4654,
      "yana": 4655,
      "tudi": 4656,
      "wÃ¹": 4657,
      "ĠÎ": 4658,
      "ĠAwá»įn": 4659,
      "Ġpi": 4660,
      "rahim": 4661,
      "Ġnyingine": 4662,
      "vuti": 4663,
      "ĠáĬłáĪ¸": 4664,
      "Ġkaratu": 4665,
      "Ġkawaida": 4666,
      "Ġnam": 4667,
      "Ġ(a": 4668,
      "unge": 4669,
      "áĪĪáī½áį¢": 4670,
      "gbara": 4671,
      "Ġyote": 4672,
      "ĠáĭķáĪĪ": 4673,
      "entomon": 4674,
      "ĠÃ¬l": 4675,
      "sai": 4676,
      "ĠAustra": 4677,
      "yd": 4678,
      "atum": 4679,
      "áĭĳ": 4680,
      "Ġdini": 4681,
      "áī¶áī½áĬķ": 4682,
      "ĠáĪ´áīµ": 4683,
      "ĠMutane": 4684,
      "Hi": 4685,
      "ĠowÃ³": 4686,
      "Ã¡Ã¬sÃŃ": 4687,
      "ĠKongo": 4688,
      "ĠGÃ³mÃ¬nÃł": 4689,
      "Ġmbili": 4690,
      "Ġáĭ¨áĭĺ": 4691,
      "ĠáĬłáĮ¥": 4692,
      "kunan": 4693,
      "áĮįáī¥áĮ½": 4694,
      "Ġl'a": 4695,
      "ĠPeople": 4696,
      "gá»įÌģ": 4697,
      "ĠapÃ¡": 4698,
      "dÃŃnlÃ³gÃºn": 4699,
      "Ġcor": 4700,
      "áĪĺáĪ«": 4701,
      "áĮĪáī¥": 4702,
      "Ġáī³áĭĭáīĤ": 4703,
      "Ġáīłáī°áĪĪáĭŃ": 4704,
      "fika": 4705,
      "Ãªme": 4706,
      "ĠáĪº": 4707,
      "ĠáĬ¥áĭį": 4708,
      "ĠIjoba": 4709,
      "áĮĪáīł": 4710,
      "ĠWas": 4711,
      "áĭ²áĪħ": 4712,
      "áĬ®áī½": 4713,
      "ĠfranÃ§a": 4714,
      "da.": 4715,
      "áĮ¦áĪŃ": 4716,
      "ĠáīłáĪĮ": 4717,
      "Ġbahari": 4718,
      "ĠHaifaffun": 4719,
      "ĠáĬŃáįįáĪĭ": 4720,
      "ĠApril": 4721,
      "Ġn.k.": 4722,
      "ĠTan": 4723,
      "Ġif": 4724,
      "arly": 4725,
      "ista": 4726,
      "ĠKil": 4727,
      "ĠáīłáĮ¥": 4728,
      "áĪ°áĬķ": 4729,
      "ÆĻa": 4730,
      "ĠáĬłáĭŃáĭ°": 4731,
      "day": 4732,
      "It": 4733,
      "Ġonimo": 4734,
      "kumbu": 4735,
      "ĠEnglish": 4736,
      "Ġmost": 4737,
      "ĠBBC": 4738,
      "alÃ¡Ã¬sÃŃ": 4739,
      "Ġilimin": 4740,
      "áĬ¹": 4741,
      "ĠáĬłáĭ°": 4742,
      "to,": 4743,
      "arautar": 4744,
      "áĪ³áī¸áĭį": 4745,
      "ĠKemia": 4746,
      "yal": 4747,
      "ando": 4748,
      "Ä«": 4749,
      "ĠMart": 4750,
      "ĠEs": 4751,
      "Ġmwanamuziki": 4752,
      "ĠwaÉĹanda": 4753,
      "ubu": 4754,
      "Ġtwo": 4755,
      "ourn": 4756,
      "ye.": 4757,
      "ĠáīĢáĮ¥": 4758,
      "burg": 4759,
      "-Ãºn": 4760,
      "cle": 4761,
      "ĠPas": 4762,
      "darÃŃ": 4763,
      "Ã¼": 4764,
      "ky": 4765,
      "ĠáīłáĪģ": 4766,
      "áįĪáĪµ": 4767,
      "áĪķáĪŃ": 4768,
      "Ġmagharibi": 4769,
      "Ġrais": 4770,
      "áįĳ": 4771,
      "áĪĺáī±": 4772,
      "áĪ¨áī¥": 4773,
      "áĮ¥áĪ¨": 4774,
      "Ġzote": 4775,
      "ties": 4776,
      "orÃŃ": 4777,
      "ĠHer": 4778,
      "tal": 4779,
      "Ġ2018": 4780,
      "Ġtafi": 4781,
      "áĭµáĪ¨áĮį": 4782,
      "ital": 4783,
      "Ġcer": 4784,
      "ĠBal": 4785,
      "Ġreli": 4786,
      "ĠáĪ»": 4787,
      "ĠOpen": 4788,
      "áįĪáīµ": 4789,
      "Ġ1999": 4790,
      "áĪĿáĪħáĪŃ": 4791,
      "ĠáĬ¥áĬķáĮįáĪĬáĭĿ": 4792,
      "Awon": 4793,
      "Ġoffi": 4794,
      "Ġkun": 4795,
      "Ġaut": 4796,
      "isto": 4797,
      "Ġer": 4798,
      "ģáĬĳ": 4799,
      "áĮłáĪ©": 4800,
      "ĠáĬłáĮĪáĪįáĮį": 4801,
      "ving": 4802,
      "Ġ2016": 4803,
      "áĪ¨áĮĭ": 4804,
      "Ġhudu": 4805,
      "tumia": 4806,
      "ĠáĬ¥áĭ¨áī°": 4807,
      "Ġsome": 4808,
      "the": 4809,
      "irÃŃ": 4810,
      "ĠÃ¬á¹£": 4811,
      "á¹£áº¹ÌĢláº¹ÌĢ": 4812,
      "haa": 4813,
      "ĠSw": 4814,
      "ilia": 4815,
      "áĮłáĬĵ": 4816,
      "Ġhaifi": 4817,
      "ĠAsia": 4818,
      "Ġmagana": 4819,
      "vir": 4820,
      "Ġlab": 4821,
      "jÃ³": 4822,
      "ĠJames": 4823,
      "ĠSud": 4824,
      "/)": 4825,
      "ĠLes": 4826,
      "Ġrel": 4827,
      "ĠHukum": 4828,
      "Awá»įn": 4829,
      "ide": 4830,
      "áĬĹ": 4831,
      "ĠkÃł": 4832,
      "ather": 4833,
      "Ġegbe": 4834,
      "sÃŃtÃ¬": 4835,
      "ĠRayayyun": 4836,
      "ines": 4837,
      "rent": 4838,
      "75": 4839,
      "Ġsign": 4840,
      "Ġ(R": 4841,
      "el,": 4842,
      "âĢº": 4843,
      "ĠFI": 4844,
      "elles": 4845,
      "Ġfarkon": 4846,
      "ĠKaskazini": 4847,
      "Ġhalarci": 4848,
      "Â²": 4849,
      "ĠÃ¬dÃ¡": 4850,
      "kiti": 4851,
      "DP": 4852,
      "ĠáĬ¥áĬĲáĭļáĪħ": 4853,
      "áĭ°áĮį": 4854,
      "eph": 4855,
      "Ġmwenye": 4856,
      "ĠBritish": 4857,
      "lem": 4858,
      "ĠPaul": 4859,
      "ject": 4860,
      "kiri": 4861,
      "áĬĥ": 4862,
      "196": 4863,
      "kia": 4864,
      "yama": 4865,
      "ĠÃłÃł": 4866,
      "anna": 4867,
      "Ġkáº¹rin": 4868,
      "sent": 4869,
      "áī£áĭĬ": 4870,
      "ĠÃĮbÃłdÃłn": 4871,
      "To": 4872,
      "áį²áį": 4873,
      "Ġshuga": 4874,
      "ĠlÃ²": 4875,
      "ĠáĪĽáī´áĭİáĪµ": 4876,
      "Ġharshen": 4877,
      "Ġnew": 4878,
      "itin": 4879,
      "ĠEurope": 4880,
      "´áį": 4881,
      "ĠáĬ¬": 4882,
      "Ġaussi": 4883,
      "Ġsc": 4884,
      "áī½áĭį": 4885,
      "ĠáĪµáīµ": 4886,
      "Ġáĭįáĭµ": 4887,
      "áĪ±áĪĿ": 4888,
      "Tana": 4889,
      "vis": 4890,
      "stit": 4891,
      "Ġgen": 4892,
      "ĠNchi": 4893,
      "ĪáĪĿ": 4894,
      "Ġáĭ´": 4895,
      "Ġpwani": 4896,
      "áĮĭáĪį": 4897,
      "ÙĲ": 4898,
      "Ã¨me": 4899,
      "ĠLib": 4900,
      "Un": 4901,
      "aria": 4902,
      "ĠYan": 4903,
      "Ġcutar": 4904,
      "ĠáĪĺáĬĲ": 4905,
      "Ġwakil": 4906,
      "Ġrubuta": 4907,
      "ĠáĭķáĪĪáī³áīµ": 4908,
      "Ġndi": 4909,
      "sition": 4910,
      "ambu": 4911,
      "dhi": 4912,
      "Ġgbe": 4913,
      "ga,": 4914,
      "ĠJuly": 4915,
      "áĪŃáĭ«áĪĿ": 4916,
      ")áį£": 4917,
      "dent": 4918,
      "yer": 4919,
      "ĠáĪĺáĭĿ": 4920,
      "áĪ«áĪīáį¢": 4921,
      "Ġlokaci": 4922,
      "Ġtarihi": 4923,
      "pport": 4924,
      "ĠHen": 4925,
      "chn": 4926,
      "us.": 4927,
      "Agbegbe": 4928,
      "ĠMusa": 4929,
      "ĠMkoa": 4930,
      "áĭ¨áĬł": 4931,
      "Ġráº¹ÌĢ,": 4932,
      "ĠKiarabu": 4933,
      "Ġgwamnatin": 4934,
      "Ġfit": 4935,
      "ption": 4936,
      "Ġmore": 4937,
      "Ġáį³áį": 4938,
      "áįĵáĬķ": 4939,
      "Ġigb": 4940,
      "Ġá»įba": 4941,
      "Ġakoko": 4942,
      "34": 4943,
      "gon": 4944,
      "xt": 4945,
      "ye,": 4946,
      "Ġ(W": 4947,
      "ĠÃ©tÃ©": 4948,
      "CO": 4949,
      "Ġnipa": 4950,
      "ĠFM": 4951,
      "áº¹ÌĢáº¹ÌģsÃ¬": 4952,
      "ĠilÃ©-iá¹£áº¹Ìģ": 4953,
      "yari": 4954,
      "Ġbinc": 4955,
      "áĮĪáĭį": 4956,
      "ataifa": 4957,
      "ĠáĮ¥áĬķáī³áĭĬ": 4958,
      "Ġnum": 4959,
      "ÃºÃºsÃ¹": 4960,
      "Ġkisiwa": 4961,
      "Éĵa": 4962,
      "ĠIbile": 4963,
      "gram": 4964,
      "arab": 4965,
      "ĠáīĢáĬĵáīµ": 4966,
      "Ġsous": 4967,
      "yáº¹yáº¹": 4968,
      "Ġmad": 4969,
      "Ġbet": 4970,
      "kÃ©": 4971,
      "Ġvol": 4972,
      "Ġuti": 4973,
      "wiki": 4974,
      "áĮĪáĪª": 4975,
      "Ġáĭ¨áĪĻ": 4976,
      "ĠáĬłáĪģáĬķ": 4977,
      "áĭ®áĪŃ": 4978,
      "ĠMarejeo": 4979,
      "Ġfait": 4980,
      "Ġzamani": 4981,
      "Ġabubu": 4982,
      "Ġover": 4983,
      "ĠWá»įÌģn": 4984,
      "yp": 4985,
      "ĠVol": 4986,
      "tical": 4987,
      "Ġáīł18": 4988,
      "áĪĽáī½": 4989,
      "áĭ³áĪĿ": 4990,
      "áĪ©áīµ": 4991,
      "ie": 4992,
      "zil": 4993,
      "berg": 4994,
      "Ġáº¹ÌĢyáº¹": 4995,
      "Ġiwe": 4996,
      "ĠáĭĵáĪĪáĪĿ": 4997,
      "ĠáīłáĬłáĬķáĭµ": 4998,
      "Ġpili": 4999,
      "ĠØ§ÙĦ": 5000,
      "ĠPr": 5001,
      "papá»įÌĢ": 5002,
      "ĠMakar": 5003,
      "áĭ®áĪµ": 5004,
      "áĪ»áĭİáī½": 5005,
      "áī»áĭŃáĬĵ": 5006,
      "ĠYoruba": 5007,
      "ĠáĪŀáīµ": 5008,
      "áĪŃáĪµáī²áĭ«": 5009,
      "ĠáįĵáĪŃáī²": 5010,
      "On": 5011,
      "Ġ1960": 5012,
      "aso": 5013,
      "stitu": 5014,
      "ĠAba": 5015,
      "Ġshirya": 5016,
      "Tarehe": 5017,
      "-K": 5018,
      "ĠAdam": 5019,
      "Ġnombre": 5020,
      "ĠLove": 5021,
      "Ġneman": 5022,
      "áįĦ": 5023,
      "áĪĽáĪŃ": 5024,
      "Ġba,": 5025,
      "ĠáĭĪáĪ¨": 5026,
      "áĭĪáĪŃ": 5027,
      "áįĪáĪĪ": 5028,
      "ĠKwalejin": 5029,
      "ojÃº": 5030,
      ".,": 5031,
      "48": 5032,
      "Ġ2017": 5033,
      "ĠSara": 5034,
      "Ġáīłáīµ": 5035,
      "áī³áī¸áĭįáĬķ": 5036,
      "adin": 5037,
      "und)": 5038,
      "ĠáĬłáĬķáĭ³": 5039,
      "dinin": 5040,
      "37": 5041,
      "ĠtÃŃtÃŃ": 5042,
      "''": 5043,
      "ĠSc": 5044,
      "ĠTra": 5045,
      "ubli": 5046,
      "áĪĵ": 5047,
      "áĪĪáī¥": 5048,
      "Ġthey": 5049,
      "cience": 5050,
      "Har": 5051,
      "ĠTim": 5052,
      "alth": 5053,
      "ĠlÃ¡báº¹Ìģ": 5054,
      "ĠÃłká»įÌģlÃ©": 5055,
      "Ġmet": 5056,
      "ĠáĪĺáĬķáĮįáĪµáīµ": 5057,
      "ĠNijar": 5058,
      "ĠNigeria.": 5059,
      "36": 5060,
      "ker": 5061,
      "ĠDemoc": 5062,
      "hindi": 5063,
      "ient": 5064,
      "Ġ2009": 5065,
      "ĠÃ¬f": 5066,
      "Ġ202": 5067,
      "Ġtofauti": 5068,
      "Ġmashariki": 5069,
      "Ġá»įjá»įÌģalÃ¡Ã¬sÃŃ": 5070,
      "kriban": 5071,
      "Ġ(;": 5072,
      "Ġila": 5073,
      "ĠYe": 5074,
      "port": 5075,
      "ĠGuine": 5076,
      "omb": 5077,
      "ĠAbuja": 5078,
      "áĮ¹": 5079,
      "Ġdhidi": 5080,
      "áī£áĪŃ": 5081,
      "ctions": 5082,
      "áĭ¨áĪ±áĪµ": 5083,
      "AS": 5084,
      "ĠBorn": 5085,
      "Ġwá»įn.": 5086,
      "ĠCal": 5087,
      "ĠAcademy": 5088,
      "Tangu": 5089,
      "chumi": 5090,
      "ĠáĬ¥áĬķáĪµ": 5091,
      "Ġzaben": 5092,
      "Ġáī¥áĪĪáĭį": 5093,
      "Ġáĭ°áī¡áī¥": 5094,
      "Ġpart": 5095,
      "gani": 5096,
      "á»įÌģá»įÌĢlÃ¹": 5097,
      "Ã¶": 5098,
      "Ġsasa": 5099,
      "áĪįáĭ°": 5100,
      "Ġ()": 5101,
      "Ġrashin": 5102,
      "bihi": 5103,
      "ÆĻin": 5104,
      "ĠÆĻungiyar": 5105,
      "ĠWaz": 5106,
      "Ġitace": 5107,
      "Ġpekee": 5108,
      "amaduni": 5109,
      "ĠJune": 5110,
      "upe": 5111,
      "Ġpre": 5112,
      "sá»į": 5113,
      "stru": 5114,
      "ĠgboyÃ¨": 5115,
      "áį¡áĭ¨": 5116,
      "Ġsuch": 5117,
      "irefu": 5118,
      "ĠAbubakar": 5119,
      "ĠAnnabi": 5120,
      "ĠMic": 5121,
      "ĠJo": 5122,
      "zing": 5123,
      "Ã¨res": 5124,
      "Ġ2015,": 5125,
      "ĠyÃłn": 5126,
      "kam": 5127,
      "ĠGwamn": 5128,
      "á»įÌĢkan": 5129,
      "bijin": 5130,
      "Ġá»Įjá»įÌģ": 5131,
      "Ġáĭ¨áĬĲáīłáĪ¨áĭį": 5132,
      "\")": 5133,
      "Ġ--": 5134,
      "Ġinf": 5135,
      "ife": 5136,
      "Ã¤": 5137,
      "áīº": 5138,
      "áĪĮáĬŃáīµ": 5139,
      "ĠáĭµáĪĿ": 5140,
      "ĠáįĪáĪŃáĭĸ": 5141,
      "ĠtÃ¬": 5142,
      "Ġtala": 5143,
      "ĠGerman": 5144,
      "áĭĭáīµ": 5145,
      "ikukuu": 5146,
      "rÃ¹": 5147,
      "Ùı": 5148,
      "Ġspe": 5149,
      "ings": 5150,
      "yensi": 5151,
      "ule": 5152,
      "Wannan": 5153,
      "tÃº": 5154,
      "áī¼": 5155,
      "áĮįáĬķ": 5156,
      "áĮįáĪį": 5157,
      "ĠJama": 5158,
      "Ġbayar": 5159,
      "ctor": 5160,
      "ĠáĬķáĮīáĪµ": 5161,
      "anzibar": 5162,
      "ĠHan": 5163,
      "4-": 5164,
      "Ġkina": 5165,
      "Ġ2008": 5166,
      "ĠwÃ¡yÃ©": 5167,
      "mÃ²": 5168,
      "tÃºn": 5169,
      "li,": 5170,
      "áĪĭáĪīáį¢": 5171,
      "ĠWal": 5172,
      "ĠáĬłáĬ«áĪį": 5173,
      "Ana": 5174,
      "tit": 5175,
      "ĠKÃ¡": 5176,
      "iriki": 5177,
      "omina": 5178,
      "A)": 5179,
      "Láº¹ÌģyÃ¬n": 5180,
      "hÃ¬n": 5181,
      "Ġmjini": 5182,
      "ĠÃłp": 5183,
      "áī¥áĭĻ": 5184,
      "ĠÃ¬rÃ²yÃ¬n": 5185,
      "gua": 5186,
      "Ġibile": 5187,
      "Ġká»įÌģká»įÌģ": 5188,
      "Ġgege": 5189,
      "Ġbai": 5190,
      "ĠMala": 5191,
      "ĠEast": 5192,
      "Ġnon": 5193,
      "áĬ¨áĪ«": 5194,
      "Ġáĭ¨áĪļáĪį": 5195,
      "ĠáĪĨáĬĲáĭį": 5196,
      "áĮłáīĥáĪĭáĭŃ": 5197,
      "patikana": 5198,
      "usta": 5199,
      "ãĥ": 5200,
      "Ġcette": 5201,
      "kad": 5202,
      "Ġyaani": 5203,
      "Ġkuji": 5204,
      "áĬĲáīłáĪŃ": 5205,
      "rika": 5206,
      "Ġmulki": 5207,
      "Ġsou": 5208,
      "ĠWe": 5209,
      "Ġlá»į.": 5210,
      "Ġag": 5211,
      "ĠLugha": 5212,
      "Ġhuo": 5213,
      "Ġmiji": 5214,
      "Ġáĭ¨áĪĿáīµ": 5215,
      "Ð¸": 5216,
      "ĠyÃł": 5217,
      "hesa": 5218,
      "jan": 5219,
      "áī³áĭ°": 5220,
      "áĬ©áĪį": 5221,
      "ĠÆ´": 5222,
      "áĮłáīĢáĪĿ": 5223,
      "Ġoko": 5224,
      "ĠCharles": 5225,
      "Ġpata": 5226,
      "nam": 5227,
      "áĪįáįį": 5228,
      "Ġáī°áĬĲ": 5229,
      "áĪ©áĬķ": 5230,
      "ĠáĪ³áĭŃáĪĨáĬķ": 5231,
      "Ġtiti": 5232,
      "ĠTV": 5233,
      "ulani": 5234,
      "Kuna": 5235,
      "lymp": 5236,
      "isan": 5237,
      "áĪįáį¡áį¡": 5238,
      "áĭ«áĭį": 5239,
      "ĠáĪĺáĮ»": 5240,
      "ictor": 5241,
      "istr": 5242,
      "Ġiá¹£áº¹": 5243,
      "Ġdubu": 5244,
      "Ġ2004": 5245,
      "onde": 5246,
      "ĠgÃ©n": 5247,
      "Ko": 5248,
      "Ġáīłáīħ": 5249,
      "ĠNuwa": 5250,
      "ĠáĬłáī£áĪį": 5251,
      "emo": 5252,
      "karar": 5253,
      "let": 5254,
      "ĠFilm": 5255,
      "fs": 5256,
      "rÃºn": 5257,
      "ĠOmo": 5258,
      "ween": 5259,
      "ĠVer": 5260,
      "ĠáĪĪáĭį": 5261,
      "ĠáĪĽáĪħ": 5262,
      "áĮłáįĭ": 5263,
      "áĪĦáĭµ": 5264,
      "Ġtarihin": 5265,
      "Ġlitta": 5266,
      "ĠáĬŃáĪįáĪį": 5267,
      "Ġs'": 5268,
      "Ġdunia": 5269,
      "ĠoyÃ¨": 5270,
      "áī¬": 5271,
      "áĮ³": 5272,
      "Ġato": 5273,
      "áĪ«áĪµ": 5274,
      "Ġáĭ¨áī°áĪĪáĭ«áĭ©": 5275,
      "Ġáī³áĪĭáīħ": 5276,
      "Ġtsawon": 5277,
      "ĠMiji": 5278,
      "cis": 5279,
      "kut": 5280,
      "ones": 5281,
      "tics": 5282,
      "Manazarta": 5283,
      "ĠáĭĲ": 5284,
      "ĠáĬĳ": 5285,
      "Ġtattalin": 5286,
      "Ġmur": 5287,
      "Ġáĭ¨áĭ°": 5288,
      "áĪįáīµ": 5289,
      "Ġgoma": 5290,
      "ĠUmoja": 5291,
      "Ġ2016,": 5292,
      "Ġgaban": 5293,
      "Ġcibi": 5294,
      "ĠáĪĽáĪµáī³áĭĪ": 5295,
      "unifÃ¡sÃŃtÃ¬": 5296,
      "ĠIl": 5297,
      "ĠPrin": 5298,
      "ile": 5299,
      "Ġ2014,": 5300,
      "cl": 5301,
      "Ġhala": 5302,
      "ĠJana": 5303,
      "Ġ2012,": 5304,
      "ĠIsland": 5305,
      "31": 5306,
      "ĠjÃ©": 5307,
      "Ġlabara": 5308,
      "ĠáīłáĬ¥áĬķáĮįáĪĬáĭĿáĬĽ": 5309,
      "Ġ2017,": 5310,
      "Ġ1990": 5311,
      "urch": 5312,
      "fasi": 5313,
      "sib": 5314,
      "cher": 5315,
      "This": 5316,
      "hol": 5317,
      "µáį": 5318,
      "unin": 5319,
      "Ġáĭ¨áĮĪ": 5320,
      "ĠáĬłáĭµ": 5321,
      "Wakati": 5322,
      "Ġkabisa": 5323,
      "dia": 5324,
      "Ġ2011,": 5325,
      "ĠOlÃº": 5326,
      "mani": 5327,
      "áĪµáī±": 5328,
      "ĠMari": 5329,
      "Ġhawa": 5330,
      "limu": 5331,
      "mai": 5332,
      "Ġbabbar": 5333,
      "chaguzi": 5334,
      "Ð¾": 5335,
      "Ġabout": 5336,
      "olution": 5337,
      "39": 5338,
      "ráº¹Ìģ": 5339,
      "Ġindi": 5340,
      "tÃłgÃ©": 5341,
      "kh": 5342,
      "ĠsÃ©": 5343,
      "Ġcommun": 5344,
      "ĠAtlan": 5345,
      "ments": 5346,
      "Ġknown": 5347,
      "tia": 5348,
      "ĠáĪ©": 5349,
      "Ġáīłáĭļáĭ«": 5350,
      "ĠLou": 5351,
      "áī²áĬķ": 5352,
      "anzishwa": 5353,
      "áĮłáĪį": 5354,
      "ĠáĪĢáĮĪáĪŃ": 5355,
      "rench": 5356,
      "sÃ¡ra": 5357,
      "liza": 5358,
      "ĠShuga": 5359,
      "omas": 5360,
      "áīłáĪĮ": 5361,
      "áĮ¥áĬķáī³áĭĬ": 5362,
      "julo": 5363,
      "dy": 5364,
      "jÃ¹": 5365,
      "âĢ¦": 5366,
      "ĠUS": 5367,
      "Ġtayi": 5368,
      "tokana": 5369,
      "reat": 5370,
      "bukumbu": 5371,
      "Ġáĭ¨áī°áī£áĪĪáĭį": 5372,
      "ĠáĪ²áĪĨáĬķáį£": 5373,
      "Ġmuhimu": 5374,
      "Ġhankali": 5375,
      "Ġmwanasiasa": 5376,
      "Ġ2019,": 5377,
      "ĠáĪĺáĪłáĪ¨áīµ": 5378,
      "vision": 5379,
      "jáº¹sÃ¡ra": 5380,
      "but": 5381,
      "Ãºpá»įÌĢ": 5382,
      "Ġip": 5383,
      "Ġwu": 5384,
      "áī°áĭĭáĪįáį¢": 5385,
      "Ġáĭ¨áĪĮ": 5386,
      "ĠáĭĻáĪªáĭ«": 5387,
      "-n": 5388,
      "Ġ1980": 5389,
      "ross": 5390,
      "lisha": 5391,
      "ĠkmÂ²": 5392,
      "gÃ³": 5393,
      "mÃ©": 5394,
      "Ġkin": 5395,
      "ĠÃłgbÃ¡yÃ©": 5396,
      "-Ã¬wÃ©": 5397,
      "áĪŃáĪĭáĬķáĭµ": 5398,
      "hairi": 5399,
      "áĪĭáĪī": 5400,
      "áī¶áī¹": 5401,
      "Ġkasashen": 5402,
      "ĠáĬ¥áĮħáĮį": 5403,
      "aro": 5404,
      "ĠIbrahim": 5405,
      "cia": 5406,
      "Ġrub": 5407,
      "Ġconsi": 5408,
      "Ġaina": 5409,
      "Ġuk": 5410,
      "Ġ\"S": 5411,
      "-R": 5412,
      "Mji": 5413,
      "áĪŃáĮį": 5414,
      "ĠáĮĨ": 5415,
      "áĭŃáĬĲáīµ": 5416,
      "Ġma'a": 5417,
      "áĪ«áī¸áĭį": 5418,
      "áĬŃáĪĪ": 5419,
      "Ġvari": 5420,
      "áī¨áĪŃ": 5421,
      "ĠDavid": 5422,
      "ac": 5423,
      "ped": 5424,
      "Ġmap": 5425,
      "ball": 5426,
      "ĠáįĢ": 5427,
      "Ġ180": 5428,
      "Ġdont": 5429,
      "C)": 5430,
      "Ġwurin": 5431,
      "ĠáĬłáĬĲ": 5432,
      "ĠTs": 5433,
      "áįįáĬĵ": 5434,
      "áĭĺáī¥": 5435,
      "áĪ±áĬķ": 5436,
      "ĠWakristo": 5437,
      "olojia": 5438,
      "Ġayáº¹yáº¹": 5439,
      "Ġmilli": 5440,
      "lá»įÌģgbá»įÌĢn": 5441,
      "atri": 5442,
      "ĠBri": 5443,
      "Ġprop": 5444,
      "ubwa": 5445,
      "Ġont": 5446,
      "ulture": 5447,
      "pti": 5448,
      "ĠAwon": 5449,
      "ing.": 5450,
      "áĬ¨áĪŃ": 5451,
      "áĬ«áī£áī¢": 5452,
      "ĠMayu": 5453,
      "áĪİáĬķ": 5454,
      "áĪĥáĬķ": 5455,
      "Ġgwamnati": 5456,
      "de.": 5457,
      "ateur": 5458,
      "ke,": 5459,
      "Ġká»įkÃłn": 5460,
      "pita": 5461,
      "áĬĲáīłáĪ¨": 5462,
      "áĪªáī³": 5463,
      "ĠáĬ«áĪį": 5464,
      "Ġkimanin": 5465,
      "Ġkasuwanci": 5466,
      "Ġkut": 5467,
      "vin": 5468,
      "Ã¯": 5469,
      "áº¸ÌĢ": 5470,
      "Ġmwisho": 5471,
      "kta": 5472,
      "gain": 5473,
      "197": 5474,
      "ĠdÃ©part": 5475,
      "ĠMor": 5476,
      "ingia": 5477,
      "Ġcap": 5478,
      "Ġ(197": 5479,
      "Ġnasara": 5480,
      "Ġosu": 5481,
      "or,": 5482,
      "irst": 5483,
      "áĬŃáĪŃáĪµáī²áĭ«áĬķ": 5484,
      "áĪīáĪĿ": 5485,
      "ĠáĮį.": 5486,
      "himman": 5487,
      "Ġmilioni": 5488,
      "kÃ¡láº¹ÌĢ": 5489,
      "ĠBank": 5490,
      "195": 5491,
      "Ġá»Įba": 5492,
      "com/": 5493,
      "Ġ(1": 5494,
      "wili": 5495,
      "chard": 5496,
      "pha": 5497,
      "val": 5498,
      "áī½áĪį": 5499,
      "áĮĪáĬĽ": 5500,
      "ĠáĪĺáĪ¨áĮĥ": 5501,
      "áī£áĪįáį¢": 5502,
      "ĠáĪĽáĮ£": 5503,
      "áī²áĬŃ": 5504,
      "ĠáĭŃáī½áĪĭáĪįáį¢": 5505,
      "páº¹ÌĢ": 5506,
      "ĠfÃ¬": 5507,
      "ĠTun": 5508,
      "Ġipo": 5509,
      "imi": 5510,
      "ĠMaka": 5511,
      "pu": 5512,
      "Ġkale": 5513,
      "Se": 5514,
      "aman": 5515,
      "umla": 5516,
      "Ġamb": 5517,
      "Ġjin": 5518,
      "ĠGar": 5519,
      "bi,": 5520,
      "iláº¹ÌĢ": 5521,
      "Ġ2002": 5522,
      "Ġ50": 5523,
      "gbÃ¬má»įÌĢ": 5524,
      "áĭ«áĪµ": 5525,
      "biwa": 5526,
      "Ġcika": 5527,
      "fuatana": 5528,
      "ĠáĭŃáī³áĭĪáīĥáĪįáį¢": 5529,
      "ra,": 5530,
      "ĠFIFA": 5531,
      "Ø¨": 5532,
      "limi": 5533,
      "ĠMy": 5534,
      "ĠLÃ¡": 5535,
      "un,": 5536,
      "ĠpÃłÃ¡": 5537,
      "ister": 5538,
      "Ġá»įÌĢnÃł": 5539,
      "NÃŃgbÃł": 5540,
      "bÃ©": 5541,
      "áĪŃ-": 5542,
      "áĪ³áī°": 5543,
      "Ġáī°áįĪ": 5544,
      "ĠáĭŃáĭĪ": 5545,
      "ĠáĭŃáī»": 5546,
      "ĠáīłáĪį": 5547,
      "bele": 5548,
      "ĠÃ©ta": 5549,
      "áĪĪáī°áĬĽáĭį": 5550,
      "eld": 5551,
      "Ġ3.": 5552,
      "ver,": 5553,
      "ĠMw": 5554,
      "ĠáĪĺáĪĪ": 5555,
      "=\"": 5556,
      "cs": 5557,
      "iá¹£áº¹": 5558,
      "áĬ½": 5559,
      "áĬĭáĪĭ": 5560,
      "ĠÃłjá»į": 5561,
      "ĠáĬ¥áĭµ": 5562,
      "pokeo": 5563,
      "ĠáĬ¥áĬķáĭ°áĪĨáĬĲ": 5564,
      "áĪ²áĬķ": 5565,
      "Ġmilima": 5566,
      "ibiyar": 5567,
      "ĠÆ³": 5568,
      "ÃĴun": 5569,
      "ĠMil": 5570,
      "olowo": 5571,
      "ĠâĢĶ": 5572,
      "Ġhim": 5573,
      "ographi": 5574,
      "áĬ¾": 5575,
      "Ġdawo": 5576,
      "Ġmaana": 5577,
      "et,": 5578,
      "ĠYoh": 5579,
      "Ġáĭ¨áĪĨáĬĳ": 5580,
      "Ġal'ad": 5581,
      "Ġáĭ©áĬĴ": 5582,
      "sociation": 5583,
      "ye-shi": 5584,
      "yáº¹ÌĢ": 5585,
      "ĠOlu": 5586,
      "ĠEmp": 5587,
      "ĠÃ²á¹£Ã¨lÃº": 5588,
      "Ġwhen": 5589,
      "bawa": 5590,
      "amawa": 5591,
      "Ġ184": 5592,
      "Ġhili": 5593,
      "Ġkuu": 5594,
      "áī¥áĪĬáĬŃ": 5595,
      "ĠWatu": 5596,
      "Ġáĭ«áĪī": 5597,
      "Ġsakand": 5598,
      "ĠArt": 5599,
      "Ġkumbukumbu": 5600,
      "fara": 5601,
      "Ġâ": 5602,
      "ar,": 5603,
      "unda": 5604,
      "Ġjá»į": 5605,
      "ado": 5606,
      "Ġ(\"": 5607,
      "ultur": 5608,
      "iyyar": 5609,
      "Â°": 5610,
      "inta": 5611,
      "áĬķáĮ«": 5612,
      "Ġáĭ¨áĪĭ": 5613,
      "Ġwrit": 5614,
      "ĠSala": 5615,
      "áīłáĭį": 5616,
      "áīłáĬĽ": 5617,
      "uman": 5618,
      "Ġáī°áīĭ": 5619,
      "áīĥáĪį": 5620,
      "áįĵáĬķáĭ«": 5621,
      "Ġáīłáĭ°áī¡áī¥": 5622,
      "tali": 5623,
      "Ġsaur": 5624,
      "Ġop": 5625,
      "áĭ«áĭ«": 5626,
      "áĭ¨áĭį": 5627,
      "Ġ31": 5628,
      "Ġlilikuwa": 5629,
      "-daban": 5630,
      "orth": 5631,
      "ĠBenin": 5632,
      "cÃ©": 5633,
      "ful": 5634,
      "áĬ¡": 5635,
      "ĠdÃ¬": 5636,
      "Ġ(kwa": 5637,
      "áĪĪáĭ°": 5638,
      "ĠáĪĺáĭĭ": 5639,
      "adhim": 5640,
      "ĠáĬ«áĪĮ": 5641,
      "wÃ²rÃ¡n": 5642,
      "onekana": 5643,
      "Ġdaban-daban": 5644,
      "ollow": 5645,
      "ĠEnugu": 5646,
      "Ġidan": 5647,
      "Ġ2016.": 5648,
      "cul": 5649,
      "Ġmirefu": 5650,
      "Ġnafasi": 5651,
      "áĬ«áĪį": 5652,
      "áĭĽáĪ¬": 5653,
      "Ġwadda": 5654,
      "ĠÃłá¹£Ãł": 5655,
      "rÃŃwÃ¡": 5656,
      "ĠNÃłÃ¬jÃŃrÃŃÃł,": 5657,
      "-s": 5658,
      "ine,": 5659,
      "ĠpÃ¡": 5660,
      "7-": 5661,
      "ĠSy": 5662,
      "áĮ¼": 5663,
      "Ġkungi": 5664,
      "ĠKasa": 5665,
      "áĬĲáī¶áī½": 5666,
      "ĠáĪĺáī¶": 5667,
      "ĠFed": 5668,
      "áĭĪáīħ": 5669,
      "ifu": 5670,
      "Ġáĭ¨áī°áĬŃáĪī": 5671,
      "áīģáĪŃ": 5672,
      "Ġmuda": 5673,
      "Ġajili": 5674,
      "Ġik": 5675,
      "ĠBib": 5676,
      "frika": 5677,
      "BÃŃ": 5678,
      "wun": 5679,
      "Ġ(ya": 5680,
      "jÃ¡de": 5681,
      "á»įÌĢnÃ¹": 5682,
      "Ġleo": 5683,
      "tro": 5684,
      "ishin": 5685,
      "ĠMer": 5686,
      "ĠáīłáĬ¨": 5687,
      "áĬĲáīµáĬķ": 5688,
      "ĠJapan": 5689,
      "1=": 5690,
      "Ġder": 5691,
      "Ġ(H": 5692,
      "ĠMos": 5693,
      "ĠPop": 5694,
      "losop": 5695,
      "al.": 5696,
      "ets": 5697,
      "ĠFab": 5698,
      "Ġami": 5699,
      "já»įÌĢ": 5700,
      "táº¹ÌĢ": 5701,
      "ĠGold": 5702,
      "ged": 5703,
      "ÙĴ": 5704,
      "Ġáĭ¨áįĸ": 5705,
      "áĭ¨áĪĺ": 5706,
      "Ġeff": 5707,
      "Ġwalikuwa": 5708,
      "ĠMoham": 5709,
      "bunge": 5710,
      "ĠTanbihi": 5711,
      "Mo": 5712,
      "ers.": 5713,
      "ĠBello": 5714,
      "Ġnigba": 5715,
      "áī³áī½áĬķ": 5716,
      "áĭĺáĬķ": 5717,
      "áĪĬáĭ®áĬķ": 5718,
      "Ġhizi": 5719,
      "Ġrayuwar": 5720,
      "Ġkáº¹ta": 5721,
      "áĭ°áĪ¨áĮī": 5722,
      "ware": 5723,
      "ĠDen": 5724,
      "Ðµ": 5725,
      "estiv": 5726,
      "Ġmapokeo": 5727,
      "ĠáĭŃáĮłáīĢ": 5728,
      "ĠáīłáĪ¨": 5729,
      "kofu": 5730,
      "áįĪáĬķ": 5731,
      "áĪŀáīµ": 5732,
      "ĠáĮĪáī¥": 5733,
      "ĠáĭĵáĪĺáī±": 5734,
      "Ġmiliyan": 5735,
      "ĠTarayyar": 5736,
      "Ġeto": 5737,
      "ĠVal": 5738,
      "ĠStates": 5739,
      "Ġpartic": 5740,
      "Ġbetween": 5741,
      "kari": 5742,
      "ĠCO": 5743,
      "Ġcons": 5744,
      "L'": 5745,
      "áĭµáĪµáīµ": 5746,
      "áįįáĪªáĬ«": 5747,
      "Ġhakan": 5748,
      "áĬĳáĪµ": 5749,
      "áĮłáĪĭ": 5750,
      "ratic": 5751,
      "ĠWomen": 5752,
      "ĠJapani": 5753,
      "-E": 5754,
      "van": 5755,
      "ire,": 5756,
      "á¹£irÃŃ": 5757,
      "ĠOá¹£u": 5758,
      "Ġ2018,": 5759,
      "eu": 5760,
      "hilosop": 5761,
      "Ġthan": 5762,
      "ichael": 5763,
      "jÃ©": 5764,
      "áĭ£": 5765,
      "Ġáĭ±": 5766,
      "Ġlina": 5767,
      "ĠAkin": 5768,
      "ĠhaÉĹa": 5769,
      "Ġshida": 5770,
      "áī¢áīµ": 5771,
      "áĬłáĪĿ": 5772,
      "Ġáĭ¨áĪ°áĭį": 5773,
      "ĠS.": 5774,
      "Ġout": 5775,
      "irgin": 5776,
      "ikan": 5777,
      "ce-": 5778,
      "Ġaká»įrin": 5779,
      "ĠáĪĺáĮ¥": 5780,
      "Ġáį«": 5781,
      "ĠáĬłáĪ°": 5782,
      "ĠáīµáĪįáīħ": 5783,
      "áĬ¥áĮįáĭļáĬłáī¥áĪĶáĪŃ": 5784,
      "Ġtuntun": 5785,
      "Ġmarubu": 5786,
      "ĠáĪľáīµáĪŃ": 5787,
      "cen": 5788,
      "ĠMai": 5789,
      "ĠZanzibar": 5790,
      "Ġtalla": 5791,
      "yayya": 5792,
      "asashen": 5793,
      "Ġjeshi": 5794,
      "áĮĪáĬĲ": 5795,
      "ĠÃ¬p": 5796,
      "kejÃ¬": 5797,
      "áĬłáĪį": 5798,
      "ĠáĪķáĭĿ": 5799,
      "Ġzilizo": 5800,
      "ĠáįķáĪ¬áĭļ": 5801,
      "Ġ3,": 5802,
      "Ġ1970": 5803,
      "Papa": 5804,
      "Ø¯": 5805,
      "es)": 5806,
      "Ġhilo": 5807,
      "diyya": 5808,
      "Ġkita": 5809,
      "ĠdÃ©partement": 5810,
      "isari": 5811,
      "ĠBr": 5812,
      "ĠáĬ¨áĪĽ": 5813,
      "ĠáĭįáĮ¤": 5814,
      "Ġpeut": 5815,
      "ĠáĪ¥áĪĭáĪ´": 5816,
      "yá»įÌģ": 5817,
      "Ã¨s": 5818,
      "anada": 5819,
      "onal": 5820,
      "Ġoru": 5821,
      "Ġwork": 5822,
      "2=": 5823,
      "Ġgrand": 5824,
      "ĠOf": 5825,
      "Ġáĭŀ": 5826,
      "ĠIsa": 5827,
      "biya": 5828,
      "áīħáĪµ": 5829,
      "Ġkofin": 5830,
      "idayar": 5831,
      "ĠáīłáĬ©áĪį": 5832,
      "rol": 5833,
      "ĠolÃ¹darÃŃ": 5834,
      "Ġfound": 5835,
      "velopment": 5836,
      "ob": 5837,
      "Î¿": 5838,
      "ĠCham": 5839,
      "ula": 5840,
      "Ġkundi": 5841,
      "Ġgr": 5842,
      "áĬķáĭ³áĪŃ": 5843,
      "Lakini": 5844,
      "ĠáĮįáī¥áĮ½": 5845,
      "ĠUmar": 5846,
      "ĠAustralia": 5847,
      "Ab": 5848,
      "dai": 5849,
      "ety": 5850,
      "ce.": 5851,
      "lub": 5852,
      "áĭķáĭĿ": 5853,
      "lished": 5854,
      "ĠAfrika.": 5855,
      "rÃºká»į": 5856,
      "ĠbÃłbÃ¡": 5857,
      "áĪ«áĪĿ": 5858,
      "áĪªáīµ": 5859,
      "áīĢáĪį": 5860,
      "Ġkwam": 5861,
      "Ġsune": 5862,
      "áĬ¨áī°áĪĪáĭį": 5863,
      "Ġtemp": 5864,
      "ko.": 5865,
      "ĠA.": 5866,
      "32": 5867,
      "38": 5868,
      "Ġmengine": 5869,
      "áĪµáī°áĬĽ": 5870,
      "áĭ³áĮħ": 5871,
      "Ġkabila": 5872,
      "ĠáĭµáĬķ": 5873,
      "ĠáīģáĮ¥": 5874,
      "ĠáĮ½áĪĳáįį": 5875,
      "Ġpeople": 5876,
      "pindi": 5877,
      "Ġmkoa": 5878,
      "áī£áĪī": 5879,
      "Ġvili": 5880,
      "ĠáĪĪáī°": 5881,
      "ĠáĬ¥áĬķáĭ°áī°": 5882,
      "Ġreg": 5883,
      "ĠáīłáĪĺáĪĨáĬĳ": 5884,
      "ĠÆ³an": 5885,
      "Ġ%": 5886,
      "Ġ(tÃŃ": 5887,
      "ĠHispania": 5888,
      "ĠelÃ©": 5889,
      "Ġemp": 5890,
      "ĠMali": 5891,
      "Ġing": 5892,
      "99": 5893,
      "iyya": 5894,
      "Ġtatu": 5895,
      "ĠGra": 5896,
      "áĪĪáĪģ": 5897,
      "áĬłáĭŃ": 5898,
      "áĪ¥áī±": 5899,
      "neo": 5900,
      "ĠáĪħáĭĿáī¥": 5901,
      "áĮİáĪŃáĮİáĪŃ": 5902,
      "ĠUrusi": 5903,
      "ner": 5904,
      "Ġwaka": 5905,
      "áĭ³áĬķáīµ": 5906,
      "ĠÉĹau": 5907,
      "ĠáĪµáĪĪáĭļáĪħ": 5908,
      "yyuka": 5909,
      "Ġgra": 5910,
      "ĠBest": 5911,
      "Ġuni": 5912,
      "ito": 5913,
      "uwar": 5914,
      "ĠÃº": 5915,
      "Ġmch": 5916,
      "unga": 5917,
      "Ġtabb": 5918,
      "ĠáĬłáī£áīµ": 5919,
      "ĠáĭŃáĬĲ": 5920,
      "Ġzin": 5921,
      "áĬªáĭ«": 5922,
      "ĠáĪĿáĬķáĮŃ": 5923,
      "Ġmfano": 5924,
      "Ġáĭ¨áĪĺáĮĢáĪĺáĪªáĭ«áĭį": 5925,
      "rel": 5926,
      "ĠSch": 5927,
      "z,": 5928,
      "ics": 5929,
      "Ġunder": 5930,
      "Ġawa": 5931,
      "ed,": 5932,
      "Î±": 5933,
      "áī§": 5934,
      "iso": 5935,
      "ĠNollywood": 5936,
      "ĠáĬłáĭ¨áĪŃ": 5937,
      "Ġáĭ¨áĬĸ": 5938,
      "áĬłáĬķ": 5939,
      "ĠáĬŃáĪŃáĪµáī¶áĪµ": 5940,
      "ĠChristi": 5941,
      "Ġambako": 5942,
      "ĠáįĬáĭ°áĪį": 5943,
      "ĠkÃºrÃ²": 5944,
      "ĠáĪ«áĪµ": 5945,
      "ĠáĪĺáĮłáĬķ": 5946,
      "ĠMagharibi": 5947,
      "áįĪáĮ¥áĪ®": 5948,
      "C.": 5949,
      "view": 5950,
      "tho": 5951,
      "cour": 5952,
      "Ã¡Ã¡": 5953,
      "ott": 5954,
      "ip": 5955,
      "áĮ¾": 5956,
      "ĠMkuu": 5957,
      "áī£áī¥": 5958,
      "uther": 5959,
      "ĠáīłáĪĨ": 5960,
      "ĠáĬ¥áĬķáĬ³": 5961,
      "áĭĽáĭĿ": 5962,
      "Ġ40": 5963,
      "assan": 5964,
      "Ġjimbo": 5965,
      "ĠáĬłáĭŃáĭ°áĪĪáĪĿ": 5966,
      "Ġmáº¹": 5967,
      "lewa": 5968,
      "ĠBlack": 5969,
      "Ã²fin": 5970,
      "Ġleur": 5971,
      "ĠRD2-": 5972,
      "ĠSt.": 5973,
      "ĠMuhammadu": 5974,
      "ĠáīłáĪ«": 5975,
      "anzisha": 5976,
      "ĠáĬłáĬķáĭ³áĬķáĭµ": 5977,
      "ĠFrench": 5978,
      "Ġkare": 5979,
      "Ġá»įÌģ": 5980,
      "ĠWat": 5981,
      "Ã¡nÃ¬": 5982,
      "kÃ³so": 5983,
      "taka": 5984,
      "ĠInstit": 5985,
      "Ġkij": 5986,
      "Bab": 5987,
      "Ġgwa": 5988,
      "áĬĿáĬĲáīµ": 5989,
      "Ġmpya": 5990,
      "ĠHukumar": 5991,
      "ĠYohane": 5992,
      "Ġlong": 5993,
      "futa": 5994,
      "Ġatt": 5995,
      "</": 5996,
      "Ġyau": 5997,
      "ishe": 5998,
      "ĠSikukuu": 5999,
      "ush": 6000,
      "ĠáĪĺáĪ³": 6001,
      "áĪ«áĬ¤áĪį": 6002,
      "áīłáĪ¬": 6003,
      "áĭĿáĪĽáī½": 6004,
      "ĠáĬłáĪĿáĪĭáĬŃ": 6005,
      "Ġshirye-shi": 6006,
      "idogo": 6007,
      "ĠSpa": 6008,
      "Ġ(196": 6009,
      "Ġmil": 6010,
      "Ġret": 6011,
      "ĠBas": 6012,
      "áĪµáī¶": 6013,
      "Ġipinle": 6014,
      "gbá»įÌģ": 6015,
      "áĭ¨áī°": 6016,
      "Ġoni": 6017,
      "Ġhuadhim": 6018,
      "ĠáĬ¨áī°áĪĽáĭį": 6019,
      "Ġgargaji": 6020,
      "ĠáīłáĪĻáĪī": 6021,
      "Ġmnamo": 6022,
      "cci": 6023,
      "mb": 6024,
      "Ġwao": 6025,
      "imbo": 6026,
      "ĠKib": 6027,
      "ba.": 6028,
      "ĠOlymp": 6029,
      "uts": 6030,
      "ĠSoci": 6031,
      "zation": 6032,
      "ĠáĬ¨áĪ°": 6033,
      "áĬ«áī³": 6034,
      "ĠáĬ¥áĬķáĭ°áĮĪáĬĵ": 6035,
      "ĠáĪĽáĪŃáīĨáĪµ": 6036,
      "Ad": 6037,
      "ĠmÃªme": 6038,
      "ĠsÃ¬n": 6039,
      "ĠPak": 6040,
      "ĠolÃ³rÃŃ": 6041,
      "ĠOrÃŃláº¹ÌĢ-Ã¨dÃ¨": 6042,
      "Ch": 6043,
      "fÃ©r": 6044,
      "edu": 6045,
      "Ġ2014.": 6046,
      "ĠRobert": 6047,
      "tori": 6048,
      "sive": 6049,
      "Ġonly": 6050,
      "Ġwengine": 6051,
      "áĭ«áĭĿ": 6052,
      "ĠÆĻidayar": 6053,
      "ĠáīłáĬ¢": 6054,
      "Ġkadhaa": 6055,
      "ĠáĭµáĪŃáĮħáīµ": 6056,
      "ĠáĬ«áĪĮáĬķáĭ³áĪŃ": 6057,
      "dis": 6058,
      "ĠRepublic": 6059,
      "ĠGuinea": 6060,
      "ĠAmáº¹ÌģrÃŃkÃł.": 6061,
      "Ġoun": 6062,
      "Jina": 6063,
      "Ġkoloni": 6064,
      "Ġname": 6065,
      "ĠÃª": 6066,
      "Ġsara": 6067,
      "Ġbikin": 6068,
      "Ġcl": 6069,
      "ĠKif": 6070,
      "áĪĭáĬķ": 6071,
      "ĠCibiyar": 6072,
      "Ġ2015.": 6073,
      "áĪ©áĪĿ": 6074,
      "áīĭáĬķáīĭ": 6075,
      "áĬķáĭ³áĬķáĭµ": 6076,
      "Ġzinazo": 6077,
      "Ġwengi,": 6078,
      "-finai": 6079,
      "Ġmasana'": 6080,
      "áĮİáĪŃáĮİáĪŃáĭ«áĬķ": 6081,
      "kn": 6082,
      "king": 6083,
      "âĢľ": 6084,
      "re,": 6085,
      "85": 6086,
      "zarin": 6087,
      "Ġmik": 6088,
      "ombo": 6089,
      "Ġduring": 6090,
      "ouse": 6091,
      "ĠÃłÃ¬sÃłn": 6092,
      "ĠáĪĺáĮ£": 6093,
      "áĪŀáĬŃ": 6094,
      "ĠáįķáĪ®": 6095,
      "Ġmahali": 6096,
      "áĮ£áĪįáĭ«áĬķ": 6097,
      "Waliozaliwa": 6098,
      "ĠHotuna": 6099,
      "ĠáīłáĪ½áī³": 6100,
      "ĠMakarantar": 6101,
      "ĠNuwamba": 6102,
      "ĠáĪĽáĮ£áīĢ": 6103,
      "ES": 6104,
      "ĠFin": 6105,
      "bÃ³": 6106,
      "wÃłÃ¡": 6107,
      "ante": 6108,
      "ĠáĬĹ": 6109,
      "áĪŃáĬķ": 6110,
      "áĪįáĮħ": 6111,
      "ĠKale": 6112,
      "áī½áĪģ": 6113,
      "ĠGáº¹ÌĢáº¹ÌģsÃ¬": 6114,
      "Ġáī°áĬĵ": 6115,
      "ĠhaÉĹin": 6116,
      "Ġpataki": 6117,
      "ografia": 6118,
      "ĠKingdom": 6119,
      "Ġ\"M": 6120,
      "33": 6121,
      "ĠáĪİ": 6122,
      "Ġainsi": 6123,
      "ĠMul": 6124,
      "ĠcrÃ©": 6125,
      "áī°áĬĽáĭį": 6126,
      "Ġmay": 6127,
      "áĪ«áĪ½": 6128,
      "ĠWil": 6129,
      "Ġzake": 6130,
      "áĪµáīµáĬĵ": 6131,
      ".S.": 6132,
      "ĠirÃº": 6133,
      "ĠÃ²kÃ¨": 6134,
      "hoto": 6135,
      "ominira": 6136,
      "lassi": 6137,
      "Ġtri": 6138,
      ");": 6139,
      "kuna": 6140,
      "katoliki": 6141,
      "Ġáĭ¨áĮ¥": 6142,
      "Ġáīłáįį": 6143,
      "áĪ³áĪį": 6144,
      "ĠáĪĿáĬĵáĪį": 6145,
      "Ġmatsa": 6146,
      "lishi": 6147,
      "áĭ³áĬķáĭ±": 6148,
      "áĭ®áĪŃáĮĬ": 6149,
      "ĠáĪĿáĬĵáĪįáī£áīµ": 6150,
      "Ġpu": 6151,
      "ught": 6152,
      "ĠBau": 6153,
      "Ġdep": 6154,
      "Ġtime": 6155,
      "Åį": 6156,
      "Ġsoci": 6157,
      "áĪįáīģ": 6158,
      "áĪ¨áį¢": 6159,
      "áĬ¨áī¥": 6160,
      "Ġalipo": 6161,
      "áĭ´áīµ": 6162,
      "ense": 6163,
      "til": 6164,
      "ĠEthiopia": 6165,
      "Ġutilis": 6166,
      "Ġnou": 6167,
      "Ġwá»įÌĢn": 6168,
      "Ġá»įjá»į": 6169,
      "Ġ2013,": 6170,
      "ĠÃĮlÃº": 6171,
      "Ġkowa": 6172,
      "we,": 6173,
      "ºáį": 6174,
      "Ġikan": 6175,
      "Ġyaliyo": 6176,
      "Ġáīłáī¥áĭĽáīµ": 6177,
      "nÃº": 6178,
      "Ġperm": 6179,
      "ship": 6180,
      "di.": 6181,
      "áĪŃáį£": 6182,
      "ĠÃłÃ¡": 6183,
      "ĠÃłjáº¹sÃ¡ra": 6184,
      "Ġáīµáĭį": 6185,
      "áĮİáĬķ": 6186,
      "Ġ1994": 6187,
      "Ġsosai": 6188,
      "Ġáĭ¨áĭĵáĪĪáĪĿ": 6189,
      "hesabiwa": 6190,
      "-G": 6191,
      "ĠSoko": 6192,
      "ĠJoseph": 6193,
      "Ġsho": 6194,
      "ĠCong": 6195,
      "ĠMovie": 6196,
      "wari": 6197,
      "áī°áį¢": 6198,
      "Ġjinsi": 6199,
      "Ġáī°áĭĭ": 6200,
      "áīłáĪ°": 6201,
      "áĪ¥áĪ«áīħ": 6202,
      "Ġáī£áĪį": 6203,
      "ĠáįĪáĪ¨áĬķ": 6204,
      "Ġáĭ¨áīĢáĬķ": 6205,
      "kamakon": 6206,
      "Ġláº¹": 6207,
      "ĠLab": 6208,
      "ower": 6209,
      "owe": 6210,
      "assa": 6211,
      "line": 6212,
      "¹áį": 6213,
      "ĠáĪ¹": 6214,
      "ames": 6215,
      "oman": 6216,
      "ĠáīłáĪķ": 6217,
      "áīłáĪī": 6218,
      "Ġaddinin": 6219,
      "áĮ¡áīµ": 6220,
      "imakin": 6221,
      "ĠRiver": 6222,
      "rist": 6223,
      "win": 6224,
      "yÃ¬ÃŃ": 6225,
      "ĠIV": 6226,
      "Ġá»įlá»įÌģ": 6227,
      "ĠKejÃ¬": 6228,
      "wÃº": 6229,
      "hysi": 6230,
      "ple": 6231,
      "ĠáīłáĮİáĪŃáĮİáĪŃáĭ«áĬķ": 6232,
      "Ġmaisha": 6233,
      "ĠáĪįáĭ°áīµ": 6234,
      "ĠáĭµáĬķáĮĭ": 6235,
      "ĠáĬłáĪĪáĪĿ": 6236,
      "ĠáĬłáĮĪáĪ«áīµ": 6237,
      "áĪıáĪįáį¢": 6238,
      "á¹¢": 6239,
      "ĠGirl": 6240,
      "ĠKig": 6241,
      "IS": 6242,
      "TA": 6243,
      "Ġtura": 6244,
      "Ġáĭ¨áī¥": 6245,
      "ĠáĬłáĭ³": 6246,
      "ĠáĪįáī¥": 6247,
      "Ġprof": 6248,
      "ĠBook": 6249,
      "araka": 6250,
      "lian": 6251,
      "kuta": 6252,
      "go,": 6253,
      "ĠMusic": 6254,
      "via": 6255,
      "Ġ2010,": 6256,
      "ĠZam": 6257,
      "pindu": 6258,
      "Ġkirk": 6259,
      "sÃ¡n": 6260,
      "maji": 6261,
      "Ġáĭ¨áĪŀ": 6262,
      "ÃŃnÃº": 6263,
      "ĠKaramar": 6264,
      "ĠolÃ³gun": 6265,
      "Ġmáº¹Ìģta": 6266,
      "ologie": 6267,
      "ĠáĪĽáĪµáī³áĭĪáĪ»áĭİáī½": 6268,
      "nes": 6269,
      "tiki": 6270,
      "ĠRoyal": 6271,
      "ĠÃªtre": 6272,
      "yá»įÌĢ": 6273,
      "Ġng": 6274,
      "amban": 6275,
      "Ġbro": 6276,
      "ĠQue": 6277,
      "Mu": 6278,
      "Ùĩ": 6279,
      "yahu": 6280,
      "BA": 6281,
      "El": 6282,
      "sh": 6283,
      "áĬĲáī±áĬķ": 6284,
      "Ġáĭ¨áĬ®": 6285,
      "áĭ«áĬķáĭ³áĬķáĭ±": 6286,
      "ĠáĬŃáįįáĪİáī½": 6287,
      "Ġáĭ¨áĪļáĭ«áĪµ": 6288,
      "Ġwatakatifu": 6289,
      "Ġkimataifa": 6290,
      "itÃ¬": 6291,
      "yota": 6292,
      "Ġsystem": 6293,
      "ĠÃ©gal": 6294,
      "ĠBrazil": 6295,
      "47": 6296,
      "ella": 6297,
      "ident": 6298,
      "Ġáī¶": 6299,
      "áĪµáĪĽ": 6300,
      "ĠáĮ«": 6301,
      "Ġkawo": 6302,
      "Ġ1993": 6303,
      "Ġrawar": 6304,
      "ĠáĬ¥áĬķáĭ²áĭ«": 6305,
      "Ġasali": 6306,
      "Ġ~": 6307,
      "Ġá»ĮÌĢyá»įÌģ": 6308,
      "Ġtáº¹li": 6309,
      "ch,": 6310,
      "Ġbakwai": 6311,
      "team": 6312,
      "aransa": 6313,
      "ĠáĮ³": 6314,
      "ĠáĬłáī¶": 6315,
      "áĮĪáīµ": 6316,
      "áĬłáīµ": 6317,
      "adar": 6318,
      "ĠFarans": 6319,
      "Ġkusan": 6320,
      "-P": 6321,
      "gáº¹": 6322,
      "Ġsayensi": 6323,
      "ĠbÃŃbÃŃ": 6324,
      "Ġáº¹ÌĢrá»į": 6325,
      "ĠBay": 6326,
      "wÃ¹já»į": 6327,
      "¸áį": 6328,
      "áī¾": 6329,
      "Ġnasar": 6330,
      "waju": 6331,
      "Ġáĭ¨áĪĪáĭį": 6332,
      "Ġ(áĬ¥áĬķáĮįáĪĬáĭĿáĬĽ": 6333,
      "ĠáĬ¨áĪģ": 6334,
      "Ġlafiya": 6335,
      "ĠzaÉĵ": 6336,
      "Ġáī¥áĭĽáīµ": 6337,
      "Ġlis": 6338,
      "áī¦áīµ": 6339,
      "áĮĪáĪªáī±": 6340,
      "Ġhistoria": 6341,
      "agen": 6342,
      "ĠLim": 6343,
      "áĬķáĪ³áĭĬ": 6344,
      "Ġmtu": 6345,
      "Ġmmoja": 6346,
      "ĠIlimi": 6347,
      "áĪ³áĪ³áĭŃ": 6348,
      "safa": 6349,
      "chungu": 6350,
      "Ġhuu": 6351,
      "Ġmuziki": 6352,
      "ĠáĭĿáĪŃáĭ«": 6353,
      "Ġáī¡áĭµáĬķ": 6354,
      "Ġcheo": 6355,
      "ĠáĪĪáĪĿáĪ³áĪĮ": 6356,
      "-z": 6357,
      "Ġaye": 6358,
      "eurs": 6359,
      "llo": 6360,
      "Ġintern": 6361,
      "ches": 6362,
      "Ġ2091": 6363,
      "ĠáĭĪáĪįáĭ°": 6364,
      "Ġáĭ³áĪŃ": 6365,
      "Ġhannu": 6366,
      "Ġlabarai": 6367,
      "Ġocc": 6368,
      "ĠSin": 6369,
      "lay": 6370,
      "ĠWata": 6371,
      "ĠPÃ³": 6372,
      "ĠÃºn": 6373,
      "Ġv.": 6374,
      "duc": 6375,
      "ĠGree": 6376,
      "Ġ4,": 6377,
      "Ġ(áĬ¨1892": 6378,
      "ville": 6379,
      "ĠOyo": 6380,
      "Ġanti": 6381,
      "ĠÃłdÃºgbÃ²": 6382,
      "ĠÃ¬á¹£áº¹ÌĢláº¹ÌĢ": 6383,
      "ĠMaria": 6384,
      "Ġá¹£ÃŃá¹£e": 6385,
      "ĠdÃºrÃ³": 6386,
      "De": 6387,
      "xi": 6388,
      "Ã©tÃ©": 6389,
      "Ġgas": 6390,
      "49": 6391,
      "fÃ©": 6392,
      "áĬķáĭ¶": 6393,
      "Ġ(The": 6394,
      "Ġfus": 6395,
      "uttu": 6396,
      "Ġáĭ¨áĬ¦": 6397,
      "áĭĵáĬķ": 6398,
      "Ġrangi": 6399,
      "Ġ2011.": 6400,
      "Ġgroup": 6401,
      "um,": 6402,
      "bá»įÌĢ": 6403,
      "ĠÃ¬dÃŃlÃ©": 6404,
      "ĠÃ¬dÃŃje": 6405,
      "ĠmÃŃrÃłn": 6406,
      "Ġáĭ¨áĭ«": 6407,
      "Ġáĭĺáĭ´": 6408,
      "áĪ©áį¢": 6409,
      "ĠIsra": 6410,
      "Ġduniya.": 6411,
      "Ġsecond": 6412,
      "ĠDemocratic": 6413,
      "Ġsal": 6414,
      "ating": 6415,
      "----": 6416,
      "Ġnde": 6417,
      "Ġáĭ¨áīĨ": 6418,
      "amia": 6419,
      "ikisho": 6420,
      "áīłáīĥ": 6421,
      "ĠFÃ¡": 6422,
      "Ġáī°áīĥ": 6423,
      "iláº¹": 6424,
      "ĠáĮłáīħ": 6425,
      "mÃ¬nira": 6426,
      "áī¥áĪ«áĭŃ": 6427,
      "ĠáĬĥáĭŃáĪį": 6428,
      "Ġáĭ¨áĭįáĮŃ": 6429,
      "pasáº¹": 6430,
      "áĪĮáĬŃáīµáĪªáĬŃ": 6431,
      "5-": 6432,
      "Lo": 6433,
      "ĠAri": 6434,
      "Ġ\"A": 6435,
      "Ġ||": 6436,
      "Ġorigin": 6437,
      "gres": 6438,
      "ĠMont": 6439,
      "ĠáĪĽáĪŃáĭ«áĪĿ": 6440,
      "ĠÃ©galement": 6441,
      "Ġnahi": 6442,
      "áĪĪáĪĺ": 6443,
      "ĠWo": 6444,
      "harar": 6445,
      "que.": 6446,
      "Ġ1987": 6447,
      "ĠáĮĪáĭ°": 6448,
      "Ġáīłáī°áĮ¨áĪĽáĪª": 6449,
      "áĪĲáįĬ": 6450,
      "Ġambapo": 6451,
      "Ġgwamnan": 6452,
      "unc": 6453,
      "ĠAma": 6454,
      "lect": 6455,
      "Ge": 6456,
      "fini": 6457,
      "str": 6458,
      "Ġanci": 6459,
      "ana,": 6460,
      "ĠáĬĥáĭŃáĪĪ": 6461,
      "jwa": 6462,
      "áĪŃáī±": 6463,
      "Ġ(áĬł": 6464,
      "Ġáĭ¨áĪĢ": 6465,
      "ĠáĪĪáĬ¥": 6466,
      "ĠáĭľáĬĵ": 6467,
      "Ġalb": 6468,
      "ĠCam": 6469,
      "Ġáº¹ran": 6470,
      "Ġcount": 6471,
      "ĠWilaya": 6472,
      "Lugha": 6473,
      "yam": 6474,
      "ĠMary": 6475,
      "ĠáĬłáīħ": 6476,
      "ĠTr": 6477,
      "ĠCali": 6478,
      "áĪ«áĭį": 6479,
      "ĠáĬ¨áĪĮ": 6480,
      "ĠáĭŃáĪĦ": 6481,
      "Ġáĭ¨áĪļáī³áĭĪ": 6482,
      "ĠáĮįáĭĽ": 6483,
      "Ġ2001": 6484,
      "ĠáĮĪáĬķ": 6485,
      "ĠKijerumani": 6486,
      "uf": 6487,
      "Ġjus": 6488,
      "ĠGeorg": 6489,
      "gine": 6490,
      "%)": 6491,
      "VID": 6492,
      "Ġent": 6493,
      "ĠÃ¬bÃ¡": 6494,
      "ĠÃ²bÃŃ": 6495,
      "lÃŃÃł": 6496,
      "ĠIndia": 6497,
      "She": 6498,
      "Ġwar": 6499,
      "ĠáĬ¥áĬĶ": 6500,
      "ma.": 6501,
      "áĮ¥áĪĿ": 6502,
      "áĬ¨áĭļáĭ«": 6503,
      "Ġbaadaye": 6504,
      "ĠáĪĺáĮ»áĪķ": 6505,
      "ator": 6506,
      "Ġpartie": 6507,
      "gem": 6508,
      "sim": 6509,
      "ĠFi": 6510,
      "zed": 6511,
      "áĬķáī³": 6512,
      "Ġáĭ¨áĬŃ": 6513,
      "Ġta,": 6514,
      "ĠÃ¬yÃ¡": 6515,
      "ĠHars": 6516,
      "ÆĻi": 6517,
      "Ġ\"B": 6518,
      "Ġlead": 6519,
      "atini": 6520,
      "Ġfollow": 6521,
      "ĠIle-": 6522,
      "Ġtout": 6523,
      "96": 6524,
      "xic": 6525,
      "am,": 6526,
      "ĠCat": 6527,
      "elf": 6528,
      "ĠgÃ©nÃ©r": 6529,
      "fikia": 6530,
      "ĠMpaka": 6531,
      "haif": 6532,
      "áĭµáĬĵ": 6533,
      "áīłáīħ": 6534,
      "kubali": 6535,
      "áĭĽáĬĽáĭį": 6536,
      "ĠáĪµáĪĪáĪļ": 6537,
      "limfuata": 6538,
      "Ġkyautar": 6539,
      "ĠBiranen": 6540,
      "ĠáĪĺáĪįáĬŃáĭĵ": 6541,
      "46": 6542,
      "ĠIá¹£áº¹Ìģ": 6543,
      "Ġ1998": 6544,
      "Ġoluilu": 6545,
      "Ġmambo": 6546,
      "Ġfili": 6547,
      "Ġni:": 6548,
      "ots": 6549,
      "Ġ''": 6550,
      "nia": 6551,
      "zz": 6552,
      "áĪŃáī£": 6553,
      "áĭµáĪ¨áĪµ": 6554,
      "ĠáĬłáĪħ": 6555,
      "rough": 6556,
      "ĠáīĢáĭ³": 6557,
      "engene": 6558,
      "dancin": 6559,
      "ĠáĪĻáĪī": 6560,
      "Ġwakifuata": 6561,
      "John": 6562,
      "ina,": 6563,
      "ĠBauchi": 6564,
      "Ġdem": 6565,
      "ĠMs": 6566,
      "á¹£o": 6567,
      "Ġá¹£áº¹": 6568,
      "joko": 6569,
      "ĠgbÃ¡": 6570,
      "ĠLea": 6571,
      "yá»įrÃŃ": 6572,
      "ĠPoland": 6573,
      "Ġgur": 6574,
      "ĠTanzania.": 6575,
      "Ġshari": 6576,
      "áīµáĪĿ": 6577,
      "áĬĵáĭŃáīµ": 6578,
      "Ġuishe": 6579,
      "Ġarziki": 6580,
      "ĠNews": 6581,
      "izari": 6582,
      "ĠáĬłáĪīáį¢": 6583,
      "ĠDisamba": 6584,
      "Ġhuadhimisha": 6585,
      "pro": 6586,
      "Ġ(He": 6587,
      "ĠKal": 6588,
      "ĠTai": 6589,
      "ushe": 6590,
      "Ġpopulation": 6591,
      "volution": 6592,
      "Ġnipasáº¹": 6593,
      "ĠHigh": 6594,
      "Ġ1991": 6595,
      "h.": 6596,
      "Ġtakriban": 6597,
      "áĮĪáĪ«áīµ": 6598,
      "áīłáĪ³": 6599,
      "hamia": 6600,
      "ĠáĬłáĮĪáĪ®áī½": 6601,
      "babisha": 6602,
      "Ġduniani": 6603,
      "Ġáī¥áĪĶáĪ«áĭĬ": 6604,
      "Ġwhere": 6605,
      "Ġmirefu).": 6606,
      "fofin": 6607,
      "usin": 6608,
      "ĠTer": 6609,
      "we.": 6610,
      "org/": 6611,
      "ĠAw": 6612,
      "áĪµáĪĿ": 6613,
      "Ġ(17": 6614,
      "ĠKÃ²": 6615,
      "ĠáĬ¥áĮįáĭļáĬłáī¥áĪĶáĪŃ": 6616,
      "áĮĪáī¡": 6617,
      "áīĢáĭµáĪŀ": 6618,
      "Ġkoyar": 6619,
      "Ġkowan": 6620,
      "Ġáī£áĭŃ": 6621,
      "Ġyanayin": 6622,
      "Ġzinabaki": 6623,
      "ĠArewacin": 6624,
      "fuatwa": 6625,
      "ĠáĭĪáĭŃáĬķáĪĿ": 6626,
      "ĠáīĢáĮ¥áĪİ": 6627,
      "haji": 6628,
      "ington": 6629,
      "Ġ2007.": 6630,
      "97": 6631,
      "huwa": 6632,
      "uka": 6633,
      "aron": 6634,
      "esu": 6635,
      "ilar": 6636,
      "ĠUN": 6637,
      "inad": 6638,
      "Ġdaida": 6639,
      "ales": 6640,
      "Ġáī°áĮįáī£": 6641,
      "áīłáĪµ": 6642,
      "Ġalors": 6643,
      "Ġáĭ¨áī°áĪĺ": 6644,
      "áĬłáĪĪ": 6645,
      "Ġkwenda": 6646,
      "ĠJean": 6647,
      "Ġyammacin": 6648,
      "ĠAct": 6649,
      "la.": 6650,
      "ĠhÃłn": 6651,
      "ĠGod": 6652,
      "ĠGrand": 6653,
      "ĠAnamb": 6654,
      "Ġstate": 6655,
      "ĠSeri": 6656,
      "Ġ(in": 6657,
      "Ġpays": 6658,
      "c,": 6659,
      "ĠÅ": 6660,
      "Ġndogo": 6661,
      "ti,": 6662,
      "Ġ1996": 6663,
      "áĪĪáĪĿáĪ³áĪĮ": 6664,
      "áĪ¸áĬĲ": 6665,
      "ĠJamiâĢĻar": 6666,
      "'iyyar": 6667,
      "ĠáĪĽáĮ£áīĢáĪ»": 6668,
      "AR": 6669,
      "gÃŃ": 6670,
      "do,": 6671,
      "ĠRichard": 6672,
      "Ġbecame": 6673,
      "ĠoÃ¹": 6674,
      "Ġá»įwá»įÌģ": 6675,
      "Ġleyin": 6676,
      "ick": 6677,
      "pá»įlá»į": 6678,
      "je,": 6679,
      "ography": 6680,
      "historia": 6681,
      "Ġáīłáį": 6682,
      "ĠKin": 6683,
      "Ġmakuu": 6684,
      "Ġáįİ": 6685,
      "ĠáĭŃáĭ©": 6686,
      "Ġáĭ«áĭĺ": 6687,
      "Ġulio": 6688,
      "ĠFestiv": 6689,
      "Ġ1995": 6690,
      "Ġstr": 6691,
      "Ġ(Â«": 6692,
      "ĠMak": 6693,
      "anni": 6694,
      "Ġpin": 6695,
      "ĠId": 6696,
      "umia": 6697,
      "ja,": 6698,
      "ĠadarÃŃ": 6699,
      "wÃ²sÃłn": 6700,
      "á¹£irÃŃá¹£i": 6701,
      "áī°áīµ": 6702,
      "ĠSau": 6703,
      "Ġtaken": 6704,
      "áį¡áīł": 6705,
      "ge.": 6706,
      "Ġkashe": 6707,
      "ĠKaisari": 6708,
      "ĠFabra": 6709,
      "vant": 6710,
      "Ġ<": 6711,
      "ĠGi": 6712,
      "Ġwould": 6713,
      "Ġsamo": 6714,
      "Ġ(2005)": 6715,
      "Ġká»įÌĢ": 6716,
      "Ġ(,": 6717,
      "ĠáĬ¨áĭĪ": 6718,
      "áīħáĭ«": 6719,
      "Ġkan.": 6720,
      "Ġart": 6721,
      "ĠáĮ¥áĪ©": 6722,
      "áĭįáĬķáīµ": 6723,
      "yá»įkÃł": 6724,
      "Ç¹kan": 6725,
      "ĠdÃŃáº¹ÌĢ": 6726,
      "Ġtalabijin": 6727,
      "kÃºn": 6728,
      "Ġlui": 6729,
      "Ġjul": 6730,
      "dad": 6731,
      "depend": 6732,
      "Ġ2006.": 6733,
      "Ġ1997": 6734,
      "wiwa": 6735,
      "Ġdist": 6736,
      "Ġmpaka": 6737,
      "Ġáĭ¨áįĪ": 6738,
      "Ġtakwa": 6739,
      "áĬŃáĬķ": 6740,
      "ĠáīłáĪħ": 6741,
      "fazi": 6742,
      "Ġkm2": 6743,
      "Ġabinci": 6744,
      "Ġkabla": 6745,
      "ĠáĬłáįįáĪªáĬ«": 6746,
      "55": 6747,
      "ĠMichael": 6748,
      "ĠKáº¹Ìģ": 6749,
      "irc": 6750,
      "ĠYunifÃ¡sÃŃtÃ¬": 6751,
      "ĠÃ²fin": 6752,
      "wer": 6753,
      "ĠlÃŃ": 6754,
      "ra.": 6755,
      "ament": 6756,
      "amment": 6757,
      "Ġ(b": 6758,
      "Ġpublic": 6759,
      "vic": 6760,
      "ĠáĪĺáĪ¬áīµ": 6761,
      "Ġkashi": 6762,
      "Ġkarshe": 6763,
      "pewa": 6764,
      "ĠáīłáĪĽáĪĪáīµ": 6765,
      "Ġmakabila": 6766,
      "ĠáĬ¥áĬķáĮįáĪĬáĭĿáĬĽ": 6767,
      "irun": 6768,
      "otball": 6769,
      "gor": 6770,
      "Ġnibi": 6771,
      "Ġmeji": 6772,
      "ĠKÃ¡tÃ³": 6773,
      "42": 6774,
      "Nig": 6775,
      "Ġcou": 6776,
      "Ã¨rÃ¨": 6777,
      "Ġass": 6778,
      "Ġmemba": 6779,
      "áĪŃáī¶": 6780,
      "kai": 6781,
      "Ġdamar": 6782,
      "Ġwatum": 6783,
      "ĠSup": 6784,
      "áĬ¨áī³": 6785,
      "ĠMac": 6786,
      "Ġconf": 6787,
      "áĭ©áĪµ": 6788,
      "áĮ«áĭĪ": 6789,
      "Wakristo": 6790,
      "ĠáĪ³áĭŃáĬķáĪ³áĭĬ": 6791,
      "ĠáįĸáĪĪáī²áĬ«": 6792,
      "áī¥áĪ«áĭŃáĪµáĮ¥": 6793,
      "Ġsta": 6794,
      "ĠGen": 6795,
      "aj": 6796,
      "ĠÃ©c": 6797,
      "Ġelect": 6798,
      "tá»į": 6799,
      "Ġprincip": 6800,
      "mary": 6801,
      "kacin": 6802,
      "áĪ³áĬķ": 6803,
      "uniyar": 6804,
      "Ġ4.": 6805,
      "Ġacikin": 6806,
      "conom": 6807,
      "ĠáĮīáĭ³áĭŃ": 6808,
      "ĠTarihi": 6809,
      "ĠOla": 6810,
      "ĠAssociation": 6811,
      "Ġ(An": 6812,
      "ĠKK": 6813,
      "ĠCOVID": 6814,
      "ĠáĪ¬": 6815,
      "Ġcity": 6816,
      "Ġgari": 6817,
      "ithi": 6818,
      "Ġhut": 6819,
      "Ã²wÃ²": 6820,
      "ĠWam": 6821,
      "Ġhaka,": 6822,
      "Ġáĭ«áĪ³": 6823,
      "fihÃłn": 6824,
      "áº¹ÌģrÃ¬n": 6825,
      "ĠáĬ¥áĬķáĭ³áĭŃ": 6826,
      "ĠáĭĽáĪ¬": 6827,
      "áĭ®áĪŃáĮĬáĪµ": 6828,
      "sha": 6829,
      "Ġx": 6830,
      "esse": 6831,
      "lement": 6832,
      "seed": 6833,
      "ĠAu": 6834,
      "ĠJ.": 6835,
      "cture": 6836,
      "Ġmany": 6837,
      "Ġngu": 6838,
      "Ġneno": 6839,
      "áĮĪáĪ¨": 6840,
      "ĠáĬ¨áĪĨáĬĲ": 6841,
      "Ġáĭ¨áĪļáĪ°": 6842,
      "áīĤáīµ": 6843,
      "ĠáĪļáĬĴáĪµáīµ": 6844,
      "Ġsaurans": 6845,
      "fore": 6846,
      "ĠÃ²á¹£Ã¨rÃ©bÃ¬nrin": 6847,
      "ĠkÃłwÃ©": 6848,
      "-e": 6849,
      "CM": 6850,
      "lahi": 6851,
      "Ġ1975": 6852,
      "heria": 6853,
      "ministr": 6854,
      "áĪŃáĬĵ": 6855,
      "Ġáĭ¨áįį": 6856,
      "áĪįáĬķ": 6857,
      "áĪµáī´": 6858,
      "Ġfut": 6859,
      "Ġáīłáī£": 6860,
      "eter": 6861,
      "asayansi": 6862,
      "áĬĳáĬķ": 6863,
      "áĬ®áĬĸ": 6864,
      "Ġyake.": 6865,
      "ĠáĪļáĪĬáĭ®áĬķ": 6866,
      "ĠáīłáĪµáī°": 6867,
      "áĬĺáīµ": 6868,
      "ĠRoman": 6869,
      "ĠSil": 6870,
      "umar": 6871,
      "ĠUt": 6872,
      "ĠÃ¨rÃ²": 6873,
      "ĠÃĮjá»į": 6874,
      "Ġfiimu": 6875,
      "Ġwá»įÌĢnyÃŃ": 6876,
      "oly": 6877,
      "imba": 6878,
      "Ġ),": 6879,
      "áīĢáĪ¨": 6880,
      "ĠÆĻars": 6881,
      "ĠáīłáĬ®": 6882,
      "áĬłáĪµ": 6883,
      "áĬ®áīµ": 6884,
      "ĠáĬĵáīµáį¢": 6885,
      "Ġáī°áĬ¨áī³": 6886,
      "ĠUsman": 6887,
      "88": 6888,
      "zuri": 6889,
      "mÃł": 6890,
      "zon": 6891,
      "lÃ©lÃ³gÃºn": 6892,
      "76": 6893,
      "°áį»áį": 6894,
      "Ġwur": 6895,
      "áĭµáĪĺ": 6896,
      "Ġáį»áį": 6897,
      "ututtu": 6898,
      "ĠáĭŃáĮł": 6899,
      "áĬ«áĪĿ": 6900,
      "ĠáĪµáī¥áĪµ": 6901,
      "Ġáĭ¨áĪļáĮĪáĬĻ": 6902,
      "Ġáĭ¨áī°áī£áĪĪ": 6903,
      "áĪĻáīµ": 6904,
      "Ġáĭ°áĪ«áĪ²": 6905,
      "ĠdÃ©velop": 6906,
      "Ġyanki": 6907,
      "ĠIbn": 6908,
      "ÙİÙ": 6909,
      "ĠáĮ¸áī£áĭŃ": 6910,
      "Ġáī£áĪħáĪŃ": 6911,
      "Ġ(la": 6912,
      "ĠChin": 6913,
      "Ġthere": 6914,
      "ĠLiber": 6915,
      "Iá¹£áº¹Ìģ": 6916,
      "ket": 6917,
      "ĠAth": 6918,
      "Ã¬yÃłn": 6919,
      "áĭµáĪ®": 6920,
      "ĠáĪĺáīħ": 6921,
      "Ġmakubwa": 6922,
      "áĪİáĮĤ": 6923,
      "Ġáº¹ÌĢka": 6924,
      "ĠáīħáĪŃáĪµ": 6925,
      "ĠÃĴgÃ¹n": 6926,
      "Ġfilin": 6927,
      "Ġmshairi": 6928,
      "kat": 6929,
      "ĠtÃº": 6930,
      "ĠOffi": 6931,
      "Ġqu'il": 6932,
      "ĠVictor": 6933,
      "3=": 6934,
      "ĠnÃ©": 6935,
      "main": 6936,
      "ĠMaris": 6937,
      "áĪ«áĪįáį¢": 6938,
      "áĬ¨áĪĭ": 6939,
      "pakana": 6940,
      "Ġwasannin": 6941,
      "stant": 6942,
      "áĪľáīµ": 6943,
      "Ġabubuwan": 6944,
      "áĬĵáĭŃáīµáĭµ": 6945,
      "kaa": 6946,
      "Ġband": 6947,
      "ĠGomina": 6948,
      "Ġ2017.": 6949,
      "Ġ1989": 6950,
      "ĠfÃŃl": 6951,
      "Ġibn": 6952,
      "PP": 6953,
      "gÃ¬": 6954,
      "ĠGood": 6955,
      "ĠáĬ¥áĪĿáĬĲáīµ": 6956,
      "ĠáĬłáĮĭ": 6957,
      "áĪĭáīģ": 6958,
      "áĪĭáĮĬ": 6959,
      "ĠáĭŃáĪĭáĪįáį¢": 6960,
      "ĠEgy": 6961,
      "áĪ°áĪŃ": 6962,
      "ĠáĭįáĮŃ": 6963,
      "ÉĹu": 6964,
      "jenga": 6965,
      "taniya": 6966,
      "Ġdirect": 6967,
      "56": 6968,
      "riki": 6969,
      "ĠTri": 6970,
      "imbab": 6971,
      "-D": 6972,
      "to.": 6973,
      "ists": 6974,
      "Ġgbá»įÌģ": 6975,
      "lÃ¬kÃ¬": 6976,
      "áī¥áĬķ": 6977,
      "áĪĭáĪµ": 6978,
      "ĠáĪ²áĪĨáĬĳ": 6979,
      "Ġshekarun": 6980,
      "áĬŀáī¹": 6981,
      "ĠfranÃ§ais": 6982,
      "kere": 6983,
      "hiri": 6984,
      "âĢĶ": 6985,
      "rac": 6986,
      "ĠVo": 6987,
      "ĠAmerica": 6988,
      "hab": 6989,
      "ney": 6990,
      "Ġmuka": 6991,
      "dá»į": 6992,
      "pÃłÃ¡": 6993,
      "ĠáĬķáĮīáĪł": 6994,
      "ĠKÃ¡tÃ³lÃ¬kÃ¬": 6995,
      "ĠfÃŃlmÃ¹": 6996,
      "ws": 6997,
      "Ø©": 6998,
      "ĠtrÃ¨s": 6999,
      "áĬķáĬŃ": 7000,
      "Ġmwezi": 7001,
      "ĠáĬ¥áĪŃáĪ±": 7002,
      "áīħáĬĵ": 7003,
      "ĠáīłáĬ¦": 7004,
      "ĠMarekani.": 7005,
      "Ġtaron": 7006,
      "chukua": 7007,
      "ĠáĪĺáĪĨáĬĳáĬķ": 7008,
      "arabci": 7009,
      "Ġhalafu": 7010,
      "Ġsakandare": 7011,
      "dÃ¡n": 7012,
      "Ġani": 7013,
      "les,": 7014,
      "ĠThomas": 7015,
      "Ġweb": 7016,
      "fawa": 7017,
      "Ġsojo": 7018,
      "vre": 7019,
      "Ġagain": 7020,
      "ĠIm": 7021,
      "htm": 7022,
      "ĠIgb": 7023,
      "gbá»įn": 7024,
      "ĠáĭĪáī³áĭ°": 7025,
      "Ġ2018.": 7026,
      "Ġ1976": 7027,
      "Ġá»Įmá»į": 7028,
      "ĠáĪ¥áįįáĪ«": 7029,
      "ĠáĪµáĪĪáĪĨáĬĲ": 7030,
      "rÃ¬á¹£Ãł": 7031,
      "ĠáĪ¦áĪµáīµ": 7032,
      "undin": 7033,
      "ire.": 7034,
      "Ġpremier": 7035,
      "Ġjiki": 7036,
      "Ġsu.": 7037,
      "Ġresp": 7038,
      "Ġ2020,": 7039,
      "gwa": 7040,
      "áĬķáĭ²": 7041,
      "Ġáĭ¨áīħ": 7042,
      "Ġworld": 7043,
      "áī£áī³": 7044,
      "ĠáĪ²áīĢ": 7045,
      "Ġhizo": 7046,
      "áĮħáĪĿ": 7047,
      "áĮŃáĪŃ": 7048,
      "Ġtsohuwar": 7049,
      "gemea": 7050,
      "gori": 7051,
      "Ġchar": 7052,
      "ÃłnÃł": 7053,
      "Ġáº¹bÃŃ": 7054,
      "Ġlime": 7055,
      "Ġ97": 7056,
      "ĠolÃ³Ã²": 7057,
      "Ġaure": 7058,
      "gaba": 7059,
      "te.": 7060,
      "ester": 7061,
      "ryen": 7062,
      "ÑĢ": 7063,
      "Ġyears": 7064,
      "Pope": 7065,
      "áĭ«áĪį": 7066,
      "ĠáĮįáĬķáĬĻ": 7067,
      "Ġhaifar": 7068,
      "Ġhannun": 7069,
      "áī¨áĪŃáĪ²": 7070,
      "Å«": 7071,
      "Ġdab": 7072,
      "Ġ(15": 7073,
      "ĠPan": 7074,
      "ice": 7075,
      "áº¹áº¹ráº¹": 7076,
      "Ġfon": 7077,
      "gbáº¹ÌĢ": 7078,
      "nÃ¬s": 7079,
      "ĠPÃ³pÃ¹": 7080,
      "Shi": 7081,
      "Ġdisp": 7082,
      "ara,": 7083,
      "Ġ1988": 7084,
      "ohann": 7085,
      "86": 7086,
      "pande": 7087,
      "áĬ¨áĪ¨áĪĿ": 7088,
      "áĬ«áĬ¨áĪĪ": 7089,
      "áĪĨáĬĸ": 7090,
      "ĠáĭµáĪį": 7091,
      "ĠáīµáĪŃáĮīáĪĿ": 7092,
      "usieurs": 7093,
      "ĠáĮİáĬķ": 7094,
      "Ġ5,": 7095,
      "formation": 7096,
      "ĠInstitute": 7097,
      "Ġ2006,": 7098,
      "ayÃ©": 7099,
      "ĠBC": 7100,
      "olf": 7101,
      "gie": 7102,
      "Ġ60": 7103,
      "ĠlÃ¡Ãłrin": 7104,
      "ĠAlexander": 7105,
      "áĮª": 7106,
      "áĪµáĭ«": 7107,
      "Ġ(áĭĪ": 7108,
      "Ġganin": 7109,
      "urt": 7110,
      "áĬŃáĪ²": 7111,
      "Ġinv": 7112,
      "áĪªáĪµ": 7113,
      "ariya": 7114,
      "áĬłáĬķáĭµ": 7115,
      "Ġáĭĺáįĭ": 7116,
      "áīĥáĪ´": 7117,
      "Ġharkokin": 7118,
      "Ġambazo": 7119,
      "à¤ķ": 7120,
      "ĠParis": 7121,
      "Ġjamii": 7122,
      "Ġkuliko": 7123,
      "Ġari": 7124,
      "atis": 7125,
      "papa": 7126,
      "teur": 7127,
      "other": 7128,
      "koki": 7129,
      "Ġaro": 7130,
      "ĠrÃ©gion": 7131,
      "-H": 7132,
      "sy": 7133,
      "áº¹áº¹": 7134,
      "ĠImo": 7135,
      "ĠJáº¹Ìģ": 7136,
      "áīĢáĮ¥": 7137,
      "osentomon": 7138,
      "ĠáĪµáĪŀáī½": 7139,
      "Ġuko": 7140,
      "Ġkanta": 7141,
      "áĪĻáĬķ": 7142,
      "able": 7143,
      "ĠKamusi": 7144,
      "ĠáĪĿáĪįáĬŃáīµ": 7145,
      "áīħáĪµáīĥáĪ´": 7146,
      "9-": 7147,
      "usan": 7148,
      "ĠPal": 7149,
      "87": 7150,
      "p.": 7151,
      "Ġ(d.": 7152,
      "sili": 7153,
      "ĠJon": 7154,
      "anguage": 7155,
      "Ġtransl": 7156,
      "áĬķáĮİ": 7157,
      "Ġkudancin": 7158,
      "irar": 7159,
      "áĪĽáĪ½": 7160,
      "áĭ³áĪį": 7161,
      "ĠáĭĺáĪĺáĬĵáĭĬ": 7162,
      "su.": 7163,
      "Ġáīłáī°áĪĪ": 7164,
      "Ġimani": 7165,
      "ĠáĪĥáĭŃáĪĽáĬĸáīµ": 7166,
      "Ġnufin": 7167,
      "Ġfitar": 7168,
      "NA": 7169,
      "eren": 7170,
      "ĠIf": 7171,
      "ĠÃ¬gbÃ¬má»įÌĢ": 7172,
      "Ġinu": 7173,
      "ĠJuli": 7174,
      "ĠSchool,": 7175,
      "ĠMoro": 7176,
      "Ġhigh": 7177,
      "ĠÉĵ": 7178,
      "Ġren": 7179,
      "iken": 7180,
      "ĠWash": 7181,
      "ĠIslam": 7182,
      "Au": 7183,
      "Ġ×": 7184,
      "Ġsans": 7185,
      "áĪĿáī¥": 7186,
      "Ġkuta": 7187,
      "Ġkutumia": 7188,
      "Ġtawa": 7189,
      "ĠTsa": 7190,
      "ĠáĪĿáĭķáĪ«áī¥": 7191,
      "áį¡áĬ¥": 7192,
      "áĭ²áĭ®": 7193,
      "ĠáīµáĪŃ": 7194,
      "ĠáīµáĪĿáĪħáĪŃ": 7195,
      "Ġhivi": 7196,
      "ĠWaislamu": 7197,
      "Ġ2019.": 7198,
      "ĠáĪĺáĪ°áĪ¨áīµ": 7199,
      "áĪµáĪĪáĭļáĪħ": 7200,
      "ĠáĭŃáĪĨáĬĵáĪįáį¢": 7201,
      "Ġces": 7202,
      "Ġfur": 7203,
      "aract": 7204,
      "bujoko": 7205,
      "tumÃ²": 7206,
      "lá»įÌģwá»įÌģ": 7207,
      "Ġtáº¹lifÃŃ": 7208,
      "bor": 7209,
      "limia": 7210,
      "Ġplay": 7211,
      "http://www.": 7212,
      "ded": 7213,
      "ãĤ": 7214,
      "Ġwame": 7215,
      "áĪĿáįĴ": 7216,
      "ĠMwaka": 7217,
      "áĪĽáĪį": 7218,
      "Ġáĭ¨áĪ®": 7219,
      "Ġlim": 7220,
      "ĠáĬĲáĮĪáĪł": 7221,
      "Ġáĭ«áĪĪáĭįáĬķ": 7222,
      "arufu": 7223,
      "ĠAngel": 7224,
      "ĠáĭŃáīĢáĪ«áĪīáį¢": 7225,
      "Ġwatsa": 7226,
      "holanzi": 7227,
      "Ġ1984": 7228,
      "Ġkis": 7229,
      "Ġgan": 7230,
      "elon": 7231,
      "ĠCount": 7232,
      "-T": 7233,
      "-i": 7234,
      "bá»įÌģá»įÌĢlÃ¹": 7235,
      "Ġoju": 7236,
      "Ġika": 7237,
      "Ġ+": 7238,
      "Ġ(16": 7239,
      "alement": 7240,
      "ĠBÃŃ": 7241,
      "emu": 7242,
      "Ġáĭ¨áĪ´": 7243,
      "ĠEr": 7244,
      "Ġhayo": 7245,
      "áĮĭáīµ": 7246,
      "Ġ1982": 7247,
      "Ġáī°áĪ«áĪ«": 7248,
      "ĠáĭŃáĪĺáĪµáĪĭáĪįáį¢": 7249,
      "Ġnahiyar": 7250,
      "ĠMc": 7251,
      "ĠIk": 7252,
      "hind": 7253,
      "Ġ1967": 7254,
      "ĠRec": 7255,
      "Duk": 7256,
      "ried": 7257,
      "Ġ2009,": 7258,
      "Ġconstitu": 7259,
      "Yana": 7260,
      "ĠkÃ¡Ãł": 7261,
      "Ġmengi": 7262,
      "lit": 7263,
      "ĠpÃŃn": 7264,
      "áĭ°áĪµ": 7265,
      "ĠGasar": 7266,
      "ĠÃĮjáº¹ÌĢ": 7267,
      "ĠáĬŃáĪŃáĪµáī²áĭ«": 7268,
      "Ġaskofu": 7269,
      "áĮĢáīµ": 7270,
      "Ġáº¹ÌĢsÃ¬n": 7271,
      "ĠáĮĭáĪ«": 7272,
      "dÃŃnlá»įÌģgbá»įÌĢn": 7273,
      "Ġtáº¹ÌģnÃ¬s": 7274,
      "arn": 7275,
      "un.": 7276,
      "Ġowo": 7277,
      "ĠgÃ©": 7278,
      "Ġtaba": 7279,
      "Ġang": 7280,
      "jumo": 7281,
      "hil": 7282,
      "Ġ(2004)": 7283,
      "Ġcalled": 7284,
      "uko": 7285,
      "Ġáĭ¨áĪĪáĪĿ": 7286,
      "Ġáį©": 7287,
      "ĠáĭŃáĭŀ": 7288,
      "áĮ£áĬķ": 7289,
      "ĠáĮĪáĮ½": 7290,
      "ĠÉĹin": 7291,
      "ĠáĮ½áĪķ": 7292,
      "Ġsaman": 7293,
      "ĠáįĪáĪŃáĭĸáĬķ": 7294,
      "bÃ¬": 7295,
      "á»įlÃ¡": 7296,
      "Ġhab": 7297,
      "ĠVita": 7298,
      "jÃłkÃ¡láº¹ÌĢ": 7299,
      "ĠÂ»,": 7300,
      "Ġyear": 7301,
      "Ġjulá»į": 7302,
      "yr": 7303,
      "Ġwit": 7304,
      "Ġkabi": 7305,
      "otes": 7306,
      "Ġnumber": 7307,
      "-d": 7308,
      "katar": 7309,
      "andan": 7310,
      "ument": 7311,
      "ĠHistory": 7312,
      "angwa": 7313,
      "very": 7314,
      "ĠáĬĽ": 7315,
      "Ġph": 7316,
      "ĠáīłáĬ«": 7317,
      "áĭ³áĭµ": 7318,
      "Ġsabon": 7319,
      "ĠáĭįáĪĢ": 7320,
      "jejen": 7321,
      "áĪ²áĭ«": 7322,
      "ĠÉĹari": 7323,
      "enegal": 7324,
      "ĠáĭķáĪĪáī°": 7325,
      "ĠáįįáĪ¬": 7326,
      "áĬ¥áĬķáĭ²": 7327,
      "ĠMisri": 7328,
      "ole": 7329,
      "ĠMet": 7330,
      "ĠAustria": 7331,
      "Ġá»įpá»įlá»į": 7332,
      "Ġ1986": 7333,
      "ÃĪyÃŃ": 7334,
      "AC": 7335,
      "site": 7336,
      "andika": 7337,
      "Â»)": 7338,
      "ĠArgent": 7339,
      "Ġáĭ¨áĬ¨": 7340,
      "áĪĪáį¢": 7341,
      "ĠLatin": 7342,
      "Ġáĭ¨áĪ±": 7343,
      "ĠáĪµáĪĭ": 7344,
      "áĮłáĪĪ": 7345,
      "endant": 7346,
      "Ġiyaka": 7347,
      "áĬķáĮĮ": 7348,
      "áī¥áĪŃáĪĥ": 7349,
      "ĠáĪĿáĬķáĮĬáĭľ": 7350,
      "07": 7351,
      "Ã©c": 7352,
      "voir": 7353,
      "don": 7354,
      "dÃ¬ÃŃ": 7355,
      "jÃ¨": 7356,
      "oun": 7357,
      "ĠÃ¬s": 7358,
      "xim": 7359,
      "áĬ£": 7360,
      "áī³áĬķ": 7361,
      "ĠRÃ©": 7362,
      "áĬ«áĬ¤áĪį": 7363,
      "áĪİáī¹": 7364,
      "ĠáĪįáĮģ": 7365,
      "Ġáī¢áĭ«": 7366,
      "onyesha": 7367,
      "Ġcibiyar": 7368,
      "Ġtabbatar": 7369,
      "ĠCongress": 7370,
      "yahudi": 7371,
      "ĠApp": 7372,
      "Ġhuwa": 7373,
      "Ġthree": 7374,
      "ements": 7375,
      "ĠÃį": 7376,
      "enza": 7377,
      "ĠPor": 7378,
      "ĠHam": 7379,
      "Ġloc": 7380,
      "Nchi": 7381,
      "Ġzar": 7382,
      "ĠAngo": 7383,
      "17)": 7384,
      "BÃ¡": 7385,
      "Jihar": 7386,
      "zungu": 7387,
      "ĠsÃ³": 7388,
      "Ġáĭ¨áīł": 7389,
      "Ġáĭ¨áĮĭ": 7390,
      "ĠáĭįáĪĥ": 7391,
      "Ġmatu": 7392,
      "ĠáīłáĪĺáĪĨáĬķ": 7393,
      "ĠilÃ©-Ã¬wÃ©": 7394,
      "ambia": 7395,
      "fÃŃrÃŃkÃł": 7396,
      "Babban": 7397,
      "95": 7398,
      "m.": 7399,
      "pÃ³": 7400,
      "atre": 7401,
      "Ġpeu": 7402,
      "istori": 7403,
      "istrict": 7404,
      "---": 7405,
      "áĬķáīĢ": 7406,
      "Ġmen": 7407,
      "ĠáĪĺáĮį": 7408,
      "ĠáĬ¨áĪĿ": 7409,
      "Ġzo": 7410,
      "ĠáīłáĬ¤": 7411,
      "áĬ¥áĬĲáĭļáĪħ": 7412,
      "Ġáī£áĪķáĪŃ": 7413,
      "áīłáīµáĬķ": 7414,
      "Ġ1974": 7415,
      "Ġáĭ¨áĬłáĭ¨áĪŃ": 7416,
      "áīĤáĭ«": 7417,
      "ĠUniversity,": 7418,
      "Ġgirm": 7419,
      "Hivyo": 7420,
      "Ġgargajiya": 7421,
      "áī¨áĪŃáĪ²áī²": 7422,
      "yc": 7423,
      "Ġaz": 7424,
      "li.": 7425,
      "Ġá»įgá»įÌģ": 7426,
      "Ġáº¹gbáº¹": 7427,
      "iction": 7428,
      "dua": 7429,
      "tÃłrÃŃ": 7430,
      "Ã¡Ã¡jÃº": 7431,
      "Î¹": 7432,
      "son,": 7433,
      "inin": 7434,
      "liya": 7435,
      "kas": 7436,
      "emia": 7437,
      "ii": 7438,
      "Ġsen": 7439,
      "Ġphilosop": 7440,
      "Ġjumla": 7441,
      "ĠáĪĪáĪļ": 7442,
      "áĬĽáĭįáĪĿ": 7443,
      "Ġyanayi": 7444,
      "....": 7445,
      "Ġlittafin": 7446,
      "bai": 7447,
      "stan": 7448,
      "ĠSahara": 7449,
      "Ġ(2015": 7450,
      "Ġfamilia": 7451,
      "dáº¹Ìģ": 7452,
      "Ġáīª": 7453,
      "Ġkan,": 7454,
      "Ġ(2016": 7455,
      "tra": 7456,
      "áĭ«áĪľ": 7457,
      "Ġriki": 7458,
      "ĠSho": 7459,
      "ĠáĬłáĭĭ": 7460,
      "ulin": 7461,
      "Ġsakamakon": 7462,
      "ĠYou": 7463,
      "uncil": 7464,
      "ĠSol": 7465,
      "ĠDelta": 7466,
      "Ġins": 7467,
      "âĢ¹": 7468,
      "ĠannÃ©es": 7469,
      "onin": 7470,
      "ĠYuni": 7471,
      "Ġkáº¹Ìģká»įÌĢá»įÌģ": 7472,
      "43": 7473,
      "Ġelle": 7474,
      "Ġnatur": 7475,
      "áĬķáī¥": 7476,
      "ĠáĮĥ": 7477,
      "áĭŃáĪģ": 7478,
      "Ġtaifa": 7479,
      "Ġáī°áĮ½": 7480,
      "ĠáīłáĪĭ": 7481,
      "áįįáĬķ": 7482,
      "áĪ°áīµ": 7483,
      "Ġ5.": 7484,
      "ĠáĬłáĪĪáĭį": 7485,
      "ĠáĬłáĪĪáĭįáį¢": 7486,
      "ĠDay": 7487,
      "Ġmakao": 7488,
      "Ġwenyewe": 7489,
      "ĠáĭŃáī»áĪĭáĪįáį¢": 7490,
      "ĠBiblia": 7491,
      "ĠGroup": 7492,
      "-F": 7493,
      "-N": 7494,
      "ĠKid": 7495,
      "illar": 7496,
      "ĠFound": 7497,
      "umm": 7498,
      "Ġ1979": 7499,
      "man,": 7500,
      "Ġgiga": 7501,
      "Orodha": 7502,
      "toni": 7503,
      "wÃ¬": 7504,
      "ĠáīĦ": 7505,
      "Ġmit": 7506,
      "ĠKol": 7507,
      "ĠÃłká»į": 7508,
      "ĠáĬłáĭĺ": 7509,
      "áĪ³áĪ°": 7510,
      "jiji": 7511,
      "Ġ1992": 7512,
      "ĠRound)": 7513,
      "Ġwanao": 7514,
      "Ġjiho": 7515,
      "Ġkawai": 7516,
      "ĠPeter": 7517,
      "áĬ¨áī°áĪĽáĭį": 7518,
      "Ġáī¢áĪĨáĬķáĪĿ": 7519,
      "ĠáĪĿáĬķáĮĬáĭľáĪĿ": 7520,
      "ek": 7521,
      "Ð½": 7522,
      "Ġnkan": 7523,
      "ĠIra": 7524,
      "si.": 7525,
      "ict": 7526,
      "ĠCalifor": 7527,
      "amare": 7528,
      "emble": 7529,
      "Ø³": 7530,
      "ĠLaw": 7531,
      "ĠKwam": 7532,
      "ĠáĬĲáĮ¥": 7533,
      "Ġáī°áĬŃáĪį": 7534,
      "Ġmats": 7535,
      "áī¡áĬķ": 7536,
      "Ġshafi": 7537,
      "ĠáĬłáĪįáī°": 7538,
      "ĠáĪłáĪ«áĭĬáīµ": 7539,
      "OR": 7540,
      "jÃ¬n": 7541,
      "ĠKari": 7542,
      "Ġnitori": 7543,
      "Ġ2010.": 7544,
      "ĠlÃ¡ÃłrÃŃn": 7545,
      "yáº¹ÌĢwÃ²": 7546,
      "zani": 7547,
      "ultani": 7548,
      "issance": 7549,
      "as.": 7550,
      "Ġhana": 7551,
      "-J": 7552,
      "Ġáĭ¨áįĬ": 7553,
      "Ġfadin": 7554,
      "Ġkufuatana": 7555,
      "áĪĺáĮ¥": 7556,
      "áĪªáīĥ": 7557,
      "ĠáĭĪáĮ¥": 7558,
      "áī¸áĭĭáĪįáį¢": 7559,
      "ĠáĪ°áĬĲ": 7560,
      "Ġkiasi": 7561,
      "ĠáĪĬáīĥ": 7562,
      "Ġbiyu,": 7563,
      "ĠáīĨáĭŃ": 7564,
      "áĬķáĮīáĪ¥": 7565,
      "ĠKasuwan": 7566,
      "Ġfina-finai": 7567,
      "ĠáĬłáĪ«áīµ": 7568,
      "áĪįáĪµáįįáĬĵ": 7569,
      "Ġáįªáį»áį": 7570,
      "500": 7571,
      "ym": 7572,
      "ection": 7573,
      "attle": 7574,
      "-áº¹": 7575,
      "firi": 7576,
      "páº¹Ìģ": 7577,
      "hai": 7578,
      "ĠRos": 7579,
      "ĠZimbab": 7580,
      "ĠÃ©tait": 7581,
      "Hasa": 7582,
      "tanga": 7583,
      "Ġ1978": 7584,
      "tin": 7585,
      "Ġmanu": 7586,
      "amini": 7587,
      "Ġmain": 7588,
      "ĠáĬ¨áĮį": 7589,
      "Ġáī°áĮĪ": 7590,
      "áĪªáĬ®áī½": 7591,
      "ĠáĭŃáīĨ": 7592,
      "anne": 7593,
      "ituo": 7594,
      "Waliofariki": 7595,
      "ĠáĮĮáī³": 7596,
      "ĠáĮĬáĭ®áĪŃáĮĬáĪµ": 7597,
      "98": 7598,
      "]]": 7599,
      "zung": 7600,
      "::": 7601,
      "dic": 7602,
      "Ġearly": 7603,
      "Ġprogram": 7604,
      "-á»į": 7605,
      "táº¹": 7606,
      "ission": 7607,
      "Ġmade": 7608,
      "ĠChe": 7609,
      "edia": 7610,
      "oshi": 7611,
      "ĠyÃ¬ÃŃ.": 7612,
      "ton,": 7613,
      "Ġyakin": 7614,
      "áĪĪáīĢ": 7615,
      "ĠB.": 7616,
      "áĪĽáĭįáĭ«áĬķ": 7617,
      "ĠáįĮ": 7618,
      "ama,": 7619,
      "áĪ°áĪĽ": 7620,
      "áī¸áĭī": 7621,
      "Ġzaune": 7622,
      "istry": 7623,
      "Ġ2007,": 7624,
      "Ġ1966": 7625,
      "ĠáĪĬáīĢ": 7626,
      "Ġyawancin": 7627,
      "ĠáĬłáĪĺáī³áīµ": 7628,
      "áī·áĬķ": 7629,
      "ĠKifaransa": 7630,
      "Ġdid": 7631,
      "ĠPoli": 7632,
      "III": 7633,
      "gg": 7634,
      "enta": 7635,
      "Ġcas": 7636,
      "ortant": 7637,
      "Tari": 7638,
      "uve": 7639,
      "ate,": 7640,
      "ĠPhili": 7641,
      "ĠOlo": 7642,
      "ĠFrancis": 7643,
      "ĠInternet": 7644,
      "fáº¹": 7645,
      "ery": 7646,
      "Ġdashi": 7647,
      "áĪµáį£": 7648,
      "Ġrike": 7649,
      "Ġrasu": 7650,
      "omm": 7651,
      "ĠáīłáĪĢ": 7652,
      "áĬ«áĪĦ": 7653,
      "ĠáĮĪáĭ¥": 7654,
      "ĠáĪĺáĬķáĮįáĪ¥áī³áīµ": 7655,
      "kÃ²rÃ²": 7656,
      "Ġwadannan": 7657,
      "áĭŀáī½": 7658,
      "Ġáĭ¨áīĢáĭµáĪŀ": 7659,
      "hird": 7660,
      "áĪĨáĬĸáĪĿ": 7661,
      "ison": 7662,
      "Ġ1983": 7663,
      "ĠFrank": 7664,
      "ull": 7665,
      "endera": 7666,
      "ĠNet": 7667,
      "mah": 7668,
      "ĠIlu": 7669,
      "ĠAlf": 7670,
      "58": 7671,
      "ywa": 7672,
      "áĭ°áĬķ": 7673,
      "áĪ³áĪįáį¢": 7674,
      "ĠDon": 7675,
      "round": 7676,
      "áĬĴáĪįáĬŃ": 7677,
      "áįĬáĭ«": 7678,
      "Ġáĭ¨áĪļáĮĪáĬĿáīłáīµ": 7679,
      "Ġakiwa": 7680,
      "ĠChristian": 7681,
      "-Ã²": 7682,
      "Ġpub": 7683,
      "ĠwÃ²": 7684,
      "ĠÅĦlÃ¡": 7685,
      "ĠmÃºláº¹ÌĢ": 7686,
      "tumÃ²:": 7687,
      "Bi": 7688,
      "GB": 7689,
      "ghu": 7690,
      "orm": 7691,
      "Ġwell": 7692,
      "ĠpremiÃ¨re": 7693,
      "tains": 7694,
      "ĠáĬĥ": 7695,
      "Ġmvu": 7696,
      "atsayin": 7697,
      "ĠáĬ¥áĬ©áĪį": 7698,
      "ĠáĬłáĬĵ": 7699,
      "ĠOko": 7700,
      "ĠáįĴ": 7701,
      "position": 7702,
      "ĠáĪĨáĬĳ": 7703,
      "ĠChurch": 7704,
      "Ġáĭķáĭµ": 7705,
      "ĠáīłáĬłáĪģáĬĳ": 7706,
      "ĠáĭĺáĬķáĭµáį£": 7707,
      "rich": 7708,
      "Ġbeing": 7709,
      "sitÃ¬": 7710,
      "ĠKur": 7711,
      "Ġ2008,": 7712,
      "ĠparÃŃ": 7713,
      "gbÃ©sÃŃ": 7714,
      "Ġtáº¹Ìģláº¹ÌĢ.": 7715,
      "ĠBorno": 7716,
      "Ġ$": 7717,
      "Ġdro": 7718,
      "ĠDunia": 7719,
      "vice": 7720,
      "artar": 7721,
      "Ġjiha": 7722,
      "html": 7723,
      "tat": 7724,
      "áįı": 7725,
      "ĠáīĤ": 7726,
      "Ġpuis": 7727,
      "áĪĪáĭĭáĪįáį¢": 7728,
      "ĠáĬ¨áī£": 7729,
      "Ġáī°áĮ«": 7730,
      "Ġáĭ¨áĪģ": 7731,
      "áĭĿáĪĿ": 7732,
      "ĠáĪ²áĪį": 7733,
      "ĠáĮįáĭµ": 7734,
      "ĠâĢ¹": 7735,
      "áĭ±áį¢": 7736,
      "Ġl'in": 7737,
      "undun": 7738,
      "Ġyanke": 7739,
      "ĠáĪĬáĭ«": 7740,
      "áĭ°áĪ¨áĮĪáĭį": 7741,
      "ĠWatakatifu": 7742,
      "ĠáĪĺáĮ»áĪķáįįáīµ": 7743,
      "s)": 7744,
      "bi.": 7745,
      "Ġwi": 7746,
      "41": 7747,
      "athan": 7748,
      "ĠpÃºpá»įÌĢ": 7749,
      "Ġ1977": 7750,
      "ĠgbÃ³": 7751,
      "Ã³nÃł": 7752,
      "Ġoluko": 7753,
      "rÃ¡lÃŃÃł": 7754,
      "Ġoruko": 7755,
      "Far": 7756,
      "Ġáĭ¨áĮĢáĪŃáĪĺáĬķ": 7757,
      "áī°áĬĵ": 7758,
      "áĪ¨áĪŃ": 7759,
      "ĠáīłáĪŀ": 7760,
      "ĠáĬ¥áĬķáīħáĪµáīĥáĪ´": 7761,
      "Ġzane": 7762,
      "Ġáī¥áĪĶáĪŃ": 7763,
      "ĠáĬŃáĪĪáī¥": 7764,
      "ĠáīłáĪĺáī£áĪį": 7765,
      "ĠáĮĪáī¥áĪ¨": 7766,
      "Ġchama": 7767,
      "áĭ°áĪŃáĮį": 7768,
      "Ġmajor": 7769,
      "ĠáĬłáīĢáįį": 7770,
      "ked": 7771,
      "Ġ(3": 7772,
      "omp": 7773,
      "ĠCentral": 7774,
      "Ġdest": 7775,
      "Ġ1918": 7776,
      "ana.": 7777,
      "Ġtradition": 7778,
      "Par": 7779,
      "Ġ(13": 7780,
      "Ġlau": 7781,
      "Ġ(2006)": 7782,
      "Ġpoint": 7783,
      "ĠSalaam": 7784,
      "pinduzi": 7785,
      "uel": 7786,
      "áĭ·": 7787,
      "Ġsanar": 7788,
      "áĪŃáī³": 7789,
      "ti.": 7790,
      "ĠáĬ¥áĪĿ": 7791,
      "ĠGÃºÃºsÃ¹": 7792,
      "ĠJina": 7793,
      "Ġáĭ¨áĪļáĪ°áĪ«": 7794,
      "ĠáĪĽáĬħ": 7795,
      "áĪ¥áĪ«": 7796,
      "ĠAustrÃ¡lÃŃÃł": 7797,
      "ĠkÃºkur": 7798,
      "Ġáĭ¨áĭĵáĪĺáī±": 7799,
      "Ġmahaifin": 7800,
      "Ġinganta": 7801,
      "ĠkÃºkurÃº": 7802,
      "77": 7803,
      "Ïģ": 7804,
      "arra": 7805,
      "Ġkeje": 7806,
      "kunrin": 7807,
      "ĠGovernment": 7808,
      "fik": 7809,
      "Ġsuc": 7810,
      "Ġconstru": 7811,
      "Ġ1965": 7812,
      "ĠMohammed": 7813,
      "cel": 7814,
      "fund": 7815,
      "mir": 7816,
      "Ġyasa": 7817,
      "Ġimo": 7818,
      "ĠWab": 7819,
      "Ġ1950": 7820,
      "ĠáĬĲáĮĪáĪ¥áīµ": 7821,
      "ĠÂ».": 7822,
      "Ġtenis": 7823,
      "Ġkuzaliwa": 7824,
      "ĠáĪĺáĬ®": 7825,
      "ĠáĪĺáĪ£": 7826,
      "ĠáĬ¨áĮ¥": 7827,
      "áĬ¨áĬĵ": 7828,
      "áĬķáĮįáĪį": 7829,
      "Ġáĭ¨áĬĲáīłáĪ©áīµ": 7830,
      "áĮĬáĭ«": 7831,
      "Ġsiyasan": 7832,
      "Ġjami'ar": 7833,
      "Kuma": 7834,
      "áĮĬáĭľáĭį": 7835,
      "ĠáīµáĬķáĪ½": 7836,
      "Ġbangaren": 7837,
      "ĠáĪºáĪħ": 7838,
      "chunguza": 7839,
      "pl": 7840,
      "embo": 7841,
      "ĠkarÃ¹n": 7842,
      "kÃ²Ã³": 7843,
      "Ġmak": 7844,
      "Ġkeji": 7845,
      "ĠAle": 7846,
      "Ġphysi": 7847,
      "ĠStudi": 7848,
      "andard": 7849,
      "Ġvers": 7850,
      "ĠÙ": 7851,
      "Ġast": 7852,
      "ĠSir": 7853,
      "ĠáĬ¨áĪµ": 7854,
      "ĠFe": 7855,
      "Ġhaya": 7856,
      "Ġhaki": 7857,
      "ĠáĪµáĬķ": 7858,
      "Ġáĭ«áĪĭáī¸áĭį": 7859,
      "Ġ2013.": 7860,
      "go.": 7861,
      "ĠáīĥáĪĭáīµ": 7862,
      "ĠUsw": 7863,
      "ĠSarkin": 7864,
      "Ġofficial": 7865,
      "ĠáĬłáĮĪáĪįáĮįáĪİáīµ": 7866,
      "ĠFederal": 7867,
      "dian": 7868,
      "Ġplusieurs": 7869,
      "ĠSecond": 7870,
      "Ġlors": 7871,
      "ĠSta": 7872,
      "ĠÃ¬wÃ¡": 7873,
      "Ġá»įká»įÌĢ": 7874,
      "ĠÃĢyá»įkÃł": 7875,
      "otun": 7876,
      "ĠsÃŃnÃº": 7877,
      "ĠonÃŃmá»įÌĢ": 7878,
      "ĠÃģfÃŃrÃŃkÃł": 7879,
      "Ġhttp://www.": 7880,
      "ĠÃ¬lera": 7881,
      "Ġfada": 7882,
      "ĠDara": 7883,
      "ifi": 7884,
      "ĠTurai": 7885,
      "ĠMartin": 7886,
      "ĠHenry": 7887,
      "áĪįáĮĭ": 7888,
      "Ġáĭ¨áī°áī£": 7889,
      "ÉĹi": 7890,
      "ĠAfrilu": 7891,
      "ĠáĬłáĪµáįĪ": 7892,
      "ĠáĮĢáĪŃáĪĺáĬķ": 7893,
      "Ġáī°áĪĺáĪ³áĪ³áĭŃ": 7894,
      "ĠáĬłáī£áĪĭáīµ": 7895,
      "áĬ®áĬĸáĪļ": 7896,
      "ril": 7897,
      "ĠUm": 7898,
      "ĠAnti": 7899,
      "ĠLouis": 7900,
      "Ġnoma": 7901,
      "ĠAbe": 7902,
      "ci.": 7903,
      "Ġvit": 7904,
      "land,": 7905,
      "Ce": 7906,
      "ÏĤ": 7907,
      "áĭŃáĪį": 7908,
      "ĠIt": 7909,
      "ĠáĬłáĮį": 7910,
      "ĠáĬłáĮł": 7911,
      "ĠWin": 7912,
      "áĭ¨áĪļ": 7913,
      "áĮłáīµ": 7914,
      "áĪĬáĬķ": 7915,
      "Ġ70": 7916,
      "Ġtsakiyar": 7917,
      "ĠáĪĪáĪĽáĪµ": 7918,
      "Ġnasarar": 7919,
      "'o": 7920,
      "B.": 7921,
      "qui": 7922,
      "yÃ²": 7923,
      "Ġmam": 7924,
      "ĠKon": 7925,
      "ĠIya": 7926,
      "ĠCiv": 7927,
      "ĠOsu": 7928,
      "-20": 7929,
      "cus": 7930,
      "ois": 7931,
      "Ġnord": 7932,
      "Ġsame": 7933,
      "onia": 7934,
      "resent": 7935,
      "Ġnotamment": 7936,
      "gement": 7937,
      "yáº¹Ìģ": 7938,
      "áĮİáī½": 7939,
      "Ġkisi": 7940,
      "ĠMji": 7941,
      "Ġgidi": 7942,
      "Ġruwan": 7943,
      "ĠáĬ¥áĪ«áĪ±": 7944,
      "Ġáĭ¨áĬ¡": 7945,
      "áĪīáĬķ": 7946,
      "ĠáĭĵáĭŃáĬĲáīµ": 7947,
      "ifiki": 7948,
      "Ġuwan": 7949,
      "Ġkananan": 7950,
      "Ġáĭ¨áĬłáĭįáĪ®áįĵ": 7951,
      "ĠáĬłáĪĪáį¢": 7952,
      "wamna": 7953,
      "ĠáĮĢáĪĺáĪ¨": 7954,
      "engwa": 7955,
      "Ġulikuwa": 7956,
      "ĠáĬłáĪĿáī£": 7957,
      "ĠÃłmÃ¬-áº¹ÌĢyáº¹": 7958,
      "ĠáĬŃáįįáĪĭáĮĪáĪŃ": 7959,
      "keji": 7960,
      "190": 7961,
      "ĠCommun": 7962,
      "wor": 7963,
      "ĠtÃ©": 7964,
      "duction": 7965,
      "ĠOm": 7966,
      "Ġ36": 7967,
      "tto": 7968,
      "Ġáĭ¨áĪ«áĪ±": 7969,
      "isme": 7970,
      "ĠSenegal": 7971,
      "Ġhalin": 7972,
      "áĪ°áĪį": 7973,
      "Ġzabe": 7974,
      "áĭĺáĭį": 7975,
      "Ġkiongozi": 7976,
      "rise": 7977,
      "¢áīµáĭ®áĮµáĭ«áĬķ": 7978,
      "ĠáĪĺáĪįáĬ©": 7979,
      "Ġáī°áĬ¨áī³áĭŃ": 7980,
      "Ġjam'iyyar": 7981,
      "Ġyáº¹": 7982,
      "Ġ1973": 7983,
      "car": 7984,
      "Ġ37": 7985,
      "zza": 7986,
      "Ġsci": 7987,
      "ĠChuo": 7988,
      "veau": 7989,
      "Ġcontinu": 7990,
      "Ġmillion": 7991,
      "xford": 7992,
      "Ã£": 7993,
      "ĠáĮĦ": 7994,
      "ĠSab": 7995,
      "áĪĺáĬĳ": 7996,
      "áĬŃáĪŃáĪµáī¶áĪµ": 7997,
      "Ġáī°áĭ°áĪŃ": 7998,
      "ĠáĪĿáĪħ": 7999,
      "ĠáĪµáĭ«áĪľ": 8000,
      "Ġkakar": 8001,
      "fai": 8002,
      "ungano": 8003,
      "Ġdukkan": 8004,
      "Ġáĭ¨áĪĨáĬĲáĭį": 8005,
      "ĠTuranci": 8006,
      "badili": 8007,
      "Dans": 8008,
      "ÏĦ": 8009,
      "Ġsour": 8010,
      "husi": 8011,
      "x,": 8012,
      "yÃ¬": 8013,
      "usha": 8014,
      "Ġ1920": 8015,
      "ĠÃ¬dÃł": 8016,
      "Ã²gÃ¹n": 8017,
      "á»įÌģnÃł": 8018,
      "upi": 8019,
      "fen": 8020,
      "hat": 8021,
      "Ġfond": 8022,
      "ĠNic": 8023,
      "ĠDin": 8024,
      "sible": 8025,
      "Ġincluding": 8026,
      "ksi": 8027,
      "ode": 8028,
      "ikata": 8029,
      "ĠBras": 8030,
      "áĬĲáĬĽ": 8031,
      "áĪĭáĪĭ": 8032,
      "ĠáĭŃáĪĺ": 8033,
      "ulus": 8034,
      "áĭ³áĪª": 8035,
      "ĠáīĢáĭŃ": 8036,
      "áĪİáĪµ": 8037,
      "ĠAlhaji": 8038,
      "elekea": 8039,
      "Ġshawara": 8040,
      "áī£áī¢áĪİáĬķ": 8041,
      "ĠKikatoliki": 8042,
      "ĠTrans": 8043,
      "omini": 8044,
      "ĠDuba": 8045,
      "ĠRes": 8046,
      "ĠDevelopment": 8047,
      "Af": 8048,
      "assi": 8049,
      "Ġpor": 8050,
      "rian": 8051,
      "embe": 8052,
      "Ġ1985": 8053,
      "Ġ1971": 8054,
      "bÃ¹": 8055,
      "fÃº": 8056,
      "vy": 8057,
      "ÉĻ": 8058,
      "tobi": 8059,
      "Ġá»įká»į": 8060,
      "ĠOlÃ¹": 8061,
      "Ġá¹£áº¹ÌĢ": 8062,
      "ĠÃĮjá»įba": 8063,
      "Ġnomba": 8064,
      "Ġkaláº¹ÌĢ": 8065,
      "ĠdÃłgbÃł": 8066,
      "Alimfuata": 8067,
      "Mar": 8068,
      "áĬķáĮ»": 8069,
      "Ġmy": 8070,
      "Ġfasaha": 8071,
      "áĮįáĬĵ": 8072,
      "áīłáī³áĪįáį¢": 8073,
      "Ġdeath": 8074,
      "ilway": 8075,
      "áĭ¨áĪ©": 8076,
      "Ġzao": 8077,
      "ĠÆĻwarar": 8078,
      "Ġamince": 8079,
      "Ġkasuwa": 8080,
      "Ġtsara": 8081,
      "ĠáĮ£áĪį": 8082,
      "Viungo": 8083,
      "áĪªáī³áĬķáĭ«": 8084,
      "Ġshirye-shiryen": 8085,
      "Ġiki": 8086,
      "wanza": 8087,
      "ine.": 8088,
      "Ġlow": 8089,
      "Ġperson": 8090,
      "usiness": 8091,
      "wal": 8092,
      "Ġcre": 8093,
      "umbe": 8094,
      "bio": 8095,
      "eriod": 8096,
      "ĠShehu": 8097,
      "Ġnational": 8098,
      "Ġany": 8099,
      "Ro": 8100,
      "Ġagbara": 8101,
      "Ġáĭ¨áĪį": 8102,
      "ĠáīłáĭŃ": 8103,
      "áĪĪáī±": 8104,
      "ĠáĮ¤": 8105,
      "Ġkuj": 8106,
      "ĠDam": 8107,
      "ĠLife": 8108,
      "uter": 8109,
      "ente": 8110,
      "Ġ2012.": 8111,
      "ĠáĪ°áĪŃ": 8112,
      "Ġáĭ°áī¥": 8113,
      "Ġmasarautar": 8114,
      "ano,": 8115,
      "áīĭáīĭ": 8116,
      "áīģáīµ": 8117,
      "Ġkáº¹tÃł": 8118,
      "Ġkáº¹fÃł": 8119,
      "áĭŃáĪħáĪĿ": 8120,
      "Ġal'umma": 8121,
      "llaye": 8122,
      "Ġdiffer": 8123,
      "Ġmahaifiyar": 8124,
      "Ġáĭ¨áĪħáĭĿáī¥": 8125,
      "áįĲáī¥áĪĬáĬŃ": 8126,
      "ĠKilatini": 8127,
      "ĠáĬĽáĭį": 8128,
      "44": 8129,
      "Ġtir": 8130,
      "ĠfÃ©": 8131,
      "ĠBon": 8132,
      "ĠSoma": 8133,
      "lot": 8134,
      "ĠItalia.": 8135,
      "52": 8136,
      "57": 8137,
      "Ġsitu": 8138,
      "ĠAcc": 8139,
      "ĠMana": 8140,
      "Ġuse": 8141,
      "Kar": 8142,
      "áĭµáĪ¨": 8143,
      "ĠGlo": 8144,
      "ĠáĪĿáĭķáĪ«": 8145,
      "Ġshi.": 8146,
      "Ġáī¤áī¶áī½": 8147,
      "áĮ»áįĪ": 8148,
      "okras": 8149,
      "Ġáĭ¨áĬĲáĮĪ": 8150,
      "Ġchake.": 8151,
      "Ġarewacin": 8152,
      "Ġáĭ¨áĪĻáĭļáīĥ": 8153,
      "Ġtakwas": 8154,
      "Ġwatumwa": 8155,
      "bá»į": 8156,
      "Ġsing": 8157,
      "Ãłwá»įn": 8158,
      "Ġojoibi": 8159,
      "ĠSim": 8160,
      "Ġeko": 8161,
      "bangi": 8162,
      "ĠNairo": 8163,
      "frican": 8164,
      "ange": 8165,
      "Ġtur": 8166,
      "Ġstu": 8167,
      "alamu": 8168,
      "ĠHindi": 8169,
      "wos": 8170,
      "atik": 8171,
      "Ġ(10": 8172,
      "áĮįáĪĽáĭĬ": 8173,
      "ĠFal": 8174,
      "Ġsayari": 8175,
      "áĮĭáĮĪáĪŃ": 8176,
      "áĬķáĮįáĪ¥áīµ": 8177,
      "áĭ±áīµ": 8178,
      "ĠáĬ¥áĪµáĬ«": 8179,
      "Ġshaharar": 8180,
      "ĠHanyoyin": 8181,
      "Ġcikak": 8182,
      "Ġáĭ©áĬĴáī¨áĪŃáĪ²áī²": 8183,
      "ĠKibantu": 8184,
      "ĠáĮįáĬķáĬĻáĬĲáīµ": 8185,
      "furu": 8186,
      "tes": 8187,
      "Ġlater": 8188,
      "ĠBern": 8189,
      "Ġrefer": 8190,
      "ĠEdward": 8191,
      "dÃ¹n": 8192,
      "Ġawo": 8193,
      "áº¹gáº¹": 8194,
      "ĠAso": 8195,
      "ĠKeb": 8196,
      "ĠÃłsÃ¬kÃ²": 8197,
      "ĠCap": 8198,
      "ĠÃ¬yÃłwÃ³": 8199,
      "ĠÃ¬tÃłgÃ©": 8200,
      "á¹£ep": 8201,
      "sions": 8202,
      "ĠRed": 8203,
      "kÃ¬tÃ¬": 8204,
      "Ġaá¹£ojÃº": 8205,
      "ĠÃłkÃ³kÃ²": 8206,
      "ds": 8207,
      "Ġauri": 8208,
      "ĠSpe": 8209,
      "bogbo": 8210,
      "tein": 8211,
      "Ġcompos": 8212,
      "Akwai": 8213,
      "bas": 8214,
      "tary": 8215,
      "áĬķáĮĢ": 8216,
      "ĠAá¹£": 8217,
      "áĭµáīħ": 8218,
      "áĬŃáĪĿáĬĵ": 8219,
      "ilÃ©": 8220,
      "ĠáĬ¥áĬķáĭ´áīµ": 8221,
      "áĮłáī¥": 8222,
      "ĠáĭĭáĮĭ": 8223,
      "Ġáī°áĪĺáĪį": 8224,
      "Ġmfumo": 8225,
      "ĠáĪģáĪĪáī°áĬĽ": 8226,
      "ĠKore": 8227,
      "ĠTele": 8228,
      "ĠUnion": 8229,
      "ĠGreek": 8230,
      "Ġatom": 8231,
      "Ġfal": 8232,
      "ĠCup": 8233,
      "ËĪ": 8234,
      "Ġgbi": 8235,
      "Ġgano": 8236,
      "bic": 8237,
      "ĠZe": 8238,
      "ĠilÃ¨": 8239,
      "Ġagainst": 8240,
      "áĬĵáĮĪáĪŃ": 8241,
      "ĠáīłáĪ¥": 8242,
      "ĠVirgin": 8243,
      "ĠáĬŃáĪŃ": 8244,
      "áī¢áĭŃ": 8245,
      "Ġfiye": 8246,
      "Ġmatan": 8247,
      "áĪµáīµáĪª": 8248,
      "áĭ°áī¥áĪ¨": 8249,
      "áįĸáĪŃáīµ": 8250,
      "Ġlililo": 8251,
      "ĠáĬ¨áĭļáĭ«áĪĿ": 8252,
      "aniya": 8253,
      "ector": 8254,
      "ĠBuhari": 8255,
      "rea": 8256,
      "Ġ400": 8257,
      "sta": 8258,
      "test": 8259,
      "áĥ": 8260,
      "ĠM.": 8261,
      "ĠMara": 8262,
      "ga.": 8263,
      "Ġ2009.": 8264,
      "zikin": 8265,
      "Ġbata": 8266,
      "Ġcri": 8267,
      "ur,": 8268,
      "áĭ«áīĦ": 8269,
      "áĪĪáīłáīµ": 8270,
      "ĠáĬłáĬŃ": 8271,
      "Ġnigb": 8272,
      "umbi": 8273,
      "ĠDani": 8274,
      "ĠFasaha": 8275,
      "ĠáĪĪáĭĪ": 8276,
      "Ġwase": 8277,
      "Ġkarshen": 8278,
      "ĠáĮ¥áīłáī¥": 8279,
      "áĪĲáĪ´": 8280,
      "Ġwasanni": 8281,
      "ĠFrÃ¡n": 8282,
      "ĠáĮ¨áĪĿáĪ®": 8283,
      "-oÃ²rÃ¹n": 8284,
      "ĠáĬłáĪµáī°áĭ³áĭ°áĮį": 8285,
      "ĠYammacin": 8286,
      "Ġukoloni": 8287,
      "owever,": 8288,
      "áīħáĭ«áĬĸáĪµ": 8289,
      "time": 8290,
      "Ġthrough": 8291,
      "kina": 8292,
      "pya": 8293,
      "Ġkur": 8294,
      "ĠCons": 8295,
      "ĠJohann": 8296,
      "yi,": 8297,
      "TV": 8298,
      "Ġwasi": 8299,
      "rey": 8300,
      "Ġ\"C": 8301,
      "anth": 8302,
      "abi": 8303,
      "ession": 8304,
      "Ġ(Y": 8305,
      "ĠáīłáĮĭ": 8306,
      "Ġáīł16": 8307,
      "ĠáĬłáī¡": 8308,
      "ĠáĪĺáī¥": 8309,
      "ellow": 8310,
      "áĪĽáī¸áĭį": 8311,
      "Ġsaka": 8312,
      "Ġáĭĺáĭį": 8313,
      "ĠáĪįáĪĽ": 8314,
      "áĮ½áĭĭáīµ": 8315,
      "ĠáĮĪáĬĵ": 8316,
      "ĠáĪ¥áĮĭ": 8317,
      "ĠáĬłáĭįáĪ«": 8318,
      "Ġáĭ°áĪ´áīµ": 8319,
      "ĠáįĪáĪ¨áĬķáĪ³áĭŃ": 8320,
      "Ã¡ÃŃ": 8321,
      "Ġiba": 8322,
      "á»įÌģlÃ¡": 8323,
      "ĠÃ¬pÃŃn": 8324,
      "ĠÃ¬wá»įÌĢ": 8325,
      "Ã²Ã³": 8326,
      "olin": 8327,
      "ĠmÃ¡rÃ¹n": 8328,
      "Ġ(2003)": 8329,
      "ĠÃ²á¹£Ã¨rÃ©kÃ¹nrin": 8330,
      "Ġmáº¹Ìģrin": 8331,
      "ulit": 8332,
      "ĠAkwa": 8333,
      "Ġlangue": 8334,
      "me,": 8335,
      "Ġma'": 8336,
      "ĠJari": 8337,
      "br": 8338,
      "gÃł": 8339,
      "ªáĭ«": 8340,
      "Ġáī²": 8341,
      "Ġsyn": 8342,
      "Ġlenye": 8343,
      "ĠAz": 8344,
      "ĠáĬĲáįĥ": 8345,
      "ĠáĪĺáĪĭ": 8346,
      "ĠáĪĺáĬĸ": 8347,
      "Ġhapo": 8348,
      "áįĬáĭİáī½": 8349,
      "ĠáĪļáĬ«áĬ¤áĪį": 8350,
      "ĠáĬªáĭ³áĬķ": 8351,
      "ĠBirnin": 8352,
      "Ġáīłáī¥áĭĻ": 8353,
      "Ġjimillar": 8354,
      "ĠWilliams": 8355,
      "áīĢáĪĺáĮ«": 8356,
      "ridge": 8357,
      "ĠPasifiki": 8358,
      "ĠáĮłáīħáĪĭáĭŃ": 8359,
      "ĠAsa": 8360,
      "ories": 8361,
      "ological": 8362,
      "Ġtá»įÌģ": 8363,
      "ĠnÇ¹kan": 8364,
      "Ġdog": 8365,
      "elo": 8366,
      "finan": 8367,
      "Ġolori": 8368,
      "Ġ1981": 8369,
      "áº¹Ìģráº¹Ìģ": 8370,
      "ĠlÃ³rÃŃláº¹ÌĢ": 8371,
      "ĠfÃ¬dÃŃ": 8372,
      "68": 8373,
      "NN": 8374,
      "poli": 8375,
      "Ġdesign": 8376,
      "Ġthese": 8377,
      "ard,": 8378,
      "ĠKuma": 8379,
      "tÃ¹": 8380,
      "áĪ¦": 8381,
      "Ġkufanya": 8382,
      "áĭ°áĪŃáĪµ": 8383,
      "ĠáĪĺáĮĢáĪĺáĪªáĭ«": 8384,
      "áĪ«áĭįáĭ«áĬķ": 8385,
      "Ġhuru": 8386,
      "áĮ¥áĬĲáīµ": 8387,
      "ĠáĪĿáĬĴáĪįáĬŃ": 8388,
      "áĮĭáī¢áīµ": 8389,
      "Ġliki": 8390,
      "ĠZiwa": 8391,
      "áī¤áī±": 8392,
      "Ġwasemaji": 8393,
      "astern": 8394,
      "ĠScience": 8395,
      "Ġappe": 8396,
      "ĠCOVID-19": 8397,
      "Historia": 8398,
      "light": 8399,
      "and,": 8400,
      "ĠPulit": 8401,
      "etnam": 8402,
      "chol": 8403,
      "kula": 8404,
      "uthor": 8405,
      "54": 8406,
      "OrÃŃ": 8407,
      "jec": 8408,
      "ĠIran": 8409,
      "ĠGram": 8410,
      "ĠL'": 8411,
      "zi,": 8412,
      "ĠlÃ¡tÃłrÃŃ": 8413,
      "idd": 8414,
      "tÃ²já»į": 8415,
      "ĠagbÃ¡bá»įÌģá»įÌĢlÃ¹": 8416,
      "Ġdepuis": 8417,
      "ĠFrÃ¡nsÃ¬": 8418,
      "-áĬ¢": 8419,
      "wen": 8420,
      "Ġur": 8421,
      "Ġmbunge": 8422,
      "ĠbÃ³": 8423,
      "áĭ«áĪįáį¢": 8424,
      "áĭ«áĭįáĭ«áĬķ": 8425,
      "uses": 8426,
      "ĠCross": 8427,
      "áĪ³áĭį": 8428,
      "ĠDut": 8429,
      "ĠFer": 8430,
      "Ġsab": 8431,
      "ĠáĭĵáĪĭáĪĽ": 8432,
      "Ġáĭ¨áĪĺáĮ£": 8433,
      "ĠáĪĬáĪĨáĬķ": 8434,
      "Ġáĭķáĭį": 8435,
      "Ġkamfan": 8436,
      "Ġasilimia": 8437,
      "ĠáĪľáĭ³": 8438,
      "ĠTarayya": 8439,
      "zungum": 8440,
      "67": 8441,
      "Ġpap": 8442,
      "ĠIgbo": 8443,
      "Ġvon": 8444,
      "pion": 8445,
      "kim": 8446,
      "ter,": 8447,
      "Ġforme": 8448,
      "à¥": 8449,
      "uren": 8450,
      "lob": 8451,
      "ĠAna": 8452,
      "Ġ1969": 8453,
      "ĠArts": 8454,
      "ĠPress,": 8455,
      "á»": 8456,
      "Ġmáº¹ÌģrÃ¬n": 8457,
      "Ġsá»įÌĢrá»įÌĢ": 8458,
      "áĪĿáīłáĪŃ": 8459,
      "Ġpáº¹Ìģ": 8460,
      "ĠjÃŃ": 8461,
      "irs": 8462,
      "áī³áĪĿ": 8463,
      "ĠáĭĪáĭĺ": 8464,
      "Ġáĭ«áĭį": 8465,
      "áīłáĪ®": 8466,
      "áĬķáĭµáĪµáĬĵ": 8467,
      "áĬķáĮįáĪµáīµ": 8468,
      "amua": 8469,
      "asile": 8470,
      "áī¹áĬķ": 8471,
      "áĮĥáĭĿáĪĽáī½": 8472,
      "ĠyÃ¬ÃŃ,": 8473,
      "dÃ¡sÃŃláº¹ÌĢ": 8474,
      "ĠKuu": 8475,
      "ĠáĮ¸áĪĲáįĬ": 8476,
      "ĠÃĪkÃ³.": 8477,
      "Ġrecord": 8478,
      "ĠáīłáĪŃáĬ«áī³": 8479,
      "ĠáĬłáĪµáī°áĭ³áĭ°áĪŃ": 8480,
      "Ġshugabar": 8481,
      "Ġtáº¹lifÃŃá¹£": 8482,
      "59": 8483,
      "pÃł": 8484,
      "ual": 8485,
      "ango": 8486,
      "ites": 8487,
      "Ðº": 8488,
      "ĠEdo": 8489,
      "Ġmm": 8490,
      "eria": 8491,
      "oni.": 8492,
      "kundu": 8493,
      "áĬ»": 8494,
      "Ġyaki": 8495,
      "Ġopo": 8496,
      "áĪįáĬĵ": 8497,
      "áĬĲáĮĪ": 8498,
      "áīłáĬłáĪ": 8499,
      "áį¡áĬł": 8500,
      "ÆĻo": 8501,
      "pokea": 8502,
      "Ġd'I": 8503,
      "áĮ»áįį": 8504,
      "ĠáĬ¢áĬķ": 8505,
      "ĠBened": 8506,
      "Ġdauke": 8507,
      "ĠPremi": 8508,
      "Ġinflu": 8509,
      "ĠÆ´ar": 8510,
      "Ã©.": 8511,
      "Ġfáº¹": 8512,
      "ĠIbujoko": 8513,
      "ĠÃ¬á¹£e": 8514,
      "Ġyá»į": 8515,
      "ĠP.": 8516,
      "Ġ\"The": 8517,
      "Ġsin": 8518,
      "titu": 8519,
      "Ġgun": 8520,
      "ĠTour": 8521,
      "Ġnye": 8522,
      "Ġdun": 8523,
      "Ġisi": 8524,
      "ĠSudan": 8525,
      "oja": 8526,
      "áĮ©": 8527,
      "Ġkupi": 8528,
      "Ġtakarar": 8529,
      "áī¥áĬĽ": 8530,
      "áĪ¨áįĪ": 8531,
      "ari.": 8532,
      "áĭ²áĪ±": 8533,
      "Ġcewar": 8534,
      "áĪ¬áĬķ": 8535,
      "Ġmatakin": 8536,
      "ĠáĬªáĪİ": 8537,
      "Ġgabashin": 8538,
      "chaguliwa": 8539,
      "ĠáĬłáĭµáĪŃáĮİ": 8540,
      "ĠáĪļáĬĴáĪµáīµáĪŃ": 8541,
      "At": 8542,
      "Ġdim": 8543,
      "19)": 8544,
      "Ġhttp://": 8545,
      "ĠDenmar": 8546,
      "Kam": 8547,
      "ĠoÃ²rÃ¹n": 8548,
      "ÃłnÃŃ": 8549,
      "Ġgbajumo": 8550,
      "ĠMiss": 8551,
      "ĠCour": 8552,
      "ck,": 8553,
      "ellement": 8554,
      "ĠáĬ¦áĪŃ": 8555,
      "áĬĲáĪ£": 8556,
      "Ġáĭ¨áĪļáī£áĪį": 8557,
      "áĪĬáĭ«áĬķ": 8558,
      "Ġkipindi": 8559,
      "Ġakafuatwa": 8560,
      "itabu": 8561,
      "áĪµáī°áĪŃ": 8562,
      "ĠaprÃ¨s": 8563,
      "ĠRivers": 8564,
      "ĠáĪŃáĭķ": 8565,
      "ĠIndiya": 8566,
      "ĠáĬłáĪĽáĬ«": 8567,
      "ĠElezo": 8568,
      "ĠáĬĹáĪª": 8569,
      "Ġáīłáī°áĪĪáĭŃáĪĿ": 8570,
      "ĠáĮ½áĪķáįĪáīµ": 8571,
      "mall": 8572,
      "Ġlat": 8573,
      "ikh": 8574,
      "Ġ1914": 8575,
      "ĠGida": 8576,
      "hout": 8577,
      "Ġexemp": 8578,
      "ĠSing": 8579,
      "illes": 8580,
      "oph": 8581,
      "âĢĻs": 8582,
      "ĠdarÃŃ": 8583,
      "ĠAD": 8584,
      "ÃºlÃ©": 8585,
      "ĠÃłwÃ¹já»į": 8586,
      "ĠSat": 8587,
      "ĠTown": 8588,
      "áĪĲáĭŃ": 8589,
      "Ġ6.": 8590,
      "ĠonÃŃá¹£": 8591,
      "Ġolud": 8592,
      "ĠlÃł": 8593,
      "ĠáĭĪáĮ£": 8594,
      "áĭ¨áĬłáĪ": 8595,
      "ĠáĬ¥áĬķáĭµ": 8596,
      "Ġsadar": 8597,
      "áĮ£áĪª": 8598,
      "kanna": 8599,
      "log": 8600,
      "ĠáīłáĪĺáĪµ": 8601,
      "Ġstru": 8602,
      "ĠáĪĻáĭļáīĥ": 8603,
      "Ġasilia": 8604,
      "ĠáĪĨáĬĸáĪĿ": 8605,
      "Rayuwar": 8606,
      "ĠáĮĪáĬķáĭĺáī¥": 8607,
      "Pia": 8608,
      "yle": 8609,
      "ere,": 8610,
      "Ġbun": 8611,
      "unawa": 8612,
      "Ġkalenda": 8613,
      "ĠAnambra": 8614,
      "isti": 8615,
      "ĠMada": 8616,
      "ĠBara": 8617,
      "ĠBunge": 8618,
      "fa,": 8619,
      "Ġbefore": 8620,
      "ĠdiffÃ©r": 8621,
      "-Ã¡n": 8622,
      "Bisa": 8623,
      "wahi": 8624,
      "ĠgbÃŃ": 8625,
      "urg": 8626,
      "áĭ°áĮĪ": 8627,
      "áĮįáĬĺáīµ": 8628,
      "Ġmaarufu": 8629,
      "ĠÃ¬wÃł": 8630,
      "ĠyÃ¡": 8631,
      "Ġlaarin": 8632,
      "ĠGud": 8633,
      "ata,": 8634,
      "Ġule": 8635,
      "Ġenc": 8636,
      "Ġáĭ°áĮĭ": 8637,
      "Ġaddini": 8638,
      "Ġ80": 8639,
      "ĠCouncil": 8640,
      "ĠolÃ¹gbÃ©": 8641,
      "ĠáĪģáĪīáĪĿ": 8642,
      "áį²áį±áį»áį¶áį": 8643,
      "áĪĽáĭŃáĪµáĮ¥": 8644,
      "Ġdauki": 8645,
      "ĠáĪļáĬĴáĪµáī´": 8646,
      "ĠáĭµáĬķáĮĭáĭŃ": 8647,
      "Ġlissa": 8648,
      "AM": 8649,
      "Ġcla": 8650,
      "elli": 8651,
      "Ġvina": 8652,
      "Ġplace": 8653,
      "bes": 8654,
      "jet": 8655,
      "s:": 8656,
      "kasi": 8657,
      "deo": 8658,
      "Ġdescri": 8659,
      "Ġmito": 8660,
      "istoire": 8661,
      "Ġ0.": 8662,
      "Ġdec": 8663,
      "of": 8664,
      "Ñģ": 8665,
      "áĪĿáĪĮ": 8666,
      "áĪįáĪĿáĬĵ": 8667,
      "ciyar": 8668,
      "áĮĭáĪª": 8669,
      "áī¦áĪŃ": 8670,
      "shinda": 8671,
      "ardin": 8672,
      "ghuli": 8673,
      "Ð»": 8674,
      "Ġdare": 8675,
      "ÃŃÃł": 8676,
      "ĠAja": 8677,
      "ĠÃłpapá»įÌĢ": 8678,
      "usal": 8679,
      "qu'": 8680,
      "rÃ©sent": 8681,
      "ĠkÃ©de": 8682,
      "Ġaká»įká»į": 8683,
      "ĠkÃ¡Ãłkiri": 8684,
      "BÃ¡kan": 8685,
      "ĠYesu": 8686,
      "Ġ1964": 8687,
      "ps://": 8688,
      "-L": 8689,
      "PC": 8690,
      "ini.": 8691,
      "chie": 8692,
      "Eneo": 8693,
      "Ġ(áĬłáĪ": 8694,
      "ĠMili": 8695,
      "Ġprom": 8696,
      "áĪĪáĪ°": 8697,
      "áĭ°áĮĭ": 8698,
      "áĪ«áĪª": 8699,
      "áī³áĪªáĬŃ": 8700,
      "áī£áī±": 8701,
      "áĮ¥áĪ¨áīµ": 8702,
      "áĬ«áĬķ": 8703,
      "áĭĭáĪŃáĭ«": 8704,
      "áĭĿáĬĵ": 8705,
      "Ġhukun": 8706,
      "ÉĹe": 8707,
      "áī²áīµ": 8708,
      "ĠWaarabu": 8709,
      "uruki": 8710,
      "ĠáĪķáĭŃáĭĪáīµ": 8711,
      "antake": 8712,
      "Ġyarjejen": 8713,
      "Ġutamaduni": 8714,
      "Ġkowane": 8715,
      "diyo": 8716,
      "haria": 8717,
      "hama": 8718,
      "Ã¬lÃº": 8719,
      "Ġwá»įÌģ": 8720,
      "ĠKit": 8721,
      "ĠÃłá¹£áº¹": 8722,
      "ĠÃ¬á¹£Ã¨": 8723,
      "Ġ1972": 8724,
      "ĠAss": 8725,
      "ĠÃ¡n": 8726,
      "ĠDun": 8727,
      "inguis": 8728,
      "ensis": 8729,
      "64": 8730,
      "anzo": 8731,
      "áĮĲ": 8732,
      "engo": 8733,
      "áĭįáĬĵ": 8734,
      "áī½áĪī": 8735,
      "ĠáĬłáĭĪ": 8736,
      "áĭ°áī¡áī¥": 8737,
      "ĠáĪĺáī¥áīµ": 8738,
      "ĠPra": 8739,
      "utres": 8740,
      "refu": 8741,
      "osp": 8742,
      "ĠáĪµáī´": 8743,
      "áĭļáĭ«áĬķ": 8744,
      "ĠáĬĲáīłáĪŃáį¡áį¡": 8745,
      "Ġ1962": 8746,
      "áĮ¨áīµ": 8747,
      "Ġ1945": 8748,
      "attun": 8749,
      "ĠáįĬáĪį": 8750,
      "Ġume": 8751,
      "Ġmamaye": 8752,
      "Ġ(lafazi": 8753,
      "Ġ(áĭĪáĭŃáĪĿ": 8754,
      "ey": 8755,
      "ansu": 8756,
      "Ġmodern": 8757,
      "Ġatomu": 8758,
      "):": 8759,
      "list": 8760,
      "Ġoro": 8761,
      "Ġcho": 8762,
      "ĠFestival": 8763,
      "Lá»įÌģ": 8764,
      "Ohun": 8765,
      "Ġure": 8766,
      "Ġmer": 8767,
      "ĠmÃ³": 8768,
      "ĠÃ¬dÃ¬": 8769,
      "ĠÃ¬lÃł": 8770,
      "Ġsupport": 8771,
      "ÃŃnÃł": 8772,
      "ĠAlger": 8773,
      "ĠorÃŃá¹£irÃŃá¹£i": 8774,
      "ĠBaba": 8775,
      "ĠGuusu": 8776,
      "ĠOrile-ede": 8777,
      "já»įÌĢgbá»įÌģn": 8778,
      "ĠSociety": 8779,
      ")áį¢": 8780,
      "vÃ©": 8781,
      "Ġclassi": 8782,
      "ĠáĮĵ": 8783,
      "áĪ«áĬĴ": 8784,
      "sid": 8785,
      "ques,": 8786,
      "Ġmatasa": 8787,
      "ĠWaingereza": 8788,
      "iriwa": 8789,
      "Ġáīłáī°áĪĪáĭ«áĭ©": 8790,
      "ĠáīłáĬłáĭ²áĪµ": 8791,
      "ĠáįįáīħáĪŃ": 8792,
      "ĠáĬłáĪįáįĭ": 8793,
      "ccen": 8794,
      "Ġáĭ¨áĬĲáīłáĪ©": 8795,
      "Ġduniya,": 8796,
      "Ġáī¤áī°áĬŃáĪŃáĪµáī²áĭ«áĬķ": 8797,
      "Ġkiran": 8798,
      "Ġáĭ¨áįĸáĪĪáī²áĬ«": 8799,
      "Ġhapa": 8800,
      "nie": 8801,
      "ster": 8802,
      "mÃ³": 8803,
      "pos": 8804,
      "arth": 8805,
      "Ġlafi": 8806,
      "Ġkansa": 8807,
      "ĠCoast": 8808,
      "Ġcentury": 8809,
      "kya": 8810,
      "nÃ©": 8811,
      "Ġword": 8812,
      "ĠRadio": 8813,
      "ussia": 8814,
      "-ede": 8815,
      "IN": 8816,
      "táº¹Ìģ": 8817,
      "wá»įÌģn": 8818,
      "ĠáĬĶ": 8819,
      "Ġnamba": 8820,
      "Ġáĭ¨áĭķ": 8821,
      "Ġfour": 8822,
      "áĭ«áīµ": 8823,
      "ĠáīłáĪ®": 8824,
      "áĬ«áĭµ": 8825,
      "áįĪáĪ«": 8826,
      "Ġáº¹Ìģ": 8827,
      "woorun": 8828,
      "Ġ1952": 8829,
      "ĠáĪķáĮį": 8830,
      "Ġkyau": 8831,
      "áį²áį±áį»áį·áį": 8832,
      "ĠHausawa": 8833,
      "Ġwatoto": 8834,
      "okrasia": 8835,
      "pedia.": 8836,
      "100": 8837,
      "ĠHab": 8838,
      "ston": 8839,
      "Ġanal": 8840,
      "Ġsoja": 8841,
      "ĠTechn": 8842,
      "Ġed": 8843,
      "Ġty": 8844,
      "Ġhor": 8845,
      "ĠHali": 8846,
      "Ġthen": 8847,
      "78": 8848,
      "Ġmche": 8849,
      "Ġpou": 8850,
      "Ġiwa": 8851,
      "ĠáīłáĭļáĪģ": 8852,
      "ĠKikuu": 8853,
      "atique": 8854,
      "buwar": 8855,
      "Ġuta": 8856,
      "áĭĿáī¡": 8857,
      "ĠVisiwa": 8858,
      "ĠáīłáĪĺáĮ¨áĪ¨áĪ»": 8859,
      "ĠáĬłáĬķáĭ°": 8860,
      "ĠAfirka.": 8861,
      "ĠáįĬáĭ°": 8862,
      "áĮĪáĪĪáĮį": 8863,
      "ĠáĪªáįĲáī¥áĪĬáĬŃ": 8864,
      "ĠáīłáĭĵáĪĪáĪĿ": 8865,
      "Ġshule": 8866,
      "ĠáĮłáĪĭ": 8867,
      "Ġagbe": 8868,
      "Ġcat": 8869,
      "si,": 8870,
      "Ġyii": 8871,
      "Ġkáº¹rÃ¬n": 8872,
      "ĠolÃ¹ká»įÌģ": 8873,
      "Ġ2020.": 8874,
      "Ġ(da": 8875,
      "kele": 8876,
      "gr": 8877,
      "yara": 8878,
      "áĪĿáĪµ": 8879,
      "Ġalum": 8880,
      "dugu": 8881,
      "ĠJohnson": 8882,
      ":-": 8883,
      "fari": 8884,
      "hispania": 8885,
      "ale,": 8886,
      "áī°áĬŀáī½": 8887,
      "áĪħáĪŃ": 8888,
      "ÆĻe": 8889,
      "Ġuwe": 8890,
      "ĠÆĻir": 8891,
      "Ġ\"m": 8892,
      "ĠáĮįáĪ«": 8893,
      "Ġáĭ¨áī°áīĢ": 8894,
      "áĪĬáĪµ": 8895,
      "pokuwa": 8896,
      "Ġardhi": 8897,
      "áĭĵáĪĪáĪĿ": 8898,
      "ĠáĬ¢áĭ¨áĪ±áĪµ": 8899,
      "Ġkilimo": 8900,
      "Ġjamhuri": 8901,
      "ĠWanasayansi": 8902,
      "ĠFM,": 8903,
      "Ġspeci": 8904,
      "inent": 8905,
      "leta": 8906,
      "Ġind": 8907,
      "ronom": 8908,
      "Ġgovernment": 8909,
      "ĠSwed": 8910,
      "org/wiki": 8911,
      "dáº¹": 8912,
      "Ø¹": 8913,
      "Ġq": 8914,
      "ÃłbÃ¡": 8915,
      "alle": 8916,
      "Ã¬á¹£áº¹Ìģ": 8917,
      "ĠÃłrÃŃwÃ¡": 8918,
      "laka": 8919,
      "cept": 8920,
      "ĠÃĢgbÃł": 8921,
      "Ġ0-": 8922,
      "ĠÃ¬lÃłnÃł": 8923,
      "ĠPopu": 8924,
      "bles": 8925,
      "at,": 8926,
      "Ġland": 8927,
      "ĠNje": 8928,
      "ĠPaulo": 8929,
      "Ġpoliti": 8930,
      "oto": 8931,
      "Ãģ": 8932,
      "Ġtashi": 8933,
      "Ġmana": 8934,
      "Ġáĭ¨áĮ¦áĪŃ": 8935,
      "Ġdasu": 8936,
      "ĠáīłáĬŃ": 8937,
      "áĪĪáĪį": 8938,
      "ĠOxford": 8939,
      "ĠJanar": 8940,
      "ĠU.S.": 8941,
      "áįįáī°áĬĽ": 8942,
      "áĭ³áĭĬ": 8943,
      "ĠáĬĲáĭįáį¤": 8944,
      "Ġelimu": 8945,
      "ĠáĮįáĪį": 8946,
      "Ġáĭ°áĪŃ": 8947,
      "Ġáĭ°áī¥áĪ¨": 8948,
      "Ġshekarar,": 8949,
      "áĬĶáīµ": 8950,
      "Ġáĭ¨áĬłáĪŃ": 8951,
      "Ġbuil": 8952,
      "ĠáĪħáĮį": 8953,
      "ĠáīłáĬłáĪľáĪªáĬ«": 8954,
      "ĠCompan": 8955,
      "ĠGhana.": 8956,
      "Ġnguvu": 8957,
      "bÃ¡n": 8958,
      "vil": 8959,
      "ĠD.": 8960,
      "oton": 8961,
      "ĠpÃ©ri": 8962,
      "Ã´te": 8963,
      "Ġtrois": 8964,
      "ĠArgentina": 8965,
      "-p": 8966,
      "Ina": 8967,
      "à¸": 8968,
      "Ġaj": 8969,
      "Ġava": 8970,
      "Ġint": 8971,
      "ĠFun": 8972,
      "gÃ¨": 8973,
      "Ġlarin": 8974,
      "gali": 8975,
      "ĠOjÃº": 8976,
      "ĠsÃŃwÃ¡jÃº": 8977,
      "ĠorÃŃlÃ¨": 8978,
      "ĠMexic": 8979,
      "ĠÃĪkÃ³,": 8980,
      "Ġakáº¹Ìģ": 8981,
      "Ġologun": 8982,
      "bra": 8983,
      "kes": 8984,
      "ØŃ": 8985,
      "kasa": 8986,
      "Ġwaye": 8987,
      "Ġima": 8988,
      "ĠáĮ»": 8989,
      "ĠáĬ¥áĮ½áĭĭáīµ": 8990,
      "ĠáĬłáĭ°áĪ¨áĮĪ": 8991,
      "áĬĲáĭĵáĬķ": 8992,
      "el.": 8993,
      "áĪ³áī¸áĭįáĬķ": 8994,
      "etu": 8995,
      "ĠáīłáĪ±": 8996,
      "Ġáĭ¨áĪ¶": 8997,
      "ini,": 8998,
      "áĪ®áĪŀ": 8999,
      "áĭ®áīµ": 9000,
      "ĠáĬ¥áĬķáĭ°áĬĲáīłáĪŃ": 9001,
      "ĠhuÉĹu": 9002,
      "áĬĴáīµ": 9003,
      "ĠáĬłáĪµáī°áĭĭ": 9004,
      "áĪµáī³áĬķ": 9005,
      "Ġdigirin": 9006,
      "Ġmsingi": 9007,
      "Ġtashar": 9008,
      "Ġmusulunci": 9009,
      "Ġmallaka": 9010,
      "ĠYear": 9011,
      "ĠáĬ¥áĬķáĬ³áĬķ": 9012,
      "ĠáĭĪáĭĺáī°": 9013,
      "any": 9014,
      "ĠWaziri": 9015,
      "AL": 9016,
      "Za": 9017,
      "rama": 9018,
      "ĠGr": 9019,
      "Ġbado": 9020,
      "Tun": 9021,
      "Ġ(6": 9022,
      "ĠPortug": 9023,
      "beth": 9024,
      "eux": 9025,
      "ian": 9026,
      "kusu": 9027,
      "pond": 9028,
      "ráº¹ÌĢ": 9029,
      "Ġtatta": 9030,
      "áĭįáĪµ": 9031,
      "Ġrana": 9032,
      "lav": 9033,
      "ĠÃ¬jÃł": 9034,
      "ĠáīłáĪ³": 9035,
      "ĠUchaguzi": 9036,
      "áĬ«áĪŃ": 9037,
      "Ġáĭ¨áī°áĬĲáĪ³": 9038,
      "ans,": 9039,
      "Ġ...": 9040,
      "Ġradi": 9041,
      "áīłáīµáį¢": 9042,
      "Ġyankunan": 9043,
      "Ġbiyu.": 9044,
      "Ġmaneno": 9045,
      "ĠáĭŃáĮĪáĪĺ": 9046,
      "esearch": 9047,
      "ĠalÃ¡Ã¬": 9048,
      "ĠÃ¨yÃŃ,": 9049,
      "ĠPoly": 9050,
      "Ġwá»įlÃ©": 9051,
      "Ġjagoranci": 9052,
      "Ġbincike": 9053,
      "inadamu": 9054,
      "ĠÃĮjáº¹ÌĢbÃº": 9055,
      "83": 9056,
      "Ġkata": 9057,
      "ĠFl": 9058,
      "Ġ1961": 9059,
      "Ġ1963": 9060,
      "ĠBrasil": 9061,
      "pole": 9062,
      "ĠLeo": 9063,
      "Ġwhile": 9064,
      "ĠSokoto": 9065,
      "Ġmes": 9066,
      "ĠJourn": 9067,
      "ĠNigeria,": 9068,
      "Ġarea": 9069,
      "áĮ®": 9070,
      "Ġmbali": 9071,
      "Ġáĭ¨áįĪáĪ¨áĬķáĪ³áĭŃ": 9072,
      "áĭįáĪį": 9073,
      "Ġ(f": 9074,
      "ure,": 9075,
      "ĠáĪĺáī³": 9076,
      "Ġmach": 9077,
      "ĠHouse": 9078,
      "Ġbaki": 9079,
      "áį¡áī°": 9080,
      "ĠâĢİ": 9081,
      "Ġalim": 9082,
      "Ġbien": 9083,
      "Ġsiasa": 9084,
      "Ġyanayo": 9085,
      "Ġ90": 9086,
      "ananchi": 9087,
      "ĠáĮīáĪį": 9088,
      "áĪłáī¥": 9089,
      "Ġcommon": 9090,
      "Ġfiramare": 9091,
      "áĪĺáĪĪáĪµ": 9092,
      "Ġambalo": 9093,
      "Ġá¹£Ã¨": 9094,
      "ĠKejÃ¬lÃ¡": 9095,
      "jo,": 9096,
      "ĠArm": 9097,
      "53": 9098,
      "Ġusa": 9099,
      "Ġsite": 9100,
      "Ġlara": 9101,
      "Ġbere": 9102,
      "ĠAlbert": 9103,
      "Ġáĭ¨áįĭ": 9104,
      "Ġboth": 9105,
      "áĪµáī²": 9106,
      "Ġgani": 9107,
      "áĪĽáĪįáį¢": 9108,
      "ĠFas": 9109,
      "Ġbabu": 9110,
      "áĭ¨áĬķ": 9111,
      "ÆĻar": 9112,
      "Ġkwallaye": 9113,
      "Ġsud": 9114,
      "oni,": 9115,
      "áĪ´áīµ": 9116,
      "Ġriga": 9117,
      "ĠáīłáĪ°áĪľáĬķ": 9118,
      "ĠáĭĺáĪĺáī»": 9119,
      "Ġimportant": 9120,
      "ĠJamhuriyar": 9121,
      "ĠáĪĺáĭĭáĭķáĪį": 9122,
      "Ġcham": 9123,
      "Ġikon": 9124,
      "ĠKab": 9125,
      "limin": 9126,
      "dh": 9127,
      "well": 9128,
      "zim": 9129,
      "Ġpass": 9130,
      "utun": 9131,
      "ĠÃĮdÃŃ": 9132,
      "ĠÃ²nÃŃ": 9133,
      "ÃĮbáº¹ÌĢráº¹ÌĢ": 9134,
      "Ġkáº¹já»į": 9135,
      "viron": 9136,
      "ĠZimbabwe": 9137,
      "89": 9138,
      "Ġsanda": 9139,
      "Ġconc": 9140,
      "Ġ{": 9141,
      "áĭ¢": 9142,
      "Ġmlima": 9143,
      "ambi": 9144,
      "ĠKatoliki": 9145,
      "ikatar": 9146,
      "ĠBos": 9147,
      "ĠáĬłáĪ¥": 9148,
      "áĬ¨áĪ°": 9149,
      "ĠáĮ¥áĭ«áīĦ": 9150,
      "ĠâĢĺyan": 9151,
      "ĠáīłáĪĮáĪĭ": 9152,
      "ĠáĪµáī¥áĪµáī¥": 9153,
      "ĠáĪĬáīĥáĭįáĬķáīµ": 9154,
      "-cent": 9155,
      "Ġem": 9156,
      "gaz": 9157,
      "Ġlitt": 9158,
      "tainment": 9159,
      "m,": 9160,
      "asisi": 9161,
      "Ġgre": 9162,
      "urop": 9163,
      "ĠWhi": 9164,
      "18)": 9165,
      "ĠVietnam": 9166,
      "ights": 9167,
      "bÃ¨": 9168,
      "ĠÙħ": 9169,
      "Ġgáº¹gáº¹": 9170,
      "á¹£á»įÌĢ": 9171,
      "ĠJer": 9172,
      "utan": 9173,
      "Ġá»ĮlÃ¡": 9174,
      "Ġáº¹ranko": 9175,
      "fesa": 9176,
      "ted": 9177,
      "Ġkidogo": 9178,
      "Ġsashen": 9179,
      "Ġwala": 9180,
      "áĭŃáīħ": 9181,
      "áĭ°áĪŃáĮī": 9182,
      "áĮĪáĭĽ": 9183,
      "Ġáī°áĪĽáĪª": 9184,
      "oll": 9185,
      "ĠMapapa": 9186,
      "ĠáĮįáĪªáĬŃ": 9187,
      "Ġáĭ¨áī°áĭĪáĪ°": 9188,
      "Ġra'a": 9189,
      "áī³áĭĪáīħ": 9190,
      "Ġkalmar": 9191,
      "ĠáĪ¥áĪŃáĭĵáīµ": 9192,
      "zingira": 9193,
      "ajemi": 9194,
      "Ġitan": 9195,
      "ĠTom": 9196,
      "Ġuntil": 9197,
      "ĠQueen": 9198,
      "04": 9199,
      "ix": 9200,
      "ĠPara": 9201,
      "Ġatta": 9202,
      "Ġdam": 9203,
      "Ġbada": 9204,
      "ikoa": 9205,
      "ransis": 9206,
      "mann": 9207,
      "Äĵ": 9208,
      "Ġáĭĳ": 9209,
      "Ġschool": 9210,
      "amani": 9211,
      "áĪµáĪĬ": 9212,
      "áĪµáī³áīµ": 9213,
      "Ġ(t": 9214,
      "Ġiru": 9215,
      "ĠBad": 9216,
      "tovu": 9217,
      "um.": 9218,
      "áĬ«áīµ": 9219,
      "imá»į": 9220,
      "ĠáĪµáī¥": 9221,
      "wango": 9222,
      "ĠlÃ¡ÃłÃ¡": 9223,
      "Ġamatsayin": 9224,
      "Ġ2008.": 9225,
      "Ġhuitwa": 9226,
      "Ġáĭ¨áĬłáĪĪáĪĿ": 9227,
      "Ġá»įÌĢdá»įÌĢ": 9228,
      "undwa": 9229,
      "ale.": 9230,
      "Ġambaye": 9231,
      "áįīáīµ": 9232,
      "Ġáī°áĭĪáĪĪáĭ°": 9233,
      "ĠáĬłáĭįáĪ®áįĵ": 9234,
      "ĠTovuti": 9235,
      "ĠRD1-score": 9236,
      "ĠRD1-score0": 9237,
      "ĠsÃ¡bÃł": 9238,
      "ĠáĪĺáĬĲáĪ»": 9239,
      "Ġndege": 9240,
      "Ġhabari": 9241,
      "org/wiki/": 9242,
      "tats": 9243,
      "ĠBill": 9244,
      "ultan": 9245,
      "Ġ1959": 9246,
      "Ġestab": 9247,
      "ĠEmpire": 9248,
      "ring": 9249,
      "Ġport": 9250,
      "zi.": 9251,
      "Ġame": 9252,
      "chite": 9253,
      "wikipedia.": 9254,
      "Ġtam": 9255,
      "ĠGal": 9256,
      "fici": 9257,
      "Ġend": 9258,
      "ĠLeague": 9259,
      "Ġnyota": 9260,
      "ĠKwara": 9261,
      "áĭŃáĪŃáĪĭáĬķáĭµ": 9262,
      "toa": 9263,
      "ĠáĪĺáīĢáĪĺáĮ«": 9264,
      "áĪŀáĬķ": 9265,
      "ĠAmani": 9266,
      "Ġlist": 9267,
      "áī¡áĪŃ": 9268,
      "ishaji": 9269,
      "ĠáīħáĬĿ": 9270,
      "pinzani": 9271,
      "áĪ£áĭŃ": 9272,
      "áĪµáī°áĬĽáĭį": 9273,
      "Ġzamantake": 9274,
      "Ġtarayya": 9275,
      "ĠáĪ½áĪį": 9276,
      "Ġwanyama": 9277,
      "Ġáĭ¶áĪ®": 9278,
      "Ġdangin": 9279,
      "ĠáĭŃáĪĨáĬĵáĪį": 9280,
      "Elle": 9281,
      "ĠáĪĺáĪ£áĪªáĭ«": 9282,
      "Pro": 9283,
      "ĠtÃ¡n": 9284,
      "issa": 9285,
      "ĠÃ²rÃ¬á¹£Ãł": 9286,
      "Ġoriláº¹": 9287,
      "Ġmáº¹ÌģfÃł": 9288,
      "itÃ©s": 9289,
      "ĠLibr": 9290,
      "ĠTha": 9291,
      "Ġl'h": 9292,
      "Ġhars": 9293,
      "Ġgeneral": 9294,
      "gÃ²": 9295,
      "ĠCan": 9296,
      "ĠWaa": 9297,
      "Ġ1930": 9298,
      "ĠreprÃ©sent": 9299,
      "ĠCape": 9300,
      "93": 9301,
      "Hata": 9302,
      "tta": 9303,
      "Ġsheria": 9304,
      "Ġdaular": 9305,
      "Ġ(wa": 9306,
      "áī°áį¡": 9307,
      "áī°áĭ³": 9308,
      "ĠNations": 9309,
      "áĭ°áĬķáīµ": 9310,
      "áĪĭáĮħ": 9311,
      "Ġmab": 9312,
      "áī£áī£": 9313,
      "ĠHel": 9314,
      "áīłáĪ»": 9315,
      "áĪ©áĬŃ": 9316,
      "hou": 9317,
      "Ġkida": 9318,
      "Ġl'ar": 9319,
      "áĭķáīĨ": 9320,
      "áĭ©áīµ": 9321,
      "Ġmuhimman": 9322,
      "ĠáĬłáĪįáįİ": 9323,
      "unganisha": 9324,
      "Ġáĭ¨áĬ¥áĬķáĮįáĪĬáĭĿ": 9325,
      "Ġáī°áīĢáĪĿ": 9326,
      "ĠIbom": 9327,
      "ĠáĮ¨áĭĭ": 9328,
      "Ġtaimaka": 9329,
      "Ġsauransu.": 9330,
      "Ġmvua": 9331,
      "by": 9332,
      "isation": 9333,
      "ĠRasha": 9334,
      "alitÃ©": 9335,
      "ĠCollege,": 9336,
      "Ġobinrin": 9337,
      "tif": 9338,
      "Ġipin": 9339,
      "ĠYuli": 9340,
      "hod": 9341,
      "Ġorgan": 9342,
      "ĠkÃ²kÃ²rÃ²": 9343,
      "Ġá¹£áº¹láº¹ÌĢ": 9344,
      "ĠCivil": 9345,
      "n,": 9346,
      "Ġmor": 9347,
      "ĠMod": 9348,
      "taire": 9349,
      "ĠC.": 9350,
      "ĠFred": 9351,
      "ĠLimited": 9352,
      "jiri": 9353,
      "Ġtsib": 9354,
      "Ġdel": 9355,
      "áĬķáĪ°": 9356,
      "áĬķáĬ«": 9357,
      "áĪįáį¤": 9358,
      "Ġ(14": 9359,
      "tage": 9360,
      "áĬĲáĮį": 9361,
      "áīłáĭ«": 9362,
      "Ġingawa": 9363,
      "Ġbay": 9364,
      "ĠEkiti": 9365,
      "áįįáī°": 9366,
      "áīħáĪį": 9367,
      "Ġshi,": 9368,
      "Ġ2002,": 9369,
      "ĠáĬĲáīłáĪŃáį¤": 9370,
      "Ġbude": 9371,
      "ĠáĪµáĪĿáĪĿáĬĲáīµ": 9372,
      "ĠáĪĺáĬķáĮĪ": 9373,
      "ĠáĬ¨áĬłáĬķáĭµ": 9374,
      "áĪŃáĪ±áĪĿ": 9375,
      "ĠprÃ©sent": 9376,
      "ĠáĭŃáī³áĪĺáĬĵ": 9377,
      "ĠGregori": 9378,
      "ĠAhmadu": 9379,
      "Ġsarra": 9380,
      "tant": 9381,
      "ĠNik": 9382,
      "elÃ©": 9383,
      "ĠDep": 9384,
      "ĠFulani": 9385,
      "ance,": 9386,
      "vient": 9387,
      "ĠCommon": 9388,
      "Ġ(c": 9389,
      "urar": 9390,
      "ĠIgba": 9391,
      "ke.": 9392,
      "cian": 9393,
      "Ġ(2014": 9394,
      "essor": 9395,
      "Ġautres": 9396,
      "à¤ķà¤": 9397,
      "Cette": 9398,
      "NÃŃnÃº": 9399,
      "káº¹": 9400,
      "udi": 9401,
      "Ġá»įna": 9402,
      "oso": 9403,
      "techni": 9404,
      "ĠÃ¨we": 9405,
      "ĠVI": 9406,
      "000.": 9407,
[...]
