{
  "version": "1.0",
  "truncation": null,
  "padding": null,
  "added_tokens": [],
  "normalizer": null,
  "pre_tokenizer": {
    "type": "Sequence",
    "pretokenizers": [
      {
        "type": "Split",
        "pattern": {
          "Regex": " ?\\S+|\\s+"
        },
        "behavior": "Isolated",
        "invert": false
      },
      {
        "type": "ByteLevel",
        "add_prefix_space": false,
        "trim_offsets": true,
        "use_regex": false
      }
    ]
  },
  "post_processor": null,
  "decoder": {
    "type": "ByteLevel",
    "add_prefix_space": true,
    "trim_offsets": true,
    "use_regex": true
  },
  "model": {
    "type": "BPE",
    "dropout": null,
    "unk_token": null,
    "continuing_subword_prefix": null,
    "end_of_word_suffix": null,
    "fuse_unk": false,
    "byte_fallback": false,
    "ignore_merges": false,
    "vocab": {
      "!": 0,
      "\"": 1,
      "#": 2,
      "$": 3,
      "%": 4,
      "&": 5,
      "'": 6,
      "(": 7,
      ")": 8,
      "*": 9,
      "+": 10,
      ",": 11,
      "-": 12,
      ".": 13,
      "/": 14,
      "0": 15,
      "1": 16,
      "2": 17,
      "3": 18,
      "4": 19,
      "5": 20,
      "6": 21,
      "7": 22,
      "8": 23,
      "9": 24,
      ":": 25,
      ";": 26,
      "<": 27,
      "=": 28,
      ">": 29,
      "?": 30,
      "@": 31,
      "A": 32,
      "B": 33,
      "C": 34,
      "D": 35,
      "E": 36,
      "F": 37,
      "G": 38,
      "H": 39,
      "I": 40,
      "J": 41,
      "K": 42,
      "L": 43,
      "M": 44,
      "N": 45,
      "O": 46,
      "P": 47,
      "Q": 48,
      "R": 49,
      "S": 50,
      "T": 51,
      "U": 52,
      "V": 53,
      "W": 54,
      "X": 55,
      "Y": 56,
      "Z": 57,
      "[": 58,
      "\\": 59,
      "]": 60,
      "^": 61,
      "_": 62,
      "`": 63,
      "a": 64,
      "b": 65,
      "c": 66,
      "d": 67,
      "e": 68,
      "f": 69,
      "g": 70,
      "h": 71,
      "i": 72,
      "j": 73,
      "k": 74,
      "l": 75,
      "m": 76,
      "n": 77,
      "o": 78,
      "p": 79,
      "q": 80,
      "r": 81,
      "s": 82,
      "t": 83,
      "u": 84,
      "v": 85,
      "w": 86,
      "x": 87,
      "y": 88,
      "z": 89,
      "{": 90,
      "|": 91,
      "}": 92,
      "~": 93,
      "¡": 94,
      "¢": 95,
      "£": 96,
      "¤": 97,
      "¥": 98,
      "¦": 99,
      "§": 100,
      "¨": 101,
      "©": 102,
      "ª": 103,
      "«": 104,
      "¬": 105,
      "®": 106,
      "¯": 107,
      "°": 108,
      "±": 109,
      "²": 110,
      "³": 111,
      "´": 112,
      "µ": 113,
      "¶": 114,
      "·": 115,
      "¸": 116,
      "¹": 117,
      "º": 118,
      "»": 119,
      "¼": 120,
      "½": 121,
      "¾": 122,
      "¿": 123,
      "À": 124,
      "Á": 125,
      "Â": 126,
      "Ã": 127,
      "Ä": 128,
      "Å": 129,
      "Æ": 130,
      "Ç": 131,
      "È": 132,
      "É": 133,
      "Ê": 134,
      "Ë": 135,
      "Ì": 136,
      "Í": 137,
      "Î": 138,
      "Ï": 139,
      "Ð": 140,
      "Ñ": 141,
      "Ò": 142,
      "Ó": 143,
      "Ô": 144,
      "Õ": 145,
      "Ö": 146,
      "×": 147,
      "Ø": 148,
      "Ù": 149,
      "Ú": 150,
      "Û": 151,
      "Ü": 152,
      "Ý": 153,
      "Þ": 154,
      "ß": 155,
      "à": 156,
      "á": 157,
      "â": 158,
      "ã": 159,
      "ä": 160,
      "å": 161,
      "æ": 162,
      "ç": 163,
      "è": 164,
      "é": 165,
      "ê": 166,
      "ë": 167,
      "ì": 168,
      "í": 169,
      "î": 170,
      "ï": 171,
      "ð": 172,
      "ñ": 173,
      "ò": 174,
      "ó": 175,
      "ô": 176,
      "õ": 177,
      "ö": 178,
      "÷": 179,
      "ø": 180,
      "ù": 181,
      "ú": 182,
      "û": 183,
      "ü": 184,
      "ý": 185,
      "þ": 186,
      "ÿ": 187,
      "Ā": 188,
      "ā": 189,
      "Ă": 190,
      "ă": 191,
      "Ą": 192,
      "ą": 193,
      "Ć": 194,
      "ć": 195,
      "Ĉ": 196,
      "ĉ": 197,
      "Ċ": 198,
      "ċ": 199,
      "Č": 200,
      "č": 201,
      "Ď": 202,
      "ď": 203,
      "Đ": 204,
      "đ": 205,
      "Ē": 206,
      "ē": 207,
      "Ĕ": 208,
      "ĕ": 209,
      "Ė": 210,
      "ė": 211,
      "Ę": 212,
      "ę": 213,
      "Ě": 214,
      "ě": 215,
      "Ĝ": 216,
      "ĝ": 217,
      "Ğ": 218,
      "ğ": 219,
      "Ġ": 220,
      "ġ": 221,
      "Ģ": 222,
      "ģ": 223,
      "Ĥ": 224,
      "ĥ": 225,
      "Ħ": 226,
      "ħ": 227,
      "Ĩ": 228,
      "ĩ": 229,
      "Ī": 230,
      "ī": 231,
      "Ĭ": 232,
      "ĭ": 233,
      "Į": 234,
      "į": 235,
      "İ": 236,
      "ı": 237,
      "Ĳ": 238,
      "ĳ": 239,
      "Ĵ": 240,
      "ĵ": 241,
      "Ķ": 242,
      "ķ": 243,
      "ĸ": 244,
      "Ĺ": 245,
      "ĺ": 246,
      "Ļ": 247,
      "ļ": 248,
      "Ľ": 249,
      "ľ": 250,
      "Ŀ": 251,
      "ŀ": 252,
      "Ł": 253,
      "ł": 254,
      "Ń": 255,
      "áĪ": 256,
      "Ġá": 257,
      "áī": 258,
      "áĬ": 259,
      "áĭ": 260,
      "an": 261,
      "ar": 262,
      "in": 263,
      "áĮ": 264,
      "Ġáĭ": 265,
      "ĠáĬ": 266,
      "Ġt": 267,
      "Ġk": 268,
      "Ġn": 269,
      "wa": 270,
      "ĠáĪ": 271,
      "áį": 272,
      "Ġa": 273,
      "Ġd": 274,
      "áĬķ": 275,
      "»į": 276,
      "ÃŃ": 277,
      "Ġáī": 278,
      "ĠÃ": 279,
      "Ġs": 280,
      "Ġm": 281,
      "á»į": 282,
      "ya": 283,
      "º¹": 284,
      "on": 285,
      "er": 286,
      "áīµ": 287,
      "áº¹": 288,
      "en": 289,
      "li": 290,
      "at": 291,
      "áĪŃ": 292,
      "un": 293,
      "Ġl": 294,
      "ka": 295,
      "Ġáĭ¨": 296,
      "áĭį": 297,
      "áº¹Ì": 298,
      "es": 299,
      "Ã©": 300,
      "Ġya": 301,
      "Ġda": 302,
      "ĠA": 303,
      "Ãł": 304,
      "Ġo": 305,
      "am": 306,
      "is": 307,
      "łáĪ": 308,
      "Ġwa": 309,
      "as": 310,
      "Ã¡": 311,
      "áĪĿ": 312,
      "Ġb": 313,
      "áĪį": 314,
      "áĪµ": 315,
      "Ġ(": 316,
      "he": 317,
      "ĠM": 318,
      "Ġ1": 319,
      "á»įÌ": 320,
      "Ġc": 321,
      "Ġp": 322,
      "or": 323,
      "ti": 324,
      "Ãº": 325,
      "Ġf": 326,
      "al": 327,
      "Ġi": 328,
      "hi": 329,
      "Ã¬": 330,
      "Ġna": 331,
      "Ġg": 332,
      "áį¢": 333,
      "ha": 334,
      "ur": 335,
      "Ġw": 336,
      "le": 337,
      "áĬĵ": 338,
      "Ġáīł": 339,
      "áī°": 340,
      "ĠK": 341,
      "ba": 342,
      "áĭ«": 343,
      "áĪĪ": 344,
      "ta": 345,
      "Ġr": 346,
      "ĠÃł": 347,
      "ĠáĮ": 348,
      "ĠS": 349,
      "Ġj": 350,
      "Ġku": 351,
      "áĭŃ": 352,
      "áĪĺ": 353,
      "ĠáĬ¥": 354,
      "ir": 355,
      "áº¹ÌĢ": 356,
      "áī½": 357,
      "áº¹Ìģ": 358,
      "ĠN": 359,
      "Ġta": 360,
      "á»įÌģ": 361,
      "ma": 362,
      "ik": 363,
      "us": 364,
      "ĠI": 365,
      "da": 366,
      "ia": 367,
      "ĠáĬł": 368,
      "Ġni": 369,
      "Ã¨": 370,
      "ĠB": 371,
      "¹£": 372,
      "ati": 373,
      "Ã³": 374,
      "it": 375,
      "Ġ2": 376,
      "áĭ°": 377,
      "áĬĲ": 378,
      "la": 379,
      "gb": 380,
      "áī¥": 381,
      "Ġ19": 382,
      "áĪ¨": 383,
      "áĮĪ": 384,
      "áĭµ": 385,
      "ĠnÃŃ": 386,
      "ĠT": 387,
      "á»įn": 388,
      "to": 389,
      "áĪĭ": 390,
      "ĠáĬĲ": 391,
      "áĮį": 392,
      "ara": 393,
      "Ġma": 394,
      "ĠáĪĺ": 395,
      "ĠC": 396,
      "om": 397,
      "ana": 398,
      "áīł": 399,
      "za": 400,
      "ed": 401,
      "ĠÃ¬": 402,
      "áĪ«": 403,
      "áī³": 404,
      "ĠáĬ¨": 405,
      "wá»įn": 406,
      "el": 407,
      "ri": 408,
      "Ġy": 409,
      "and": 410,
      "Ã¹": 411,
      "Ġh": 412,
      "Ġá»į": 413,
      "áĬŃ": 414,
      "Ã²": 415,
      "ĠP": 416,
      "ga": 417,
      "ĠW": 418,
      "di": 419,
      "á¹£": 420,
      "Ġthe": 421,
      "ĠO": 422,
      "Ġin": 423,
      "áĪĽ": 424,
      "em": 425,
      "Ġ20": 426,
      "Ġla": 427,
      "áĪ³": 428,
      "um": 429,
      "áī£": 430,
      "ani": 431,
      "et": 432,
      "Ġde": 433,
      "Ġáį": 434,
      "ĠG": 435,
      "ent": 436,
      "ĠD": 437,
      "ĠL": 438,
      "si": 439,
      "Ġof": 440,
      "ut": 441,
      "ĠJ": 442,
      "âĢ": 443,
      "sa": 444,
      "Ãºn": 445,
      "ĠF": 446,
      "ĠtÃŃ": 447,
      "ing": 448,
      "á»įÌĢ": 449,
      "áĬĽ": 450,
      "il": 451,
      "Ġáī°": 452,
      "áĪª": 453,
      "ĠáĭŃ": 454,
      "ke": 455,
      "ol": 456,
      "ĠáīłáĪ": 457,
      "bi": 458,
      "Ġáĭ¨áĪ": 459,
      "ĠR": 460,
      "ĠáĬłáĪ": 461,
      "ĠH": 462,
      "áĪħ": 463,
      "áĮ¥": 464,
      "áĬ¨": 465,
      "ra": 466,
      "áį£": 467,
      "ce": 468,
      "Ġti": 469,
      "ch": 470,
      "rÃŃ": 471,
      "ko": 472,
      "ĠáĪĿ": 473,
      "ro": 474,
      "Ġba": 475,
      "Ġáĭ¨áĬ": 476,
      "ari": 477,
      "Ġ-": 478,
      "re": 479,
      "ĠáĭĪ": 480,
      "ĠE": 481,
      "áį¡": 482,
      "ki": 483,
      "ul": 484,
      "ĠU": 485,
      "áįį": 486,
      "áĭ³": 487,
      "ĠáĬĲáĭį": 488,
      "áīĢ": 489,
      "ku": 490,
      "Ġha": 491,
      "ci": 492,
      "ji": 493,
      "áĭ¨": 494,
      "qu": 495,
      "ĠáĬ¥áĬķ": 496,
      "áĭĪ": 497,
      "ĠÃ³": 498,
      "ye": 499,
      "láº¹ÌĢ": 500,
      "ama": 501,
      "Ġv": 502,
      "áĪ°": 503,
      "are": 504,
      "áīħ": 505,
      "de": 506,
      "áĪĮ": 507,
      "áĬ«": 508,
      "os": 509,
      "ÆĻ": 510,
      "ĠáĪĪ": 511,
      "Ġto": 512,
      "eri": 513,
      "Ġz": 514,
      "ini": 515,
      "áĬł": 516,
      "pa": 517,
      "00": 518,
      "ĠáĬĲáĭįáį¢": 519,
      "im": 520,
      "ĠáĪµ": 521,
      "ata": 522,
      "gi": 523,
      "áī¸": 524,
      "bu": 525,
      "Ġáĭ«": 526,
      "Ġza": 527,
      "ĠÃĢ": 528,
      "yar": 529,
      "Ġsa": 530,
      "te": 531,
      "áĪī": 532,
      "Ġkuma": 533,
      "Ġáĭĵ": 534,
      "ÌĢ": 535,
      "ina": 536,
      "Ġkwa": 537,
      "Ãłn": 538,
      "yo": 539,
      "kar": 540,
      "Ġand": 541,
      "fi": 542,
      "Ġshe": 543,
      "ĠÃłwá»įn": 544,
      "fa": 545,
      "ation": 546,
      "e,": 547,
      "áīłáĪ": 548,
      "19": 549,
      "áĭĬ": 550,
      "áĭĭ": 551,
      "Ġu": 552,
      "áĪ®": 553,
      "áī±": 554,
      "İáī½": 555,
      "bo": 556,
      "áī¸áĭį": 557,
      "áįĪ": 558,
      "iki": 559,
      "Ġáĭ¨áĪļ": 560,
      "ad": 561,
      "toka": 562,
      "áĭĿ": 563,
      "Ġáº¹": 564,
      "ĠÆĻ": 565,
      "áĮ£": 566,
      "áĪįáį¢": 567,
      "ali": 568,
      "áĪĨ": 569,
      "ĠáĪĽ": 570,
      "ĠY": 571,
      "Ġe": 572,
      "ikin": 573,
      "ig": 574,
      "áĭļ": 575,
      "wan": 576,
      "áī¶": 577,
      "áĪ³áĪĮ": 578,
      "Ġ201": 579,
      "zi": 580,
      "Ġne": 581,
      "yan": 582,
      "áĮł": 583,
      "Ġle": 584,
      "kan": 585,
      "áĮī": 586,
      "ni": 587,
      "Ġsu": 588,
      "gu": 589,
      "rin": 590,
      "Ġá¹£": 591,
      "áĮĭ": 592,
      "Ġka": 593,
      "op": 594,
      "ĠMa": 595,
      "ant": 596,
      "ĠáīłáĬ": 597,
      "áĭ®": 598,
      "Ġal": 599,
      "ge": 600,
      "est": 601,
      "hin": 602,
      "Ġ\"": 603,
      "lÃ©": 604,
      "ĠáĪĿáĪ³áĪĮ": 605,
      "Ġga": 606,
      "á»įÌģn": 607,
      "go": 608,
      "asa": 609,
      "ĠÃ¨": 610,
      "Ġshi": 611,
      "ec": 612,
      "ĠáĪ²": 613,
      "ĠÃłti": 614,
      "Ġen": 615,
      ").": 616,
      "áĭ²": 617,
      "Ġkati": 618,
      "ers": 619,
      "áĬķáĭµ": 620,
      "ĠáĮį": 621,
      "ann": 622,
      "har": 623,
      "Ġáīµ": 624,
      "fu": 625,
      "ja": 626,
      "war": 627,
      "ĠÃĮ": 628,
      "ĠâĢ": 629,
      "áĭİáī½": 630,
      "una": 631,
      "dÃºn": 632,
      "Ġáĭĺ": 633,
      "Ġjáº¹Ìģ": 634,
      "áĪ¥": 635,
      "lÃº": 636,
      "áīĥ": 637,
      "me": 638,
      "ot": 639,
      "Ã¬n": 640,
      "ĠÃĢwá»įn": 641,
      "ĠsÃŃ": 642,
      "ban": 643,
      "ÅĦ": 644,
      "ist": 645,
      "áĬĸ": 646,
      "áĪŀ": 647,
      "áĭĺ": 648,
      "Ġcikin": 649,
      "uwa": 650,
      "ic": 651,
      "ĠNa": 652,
      "ĠlÃ¡": 653,
      "Ġwas": 654,
      "id": 655,
      "waka": 656,
      "Ġáĭ¨áī°": 657,
      "Ġet": 658,
      "Ġkan": 659,
      "st": 660,
      "yin": 661,
      "ĠáĬ¥áĬĵ": 662,
      "Ġam": 663,
      "ĠÃ²": 664,
      "Ġali": 665,
      "Ġbi": 666,
      "Ã¹n": 667,
      "áĬĲáīµ": 668,
      "Ġ200": 669,
      "ĠáĪ°": 670,
      "we": 671,
      "Ġáī¥": 672,
      "),": 673,
      "lo": 674,
      "áĬ¥": 675,
      "áĪĬ": 676,
      "ili": 677,
      "du": 678,
      "áĪ©": 679,
      "ere": 680,
      "Ġun": 681,
      "Ġkas": 682,
      "Ġhi": 683,
      "Ġdaga": 684,
      "ĠAf": 685,
      "po": 686,
      "Ġáĭį": 687,
      "áĪĻ": 688,
      "tion": 689,
      "ĠV": 690,
      "hu": 691,
      "anda": 692,
      "if": 693,
      "Ġko": 694,
      "áĬķáĮį": 695,
      "Ġje": 696,
      "kin": 697,
      "ĠáīĢ": 698,
      "ans": 699,
      "ne": 700,
      "Ġkatika": 701,
      "ho": 702,
      "ĠAm": 703,
      "Ġon": 704,
      "ÃŃn": 705,
      "cin": 706,
      "ĠÅĦ": 707,
      "áīłáĪŃ": 708,
      "chi": 709,
      "ĭáĭŃ": 710,
      "Ġáĭ°": 711,
      "Ġkar": 712,
      "lu": 713,
      "Ġsi": 714,
      "ĠáĬ¥áĬķáĭ°": 715,
      "Ġráº¹ÌĢ": 716,
      "Ġdu": 717,
      "Ġá»įdÃºn": 718,
      "Ġhu": 719,
      "áĭĽ": 720,
      "zo": 721,
      "eriya": 722,
      "Ġáĭ¨áĬłáĪ": 723,
      "dÃ¨": 724,
      "jeriya": 725,
      "Ġan": 726,
      "áĪļ": 727,
      "ter": 728,
      "Ġmwaka": 729,
      "ÉĹ": 730,
      "je": 731,
      "ĠáĬŃ": 732,
      "ĠÂ": 733,
      "ug": 734,
      "áĪİ": 735,
      "Ġati": 736,
      "won": 737,
      "do": 738,
      "ab": 739,
      "uni": 740,
      "Ġar": 741,
      "Ġ18": 742,
      "Ġce": 743,
      "gbÃł": 744,
      "bÃŃ": 745,
      "ĠIn": 746,
      "áĮħ": 747,
      "yi": 748,
      "áī²": 749,
      "Ġshekar": 750,
      "th": 751,
      "áī¢": 752,
      "ine": 753,
      "rÃ©": 754,
      "áĬĳ": 755,
      "wo": 756,
      "Ġre": 757,
      "our": 758,
      "tokasi": 759,
      "áįĭ": 760,
      "ĠáĪį": 761,
      "Ġdes": 762,
      "ber": 763,
      "ĠbÃŃ": 764,
      "Ġwá»įÌģn": 765,
      "Ġlo": 766,
      "20": 767,
      "Ġmat": 768,
      "Ġ.": 769,
      "Ġ3": 770,
      "ká»įÌģ": 771,
      "Ġis": 772,
      "áĬĿ": 773,
      "kuwa": 774,
      "so": 775,
      "ĠAl": 776,
      "Ġse": 777,
      "Ġl'": 778,
      "áĪ±": 779,
      "ĠAn": 780,
      "jo": 781,
      "Ġki": 782,
      "Ã¡Ãł": 783,
      "áį¤": 784,
      "âĢĻ": 785,
      "Ġmas": 786,
      "que": 787,
      "áĪĨáĬķ": 788,
      "áĪ½": 789,
      "Ġli": 790,
      "Ġke": 791,
      "kara": 792,
      "ov": 793,
      "áĮİ": 794,
      "Ġ199": 795,
      "ĠáĪĭáĭŃ": 796,
      "Ġili": 797,
      "áĭ«áĬķ": 798,
      "ĠItokasi": 799,
      "áĪĪáĭį": 800,
      "Ġáī³": 801,
      "Ġáĭµ": 802,
      "má»į": 803,
      "»Į": 804,
      "Ġyi": 805,
      "Ġfi": 806,
      "Ġpar": 807,
      "Ġas": 808,
      "res": 809,
      "Ġcon": 810,
      "áĪŃáĬĽ": 811,
      "áĭ±": 812,
      "áĪģ": 813,
      "Ġáī£": 814,
      "tan": 815,
      "ay": 816,
      "ami": 817,
      "alio": 818,
      "fin": 819,
      "ob": 820,
      "ly": 821,
      "ris": 822,
      "amu": 823,
      "ĠfÃºn": 824,
      "áĭļáĪħ": 825,
      "¢áīµ": 826,
      "Ġau": 827,
      "Ġá¹£e": 828,
      "ĠWa": 829,
      "Ġol": 830,
      "Ġfor": 831,
      "tu": 832,
      "ĽáĪŃáĬĽ": 833,
      "¢áīµáĭ®": 834,
      "s,": 835,
      "áĮµ": 836,
      "ance": 837,
      "áĬĴ": 838,
      "áĭķ": 839,
      "ĠtÃ³": 840,
      "áīĨ": 841,
      "ĠnÃŃn": 842,
      "ve": 843,
      "áĮĢ": 844,
      "ĠorÃŃ": 845,
      "ou": 846,
      "ĠáīłáĪĺ": 847,
      "sÃŃ": 848,
      "¢áīµáĭ®áĮµ": 849,
      "ala": 850,
      "Ġshekara": 851,
      "pe": 852,
      "ang": 853,
      "Ġcha": 854,
      "Ã¡n": 855,
      "já»įÌģ": 856,
      "áĪĪáīµ": 857,
      "Ġshekarar": 858,
      "mi": 859,
      "já»į": 860,
      "áĮ½": 861,
      "áĮĪáĪŃ": 862,
      "áĪ¬": 863,
      "be": 864,
      "Ġmai": 865,
      "Ġaka": 866,
      "ada": 867,
      "Ġ|": 868,
      "Ġles": 869,
      "anz": 870,
      "áī¡": 871,
      "áĪµáĮ¥": 872,
      "mo": 873,
      "Ġáº¹ÌĢ": 874,
      "ĠÂ«": 875,
      "jÃº": 876,
      "¢áīµáĭ®áĮµáĭ«": 877,
      "ĠWalio": 878,
      "Ġáĭ¨áĬłáĪĽáĪŃáĬĽ": 879,
      "Ġth": 880,
      "ĠNajeriya": 881,
      "áĪ¨áīµ": 882,
      "isi": 883,
      "asar": 884,
      "ĠAfri": 885,
      "Ġ:": 886,
      "liwa": 887,
      "gun": 888,
      "se": 889,
      "oni": 890,
      "áīłáīµ": 891,
      "ĠáĬĲáīłáĪŃ": 892,
      "áĭľ": 893,
      "od": 894,
      "ĠnÃ¡Ãł": 895,
      "ĠáĮ¥": 896,
      "enye": 897,
      "Ġcom": 898,
      "áĪĺáĬķ": 899,
      "Ġ198": 900,
      "Ġdi": 901,
      "ate": 902,
      "Ġkutoka": 903,
      "áĪ»": 904,
      "ita": 905,
      "mu": 906,
      "ru": 907,
      "ĠáĭĪáĭ°": 908,
      "'a": 909,
      "ĠáĪĨ": 910,
      "na": 911,
      "ĠáĮĪ": 912,
      "á¹£áº¹Ìģ": 913,
      "áĪµáīµ": 914,
      "ĠáĬ¨áī°": 915,
      "18": 916,
      "yu": 917,
      "jÃŃ": 918,
      "ĠnÃŃnÃº": 919,
      "ÃĢ": 920,
      "far": 921,
      "erÃ©": 922,
      "áī»": 923,
      "arin": 924,
      "ĠáĬķ": 925,
      "Ġina": 926,
      "ct": 927,
      "ĠZ": 928,
      "Ġso": 929,
      "Ġá»įÌĢ": 930,
      "iri": 931,
      "Ġá»įmá»į": 932,
      "Ġ197": 933,
      "áĭ©": 934,
      "ano": 935,
      "ag": 936,
      "ihar": 937,
      "Ġpro": 938,
      "Ġgb": 939,
      "ĠÃ©": 940,
      "Ġá»Į": 941,
      "Ġ196": 942,
      "áĭĵ": 943,
      "asi": 944,
      "man": 945,
      "ĠlÃ¡ti": 946,
      "ori": 947,
      "áįĬ": 948,
      "anar": 949,
      "ká»į": 950,
      "áĭįáĬķ": 951,
      "atu": 952,
      "áī¶áī½": 953,
      "Ġwanda": 954,
      "ran": 955,
      "rÃŃÃł": 956,
      "au": 957,
      "ĠáĬ¥áĪµ": 958,
      "Â»": 959,
      "ÃłÃ¬": 960,
      "Ġ'": 961,
      "ity": 962,
      "ĠáĭįáĪµáĮ¥": 963,
      "gba": 964,
      "ĠáĬłáĭŃ": 965,
      "ement": 966,
      "Ġgba": 967,
      "áĪŃáĮī": 968,
      "ĠlÃ³": 969,
      "su": 970,
      "Ġqu": 971,
      "s.": 972,
      "ap": 973,
      "ĠThe": 974,
      "Ĭáĭľ": 975,
      "og": 976,
      "ĠâĢĵ": 977,
      "áĮłáĪ": 978,
      "ire": 979,
      "áĪªáĭ«": 980,
      "Ġ4": 981,
      "ai": 982,
      "Ã¬ÃŃ": 983,
      "áĬĶ": 984,
      "Ġd'": 985,
      "amar": 986,
      "jÃŃrÃŃÃł": 987,
      "ĠdÃ©": 988,
      "ham": 989,
      "ĠsÃ¬": 990,
      "Ba": 991,
      "ĠNÃłÃ¬": 992,
      "áīĭ": 993,
      "ep": 994,
      "ĠáĪģ": 995,
      "áĭ¶": 996,
      "ane": 997,
      "Ġsun": 998,
      "les": 999,
      "lis": 1000,
      "Ma": 1001,
      "áĪ²": 1002,
      "ĠNÃłÃ¬jÃŃrÃŃÃł": 1003,
      "áĬĽáĭį": 1004,
      "áĬłáĪ": 1005,
      "ĠKi": 1006,
      "ary": 1007,
      "áī¦": 1008,
      "uri": 1009,
      "und": 1010,
      "áĭŃáĪĿ": 1011,
      "usu": 1012,
      "ment": 1013,
      "Ġmw": 1014,
      "áĪŃáĪµ": 1015,
      "áĬ¤": 1016,
      "áĪľ": 1017,
      "200": 1018,
      "Ġpe": 1019,
      "art": 1020,
      "isha": 1021,
      "Ġ5": 1022,
      "Ġáīłáī°": 1023,
      "gbe": 1024,
      "obel": 1025,
      "ck": 1026,
      "áĭĻ": 1027,
      "áĪĲ": 1028,
      "annan": 1029,
      "áĬ®": 1030,
      "ort": 1031,
      "ĠNobel": 1032,
      "kÃł": 1033,
      "áī¤": 1034,
      "Ġwali": 1035,
      "Ġáīħ": 1036,
      "Ġest": 1037,
      "Ġdon": 1038,
      "ub": 1039,
      "ĠáĬłáĪµ": 1040,
      "Ġzuwa": 1041,
      "ĠáĪ¥": 1042,
      "le-": 1043,
      "Ġ(19": 1044,
      "Ġáī¤": 1045,
      "ĠáĬ«": 1046,
      "Ġtare": 1047,
      "ver": 1048,
      "hen": 1049,
      "á¹£Ã¹": 1050,
      "ure": 1051,
      "ĠáīµáĪŃáĮī": 1052,
      "Ġáĭ¨áĪĺ": 1053,
      "Ã¨dÃ¨": 1054,
      "Ġfar": 1055,
      "Ġor": 1056,
      "áĬ©": 1057,
      "ira": 1058,
      "sayin": 1059,
      "ak": 1060,
      "ĠáĮįáĬķ": 1061,
      "áĪªáĬŃ": 1062,
      "Ġkama": 1063,
      "ud": 1064,
      "ĠáĬ¥áĬķáĭ²": 1065,
      "Ġawon": 1066,
      "Ġá»įjá»įÌģ": 1067,
      "ale": 1068,
      "ĠorÃŃláº¹ÌĢ": 1069,
      "ll": 1070,
      "ede": 1071,
      "Ġra": 1072,
      "The": 1073,
      "zaliwa": 1074,
      "ia.": 1075,
      "lÃ¡": 1076,
      "ĠáĮĭ": 1077,
      "ust": 1078,
      "Ġáĭ¨áĬł": 1079,
      "yÃłn": 1080,
      "áīģ": 1081,
      "áĮ¨": 1082,
      "Ġpl": 1083,
      "Ġyan": 1084,
      "ĠilÃ©": 1085,
      "á¹£Ã¨": 1086,
      "Ġmut": 1087,
      "Ġmo": 1088,
      "Ãĵ": 1089,
      "lia": 1090,
      "-Ã¨dÃ¨": 1091,
      "áī¹": 1092,
      "ju": 1093,
      "pÃŃn": 1094,
      "kun": 1095,
      "áīłáĪ¨": 1096,
      "ca": 1097,
      "kwa": 1098,
      "pá»įÌĢ": 1099,
      "'s": 1100,
      "ĠáĪ²áĪĨáĬķ": 1101,
      "Ġwá»įn": 1102,
      "bar": 1103,
      "oma": 1104,
      "áį¡áį¡": 1105,
      "ĭáĪĭ": 1106,
      "ith": 1107,
      "An": 1108,
      "jÃ¬": 1109,
      "inu": 1110,
      "shin": 1111,
      "áĮĥ": 1112,
      "Ġbe": 1113,
      "áĬŃáĪį": 1114,
      "ew": 1115,
      "end": 1116,
      "áĪĥ": 1117,
      "»áį": 1118,
      "amo": 1119,
      "ĠSt": 1120,
      "ĠÉĹ": 1121,
      "dun": 1122,
      "gbo": 1123,
      "ĠáīµáĪŃáĮīáĪĻ": 1124,
      "ĠáĬĲáīłáĪŃáį¢": 1125,
      "Ġwatan": 1126,
      "Ġmu": 1127,
      "Ġmatsayin": 1128,
      "ĠAr": 1129,
      "Ġori": 1130,
      "ĠáīłáĬł": 1131,
      "Ġ195": 1132,
      "ĠáĬłáĬķ": 1133,
      "pin": 1134,
      "es,": 1135,
      "ĠÃ¬lÃº": 1136,
      "áĪ´": 1137,
      ".áĪĿ": 1138,
      "ĠLe": 1139,
      "Ġnchi": 1140,
      "vi": 1141,
      "Ġkuwa": 1142,
      "bÃ¡": 1143,
      "ĠáĪ³": 1144,
      "kÃ³": 1145,
      "²áį": 1146,
      "Ġ6": 1147,
      "áī´": 1148,
      "ĠPa": 1149,
      "ĠNig": 1150,
      "Ġfun": 1151,
      "ong": 1152,
      "áĮŃ": 1153,
      "ond": 1154,
      "ĠáĪĺáĬķáĮį": 1155,
      "rom": 1156,
      "ĠáĮĬáĭľ": 1157,
      "ele": 1158,
      "Ġci": 1159,
      "ish": 1160,
      "má»įÌĢ": 1161,
      "ĠáīĢáĬķ": 1162,
      "tic": 1163,
      "yÃ©": 1164,
      "ĠáĭĪáĭŃáĪĿ": 1165,
      "Ġáĭĭ": 1166,
      "Ġara": 1167,
      "Ġwasan": 1168,
      "Ġsuka": 1169,
      "Ġyake": 1170,
      "Ġat": 1171,
      "áī³áīµ": 1172,
      "Ġyana": 1173,
      "ĠNi": 1174,
      "hari": 1175,
      "Ġawá»įn": 1176,
      "Ġáĭĵ.áĪĿ": 1177,
      "ts": 1178,
      "arta": 1179,
      "risto": 1180,
      "ĠTu": 1181,
      "Ġhar": 1182,
      "kani": 1183,
      "vers": 1184,
      "pÃŃnláº¹ÌĢ": 1185,
      "ĠAd": 1186,
      "ania": 1187,
      "wÃ©": 1188,
      "áĪªáĬ«": 1189,
      "nÃ¬": 1190,
      "fan": 1191,
      "ĠMare": 1192,
      "ĠarÃ¡": 1193,
      "Ġbir": 1194,
      "ore": 1195,
      "bin": 1196,
      "yÃŃ": 1197,
      "ow": 1198,
      "ĠáĪµáĪĪ": 1199,
      "angu": 1200,
      "ĠáĬĵ": 1201,
      "Ġlati": 1202,
      "Ġ9": 1203,
      "ĠáĬłáĪĪ": 1204,
      "emi": 1205,
      "pp": 1206,
      "áĪ¨áīµáĬĵ": 1207,
      "ord": 1208,
      "ĠáĪĬ": 1209,
      "áĮ»": 1210,
      "Ġsha": 1211,
      "iku": 1212,
      "Ġby": 1213,
      "Ġáī¢": 1214,
      "ĠáįĪ": 1215,
      "ĠáĬ¥áĪµáĬ¨": 1216,
      "rit": 1217,
      "Ġch": 1218,
      "ĠMar": 1219,
      "y,": 1220,
      "ont": 1221,
      "Ġad": 1222,
      "ene": 1223,
      "áĪĪáĪĿ": 1224,
      "fariki": 1225,
      "ĠáĬķáĮī": 1226,
      "ĠáīłáĬĭáĪĭ": 1227,
      "ĠÆĻasar": 1228,
      "Ġvya": 1229,
      "Ġmi": 1230,
      "Ġlá»į": 1231,
      "áĪ¥áīµ": 1232,
      "áį»áį": 1233,
      "che": 1234,
      "ĠáĭŃáĪħ": 1235,
      "Ġ17": 1236,
      "ces": 1237,
      "Ġfa": 1238,
      "rÃ¹n": 1239,
      "ungi": 1240,
      "Ġmata": 1241,
      "ĠáĭĺáĪĺáĬķ": 1242,
      "o,": 1243,
      "áĪ¨áĪµ": 1244,
      "gbÃ©": 1245,
      "ard": 1246,
      "áĬķáĪĿ": 1247,
      "ĠerÃ©": 1248,
      "ĠCh": 1249,
      "uru": 1250,
      "eb": 1251,
      "kati": 1252,
      "ĠwÃł": 1253,
      "ÃĮ": 1254,
      "huga": 1255,
      "isa": 1256,
      "ĠBa": 1257,
      "Ġ7": 1258,
      "ĠáĬŃáįį": 1259,
      "áĪ®áī½": 1260,
      "oh": 1261,
      "ame": 1262,
      "Ġáī°áĪ¨áīµáĬĵ": 1263,
      "áĪķ": 1264,
      "áĮ«": 1265,
      "Ġkw": 1266,
      "ĠáĬ¨áī°áĪĽ": 1267,
      "ĠpÃ©": 1268,
      "usi": 1269,
      "Ta": 1270,
      "oli": 1271,
      "Ġvi": 1272,
      "yÃ¬n": 1273,
      "anaz": 1274,
      "Ġex": 1275,
      "kum": 1276,
      "Ġiláº¹ÌĢ": 1277,
      "ura": 1278,
      "ĠTuzo": 1279,
      "ishi": 1280,
      "ht": 1281,
      "Ġ,": 1282,
      "ida": 1283,
      "áĮĪáĬ": 1284,
      "Ġ194": 1285,
      "áĭİ": 1286,
      "anazarta": 1287,
      "Ġjihar": 1288,
      "kuu": 1289,
      "rÃ²": 1290,
      "Ġ8": 1291,
      "wÃ²": 1292,
      "ĠAfrika": 1293,
      "ĠáĭĵáĪĺ": 1294,
      "tÃł": 1295,
      "tÃ©": 1296,
      "Ġáĭĵ.áĪĿ.": 1297,
      "ĠSa": 1298,
      "ife": 1299,
      "ĠKar": 1300,
      "..": 1301,
      "ĠÃ¨dÃ¨": 1302,
      "gbÃ¨": 1303,
      "wam": 1304,
      "ĠMarekani": 1305,
      "ĠorÃŃláº¹ÌĢ-Ã¨dÃ¨": 1306,
      "Ġloka": 1307,
      "áĪŃáĭ«": 1308,
      "nin": 1309,
      "lim": 1310,
      "rÃŃkÃł": 1311,
      "ĠáĪĪáĪĺ": 1312,
      "uniya": 1313,
      "áįĵ": 1314,
      "Ġáĭķ": 1315,
      "áĮĢáĪĺ": 1316,
      "can": 1317,
      "ĠkÃŃ": 1318,
      "ern": 1319,
      "Ġhii": 1320,
      "ast": 1321,
      "Ġamba": 1322,
      "áī°áĬĽ": 1323,
      "ĠWaliozaliwa": 1324,
      "lá»į": 1325,
      "Ġkasance": 1326,
      "16": 1327,
      "all": 1328,
      "ĠbÃ¡": 1329,
      "000": 1330,
      "anu": 1331,
      "ry": 1332,
      "áĭ´": 1333,
      "ĠYor": 1334,
      "kana": 1335,
      "olo": 1336,
      "15": 1337,
      "gbÃ¡": 1338,
      "ff": 1339,
      "e.": 1340,
      "ĠolÃ³": 1341,
      "ugha": 1342,
      "ence": 1343,
      "ĠWaliofariki": 1344,
      "áĮįáĪŀ": 1345,
      "ĠSo": 1346,
      "Ġdans": 1347,
      "NÃŃ": 1348,
      "Ġst": 1349,
      "husu": 1350,
      "ĠAmeri": 1351,
      "yáº¹": 1352,
      "ĠmÃ¡": 1353,
      "áį¦": 1354,
      "tá»įÌģ": 1355,
      "on,": 1356,
      "Ġtsa": 1357,
      "Ġáĭ«áĪį": 1358,
      "tÃ¬": 1359,
      "Ġwith": 1360,
      "áĭµáĪŃ": 1361,
      "ÃĢwá»įn": 1362,
      "ction": 1363,
      "Ġoá¹£Ã¹": 1364,
      "ĠyÃ¬ÃŃ": 1365,
      "ĠÃĴ": 1366,
      "ĠáĮĢ": 1367,
      "ĠkÃ³": 1368,
      "Ġdan": 1369,
      "áĪ¶": 1370,
      "ĠáĬĲáĮĪ": 1371,
      "hun": 1372,
      "Ġpia": 1373,
      "Ġáįį": 1374,
      "up": 1375,
      "Ġune": 1376,
      "ĠáĬ¢": 1377,
      "Ġhe": 1378,
      "lÃ³": 1379,
      "ĠRa": 1380,
      "áī³áĭĪ": 1381,
      "17": 1382,
      "yÃ¨": 1383,
      "Ġkam": 1384,
      "Baada": 1385,
      "Ġáīģ": 1386,
      "Ġfarko": 1387,
      "o.": 1388,
      "usa": 1389,
      "le-ede": 1390,
      "shindi": 1391,
      "nÃ¬yÃłn": 1392,
      "áīµáĬķ": 1393,
      "ĠáĪķ": 1394,
      "ĠHa": 1395,
      "ĠrÃ©": 1396,
      "Ġ15": 1397,
      "ongo": 1398,
      "ĠáĮĭáĪŃ": 1399,
      "ĠáīłáĪĽ": 1400,
      "Ġts": 1401,
      "Ġtun": 1402,
      "Ġfrom": 1403,
      "Ġkáº¹": 1404,
      "Ġ(200": 1405,
      "emba": 1406,
      "bwa": 1407,
      "ia,": 1408,
      "Ġwani": 1409,
      "0,": 1410,
      "Ã©e": 1411,
      "Ġju": 1412,
      "Ġ16": 1413,
      "áĬŃáĪįáīł": 1414,
      "Ġáį¡": 1415,
      "ok": 1416,
      "ens": 1417,
      "º¸": 1418,
      "mar": 1419,
      "ember": 1420,
      "áĪīáį¢": 1421,
      "ĠUni": 1422,
      "kÃ²": 1423,
      "sÃ¬": 1424,
      "áīĤ": 1425,
      "ĠtÃºn": 1426,
      "ĠáĭĵáĬŃáĪįáīł": 1427,
      "ĠNiger": 1428,
      "áĪİáī½": 1429,
      "ká»įÌĢ": 1430,
      "Ġil": 1431,
      "cc": 1432,
      "áĮ¡": 1433,
      "áĭ°áĪ¨": 1434,
      "ĠÃ¨nÃ¬yÃłn": 1435,
      "mp": 1436,
      "Ġninu": 1437,
      "u,": 1438,
      "ux": 1439,
      "her": 1440,
      "ons": 1441,
      "ĠáĪļ": 1442,
      "ĠManazarta": 1443,
      "¦áĪŃ": 1444,
      "Ġwon": 1445,
      "ĠEn": 1446,
      "Ġáĭ°áĮįáĪŀ": 1447,
      "Ġranar": 1448,
      "omin": 1449,
      "Ġtana": 1450,
      "Ġita": 1451,
      "ola": 1452,
      "Ġare": 1453,
      "ĠAs": 1454,
      "ĠáĬłáĬķáĭµ": 1455,
      "âĢĵ": 1456,
      "Ġile": 1457,
      "anan": 1458,
      "ĠLa": 1459,
      "áĭ°áĪŃ": 1460,
      "ational": 1461,
      "Ġ=": 1462,
      "land": 1463,
      "ĠáĬłáĪį": 1464,
      "ĠáĭĵáĬŃáĪįáīł.": 1465,
      "áī°áĪ¨": 1466,
      "dÃŃ": 1467,
      "dÃ©": 1468,
      "cho": 1469,
      "jin": 1470,
      "yya": 1471,
      "áĪĺáĬĲ": 1472,
      "Ġhaife": 1473,
      "llon": 1474,
      "Ġibi": 1475,
      "áĮĪáĬĿ": 1476,
      "14": 1477,
      "áĪŃáīµ": 1478,
      "ĠkÃ²": 1479,
      "gin": 1480,
      "Ġsuna": 1481,
      "Ġmshindi": 1482,
      "rÃ¨": 1483,
      "Ġ193": 1484,
      "1,": 1485,
      "áĬķáīµ": 1486,
      "dÃ¡": 1487,
      "kio": 1488,
      "ble": 1489,
      "Ġáĭ¨áĬ¢áīµáĭ®áĮµáĭ«": 1490,
      "ĠáĪĺáĬķáĮįáĪ¥áīµ": 1491,
      "áĬķáĪµ": 1492,
      "áĪĶ": 1493,
      "áº¹Ìģg": 1494,
      "Ġ(20": 1495,
      "10": 1496,
      "ass": 1497,
      "ungiyar": 1498,
      "jÃ¡": 1499,
      "ito": 1500,
      "Ġlokacin": 1501,
      "Ġbu": 1502,
      "ĠáĪĪáĪĽ": 1503,
      "tÃ²": 1504,
      "Ġbayan": 1505,
      "eng": 1506,
      "es.": 1507,
      "wÃ¡": 1508,
      "âĢĿ": 1509,
      "cha": 1510,
      "Ġqui": 1511,
      "ande": 1512,
      "áīłáĪ©": 1513,
      "Ġmasu": 1514,
      "Ġgbo": 1515,
      "ĠÃ¬gbÃł": 1516,
      "áĬķáīĭ": 1517,
      "tern": 1518,
      "istor": 1519,
      "Ġorile-ede": 1520,
      "era": 1521,
      "áī½áĬķ": 1522,
      "áĬª": 1523,
      "ward": 1524,
      "ung": 1525,
      "Ġbiyu": 1526,
      "Ġfil": 1527,
      "ell": 1528,
      "áĪĭáĪįáį¢": 1529,
      "ĠÃ¡": 1530,
      "ĠáĪĨáĬĲ": 1531,
      "Ġáĭ¨áĬĲ": 1532,
      "áĬĵáīµ": 1533,
      "min": 1534,
      "Ġhan": 1535,
      "er,": 1536,
      "ij": 1537,
      "ĠRo": 1538,
      "Ġkasar": 1539,
      "ansa": 1540,
      "In": 1541,
      "áº¹ÌĢr": 1542,
      "ĠáĪįáĮħ": 1543,
      "i,": 1544,
      "idi": 1545,
      "kon": 1546,
      "ĠDa": 1547,
      "ĠTanz": 1548,
      "kala": 1549,
      "Ġ/": 1550,
      "ĠAb": 1551,
      "dÃ¬": 1552,
      "á»įÌĢn": 1553,
      "áº¹Ìģgáº¹Ìģ": 1554,
      "atukio": 1555,
      "tÃŃ": 1556,
      "une": 1557,
      "shi": 1558,
      "ĠÃ²á¹£Ã¨": 1559,
      "Ġfara": 1560,
      "ĠdÃ¡": 1561,
      "2,": 1562,
      "ĠáĭµáĪ¨áĪµ": 1563,
      "ĠPapa": 1564,
      "Ġpour": 1565,
      "ĠáĭĿ": 1566,
      "Ġzama": 1567,
      "ĠMatukio": 1568,
      "áĭļáĭ«": 1569,
      "ĠMu": 1570,
      "Ġav": 1571,
      "pÃ©": 1572,
      "áįī": 1573,
      "Ġthat": 1574,
      "Ġ10": 1575,
      "anta": 1576,
      "Ġáĭ«áĪįáī°": 1577,
      "ĠIs": 1578,
      "1.": 1579,
      "ph": 1580,
      "Ġbab": 1581,
      "fe": 1582,
      "ĠmÃ©": 1583,
      "ĠâĢľ": 1584,
      "Ġbirnin": 1585,
      "Ġalikuwa": 1586,
      "Ġpáº¹ÌĢ": 1587,
      "áĭ°áī¥": 1588,
      "Ġsur": 1589,
      "oro": 1590,
      "int": 1591,
      "Ġjáº¹": 1592,
      "áī°áĪ¨áĮİ": 1593,
      "elle": 1594,
      "versity": 1595,
      "ld": 1596,
      "Ġny": 1597,
      "ote": 1598,
      "din": 1599,
      "ĠáĪħ": 1600,
      "áĮĬ": 1601,
      "ise": 1602,
      "ĠáĬ¤": 1603,
      "áī£áĪį": 1604,
      "jer": 1605,
      "Ġáĭ¨áĬ¥": 1606,
      "Ġiya": 1607,
      "Ġáīĭ": 1608,
      "ĠáĪµáĪĿ": 1609,
      "hugaban": 1610,
      "ĠáĪĮ": 1611,
      "laya": 1612,
      "áĪ£": 1613,
      "áĪĨáĬĳ": 1614,
      "áĪ¸": 1615,
      "elu": 1616,
      "ĠÃĮpÃŃnláº¹ÌĢ": 1617,
      "ĠáĬłáĮĪ": 1618,
      "ĠáīłáĬ¥": 1619,
      "ĠáĪĢ": 1620,
      "ĠTa": 1621,
      "ĠNew": 1622,
      "Ġhadi": 1623,
      "utar": 1624,
      "²áį±": 1625,
      "12": 1626,
      "ereza": 1627,
      "áī¸áĭįáį¢": 1628,
      "13": 1629,
      "ĠVi": 1630,
      "Ġyawan": 1631,
      "áĬķáĭ«": 1632,
      "ĠáĪĽáĪĪáīµ": 1633,
      "ĠMas": 1634,
      "ĠKu": 1635,
      "Ġiá¹£áº¹Ìģ": 1636,
      "ĠAg": 1637,
      "ingereza": 1638,
      "yÃł": 1639,
      "irka": 1640,
      "Ġmji": 1641,
      "já»įba": 1642,
      "áĪĬáĭĿ": 1643,
      "dan": 1644,
      "ungu": 1645,
      "ĠGu": 1646,
      "áĪłáĪ": 1647,
      "ĠáĪĥ": 1648,
      "áī¸áĭįáĬķ": 1649,
      "Ġ14": 1650,
      "ingi": 1651,
      "Ġkwenye": 1652,
      "wá»įÌģ": 1653,
      "ĠÆĻwa": 1654,
      "u.": 1655,
      "ĠáĬķáĮīáĪ¥": 1656,
      "áĬ¨áī°": 1657,
      "Ġme": 1658,
      "Ġgáº¹Ìģgáº¹Ìģ": 1659,
      "iv": 1660,
      "áī±áĬķ": 1661,
      "uth": 1662,
      "jen": 1663,
      "áĪµáī°": 1664,
      "jÃł": 1665,
      "oc": 1666,
      "umi": 1667,
      "ins": 1668,
      "áĭįáĭ«áĬķ": 1669,
      "ite": 1670,
      "tá»įÌģka": 1671,
      "áįķ": 1672,
      "Ġus": 1673,
      "one": 1674,
      "ya,": 1675,
      "áī°áĪ¨áĮİáĪĺ": 1676,
      "ĠNijeriya": 1677,
      "Ġáĭ¨áĪļáĭ«": 1678,
      "ill": 1679,
      "\".": 1680,
      "ĠKristo": 1681,
      "áĪĢ": 1682,
      "Ġman": 1683,
      "alla": 1684,
      "ren": 1685,
      "ĠUniversity": 1686,
      "antar": 1687,
      "ĠtÃł": 1688,
      "áī£áī¢": 1689,
      "ĠÃĪ": 1690,
      "áº¹Ìģr": 1691,
      "ĠáĬłáĪĺ": 1692,
      "Ġpáº¹ÌĢlÃº": 1693,
      "Ġ(A": 1694,
      "ect": 1695,
      "Ġáī³áĪªáĬŃ": 1696,
      "Ġlugha": 1697,
      "ous": 1698,
      "ona": 1699,
      "Ġlá»įÌģ": 1700,
      "ult": 1701,
      "áĬķáĮ": 1702,
      "gbáº¹Ìģ": 1703,
      "ĠáīłáĬłáĪ": 1704,
      "Ġáĭ«áĪįáī°áī°áĪ¨áĮİáĪĺ": 1705,
      "²áį±áį»áį": 1706,
      "wa,": 1707,
      "ĠKa": 1708,
      "him": 1709,
      "á¹£e": 1710,
      "5,": 1711,
      "ua": 1712,
      "áĪĦ": 1713,
      "ĠCom": 1714,
      "0.": 1715,
      "Ã³n": 1716,
      "ĠáĮī": 1717,
      "ĠáĪ°áĭį": 1718,
      "atar": 1719,
      "ĠwÃ¡": 1720,
      "alin": 1721,
      "Ġhis": 1722,
      "ze": 1723,
      "ĠlÃ³rÃŃ": 1724,
      "ib": 1725,
      "áĭĽáīµ": 1726,
      "ĠáīĭáĬķáīĭ": 1727,
      "Ġaiki": 1728,
      "Ġwana": 1729,
      "Makala": 1730,
      "Ġkasa": 1731,
      "Ġab": 1732,
      "Ġinahusu": 1733,
      "han": 1734,
      "wamn": 1735,
      "áº¹ÌģrÃŃkÃł": 1736,
      "áĪŀáī½": 1737,
      "anin": 1738,
      "áº¹ÌĢráº¹ÌĢ": 1739,
      "áĮ¥áĪŃ": 1740,
      "1-": 1741,
      "ĠMe": 1742,
      "ĠTanzania": 1743,
      "kazi": 1744,
      "gÃºn": 1745,
      "áĪ«áīµ": 1746,
      "Ġana": 1747,
      "Ġáĭ³": 1748,
      "ors": 1749,
      "Le": 1750,
      "ars": 1751,
      "Ġmili": 1752,
      "Ġáį£": 1753,
      "ĠAmáº¹ÌģrÃŃkÃł": 1754,
      "áī£áīµ": 1755,
      "emp": 1756,
      "áī¥áĪŃ": 1757,
      "Ġcomp": 1758,
      "amba": 1759,
      "ĠáĬłáĬ«": 1760,
      "áĪł": 1761,
      "lic": 1762,
      "tawa": 1763,
      "áĪįáĬŃ": 1764,
      "sar": 1765,
      "3,": 1766,
      "ĠJam": 1767,
      "wÃ³": 1768,
      "6,": 1769,
      "uti": 1770,
      "Ġáĭ¨áĪĽ": 1771,
      "for": 1772,
      "vel": 1773,
      "ya.": 1774,
      "/áĪĿ": 1775,
      "áĭĭáĪįáį¢": 1776,
      "Ġáī¥áĭĻ": 1777,
      "láº¹Ìģ": 1778,
      "2.": 1779,
      "hemu": 1780,
      "ĠMus": 1781,
      "ráº¹": 1782,
      "Ġinda": 1783,
      "Ġque": 1784,
      "Ġup": 1785,
      "rÃłn": 1786,
      "kali": 1787,
      "áĪĭáīµ": 1788,
      "ĠáĭŃáĮĪ": 1789,
      "ĠRe": 1790,
      "áĬ¨áĪį": 1791,
      "ĠAfirka": 1792,
      "7,": 1793,
      "áĪĿáĪ®": 1794,
      "lá»įÌģ": 1795,
      "ĠKristo).": 1796,
      "oun": 1797,
      "uwan": 1798,
      "Ya": 1799,
      "-áº¹ÌĢ": 1800,
      "Ġ(Baada": 1801,
      "6.": 1802,
      "Ġáĭĵ/áĪĿ": 1803,
      "ĠAp": 1804,
      "Ġráº¹": 1805,
      "bÃł": 1806,
      "ĠáĪŀ": 1807,
      "Ġkafa": 1808,
      "áĪĭáĪį": 1809,
      "ĠmÃ¡a": 1810,
      "ĠÃ²á¹£Ã¨rÃ©": 1811,
      "ĠáĮł": 1812,
      "8,": 1813,
      "bali": 1814,
      "áĪ³áĭŃ": 1815,
      "kÃ¬": 1816,
      "illi": 1817,
      "ĠÆĻa": 1818,
      "ĠáĪĻ": 1819,
      "ese": 1820,
      "wi": 1821,
      "Ġ192": 1822,
      "áī³áĭĬ": 1823,
      "ĠII": 1824,
      "ĠkÃ©": 1825,
      "7.": 1826,
      "ĠyÃŃ": 1827,
      "tá»įÌģkasÃŃ": 1828,
      "ĠtÃłbÃŃ": 1829,
      "att": 1830,
      "ash": 1831,
      "Ġgu": 1832,
      "ohn": 1833,
      "ĠáĬłáĪµáī°": 1834,
      "urs": 1835,
      "Ġmar": 1836,
      "áĪĿáĪħ": 1837,
      "Ġpa": 1838,
      "á¹£áº¹": 1839,
      "ĠalÃ¡": 1840,
      "ĠCol": 1841,
      "áĮĤ": 1842,
      "ĠáĮ½": 1843,
      "Ġap": 1844,
      "ka.": 1845,
      "4,": 1846,
      "ĠÃ¨yÃŃ": 1847,
      "ĠÆĻwallon": 1848,
      "ĠáĮİ": 1849,
      "Ġdo": 1850,
      "ations": 1851,
      "5.": 1852,
      "umani": 1853,
      "ľáĪªáĬ«": 1854,
      "áĪĺáĪŃ": 1855,
      "tum": 1856,
      "ĠáĪ³áĭŃ": 1857,
      "Ġmag": 1858,
      "lÃ¹": 1859,
      "ome": 1860,
      "ue": 1861,
      "Ġwata": 1862,
      "ĠáĬ¥áĬķáĭ³": 1863,
      "kini": 1864,
      "Ġkim": 1865,
      "Ġkwan": 1866,
      "áĬķáĭ³": 1867,
      "ĠáĭĭáĬĵ": 1868,
      "ĠáĬ®": 1869,
      "y.": 1870,
      "áĮĨ": 1871,
      "3.": 1872,
      "ĠáīłáĪļ": 1873,
      "áĭ²áĪµ": 1874,
      "anci": 1875,
      "rá»įÌĢ": 1876,
      "4.": 1877,
      "Ġ;": 1878,
      "Ġká»į": 1879,
      "Ġou": 1880,
      "ĠonÃŃ": 1881,
      ".áĬł": 1882,
      "amoja": 1883,
      "ĠáĪĺáĬķ": 1884,
      "áĮįáĪŃ": 1885,
      "sion": 1886,
      "Ġduniya": 1887,
      "Ġohun": 1888,
      "ĠáĪĺáĪµ": 1889,
      "iko": 1890,
      "fal": 1891,
      "áī·": 1892,
      "Ġdake": 1893,
      "ron": 1894,
      "Ġson": 1895,
      "isiwa": 1896,
      "ille": 1897,
      "enti": 1898,
      "jerumani": 1899,
      "ost": 1900,
      "Ġ12": 1901,
      "áĮłáĪŃ": 1902,
      "an,": 1903,
      "va": 1904,
      "Ġáī¤áī°": 1905,
      "ima": 1906,
      "ĠBen": 1907,
      "ibi": 1908,
      "Ġáį¢": 1909,
      "uli": 1910,
      "vyo": 1911,
      "áĭĿáī¥": 1912,
      "Ġtele": 1913,
      "ĠMo": 1914,
      "ifa": 1915,
      "Éĵ": 1916,
      "ĠOk": 1917,
      "Ã¨re": 1918,
      "lin": 1919,
      "engi": 1920,
      "áĪĭáĭŃ": 1921,
      "lÃł": 1922,
      "áĮĪáĬĺ": 1923,
      "8.": 1924,
      "ĠÆ": 1925,
      "Ġuli": 1926,
      "Ġcewa": 1927,
      "'ar": 1928,
      "ĠolÃ¹": 1929,
      "Ġmul": 1930,
      "ĠJihar": 1931,
      "Ġomo": 1932,
      "à¤": 1933,
      "ated": 1934,
      "áįĸ": 1935,
      "Ġ(an": 1936,
      "yen": 1937,
      "atun": 1938,
      "Ġsan": 1939,
      "katifu": 1940,
      "Ġake": 1941,
      "ka,": 1942,
      "Ġbabban": 1943,
      "ĠBK": 1944,
      "ĠáĪģáĪī": 1945,
      "Ġzam": 1946,
      "Ġwannan": 1947,
      "Ġplus": 1948,
      "Ġáĭ¨áĪĨ": 1949,
      "Ġmwan": 1950,
      "ĠÂ»": 1951,
      "Ġwake": 1952,
      "ĠFar": 1953,
      "ena": 1954,
      "áĭī": 1955,
      "Ġkus": 1956,
      "ĠjÃ¹": 1957,
      "Ġit": 1958,
      "Ġwatu": 1959,
      "Ġgbogbo": 1960,
      "Ġcomm": 1961,
      "Ġmus": 1962,
      "iaka": 1963,
      "Ġyar": 1964,
      "dar": 1965,
      "Ġáº¸": 1966,
      "mÃ¹": 1967,
      "ĠlÃ¨": 1968,
      "eo": 1969,
      "ĠáįĬ": 1970,
      "ora": 1971,
      "ept": 1972,
      "1)": 1973,
      "áĬŀ": 1974,
      "--": 1975,
      "pi": 1976,
      "uwar": 1977,
      "ited": 1978,
      "ques": 1979,
      "ÃłÃ¡": 1980,
      "ziki": 1981,
      "yyar": 1982,
      "rÃº": 1983,
      "ĠgbÃ©": 1984,
      "Ġhukum": 1985,
      "ĠKarne": 1986,
      "ĠáĬłáĪĿ": 1987,
      "áĮĢáĪĺáĪªáĭ«": 1988,
      "Ġáĭ¨áĪĿ": 1989,
      "lÃ¨": 1990,
      "ats": 1991,
      "Ġmáº¹Ìģ": 1992,
      "ashin": 1993,
      "ĠnÃŃgbÃł": 1994,
      "5)": 1995,
      "áĪŃáĪµáī²": 1996,
      "Ġyankin": 1997,
      "mÃŃ": 1998,
      "Ãª": 1999,
      "áĪĨáĬĲ": 2000,
      "Ġjama": 2001,
      "ta,": 2002,
      "Ġwad": 2003,
      "Ġsehemu": 2004,
      "ĠáĪĺáĭ°áī¥": 2005,
      "ĠUn": 2006,
      "ĠIta": 2007,
      "áĪ«áĭĬ": 2008,
      "ess": 2009,
      "i.": 2010,
      "Ġro": 2011,
      "ĠØ": 2012,
      "der": 2013,
      "ĠáĪ°áĭİáī½": 2014,
      "amb": 2015,
      "ende": 2016,
      "eshi": 2017,
      "ĠIngi": 2018,
      "Ġmkuu": 2019,
      "cal": 2020,
      "jáº¹Ìģ": 2021,
      "itÃ©": 2022,
      "á»Į": 2023,
      "wa.": 2024,
      "áī½áį¢": 2025,
      "ose": 2026,
      "ĠMata": 2027,
      "kÃ¹n": 2028,
      "kÃłn": 2029,
      "iz": 2030,
      "Ġáīłáĭĺ": 2031,
      "á¹£Ãł": 2032,
      "Ġlakini": 2033,
      "iss": 2034,
      "ĠÆĻafa": 2035,
      "in,": 2036,
      "Ġ13": 2037,
      "jáº¹": 2038,
      "Ġte": 2039,
      "Ġwhi": 2040,
      "Ġkamar": 2041,
      "Ġá»ĮÌĢ": 2042,
      "Ġáī¦": 2043,
      "Ġpamoja": 2044,
      "ĠJanu": 2045,
      "ĠáĬĲáĮĪáĪŃ": 2046,
      "ĠPro": 2047,
      "áįİ": 2048,
      "hine": 2049,
      "-Ã¬": 2050,
      "fo": 2051,
      "Ġá»įdun": 2052,
      "Ġsá»į": 2053,
      "mba": 2054,
      "Ġcont": 2055,
      "Ġorin": 2056,
      "Ġnom": 2057,
      "Ġmiaka": 2058,
      "áĬķáĮįáĪĬáĭĿ": 2059,
      "Ni": 2060,
      "Ġsamu": 2061,
      "yy": 2062,
      "3)": 2063,
      "ĠáĭĵáĪĿ": 2064,
      "áī°áĭį": 2065,
      "Ġáī°áĪĺ": 2066,
      "áī¦áī½": 2067,
      "rans": 2068,
      "ĠBo": 2069,
      "orn": 2070,
      "áĪĿáį¢": 2071,
      "ĠDe": 2072,
      "falme": 2073,
      "bun": 2074,
      "fuata": 2075,
      "Ġnje": 2076,
      "áĮ¸": 2077,
      "chool": 2078,
      "Ġac": 2079,
      "ĠJami": 2080,
      "ĠfÃŃ": 2081,
      "ĠNaij": 2082,
      "Ġsiku": 2083,
      "ĠáĭĵáĪĺáīµ": 2084,
      "Ã¹bÃ¡": 2085,
      "Ã¬bÃŃ": 2086,
      "4)": 2087,
      "ĠQ": 2088,
      "Ġmaj": 2089,
      "áį¥": 2090,
      "kea": 2091,
      "fani": 2092,
      "áĮłáīĢ": 2093,
      "Ã¬nrin": 2094,
      "ĠNigeria": 2095,
      "ĠNaijir": 2096,
      "ven": 2097,
      "áĪĽáĪª": 2098,
      "lan": 2099,
      "Ġ(S": 2100,
      "ĠáīĨ": 2101,
      "Ġ190": 2102,
      "ĠRi": 2103,
      "Ġáĭ¨áĪļáĮĪáĬĿ": 2104,
      "ĠIngila": 2105,
      "Ġáº¹ÌĢká»įÌģ": 2106,
      "6)": 2107,
      "tÃłn": 2108,
      "Ġdaya": 2109,
      "Ġgir": 2110,
      "ĠÃłká»įÌģ": 2111,
      "Ġyin": 2112,
      "ato": 2113,
      "anen": 2114,
      "ĠAust": 2115,
      "Ġwasu": 2116,
      "kwai": 2117,
      "Ġsai": 2118,
      "9,": 2119,
      "Ġru": 2120,
      "áĪ¨áĭį": 2121,
      "Ġasi": 2122,
      "Ġala": 2123,
      "Ġri": 2124,
      "anga": 2125,
      "annin": 2126,
      "Ġolu": 2127,
      "joba": 2128,
      "Ġmutane": 2129,
      "mÃ¬": 2130,
      "Ġaf": 2131,
      "Ġtra": 2132,
      "ie": 2133,
      "tor": 2134,
      "istoria": 2135,
      "rÃ¬": 2136,
      "Ġsam": 2137,
      "áĮĵ": 2138,
      "co": 2139,
      "Ġja": 2140,
      "7)": 2141,
      "Ġib": 2142,
      "per": 2143,
      "áĭŀ": 2144,
      "pinle": 2145,
      "ĠáĬª": 2146,
      "9.": 2147,
      "Ġsana": 2148,
      "ĠNov": 2149,
      "áįĬáīµ": 2150,
      "ĠJohn": 2151,
      "áĮįáī¥": 2152,
      "esa": 2153,
      "Ġgab": 2154,
      "Ġob": 2155,
      "Da": 2156,
      "Ġkwanza": 2157,
      "hana": 2158,
      "Ġes": 2159,
      "ĠáĪĿáĬŃ": 2160,
      "áĬ¢": 2161,
      "áĭ±áĪµ": 2162,
      "ĠAward": 2163,
      "ĠáĬ¥áĭ¨": 2164,
      "Ġbaada": 2165,
      "ope": 2166,
      "ike": 2167,
      "Ġzina": 2168,
      "áĪģáĪĿ": 2169,
      ".áĬ¤": 2170,
      "áĪĭáĬķáĭµ": 2171,
      "áĭ³áĬķ": 2172,
      "áĬĸáī½": 2173,
      "zini": 2174,
      "pÃ²": 2175,
      "áįĴ": 2176,
      "ÙĦ": 2177,
      "ĠwÃŃ": 2178,
      "ute": 2179,
      "ĠRD": 2180,
      "kÃ¨": 2181,
      "ĠSept": 2182,
      "ww": 2183,
      "-19": 2184,
      "Ġum": 2185,
      "ty": 2186,
      "2)": 2187,
      "ebru": 2188,
      "Ġnot": 2189,
      "Ġdin": 2190,
      "ĠáĪĭ": 2191,
      "ĠnÃŃpa": 2192,
      "andishi": 2193,
      "Ġáī¤áīµ": 2194,
      "uba": 2195,
      "ĠSe": 2196,
      "áĮĮ": 2197,
      "Ġsont": 2198,
      "Ġ(C": 2199,
      "Ġshugaban": 2200,
      "áĬ¥áĬķ": 2201,
      "cial": 2202,
      "áĮ¨áĪ¨": 2203,
      "Ġáīĥ": 2204,
      "ĠRoma": 2205,
      "enn": 2206,
      "ĠYorÃ¹bÃ¡": 2207,
      "nÃŃ": 2208,
      "ĠÃłrÃ¹n": 2209,
      "Ġgarin": 2210,
      "tawala": 2211,
      "ĠpÃ¨": 2212,
      "Ġpr": 2213,
      "áī³áī¸áĭį": 2214,
      "áĬłáī¥": 2215,
      "La": 2216,
      "Ġavec": 2217,
      "son": 2218,
      "kÃº": 2219,
      "áĭŃáĪħ": 2220,
      "Ġá»įjá»įÌģÃ¬bÃŃ": 2221,
      "Ìģ": 2222,
      "ĠFr": 2223,
      "Ã©r": 2224,
      "áĪ¨áĬķ": 2225,
      "ĠáĪĺáĬ«": 2226,
      "Ġzili": 2227,
      "wá»įÌĢ": 2228,
      "áº¹ÌģyÃ¬n": 2229,
      "ĠrÃŃ": 2230,
      "Ġaikin": 2231,
      "ĠAbu": 2232,
      "Ġduk": 2233,
      "com": 2234,
      "Ġmakar": 2235,
      "áĮ¦": 2236,
      "áĪ¨áĮĥ": 2237,
      "ĠáĪĲ": 2238,
      "atin": 2239,
      "áīħáĪĿ": 2240,
      "ula": 2241,
      "eni": 2242,
      "ĠjÃ¡": 2243,
      "Ġ2019": 2244,
      "ĠAla": 2245,
      "ĠChi": 2246,
      "ĠáĬłáī¥": 2247,
      "Ġeneo": 2248,
      "Ġhasa": 2249,
      "chini": 2250,
      "ungo": 2251,
      "Ġfir": 2252,
      "ĠÉĹan": 2253,
      "ĠTh": 2254,
      "ĠNÃłÃ¬jÃŃrÃŃÃł.": 2255,
      "dha": 2256,
      "ram": 2257,
      "Ġodun": 2258,
      "ĠáĬ¨áĬł": 2259,
      "Ġbo": 2260,
      "áĪĪáĭ«": 2261,
      "ree": 2262,
      "áī°áĪŃ": 2263,
      "Ġáī°áīĢ": 2264,
      ".áĬł.": 2265,
      "áĪĿáĬĵ": 2266,
      "Ġmá»įÌģ": 2267,
      "ĠáĬĲáīłáĪ¨": 2268,
      "iá¹£áº¹Ìģ": 2269,
      "kazini": 2270,
      "Ġwakazi": 2271,
      "áĮĪáĭµ": 2272,
      "áīĨáĮ£": 2273,
      "ase": 2274,
      "ĠHar": 2275,
      "En": 2276,
      "Ġlangu": 2277,
      "ĠáĪĨáĬĸ": 2278,
      "yn": 2279,
      "Ġpo": 2280,
      "yoyin": 2281,
      "Ġgwamn": 2282,
      "áº¹Ìģáº¹ÌĢ": 2283,
      "áĪ°áĭį": 2284,
      "áĪĺáĬĵ": 2285,
      "ĠáĬłáĮĪáĪŃ": 2286,
      "ĠáīłáĪµ": 2287,
      "\",": 2288,
      "ogra": 2289,
      "Ġwengi": 2290,
      "hariki": 2291,
      "ĠáĬłáī£": 2292,
      "áĪ¨áĭ³": 2293,
      "áĪīáīµ": 2294,
      "sc": 2295,
      "gbÃ²": 2296,
      "ign": 2297,
      "ĠáīłáĬ¢áīµáĭ®áĮµáĭ«": 2298,
      "ĠbÃŃi": 2299,
      "ashi": 2300,
      "Ã§": 2301,
      "Ġkya": 2302,
      "Ġgaba": 2303,
      "ashe": 2304,
      "kÃ¡": 2305,
      "Ã©s": 2306,
      "áĬĲáĭļáĪħ": 2307,
      "áĭµáĬķ": 2308,
      "Al": 2309,
      "áĪĶáĪŃ": 2310,
      "hili": 2311,
      "Ġji": 2312,
      "áĪĺáĪµ": 2313,
      "áĪĽáĭĬ": 2314,
      "dÃŃn": 2315,
      "ĠáĬĵáī¸áĭįáį¢": 2316,
      "áĪ°áī¥": 2317,
      "ĠáĪ´": 2318,
      "mad": 2319,
      "ĠIb": 2320,
      "Ġáįķ": 2321,
      "uran": 2322,
      "Ġáº¹gbáº¹Ìģ": 2323,
      "áīª": 2324,
      "ĠmÃº": 2325,
      "ĠáĭĺáĬķáĭµ": 2326,
      "ĠÃ¬já»įba": 2327,
      "ĠGe": 2328,
      "ĠkÃº": 2329,
      "Ġilu": 2330,
      "Ġjina": 2331,
      "áīµáĬĵ": 2332,
      "ĠBab": 2333,
      "ĠTur": 2334,
      "gbá»įÌģn": 2335,
      "áįħ": 2336,
      "Ġmaha": 2337,
      "Ġáĭ¨áĪ°": 2338,
      "áĮĪáĬĻ": 2339,
      "ĠáĮ¨": 2340,
      "ress": 2341,
      "ĠÃ¨tÃ²": 2342,
      "orld": 2343,
      "Ġmafi": 2344,
      "Ġáī£áĪĪ": 2345,
      "is,": 2346,
      "ĠáĮĢáĪĿáĪ®": 2347,
      "ĠÃĵ": 2348,
      "Ġzaidi": 2349,
      "pen": 2350,
      "ĠPar": 2351,
      "le,": 2352,
      "ambo": 2353,
      "áĭ¥": 2354,
      "ĠáĪ«": 2355,
      "Ġkubwa": 2356,
      "ĠFebru": 2357,
      "9)": 2358,
      "áĮ½áĪĲ": 2359,
      "ĠGhana": 2360,
      "Ġnchini": 2361,
      "Ġáĭ«áĪĪ": 2362,
      "gar": 2363,
      "ĠayÃ©": 2364,
      "zaji": 2365,
      "tar": 2366,
      "Ùİ": 2367,
      "áĪŃáĪ±": 2368,
      "ĠAfrica": 2369,
      "uk": 2370,
      "Ġáįĵ": 2371,
      "ĠSchool": 2372,
      "Ġter": 2373,
      "a,": 2374,
      "ĠáĬ¢áīµáĭ®áĮµáĭ«": 2375,
      "Ġjama'a": 2376,
      "ken": 2377,
      "Ġsaba": 2378,
      "Ġwhich": 2379,
      "Ġ(M": 2380,
      "Ã©es": 2381,
      "Ġhai": 2382,
      "láº¹": 2383,
      "wÃł": 2384,
      "ikia": 2385,
      "ĠáĮ¦áĪŃ": 2386,
      "an.": 2387,
      "Ġshine": 2388,
      "huri": 2389,
      "Ġapp": 2390,
      "ishwa": 2391,
      "ĠáĮ¸": 2392,
      "áĭ¨áĪŃ": 2393,
      "Ġáĭ«áĪĪáĭį": 2394,
      "áī¡áī¥": 2395,
      "org": 2396,
      "8)": 2397,
      "Ġkm": 2398,
      "ton": 2399,
      "ĠâĢĺ": 2400,
      "Ġáī¥áī»": 2401,
      "itu": 2402,
      "tom": 2403,
      "ĠBe": 2404,
      "kanin": 2405,
      "ĠYa": 2406,
      "áĬķáĬķ": 2407,
      "áī£áĪĪ": 2408,
      "Â«": 2409,
      "Ġkungiyar": 2410,
      "ashen": 2411,
      "áĬ¤áĪį": 2412,
      "Ġáī°áĭĪ": 2413,
      "inc": 2414,
      "mÃ¬n": 2415,
      "ĠlÃ©": 2416,
      "áĪłáĪ¨": 2417,
      "áĪįáĮ£": 2418,
      "Ġray": 2419,
      "Ġ)": 2420,
      "Ġgud": 2421,
      "ĠTe": 2422,
      "Ġtara": 2423,
      "ĥáĭŃ": 2424,
      "ĠáĬ¨áįį": 2425,
      "ĠáĪĺáĪį": 2426,
      "Ġamfani": 2427,
      "ani.": 2428,
      "low": 2429,
      "olog": 2430,
      "Ġáĭ¨áĭĪ": 2431,
      "áĭĭáĪį": 2432,
      "ĠApri": 2433,
      "Ġ[": 2434,
      "Ġ'yan": 2435,
      "ĠOkto": 2436,
      "ĠkÃ©k": 2437,
      "a.": 2438,
      "anza": 2439,
      "ĠáĬłáĭį": 2440,
      "Ġiliyo": 2441,
      "ther": 2442,
      "áī³áĪįáį¢": 2443,
      "Ġkai": 2444,
      "áĪĭáī¸áĭį": 2445,
      "yá»į": 2446,
      "Ġele": 2447,
      "Ġgasar": 2448,
      "ĠprÃ©": 2449,
      "isp": 2450,
      "ĠáĬ¥.áĬ¤": 2451,
      "sÃłn": 2452,
      "Ġjir": 2453,
      "ĠWar": 2454,
      "Ġlili": 2455,
      "ĠáĬ¦": 2456,
      "Ġshiga": 2457,
      "ĠÃ¬pÃŃnláº¹ÌĢ": 2458,
      "ĠJa": 2459,
      "bre": 2460,
      "fer": 2461,
      "Ġfim": 2462,
      "lish": 2463,
      "ĠLag": 2464,
      "yyu": 2465,
      "Ġáī°áĬ¨": 2466,
      "ĠMuham": 2467,
      "wu": 2468,
      "Ġres": 2469,
      "ĠFran": 2470,
      "gn": 2471,
      "ĠkÃ©kerÃ©": 2472,
      "dÃł": 2473,
      "endele": 2474,
      "tp": 2475,
      "erin": 2476,
      "Ġtu": 2477,
      "áĭµáĪĿ": 2478,
      "Ġuku": 2479,
      "ĠÃ¬wÃ©": 2480,
      "dÃº": 2481,
      "Ġhali": 2482,
      "Ġkal": 2483,
      "áį²áį±áį»áį": 2484,
      "Ġmara": 2485,
      "gbÃ¨gbÃ¨": 2486,
      "alisar": 2487,
      "rÃ³": 2488,
      "áĬħ": 2489,
      "Mwaka": 2490,
      "Ġcin": 2491,
      "Ġsiya": 2492,
      "run": 2493,
      "ĠKen": 2494,
      "Ġjami": 2495,
      "áĪļáĭ«": 2496,
      "fun": 2497,
      "ĠáīģáĮ¥áĪŃ": 2498,
      "//": 2499,
      "vu": 2500,
      "Ġkab": 2501,
      "0)": 2502,
      "tain": 2503,
      "fic": 2504,
      "Ġtarehe": 2505,
      "ilaya": 2506,
      "uis": 2507,
      "gbegbe": 2508,
      "ĠAt": 2509,
      "ĠáĪ¥áĪŃ": 2510,
      "ĠáĪī": 2511,
      "Ç¹": 2512,
      "mÃ¡": 2513,
      "://": 2514,
      "ĠJap": 2515,
      "cy": 2516,
      "vent": 2517,
      "ĠlâĢĻ": 2518,
      "Ġhad": 2519,
      "Ġkir": 2520,
      "vid": 2521,
      "ĠHe": 2522,
      "Ġsannan": 2523,
      "pt": 2524,
      "Ġtele.": 2525,
      "Kati": 2526,
      "old": 2527,
      "ĠBar": 2528,
      "ulo": 2529,
      "cce": 2530,
      "ĠPe": 2531,
      "Ġáĭ¨áīĢ": 2532,
      "áĬĵáĪį": 2533,
      "Ġal'": 2534,
      "Ġáĭ¨áĪĨáĬĲ": 2535,
      "ĠOktoba": 2536,
      "-áº¹ÌĢká»įÌģ": 2537,
      "Ġform": 2538,
      "Ġáĭ®": 2539,
      "ĠáĬłáīł": 2540,
      "Ã³Ã²": 2541,
      "Ġco": 2542,
      "bili": 2543,
      "ĠAre": 2544,
      "Ġwakati": 2545,
      "ĠIntern": 2546,
      "áĪ¥áī³áīµ": 2547,
      "Ã¬dÃ¬": 2548,
      "ĠBir": 2549,
      "Ali": 2550,
      "Ġ(N": 2551,
      "áĪŃáĬŃ": 2552,
      "Ġkuto": 2553,
      "ĠáĭĪáĬķ": 2554,
      "ĠáĮ£": 2555,
      "ĠkÃ³pa": 2556,
      "oloni": 2557,
      "Il": 2558,
      "bert": 2559,
      "isho": 2560,
      "ĠNor": 2561,
      "11": 2562,
      "ĠáīłáĪĿ": 2563,
      "áī¢áĭ«": 2564,
      "Ġ&": 2565,
      "vo": 2566,
      "sti": 2567,
      "ates": 2568,
      "haribi": 2569,
      "ĠOn": 2570,
      "ugh": 2571,
      "áĬ¦": 2572,
      "rÃ¡": 2573,
      "tun": 2574,
      "itwa": 2575,
      "ikwa": 2576,
      "Ġáº¹láº¹Ìģ": 2577,
      "áĮ¨áĪ¨áĪ»": 2578,
      "lah": 2579,
      "ta.": 2580,
      "ĠKing": 2581,
      "Ġamma": 2582,
      "áĮłáĪ«": 2583,
      "ĠTi": 2584,
      "Ġshir": 2585,
      "áĮ¤": 2586,
      "Ġmaka": 2587,
      "ĠáĪľ": 2588,
      "ĠáīłáĭļáĪħ": 2589,
      "ĠáĭµáĪŃ": 2590,
      "jia": 2591,
      "ĠItalia": 2592,
      "áĪ³áīµ": 2593,
      "idan": 2594,
      "áĪľáĬķ": 2595,
      "Ġfo": 2596,
      "tÃ³": 2597,
      "asu": 2598,
      "á»įÌģÃ¬dÃ¬": 2599,
      "áº¹Ìģrá»įÌģÃ¬dÃ¬": 2600,
      "ĠBur": 2601,
      "k.": 2602,
      "Ġáī¡": 2603,
      "Ġhiyo": 2604,
      "ĠáĪĺáĬ«áĬ¨áĪį": 2605,
      "ĠÃ¡st": 2606,
      "esi": 2607,
      "ĠlÃ¡ra": 2608,
      "ĠÃ¡stáº¹Ìģrá»įÌģÃ¬dÃ¬": 2609,
      "ony": 2610,
      "zama": 2611,
      "ĠX": 2612,
      "ĠShe": 2613,
      "ĠáīłáĪĭáĭŃ": 2614,
      "hy": 2615,
      "ĠÃģ": 2616,
      "Ġper": 2617,
      "-A": 2618,
      "áĭİáī¹": 2619,
      "ĠáīłáĭĺáĪĺáĬĲ": 2620,
      "áĮįáĭļ": 2621,
      "ĠpÃł": 2622,
      "ĠAmur": 2623,
      "áĬķáĮī": 2624,
      "ĠáĬ¨áĪĺ": 2625,
      "rand": 2626,
      "enda": 2627,
      "ĠÉĹa": 2628,
      "gas": 2629,
      "bÃ¹n": 2630,
      "ĠNajeriya.": 2631,
      "pÃ¡": 2632,
      "áĬ³": 2633,
      "Ġ189": 2634,
      "dio": 2635,
      "ett": 2636,
      "ĠMut": 2637,
      "eral": 2638,
      "ĠáīłáĪ°": 2639,
      "Ġseri": 2640,
      "usini": 2641,
      "ĠDes": 2642,
      "Ã©n": 2643,
      "ingine": 2644,
      "Ġ(199": 2645,
      "Ġ(m": 2646,
      "eno": 2647,
      "ette": 2648,
      "áīħáĪŃ": 2649,
      "Ġkaratun": 2650,
      "Ġ2020": 2651,
      "ĠUjerumani": 2652,
      "ĠáĬŃáįįáĪĪ": 2653,
      "Ha": 2654,
      "áī¥áĪ¨": 2655,
      "áĪĽáĭŃ": 2656,
      "áĪħáĪį": 2657,
      "Ġipa": 2658,
      "entre": 2659,
      "form": 2660,
      "use": 2661,
      "jini": 2662,
      "erian": 2663,
      "Ġhanyar": 2664,
      "fáº¹Ìģ": 2665,
      "boda": 2666,
      "ĠKe": 2667,
      "ĠáĬłáĪŃ": 2668,
      "omo": 2669,
      "áĪĺáĪĪ": 2670,
      "ĠUingereza": 2671,
      "Wá»įÌģn": 2672,
      "sáº¹ÌĢ": 2673,
      "ĠÃĪkÃ³": 2674,
      "Ġhada": 2675,
      "áĪĿáĪħáĪŃáīµ": 2676,
      "ĠLagos": 2677,
      "wn": 2678,
      "ologi": 2679,
      "Ġne,": 2680,
      "zwa": 2681,
      "Ġáīł19": 2682,
      "ĠorÃº": 2683,
      "Ġshekaru": 2684,
      "ory": 2685,
      "urin": 2686,
      "Ġjuu": 2687,
      "áĭŃáĭĪ": 2688,
      "áįĥ": 2689,
      "Ġbuga": 2690,
      "áīĦ": 2691,
      "Ġbaya": 2692,
      "áĬķáĮįáĪĬáĭĿáĬĽ": 2693,
      "ys": 2694,
      "Ġabin": 2695,
      "áīµáį¢": 2696,
      "ĠKas": 2697,
      "ĠLi": 2698,
      "Ġwere": 2699,
      "Ġilikuwa": 2700,
      "Ġbáº¹ÌĢráº¹ÌĢ": 2701,
      "áĬķáĬĵ": 2702,
      "ĠKo": 2703,
      "imo": 2704,
      "ĠKam": 2705,
      "Ġtabi": 2706,
      "Sa": 2707,
      "ero": 2708,
      "Ġakan": 2709,
      "lex": 2710,
      "ĠáĬ¥áĬķáĭ²áĪģáĪĿ": 2711,
      "ks": 2712,
      "Ġsama": 2713,
      "omi": 2714,
      "en,": 2715,
      "Ġupande": 2716,
      "thi": 2717,
      "ĠCon": 2718,
      "ĠáĪ½": 2719,
      "áīµáį£": 2720,
      "áīĨáĮ£áĮłáĪŃ": 2721,
      "Ã©ri": 2722,
      "Ġne.": 2723,
      "He": 2724,
      "mma": 2725,
      "Ġwenye": 2726,
      "Ġáĭ¨áĮį": 2727,
      "áĪµáī³": 2728,
      "wani": 2729,
      "Kwa": 2730,
      "ĠKan": 2731,
      "Ġká»įÌģ": 2732,
      "Ġmoja": 2733,
      "fri": 2734,
      "kubwa": 2735,
      "Ġdig": 2736,
      "Ġáī¦áī³": 2737,
      "Ġpad": 2738,
      "áĮįáĭļáĬłáī¥": 2739,
      "tiv": 2740,
      "bia": 2741,
      "iro": 2742,
      "Ġmba": 2743,
      "ĠÃ¬dÃŃ": 2744,
      "joibi": 2745,
      "Wa": 2746,
      "áĮģ": 2747,
      "áĭįáį¢": 2748,
      "Ġyali": 2749,
      "ĠgbÃł": 2750,
      "kuma": 2751,
      "Ġwaki": 2752,
      "alo": 2753,
      "olu": 2754,
      "Ġcan": 2755,
      "lÃŃ": 2756,
      "ĠAli": 2757,
      "ĠKis": 2758,
      "Ġmaso": 2759,
      "rodha": 2760,
      "50": 2761,
      "áī¥áĪ«": 2762,
      "ular": 2763,
      "ople": 2764,
      "ĠjÃ¹lá»į": 2765,
      "Th": 2766,
      "ĠMin": 2767,
      "ĠKusini": 2768,
      "Ã´": 2769,
      "ĠHausa": 2770,
      "rÃ¨s": 2771,
      "áº¹ÌģtÃ¬": 2772,
      "ĠIpinle": 2773,
      "ĠCo": 2774,
      "ĠáĬ¥.áĬ¤.áĬł.": 2775,
      "30": 2776,
      "áĮĪáĬķ": 2777,
      "ĠAmerika": 2778,
      "ĠáīłáīĢ": 2779,
      "bila": 2780,
      "ĠplÃ¡n": 2781,
      "áĬŀáī½": 2782,
      "Ġabo": 2783,
      "Ġpla": 2784,
      "má»įÌģ": 2785,
      "ĠáĬĲáīłáĪ©": 2786,
      "Ġkarne": 2787,
      "Ġtsakanin": 2788,
      "ĠÃ¬gbÃłjÃ¡": 2789,
      "Ku": 2790,
      "áĪµáĬĵ": 2791,
      "ÉĹa": 2792,
      "sÃ¹": 2793,
      "Ġye": 2794,
      "áĭ¬": 2795,
      "age": 2796,
      "Ġtso": 2797,
      "áĮĨáī½": 2798,
      "'i": 2799,
      "Ġvita": 2800,
      "Ġwo": 2801,
      "áĭ°áīµ": 2802,
      "Ġáī°áī¥": 2803,
      "áĪŃáĪµáī²áĭ«áĬķ": 2804,
      "Ġlit": 2805,
      "fÃł": 2806,
      "koa": 2807,
      "ĠAug": 2808,
      "Ġinc": 2809,
      "Ġtáº¹Ìģ": 2810,
      "áĮ¥áĬķ": 2811,
      "ĠplÃ¡náº¹ÌģtÃ¬": 2812,
      "Ġáīħáĭ±áĪµ": 2813,
      "áĭķáĪ«": 2814,
      "Ġnyingi": 2815,
      "Ġkum": 2816,
      "Ġlab": 2817,
      "illiam": 2818,
      "Ġdara": 2819,
      "us,": 2820,
      "á¹£áº¹ÌĢ": 2821,
      "Ġchini": 2822,
      "Ġmon": 2823,
      "ĠKwa": 2824,
      "yÃ¡": 2825,
      "Ġyanz": 2826,
      "ÃĴ": 2827,
      "áĮįáĭļáĬłáī¥áĪĶáĪŃ": 2828,
      "Ġann": 2829,
      "Ġuna": 2830,
      "Ġ11": 2831,
      "Ġim": 2832,
      "áī¤áīµ": 2833,
      "ĠáĭŃáĮĪáĬĽ": 2834,
      "189": 2835,
      "own": 2836,
      "pá»į": 2837,
      "ĠÃ¡stáº¹Ìģrá»įÌģÃ¬dÃ¬.": 2838,
      "Ø§": 2839,
      "Ġkuna": 2840,
      "Ġhas": 2841,
      "³áĪµ": 2842,
      "Ġáĭ¨áĪµ": 2843,
      "fanin": 2844,
      "Ġnan": 2845,
      "ĠdÃŃ": 2846,
      "iwa": 2847,
      "port": 2848,
      "ĠáĪ¨": 2849,
      "ĠáĪĿáĬŃáĬķáĭ«": 2850,
      "nu": 2851,
      "ĠmÃ©jÃ¬": 2852,
      "eme": 2853,
      "ĠÆĻar": 2854,
      "áĭ¶áī½": 2855,
      "atoli": 2856,
      "áĭįáĪĿ": 2857,
      "áĪº": 2858,
      "áĬŃáīµ": 2859,
      "áī£áĪĪáĭį": 2860,
      "Ġmaji": 2861,
      "ĠJami'ar": 2862,
      "ĠáĬłáĪī": 2863,
      "faransa": 2864,
      "ĠSan": 2865,
      "ĠáĪĿáĬķ": 2866,
      "áĮ£áĪį": 2867,
      "dani": 2868,
      "ika": 2869,
      "ĠBu": 2870,
      "velop": 2871,
      "Ġtari": 2872,
      "phi": 2873,
      "Ġaá¹£": 2874,
      "ĠUnited": 2875,
      "Ġel": 2876,
      "ĠViungo": 2877,
      "limbali": 2878,
      "2-": 2879,
      "ĠEng": 2880,
      ",000": 2881,
      "áº¸": 2882,
      "Ġwato": 2883,
      "áĮĪáĬĵ": 2884,
      "ĠkejÃ¬": 2885,
      "ĠHu": 2886,
      "Ġime": 2887,
      "hon": 2888,
      "orun": 2889,
      "Ġmbalimbali": 2890,
      "gÃ¹n": 2891,
      "ĠKano": 2892,
      "ĠáĭŃáī£": 2893,
      "aribu": 2894,
      "mes": 2895,
      "edi": 2896,
      "ally": 2897,
      "Ġalso": 2898,
      "Ġeni": 2899,
      "rÃł": 2900,
      "takatifu": 2901,
      "áĪ«áĪį": 2902,
      "ĠGo": 2903,
      "engine": 2904,
      "des": 2905,
      "Ġ188": 2906,
      "Ġparti": 2907,
      "hir": 2908,
      "Ġcomme": 2909,
      "Ġmwandishi": 2910,
      "Ġms": 2911,
      "áĭŃáĬķ": 2912,
      "áĮĪáī£": 2913,
      "wá»į": 2914,
      "ĠorÃºká»į": 2915,
      "Ġsy": 2916,
      "Ġsini": 2917,
      "nÃł": 2918,
      "led": 2919,
      "ĠDuniya": 2920,
      "Ġáĭ¨áĬĲáīłáĪ¨": 2921,
      "ĠIlÃ©": 2922,
      "rÃŃn": 2923,
      "ĠgbajÃº": 2924,
      "osti": 2925,
      "undi": 2926,
      "Ġhal": 2927,
      "áĬĴáĭ«": 2928,
      "ft": 2929,
      "ĠNe": 2930,
      "Ġbáº¹Ìģáº¹ÌĢ": 2931,
      "ĠáĬŃáįįáĪį": 2932,
      "eneo": 2933,
      "áĬĸáĪŃ": 2934,
      "isl": 2935,
      "ambar": 2936,
      "ĠÃ¬má»įÌĢ": 2937,
      "áī±áĪĿ": 2938,
      "ĠÃ¬tá»įÌģkasÃŃ": 2939,
      "bab": 2940,
      "Ġras": 2941,
      "aren": 2942,
      "ĠOl": 2943,
      "Ġsami": 2944,
      "Les": 2945,
      "bur": 2946,
      "Ġáĭ²": 2947,
      "ĠUs": 2948,
      "ĠáĪŃ": 2949,
      "Ġguda": 2950,
      "ĠMal": 2951,
      "Ġpas": 2952,
      "Ġwacce": 2953,
      "Ġsaboda": 2954,
      "Ġdau": 2955,
      "ublic": 2956,
      "lÃ³gÃºn": 2957,
      "ĠAfrican": 2958,
      "ric": 2959,
      "ĠáĬłáĬ«áī£áī¢": 2960,
      "ĠColle": 2961,
      "ĠnÃŃbi": 2962,
      "ĠjÃ¡de": 2963,
      "Ġdif": 2964,
      "II": 2965,
      "áĪĪáī°": 2966,
      "ĠáĬ¥áĬķáĮį": 2967,
      "áĮ½áĪĲáįį": 2968,
      "¹¢": 2969,
      "Ġak": 2970,
      "tp://": 2971,
      "ĠAc": 2972,
      "ĠOá¹£Ã¹": 2973,
      "Ġsamar": 2974,
      "áĭ°áĪ¨áĮĪ": 2975,
      "ĠMi": 2976,
      "gal": 2977,
      "ĠwÃŃpÃ©": 2978,
      "dda": 2979,
      "Ġáįĸ": 2980,
      "ĠComm": 2981,
      "lla": 2982,
      "erv": 2983,
      "Ġrec": 2984,
      "Ġkwamba": 2985,
      "ba,": 2986,
      "irin": 2987,
      "Ġmá»įÌĢ": 2988,
      "Ġ(2": 2989,
      "áīĢáīµ": 2990,
      "yyana": 2991,
      "ten": 2992,
      "ĠáĬłáīĨáĮ£áĮłáĪŃ": 2993,
      "Katika": 2994,
      "ral": 2995,
      "áĭŃáĬĵ": 2996,
      "Ġmwana": 2997,
      "Ġnuna": 2998,
      "Ġmin": 2999,
      "ath": 3000,
      "áĪįáīħ": 3001,
      "áĭ®áĬķ": 3002,
      "ĠBan": 3003,
      "ĠSha": 3004,
      "on.": 3005,
      "Ġ(B": 3006,
      "ĠáīłáĮį": 3007,
      "áĪ¨áĮį": 3008,
      "ĠáĬłáĬķáĭ±": 3009,
      "umo": 3010,
      "rá»į": 3011,
      "insi": 3012,
      "Ġako": 3013,
      "Ġsau": 3014,
      "Ġalif": 3015,
      "unci": 3016,
      "gÃ©": 3017,
      "áĬķáĮĭ": 3018,
      "Ġmwa": 3019,
      "áĪŃáĭĿ": 3020,
      "áĮłáīĥ": 3021,
      "ĠáĮįáĭĽáīµ": 3022,
      "istan": 3023,
      "ĠáĬ¥áĭ«": 3024,
      "Ġgame": 3025,
      "els": 3026,
      "áįĪáĪŃ": 3027,
      "Ġkafin": 3028,
      "atta": 3029,
      "orin": 3030,
      "ĠTara": 3031,
      "Ġsababu": 3032,
      "áĭµáĪŀ": 3033,
      "áī³áĪį": 3034,
      "fanya": 3035,
      "ĠÃłká»įÌģká»įÌģ": 3036,
      "ani,": 3037,
      "ĠInd": 3038,
      "áĮĪáĪĪ": 3039,
      "Ġ(o": 3040,
      "ĠBel": 3041,
      "Ġkawa": 3042,
      "áĪĿáĬķ": 3043,
      "Ġáīłáī¥": 3044,
      "ĠAare": 3045,
      "Ġáīłáĭ°": 3046,
      "áĮİáĪŃ": 3047,
      "ĠáĬ¨áī°áĪŀáī½": 3048,
      "bÃ²": 3049,
      "Ġlori": 3050,
      "Ġmto": 3051,
      "ĠáĬłáĪĭ": 3052,
      "tre": 3053,
      "áįĢ": 3054,
      "pan": 3055,
      "ume": 3056,
      "ĠáĬ¥áĬķáĭ°áĪļ": 3057,
      "Ġáº¹ni": 3058,
      "ÃĪ": 3059,
      "hara": 3060,
      "con": 3061,
      "Ġ(P": 3062,
      "áĭ¨áīµ": 3063,
      "Ġ30": 3064,
      "ĠáĬĥáĭŃ": 3065,
      "bit": 3066,
      "ĠáĪ¶": 3067,
      "Ġimp": 3068,
      "Ġaki": 3069,
      "Ġmf": 3070,
      "Ãłráº¹": 3071,
      "Ġpáº¹": 3072,
      "ĠáīłáįĬáīµ": 3073,
      "Ġtake": 3074,
      "ras": 3075,
      "áĬĺ": 3076,
      "Ġche": 3077,
      "ĠáĭŃáī½": 3078,
      "Ġkusini": 3079,
      "ĠHai": 3080,
      "Ġfirst": 3081,
      "kokin": 3082,
      "ĠUlaya": 3083,
      "Ġmulkin": 3084,
      "she": 3085,
      "ĠPart": 3086,
      "ĠJos": 3087,
      "ger": 3088,
      "áĪĽáĬĸ": 3089,
      "áīµáĪŃ": 3090,
      "Ġkoma": 3091,
      "Ġwalio": 3092,
      "Ġmakarantar": 3093,
      "Ġ25": 3094,
      "ĠÆĻasa": 3095,
      "Ùħ": 3096,
      "lÃ²": 3097,
      "emb": 3098,
      "ĠLond": 3099,
      "ĠMusul": 3100,
      "wood": 3101,
      "ĠArewa": 3102,
      "bon": 3103,
      "fÃŃ": 3104,
      "ĠOr": 3105,
      "ĠáĪĽáĪŃ": 3106,
      "anzia": 3107,
      "ĠáĪģáĪĪáīµ": 3108,
      "áĪĪáĭ«áĭ©": 3109,
      "Ġaká»į": 3110,
      "ĠagbÃ¨gbÃ¨": 3111,
      "á¹£Ã¨lÃº": 3112,
      "cip": 3113,
      "Ġal-": 3114,
      "ĠMat": 3115,
      "ative": 3116,
      "Ġjim": 3117,
      "ĠáĭŃáī³": 3118,
      "sÃ¡": 3119,
      "áĪı": 3120,
      "áĪĳ": 3121,
      "amin": 3122,
      "áĪ°áĪ«": 3123,
      "arabu": 3124,
      "Ġtrans": 3125,
      "ount": 3126,
      "áī¥áĪµ": 3127,
      "moja": 3128,
      "ĠCar": 3129,
      "Ġfito": 3130,
      "áīĢáĭį": 3131,
      "ĠGre": 3132,
      "ĠMay": 3133,
      "ĠYork": 3134,
      "ĠáĪ¸": 3135,
      "Ġtaka": 3136,
      "áĬ¬": 3137,
      "ĠTo": 3138,
      "áĬŃáĪµ": 3139,
      "ĠDan": 3140,
      "ĠáĭĺáĪĺ": 3141,
      "Ġ2000": 3142,
      "Ġkil": 3143,
      "atoliki": 3144,
      "ĠmÃŃ": 3145,
      "dÃ³": 3146,
      "ĠNaijiria": 3147,
      "Ġwasa": 3148,
      "Ġgida": 3149,
      "áĮ£áĪĿ": 3150,
      "Ġhivyo": 3151,
      "Ġits": 3152,
      "Ġdis": 3153,
      "ĠáĪĿáĬķáĮ": 3154,
      "Ġsamun": 3155,
      "gy": 3156,
      "áĭĸ": 3157,
      "Ġáī´": 3158,
      "Ġfilamu": 3159,
      "Ġhaka": 3160,
      "gan": 3161,
      "Ġáĭ©": 3162,
      "Ġkup": 3163,
      "san": 3164,
      "par": 3165,
      "Ġinayo": 3166,
      "ĠáĬłáīłáī£": 3167,
      "ĠÃłmÃ¬": 3168,
      "Ġkad": 3169,
      "ĠDi": 3170,
      "Ġpremi": 3171,
      "ves": 3172,
      "ind": 3173,
      "Bayan": 3174,
      "Ġ(T": 3175,
      "áĪĪáĭŃ": 3176,
      "ision": 3177,
      "tá»įÌĢ": 3178,
      "koso": 3179,
      "las": 3180,
      "ĠState": 3181,
      "áĪ«áīħ": 3182,
      "ĠáĪĮáĪĭ": 3183,
      "Ġtro": 3184,
      "Ġdomin": 3185,
      "áī£áĭŃ": 3186,
      "dition": 3187,
      "Ġwan": 3188,
      "ĠagbÃ¡": 3189,
      "Ġida": 3190,
      "ĠSouth": 3191,
      "Ġmal": 3192,
      "Ġos": 3193,
      "Ġbar": 3194,
      "Ġyayin": 3195,
      "ĠáĭĪáīħ": 3196,
      "ĠáĭĺáĪĺáĬĲ": 3197,
      "ĠAugust": 3198,
      "utu": 3199,
      "warar": 3200,
      "atik": 3201,
      "Ġ(K": 3202,
      "ĠBrit": 3203,
      "ká»įÌĢá»įÌģ": 3204,
      "ĠDo": 3205,
      "ĠÃŃ": 3206,
      "³áį": 3207,
      "áĪįáĮį": 3208,
      "atic": 3209,
      "Ã¬mÃ¹": 3210,
      "áĬķáį¡": 3211,
      "áĪĿáį£": 3212,
      "áĪ®áįĵ": 3213,
      "ĠáĭĵáĪĺáī³áīµ": 3214,
      "igi": 3215,
      "ef": 3216,
      "anzi": 3217,
      "Ġwajen": 3218,
      "áĪĿáĪŃ": 3219,
      "ĠáĮ¦áĪŃáĬĲáīµ": 3220,
      "atur": 3221,
      "ĠEur": 3222,
      "áĪĺáĪ¨": 3223,
      "ĠáĪĥáĭŃ": 3224,
      "Ġrep": 3225,
      "áĪŃáĪĺáĬķ": 3226,
      "áĮįáī£": 3227,
      "ĠNijeriya.": 3228,
      "ĠÃĮtá»įÌģkasÃŃ": 3229,
      "med": 3230,
      "ĠáĪµáĪ«": 3231,
      "áĪªáĬ«áĭĬ": 3232,
      "ĠKem": 3233,
      "score": 3234,
      "ĠKenya": 3235,
      "imi": 3236,
      "ĠWorld": 3237,
      "Ġáĭ¨áĭį": 3238,
      "Ġáĭ¨áĭĵ": 3239,
      "ĠáĬ¨áĪļ": 3240,
      "ĠáĪµáĪŃ": 3241,
      "Ġáĭ¨áĪĺáĮĢáĪĺáĪªáĭ«": 3242,
      "ĠNigerian": 3243,
      "paka": 3244,
      "ĠWest": 3245,
      "'in": 3246,
      "Ġ100": 3247,
      "Ġuh": 3248,
      "tique": 3249,
      "áĮįáĪ«": 3250,
      "ĠáĪ²áĭ«": 3251,
      "ĠAde": 3252,
      "ĠáĬłáĭŃáĬĲáīµ": 3253,
      "uc": 3254,
      "Ġbut": 3255,
      "ĠáĬłáĪ¨": 3256,
      "áĪĲáĬķáĪµ": 3257,
      "Ġkili": 3258,
      "Ġyanzu": 3259,
      "áĪĺáīµ": 3260,
      "áĪĭáĪĪ": 3261,
      "áĮłáĪ¨": 3262,
      "ĠWak": 3263,
      "áĪįáĭµ": 3264,
      "weza": 3265,
      "ĠáĬĲáīłáĪ¨áį¢": 3266,
      "gion": 3267,
      "Ã²rÃ¹n": 3268,
      "Ġ(I": 3269,
      "ĠáĭĽ": 3270,
      "áĪŃáĭµ": 3271,
      "ĠÃłwon": 3272,
      "áīłáī¥": 3273,
      "ĠnÃ¡Ãł.": 3274,
      "ĠAnd": 3275,
      "icha": 3276,
      "Ġagba": 3277,
      "Ġá»įÌĢpá»įÌĢ": 3278,
      "Ġjam": 3279,
      "ulu": 3280,
      "ĠInternational": 3281,
      "Wak": 3282,
      "ananan": 3283,
      "endelea": 3284,
      "ĠáĬ¨áĭļáĭ«": 3285,
      "Ġbayyana": 3286,
      "ĠUfaransa": 3287,
      "ĠKad": 3288,
      "áĬĲáĮĪáĪŃ": 3289,
      "Ġáį²áį±áį»áį": 3290,
      "ĠRD1-": 3291,
      "ĠNational": 3292,
      "ĠDec": 3293,
      "25": 3294,
      "áįįáĪ«": 3295,
      "Ġmanyan": 3296,
      "ĠáĬ¨áįįáī°áĬĽ": 3297,
      "red": 3298,
      "Yan": 3299,
      "ussi": 3300,
      "er.": 3301,
      "ĠáĬ¥áĪŃ": 3302,
      "ĠOs": 3303,
      "ĠyÃ³Ã²": 3304,
      "ĠáĬłáĭ²áĪµ": 3305,
      "áĭ°áĪį": 3306,
      "ĠáĭĪáĪŃ": 3307,
      "ĠMaj": 3308,
      "w.": 3309,
      "cto": 3310,
      "Ġabu": 3311,
      "amp": 3312,
      "Ġpelu": 3313,
      "sa,": 3314,
      "Ġ24": 3315,
      "jar": 3316,
      "Ġsec": 3317,
      "21": 3318,
      "Ġyenye": 3319,
      "ĠáĬĲáĮĪáĪ¥áī³áīµ": 3320,
      "ĠKáº¹": 3321,
      "Ġ21": 3322,
      "ashara": 3323,
      "ĠáĪłáĪ": 3324,
      "áĮĢáĪĺáĪŃáĭ«": 3325,
      "ĠáĪĮáĪİáī½": 3326,
      "bÃº": 3327,
      "Ġcol": 3328,
      "ĠáĬ³áĪµ": 3329,
      "ĠáĬ¥áĮħ": 3330,
      "áĪĭáĪĿ": 3331,
      "wahili": 3332,
      "onn": 3333,
      "ma,": 3334,
      "Ġkira": 3335,
      "Ġfam": 3336,
      "Ġnaa": 3337,
      "ĠJanuari": 3338,
      "ex": 3339,
      "Ġyawa": 3340,
      "ĠáĪĽáĪµ": 3341,
      "fuat": 3342,
      "Ġambayo": 3343,
      "Ġwadanda": 3344,
      "ĠIngila.": 3345,
      "bÃ¬nrin": 3346,
      "ĠsÃŃláº¹ÌĢ": 3347,
      "ĠÃ²á¹£": 3348,
      "Ġexp": 3349,
      "ĠWilliam": 3350,
      "Ġ23": 3351,
      "Ġaux": 3352,
      "ĠáĪĺáĮł": 3353,
      "uta": 3354,
      "ĠáĬ©": 3355,
      "Ġgina": 3356,
      "Ġirin": 3357,
      "ĠUg": 3358,
      "dogo": 3359,
      "Ġcent": 3360,
      "shen": 3361,
      "áĭĮ": 3362,
      "Ġyadda": 3363,
      "ĠAh": 3364,
      "ced": 3365,
      "Ġsp": 3366,
      "unif": 3367,
      "Ġkif": 3368,
      "ĠáĬłáįį": 3369,
      "Ġfin": 3370,
      "ĠCha": 3371,
      "-o": 3372,
      "ĠAgosti": 3373,
      "ach": 3374,
      "®áī½": 3375,
      "BC": 3376,
      "ĠJi": 3377,
      "Ġtas": 3378,
      "ĠFo": 3379,
      "áĪ¬áīµ": 3380,
      "ĠIbi": 3381,
      "ĠáĪĺáĪ°": 3382,
      "ĠáĪĿáĭµáĪŃ": 3383,
      "de,": 3384,
      "áīłáĪĭ": 3385,
      "ĠáĪįáĭ©": 3386,
      "Ġserikali": 3387,
      "Ġ(F": 3388,
      "islamu": 3389,
      "ÙĬ": 3390,
      "ĠÃłgbÃ©": 3391,
      "áº¹ÌĢáº¹Ìģ": 3392,
      "áĪªáĭİáī½": 3393,
      "áįĪáĪ¨áĬķ": 3394,
      "fiya": 3395,
      "Ġ(18": 3396,
      "ley": 3397,
      "umu": 3398,
      "unan": 3399,
      "Ġkaskazini": 3400,
      "Ã®": 3401,
      "Ġgar": 3402,
      "ĠSu": 3403,
      "ĠMan": 3404,
      "Ġmp": 3405,
      "áī³áĭŃ": 3406,
      "umba": 3407,
      "Ġhave": 3408,
      "áī¶áĪµ": 3409,
      "ria": 3410,
      "ros": 3411,
      "áĬ¥áĪµ": 3412,
      "ms": 3413,
      "60": 3414,
      "Ġpoli": 3415,
      "áĭĵáīµ": 3416,
      "ĠáĭķáĪĪáīµ": 3417,
      "báº¹ÌĢráº¹ÌĢ": 3418,
      "Ġ(ojoibi": 3419,
      "Ġáĭľ": 3420,
      "Ġsar": 3421,
      "ĠJula": 3422,
      "áĪįáį£": 3423,
      "Ġprodu": 3424,
      "imu": 3425,
      "ĠAgba": 3426,
      "Ã¹gbá»įÌģn": 3427,
      "overn": 3428,
      "BN": 3429,
      "ĠáĭĻ": 3430,
      "áĬ¨áĭļáĪħ": 3431,
      "le.": 3432,
      "ĠgÃŃ": 3433,
      "ĠilÃ©-áº¹ÌĢká»įÌģ": 3434,
      "áĪµáĪĪ": 3435,
      "áī²áĬ«": 3436,
      "áĮ¨áĪĽáĪª": 3437,
      "ĠGab": 3438,
      "22": 3439,
      "ĠFil": 3440,
      "ĠnÃŃnu": 3441,
      "ĠOgun": 3442,
      "Ã¢": 3443,
      "áĭ°áĭį": 3444,
      "áĭİáĪµ": 3445,
      "pas": 3446,
      "unia": 3447,
      "ĠdâĢĻ": 3448,
      "Ġtar": 3449,
      "ĠAbd": 3450,
      "ork": 3451,
      "Ġakwai": 3452,
      "chagu": 3453,
      "ents": 3454,
      "que,": 3455,
      "ĠáīłáĪŃ": 3456,
      "áįįáīµ": 3457,
      "ĠÃ²un": 3458,
      "ffi": 3459,
      "Ġran": 3460,
      "ĠChar": 3461,
      "áĬķáį£": 3462,
      "áĪĭáīħ": 3463,
      "Ġogun": 3464,
      "dÃ¹": 3465,
      "ĠJamhuri": 3466,
      "áĮ¢": 3467,
      "ĠáĬłáĭµáĪŃ": 3468,
      "ĠÃłkÃ³": 3469,
      "80": 3470,
      "ĠáĪĽáĭķ": 3471,
      "Ġgudanar": 3472,
      "Ġ1,": 3473,
      "ĠSi": 3474,
      "áĪ¹": 3475,
      "Ġmaeneo": 3476,
      "áįĭáīµ": 3477,
      "its": 3478,
      "Ġáĭ«áĪµ": 3479,
      "Ġ1.": 3480,
      "áĬ¨áĪĪ": 3481,
      "los": 3482,
      "sÃ¬n": 3483,
      "ime": 3484,
      "igh": 3485,
      "pele": 3486,
      "ĠEl": 3487,
      "ĠCa": 3488,
      "baki": 3489,
      "gbÃ³": 3490,
      "Ġbara": 3491,
      "gaji": 3492,
      "áĭ²áĭ«": 3493,
      "ĠáīĥáĪį": 3494,
      "Ġáº¹láº¹ÌģbÃ¹n": 3495,
      "23": 3496,
      "ding": 3497,
      "cent": 3498,
      "ĠEd": 3499,
      "ģáĬķ": 3500,
      "áĪĭáĭĬ": 3501,
      "Ġáī¥áĪİ": 3502,
      "ĠJuni": 3503,
      "Ġ(U": 3504,
      "ĠIS": 3505,
      "ĠAra": 3506,
      "Ġge": 3507,
      "ĠFiz": 3508,
      "ĠáĬłáĪµáī°áĭ³": 3509,
      "ĠJanuary": 3510,
      "ĠáĭĪáīħáīµ": 3511,
      "Ġwak": 3512,
      "Ġpop": 3513,
      "Ġfina": 3514,
      "Ġqu'": 3515,
      "Ġgidan": 3516,
      "áīłáĪį": 3517,
      "Daga": 3518,
      "Ġcar": 3519,
      "ĠAllah": 3520,
      "kÃ¹nrin": 3521,
      "áĬ¢áīµáĭ®áĮµáĭ«": 3522,
      "áĪĭáĬŃ": 3523,
      "ĠNajeriya,": 3524,
      "ĠChina": 3525,
      "ĠKaduna": 3526,
      "ĠJulai": 3527,
      "ĠCity": 3528,
      "ĠPres": 3529,
      "áī«": 3530,
      "áĪĿáį¡": 3531,
      "ĠáĬ¨áĬĲ": 3532,
      "da,": 3533,
      "Ġ(áĭ¨": 3534,
      "Ġigba": 3535,
      "áī¨": 3536,
      "ĠAk": 3537,
      "ĠMachi": 3538,
      "ĠáīµáĪĿáĪħáĪŃáīµ": 3539,
      "áĪĬáĭ«": 3540,
      "Ġmutum": 3541,
      "wara": 3542,
      "áīłáĭļáĪħ": 3543,
      "áįĪáĭį": 3544,
      "igizaji": 3545,
      "rÃ²yÃ¬n": 3546,
      "ĠáĬłáĪ«": 3547,
      "ĠUr": 3548,
      "Ġáº¸ÌĢ": 3549,
      "ĠMuhammad": 3550,
      "Ġno": 3551,
      "ĠsinimÃ¡": 3552,
      "mala": 3553,
      "ĠSec": 3554,
      "ki,": 3555,
      "ĠAmerican": 3556,
      "Ġ(áĬ¨": 3557,
      "áīĢáĪĺ": 3558,
      "Ġáī£áĪħ": 3559,
      "Ġsanya": 3560,
      "láº¹ÌĢ-Ã¨dÃ¨": 3561,
      "ĠSh": 3562,
      "Ġáĭ¨áī³": 3563,
      "Ġáį²áį": 3564,
      "Ġáī°áĪ«": 3565,
      "ge,": 3566,
      "Ġlake": 3567,
      "ants": 3568,
      "Ġpáº¹lu": 3569,
      "Ġmita": 3570,
      "Ġgabatar": 3571,
      "yyukan": 3572,
      "soci": 3573,
      "fia": 3574,
      "als": 3575,
      "ism": 3576,
      "ĠfÃŃÃ¬mÃ¹": 3577,
      "ĠpadÃł": 3578,
      "áī³áĭį": 3579,
      "Ġ*": 3580,
      "áįĮ": 3581,
      "ĠojÃº": 3582,
      "áĭ®áī½": 3583,
      "ĠgbajÃºmá»įÌĢ": 3584,
      "ling": 3585,
      "lam": 3586,
      "Ġcour": 3587,
      "asihi": 3588,
      "uro": 3589,
      "ĠPet": 3590,
      "ight": 3591,
      "Ġdai": 3592,
      "ĠáĬ¨áĭļáĪħ": 3593,
      "áīĢáĪŃ": 3594,
      "ince": 3595,
      "amman": 3596,
      "ĠRom": 3597,
      "wÃ¡jÃº": 3598,
      "ĠáĪĦ": 3599,
      "Ġkasuwan": 3600,
      "áĪ½áĬķ": 3601,
      "Ġáĭ®áĪĲáĬķáĪµ": 3602,
      "roup": 3603,
      "Ġmfalme": 3604,
      "ĠJe": 3605,
      "ĠÐ": 3606,
      "Ġijoba": 3607,
      "ĠIndi": 3608,
      "cri": 3609,
      "Ġ27": 3610,
      "ĠlÃ¡Ãł": 3611,
      "part": 3612,
      "ĠáĬ¨áĬłáĪ": 3613,
      "ĠKir": 3614,
      "ÙĨ": 3615,
      "ĠÃ¬tÃłn": 3616,
      "Ġtangu": 3617,
      "ation,": 3618,
      "áīłáĪ«": 3619,
      "áĭİáī½áĬķ": 3620,
      "Ġbec": 3621,
      "ĠMtakatifu": 3622,
      "ĠáīłáĭĪ": 3623,
      "áĭŃáĭĪáīµ": 3624,
      "erre": 3625,
      "ĠAng": 3626,
      "gue": 3627,
      "ĠáīłáĮ£áĪĿ": 3628,
      "áĪĽáīµ": 3629,
      "ĠwÃ³n": 3630,
      "Ġráº¹ÌĢ.": 3631,
      "Ġn.": 3632,
      "áº¹ráº¹": 3633,
      "esha": 3634,
      "ĠBro": 3635,
      "uss": 3636,
      "d.": 3637,
      "áĮĬáĭľ": 3638,
      "ĠáĭŃáī³áĭĪ": 3639,
      "Ġzai": 3640,
      "Ġsh": 3641,
      "ĠFor": 3642,
      "Ġl'Ã©": 3643,
      "-M": 3644,
      "ĠÃłÃ¬": 3645,
      "ires": 3646,
      "á¹£u": 3647,
      "ĠáĬłáĪĽ": 3648,
      "Ġáī¥áĪŃ": 3649,
      "atsina": 3650,
      "ĠPol": 3651,
      "áĪ«áĬķ": 3652,
      "Ġkammala": 3653,
      "Ġáį¡áį¡": 3654,
      "ĠMashariki": 3655,
      "dhi": 3656,
      "ÃłÃł": 3657,
      "hali": 3658,
      "badan": 3659,
      "Ġfran": 3660,
      "Ġtáº¹": 3661,
      "Ġpri": 3662,
      "orge": 3663,
      "ĠOlÃ³": 3664,
      "t,": 3665,
      "yon": 3666,
      "áīłáī°": 3667,
      "áĪ³áĭĬ": 3668,
      "Ġpeke": 3669,
      "ĠWan": 3670,
      "Ġall": 3671,
      "Ġkaribu": 3672,
      "ps": 3673,
      "rÃ¬n": 3674,
      "ĠsÃ¡": 3675,
      "gbá»įÌĢn": 3676,
      "á¹£i": 3677,
      "Ġduni": 3678,
      "Ġyayi": 3679,
      "Ġmaza": 3680,
      "áĬĸáĪµ": 3681,
      "Ġaliye": 3682,
      "ĠDesemba": 3683,
      "Ġdeux": 3684,
      "bÃŃláº¹ÌĢ": 3685,
      "asan": 3686,
      "áĭ°áĪĿ": 3687,
      "áĬĽáį¦": 3688,
      "Ġhuko": 3689,
      "kama": 3690,
      "sa.": 3691,
      "Ġkula": 3692,
      "Ġ22": 3693,
      "áĪ«áĪ±": 3694,
      "ĠáĪĿáĬŃáĬķáĭ«áīµ": 3695,
      "ĠMei": 3696,
      "gh": 3697,
      "ater": 3698,
      "ĠáĬ£": 3699,
      "Ġkuanzia": 3700,
      "Ġrubu": 3701,
      "Ġjirgin": 3702,
      "Ġ28": 3703,
      "ĠSeptember": 3704,
      "ĠBra": 3705,
      "pend": 3706,
      "madu": 3707,
      "áĪ³áī¥": 3708,
      "oselu": 3709,
      "áĬĲáĭį": 3710,
      "áĮĪáĪ©": 3711,
      "ĠÂ«áĭ¨": 3712,
      "ĠSar": 3713,
      "ĠBer": 3714,
      "40": 3715,
      "Ġmais": 3716,
      "áī£áī¸áĭį": 3717,
      "ĠáĪ¥áĪ«": 3718,
      "Ġbirni": 3719,
      "Ġyamma": 3720,
      "áĭĪáĭ°": 3721,
      "ĠLegas": 3722,
      "Ġhukumar": 3723,
      "ĠAprili": 3724,
      "Ġpá»įÌĢ": 3725,
      "lá»įpá»įÌĢ": 3726,
      "Ġiye": 3727,
      "Ġhann": 3728,
      "Ġkilom": 3729,
      "Ġada": 3730,
      "asara": 3731,
      "Ġkáº¹Ìģ": 3732,
      "...": 3733,
      "'est": 3734,
      "en.": 3735,
      "Ġid": 3736,
      "Ġdama": 3737,
      "ĠMed": 3738,
      "ifin": 3739,
      "Ġdaban": 3740,
      "áĭŃáīµ": 3741,
      "r.": 3742,
      "Ã§a": 3743,
      "ĠDecember": 3744,
      "ĠáĪ±": 3745,
      "áĬķáī²": 3746,
      "ĠFa": 3747,
      "Ġchake": 3748,
      "ĠAmurka": 3749,
      "alÃ¡": 3750,
      "ĠBi": 3751,
      "Ġtheir": 3752,
      "Ġsake": 3753,
      "Ġkwaikwa": 3754,
      "Ġ187": 3755,
      "lÃ¬": 3756,
      "eth": 3757,
      "aru": 3758,
      "Ġáĭ¶": 3759,
      "ĠáĬłáīĢ": 3760,
      "ĠáĪĺáĪłáĪ¨": 3761,
      "ĠáĪĺáĮ½áĪĲáįį": 3762,
      "ĠPer": 3763,
      "Ãī": 3764,
      "ĠSeptemba": 3765,
      "ges": 3766,
      "la,": 3767,
      "199": 3768,
      "áĭĲ": 3769,
      "Ġses": 3770,
      "Ġsuke": 3771,
      "Ġ(198": 3772,
      "áĪįáĪµ": 3773,
      "ĠwaÉĹ": 3774,
      "ĠáĬłáīµ": 3775,
      "gbon": 3776,
      "ĠáĬłáĪľáĪªáĬ«": 3777,
      "ĠáĭĪáĬķáĭµ": 3778,
      "kiyar": 3779,
      "ĠáĪĪáĬł": 3780,
      "áĬĸáĪ©": 3781,
      "ĠáĮ¥áīħáĪĿ": 3782,
      "áĮĪáĬĺáĭį": 3783,
      "ĠPri": 3784,
      "ĠParty": 3785,
      "lima": 3786,
      "ĠEm": 3787,
      "dom": 3788,
      "Ġáº¹ÌĢyÃł": 3789,
      "ĠáĪª": 3790,
      "âĢİ": 3791,
      "dÃ²": 3792,
      "Ġere": 3793,
      "Ġáī½": 3794,
      "Ġkudu": 3795,
      "Ġáĭ°áĪ¨áĮĥ": 3796,
      "antu": 3797,
      "oth": 3798,
      "Ġáĭ¨áĪħ": 3799,
      "ĠOrÃŃ": 3800,
      "Ġinter": 3801,
      "ĠinÃº": 3802,
      "ĠáĪĨáĬĲáį¢": 3803,
      "ĠÉĹaya": 3804,
      "kÃ¹": 3805,
      "cess": 3806,
      "Ġiko": 3807,
      "ĠáĬłáĭ«": 3808,
      "fiyar": 3809,
      "ĠáīĭáĬķáīĭáĭİáī½": 3810,
      "Ġlin": 3811,
      "eli": 3812,
      "istri": 3813,
      "rÃ¡n": 3814,
      "Ġkik": 3815,
      "opo": 3816,
      "Ġban": 3817,
      "gbáº¹": 3818,
      "áĭĪáĪ°": 3819,
      "Ġmwigizaji": 3820,
      "lor": 3821,
      "Ġbas": 3822,
      "ved": 3823,
      "Ġndani": 3824,
      "áįĲ": 3825,
      "ĠáĬ¥áĮįáĪŃ": 3826,
      "áī¥áīµ": 3827,
      "ĠáĪĿáĪµ": 3828,
      "Ġáĭ¨áĬ¤": 3829,
      "ĠáĪ¥áĬĲ": 3830,
      "Ġuhuru": 3831,
      "Ġwaje": 3832,
      "uld": 3833,
      "ĠáĪĽáĬķ": 3834,
      "áīĥáĪµ": 3835,
      "áĪĬáĬŃ": 3836,
      "k,": 3837,
      "ology": 3838,
      "Walio": 3839,
      "bal": 3840,
      "ĠEle": 3841,
      "thiop": 3842,
      "Ġce,": 3843,
      "mÃ¬nÃł": 3844,
      "8-": 3845,
      "Ġthis": 3846,
      "Ġkutokana": 3847,
      "ctober": 3848,
      "LÃ¡": 3849,
      "ĠMis": 3850,
      "ĠShi": 3851,
      "Ġmutu": 3852,
      "áĬĻ": 3853,
      "áĪŃáĪµáī¶áĪµ": 3854,
      "ĠáĭĪáĬķáĭĿ": 3855,
      "pata": 3856,
      "sÃ¨": 3857,
      "ĠSal": 3858,
      "áĪĿáĬĲáīµ": 3859,
      "Ġfannin": 3860,
      "Ġáīłáī³": 3861,
      "Ġher": 3862,
      "ĠÃĢÃłráº¹": 3863,
      "ete": 3864,
      "áĮ£áīµ": 3865,
      "ikuu": 3866,
      "torÃŃ": 3867,
      "24": 3868,
      "binrin": 3869,
      "Ġ29": 3870,
      "ĠFebruari": 3871,
      "áĪįáĮ£áĬķ": 3872,
      "Ġeniyan": 3873,
      "FA": 3874,
      "asha": 3875,
      "Ġáī°áī¥áĪİ": 3876,
      "ĠTiba": 3877,
      "ĠDis": 3878,
      "Ġá¹£ÃŃ": 3879,
      "Ġá¹£iá¹£áº¹Ìģ": 3880,
      "olly": 3881,
      "áĭĭáīĤ": 3882,
      "ght": 3883,
      "ĠGa": 3884,
      "báº¹ÌĢ": 3885,
      "Ġyao": 3886,
      "ĠÃłgbÃł": 3887,
      "ĠáĪįáĮĨáī½": 3888,
      "ĠEbun": 3889,
      "áĪĪáĬķ": 3890,
      "Ġgirma": 3891,
      "ĠáĬĲáīłáĪ©áį¢": 3892,
      "cl": 3893,
      "hed": 3894,
      "www.": 3895,
      "ĠMad": 3896,
      "Ġmutanen": 3897,
      "ĠáĭĿáĪŃáĭĿ": 3898,
      "ĠNovemba": 3899,
      "gra": 3900,
      "risti": 3901,
      "indi": 3902,
      "sÃŃláº¹ÌĢ": 3903,
      "Ġ26": 3904,
      "Ġbiyar": 3905,
      "ature": 3906,
      "ĠRep": 3907,
      "ilu": 3908,
      "Ġoloselu": 3909,
      "Ġd'un": 3910,
      "áĪįáĪĿ": 3911,
      "ĠáĮŃ": 3912,
      "agor": 3913,
      "ĠBabban": 3914,
      "kawa": 3915,
      "chu": 3916,
      "Ġ2011": 3917,
      "áīŃ": 3918,
      "Ġgi": 3919,
      "ĠáĬłáįĪ": 3920,
      "Ġone": 3921,
      "Ġmis": 3922,
      "urn": 3923,
      "Ã³mÃ¬nÃł": 3924,
      "ĠrÃ¨": 3925,
      "Ġ2015": 3926,
      "ĠáĮįáī¥": 3927,
      "ĠNorth": 3928,
      "ĠGer": 3929,
      "-I": 3930,
      "ĠMag": 3931,
      "ĠOrodha": 3932,
      "áĪ®áĪµ": 3933,
      "Ġkaramar": 3934,
      "ÉĹin": 3935,
      "ĠáĪĺáĬķáĮĪáĭµ": 3936,
      "ogo": 3937,
      "Äģ": 3938,
      "ĠShugaban": 3939,
      "áĮĪáĪ«": 3940,
      "áĪĭáĭį": 3941,
      "asiasa": 3942,
      "ĠRais": 3943,
      "lÃ©wÃ²": 3944,
      "ispania": 3945,
      "ret": 3946,
      "Ġentre": 3947,
      "áĪĪáī²áĬ«": 3948,
      "ĠDar": 3949,
      "Ġáĭ¨áĬ¢": 3950,
      "Ġáī¥áĪĶ": 3951,
      "iste": 3952,
      "ifar": 3953,
      "tani": 3954,
      "-C": 3955,
      "Ġmawa": 3956,
      "ĠáĮ¥áĬĵáīµ": 3957,
      "ĠDem": 3958,
      "adem": 3959,
      "Ġut": 3960,
      "Ġise": 3961,
      "áĭĪáĪĪ": 3962,
      "áĭĪáī½": 3963,
      "ĠáĮ¥áĬķ": 3964,
      "27": 3965,
      "Ġwilaya": 3966,
      "Ġdang": 3967,
      "al,": 3968,
      "Ġwá»į": 3969,
      "ĠáĪĺáĪŃ": 3970,
      "áĭĬáīµ": 3971,
      "áĮłáīħ": 3972,
      "Ġwho": 3973,
      "ĠFrance": 3974,
      "áĪµáįĭ": 3975,
      "áĬ¨áīµ": 3976,
      "Ġ186": 3977,
      "ĠáĭŃáī£áĪĭáĪįáį¢": 3978,
      "Ġother": 3979,
      "Ġkilomita": 3980,
      "ben": 3981,
      "wana": 3982,
      "Ġruwa": 3983,
      "inai": 3984,
      "fauti": 3985,
      "áĬĶáī³": 3986,
      "ĠYam": 3987,
      "-f": 3988,
      "Ġláº¹ÌģyÃ¬n": 3989,
      "ĠgÃŃga": 3990,
      "3-": 3991,
      "ĠáĪ®": 3992,
      "likana": 3993,
      "ĠáĪĪáĪĿ": 3994,
      "áĭĺáĮĭ": 3995,
      "ĠkÃ¡": 3996,
      "ce,": 3997,
      "áĪŁ": 3998,
      "gawa": 3999,
      "mÃº": 4000,
      "Ġpers": 4001,
      "Ġver": 4002,
      "Ġsauran": 4003,
      "áĭĭáĬķ": 4004,
      "áĪĺáĬĵáĭĬ": 4005,
      "ĠáĪīáīĥáĪµ": 4006,
      "gÃ¡": 4007,
      "ĠbÃł": 4008,
      "ĠilÃ©-": 4009,
      "dini": 4010,
      "hidi": 4011,
      "Ġáī°áĪ°": 4012,
      "rop": 4013,
      "jeo": 4014,
      "Ġacc": 4015,
      "ures": 4016,
      "ander": 4017,
      "ĠâĢ¢": 4018,
      "áĪ¾": 4019,
      "áĪ¨áĪĿ": 4020,
      "rie": 4021,
      "Ġrayuwa": 4022,
      "Ġrasmi": 4023,
      "Ġmusul": 4024,
      "Ġwote": 4025,
      "Ġáīłáĭ¨": 4026,
      "Ġáĭ¨áĪķ": 4027,
      "ĠÃī": 4028,
      "hel": 4029,
      "d,": 4030,
      "Ġtena": 4031,
      "hÃ¹n": 4032,
      "mbo": 4033,
      "áĪĽáĬķ": 4034,
      "áĭķáĪ«áī¥": 4035,
      "Ġ(D": 4036,
      "arÃŃ": 4037,
      "Ġtit": 4038,
      "ĠPort": 4039,
      "áįĪáĪį": 4040,
      "Ġáĭ¨áĬłáĪľáĪªáĬ«": 4041,
      "por": 4042,
      "ĠCollege": 4043,
      "Pa": 4044,
      "Ġáīłáĭĵ": 4045,
      "ĠáīħáĪŃ": 4046,
      "gen": 4047,
      "-Ãł": 4048,
      "29": 4049,
      "men": 4050,
      "Ki": 4051,
      "ĠmÃ¬ÃŃ": 4052,
      "áįİáī½": 4053,
      "ĠáĬ¥áĬķáĮĤ": 4054,
      "tions": 4055,
      "Ġbaba": 4056,
      "dÃłn": 4057,
      "ÙĪ": 4058,
      "ĠEx": 4059,
      "Ġact": 4060,
      "ĠolÃ³rin": 4061,
      "ĠSte": 4062,
      "Ġáĭ¨áĪļáĪĪáĭį": 4063,
      "Ã¬sÃŃ": 4064,
      "á»įÌģá»įÌĢ": 4065,
      "zu": 4066,
      "ĠáĬ¨áĬ¥": 4067,
      "ays": 4068,
      "ĠFebruary": 4069,
      "Ã©,": 4070,
      "Ġá»įÌĢkan": 4071,
      "ĠáĮīáĭ³": 4072,
      "Ġhukumomin": 4073,
      "as,": 4074,
      "báº¹Ìģ": 4075,
      "ino": 4076,
      "Ġca": 4077,
      "ĠCor": 4078,
      "á»įÌĢrá»įÌĢ": 4079,
      "ĠáĭĪáĭŃ": 4080,
      "ĠáĬŃáĪį": 4081,
      "Ġasili": 4082,
      "t.": 4083,
      "ĠNovember": 4084,
      "kashin": 4085,
      "Ġ(áīł": 4086,
      "áĬĲáĪ³": 4087,
      "omen": 4088,
      "uly": 4089,
      "Ġaji": 4090,
      "ĠSer": 4091,
      "yoyi": 4092,
      "ĠáĬķáĮį": 4093,
      "ĠmÃ¬ÃŃrÃłn": 4094,
      "ĠAnna": 4095,
      "sÃł": 4096,
      "Ġkarni": 4097,
      "yl": 4098,
      "in.": 4099,
      "Ġáĭ¨áīµ": 4100,
      "ĠáĮĮ": 4101,
      "ĠáĬ¥áĬķáĭ²áĪħ": 4102,
      "ĠáĭŃáī³áĭĪáīĥ": 4103,
      "Ġshu": 4104,
      "c.": 4105,
      "áĪİáīµ": 4106,
      "lejin": 4107,
      "ĠáĭŃáīĢ": 4108,
      "ĠáīµáĬķ": 4109,
      "Ġilimi": 4110,
      "attalin": 4111,
      "zer": 4112,
      "áī¥áĪ¨áīµ": 4113,
      "Ġ2007": 4114,
      "ĠáĪģáĪĪ": 4115,
      "Ġtsarin": 4116,
      "ĠobÃ¬nrin": 4117,
      "ĠáįķáĪ¬": 4118,
      "Ġd'a": 4119,
      "Ġsyst": 4120,
      "Ġlashe": 4121,
      "wezi": 4122,
      "ĠáĪķáĭĿáī¥": 4123,
      "jáº¹ÌĢ": 4124,
      "Ġ2006": 4125,
      "ĠdÃ¡ra": 4126,
      "way": 4127,
      "ĠKik": 4128,
      "Ġdigiri": 4129,
      "Ġmkubwa": 4130,
      "áĪµáĬķ": 4131,
      "Ġkuli": 4132,
      "áĬŃáĪī": 4133,
      "áĭĪáĮ£": 4134,
      "Ġáī³áĪªáĬ«áĭĬ": 4135,
      "amuziki": 4136,
      "iter": 4137,
      "illa": 4138,
      "'ad": 4139,
      "alis": 4140,
      "Ġinclu": 4141,
      "Ġwh": 4142,
      "-m": 4143,
      "bb": 4144,
      "ĠKatsina": 4145,
      "kÃŃ": 4146,
      "ĠáĪĺáĮ¨áĪ¨áĪ»": 4147,
      "aux": 4148,
      "-O": 4149,
      "ĠIbadan": 4150,
      "ombe": 4151,
      "Am": 4152,
      "45": 4153,
      "áĬĲáī±": 4154,
      "Ġeyi": 4155,
      "Ġá¹£Ãł": 4156,
      "dÃºgbÃ²": 4157,
      "uring": 4158,
      "Ġd'une": 4159,
      "ĠLu": 4160,
      "ily": 4161,
      "26": 4162,
      "áĪĺáĭį": 4163,
      "áĪ¨áĪ°": 4164,
      "dá»įÌĢ": 4165,
      "Ġomi": 4166,
      "lack": 4167,
      "Ġ(G": 4168,
      "áĪŃáī²": 4169,
      "Ġ(O": 4170,
      "ĠáīłáĬĲ": 4171,
      "ĠTazama": 4172,
      "ĠipÃ²": 4173,
      "ury": 4174,
      "Ġsub": 4175,
      "ical": 4176,
      "gne": 4177,
      "Ġprin": 4178,
      "ĠAlakoso": 4179,
      "ĠáĬĲáĭįáį¡áį¡": 4180,
      "ĠáĬĵáī¸áĭį": 4181,
      "Ġ(p": 4182,
      "áĭįáĪ®áįĵ": 4183,
      "Ġolo": 4184,
      "ĠáĭĿáĪŃáĭĿáĪŃ": 4185,
      "umb": 4186,
      "Ġht": 4187,
      "áīłáĪ©áīµ": 4188,
      "28": 4189,
      "col": 4190,
      "¶áį": 4191,
      "áĪĺáĭµ": 4192,
      "Ġ2010": 4193,
      "áĬ¨áī°áĪĽ": 4194,
      "70": 4195,
      "A.": 4196,
      "Ġtáº¹ÌĢ": 4197,
      "Ġbin": 4198,
      "sÃ¬kÃ²": 4199,
      "Ġlá»įÌģwá»įÌģ": 4200,
      "Ġba.": 4201,
      "wanda": 4202,
      "áī°áĬķ": 4203,
      "ĠÆĺ": 4204,
      "ĠMon": 4205,
      "Ġile-": 4206,
      "áĬĵáī¸áĭį": 4207,
      "ĠáīłáĬ©": 4208,
      "Ġmusamman": 4209,
      "Ġkwaikwayo": 4210,
      "-da": 4211,
      "tab": 4212,
      "ĠEthiop": 4213,
      "ĠBahari": 4214,
      "ĠQu": 4215,
      "ac": 4216,
      "Ġagbegbe": 4217,
      "áĬĵáĪįáį¢": 4218,
      "ĠáĮĬ": 4219,
      "áĪĺáĪį": 4220,
      "Ġáįĭ": 4221,
      "ĠáĪģáĬĶáī³": 4222,
      "Ġlá»įÌģdÃºn": 4223,
      "ing,": 4224,
      "Ġdir": 4225,
      "Ġ(J": 4226,
      "ĠYar": 4227,
      "Ø±": 4228,
      "áī¤áī°": 4229,
      "Ġ2012": 4230,
      "Ġkila": 4231,
      "ugu": 4232,
      "áĪ«áĪ²": 4233,
      "di,": 4234,
      "kiya": 4235,
      "ulation": 4236,
      "Ġáĭ¨áĬ¥áĪµ": 4237,
      "Ġ2014": 4238,
      "Ġwe": 4239,
      "ove": 4240,
      "angan": 4241,
      "áĮĦ": 4242,
      "Ġáī»": 4243,
      "tive": 4244,
      "ĠOctober": 4245,
      "iru": 4246,
      "Ġvile": 4247,
      "Ġtáº¹Ìģláº¹ÌĢ": 4248,
      "kata": 4249,
      "Ġtaima": 4250,
      "ĠáĬĲáĮ»": 4251,
      "ed.": 4252,
      "Ġáī±": 4253,
      "Ġmod": 4254,
      "áĪħáĬķ": 4255,
      "atan": 4256,
      "Ġbila": 4257,
      "Ġmaa": 4258,
      "áĭ«áĭĬ": 4259,
      "áĪĪáī½": 4260,
      "áĪĪáĪĽ": 4261,
      "itt": 4262,
      "ĠáĪĺáĪįáĬŃ": 4263,
      "Ġkamfanin": 4264,
      "ĠMajalisar": 4265,
      "Ġfáº¹Ìģ": 4266,
      "rew": 4267,
      "tim": 4268,
      "ĠáĮįáĭµáĪĿ": 4269,
      "áĪ¶áī½": 4270,
      "ĠáĪļáĬĴ": 4271,
      "Ġjo": 4272,
      "ĠOb": 4273,
      "ers,": 4274,
      "pÃ¨": 4275,
      "rid": 4276,
      "faff": 4277,
      "ollywood": 4278,
      "Tare": 4279,
      "enne": 4280,
      "ĠMto": 4281,
      "Ġbeen": 4282,
      "ĠáįĪáĪŃ": 4283,
      "Ġarewa": 4284,
      "Ġsiyasa": 4285,
      "Ġmama": 4286,
      "is.": 4287,
      "ĠÃ¬gbÃ©": 4288,
      "-S": 4289,
      "ĠAlex": 4290,
      "Ġutawala": 4291,
      "áĭļáīĥ": 4292,
      "Ġmot": 4293,
      "jÃ²": 4294,
      "ĠOba": 4295,
      "kua": 4296,
      "ĠáĬŃáĪŃáĪµáī²áĭ«áĬķ": 4297,
      "tÃłkÃ¬": 4298,
      "ĠIII": 4299,
      "ĠÃģf": 4300,
      "eman": 4301,
      "ki.": 4302,
      "Ġ|-": 4303,
      "âĢĻa": 4304,
      "áĬĵáĬķ": 4305,
      "Ġzaman": 4306,
      "ĠFizikia": 4307,
      "arch": 4308,
      "ĠNÃŃ": 4309,
      "Ġcons": 4310,
      "áĭĭáĬĵ": 4311,
      "ĠáĬłáĪĺáīµ": 4312,
      "ĠolÃº": 4313,
      "unifÃ¡": 4314,
      "Ġlambar": 4315,
      "Ġáĭ¨áī£": 4316,
      "Ġjagor": 4317,
      "ĠáĬĲáĮĪáĪ®áī½": 4318,
      "ĠFaransa": 4319,
      "Ġidadi": 4320,
      "Ita": 4321,
      "Ġcal": 4322,
      "ĠHot": 4323,
      "Ġhukuma": 4324,
      "áĪģáĬķ": 4325,
      "ĠKiingereza": 4326,
      "áī´áĭİáĪµ": 4327,
      "h,": 4328,
      "Ġ(E": 4329,
      "Ġvo": 4330,
      "Ġfilm": 4331,
      "ĠCent": 4332,
      "Ġá¹¢": 4333,
      "áĬ¸": 4334,
      "Ġayyukan": 4335,
      "Ġsani": 4336,
      "Ġáīłáĭį": 4337,
      "ely": 4338,
      "Ġkarkashin": 4339,
      "Ġáī¢áĪĨáĬķ": 4340,
      "amad": 4341,
      "||": 4342,
      "-B": 4343,
      "ĠáĭĺáĪŃ": 4344,
      "julikana": 4345,
      "Ġ0": 4346,
      "ĠÃģfrÃŃkÃł": 4347,
      "my": 4348,
      "ĠáĭŃáĪĺáĪµ": 4349,
      "Ġkazi": 4350,
      "áī»áī¸áĭį": 4351,
      "Ġáĭ¨áĪĽáĭŃ": 4352,
      "atikana": 4353,
      "dá»įÌģ": 4354,
      "Ġmá»į": 4355,
      "Ãªme": 4356,
      "score0": 4357,
      "Ð°": 4358,
      "ĠfranÃ§a": 4359,
      "alu": 4360,
      "ĠKati": 4361,
      "Ġjari": 4362,
      "Ġá»įÌĢrá»įÌĢ": 4363,
      "áĮĪáĭ°": 4364,
      "keo": 4365,
      "Ġáĭ«áĪħáĪį": 4366,
      "yansi": 4367,
      "ĠáĭŃáĮĪáĬĽáĪįáį¢": 4368,
      "kw": 4369,
      "Ġasa": 4370,
      "ancin": 4371,
      "áĪĤ": 4372,
      "ĠRay": 4373,
      "ĠáĭŃáĪħáĪĿ": 4374,
      "ĠAbdul": 4375,
      "Ġten": 4376,
      "Ġapa": 4377,
      "ĠMarch": 4378,
      "ĠSaint": 4379,
      "Ġ(s": 4380,
      "áīłáĬł": 4381,
      "Ġáįª": 4382,
      "ye-": 4383,
      "ĠAdÃ©": 4384,
      "ĠAir": 4385,
      "Ġ(L": 4386,
      "Ġhak": 4387,
      "bÃłdÃłn": 4388,
      "Ġbang": 4389,
      "Ġidi": 4390,
      "ilar": 4391,
      "ĠáĪ¦": 4392,
      "Ġpres": 4393,
      "ĠáĭŃáĪĨ": 4394,
      "ĠáīłáĪĻ": 4395,
      "ĠáĭµáĪŃáĮħ": 4396,
      "Ar": 4397,
      "Ġpos": 4398,
      "ĠDu": 4399,
      "ĠPo": 4400,
      "ĠDel": 4401,
      "Ġá¹£Ã¹gbá»įÌģn": 4402,
      "ĠÃ²á¹£erÃ©": 4403,
      "Ġinto": 4404,
      "ci,": 4405,
      "yyun": 4406,
      "faffun": 4407,
      "Ġfe": 4408,
      "iti": 4409,
      "ubli": 4410,
      "Ġlar": 4411,
      "Ġwat": 4412,
      "áįĶ": 4413,
      "umma": 4414,
      "áĮłáĭį": 4415,
      "Ġkayan": 4416,
      "Ġasalin": 4417,
      "ongozi": 4418,
      "áī·áĪįáį¢": 4419,
      "Ġaut": 4420,
      "tp://www.": 4421,
      "91": 4422,
      "Ġdali": 4423,
      "kiwa": 4424,
      "Ġchi": 4425,
      "Itokasi": 4426,
      "pÃ¹": 4427,
      "gbÃ¬": 4428,
      "ĠFasihi": 4429,
      "áĮĢáĪŃáĪĺáĬķ": 4430,
      "kand": 4431,
      "ondo": 4432,
      "ĠáĬ¡": 4433,
      "Ġkn": 4434,
      "áĪĺáĮ£": 4435,
      "ĠáĬ¥áĬĲ": 4436,
      "tokea": 4437,
      "áĬ¥áĬķáĮįáĪĬáĭĿáĬĽ": 4438,
      "Ġsunan": 4439,
      "tomon": 4440,
      "tÃ¡": 4441,
      "ĠnÃ¬": 4442,
      "ÃŃnÃŃ": 4443,
      "ko,": 4444,
      "Ġmalla": 4445,
      "ĠáĪĺáĮĢáĪĺáĪŃáĭ«": 4446,
      "Ġlu": 4447,
      "ĠAlÃ¡": 4448,
      "ĠRoma,": 4449,
      "yika": 4450,
      "ĠAcadem": 4451,
      "-áĬł": 4452,
      "ĠáĭŃáĭĺ": 4453,
      "áįĪáĮ¥": 4454,
      "sin": 4455,
      "arab": 4456,
      "Ġmn": 4457,
      "ĠUganda": 4458,
      "ĠÃłgbÃ©lÃ©wÃ²": 4459,
      "Ġbisa": 4460,
      "ĠáĪĿáĬķáĪĿ": 4461,
      "0,000": 4462,
      "ĠáĪĿáĬķáĮ®áī½": 4463,
      "Vi": 4464,
      "ĠPl": 4465,
      "ĠTari": 4466,
      "Ġnau": 4467,
      "ÃºsÃ¹": 4468,
      "Ġiá¹£": 4469,
      "ĠSun": 4470,
      "ĠáīłáĪ½": 4471,
      "Ġkifo": 4472,
      "arci": 4473,
      "chni": 4474,
      "Ġkwallon": 4475,
      "áĪĽáĬĸáīµ": 4476,
      "âĢĻar": 4477,
      "ĠAmerika.": 4478,
      "áĪ·": 4479,
      "áĬķáĭ±": 4480,
      "áĪĺáĪ°": 4481,
      "áĪĭáĪ´": 4482,
      "ĠáĪĿáĪŃ": 4483,
      "Ġáĭĭáī¢": 4484,
      "kur": 4485,
      "ĠGir": 4486,
      "As": 4487,
      "Ġ185": 4488,
      "áĬķáĭ°": 4489,
      "ĠKananan": 4490,
      "ences": 4491,
      "ĠáĪł": 4492,
      "Ġnada": 4493,
      "ĠnÃŃtorÃŃ": 4494,
      "ation.": 4495,
      "ĠNaijiria.": 4496,
      "ĠAbi": 4497,
      "áĮĪáĪį": 4498,
      "Ġáĭ¨áĬ«": 4499,
      "Ġáĭ¨áī°áĪ°": 4500,
      "huwar": 4501,
      "ĠáĭŃáĪħáĬķ": 4502,
      "áĬ¥áĬķáĭ°": 4503,
      "Ġ(R": 4504,
      "ĠPi": 4505,
      "ĠOri": 4506,
      "ĠAwards": 4507,
      "Ġojo": 4508,
      "ĠalÃłÃł": 4509,
      "Ġshirin": 4510,
      "Ġbiashara": 4511,
      "gbÃ¡yÃ©": 4512,
      "ĠalÃłÃłyÃ¨": 4513,
      "ID": 4514,
      "sÃ³": 4515,
      "Ġaussi": 4516,
      "Ġused": 4517,
      "Ġdari": 4518,
      "Ġgo": 4519,
      "Ġ2.": 4520,
      "ĠDola": 4521,
      "·áį": 4522,
      "Ġkara": 4523,
      "áĬŃáĪŃ": 4524,
      "áīłáĪĪ": 4525,
      "Ġreli": 4526,
      "ĠKudu": 4527,
      "Ġtsohon": 4528,
      "S.": 4529,
      "ania.": 4530,
      "elles": 4531,
      "ages": 4532,
      "yÃłwÃ³": 4533,
      "ĠpÃłtÃłkÃ¬": 4534,
      "Ġcor": 4535,
      "Ġkuhusu": 4536,
      "ĠáĪĺáĪĨáĬĳ": 4537,
      "Ġambao": 4538,
      "hÃłn": 4539,
      "wá»įÌĢn": 4540,
      "ĠJu": 4541,
      "tr": 4542,
      "Ġyabo": 4543,
      "á»ĮÌĢ": 4544,
      "áīłáĪĺ": 4545,
      "Ġ2013": 4546,
      "gent": 4547,
      "káº¹Ìģ": 4548,
      "hem": 4549,
      "iya": 4550,
      "anisha": 4551,
      "isto": 4552,
      "Ġyote": 4553,
      "Ġhata": 4554,
      "ĠRu": 4555,
      "ĠáĮ½áĪĳ": 4556,
      "ĠáĪĽáĪŃáīĨ": 4557,
      "ĠAsi": 4558,
      "anti": 4559,
      "badi": 4560,
      "arai": 4561,
      "ourn": 4562,
      "Ġ2,": 4563,
      "ĠLondon": 4564,
      "sent": 4565,
      "Ġede": 4566,
      "Ġnjia": 4567,
      "yayyun": 4568,
      "Ġciki": 4569,
      "ĠÃ¬bÃŃláº¹ÌĢ": 4570,
      "ĠKanisa": 4571,
      "istory": 4572,
      "Ġ2003": 4573,
      "Ġsim": 4574,
      "himu": 4575,
      "ĠáĪ¥áĪŃáĭĪ": 4576,
      "1892": 4577,
      "ĠkÃ¬": 4578,
      "endo": 4579,
      "ĠZa": 4580,
      "35": 4581,
      "mer": 4582,
      "ĠáĪµáĪĻ": 4583,
      "Ã¨me": 4584,
      "Ġ2005": 4585,
      "6-": 4586,
      "ĠáĮłáĪ": 4587,
      "ĠáĪĺáĭµ": 4588,
      "áĭ³áĪŃ": 4589,
      "ĠKiswahili": 4590,
      "ĠáĪłáĪ«": 4591,
      "ford": 4592,
      "ji,": 4593,
      "tudi": 4594,
      "ĠdÃł": 4595,
      "Ġyo": 4596,
      "ari,": 4597,
      "ĠáĬħ": 4598,
      "áĭ¨áĪ±": 4599,
      "Ġ'yar": 4600,
      "Ġ'Yan": 4601,
      "Ġsous": 4602,
      "ĠAll": 4603,
      "Ġ(n": 4604,
      "áĭ¨áĪĿ": 4605,
      "huo": 4606,
      "Ġáĭ°áĪ´": 4607,
      "Ġmasa": 4608,
      "el,": 4609,
      "cer": 4610,
      "ĠáĪĤ": 4611,
      "onge": 4612,
      "Ġcer": 4613,
      "Ġjerin": 4614,
      "ĠáĬłáĪ³": 4615,
      "ĠØ§": 4616,
      "ĠnÃ¡Ãł,": 4617,
      "Ġá»ĮdÃºn": 4618,
      "-áº¹ÌĢyáº¹": 4619,
      "-a": 4620,
      "ĠÃ©tÃ©": 4621,
      "áĬĵáĭĬ": 4622,
      "ler": 4623,
      "áĪĭáĪĽ": 4624,
      "Ġáĭ¨áĪ¥": 4625,
      "ĠáĪĿáĪįáĬŃ": 4626,
      "Ġvisiwa": 4627,
      "ji.": 4628,
      "Ġláº¹Ìģ": 4629,
      "ĠIle": 4630,
      "rent": 4631,
      "AN": 4632,
      "Ġáį¤": 4633,
      "áĭļáĪģ": 4634,
      "phy": 4635,
      "áįĪáĪ¨áĬķáĪ³áĭŃ": 4636,
      "ĠISBN": 4637,
      "hal": 4638,
      "Ġmace": 4639,
      "asaha": 4640,
      "ĠGeorge": 4641,
      "áĪ¡": 4642,
      "ĠMov": 4643,
      "fáº¹ÌĢ": 4644,
      "bakar": 4645,
      "ĠáĪĺáĪª": 4646,
      "ĠáĭŃáĪ°": 4647,
      "ĠHistoria": 4648,
      "ĠolÃ³á¹£Ã¨lÃº": 4649,
      "ká»įÌĢwÃ©": 4650,
      "Ġmajalisar": 4651,
      "Ġosere": 4652,
      "Ġá»įÌĢpá»įÌĢlá»įpá»įÌĢ": 4653,
      "iran": 4654,
      "áĪ¯": 4655,
      "ĠáĬĴ": 4656,
      "ĠáĬĸ": 4657,
      "ĠáĭĪáĪ¨áĭ³": 4658,
      "ĠáĭĪáĮĪáĬķ": 4659,
      "ĠáĬłáĪĪáīĥ": 4660,
      "ĠdÃº": 4661,
      "Ġlanguage": 4662,
      "row": 4663,
      "fika": 4664,
      "Ġkusa": 4665,
      "198": 4666,
      "ĠMungu": 4667,
      "Ġmasana": 4668,
      "áĭķáĪį": 4669,
      "áĪłáĪ«": 4670,
      "ĠYamma": 4671,
      "ĠKya": 4672,
      "Ġnombre": 4673,
      "overnment": 4674,
      "Ġpi": 4675,
      "Ġtak": 4676,
      "ĠLo": 4677,
      "ĠÎ": 4678,
      "Ġafter": 4679,
      "ĠáĮħ": 4680,
      "da.": 4681,
      "Ġrais": 4682,
      "ĠMusulunci": 4683,
      "Ġuti": 4684,
      "Ġfait": 4685,
      "wÃ¹": 4686,
      "ĠAwá»įn": 4687,
      "rahim": 4688,
      "Ġnyingine": 4689,
      "dent": 4690,
      "Ġyara": 4691,
      "ĠáĬłáĪ¸": 4692,
      "Ġkaratu": 4693,
      "Ġkawaida": 4694,
      "Ġnam": 4695,
      "sai": 4696,
      "áĪĪáī½áį¢": 4697,
      "gbara": 4698,
      "Ġoffi": 4699,
      "ĠáĭķáĪĪ": 4700,
      "ĠAustra": 4701,
      "entomon": 4702,
      "ĠÃ¬l": 4703,
      "ĠapÃ¡": 4704,
      "ĠPas": 4705,
      "áĭĳ": 4706,
      "Ġdini": 4707,
      "áī¶áī½áĬķ": 4708,
      "ĠáĪ´áīµ": 4709,
      "ĠMutane": 4710,
      "Un": 4711,
      "ĠowÃ³": 4712,
      "ĠKongo": 4713,
      "ĠGÃ³mÃ¬nÃł": 4714,
      "Ġmbili": 4715,
      "Ġáĭ¨áĭĺ": 4716,
      "ĠáĬłáĮ¥": 4717,
      "áĮįáī¥áĮ½": 4718,
      "ĠLes": 4719,
      "ĠPeople": 4720,
      "gá»įÌģ": 4721,
      "dÃŃnlÃ³gÃºn": 4722,
      "Ġsc": 4723,
      "ista": 4724,
      "áĪĺáĪ«": 4725,
      "áĮĪáī¥": 4726,
      "Ġáī³áĭĭáīĤ": 4727,
      "Ġáīłáī°áĪĪáĭŃ": 4728,
      "unge": 4729,
      "ĠSp": 4730,
      "ĠáĪº": 4731,
      "ĠáĬ¥áĭį": 4732,
      "ĠIjoba": 4733,
      "áĮĪáīł": 4734,
      "Ġzote": 4735,
      "áĭ²áĪħ": 4736,
      "áĬ®áī½": 4737,
      "Ġif": 4738,
      "ĠEs": 4739,
      "ouv": 4740,
      "let": 4741,
      "ĠKil": 4742,
      "ĠTan": 4743,
      "-K": 4744,
      "áĮ¦áĪŃ": 4745,
      "ĠáīłáĪĮ": 4746,
      "Ġbahari": 4747,
      "ĠáĬŃáįįáĪĭ": 4748,
      "ĠApril": 4749,
      "ĠHaifaffun": 4750,
      "Ġn.k.": 4751,
      "Ġmap": 4752,
      "Ġrel": 4753,
      "ĠSud": 4754,
      "Ġzi": 4755,
      "yal": 4756,
      "ĠáīłáĮ¥": 4757,
      "day": 4758,
      "áĪ°áĬķ": 4759,
      "ĠáĬłáĭŃáĭ°": 4760,
      "It": 4761,
      "Ġonimo": 4762,
      "ky": 4763,
      "On": 4764,
      "ĠMart": 4765,
      "kumbu": 4766,
      "ando": 4767,
      "ĠEnglish": 4768,
      "Ġmost": 4769,
      "ĠBBC": 4770,
      "stitu": 4771,
      "Ã¼": 4772,
      "Ä«": 4773,
      "Ġilimin": 4774,
      "alÃ¡Ã¬sÃŃ": 4775,
      "áĬ¹": 4776,
      "ĠáĬłáĭ°": 4777,
      "arautar": 4778,
      "áĪ³áī¸áĭį": 4779,
      "ĠKemia": 4780,
      "sition": 4781,
      "Ġmwanamuziki": 4782,
      "ĠwaÉĹanda": 4783,
      "ubu": 4784,
      "ĠHer": 4785,
      "Ġtwo": 4786,
      "Ã¨res": 4787,
      "ital": 4788,
      "90": 4789,
      "ye.": 4790,
      "ĠáīĢáĮ¥": 4791,
      "-Ãºn": 4792,
      "lem": 4793,
      "darÃŃ": 4794,
      "ĠBal": 4795,
      "ties": 4796,
      "ĠáīłáĪģ": 4797,
      "chumi": 4798,
      "áįĪáĪµ": 4799,
      "áĪķáĪŃ": 4800,
      "Ġmagharibi": 4801,
      "Ġ2018": 4802,
      "áįĳ": 4803,
      "áĪĺáī±": 4804,
      "áĪ¨áī¥": 4805,
      "áĮ¥áĪ¨": 4806,
      "tal": 4807,
      "Ġer": 4808,
      "Ġnu": 4809,
      "orÃŃ": 4810,
      "Ġ1999": 4811,
      "áĭµáĪ¨áĮį": 4812,
      "ĠOpen": 4813,
      "Ġgen": 4814,
      "ĠáĪ»": 4815,
      "áįĪáīµ": 4816,
      "áĪĿáĪħáĪŃ": 4817,
      "burg": 4818,
      "ĠáĬ¥áĬķáĮįáĪĬáĭĿ": 4819,
      "Awon": 4820,
      "Ġkun": 4821,
      "Ġ2016": 4822,
      "Ġfit": 4823,
      "ģáĬĳ": 4824,
      "áĮłáĪ©": 4825,
      "ĠáĬłáĮĪáĪįáĮį": 4826,
      "Na": 4827,
      "ila": 4828,
      "ide": 4829,
      "vir": 4830,
      "ĠJames": 4831,
      "yana": 4832,
      "ĠHo": 4833,
      "Ġkut": 4834,
      "áĪ¨áĮĭ": 4835,
      "Ġhudu": 4836,
      "tumia": 4837,
      "ĠáĬ¥áĭ¨áī°": 4838,
      "Ġsome": 4839,
      "ilia": 4840,
      "Ġcette": 4841,
      "irÃŃ": 4842,
      "ĠÃ¬á¹£": 4843,
      "ĠAsia": 4844,
      "á¹£áº¹ÌĢláº¹ÌĢ": 4845,
      "haa": 4846,
      "áĮłáĬĵ": 4847,
      "kunan": 4848,
      "Ġmagana": 4849,
      "Ġhaifi": 4850,
      "jÃ³": 4851,
      "ines": 4852,
      "eph": 4853,
      "ÆĻa": 4854,
      "ather": 4855,
      "/)": 4856,
      "ĠHukum": 4857,
      "Awá»įn": 4858,
      "gram": 4859,
      "áĬĹ": 4860,
      "ĠkÃł": 4861,
      "Ġegbe": 4862,
      "sÃŃtÃ¬": 4863,
      "ĠRayayyun": 4864,
      "ĠEurope": 4865,
      "unt": 4866,
      "ĠSw": 4867,
      "ĠFI": 4868,
      "ĠPaul": 4869,
      "ante": 4870,
      "âĢº": 4871,
      "75": 4872,
      "Ġfarkon": 4873,
      "stit": 4874,
      "ĠKaskazini": 4875,
      "Ġhalarci": 4876,
      "DP": 4877,
      "arly": 4878,
      "ject": 4879,
      "Â²": 4880,
      "ĠÃ¬dÃ¡": 4881,
      "196": 4882,
      "kiti": 4883,
      "ĠBritish": 4884,
      "aria": 4885,
      "yama": 4886,
      "ĠáĬ¥áĬĲáĭļáĪħ": 4887,
      "áĭ°áĮį": 4888,
      "Ġmwenye": 4889,
      "áĬĥ": 4890,
      "ĠHen": 4891,
      "chn": 4892,
      "the": 4893,
      "ĠÃłÃł": 4894,
      "Ġkáº¹rin": 4895,
      "áī£áĭĬ": 4896,
      "ĠÃĮbÃłdÃłn": 4897,
      "ctions": 4898,
      "onde": 4899,
      "áį²áį": 4900,
      "Ġshuga": 4901,
      "ĠlÃ²": 4902,
      "ĠáĪĽáī´áĭİáĪµ": 4903,
      "Ġnew": 4904,
      "Ġharshen": 4905,
      "Ġsou": 4906,
      "ĠTai": 4907,
      "Ġvol": 4908,
      "ĠLib": 4909,
      "´áį": 4910,
      "ĠáĬ¬": 4911,
      "áī½áĭį": 4912,
      "ĠáĪµáīµ": 4913,
      "ĠYan": 4914,
      "Ġáĭįáĭµ": 4915,
      "áĪ±áĪĿ": 4916,
      "Tana": 4917,
      "Ġ(a": 4918,
      "yd": 4919,
      "ĠNchi": 4920,
      "ĪáĪĿ": 4921,
      "Ġáĭ´": 4922,
      "Ġpwani": 4923,
      "us.": 4924,
      "áĮĭáĪį": 4925,
      "ÙĲ": 4926,
      "stru": 4927,
      "lar": 4928,
      "ĠgÃ©n": 4929,
      "itin": 4930,
      "ga,": 4931,
      "kiri": 4932,
      "Ġs'": 4933,
      "Ġcutar": 4934,
      "ĠáĪĺáĬĲ": 4935,
      "Ġwakil": 4936,
      "Ġrubuta": 4937,
      "ĠáĭķáĪĪáī³áīµ": 4938,
      "Ġndi": 4939,
      "ambu": 4940,
      "Ġnum": 4941,
      "Ġgbe": 4942,
      "ĠJuly": 4943,
      "anna": 4944,
      "áĪŃáĭ«áĪĿ": 4945,
      ")áį£": 4946,
      "ĠáĪĺáĭĿ": 4947,
      "áĪ«áĪīáį¢": 4948,
      "ĠdÃ©c": 4949,
      "Ġlokaci": 4950,
      "Ġtarihi": 4951,
      "-R": 4952,
      "vis": 4953,
      "Agbegbe": 4954,
      "ĠMusa": 4955,
      "ĠMkoa": 4956,
      "áĭ¨áĬł": 4957,
      "Ġráº¹ÌĢ,": 4958,
      "ĠKiarabu": 4959,
      "Ġgwamnatin": 4960,
      "yp": 4961,
      "Ġ(W": 4962,
      "ĠHan": 4963,
      "34": 4964,
      "Ġmore": 4965,
      "Ġáį³áį": 4966,
      "áįĵáĬķ": 4967,
      "gon": 4968,
      "Ġigb": 4969,
      "Ġá»įba": 4970,
      "Ġakoko": 4971,
      "ye,": 4972,
      "CO": 4973,
      "ĠPr": 4974,
      "ĠFM": 4975,
      "ĠWaz": 4976,
      "Ġnipa": 4977,
      "áº¹ÌĢáº¹ÌģsÃ¬": 4978,
      "ĠilÃ©-iá¹£áº¹Ìģ": 4979,
      "ĠWe": 4980,
      "Ġbinc": 4981,
      "áĮĪáĭį": 4982,
      "ataifa": 4983,
      "ĠáĮ¥áĬķáī³áĭĬ": 4984,
      "cience": 4985,
      "berg": 4986,
      "ÃºÃºsÃ¹": 4987,
      "upe": 4988,
      "Ġkisiwa": 4989,
      "ĠWas": 4990,
      "ĠIbile": 4991,
      "wiki": 4992,
      "atri": 4993,
      "ĠáīĢáĬĵáīµ": 4994,
      "tical": 4995,
      "Ġmad": 4996,
      "Ġover": 4997,
      "Ġbet": 4998,
      "ĠVol": 4999,
      "áĮĪáĪª": 5000,
      "Ġáĭ¨áĪĻ": 5001,
      "ĠáĬłáĪģáĬķ": 5002,
      "áĭ®áĪŃ": 5003,
      "ĠMarejeo": 5004,
      "Ġzamani": 5005,
      "Ġabubu": 5006,
      "Ka": 5007,
      "ĠWá»įÌģn": 5008,
      "Ġmet": 5009,
      "Ġpart": 5010,
      "zil": 5011,
      "ales": 5012,
      "áĪĽáī½": 5013,
      "áĭ³áĪĿ": 5014,
      "áĪ©áīµ": 5015,
      "Éĵa": 5016,
      "Ġont": 5017,
      "Ġáº¹ÌĢyáº¹": 5018,
      "Ġnon": 5019,
      "Ġiwe": 5020,
      "kÃ©": 5021,
      "ĠáĭĵáĪĪáĪĿ": 5022,
      "Ġ1960": 5023,
      "ĠáīłáĬłáĬķáĭµ": 5024,
      "Ġcommun": 5025,
      "Ġpili": 5026,
      "ĠAdam": 5027,
      "ĠØ§ÙĦ": 5028,
      "ption": 5029,
      "omb": 5030,
      "Ġinf": 5031,
      "papá»įÌĢ": 5032,
      "ĠMakar": 5033,
      "áĭ®áĪµ": 5034,
      "áĪ»áĭİáī½": 5035,
      "áī»áĭŃáĬĵ": 5036,
      "ĠYoruba": 5037,
      "ĠáĪŀáīµ": 5038,
      "áĪŃáĪµáī²áĭ«": 5039,
      "ĠáįĵáĪŃáī²": 5040,
      "Har": 5041,
      "ĠsÃ©": 5042,
      "ĠTra": 5043,
      ".,": 5044,
      "ĠAba": 5045,
      "Ġshirya": 5046,
      "Tarehe": 5047,
      "48": 5048,
      "ule": 5049,
      "Ġ()": 5050,
      "ĠSara": 5051,
      "ĠCal": 5052,
      "Ġ2017": 5053,
      "xt": 5054,
      "Ġneman": 5055,
      "áįĦ": 5056,
      "ĠSc": 5057,
      "áĪĽáĪŃ": 5058,
      "Ġba,": 5059,
      "ĠáĭĪáĪ¨": 5060,
      "áĭĪáĪŃ": 5061,
      "áįĪáĪĪ": 5062,
      "ĠKwalejin": 5063,
      "ojÃº": 5064,
      "Ġdont": 5065,
      "yáº¹yáº¹": 5066,
      "37": 5067,
      "mÃ©": 5068,
      "alth": 5069,
      "Ġ202": 5070,
      "Ġáīłáīµ": 5071,
      "ĠBay": 5072,
      "áī³áī¸áĭįáĬķ": 5073,
      "ĠYe": 5074,
      "und)": 5075,
      "ĠáĬłáĬķáĭ³": 5076,
      "dinin": 5077,
      "''": 5078,
      "ĠtÃŃtÃŃ": 5079,
      "áĪĵ": 5080,
      "áĪĪáī¥": 5081,
      "Ġthey": 5082,
      "36": 5083,
      "tit": 5084,
      "lie": 5085,
      "Ġcap": 5086,
      "AS": 5087,
      "ĠlÃ¡báº¹Ìģ": 5088,
      "Ġ2009": 5089,
      "ĠÃłká»įÌģlÃ©": 5090,
      "ĠáĪĺáĬķáĮįáĪµáīµ": 5091,
      "ĠNijar": 5092,
      "ĠNigeria.": 5093,
      "ĠDemoc": 5094,
      "hindi": 5095,
      "ĠBorn": 5096,
      "ĠÃ©ta": 5097,
      "Ã¶": 5098,
      "riban": 5099,
      "Ġtofauti": 5100,
      "Ġmashariki": 5101,
      "Ġá»įjá»įÌģalÃ¡Ã¬sÃŃ": 5102,
      "Ã¤": 5103,
      "Ã¯": 5104,
      "Ġ(;": 5105,
      "ĠdÃ©part": 5106,
      "ĠGuine": 5107,
      "aso": 5108,
      "ĠAbuja": 5109,
      "gani": 5110,
      "áĮ¹": 5111,
      "Ġdhidi": 5112,
      "ĠMic": 5113,
      "áī£áĪŃ": 5114,
      "áĭ¨áĪ±áĪµ": 5115,
      "Ġag": 5116,
      "ĠÃ¬f": 5117,
      "adin": 5118,
      "Ġwá»įn.": 5119,
      "ĠAcademy": 5120,
      "ings": 5121,
      "Tangu": 5122,
      "to,": 5123,
      "ĠáĬ¥áĬķáĪµ": 5124,
      "Ġzaben": 5125,
      "Ġáī¥áĪĪáĭį": 5126,
      "Ġáĭ°áī¡áī¥": 5127,
      "Ġila": 5128,
      "ateur": 5129,
      "á»įÌģá»įÌĢlÃ¹": 5130,
      "Ġsasa": 5131,
      "Ġpre": 5132,
      "áĪįáĭ°": 5133,
      "Ġrashin": 5134,
      "ĠJune": 5135,
      "bihi": 5136,
      "ÆĻin": 5137,
      "ĠÆĻungiyar": 5138,
      "Ġitace": 5139,
      "Ġpekee": 5140,
      "amaduni": 5141,
      "kam": 5142,
      "ĠTim": 5143,
      "Ġbai": 5144,
      "sá»į": 5145,
      "Ġprop": 5146,
      "ĠgboyÃ¨": 5147,
      "áį¡áĭ¨": 5148,
      "Ġsuch": 5149,
      "irefu": 5150,
      "ĠAbubakar": 5151,
      "ĠAnnabi": 5152,
      "zing": 5153,
      "Ġ2015,": 5154,
      "fs": 5155,
      "ĠyÃłn": 5156,
      "Ġ--": 5157,
      "ĠGwamn": 5158,
      "á»įÌĢkan": 5159,
      "bijin": 5160,
      "Ġá»Įjá»įÌģ": 5161,
      "Ġáĭ¨áĬĲáīłáĪ¨áĭį": 5162,
      "\")": 5163,
      "ctor": 5164,
      "áīº": 5165,
      "áĪĮáĬŃáīµ": 5166,
      "istr": 5167,
      "ĠáĭµáĪĿ": 5168,
      "ĠáįĪáĪŃáĭĸ": 5169,
      "ĠtÃ¬": 5170,
      "tÃº": 5171,
      "Ġtala": 5172,
      "olution": 5173,
      "ĠGerman": 5174,
      "4-": 5175,
      "Ġindi": 5176,
      "áĭĭáīµ": 5177,
      "ikukuu": 5178,
      "Ġspe": 5179,
      "rÃ¹": 5180,
      "Ùı": 5181,
      "ĠJama": 5182,
      "Wannan": 5183,
      "áī¼": 5184,
      "li,": 5185,
      "áĮįáĬķ": 5186,
      "áĮįáĪį": 5187,
      "Ġbayar": 5188,
      "Ġ2008": 5189,
      "ĠáĬķáĮīáĪµ": 5190,
      "anzibar": 5191,
      "Ġkina": 5192,
      "ĠwÃ¡yÃ©": 5193,
      "mÃ²": 5194,
      "tÃºn": 5195,
      "áĪĭáĪīáį¢": 5196,
      "ĠáĬłáĬ«áĪį": 5197,
      "A)": 5198,
      "omina": 5199,
      "Ana": 5200,
      "ĠKÃ¡": 5201,
      "iriki": 5202,
      "lymp": 5203,
      "rika": 5204,
      "Láº¹ÌģyÃ¬n": 5205,
      "hÃ¬n": 5206,
      "Ġmjini": 5207,
      "ĠÃłp": 5208,
      "áī¥áĭĻ": 5209,
      "ĠÃ¬rÃ²yÃ¬n": 5210,
      "Ġibile": 5211,
      "Ġká»įÌģká»įÌģ": 5212,
      "ĠCharles": 5213,
      "Ġgege": 5214,
      "cis": 5215,
      "ĠEast": 5216,
      "ãĥ": 5217,
      "áĬ¨áĪ«": 5218,
      "Ġáĭ¨áĪļáĪį": 5219,
      "ĠáĪĨáĬĲáĭį": 5220,
      "áĮłáīĥáĪĭáĭŃ": 5221,
      "mai": 5222,
      "ĠIl": 5223,
      "Ġconsi": 5224,
      "ones": 5225,
      "kad": 5226,
      "Ġyaani": 5227,
      "áĬĲáīłáĪŃ": 5228,
      "Ġmulki": 5229,
      "jan": 5230,
      "Ġkid": 5231,
      "ĠTun": 5232,
      "Ġlá»į.": 5233,
      "Ð¸": 5234,
      "ĠLugha": 5235,
      "Ġhuo": 5236,
      "ments": 5237,
      "Ġmiji": 5238,
      "Ġáĭ¨áĪĿáīµ": 5239,
      "usta": 5240,
      "ĠyÃł": 5241,
      "hesa": 5242,
      "áī³áĭ°": 5243,
      "áĬ©áĪį": 5244,
      "ĠÆ´": 5245,
      "áĮłáīĢáĪĿ": 5246,
      "Ġoko": 5247,
      "ĠLove": 5248,
      "ce-": 5249,
      "ĠVer": 5250,
      "nam": 5251,
      "Ġpata": 5252,
      "áĪįáįį": 5253,
      "Ġáī°áĬĲ": 5254,
      "ictor": 5255,
      "áĪ©áĬķ": 5256,
      "ĠáĪ³áĭŃáĪĨáĬķ": 5257,
      "ĠTV": 5258,
      "Ġtiti": 5259,
      "ulani": 5260,
      "Ġ2004": 5261,
      "Kuna": 5262,
      "pti": 5263,
      "ii": 5264,
      "áĪįáį¡áį¡": 5265,
      "áĭ«áĭį": 5266,
      "ĠáĪĺáĮ»": 5267,
      "Ġdubu": 5268,
      "39": 5269,
      "Ġiá¹£áº¹": 5270,
      "ulture": 5271,
      "ĠFilm": 5272,
      "Ġmur": 5273,
      "dia": 5274,
      "Ġáīłáīħ": 5275,
      "ĠNuwa": 5276,
      "ĠáĬłáī£áĪį": 5277,
      "karar": 5278,
      "Ġato": 5279,
      "cÃ©": 5280,
      "mani": 5281,
      "rÃºn": 5282,
      "iláº¹ÌĢ": 5283,
      "ween": 5284,
      "ographi": 5285,
      "ĠMari": 5286,
      "ĠFir": 5287,
      "fasi": 5288,
      "ĠáĪĪáĭį": 5289,
      "ĠáĪĽáĪħ": 5290,
      "áĮłáįĭ": 5291,
      "áĪĦáĭµ": 5292,
      "Ġlitta": 5293,
      "Ġtarihin": 5294,
      "ĠáĬŃáĪįáĪį": 5295,
      "ĠPrin": 5296,
      "Ġ\"S": 5297,
      "Ġdunia": 5298,
      "ĠoyÃ¨": 5299,
      "Ġ2016,": 5300,
      "Ġ2017,": 5301,
      "Ġ2014,": 5302,
      "áī¬": 5303,
      "áĮ³": 5304,
      "áĪ«áĪµ": 5305,
      "Ġáĭ¨áī°áĪĪáĭ«áĭ©": 5306,
      "Ġáī³áĪĭáīħ": 5307,
      "Ġtsawon": 5308,
      "ĠMiji": 5309,
      "Ġvari": 5310,
      "Ġ1990": 5311,
      "tics": 5312,
      "ĠIsland": 5313,
      "31": 5314,
      "Manazarta": 5315,
      "ĠáĭĲ": 5316,
      "ĠáĬĳ": 5317,
      "Ġtattalin": 5318,
      "Ġáĭ¨áĭ°": 5319,
      "áĪįáīµ": 5320,
      "Ġgoma": 5321,
      "ĠUmoja": 5322,
      "Ġgaban": 5323,
      "Ġcibi": 5324,
      "ĠáĪĽáĪµáī³áĭĪ": 5325,
      "unifÃ¡sÃŃtÃ¬": 5326,
      "Ko": 5327,
      "hol": 5328,
      "Ġ2012,": 5329,
      "yer": 5330,
      "ĠJana": 5331,
      "Ġuk": 5332,
      "Ġ2011,": 5333,
      "ĠjÃ©": 5334,
      "ĠáīłáĬ¥áĬķáĮįáĪĬáĭĿáĬĽ": 5335,
      "isan": 5336,
      "urch": 5337,
      "ĠAtlan": 5338,
      "ĠKim": 5339,
      "sib": 5340,
      "âĢ¦": 5341,
      "This": 5342,
      "µáį": 5343,
      "Ġáĭ¨áĮĪ": 5344,
      "ĠáĬłáĭµ": 5345,
      "Ġkabisa": 5346,
      "Ġabout": 5347,
      "Wakati": 5348,
      "L'": 5349,
      "Ġmilli": 5350,
      "vision": 5351,
      "ĠOlÃº": 5352,
      "de.": 5353,
      "Ð¾": 5354,
      "áĪµáī±": 5355,
      "Ġhawa": 5356,
      "limu": 5357,
      "unin": 5358,
      "Ġbabbar": 5359,
      "chaguzi": 5360,
      "Ġpeut": 5361,
      "ĠdÃ©partement": 5362,
      "ráº¹Ìģ": 5363,
      "Ġgrand": 5364,
      "ing.": 5365,
      "tÃłgÃ©": 5366,
      "but": 5367,
      "ole": 5368,
      "ĠMor": 5369,
      "ĠOmo": 5370,
      "-n": 5371,
      "omas": 5372,
      "ross": 5373,
      "Ġknown": 5374,
      "rench": 5375,
      "ine,": 5376,
      "ĠáĪ©": 5377,
      "Ġáīłáĭļáĭ«": 5378,
      "Ġkwam": 5379,
      "áī²áĬķ": 5380,
      "anzishwa": 5381,
      "áĮłáĪį": 5382,
      "ĠáĪĢáĮĪáĪŃ": 5383,
      "sÃ¡ra": 5384,
      "liza": 5385,
      "dy": 5386,
      "ĠDavid": 5387,
      "yari": 5388,
      "ĠShuga": 5389,
      "ĠUS": 5390,
      "áīłáĪĮ": 5391,
      "áĮ¥áĬķáī³áĭĬ": 5392,
      "julo": 5393,
      "Ġser": 5394,
      "Ġrub": 5395,
      "Ã¨s": 5396,
      "Ġuni": 5397,
      "Ġ2019,": 5398,
      "jÃ¹": 5399,
      "umia": 5400,
      "ĠLou": 5401,
      "Ġ1980": 5402,
      "Ġtayi": 5403,
      "reat": 5404,
      "bukumbu": 5405,
      "Ġáĭ¨áī°áī£áĪĪáĭį": 5406,
      "ĠáĪ²áĪĨáĬķáį£": 5407,
      "Ġmuhimu": 5408,
      "Ġhankali": 5409,
      "Ġmwanasiasa": 5410,
      "ĠáĪĺáĪłáĪ¨áīµ": 5411,
      "cher": 5412,
      "jáº¹sÃ¡ra": 5413,
      "Ãºpá»įÌĢ": 5414,
      "Ġip": 5415,
      "áī°áĭĭáĪįáį¢": 5416,
      "Ġáĭ¨áĪĮ": 5417,
      "ĠáĭĻáĪªáĭ«": 5418,
      "Ġkin": 5419,
      "hai": 5420,
      "ball": 5421,
      "et,": 5422,
      "ĠMak": 5423,
      "Ġ180": 5424,
      "lisha": 5425,
      "ĠkmÂ²": 5426,
      "gÃ³": 5427,
      "ĠÃłgbÃ¡yÃ©": 5428,
      "yensi": 5429,
      "-Ã¬wÃ©": 5430,
      "áĪŃáĪĭáĬķáĭµ": 5431,
      "hairi": 5432,
      "áĪĭáĪī": 5433,
      "áī¶áī¹": 5434,
      "Ġkasashen": 5435,
      "ĠáĬ¥áĮħáĮį": 5436,
      "ĠYo": 5437,
      "Ġleur": 5438,
      "ĠIbrahim": 5439,
      "Ġaina": 5440,
      "C)": 5441,
      "Mji": 5442,
      "áĪŃáĮį": 5443,
      "ĠáĮĨ": 5444,
      "áĭŃáĬĲáīµ": 5445,
      "Ġma'a": 5446,
      "áĪ«áī¸áĭį": 5447,
      "áĬŃáĪĪ": 5448,
      "akini": 5449,
      "áī¨áĪŃ": 5450,
      "-s": 5451,
      "ped": 5452,
      "Ġgr": 5453,
      "ĠTs": 5454,
      "Ġder": 5455,
      "ĠáįĢ": 5456,
      "ĠGar": 5457,
      "hab": 5458,
      "Ġwurin": 5459,
      "Ġkuji": 5460,
      "ĠáĬłáĬĲ": 5461,
      "tokana": 5462,
      "áįįáĬĵ": 5463,
      "áĭĺáī¥": 5464,
      "áĪ±áĬķ": 5465,
      "olojia": 5466,
      "ĠWakristo": 5467,
      "Ġayáº¹yáº¹": 5468,
      "lá»įÌģgbá»įÌĢn": 5469,
      "Ġeff": 5470,
      "ubwa": 5471,
      "ĠBank": 5472,
      "ĠAwon": 5473,
      "Ġ(H": 5474,
      "al.": 5475,
      "ke,": 5476,
      "áĬ¨áĪŃ": 5477,
      "áĬ«áī£áī¢": 5478,
      "ĠMayu": 5479,
      "áĪİáĬķ": 5480,
      "áĪĥáĬķ": 5481,
      "ultur": 5482,
      "Ġgwamnati": 5483,
      "cs": 5484,
      "dai": 5485,
      "ĠKib": 5486,
      "Ġká»įkÃłn": 5487,
      "cul": 5488,
      "chard": 5489,
      "áĬĲáīłáĪ¨": 5490,
      "áĪªáī³": 5491,
      "te,": 5492,
      "ĠáĬ«áĪį": 5493,
      "Ġkimanin": 5494,
      "Ġkasuwanci": 5495,
      "tia": 5496,
      "Ġik": 5497,
      "ingia": 5498,
      "Ġ(1": 5499,
      "197": 5500,
      "Ġ(197": 5501,
      "tro": 5502,
      "ĠBri": 5503,
      "gain": 5504,
      "áº¸ÌĢ": 5505,
      "kut": 5506,
      "ĠSat": 5507,
      "Ġmwisho": 5508,
      "ets": 5509,
      "Se": 5510,
      "195": 5511,
      "ayÃ©": 5512,
      "Ġnasara": 5513,
      "Ġosu": 5514,
      "ire,": 5515,
      "áĬŃáĪŃáĪµáī²áĭ«áĬķ": 5516,
      "áĪīáĪĿ": 5517,
      "ĠáĮį.": 5518,
      "himman": 5519,
      "Ġmilioni": 5520,
      "kÃ¡láº¹ÌĢ": 5521,
      "Ġtemp": 5522,
      "com/": 5523,
      "wili": 5524,
      "Ġ%": 5525,
      "Ġ50": 5526,
      "ĠTurai": 5527,
      "sociation": 5528,
      "áī½áĪį": 5529,
      "áĮĪáĬĽ": 5530,
      "ĠáĪĺáĪ¨áĮĥ": 5531,
      "áī£áĪįáį¢": 5532,
      "ĠLÃ¡": 5533,
      "ĠáĪĽáĮ£": 5534,
      "áī²áĬŃ": 5535,
      "ĠáĭŃáī½áĪĭáĪįáį¢": 5536,
      "páº¹ÌĢ": 5537,
      "Ġâ": 5538,
      "ĠcrÃ©": 5539,
      "ister": 5540,
      "Ġipo": 5541,
      "ĠMaka": 5542,
      "ĠâĢĶ": 5543,
      "Ġkale": 5544,
      "ĠMy": 5545,
      "bi,": 5546,
      "Ġamb": 5547,
      "Ġ2002": 5548,
      "eld": 5549,
      "umla": 5550,
      "fuatana": 5551,
      "Ġjin": 5552,
      "ĠfÃ¬": 5553,
      "ĠJo": 5554,
      "Ġpartic": 5555,
      "gbÃ¬má»įÌĢ": 5556,
      "vin": 5557,
      "aman": 5558,
      "Ġwu": 5559,
      "ra,": 5560,
      "Ġá»Įba": 5561,
      "ĠFIFA": 5562,
      "áĭ«áĪµ": 5563,
      "biwa": 5564,
      "Ġcika": 5565,
      "ĠáĭŃáī³áĭĪáīĥáĪįáį¢": 5566,
      "cia": 5567,
      "ĠBib": 5568,
      "losop": 5569,
      "Ø¨": 5570,
      "limi": 5571,
      "ĠMil": 5572,
      "Ġ184": 5573,
      "ĠArt": 5574,
      "ĠpÃłÃ¡": 5575,
      "Ġá»įÌĢnÃł": 5576,
      "NÃŃgbÃł": 5577,
      "áĪŃ-": 5578,
      "Ġwork": 5579,
      "áĪ³áī°": 5580,
      "Ġáī°áįĪ": 5581,
      "ĠáĭŃáĭĪ": 5582,
      "ĠáĭŃáī»": 5583,
      "ĠáīłáĪį": 5584,
      "Ġ3.": 5585,
      "áĪĪáī°áĬĽáĭį": 5586,
      "=\"": 5587,
      "Ġrap": 5588,
      "uman": 5589,
      "Ġop": 5590,
      "ĠMw": 5591,
      "ĠáĪĺáĪĪ": 5592,
      "iá¹£áº¹": 5593,
      "áĬ½": 5594,
      "áĬĭáĪĭ": 5595,
      "ĠÃłjá»į": 5596,
      "ĠáĬ¥áĭµ": 5597,
      "ĠEmp": 5598,
      "Ġsupp": 5599,
      "pokeo": 5600,
      "ĠáĬ¥áĬķáĭ°áĪĨáĬĲ": 5601,
      "áĪ²áĬķ": 5602,
      "Ġmilima": 5603,
      "ibiyar": 5604,
      "ĠÆ³": 5605,
      "ÃĴun": 5606,
      "fÃ©r": 5607,
      "olowo": 5608,
      "Â°": 5609,
      "tali": 5610,
      "ĠUk": 5611,
      "áĬ¾": 5612,
      "Ġdawo": 5613,
      "Ġmaana": 5614,
      "ĠYoh": 5615,
      "Ġáĭ¨áĪĨáĬĳ": 5616,
      "Ġal'ad": 5617,
      "Ġáĭ©áĬĴ": 5618,
      "ye-shi": 5619,
      "yáº¹ÌĢ": 5620,
      "ĠOlu": 5621,
      "ĠÃ²á¹£Ã¨lÃº": 5622,
      "ĠmÃªme": 5623,
      "Ġwhen": 5624,
      "bawa": 5625,
      "amawa": 5626,
      "ĠÃª": 5627,
      "Ġ(\"": 5628,
      "Ġhili": 5629,
      "Ġkuu": 5630,
      "áī¥áĪĬáĬŃ": 5631,
      "ĠWatu": 5632,
      "Ġáĭ«áĪī": 5633,
      "Ġsakand": 5634,
      "Ġkumbukumbu": 5635,
      "bara": 5636,
      "fara": 5637,
      "Ġjá»į": 5638,
      "Ġhim": 5639,
      "hilosop": 5640,
      "ĠSala": 5641,
      "Ġsaur": 5642,
      "ar,": 5643,
      "áĬķáĮ«": 5644,
      "Ġáĭ¨áĪĭ": 5645,
      "Ġwrit": 5646,
      "áīłáĭį": 5647,
      "áīłáĬĽ": 5648,
      "Ġáī°áīĭ": 5649,
      "áīĥáĪį": 5650,
      "áįĵáĬķáĭ«": 5651,
      "Ġáīłáĭ°áī¡áī¥": 5652,
      "ers.": 5653,
      "Ġ31": 5654,
      "orth": 5655,
      "aro": 5656,
      "áĭ«áĭ«": 5657,
      "ĠSy": 5658,
      "áĭ¨áĭį": 5659,
      "Ġlilikuwa": 5660,
      "-daban": 5661,
      "ĠBenin": 5662,
      "eu": 5663,
      "ful": 5664,
      "ĠVal": 5665,
      "Ġemp": 5666,
      "áĬ¡": 5667,
      "ĠdÃ¬": 5668,
      "Ġ(kwa": 5669,
      "Ġáīł18": 5670,
      "áĪĪáĭ°": 5671,
      "ĠáĪĺáĭĭ": 5672,
      "adhim": 5673,
      "ĠáĬ«áĪĮ": 5674,
      "wÃ²rÃ¡n": 5675,
      "onekana": 5676,
      "Ġdaban-daban": 5677,
      "ollow": 5678,
      "Ġ2016.": 5679,
      "bele": 5680,
      "ĠEnugu": 5681,
      "Ġainsi": 5682,
      "Ġidan": 5683,
      "ving": 5684,
      "Ġmirefu": 5685,
      "Ġnafasi": 5686,
      "ĠPop": 5687,
      "ĠFed": 5688,
      "áĬ«áĪį": 5689,
      "áĭĽáĪ¬": 5690,
      "over": 5691,
      "Ġwadda": 5692,
      "7-": 5693,
      "ĠÃłá¹£Ãł": 5694,
      "rÃŃwÃ¡": 5695,
      "ĠNÃłÃ¬jÃŃrÃŃÃł,": 5696,
      "van": 5697,
      "unda": 5698,
      "estiv": 5699,
      "ĠpÃ¡": 5700,
      "Ġami": 5701,
      "bÃ©": 5702,
      "áĮ¼": 5703,
      "Ġkungi": 5704,
      "ĠKasa": 5705,
      "áĬĲáī¶áī½": 5706,
      "ĠáĪĺáī¶": 5707,
      "áĭĪáīħ": 5708,
      "Ġáĭ¨áī°áĬŃáĪī": 5709,
      "áīģáĪŃ": 5710,
      "Ġmuda": 5711,
      "Ġajili": 5712,
      "ĠMos": 5713,
      "frika": 5714,
      "BÃŃ": 5715,
      "Ġ(ya": 5716,
      "ĠMer": 5717,
      "jÃ¡de": 5718,
      "á»įÌĢnÃ¹": 5719,
      "un,": 5720,
      "ed,": 5721,
      "ĠPak": 5722,
      "Ġleo": 5723,
      "ĠJapan": 5724,
      "Ġutilis": 5725,
      "1=": 5726,
      "ishin": 5727,
      "ĠáīłáĬ¨": 5728,
      "áĬĲáīµáĬķ": 5729,
      "ĠGold": 5730,
      "ĠFab": 5731,
      "-E": 5732,
      "já»įÌĢ": 5733,
      "táº¹ÌĢ": 5734,
      "ÙĴ": 5735,
      "Ġáĭ¨áįĸ": 5736,
      "áĭ¨áĪĺ": 5737,
      "Ġwalikuwa": 5738,
      "ĠMoham": 5739,
      "bunge": 5740,
      "ĠTanbihi": 5741,
      "jÃ©": 5742,
      "Ðµ": 5743,
      "ĠBello": 5744,
      "ware": 5745,
      "Ġnigba": 5746,
      "áī³áī½áĬķ": 5747,
      "áĭĺáĬķ": 5748,
      "áĪĬáĭ®áĬķ": 5749,
      "Ġhizi": 5750,
      "Ġkáº¹ta": 5751,
      "áĭ°áĪ¨áĮī": 5752,
      "Ġrayuwar": 5753,
      "ĠDen": 5754,
      "Ġ2018,": 5755,
      "ĠStates": 5756,
      "Ġmapokeo": 5757,
      "ĠCO": 5758,
      "ĠáĭŃáĮłáīĢ": 5759,
      "ĠáīłáĪ¨": 5760,
      "kofu": 5761,
      "áįĪáĬķ": 5762,
      "áĪŀáīµ": 5763,
      "ĠáĮĪáī¥": 5764,
      "ĠáĭĵáĪĺáī±": 5765,
      "Ġmiliyan": 5766,
      "Ġmahaifin": 5767,
      "ĠTarayyar": 5768,
      "ichael": 5769,
      "Ġjam'i": 5770,
      "emo": 5771,
      "Ġeto": 5772,
      "Ġreg": 5773,
      "Ġperm": 5774,
      "Ġout": 5775,
      "ĠRiver": 5776,
      "Ġbetween": 5777,
      "ĠS.": 5778,
      "ĠBr": 5779,
      "áĭµáĪµáīµ": 5780,
      "áįįáĪªáĬ«": 5781,
      "Ġhakan": 5782,
      "áĬĳáĪµ": 5783,
      "áĮłáĪĭ": 5784,
      "cen": 5785,
      "ratic": 5786,
      "ĠWomen": 5787,
      "Ġ1970": 5788,
      "ĠJapani": 5789,
      "Ab": 5790,
      "ner": 5791,
      "á¹£irÃŃ": 5792,
      "ĠOá¹£u": 5793,
      "Ġ\"M": 5794,
      "ĠCham": 5795,
      "ce.": 5796,
      "ĠMai": 5797,
      "Ġthan": 5798,
      "Ġsoci": 5799,
      "áĭ£": 5800,
      "Ġáĭ±": 5801,
      "Ġlina": 5802,
      "ĠAkin": 5803,
      "irgin": 5804,
      "ĠhaÉĹa": 5805,
      "áī¢áīµ": 5806,
      "áĬłáĪĿ": 5807,
      "Ġáĭ¨áĪ°áĭį": 5808,
      "Ġaká»įrin": 5809,
      "Ġgra": 5810,
      "ĠáĪĺáĮ¥": 5811,
      "Ġáį«": 5812,
      "ĠáĬłáĪ°": 5813,
      "Ġshida": 5814,
      "ĠáīµáĪįáīħ": 5815,
      "áĬ¥áĮįáĭļáĬłáī¥áĪĶáĪŃ": 5816,
      "ĠZanzibar": 5817,
      "Ġtuntun": 5818,
      "Ġmarubu": 5819,
      "ĠáĪľáīµáĪŃ": 5820,
      "Ġ3,": 5821,
      "ologie": 5822,
      "kh": 5823,
      "pro": 5824,
      "diyya": 5825,
      "Ġtalla": 5826,
      "yayya": 5827,
      "asashen": 5828,
      "Ġjeshi": 5829,
      "áĮĪáĬĲ": 5830,
      "ĠÃ¬p": 5831,
      "kejÃ¬": 5832,
      "lub": 5833,
      "áĬłáĪį": 5834,
      "ĠáĪķáĭĿ": 5835,
      "Ġzilizo": 5836,
      "ĠáįķáĪ¬áĭļ": 5837,
      "ella": 5838,
      "Papa": 5839,
      "val": 5840,
      "Ø¯": 5841,
      "Ġhilo": 5842,
      "ĠÃªtre": 5843,
      "rol": 5844,
      "Ġkita": 5845,
      "ged": 5846,
      "patikana": 5847,
      "isari": 5848,
      "ĠIsa": 5849,
      "anada": 5850,
      "ĠáĬ¨áĪĽ": 5851,
      "re,": 5852,
      "ĠáĭįáĮ¤": 5853,
      "ĠáĪ¥áĪĭáĪ´": 5854,
      "cour": 5855,
      "Ġoru": 5856,
      "Ġret": 5857,
      "ĠOf": 5858,
      "2=": 5859,
      "Ġdep": 5860,
      "Ġáĭŀ": 5861,
      "biya": 5862,
      "áīħáĪµ": 5863,
      "Ġkofin": 5864,
      "idayar": 5865,
      "ĠáīłáĬ©áĪį": 5866,
      "Î¿": 5867,
      "Ġlong": 5868,
      "Ġatt": 5869,
      "velopment": 5870,
      "yá»įÌģ": 5871,
      "ikan": 5872,
      "ĠolÃ¹darÃŃ": 5873,
      "Ġfound": 5874,
      "galement": 5875,
      "Lakini": 5876,
      "Ġkundi": 5877,
      "ety": 5878,
      "áĬķáĭ³áĪŃ": 5879,
      "ĠáĮįáī¥áĮ½": 5880,
      "tho": 5881,
      "waju": 5882,
      "ĠUmar": 5883,
      "ĠAustralia": 5884,
      "nes": 5885,
      "onal": 5886,
      "áĭķáĭĿ": 5887,
      "lished": 5888,
      "ĠAfrika.": 5889,
      "rÃºká»į": 5890,
      "ĠbÃłbÃ¡": 5891,
      "áĪ«áĪĿ": 5892,
      "áĪªáīµ": 5893,
      "áīĢáĪį": 5894,
      "Ġkabila": 5895,
      "Ġsune": 5896,
      "áĬ¨áī°áĪĪáĭį": 5897,
      "38": 5898,
      "ĠA.": 5899,
      "ko.": 5900,
      "ĠSch": 5901,
      "ĠGra": 5902,
      "Ġmengine": 5903,
      "áĪµáī°áĬĽ": 5904,
      "ĠMali": 5905,
      "áĭ³áĮħ": 5906,
      "ĠáĭµáĬķ": 5907,
      "ĠáīģáĮ¥": 5908,
      "ĠáĮ½áĪĳáįį": 5909,
      "32": 5910,
      "Åį": 5911,
      "Ġpeople": 5912,
      "pindi": 5913,
      "Ġmkoa": 5914,
      "ĠWat": 5915,
      "Ġing": 5916,
      "áī£áĪī": 5917,
      "Ġvili": 5918,
      "ĠáĪĪáī°": 5919,
      "ĠáĬ¥áĬķáĭ°áī°": 5920,
      "ĠáīłáĪĺáĪĨáĬĳ": 5921,
      "ĠÆ³an": 5922,
      "z,": 5923,
      "Ġ(tÃŃ": 5924,
      "ĠHispania": 5925,
      "ĠelÃ©": 5926,
      "wun": 5927,
      "Ġtatu": 5928,
      "Ġl'a": 5929,
      "dis": 5930,
      "Ġcl": 5931,
      "áĪĪáĪģ": 5932,
      "áĬłáĭŃ": 5933,
      "áĪ¥áī±": 5934,
      "neo": 5935,
      "ĠáĪħáĭĿáī¥": 5936,
      "áĮİáĪŃáĮİáĪŃ": 5937,
      "ĠUrusi": 5938,
      "C.": 5939,
      "eurs": 5940,
      "Ã©tÃ©": 5941,
      "Ġwaka": 5942,
      "ĠBest": 5943,
      "áĭ³áĬķáīµ": 5944,
      "ĠÉĹau": 5945,
      "ĠáĪµáĪĪáĭļáĪħ": 5946,
      "yyuka": 5947,
      "Ġmil": 5948,
      "ĠÃº": 5949,
      "Ġ40": 5950,
      "pu": 5951,
      "Ġmch": 5952,
      "Ġtabb": 5953,
      "ĠáĬłáī£áīµ": 5954,
      "ĠáĭŃáĬĲ": 5955,
      "Ġzin": 5956,
      "ics": 5957,
      "áĬªáĭ«": 5958,
      "ĠáĪĿáĬķáĮŃ": 5959,
      "Ġmfano": 5960,
      "Ġáĭ¨áĪĺáĮĢáĪĺáĪªáĭ«áĭį": 5961,
      "El": 5962,
      "Î±": 5963,
      "Ġunder": 5964,
      "ĠChristi": 5965,
      "or,": 5966,
      "Ġmak": 5967,
      "lassi": 5968,
      "mb": 5969,
      "Ġawa": 5970,
      "Ġkij": 5971,
      "áī§": 5972,
      "irc": 5973,
      "ĠNollywood": 5974,
      "ĠáĬłáĭ¨áĪŃ": 5975,
      "Ġáĭ¨áĬĸ": 5976,
      "áĬłáĬķ": 5977,
      "ĠáĬŃáĪŃáĪµáī¶áĪµ": 5978,
      "Ġambako": 5979,
      "ĠáįĬáĭ°áĪį": 5980,
      "ĠkÃºrÃ²": 5981,
      "ĠáĪ«áĪµ": 5982,
      "ĠáĪĺáĮłáĬķ": 5983,
      "ĠMagharibi": 5984,
      "áįĪáĮ¥áĪ®": 5985,
      "unga": 5986,
      "uts": 5987,
      "Ã¡Ã¡": 5988,
      "ĠBlack": 5989,
      "áĮ¾": 5990,
      "ĠMkuu": 5991,
      "áī£áī¥": 5992,
      "ĠáīłáĪĨ": 5993,
      "ĠáĬ¥áĬķáĬ³": 5994,
      "áĭĽáĭĿ": 5995,
      "ĠInstit": 5996,
      "Ġjimbo": 5997,
      "ĠáĬłáĭŃáĭ°áĪĪáĪĿ": 5998,
      "kia": 5999,
      "Ġmáº¹": 6000,
      "ĠBas": 6001,
      "Ã²fin": 6002,
      "ĠRD2-": 6003,
      "ĠSt.": 6004,
      "view": 6005,
      "que.": 6006,
      "ĠMuhammadu": 6007,
      "Ġpu": 6008,
      "ĠáīłáĪ«": 6009,
      "anzisha": 6010,
      "ĠáĬłáĬķáĭ³áĬķáĭµ": 6011,
      "ĠFrench": 6012,
      "Ġ(196": 6013,
      "ĠRobert": 6014,
      "Ġkare": 6015,
      "taka": 6016,
      "Ġá»įÌģ": 6017,
      "Ġoni": 6018,
      "Ã¡nÃ¬": 6019,
      "ĠSoci": 6020,
      "futa": 6021,
      "Ġterrit": 6022,
      "Bab": 6023,
      "Ġtri": 6024,
      "Ġgwa": 6025,
      "áĬĿáĬĲáīµ": 6026,
      "ĠÃ©galement": 6027,
      "Ġmpya": 6028,
      "ĠHukumar": 6029,
      "ĠYohane": 6030,
      "Ch": 6031,
      "ĠWal": 6032,
      "assan": 6033,
      "</": 6034,
      "Ad": 6035,
      "es)": 6036,
      "Ġyau": 6037,
      "ĠSikukuu": 6038,
      "ĠáĪĺáĪ³": 6039,
      "áĪ«áĬ¤áĪį": 6040,
      "áīłáĪ¬": 6041,
      "áĭĿáĪĽáī½": 6042,
      "ouse": 6043,
      "ĠáĬłáĪĿáĪĭáĬŃ": 6044,
      "Ġshirye-shi": 6045,
      "ĠSpa": 6046,
      "ĠFin": 6047,
      "ishe": 6048,
      "kari": 6049,
      "áĪµáī¶": 6050,
      "Ġipinle": 6051,
      "ush": 6052,
      "gbá»įÌģ": 6053,
      "áĭ¨áī°": 6054,
      "Ġhuadhim": 6055,
      "kÃ³so": 6056,
      "ĠáĬ¨áī°áĪĽáĭį": 6057,
      "Ġgargaji": 6058,
      "ĠáīłáĪĻáĪī": 6059,
      "Ġmnamo": 6060,
      "ĠOlymp": 6061,
      "Ġwao": 6062,
      "ba.": 6063,
      "eland": 6064,
      "sive": 6065,
      "imbo": 6066,
      "tori": 6067,
      "conom": 6068,
      "zation": 6069,
      "Ġjus": 6070,
      "ĠáĬ¨áĪ°": 6071,
      "áĬ«áī³": 6072,
      "Ġ2014.": 6073,
      "ott": 6074,
      "ĠáĬ¥áĬķáĭ°áĮĪáĬĵ": 6075,
      "ĠáĪĽáĪŃáīĨáĪµ": 6076,
      "ĠsÃ¬n": 6077,
      "ense": 6078,
      "hoto": 6079,
      "ĠolÃ³rÃŃ": 6080,
      "ĠOrÃŃláº¹ÌĢ-Ã¨dÃ¨": 6081,
      "Ġpartie": 6082,
      "-G": 6083,
      "Ġtout": 6084,
      "Ġonly": 6085,
      "fÃ©": 6086,
      "Ġwengine": 6087,
      "áĭ«áĭĿ": 6088,
      "ĠÆĻidayar": 6089,
      "ĠáīłáĬ¢": 6090,
      "Ġkadhaa": 6091,
      "ĠRepublic": 6092,
      "ĠáĭµáĪŃáĮħáīµ": 6093,
      "ĠáĬ«áĪĮáĬķáĭ³áĪŃ": 6094,
      "ĠWil": 6095,
      "ĠGuinea": 6096,
      "pita": 6097,
      "ĠAmáº¹ÌģrÃŃkÃł.": 6098,
      "Ġoun": 6099,
      "85": 6100,
      "Jina": 6101,
      "Ġed": 6102,
      "Ġkoloni": 6103,
      "Ġname": 6104,
      "Ġbikin": 6105,
      "áĪĭáĬķ": 6106,
      "ĠCibiyar": 6107,
      "Ġ2015.": 6108,
      "áĪ©áĪĿ": 6109,
      "Ġprof": 6110,
      "áīĭáĬķáīĭ": 6111,
      "áĬķáĭ³áĬķáĭµ": 6112,
      "Ġzinazo": 6113,
      "Ġwengi,": 6114,
      "-finai": 6115,
      "Ġmasana'": 6116,
      "áĮİáĪŃáĮİáĪŃáĭ«áĬķ": 6117,
      "ple": 6118,
      "âĢľ": 6119,
      "ĠFi": 6120,
      "ES": 6121,
      "zarin": 6122,
      "Ġmik": 6123,
      "oman": 6124,
      "ombo": 6125,
      "ements": 6126,
      "Ġduring": 6127,
      "ĠÃłÃ¬sÃłn": 6128,
      "To": 6129,
      "Ġsara": 6130,
      "ĠáĪĺáĮ£": 6131,
      "áĪŀáĬŃ": 6132,
      "ĠáįķáĪ®": 6133,
      "Ġmahali": 6134,
      "áĮ£áĪįáĭ«áĬķ": 6135,
      "Waliozaliwa": 6136,
      "ĠHotuna": 6137,
      "ĠáīłáĪ½áī³": 6138,
      "ĠMakarantar": 6139,
      "ĠNuwamba": 6140,
      "ĠáĪĽáĮ£áīĢ": 6141,
      "owe": 6142,
      "ĠKale": 6143,
      "ĠMul": 6144,
      "De": 6145,
      "bÃ³": 6146,
      "wÃłÃ¡": 6147,
      "ĠáĬĹ": 6148,
      "áĪŃáĬķ": 6149,
      "áĪįáĮħ": 6150,
      "áī½áĪģ": 6151,
      "ĠGáº¹ÌĢáº¹ÌģsÃ¬": 6152,
      "Ġáī°áĬĵ": 6153,
      "ĠhaÉĹin": 6154,
      "Ġpataki": 6155,
      ".S.": 6156,
      "49": 6157,
      "ografia": 6158,
      "ĠKingdom": 6159,
      "ip": 6160,
      "iso": 6161,
      "ĠgÃ©nÃ©r": 6162,
      "-P": 6163,
      "ĠáĪİ": 6164,
      "áī°áĬĽáĭį": 6165,
      "Ġmay": 6166,
      "áĪ«áĪ½": 6167,
      "Ġzake": 6168,
      "áĪµáīµáĬĵ": 6169,
      "33": 6170,
      "ĠirÃº": 6171,
      "ĠÃ²kÃ¨": 6172,
      "ominira": 6173,
      "Ra": 6174,
      ");": 6175,
      "ĠBau": 6176,
      "Ġanci": 6177,
      "Ġáĭ¨áĮ¥": 6178,
      "Ġáīłáįį": 6179,
      "áĪ³áĪį": 6180,
      "ĠáĪĿáĬĵáĪį": 6181,
      "Ġmatsa": 6182,
      "lishi": 6183,
      "áĭ³áĬķáĭ±": 6184,
      "áĭ®áĪŃáĮĬ": 6185,
      "ĠáĪĿáĬĵáĪįáī£áīµ": 6186,
      "ught": 6187,
      "ower": 6188,
      "ĠJoseph": 6189,
      "Ġtime": 6190,
      "ches": 6191,
      "ouver": 6192,
      "hysi": 6193,
      "Ġintern": 6194,
      "Ġalors": 6195,
      "nÃº": 6196,
      "áĪįáīģ": 6197,
      "Ġtafi": 6198,
      "áĪ¨áį¢": 6199,
      "áĬ¨áī¥": 6200,
      "ÆĻi": 6201,
      "Ġalipo": 6202,
      "áĭ´áīµ": 6203,
      "Ġ2013,": 6204,
      "ĠEthiopia": 6205,
      "Ġpays": 6206,
      "Ġwá»įÌĢn": 6207,
      "Ġá»įjá»į": 6208,
      "ĠÃĮlÃº": 6209,
      "Ġkowa": 6210,
      "sh": 6211,
      "ºáį": 6212,
      "Ġikan": 6213,
      "Ġyaliyo": 6214,
      "Ġáīłáī¥áĭĽáīµ": 6215,
      "Ġsho": 6216,
      "ĠCong": 6217,
      "di.": 6218,
      "ĠLab": 6219,
      "ĠJuli": 6220,
      "Ġ1994": 6221,
      "áĪŃáį£": 6222,
      "ĠÃłÃ¡": 6223,
      "ĠÃłjáº¹sÃ¡ra": 6224,
      "Ġáīµáĭį": 6225,
      "áĮİáĬķ": 6226,
      "Ġsosai": 6227,
      "Ġáĭ¨áĭĵáĪĪáĪĿ": 6228,
      "hesabiwa": 6229,
      "ĠoÃ¹": 6230,
      "assa": 6231,
      "ĠSoko": 6232,
      "wari": 6233,
      "ĠMovie": 6234,
      "TA": 6235,
      "áī°áį¢": 6236,
      "Ġjinsi": 6237,
      "ĠIV": 6238,
      "Ġáī°áĭĭ": 6239,
      "áīłáĪ°": 6240,
      "áĪ¥áĪ«áīħ": 6241,
      "Ġáī£áĪį": 6242,
      "ĠáįĪáĪ¨áĬķ": 6243,
      "Ġáĭ¨áīĢáĬķ": 6244,
      "kamakon": 6245,
      "rist": 6246,
      "Ġláº¹": 6247,
      "win": 6248,
      "ames": 6249,
      "duc": 6250,
      "Ġlis": 6251,
      "line": 6252,
      "we,": 6253,
      "¹áį": 6254,
      "ĠáĪ¹": 6255,
      "hiyar": 6256,
      "ĠáīłáĪķ": 6257,
      "áīłáĪī": 6258,
      "Ġaddinin": 6259,
      "áĮ¡áīµ": 6260,
      "imakin": 6261,
      "xi": 6262,
      "Ġocc": 6263,
      "Ġá»įlá»įÌģ": 6264,
      "ĠKejÃ¬": 6265,
      "wÃº": 6266,
      "lect": 6267,
      "IS": 6268,
      "ĠáīłáĮİáĪŃáĮİáĪŃáĭ«áĬķ": 6269,
      "Ġmaisha": 6270,
      "ĠáĪįáĭ°áīµ": 6271,
      "ĠáĭµáĬķáĮĭ": 6272,
      "ĠáĬłáĪĪáĪĿ": 6273,
      "ĠáĬłáĮĪáĪ«áīµ": 6274,
      "áĪıáĪįáį¢": 6275,
      "BA": 6276,
      "á¹¢": 6277,
      "ĠGirl": 6278,
      "ĠKig": 6279,
      "um,": 6280,
      "iláº¹": 6281,
      "ick": 6282,
      "ĠMusic": 6283,
      "ĠBook": 6284,
      "Ġáĭ¨áī¥": 6285,
      "ĠáĬłáĭ³": 6286,
      "ĠáĪįáī¥": 6287,
      "âĢĻi": 6288,
      "geme": 6289,
      "araka": 6290,
      "Ġ2010,": 6291,
      "Ġkit": 6292,
      "Ġbro": 6293,
      "kuta": 6294,
      "ĠRoyal": 6295,
      "Ġkirk": 6296,
      "Ġass": 6297,
      "ĠZam": 6298,
      "sÃ¡n": 6299,
      "maji": 6300,
      "Ġáĭ¨áĪŀ": 6301,
      "ÃŃnÃº": 6302,
      "ĠKaramar": 6303,
      "ĠolÃ³gun": 6304,
      "Ġmáº¹Ìģta": 6305,
      "ĠQue": 6306,
      "ĠáĪĽáĪµáī³áĭĪáĪ»áĭİáī½": 6307,
      "tiki": 6308,
      "47": 6309,
      "Ġng": 6310,
      "amban": 6311,
      "Ġlui": 6312,
      "Mu": 6313,
      "Ùĩ": 6314,
      "yahu": 6315,
      "str": 6316,
      "Ġanti": 6317,
      "via": 6318,
      "áĬĲáī±áĬķ": 6319,
      "Ġáĭ¨áĬ®": 6320,
      "áĭ«áĬķáĭ³áĬķáĭ±": 6321,
      "ĠáĬŃáįįáĪİáī½": 6322,
      "Ġáĭ¨áĪļáĭ«áĪµ": 6323,
      "Ġwatakatifu": 6324,
      "Ġkimataifa": 6325,
      "Ġsystem": 6326,
      "Mo": 6327,
      "Ġent": 6328,
      "itÃ¬": 6329,
      "yota": 6330,
      "Ġ1993": 6331,
      "ĠBrazil": 6332,
      "Ġ~": 6333,
      "amment": 6334,
      "ident": 6335,
      "llo": 6336,
      "Ġáī¶": 6337,
      "áĪµáĪĽ": 6338,
      "ĠáĮ«": 6339,
      "Ġkawo": 6340,
      "ĠáĬ¥áĬķáĭ²áĭ«": 6341,
      "Ġrawar": 6342,
      "Ġasali": 6343,
      "yÃ¬ÃŃ": 6344,
      "sim": 6345,
      "Ġá»ĮÌĢyá»įÌģ": 6346,
      "Ġtáº¹li": 6347,
      "Ġhala": 6348,
      "Ġbakwai": 6349,
      "team": 6350,
      "adar": 6351,
      "fini": 6352,
      "ĠáĮ³": 6353,
      "ĠáĬłáī¶": 6354,
      "áĮĪáīµ": 6355,
      "ĠLim": 6356,
      "áĬłáīµ": 6357,
      "ĠFarans": 6358,
      "Ġkusan": 6359,
      "Ġsecond": 6360,
      "Ġgroup": 6361,
      "gáº¹": 6362,
      "yc": 6363,
      "Ġsayensi": 6364,
      "ĠbÃŃbÃŃ": 6365,
      "Ġáº¹ÌĢrá»į": 6366,
      "ĠÃ©c": 6367,
      "wÃ¹já»į": 6368,
      "¸áį": 6369,
      "áī¾": 6370,
      "Ġnasar": 6371,
      "Ġáĭ¨áĪĪáĭį": 6372,
      "Ġ(áĬ¥áĬķáĮįáĪĬáĭĿáĬĽ": 6373,
      "ĠáĬ¨áĪģ": 6374,
      "Ġlafiya": 6375,
      "ĠzaÉĵ": 6376,
      "Ġáī¥áĭĽáīµ": 6377,
      "áī¦áīµ": 6378,
      "Ġorigin": 6379,
      "áĮĪáĪªáī±": 6380,
      "yá»įÌĢ": 6381,
      "lewa": 6382,
      "Ġhistoria": 6383,
      "ating": 6384,
      "ĠSin": 6385,
      "-z": 6386,
      "volution": 6387,
      "áĬķáĪ³áĭĬ": 6388,
      "Ġmtu": 6389,
      "Ġmmoja": 6390,
      "ĠIlimi": 6391,
      "áĪ³áĪ³áĭŃ": 6392,
      "safa": 6393,
      "chungu": 6394,
      "ciyar": 6395,
      "Ġhuu": 6396,
      "Ġmuziki": 6397,
      "ĠáĭĿáĪŃáĭ«": 6398,
      "Ġáī¡áĭµáĬķ": 6399,
      "Ġcheo": 6400,
      "ĠáĪĪáĪĿáĪ³áĪĮ": 6401,
      "Ġprincip": 6402,
      "Ġaye": 6403,
      "Ġsig": 6404,
      "ti,": 6405,
      "Ġ4,": 6406,
      "gres": 6407,
      "agen": 6408,
      "go,": 6409,
      "Ġ2091": 6410,
      "ĠáĭĪáĪįáĭ°": 6411,
      "ĠMac": 6412,
      "Ġáĭ³áĪŃ": 6413,
      "Ġlabarai": 6414,
      "Ġhannu": 6415,
      "ĠPÃ³": 6416,
      "ĠWata": 6417,
      "ch,": 6418,
      "ĠÃºn": 6419,
      "ana,": 6420,
      "ĠGree": 6421,
      "Ġv.": 6422,
      "ver,": 6423,
      "ĠJean": 6424,
      "Ge": 6425,
      "ĠSak": 6426,
      "Ġ2011.": 6427,
      "Ġ(áĬ¨1892": 6428,
      "ĠOyo": 6429,
      "kta": 6430,
      "uka": 6431,
      "Ġ(The": 6432,
      "ĠMont": 6433,
      "Ġgas": 6434,
      "ĠÃłdÃºgbÃ²": 6435,
      "ĠÃ¬á¹£áº¹ÌĢláº¹ÌĢ": 6436,
      "ĠMaria": 6437,
      "Ġá¹£ÃŃá¹£e": 6438,
      "ĠdÃºrÃ³": 6439,
      "Ġfus": 6440,
      "áĬķáĭ¶": 6441,
      "uttu": 6442,
      "Ġáĭ¨áĬ¦": 6443,
      "áĭĵáĬķ": 6444,
      "ĠdÃ©velop": 6445,
      "ĠIsra": 6446,
      "Ġrangi": 6447,
      "Ġ||": 6448,
      "Ġpopulation": 6449,
      "bá»įÌĢ": 6450,
      "gine": 6451,
      "ville": 6452,
      "ĠÃ¬dÃŃlÃ©": 6453,
      "ĠÃ¬dÃŃje": 6454,
      "ĠmÃŃrÃłn": 6455,
      "Ġáĭ¨áĭ«": 6456,
      "Ġ\"A": 6457,
      "Ġáĭĺáĭ´": 6458,
      "áĪ©áį¢": 6459,
      "Ġduniya.": 6460,
      "ĠGeorg": 6461,
      "Ġfut": 6462,
      "ĠUt": 6463,
      "ĠDemocratic": 6464,
      "5-": 6465,
      "uf": 6466,
      "ĠAri": 6467,
      "----": 6468,
      "99": 6469,
      "ĠnÃ©": 6470,
      "amia": 6471,
      "ĠWilaya": 6472,
      "Ġalb": 6473,
      "Ġnde": 6474,
      "Ġáĭ¨áīĨ": 6475,
      "ikisho": 6476,
      "áīłáīĥ": 6477,
      "ĠFÃ¡": 6478,
      "Ġáī°áīĥ": 6479,
      "ĠáĮłáīħ": 6480,
      "mÃ¬nira": 6481,
      "áī¥áĪ«áĭŃ": 6482,
      "ĠáĬĥáĭŃáĪį": 6483,
      "Ġáĭ¨áĭįáĮŃ": 6484,
      "pasáº¹": 6485,
      "áĪĮáĬŃáīµáĪªáĬŃ": 6486,
      "ĠMary": 6487,
      "Ġ1987": 6488,
      "lay": 6489,
      "ĠCali": 6490,
      "ĠÅ": 6491,
      "Ġces": 6492,
      "elli": 6493,
      "ĠáĪĽáĪŃáĭ«áĪĿ": 6494,
      "ĠAma": 6495,
      "áĪĪáĪĺ": 6496,
      "harar": 6497,
      "ĠáĮĪáĭ°": 6498,
      "Ġáīłáī°áĮ¨áĪĽáĪª": 6499,
      "áĪĲáįĬ": 6500,
      "Ġambapo": 6501,
      "Ġgwamnan": 6502,
      "ĠfranÃ§ais": 6503,
      "ĠMala": 6504,
      "Ġqu'il": 6505,
      "ient": 6506,
      "pindu": 6507,
      "ĠáĬĥáĭŃáĪĪ": 6508,
      "jwa": 6509,
      "áĪŃáī±": 6510,
      "Ġ(áĬł": 6511,
      "Ġáĭ¨áĪĢ": 6512,
      "ĠáĪĪáĬ¥": 6513,
      "ĠáĭľáĬĵ": 6514,
      "ĠTr": 6515,
      "ĠOla": 6516,
      "Ġáº¹ran": 6517,
      "Ġ2001": 6518,
      "ator": 6519,
      "Ġ\"B": 6520,
      "Lugha": 6521,
      "fikia": 6522,
      "ĠáĬłáīħ": 6523,
      "áĪ«áĭį": 6524,
      "ĠáĬ¨áĪĮ": 6525,
      "ĠGen": 6526,
      "ĠáĭŃáĪĦ": 6527,
      "Ġáĭ¨áĪļáī³áĭĪ": 6528,
      "ĠáĮįáĭĽ": 6529,
      "ots": 6530,
      "ĠáĮĪáĬķ": 6531,
      "ĠKijerumani": 6532,
      "xic": 6533,
      "ĠCam": 6534,
      "ĠIndia": 6535,
      "%)": 6536,
      "VID": 6537,
      "ker": 6538,
      "Ġdem": 6539,
      "yam": 6540,
      "ĠIr": 6541,
      "ĠÃ¬bÃ¡": 6542,
      "ĠÃ²bÃŃ": 6543,
      "lÃŃÃł": 6544,
      "She": 6545,
      "Ġpublic": 6546,
      "Ġwar": 6547,
      "ĠáĬ¥áĬĶ": 6548,
      "áĮ¥áĪĿ": 6549,
      "áĬ¨áĭļáĭ«": 6550,
      "Ġbaadaye": 6551,
      "ĠáĪĺáĮ»áĪķ": 6552,
      "ĠMs": 6553,
      "Ġfili": 6554,
      "ĠCat": 6555,
      "Ġpremier": 6556,
      "Ġsal": 6557,
      "til": 6558,
      "ĠHars": 6559,
      "adhi": 6560,
      "Ġlead": 6561,
      "zz": 6562,
      "áĬķáī³": 6563,
      "Ġáĭ¨áĬŃ": 6564,
      "am,": 6565,
      "Ġta,": 6566,
      "la.": 6567,
      "ĠÃ¬yÃ¡": 6568,
      "gor": 6569,
      "Ġfollow": 6570,
      "ĠIle-": 6571,
      "elf": 6572,
      "Ġins": 6573,
      "ĠGrand": 6574,
      "zed": 6575,
      "Ġdist": 6576,
      "Ġ1998": 6577,
      "atini": 6578,
      "46": 6579,
      "Ġ(17": 6580,
      "ĠMpaka": 6581,
      "áĭµáĬĵ": 6582,
      "áīłáīħ": 6583,
      "kubali": 6584,
      "áĭĽáĬĽáĭį": 6585,
      "ĠáĪµáĪĪáĪļ": 6586,
      "limfuata": 6587,
      "Ġkyautar": 6588,
      "ĠBiranen": 6589,
      "ĠáĪĺáĪįáĬŃáĭĵ": 6590,
      "John": 6591,
      "nia": 6592,
      "anni": 6593,
      "ĠIá¹£áº¹Ìģ": 6594,
      "rough": 6595,
      "Ġoluilu": 6596,
      "h.": 6597,
      "Ġmambo": 6598,
      "kai": 6599,
      "Ġ(Â«": 6600,
      "Ġart": 6601,
      "cil": 6602,
      "ĠtrÃ¨s": 6603,
      "Ġni:": 6604,
      "ĠTer": 6605,
      "teur": 6606,
      "ina,": 6607,
      "Ġ''": 6608,
      "áĪŃáī£": 6609,
      "áĭµáĪ¨áĪµ": 6610,
      "ĠáĬłáĪħ": 6611,
      "ĠáīĢáĭ³": 6612,
      "engene": 6613,
      "ĠNews": 6614,
      "dancin": 6615,
      "ĠáĪĻáĪī": 6616,
      "Ġwakifuata": 6617,
      "ĠKal": 6618,
      "ant,": 6619,
      "ĠBauchi": 6620,
      "á¹£o": 6621,
      "Ġá¹£áº¹": 6622,
      "joko": 6623,
      "ĠgbÃ¡": 6624,
      "ĠLea": 6625,
      "yá»įrÃŃ": 6626,
      "ĠPoland": 6627,
      "aron": 6628,
      "Ġ(He": 6629,
      "Ġgur": 6630,
      "ge.": 6631,
      "ĠTanzania.": 6632,
      "Ġshari": 6633,
      "áīµáĪĿ": 6634,
      "áĬĵáĭŃáīµ": 6635,
      "ĠGi": 6636,
      "ington": 6637,
      "Ġuishe": 6638,
      "Ġarziki": 6639,
      "Ġ1991": 6640,
      "ĠáĬłáĪīáį¢": 6641,
      "ĠDisamba": 6642,
      "Ġhuadhimisha": 6643,
      "kn": 6644,
      "ĠHigh": 6645,
      "ushe": 6646,
      "usieurs": 6647,
      "usin": 6648,
      "Ġnipasáº¹": 6649,
      "áĮĪáĪ«áīµ": 6650,
      "áīłáĪ³": 6651,
      "hamia": 6652,
      "Ġstr": 6653,
      "ĠáĬłáĮĪáĪ®áī½": 6654,
      "babisha": 6655,
      "fuatwa": 6656,
      "Ġduniani": 6657,
      "Ġáī¥áĪĶáĪ«áĭĬ": 6658,
      "Ġwhere": 6659,
      "Ġtakriban": 6660,
      "Ġmirefu).": 6661,
      "Ġ(b": 6662,
      "fofin": 6663,
      "cture": 6664,
      "org/": 6665,
      "ĠAw": 6666,
      "ĠAct": 6667,
      "áĪµáĪĿ": 6668,
      "Ġ(in": 6669,
      "ĠKÃ²": 6670,
      "ĠáĬ¥áĮįáĭļáĬłáī¥áĪĶáĪŃ": 6671,
      "áĮĪáī¡": 6672,
      "ĠGod": 6673,
      "áīĢáĭµáĪŀ": 6674,
      "Ġkoyar": 6675,
      "Ġkowan": 6676,
      "Ġáī£áĭŃ": 6677,
      "Ġyanayin": 6678,
      "Ġzinabaki": 6679,
      "Ġwenyewe": 6680,
      "ĠArewacin": 6681,
      "ĠáĭĪáĭŃáĬķáĪĿ": 6682,
      "ĠáīĢáĮ¥áĪİ": 6683,
      "haji": 6684,
      "Ġ2007.": 6685,
      "ire.": 6686,
      "huwa": 6687,
      "Ġren": 6688,
      "ĠUN": 6689,
      "inad": 6690,
      "do,": 6691,
      "AR": 6692,
      "ĠRichard": 6693,
      "Ġdaida": 6694,
      "Ġáī°áĮįáī£": 6695,
      "áīłáĪµ": 6696,
      "Ġáĭ¨áī°áĪĺ": 6697,
      "áĬłáĪĪ": 6698,
      "Ġkwenda": 6699,
      "Ġyammacin": 6700,
      "Ġpin": 6701,
      "ĠhÃłn": 6702,
      "ĠFestiv": 6703,
      "ĠAnamb": 6704,
      "Ġstate": 6705,
      "esu": 6706,
      "ĠSeri": 6707,
      "Ġ1996": 6708,
      "ĠKin": 6709,
      "gÃŃ": 6710,
      "Ġndogo": 6711,
      "áĪĪáĪĿáĪ³áĪĮ": 6712,
      "áĪ¸áĬĲ": 6713,
      "ĠJamiâĢĻar": 6714,
      "ĠáĪĽáĮ£áīĢáĪ»": 6715,
      "Ġ1995": 6716,
      "Ġbecame": 6717,
      "Ray": 6718,
      "je,": 6719,
      "Ġ(,": 6720,
      "Ġá»įwá»įÌģ": 6721,
      "Ġleyin": 6722,
      "pá»įlá»į": 6723,
      "ament": 6724,
      "ography": 6725,
      "historia": 6726,
      "Ġsta": 6727,
      "esse": 6728,
      "Ġáīłáį": 6729,
      "ĠId": 6730,
      "Ġmakuu": 6731,
      "Ġáįİ": 6732,
      "ĠáĭŃáĭ©": 6733,
      "Ġáĭ«áĭĺ": 6734,
      "c,": 6735,
      "ma.": 6736,
      "ja,": 6737,
      "ĠrÃ©gion": 6738,
      "aj": 6739,
      "Ġ<": 6740,
      "Ġfon": 6741,
      "ĠSau": 6742,
      "ĠadarÃŃ": 6743,
      "wÃ²sÃłn": 6744,
      "á¹£irÃŃá¹£i": 6745,
      "áī°áīµ": 6746,
      "Ġtaken": 6747,
      "áį¡áīł": 6748,
      "Ġkashe": 6749,
      "ĠKaisari": 6750,
      "ĠFabra": 6751,
      "Ġ1997": 6752,
      "ĠMichael": 6753,
      "ministr": 6754,
      "Ġwould": 6755,
      "Ġsamo": 6756,
      "ĠJ.": 6757,
      "gie": 6758,
      "Ġ(2005)": 6759,
      "ĠÂ»,": 6760,
      "55": 6761,
      "Ġká»įÌĢ": 6762,
      "Ġsans": 6763,
      "alement": 6764,
      "ĠáĬ¨áĭĪ": 6765,
      "áīħáĭ«": 6766,
      "Ġkan.": 6767,
      "ĠáĮ¥áĪ©": 6768,
      "áĭįáĬķáīµ": 6769,
      "yá»įkÃł": 6770,
      "Ç¹kan": 6771,
      "ĠdÃŃáº¹ÌĢ": 6772,
      "Ġtalabijin": 6773,
      "kÃºn": 6774,
      "Ġcount": 6775,
      "ra.": 6776,
      "depend": 6777,
      "Ġ2006.": 6778,
      "Ġconstitu": 6779,
      "Ġjul": 6780,
      "dad": 6781,
      "ĠCoun": 6782,
      "otball": 6783,
      "76": 6784,
      "Ġmpaka": 6785,
      "kacin": 6786,
      "Ġáĭ¨áįĪ": 6787,
      "Ġtakwa": 6788,
      "áĬŃáĬķ": 6789,
      "ĠáīłáĪħ": 6790,
      "fazi": 6791,
      "umiwa": 6792,
      "Ġkimi": 6793,
      "Ġkm2": 6794,
      "Ġkabla": 6795,
      "Ġabinci": 6796,
      "ĠáĬłáįįáĪªáĬ«": 6797,
      "-D": 6798,
      "ĠKáº¹Ìģ": 6799,
      "ĠSup": 6800,
      "elon": 6801,
      "ĠYunifÃ¡sÃŃtÃ¬": 6802,
      "ĠÃ²fin": 6803,
      "Ġ),": 6804,
      "ĠlÃŃ": 6805,
      "ĠRoman": 6806,
      "Ġdisp": 6807,
      "89": 6808,
      "ĠáĪĺáĪ¬áīµ": 6809,
      "Ġkashi": 6810,
      "Ġkarshe": 6811,
      "pewa": 6812,
      "ĠáīłáĪĽáĪĪáīµ": 6813,
      "Ġmakabila": 6814,
      "ĠáĬ¥áĬķáĮįáĪĬáĭĿáĬĽ": 6815,
      "irun": 6816,
      "aract": 6817,
      "fÃ¡": 6818,
      "wer": 6819,
      "zon": 6820,
      "Ġnibi": 6821,
      "Ġmeji": 6822,
      "ĠKÃ¡tÃ³": 6823,
      "42": 6824,
      "Nig": 6825,
      "ĠgÃ©": 6826,
      "ĠKimi": 6827,
      "Ã¨rÃ¨": 6828,
      "Ġmemba": 6829,
      "áĪŃáī¶": 6830,
      "Ġdamar": 6831,
      "áĬ¨áī³": 6832,
      "áĭ©áĪµ": 6833,
      "áĮ«áĭĪ": 6834,
      "ĠáĪ³áĭŃáĬķáĪ³áĭĬ": 6835,
      "Ġulio": 6836,
      "ĠáįĸáĪĪáī²áĬ«": 6837,
      "Wakristo": 6838,
      "áī¥áĪ«áĭŃáĪµáĮ¥": 6839,
      "ĠAssociation": 6840,
      "Ġ(An": 6841,
      "Ġelect": 6842,
      "Au": 6843,
      "tá»į": 6844,
      "Ġx": 6845,
      "Ã²wÃ²": 6846,
      "Ġ4.": 6847,
      "mary": 6848,
      "Ġtura": 6849,
      "áĪ³áĬķ": 6850,
      "uniyar": 6851,
      "Ġacikin": 6852,
      "ĠáĮīáĭ³áĭŃ": 6853,
      "ĠTarihi": 6854,
      "-e": 6855,
      "ĠAu": 6856,
      "able": 6857,
      "les,": 6858,
      "ĠKK": 6859,
      "ĠCOVID": 6860,
      "tes": 6861,
      "Ġ(la": 6862,
      "Ġhut": 6863,
      "ĠáĪ¬": 6864,
      "Ġcity": 6865,
      "Ġgari": 6866,
      "ithi": 6867,
      "ĠWam": 6868,
      "Ġhaka,": 6869,
      "Ġáĭ«áĪ³": 6870,
      "fihÃłn": 6871,
      "áº¹ÌģrÃ¬n": 6872,
      "ĠáĬ¥áĬķáĭ³áĭŃ": 6873,
      "ĠáĭĽáĪ¬": 6874,
      "áĭ®áĪŃáĮĬáĪµ": 6875,
      "ws": 6876,
      "Ġchar": 6877,
      "seed": 6878,
      "heria": 6879,
      "Ġmany": 6880,
      "uv": 6881,
      "Ġngu": 6882,
      "Ġneno": 6883,
      "Ġwatum": 6884,
      "áĮĪáĪ¨": 6885,
      "ĠáĬ¨áĪĨáĬĲ": 6886,
      "eter": 6887,
      "Ġáĭ¨áĪļáĪ°": 6888,
      "Ġ1975": 6889,
      "áīĤáīµ": 6890,
      "Ġresp": 6891,
      "ĠáĪļáĬĴáĪµáīµ": 6892,
      "Ġsaurans": 6893,
      "CM": 6894,
      "fore": 6895,
      "ĠChin": 6896,
      "ĠÃ²á¹£Ã¨rÃ©bÃ¬nrin": 6897,
      "voir": 6898,
      "ĠannÃ©es": 6899,
      "ĠkÃłwÃ©": 6900,
      "ĠIm": 6901,
      "lahi": 6902,
      "ĠSil": 6903,
      "Ġpeu": 6904,
      "Ġani": 6905,
      "áĪŃáĬĵ": 6906,
      "Ġáĭ¨áįį": 6907,
      "áĪįáĬķ": 6908,
      "áĪµáī´": 6909,
      "Ġáīłáī£": 6910,
      "asayansi": 6911,
      "áĬĳáĬķ": 6912,
      "áĬ®áĬĸ": 6913,
      "Ġyake.": 6914,
      "ĠáĪļáĪĬáĭ®áĬķ": 6915,
      "ĠáīłáĪµáī°": 6916,
      "áĬĺáīµ": 6917,
      "oly": 6918,
      "umar": 6919,
      "ĠÃ¨rÃ²": 6920,
      "ĠÃĮjá»į": 6921,
      "Ġfiimu": 6922,
      "Ġwá»įÌĢnyÃŃ": 6923,
      "imba": 6924,
      "ovi": 6925,
      "áīĢáĪ¨": 6926,
      "ĠÆĻars": 6927,
      "ĠáīłáĬ®": 6928,
      "áĬłáĪµ": 6929,
      "áĬ®áīµ": 6930,
      "ĠáĬĵáīµáį¢": 6931,
      "Ġáī°áĬ¨áī³": 6932,
      "ĠUsman": 6933,
      "Ġdirect": 6934,
      "zuri": 6935,
      "lÃ©lÃ³gÃºn": 6936,
      "ĠIbn": 6937,
      "-i": 6938,
      "p.": 6939,
      "tra": 6940,
      "°áį»áį": 6941,
      "Ġelle": 6942,
      "Ġwur": 6943,
      "ĠNo": 6944,
      "áĭµáĪĺ": 6945,
      "Ġáį»áį": 6946,
      "ututtu": 6947,
      "ĠáĭŃáĮł": 6948,
      "áĬ«áĪĿ": 6949,
      "ĠáĪµáī¥áĪµ": 6950,
      "Ġáĭ¨áĪļáĮĪáĬĻ": 6951,
      "Ġáĭ¨áī°áī£áĪĪ": 6952,
      "áĪĻáīµ": 6953,
      "Ġáĭ°áĪ«áĪ²": 6954,
      "Ġyanki": 6955,
      "ÙİÙ": 6956,
      "ĠáĮ¸áī£áĭŃ": 6957,
      "Ġáī£áĪħáĪŃ": 6958,
      "ĠParis": 6959,
      "ĠAth": 6960,
      "ĠVictor": 6961,
      "Ġthere": 6962,
      "Ġ1989": 6963,
      "ĠLiber": 6964,
      "ĠOffi": 6965,
      "Iá¹£áº¹Ìģ": 6966,
      "Ã¬yÃłn": 6967,
      "áĭµáĪ®": 6968,
      "Ġmakubwa": 6969,
      "ĠáĪĺáīħ": 6970,
      "áĪİáĮĤ": 6971,
      "Ġáº¹ÌĢka": 6972,
      "ĠáīħáĪŃáĪµ": 6973,
      "ĠÃĴgÃ¹n": 6974,
      "Ġfilin": 6975,
      "Ġmshairi": 6976,
      "ĠtÃº": 6977,
      "lian": 6978,
      "Ġband": 6979,
      "ĠTri": 6980,
      "Ġ2017.": 6981,
      "3=": 6982,
      "PP": 6983,
      "ĠMaris": 6984,
      "Ġibn": 6985,
      "áĪ«áĪįáį¢": 6986,
      "áĬ¨áĪĭ": 6987,
      "pakana": 6988,
      "Ġwasannin": 6989,
      "áĪľáīµ": 6990,
      "Ġabubuwan": 6991,
      "áĬĵáĭŃáīµáĭµ": 6992,
      "mÃł": 6993,
      "kaa": 6994,
      "ĠGomina": 6995,
      "ĠfÃŃl": 6996,
      "gÃ¬": 6997,
      "Ġlim": 6998,
      "ĠGood": 6999,
      "56": 7000,
      "Ġpap": 7001,
      "-H": 7002,
      "ket": 7003,
      "riki": 7004,
      "Å«": 7005,
      "atis": 7006,
      "ĠáĬ¥áĪĿáĬĲáīµ": 7007,
      "ĠáĬłáĮĭ": 7008,
      "áĪĭáīģ": 7009,
      "áĪĭáĮĬ": 7010,
      "ĠáĭŃáĪĭáĪįáį¢": 7011,
      "ĠEgy": 7012,
      "áĪ°áĪŃ": 7013,
      "imbab": 7014,
      "te.": 7015,
      "ĠáĭįáĮŃ": 7016,
      "ÉĹu": 7017,
      "jenga": 7018,
      "umika": 7019,
      "taniya": 7020,
      "-T": 7021,
      "86": 7022,
      "ĠVo": 7023,
      "-d": 7024,
      "Ġweb": 7025,
      "ĠRÃ©": 7026,
      "ists": 7027,
      "Ġgbá»įÌģ": 7028,
      "ĠAmerica": 7029,
      "lÃ¬kÃ¬": 7030,
      "ney": 7031,
      "hiri": 7032,
      "urt": 7033,
      "áī¥áĬķ": 7034,
      "áĪĭáĪµ": 7035,
      "oshi": 7036,
      "ĠáĪ²áĪĨáĬĳ": 7037,
      "Ġshekarun": 7038,
      "áĬŀáī¹": 7039,
      "issance": 7040,
      "ĠThomas": 7041,
      "ifaransa": 7042,
      "87": 7043,
      "gori": 7044,
      "âĢĶ": 7045,
      "ĠDay": 7046,
      "fawa": 7047,
      "istori": 7048,
      "Ġmuka": 7049,
      "dá»į": 7050,
      "pÃłÃ¡": 7051,
      "Ġinv": 7052,
      "ĠáĬķáĮīáĪł": 7053,
      "ĠKÃ¡tÃ³lÃ¬kÃ¬": 7054,
      "ĠfÃŃlmÃ¹": 7055,
      "Ø©": 7056,
      "áĬķáĬŃ": 7057,
      "Ġmwezi": 7058,
      "ĠáĬ¥áĪŃáĪ±": 7059,
      "áīħáĬĵ": 7060,
      "ĠáīłáĬ¦": 7061,
      "ĠMarekani.": 7062,
      "formation": 7063,
      "Ġtaron": 7064,
      "chukua": 7065,
      "arabci": 7066,
      "ĠáĪĺáĪĨáĬĳáĬķ": 7067,
      "Ġsakandare": 7068,
      "Ġhalafu": 7069,
      "dÃ¡n": 7070,
      "stant": 7071,
      "Ġ1976": 7072,
      "ĠÃ©tait": 7073,
      "emble": 7074,
      "Ġ2018.": 7075,
      "Ġconf": 7076,
      "ek": 7077,
      "Ġagain": 7078,
      "ĠPan": 7079,
      "htm": 7080,
      "ĠIgb": 7081,
      "gbá»įn": 7082,
      "ĠáĭĪáī³áĭ°": 7083,
      "ester": 7084,
      "ovuti": 7085,
      "Ġsojo": 7086,
      "Ġá»Įmá»į": 7087,
      "ĠáĪ¥áįįáĪ«": 7088,
      "ĠÉĹin": 7089,
      "ĠáĪµáĪĪáĪĨáĬĲ": 7090,
      "rÃ¬á¹£Ãł": 7091,
      "Ġ2020,": 7092,
      "ĠáĪ¦áĪµáīµ": 7093,
      "ĠIk": 7094,
      "Ã©c": 7095,
      "undin": 7096,
      "Ġworld": 7097,
      "Ġjiki": 7098,
      "ara,": 7099,
      "Ġsu.": 7100,
      "Ġang": 7101,
      "gwa": 7102,
      "áĬķáĭ²": 7103,
      "Ġáĭ¨áīħ": 7104,
      "Ġ(15": 7105,
      "áī£áī³": 7106,
      "Ġhaifar": 7107,
      "ĠáĪ²áīĢ": 7108,
      "Ġhizo": 7109,
      "áĮħáĪĿ": 7110,
      "áĮŃáĪŃ": 7111,
      "ohann": 7112,
      "Ġtsohuwar": 7113,
      "Ġdab": 7114,
      "Ġpuis": 7115,
      "ĠWo": 7116,
      "ÃłnÃł": 7117,
      "Ġáº¹bÃŃ": 7118,
      "Ġlime": 7119,
      "Ġ97": 7120,
      "ryen": 7121,
      "ĠolÃ³Ã²": 7122,
      "Ġaure": 7123,
      "gaba": 7124,
      "ÑĢ": 7125,
      "Ġl'in": 7126,
      "Ġyears": 7127,
      "Pope": 7128,
      "áĭ«áĪį": 7129,
      "Ġ1988": 7130,
      "Ġ5,": 7131,
      "ĠáĮįáĬķáĬĻ": 7132,
      "Ġhannun": 7133,
      "áī¨áĪŃáĪ²": 7134,
      "bor": 7135,
      "áº¹áº¹ráº¹": 7136,
      "Ġph": 7137,
      "gbáº¹ÌĢ": 7138,
      "ĠPal": 7139,
      "Ġ60": 7140,
      "nÃ¬s": 7141,
      "ĠPÃ³pÃ¹": 7142,
      "Shi": 7143,
      "ĠInstitute": 7144,
      "pande": 7145,
      "áĬ¨áĪ¨áĪĿ": 7146,
      "áĬ«áĬ¨áĪĪ": 7147,
      "áĪĨáĬĸ": 7148,
      "Ġ2006,": 7149,
      "ĠáĭµáĪį": 7150,
      "ĠáīµáĪŃáĮīáĪĿ": 7151,
      "ivyo": 7152,
      "ĠáĮİáĬķ": 7153,
      "sy": 7154,
      "arn": 7155,
      "Ġfur": 7156,
      "ument": 7157,
      "Ġhab": 7158,
      "ĠÂ».": 7159,
      "ĠBC": 7160,
      "otes": 7161,
      "ĠlÃ¡Ãłrin": 7162,
      "ĠAlexander": 7163,
      "Ġ+": 7164,
      "Ġari": 7165,
      "áĮª": 7166,
      "áĪµáĭ«": 7167,
      "Ġ(áĭĪ": 7168,
      "Ġganin": 7169,
      "irar": 7170,
      "áĬŃáĪ²": 7171,
      "áĪªáĪµ": 7172,
      "ariya": 7173,
      "áĬłáĬķáĭµ": 7174,
      "Ġáĭĺáįĭ": 7175,
      "áīĥáĪ´": 7176,
      "Ġharkokin": 7177,
      "Ġambazo": 7178,
      "à¤ķ": 7179,
      "Ġjamii": 7180,
      "Ġkuliko": 7181,
      "ĠpremiÃ¨re": 7182,
      "Ġnatur": 7183,
      "atre": 7184,
      "papa": 7185,
      "koki": 7186,
      "Ġaro": 7187,
      "Ġtransl": 7188,
      "áº¹áº¹": 7189,
      "usan": 7190,
      "sili": 7191,
      "ĠJon": 7192,
      "ĠJáº¹Ìģ": 7193,
      "ĠRec": 7194,
      "ĠEr": 7195,
      "áīĢáĮ¥": 7196,
      "osentomon": 7197,
      "ĠáĪµáĪŀáī½": 7198,
      "Ġuko": 7199,
      "Ġkanta": 7200,
      "áĪĻáĬķ": 7201,
      "ĠKamusi": 7202,
      "ĠáĪĿáĪįáĬŃáīµ": 7203,
      "áīħáĪµáīĥáĪ´": 7204,
      "eren": 7205,
      "ĠWash": 7206,
      "anguage": 7207,
      "Ġ×": 7208,
      "Ġ(d.": 7209,
      "iction": 7210,
      "NA": 7211,
      "tat": 7212,
      "ĠÉĵ": 7213,
      "su.": 7214,
      "pha": 7215,
      "áĬķáĮİ": 7216,
      "Ġkudancin": 7217,
      "Ġinu": 7218,
      "áĪĽáĪ½": 7219,
      "áĭ³áĪį": 7220,
      "ĠáĭĺáĪĺáĬĵáĭĬ": 7221,
      "Ġáīłáī°áĪĪ": 7222,
      "Ġimani": 7223,
      "ĠáĪĥáĭŃáĪĽáĬĸáīµ": 7224,
      "Ġnufin": 7225,
      "Ġfitar": 7226,
      "kuna": 7227,
      "ĠÃ¬gbÃ¬má»įÌĢ": 7228,
      "olf": 7229,
      "ĠSchool,": 7230,
      "ĠAngel": 7231,
      "Ġhigh": 7232,
      "ĠIslam": 7233,
      "iken": 7234,
      "rac": 7235,
      "Ġ2019.": 7236,
      "ded": 7237,
      "áĪĿáī¥": 7238,
      "Ġkuta": 7239,
      "Ġkutumia": 7240,
      "Ġtawa": 7241,
      "ĠTsa": 7242,
      "omm": 7243,
      "ĠáĪĿáĭķáĪ«áī¥": 7244,
      "áį¡áĬ¥": 7245,
      "áĭ²áĭ®": 7246,
      "ĠáīµáĪŃ": 7247,
      "ĠáīµáĪĿáĪħáĪŃ": 7248,
      "Ġhivi": 7249,
      "ĠWaislamu": 7250,
      "ĠáĪĺáĪ°áĪ¨áīµ": 7251,
      "áĪµáĪĪáĭļáĪħ": 7252,
      "ĠáĭŃáĪĨáĬĵáĪįáį¢": 7253,
      "Far": 7254,
      "Ġcas": 7255,
      "Ġloc": 7256,
      "ĠMc": 7257,
      "ĠMoro": 7258,
      "bujoko": 7259,
      "lá»įÌģwá»įÌģ": 7260,
      "tumÃ²": 7261,
      "Ġplay": 7262,
      "Ġtáº¹lifÃŃ": 7263,
      "ãĤ": 7264,
      "Ġmit": 7265,
      "Ġphilosop": 7266,
      "tains": 7267,
      "Ġ1982": 7268,
      "http://www.": 7269,
      "limia": 7270,
      "Ġkis": 7271,
      "Ġwame": 7272,
      "áĪĿáįĴ": 7273,
      "ĠMwaka": 7274,
      "áĪĽáĪį": 7275,
      "Ġáĭ¨áĪ®": 7276,
      "Ġ1984": 7277,
      "ĠáĬĲáĮĪáĪł": 7278,
      "Ġáĭ«áĪĪáĭįáĬķ": 7279,
      "arufu": 7280,
      "ĠáĭŃáīĢáĪ«áĪīáį¢": 7281,
      "Ġwatsa": 7282,
      "holanzi": 7283,
      "96": 7284,
      "ĠMiss": 7285,
      "ried": 7286,
      "veau": 7287,
      "Ġ(16": 7288,
      "Ġgan": 7289,
      "lement": 7290,
      "bá»įÌģá»įÌĢlÃ¹": 7291,
      "Ġoju": 7292,
      "Ġika": 7293,
      "hil": 7294,
      "emu": 7295,
      "Ġ2009,": 7296,
      "Ġnahiyar": 7297,
      "ĠBÃŃ": 7298,
      "Ġáĭ¨áĪ´": 7299,
      "Ġhayo": 7300,
      "áĮĭáīµ": 7301,
      "other": 7302,
      "Ġáī°áĪ«áĪ«": 7303,
      "ĠáĭŃáĪĺáĪµáĪĭáĪįáį¢": 7304,
      "xim": 7305,
      "ĠImo": 7306,
      "hind": 7307,
      "Ġ1967": 7308,
      "yr": 7309,
      "Ġmen": 7310,
      "Ġwit": 7311,
      "Duk": 7312,
      "Yana": 7313,
      "uko": 7314,
      "uve": 7315,
      "ĠkÃ¡Ãł": 7316,
      "Ġmengi": 7317,
      "ĠpÃŃn": 7318,
      "Ġtaba": 7319,
      "áĭ°áĪµ": 7320,
      "ĠGasar": 7321,
      "ĠÃĮjáº¹ÌĢ": 7322,
      "ĠáĬŃáĪŃáĪµáī²áĭ«": 7323,
      "Ġaskofu": 7324,
      "áĮĢáīµ": 7325,
      "Ġáº¹ÌĢsÃ¬n": 7326,
      "ĠáĮĭáĪ«": 7327,
      "wiwa": 7328,
      "dÃŃnlá»įÌģgbá»įÌĢn": 7329,
      "Ġtáº¹ÌģnÃ¬s": 7330,
      "AC": 7331,
      "Lo": 7332,
      "Ġowo": 7333,
      "jumo": 7334,
      "ĠApp": 7335,
      "Ġ(2004)": 7336,
      "Ġcalled": 7337,
      "don": 7338,
      "Ġáĭ¨áĪĪáĪĿ": 7339,
      "Ġáį©": 7340,
      "ĠáĭŃáĭŀ": 7341,
      "áĮ£áĬķ": 7342,
      "ĠVita": 7343,
      "ĠáĮĪáĮ½": 7344,
      "Ġplusieurs": 7345,
      "ĠáĮ½áĪķ": 7346,
      "Ġsaman": 7347,
      "ĠáįĪáĪŃáĭĸáĬķ": 7348,
      "bÃ¬": 7349,
      "Ġtur": 7350,
      "á»įlÃ¡": 7351,
      "Ġvers": 7352,
      "ours": 7353,
      "ĠArgent": 7354,
      "jÃłkÃ¡láº¹ÌĢ": 7355,
      "Ġyear": 7356,
      "Ġjulá»į": 7357,
      "Ġdro": 7358,
      "ĠMet": 7359,
      "andan": 7360,
      "Ġ1986": 7361,
      "Ġnumber": 7362,
      "ĠSol": 7363,
      "ĠHistory": 7364,
      "angwa": 7365,
      "ĠáĬĽ": 7366,
      "Ġlors": 7367,
      "ĠáīłáĬ«": 7368,
      "áĭ³áĭµ": 7369,
      "Ġsabon": 7370,
      "ĠáĭįáĪĢ": 7371,
      "jejen": 7372,
      "áĪ²áĭ«": 7373,
      "ĠÉĹari": 7374,
      "enegal": 7375,
      "ĠáĭķáĪĪáī°": 7376,
      "ĠáįįáĪ¬": 7377,
      "áĬ¥áĬķáĭ²": 7378,
      "Ġmahai": 7379,
      "ĠMisri": 7380,
      "ĠPor": 7381,
      "ĠAustria": 7382,
      "site": 7383,
      "Ġá»įpá»įlá»į": 7384,
      "Â»)": 7385,
      "ÃĪyÃŃ": 7386,
      "Par": 7387,
      "lit": 7388,
      "andika": 7389,
      "Ġprogram": 7390,
      "Ġáĭ¨áĬ¨": 7391,
      "áĪĪáį¢": 7392,
      "ĠLatin": 7393,
      "Ġáĭ¨áĪ±": 7394,
      "ĠáĪµáĪĭ": 7395,
      "ÉĹi": 7396,
      "áĮłáĪĪ": 7397,
      "Ġiyaka": 7398,
      "áĬķáĮĮ": 7399,
      "áī¥áĪŃáĪĥ": 7400,
      "ĠáĪĿáĬķáĮĬáĭľ": 7401,
      "istrict": 7402,
      "07": 7403,
      "ison": 7404,
      "ĠMk": 7405,
      "Ġthree": 7406,
      "dÃ¬ÃŃ": 7407,
      "jÃ¨": 7408,
      "ĠÃ¬s": 7409,
      "áĬ£": 7410,
      "kas": 7411,
      "áī³áĬķ": 7412,
      "áĬ«áĬ¤áĪį": 7413,
      "áĪİáī¹": 7414,
      "ĠáĪįáĮģ": 7415,
      "Ġáī¢áĭ«": 7416,
      "onyesha": 7417,
      "Ġcibiyar": 7418,
      "Ġtabbatar": 7419,
      "ĠCongress": 7420,
      "yahudi": 7421,
      "Ce": 7422,
      "enta": 7423,
      "Ġhuwa": 7424,
      "17)": 7425,
      "ĠÃį": 7426,
      "isme": 7427,
      "ict": 7428,
      "ĠAngo": 7429,
      "-N": 7430,
      "Ġzar": 7431,
      "BÃ¡": 7432,
      "Jihar": 7433,
      "zungu": 7434,
      "ĠsÃ³": 7435,
      "Ġáĭ¨áīł": 7436,
      "Ġáĭ¨áĮĭ": 7437,
      "Ġmain": 7438,
      "dic": 7439,
      "ĠáĭįáĪĥ": 7440,
      "Ġmatu": 7441,
      "ĠáīłáĪĺáĪĨáĬķ": 7442,
      "ĠilÃ©-Ã¬wÃ©": 7443,
      "ambia": 7444,
      "fÃŃrÃŃkÃł": 7445,
      "Babban": 7446,
      "enza": 7447,
      "ission": 7448,
      "qui": 7449,
      "position": 7450,
      "m.": 7451,
      "Ġsen": 7452,
      "Ġcou": 7453,
      "Ġ1974": 7454,
      "pÃ³": 7455,
      "inin": 7456,
      "---": 7457,
      "-b": 7458,
      "59": 7459,
      "Hivyo": 7460,
      "Nchi": 7461,
      "ice": 7462,
      "áĬķáīĢ": 7463,
      "un.": 7464,
      "ĠáĪĺáĮį": 7465,
      "ĠáĬ¨áĪĿ": 7466,
      "ĠáīłáĬ¤": 7467,
      "stan": 7468,
      "áĬ¥áĬĲáĭļáĪħ": 7469,
      "Ġáī£áĪķáĪŃ": 7470,
      "áīłáīµáĬķ": 7471,
      "Ġáĭ¨áĬłáĭ¨áĪŃ": 7472,
      "áīĤáĭ«": 7473,
      "ĠUniversity,": 7474,
      "Ġgirm": 7475,
      "Ġnotamment": 7476,
      "Ġgargajiya": 7477,
      "áī¨áĪŃáĪ²áī²": 7478,
      "-F": 7479,
      "Î¹": 7480,
      "Ġnord": 7481,
      "bai": 7482,
      "Ġá»įgá»įÌģ": 7483,
      "Ġáº¹gbáº¹": 7484,
      "dua": 7485,
      "tÃłrÃŃ": 7486,
      "Ã¡Ã¡jÃº": 7487,
      "Dans": 7488,
      "emia": 7489,
      "....": 7490,
      "toni": 7491,
      "Ġaz": 7492,
      "liya": 7493,
      "Ġgro": 7494,
      "Ġfond": 7495,
      "ĠSho": 7496,
      "Ġjumla": 7497,
      "ĠáĪĪáĪļ": 7498,
      "áĬĽáĭįáĪĿ": 7499,
      "Ġyanayi": 7500,
      "Ġ(2015": 7501,
      "Ġlittafin": 7502,
      "ection": 7503,
      "Ġconstru": 7504,
      "ĠSahara": 7505,
      "Ġfamilia": 7506,
      "dáº¹Ìģ": 7507,
      "ans,": 7508,
      "man,": 7509,
      "fáº¹": 7510,
      "Ġáīª": 7511,
      "to.": 7512,
      "si.": 7513,
      "ulin": 7514,
      "Ġkan,": 7515,
      "Ġ(2016": 7516,
      "imbabwe": 7517,
      "ois": 7518,
      "áĭ«áĪľ": 7519,
      "Ġriki": 7520,
      "ĠáĬłáĭĭ": 7521,
      "Ġsakamakon": 7522,
      "ĠCalifor": 7523,
      "-20": 7524,
      "ĠGroup": 7525,
      "ĠDelta": 7526,
      "58": 7527,
      "onin": 7528,
      "âĢ¹": 7529,
      "rise": 7530,
      "ĠYuni": 7531,
      "ĠYou": 7532,
      "Ġ1979": 7533,
      "illar": 7534,
      "Ġkáº¹Ìģká»įÌĢá»įÌģ": 7535,
      "43": 7536,
      "áĬķáī¥": 7537,
      "ĠKwam": 7538,
      "ĠáĮĥ": 7539,
      "áĭŃáĪģ": 7540,
      "Ġtaifa": 7541,
      "Ġáī°áĮ½": 7542,
      "ĠáīłáĪĭ": 7543,
      "áįįáĬķ": 7544,
      "áĪ°áīµ": 7545,
      "Ġ5.": 7546,
      "ĠáĬłáĪĪáĭį": 7547,
      "ĠáĬłáĪĪáĭįáį¢": 7548,
      "Ġpoint": 7549,
      "Ġmakao": 7550,
      "ĠFound": 7551,
      "ĠBiblia": 7552,
      "ĠáĭŃáī»áĪĭáĪįáį¢": 7553,
      "ĠKid": 7554,
      "Ġ1992": 7555,
      "Ġimport": 7556,
      "ĠPeter": 7557,
      "amare": 7558,
      "-J": 7559,
      "500": 7560,
      "tin": 7561,
      "ĠKol": 7562,
      "ellement": 7563,
      "Ġtradition": 7564,
      "Ġgiga": 7565,
      "Orodha": 7566,
      "wÃ¬": 7567,
      "ĠáīĦ": 7568,
      "ĠÃłká»į": 7569,
      "ĠáĬłáĭĺ": 7570,
      "ĠPhili": 7571,
      "áĪ³áĪ°": 7572,
      "umm": 7573,
      "jiji": 7574,
      "ĠRound)": 7575,
      "Ġjiho": 7576,
      "Ġkawai": 7577,
      "áĬ¨áī°áĪĽáĭį": 7578,
      "Ġáī¢áĪĨáĬķáĪĿ": 7579,
      "ĠáĪĿáĬķáĮĬáĭľáĪĿ": 7580,
      "OR": 7581,
      "bel": 7582,
      "Ð½": 7583,
      "Ġnkan": 7584,
      "ĠIra": 7585,
      "Ġ2010.": 7586,
      "Bi": 7587,
      "zani": 7588,
      "ĠRos": 7589,
      "Ġmajor": 7590,
      "Ø³": 7591,
      "anne": 7592,
      "Ġmats": 7593,
      "Ġkuj": 7594,
      "ĠáĬĲáĮ¥": 7595,
      "Ġáī°áĬŃáĪį": 7596,
      "áī¡áĬķ": 7597,
      "Ġshafi": 7598,
      "ĠáĬłáĪįáī°": 7599,
      "Ġwanao": 7600,
      "ĠInternet": 7601,
      "Ġperson": 7602,
      "ĠáĪłáĪ«áĭĬáīµ": 7603,
      "jÃ¬n": 7604,
      "sha": 7605,
      "li.": 7606,
      "ate,": 7607,
      "ĠKari": 7608,
      "Ġnitori": 7609,
      "ĠlÃ¡ÃłrÃŃn": 7610,
      "yáº¹ÌĢwÃ²": 7611,
      "Ġsitu": 7612,
      "Ġmanu": 7613,
      "ultani": 7614,
      "attle": 7615,
      "ode": 7616,
      "Ġhana": 7617,
      "ĠLaw": 7618,
      "Ġáĭ¨áįĬ": 7619,
      "Ġfadin": 7620,
      "Ġkufuatana": 7621,
      "áĪĺáĮ¥": 7622,
      "áĪªáīĥ": 7623,
      "ĠáĭĪáĮ¥": 7624,
      "áī¸áĭĭáĪįáį¢": 7625,
      "ĠáĪ°áĬĲ": 7626,
      "Ġkiasi": 7627,
      "ĠáĪĬáīĥ": 7628,
      "Ġbiyu,": 7629,
      "ĠáīĨáĭŃ": 7630,
      "áĬķáĮīáĪ¥": 7631,
      "ĠKasuwan": 7632,
      "Ġfina-finai": 7633,
      "ĠáĬłáĪ«áīµ": 7634,
      "áĪįáĪµáįįáĬĵ": 7635,
      "Ġáįªáį»áį": 7636,
      "gemea": 7637,
      "ton,": 7638,
      "Ġnou": 7639,
      "ĠB.": 7640,
      "Ġ1978": 7641,
      "-áº¹": 7642,
      "firi": 7643,
      "páº¹Ìģ": 7644,
      "Ġenc": 7645,
      "Hasa": 7646,
      "ĠChe": 7647,
      "tanga": 7648,
      "ĠFrancis": 7649,
      "Ġdest": 7650,
      "Ġdid": 7651,
      "Ġmv": 7652,
      "ery": 7653,
      "amini": 7654,
      "ĠáĬ¨áĮį": 7655,
      "ĠPoli": 7656,
      "Ġáī°áĮĪ": 7657,
      "áĪªáĬ®áī½": 7658,
      "ĠáĭŃáīĨ": 7659,
      "ull": 7660,
      "ituo": 7661,
      "Waliofariki": 7662,
      "ĠáĮĮáī³": 7663,
      "ĠáĮĬáĭ®áĪŃáĮĬáĪµ": 7664,
      "]]": 7665,
      "gg": 7666,
      "zung": 7667,
      "::": 7668,
      "as.": 7669,
      "orm": 7670,
      "ĠHam": 7671,
      "ama,": 7672,
      "Ġearly": 7673,
      "Ġ2007,": 7674,
      "-á»į": 7675,
      "57": 7676,
      "táº¹": 7677,
      "Ġmade": 7678,
      "omp": 7679,
      "istry": 7680,
      "ĠyÃ¬ÃŃ.": 7681,
      "ĠtÃ©": 7682,
      "Ġyakin": 7683,
      "ĠKur": 7684,
      "ĠKifaransa": 7685,
      "áĪĪáīĢ": 7686,
      "ĠNet": 7687,
      "áĪĽáĭįáĭ«áĬķ": 7688,
      "ĠáįĮ": 7689,
      "áĪ°áĪĽ": 7690,
      "áī¸áĭī": 7691,
      "Ġzaune": 7692,
      "Ġ1966": 7693,
      "ĠáĪĬáīĢ": 7694,
      "Ġyawancin": 7695,
      "ĠáĬłáĪĺáī³áīµ": 7696,
      "áī·áĬķ": 7697,
      "ana.": 7698,
      "ĠHindi": 7699,
      "Ġ1983": 7700,
      "vice": 7701,
      "ĠFrank": 7702,
      "III": 7703,
      "Ġsign": 7704,
      "edia": 7705,
      "Tari": 7706,
      "pl": 7707,
      "Ġdashi": 7708,
      "áĪµáį£": 7709,
      "Ġrike": 7710,
      "rich": 7711,
      "ĠáīłáĪĢ": 7712,
      "Ġvit": 7713,
      "áĬ«áĪĦ": 7714,
      "ĠáĮĪáĭ¥": 7715,
      "ĠáĪĺáĬķáĮįáĪ¥áī³áīµ": 7716,
      "kÃ²rÃ²": 7717,
      "Ġwadannan": 7718,
      "áĭŀáī½": 7719,
      "Ġáĭ¨áīĢáĭµáĪŀ": 7720,
      "hird": 7721,
      "áĪĨáĬĸáĪĿ": 7722,
      "ĠDon": 7723,
      "ĠChristian": 7724,
      "88": 7725,
      "mir": 7726,
      "ilÃ©": 7727,
      "Ġsuc": 7728,
      "endera": 7729,
      "Ġlangue": 7730,
      "fund": 7731,
      "Ġpor": 7732,
      "ĠIlu": 7733,
      "ĠAlf": 7734,
      "uel": 7735,
      "Ġsci": 7736,
      "Ġwell": 7737,
      "áĭ°áĬķ": 7738,
      "áĪ³áĪįáį¢": 7739,
      "Ġ2008,": 7740,
      "áĬĴáĪįáĬŃ": 7741,
      "áįĬáĭ«": 7742,
      "Ġáĭ¨áĪļáĮĪáĬĿáīłáīµ": 7743,
      "Ġakiwa": 7744,
      "-Ã²": 7745,
      "GB": 7746,
      "Ġmy": 7747,
      "ĠwÃ²": 7748,
      "ĠÅĦlÃ¡": 7749,
      "ĠmÃºláº¹ÌĢ": 7750,
      "tumÃ²:": 7751,
      "ghu": 7752,
      "son,": 7753,
      "Ġforme": 7754,
      "ĠáĬĥ": 7755,
      "Ġsour": 7756,
      "atsayin": 7757,
      "ĠáĬ¥áĬ©áĪį": 7758,
      "ĠáĬłáĬĵ": 7759,
      "ĠOko": 7760,
      "ĠáįĴ": 7761,
      "ĠáĪĨáĬĳ": 7762,
      "ĠChurch": 7763,
      "Ġáĭķáĭµ": 7764,
      "ĠáīłáĬłáĪģáĬĳ": 7765,
      "ĠáĭĺáĬķáĭµáį£": 7766,
      "Ġphysi": 7767,
      "ti.": 7768,
      "bour": 7769,
      "Ġbeing": 7770,
      "sitÃ¬": 7771,
      "ĠparÃŃ": 7772,
      "gbÃ©sÃŃ": 7773,
      "Ġtáº¹Ìģláº¹ÌĢ.": 7774,
      "ĠBorno": 7775,
      "Ġ$": 7776,
      "andard": 7777,
      "ĠDunia": 7778,
      "duction": 7779,
      "artar": 7780,
      "Ġjiha": 7781,
      "html": 7782,
      "áįı": 7783,
      "ĠáīĤ": 7784,
      "áĪĪáĭĭáĪįáį¢": 7785,
      "mah": 7786,
      "ĠáĬ¨áī£": 7787,
      "sible": 7788,
      "Ġáī°áĮ«": 7789,
      "Ġáĭ¨áĪģ": 7790,
      "ci.": 7791,
      "áĭĿáĪĿ": 7792,
      "ĠáĪ²áĪį": 7793,
      "ĠáĮįáĭµ": 7794,
      "ĠâĢ¹": 7795,
      "áĭ±áį¢": 7796,
      "Ġ1977": 7797,
      "undun": 7798,
      "Ġyanke": 7799,
      "ĠáĪĬáĭ«": 7800,
      "áĭ°áĪ¨áĮĪáĭį": 7801,
      "ĠWatakatifu": 7802,
      "ĠáĪĺáĮ»áĪķáįįáīµ": 7803,
      "41": 7804,
      "fik": 7805,
      "ywa": 7806,
      "Ġnational": 7807,
      "bi.": 7808,
      "ĠLouis": 7809,
      "athan": 7810,
      "Ġ(3": 7811,
      "lai": 7812,
      "ente": 7813,
      "ĠpÃºpá»įÌĢ": 7814,
      "Ġ1918": 7815,
      "ril": 7816,
      "ine.": 7817,
      "ĠgbÃ³": 7818,
      "Ã³nÃł": 7819,
      "Ġoluko": 7820,
      "rÃ¡lÃŃÃł": 7821,
      "Ġoruko": 7822,
      "Ġáĭ¨áĮĢáĪŃáĪĺáĬķ": 7823,
      "Ġ(13": 7824,
      "áī°áĬĵ": 7825,
      "áĪ¨áĪŃ": 7826,
      "ĠáīłáĪŀ": 7827,
      "ĠáĬ¥áĬķáīħáĪµáīĥáĪ´": 7828,
      "Ġzane": 7829,
      "Ġáī¥áĪĶáĪŃ": 7830,
      "ĠáĬŃáĪĪáī¥": 7831,
      "ĠáīłáĪĺáī£áĪį": 7832,
      "ĠáĮĪáī¥áĪ¨": 7833,
      "Ġchama": 7834,
      "áĭ°áĪŃáĮį": 7835,
      "ĠáĬłáīĢáįį": 7836,
      "ĠCentral": 7837,
      "Ġdepuis": 7838,
      "Ġserv": 7839,
      "Ġ1950": 7840,
      "Ġcontinu": 7841,
      "ĠOm": 7842,
      "Ġ(2006)": 7843,
      "ĠaprÃ¨s": 7844,
      "kere": 7845,
      "Ġlau": 7846,
      "Ġ1965": 7847,
      "Ġcompos": 7848,
      "ĠSalaam": 7849,
      "gement": 7850,
      "áĭ·": 7851,
      "Ġsanar": 7852,
      "áĪŃáī³": 7853,
      "ĠSta": 7854,
      "ĠáĬ¥áĪĿ": 7855,
      "ĠGÃºÃºsÃ¹": 7856,
      "ĠJina": 7857,
      "Ġzo": 7858,
      "Ġáĭ¨áĪļáĪ°áĪ«": 7859,
      "ĠáĪĽáĬħ": 7860,
      "áĪ¥áĪ«": 7861,
      "otun": 7862,
      "ĠAustrÃ¡lÃŃÃł": 7863,
      "ĠkÃºkur": 7864,
      "Ġáĭ¨áĭĵáĪĺáī±": 7865,
      "Ġinganta": 7866,
      "ĠkÃºkurÃº": 7867,
      "Ïģ": 7868,
      "arra": 7869,
      "ĠfÃ©": 7870,
      "ĠGovernment": 7871,
      "Ġkeje": 7872,
      "kunrin": 7873,
      "ĠHenry": 7874,
      "Ġast": 7875,
      "ĠMohammed": 7876,
      "Ġyasa": 7877,
      "Ġimo": 7878,
      "uses": 7879,
      "ĠWab": 7880,
      "ĠAnti": 7881,
      "ĠáĬĲáĮĪáĪ¥áīµ": 7882,
      "Ġtenis": 7883,
      "iyar": 7884,
      "nÃ©": 7885,
      "Ġkuzaliwa": 7886,
      "ĠáĪĺáĬ®": 7887,
      "ĠáĪĺáĪ£": 7888,
      "ĠáĬ¨áĮ¥": 7889,
      "áĬ¨áĬĵ": 7890,
      "lob": 7891,
      "áĬķáĮįáĪį": 7892,
      "Ġáĭ¨áĬĲáīłáĪ©áīµ": 7893,
      "áĮĬáĭ«": 7894,
      "Ġsiyasan": 7895,
      "Ġjami'ar": 7896,
      "Kuma": 7897,
      "áĮĬáĭľáĭį": 7898,
      "ĠáīµáĬķáĪ½": 7899,
      "Ġbangaren": 7900,
      "ĠáĪºáĪħ": 7901,
      "chunguza": 7902,
      "sions": 7903,
      "ĠkarÃ¹n": 7904,
      "kÃ²Ã³": 7905,
      "ĠWin": 7906,
      "Ġkeji": 7907,
      "ĠMartin": 7908,
      "ked": 7909,
      "ĠSir": 7910,
      "ĠStudi": 7911,
      "ĠFe": 7912,
      "ado": 7913,
      "97": 7914,
      "ĠÙ": 7915,
      "ĠáĬ¨áĪµ": 7916,
      "dian": 7917,
      "Ġhaya": 7918,
      "ĠáĪµáĬķ": 7919,
      "Ġáĭ«áĪĭáī¸áĭį": 7920,
      "fai": 7921,
      "Ġ2013.": 7922,
      "ĠáīĥáĪĭáīµ": 7923,
      "ĠUsw": 7924,
      "ĠSarkin": 7925,
      "Ġofficial": 7926,
      "ĠáĬłáĮĪáĪįáĮįáĪİáīµ": 7927,
      "ĠFederal": 7928,
      "Ġwi": 7929,
      "ĠKon": 7930,
      "ĠOt": 7931,
      "rÃ©sent": 7932,
      "ĠSecond": 7933,
      "x,": 7934,
      "Ġmam": 7935,
      "ĠÃ¬wÃ¡": 7936,
      "Ġá»įká»įÌĢ": 7937,
      "ĠÃĢyá»įkÃł": 7938,
      "ĠsÃŃnÃº": 7939,
      "Ġ70": 7940,
      "ĠonÃŃmá»įÌĢ": 7941,
      "ĠÃģfÃŃrÃŃkÃł": 7942,
      "Ġhttp://www.": 7943,
      "ĠÃ¬lera": 7944,
      "s)": 7945,
      "Ġfada": 7946,
      "ĠDara": 7947,
      "áĪįáĮĭ": 7948,
      "Ġáĭ¨áī°áī£": 7949,
      "ĠAfrilu": 7950,
      "ĠáĬłáĪµáįĪ": 7951,
      "ĠáĮĢáĪŃáĪĺáĬķ": 7952,
      "Ġáī°áĪĺáĪ³áĪ³áĭŃ": 7953,
      "ĠáĬłáī£áĪĭáīµ": 7954,
      "áĬ®áĬĸáĪļ": 7955,
      "'o": 7956,
      "Ġnoma": 7957,
      "Ġ37": 7958,
      "land,": 7959,
      "B.": 7960,
      "lot": 7961,
      "onia": 7962,
      "ĠIt": 7963,
      "ĠLife": 7964,
      "ĠCommun": 7965,
      "ÏĤ": 7966,
      "ĠAbe": 7967,
      "ĠUm": 7968,
      "fen": 7969,
      "áĭŃáĪį": 7970,
      "ĠáĬłáĮį": 7971,
      "ĠáĬłáĮł": 7972,
      "ĠCiv": 7973,
      "áĭ¨áĪļ": 7974,
      "áĮłáīµ": 7975,
      "áĪĬáĬķ": 7976,
      "Ġtsakiyar": 7977,
      "ĠáĪĪáĪĽáĪµ": 7978,
      "Ġnasarar": 7979,
      "yÃ²": 7980,
      "ĠIya": 7981,
      "ĠOsu": 7982,
      "Ġsame": 7983,
      "Ġcri": 7984,
      "resent": 7985,
      "fÃº": 7986,
      "hat": 7987,
      "ined": 7988,
      "áĮİáī½": 7989,
      "Ġkisi": 7990,
      "ĠMji": 7991,
      "Ġgidi": 7992,
      "Ġruwan": 7993,
      "ĠáĬ¥áĪ«áĪ±": 7994,
      "ĠNic": 7995,
      "Ġáĭ¨áĬ¡": 7996,
      "áĪīáĬķ": 7997,
      "ĠáĭĵáĭŃáĬĲáīµ": 7998,
      "190": 7999,
      "Ġuwan": 8000,
      "Ġkananan": 8001,
      "ifiki": 8002,
      "Ġ36": 8003,
      "Ġáĭ¨áĬłáĭįáĪ®áįĵ": 8004,
      "ĠáĬłáĪĪáį¢": 8005,
      "wamna": 8006,
      "ĠáĮĢáĪĺáĪ¨": 8007,
      "engwa": 8008,
      "Ġulikuwa": 8009,
      "ĠáĬłáĪĿáī£": 8010,
      "ĠdiffÃ©r": 8011,
      "ĠÃłmÃ¬-áº¹ÌĢyáº¹": 8012,
      "ĠáĬŃáįįáĪĭáĮĪáĪŃ": 8013,
      "me,": 8014,
      "Ġtir": 8015,
      "Ġsyn": 8016,
      "illes": 8017,
      "keji": 8018,
      "Ġexemp": 8019,
      "52": 8020,
      "Ġ1920": 8021,
      "uter": 8022,
      "istoire": 8023,
      "ĠTrans": 8024,
      "anth": 8025,
      "Ġ1973": 8026,
      "Ġáĭ¨áĪ«áĪ±": 8027,
      "ĠSenegal": 8028,
      "ĠBak": 8029,
      "Ġhalin": 8030,
      "Ġhaki": 8031,
      "áĪ°áĪį": 8032,
      "Ġzabe": 8033,
      "áĭĺáĭį": 8034,
      "Ġkiongozi": 8035,
      "¢áīµáĭ®áĮµáĭ«áĬķ": 8036,
      "ĠáĪĺáĪįáĬ©": 8037,
      "Ġáī°áĬ¨áī³áĭŃ": 8038,
      "Ġhalit": 8039,
      "Ġmillion": 8040,
      "Ġjam'iyyar": 8041,
      "At": 8042,
      "xford": 8043,
      "yáº¹Ìģ": 8044,
      "zza": 8045,
      "Ġyáº¹": 8046,
      "Kar": 8047,
      "Mar": 8048,
      "atia": 8049,
      "ĠSab": 8050,
      "ĠChuo": 8051,
      "assi": 8052,
      "omini": 8053,
      "Ġany": 8054,
      "s:": 8055,
      "Ã£": 8056,
      "ÏĦ": 8057,
      "ange": 8058,
      "ĠAle": 8059,
      "Ġ(c": 8060,
      "ĠáĮĦ": 8061,
      "áĪĺáĬĳ": 8062,
      "ĠCap": 8063,
      "áĬŃáĪŃáĪµáī¶áĪµ": 8064,
      "ĠL'": 8065,
      "Ġáī°áĭ°áĪŃ": 8066,
      "ĠáĪĿáĪħ": 8067,
      "ĠáĪµáĭ«áĪľ": 8068,
      "Ġkakar": 8069,
      "ungano": 8070,
      "Ġdukkan": 8071,
      "ĠTuranci": 8072,
      "Ġáĭ¨áĪĨáĬĲáĭį": 8073,
      "badili": 8074,
      "Ġjusqu": 8075,
      "-c": 8076,
      "Ġ1985": 8077,
      "husi": 8078,
      "yÃ¬": 8079,
      "usha": 8080,
      "ĠÃ¬dÃł": 8081,
      "Ã²gÃ¹n": 8082,
      "ĠDin": 8083,
      "á»įÌģnÃł": 8084,
      "ÉĻ": 8085,
      "ulus": 8086,
      "Ġ1971": 8087,
      "Ġincluding": 8088,
      "Ġcre": 8089,
      "ikata": 8090,
      "ĠBras": 8091,
      "áĬĲáĬĽ": 8092,
      "áĪĭáĪĭ": 8093,
      "utres": 8094,
      "ĠáĭŃáĪĺ": 8095,
      "ĠRed": 8096,
      "áĭ³áĪª": 8097,
      "ĠáīĢáĭŃ": 8098,
      "áĪİáĪµ": 8099,
      "ĠAlhaji": 8100,
      "elekea": 8101,
      "Ġshawara": 8102,
      "áī£áī¢áĪİáĬķ": 8103,
      "ĠDevelopment": 8104,
      "ĠKikatoliki": 8105,
      "54": 8106,
      "Ġsing": 8107,
      "rian": 8108,
      "embe": 8109,
      "ĠDuba": 8110,
      "cus": 8111,
      "ĠSoma": 8112,
      "ĠBern": 8113,
      "usiness": 8114,
      "katar": 8115,
      "Ġá»įká»į": 8116,
      "ĠOlÃ¹": 8117,
      "Ġá¹£áº¹ÌĢ": 8118,
      "ĠÃĮjá»įba": 8119,
      "Ġnomba": 8120,
      "Ġkaláº¹ÌĢ": 8121,
      "ĠdÃłgbÃł": 8122,
      "Alimfuata": 8123,
      "áĬķáĮ»": 8124,
      "time": 8125,
      "Ġfasaha": 8126,
      "áĮįáĬĵ": 8127,
      "áīłáī³áĪįáį¢": 8128,
      "Ġdeath": 8129,
      "ilway": 8130,
      "ĠRes": 8131,
      "áĭ¨áĪ©": 8132,
      "Ġzao": 8133,
      "ĠÆĻwarar": 8134,
      "Ġamince": 8135,
      "Ġkasuwa": 8136,
      "Ġtsara": 8137,
      "ĠáĮ£áĪį": 8138,
      "Viungo": 8139,
      "áĪªáī³áĬķáĭ«": 8140,
      "Ġshirye-shiryen": 8141,
      "Ġkur": 8142,
      "wal": 8143,
      "ites": 8144,
      "umbe": 8145,
      "wanza": 8146,
      "Ġlow": 8147,
      "ĠSim": 8148,
      "eriod": 8149,
      "Ġ2012.": 8150,
      "ĠShehu": 8151,
      "jet": 8152,
      "ession": 8153,
      "ĠAcc": 8154,
      "hip": 8155,
      "ĠDam": 8156,
      "ĠFal": 8157,
      "bio": 8158,
      "tein": 8159,
      "ano,": 8160,
      "bÃ¹": 8161,
      "Ġagbara": 8162,
      "Ġáĭ¨áĪį": 8163,
      "ĠMana": 8164,
      "ĠáīłáĭŃ": 8165,
      "áĪĪáī±": 8166,
      "ĠáĮ¤": 8167,
      "ĠáĪ°áĪŃ": 8168,
      "Ġáĭ°áī¥": 8169,
      "Ġmasarautar": 8170,
      "áīĭáīĭ": 8171,
      "áīģáīµ": 8172,
      "Ġkáº¹tÃł": 8173,
      "Ġkáº¹fÃł": 8174,
      "áĭŃáĪħáĪĿ": 8175,
      "Ġal'umma": 8176,
      "Ġdiffer": 8177,
      "llaye": 8178,
      "Ġáĭ¨áĪħáĭĿáī¥": 8179,
      "áįĲáī¥áĪĬáĬŃ": 8180,
      "ĠKilatini": 8181,
      "ĠáĬĽáĭį": 8182,
      "Ġmahaifiyar": 8183,
      "áĥ": 8184,
      "Ġstu": 8185,
      "lav": 8186,
      "ques,": 8187,
      "zi,": 8188,
      "ser": 8189,
      "Ġbata": 8190,
      "ĠZe": 8191,
      "ĠItalia.": 8192,
      "test": 8193,
      "Ġport": 8194,
      "ĠOlo": 8195,
      "ard,": 8196,
      "ĠpÃ©ri": 8197,
      "Ġuse": 8198,
      "Ġatom": 8199,
      "Ġmer": 8200,
      "áĭµáĪ¨": 8201,
      "ĠáĪĿáĭķáĪ«": 8202,
      "Ġshi.": 8203,
      "Ġáī¤áī¶áī½": 8204,
      "áĮ»áįĪ": 8205,
      "okras": 8206,
      "Ġáĭ¨áĬĲáĮĪ": 8207,
      "frican": 8208,
      "Ġchake.": 8209,
      "Ġarewacin": 8210,
      "Ġáĭ¨áĪĻáĭļáīĥ": 8211,
      "Ġwatumwa": 8212,
      "ksi": 8213,
      "Ġame": 8214,
      "Ãłwá»įn": 8215,
      "Ġojoibi": 8216,
      "Ġ(10": 8217,
      "Ġrem": 8218,
      "Ġeko": 8219,
      "bangi": 8220,
      "Af": 8221,
      "elo": 8222,
      "Ġ(Y": 8223,
      "alamu": 8224,
      "wos": 8225,
      "titu": 8226,
      "atique": 8227,
      "áĮįáĪĽáĭĬ": 8228,
      "Ġsayari": 8229,
      "áĮĭáĮĪáĪŃ": 8230,
      "áĬķáĮįáĪ¥áīµ": 8231,
      "áĭ±áīµ": 8232,
      "ĠZimbabwe": 8233,
      "ĠáĬ¥áĪµáĬ«": 8234,
      "Ġshaharar": 8235,
      "ĠEdward": 8236,
      "ĠHanyoyin": 8237,
      "ĠKibantu": 8238,
      "Ġcikak": 8239,
      "Ġáĭ©áĬĴáī¨áĪŃáĪ²áī²": 8240,
      "Ġtakwas": 8241,
      "ĠáĮįáĬķáĬĻáĬĲáīµ": 8242,
      "furu": 8243,
      "Ġlater": 8244,
      "ĠNairo": 8245,
      "Ġrefer": 8246,
      "cle": 8247,
      "dÃ¹n": 8248,
      "vy": 8249,
      "Ġawo": 8250,
      "áº¹gáº¹": 8251,
      "ĠAso": 8252,
      "ur,": 8253,
      "ĠKeb": 8254,
      "ĠÃłsÃ¬kÃ²": 8255,
      "ĠSpe": 8256,
      "ĠÃ¬yÃłwÃ³": 8257,
      "ĠÃ¬tÃłgÃ©": 8258,
      "á¹£ep": 8259,
      "kÃ¬tÃ¬": 8260,
      "Ġaá¹£ojÃº": 8261,
      "ĠÃłkÃ³kÃ²": 8262,
      "77": 8263,
      "Ġauri": 8264,
      "bogbo": 8265,
      "ĠGreek": 8266,
      "Akwai": 8267,
      "tary": 8268,
      "áĬķáĮĢ": 8269,
      "ĠAá¹£": 8270,
      "áĭµáīħ": 8271,
      "ĠTele": 8272,
      "ĠCons": 8273,
      "áĬŃáĪĿáĬĵ": 8274,
      "ga.": 8275,
      "sid": 8276,
      "kim": 8277,
      "ĠáĬ¥áĬķáĭ´áīµ": 8278,
      "áĮłáī¥": 8279,
      "ĠáĭĭáĮĭ": 8280,
      "Ġáī°áĪĺáĪį": 8281,
      "Ġmfumo": 8282,
      "ĠáĪģáĪĪáī°áĬĽ": 8283,
      "sta": 8284,
      "ĠKore": 8285,
      "ĠDani": 8286,
      "ari.": 8287,
      "go.": 8288,
      "ĠVirgin": 8289,
      "ĠUnion": 8290,
      "Ġplace": 8291,
      "gro": 8292,
      "Ġfal": 8293,
      "ĠCup": 8294,
      "bic": 8295,
      "ËĪ": 8296,
      "Ġur": 8297,
      "Ġgano": 8298,
      "Ġ2009.": 8299,
      "ĠilÃ¨": 8300,
      "ector": 8301,
      "Ġagainst": 8302,
      "-p": 8303,
      "jec": 8304,
      "áĬĵáĮĪáĪŃ": 8305,
      "Ġkupi": 8306,
      "umbi": 8307,
      "ĠJohann": 8308,
      "ĠáīłáĪ¥": 8309,
      "ĠáĬŃáĪŃ": 8310,
      "áī¢áĭŃ": 8311,
      "Ġmatan": 8312,
      "Ġfiye": 8313,
      "áĪµáīµáĪª": 8314,
      "áĭ°áī¥áĪ¨": 8315,
      "áįĸáĪŃáīµ": 8316,
      "ĠáĬ¨áĭļáĭ«áĪĿ": 8317,
      "br": 8318,
      "ĠM.": 8319,
      "aniya": 8320,
      "Ġ400": 8321,
      "ĠBuhari": 8322,
      "Ġtrois": 8323,
      "Ġdim": 8324,
      "Ġinflu": 8325,
      "olin": 8326,
      "ories": 8327,
      "bá»į": 8328,
      "zikin": 8329,
      "Ġlat": 8330,
      "áĭ«áīĦ": 8331,
      "áĪĪáīłáīµ": 8332,
      "ĠáĬłáĬŃ": 8333,
      "Ġnigb": 8334,
      "ĠFasaha": 8335,
      "rey": 8336,
      "ĠáĪĪáĭĪ": 8337,
      "Ġwase": 8338,
      "Ġkarshen": 8339,
      "ĠáĮ¥áīłáī¥": 8340,
      "áĪĲáĪ´": 8341,
      "Ġwasanni": 8342,
      "ĠFrÃ¡n": 8343,
      "ĠáĮ¨áĪĿáĪ®": 8344,
      "-oÃ²rÃ¹n": 8345,
      "ĠáĬłáĪµáī°áĭ³áĭ°áĮį": 8346,
      "ĠYammacin": 8347,
      "Ġukoloni": 8348,
      "owever,": 8349,
      "áīħáĭ«áĬĸáĪµ": 8350,
      "ĠMara": 8351,
      "elÃ©": 8352,
      "Ġthrough": 8353,
      "pya": 8354,
      "el.": 8355,
      "ĠGlo": 8356,
      "yi,": 8357,
      "ĠPremi": 8358,
      "TV": 8359,
      "ĠAz": 8360,
      "Ġwasi": 8361,
      "irs": 8362,
      "Ġ\"C": 8363,
      "poli": 8364,
      "ĠáīłáĮĭ": 8365,
      "Ġáīł16": 8366,
      "ĠáĬłáī¡": 8367,
      "ĠáĪĺáī¥": 8368,
      "ellow": 8369,
      "áĪĽáī¸áĭį": 8370,
      "Ġsaka": 8371,
      "Ġáĭĺáĭį": 8372,
      "ĠáĪįáĪĽ": 8373,
      "áĮ½áĭĭáīµ": 8374,
      "ĠáĮĪáĬĵ": 8375,
      "ĠáĪ¥áĮĭ": 8376,
      "Ġ(2003)": 8377,
      "ĠáĬłáĭįáĪ«": 8378,
      "Ġlililo": 8379,
      "Ġáĭ°áĪ´áīµ": 8380,
      "ĠáįĪáĪ¨áĬķáĪ³áĭŃ": 8381,
      "Ġsigni": 8382,
      "44": 8383,
      "Ġiba": 8384,
      "á»įÌģlÃ¡": 8385,
      "ĠÃ¬pÃŃn": 8386,
      "ĠÃ¬wá»įÌĢ": 8387,
      "Ã²Ã³": 8388,
      "ĠFer": 8389,
      "ĠmÃ¡rÃ¹n": 8390,
      "ĠÃ²á¹£Ã¨rÃ©kÃ¹nrin": 8391,
      "ulit": 8392,
      "Ġmáº¹Ìģrin": 8393,
      "Ġdog": 8394,
      "ĠAkwa": 8395,
      "chol": 8396,
      "ridge": 8397,
      "Ġma'": 8398,
      "inguis": 8399,
      "Ġdesign": 8400,
      "Ġ1981": 8401,
      "Ġrecord": 8402,
      "gÃł": 8403,
      "ªáĭ«": 8404,
      "Ġáī²": 8405,
      "Ġlenye": 8406,
      "ĠAsa": 8407,
      "ĠáĬĲáįĥ": 8408,
      "ĠáĪĺáĪĭ": 8409,
      "ĠáĪĺáĬĸ": 8410,
      "Ġhapo": 8411,
      "we.": 8412,
      "Ġ1969": 8413,
      "áįĬáĭİáī½": 8414,
      "Ġd'I": 8415,
      "ĠáĪļáĬ«áĬ¤áĪį": 8416,
      "ĠáĬªáĭ³áĬķ": 8417,
      "ĠBirnin": 8418,
      "Ġáīłáī¥áĭĻ": 8419,
      "Ġjimillar": 8420,
      "áīĢáĪĺáĮ«": 8421,
      "ĠPasifiki": 8422,
      "ĠáĮłáīħáĪĭáĭŃ": 8423,
      "eux": 8424,
      "light": 8425,
      "Ġcho": 8426,
      "ĠScience": 8427,
      "ological": 8428,
      "ĠWilliams": 8429,
      "-L": 8430,
      "69": 8431,
      "NN": 8432,
      "Ġtá»įÌģ": 8433,
      "ĠnÇ¹kan": 8434,
      "Ã¬lÃº": 8435,
      "Ġvon": 8436,
      "finan": 8437,
      "Ġolori": 8438,
      "Ġstru": 8439,
      "áº¹Ìģráº¹Ìģ": 8440,
      "ĠlÃ³rÃŃláº¹ÌĢ": 8441,
      "ĠfÃ¬dÃŃ": 8442,
      "ds": 8443,
      "ale,": 8444,
      "Ġthese": 8445,
      "ĠKuma": 8446,
      "Ġappe": 8447,
      "tÃ¹": 8448,
      "áĪ¦": 8449,
      "Ġty": 8450,
      "Ġkufanya": 8451,
      "áĭ°áĪŃáĪµ": 8452,
      "ĠáĪĺáĮĢáĪĺáĪªáĭ«": 8453,
      "áĪ«áĭįáĭ«áĬķ": 8454,
      "Ġhuru": 8455,
      "áĮ¥áĬĲáīµ": 8456,
      "ĠáĪĿáĬĴáĪįáĬŃ": 8457,
      "Ġsab": 8458,
      "áĮĭáī¢áīµ": 8459,
      "idd": 8460,
      "ĠZiwa": 8461,
      "áī¤áī±": 8462,
      "Ġwasemaji": 8463,
      "Historia": 8464,
      "vant": 8465,
      "astern": 8466,
      "ĠCross": 8467,
      "etnam": 8468,
      "kula": 8469,
      "ter,": 8470,
      "ĠCOVID-19": 8471,
      "67": 8472,
      "Ġsin": 8473,
      "ĠIran": 8474,
      "ĠPulit": 8475,
      "nie": 8476,
      "ĠArts": 8477,
      "uthor": 8478,
      "OrÃŃ": 8479,
      "ango": 8480,
      "Ã¡ÃŃ": 8481,
      "ĠGram": 8482,
      "ĠlÃ¡tÃłrÃŃ": 8483,
      "tÃ²já»į": 8484,
      "ĠagbÃ¡bá»įÌģá»įÌĢlÃ¹": 8485,
      "ĠFrÃ¡nsÃ¬": 8486,
      "-áĬ¢": 8487,
      "68": 8488,
      "mond": 8489,
      "Ġmbunge": 8490,
      "ĠbÃ³": 8491,
      "áĭ«áĪįáį¢": 8492,
      "áĭ«áĭįáĭ«áĬķ": 8493,
      "áĪ³áĭį": 8494,
      "ĠDut": 8495,
      "ĠáĭĵáĪĭáĪĽ": 8496,
      "Ġáĭ¨áĪĺáĮ£": 8497,
      "ĠáĪĬáĪĨáĬķ": 8498,
      "Ġáĭķáĭį": 8499,
      "Ġkamfan": 8500,
      "Ġasilimia": 8501,
      "ĠáĪľáĭ³": 8502,
      "ĠTarayya": 8503,
      "zungum": 8504,
      "à¥": 8505,
      "ĠKai": 8506,
      "ĠIgbo": 8507,
      "ĠreprÃ©sent": 8508,
      "Ro": 8509,
      "uren": 8510,
      "Ġisi": 8511,
      "Ðº": 8512,
      "Ġclassi": 8513,
      "Ġl'h": 8514,
      "ĠPress,": 8515,
      "pinduzi": 8516,
      "ual": 8517,
      "wen": 8518,
      "á»": 8519,
      "Ġsá»įÌĢrá»įÌĢ": 8520,
      "Ġmáº¹ÌģrÃ¬n": 8521,
      "Ã©.": 8522,
      "áĪĿáīłáĪŃ": 8523,
      "Ġpáº¹Ìģ": 8524,
      "ĠKit": 8525,
      "ĠjÃŃ": 8526,
      "áī³áĪĿ": 8527,
      "ĠáĭĪáĭĺ": 8528,
      "Ġáĭ«áĭį": 8529,
      "áīłáĪ®": 8530,
      "áĬķáĭµáĪµáĬĵ": 8531,
      "áĬķáĮįáĪµáīµ": 8532,
      "amua": 8533,
      "asile": 8534,
      "áī¹áĬķ": 8535,
      "áĮĥáĭĿáĪĽáī½": 8536,
      "endant": 8537,
      "ĠyÃ¬ÃŃ,": 8538,
      "dÃ¡sÃŃláº¹ÌĢ": 8539,
      "ĠKuu": 8540,
      "ĠáĮ¸áĪĲáįĬ": 8541,
      "ĠÃĪkÃ³.": 8542,
      "ĠáīłáĪŃáĬ«áī³": 8543,
      "ĠáĬłáĪµáī°áĭ³áĭ°áĪŃ": 8544,
      "Ġshugabar": 8545,
      "Ġtáº¹lifÃŃá¹£": 8546,
      "Ġgun": 8547,
      "ĠEdo": 8548,
      "Ġmm": 8549,
      "oph": 8550,
      "Ġautres": 8551,
      "eria": 8552,
      "ĠlÃł": 8553,
      "ĠP.": 8554,
      "ĠJari": 8555,
      "oni.": 8556,
      "kundu": 8557,
      "áĬ»": 8558,
      "Ġdun": 8559,
      "Ġyaki": 8560,
      "Ġopo": 8561,
      "áĪįáĬĵ": 8562,
      "Ġcat": 8563,
      "áĬĲáĮĪ": 8564,
      "áīłáĬłáĪ": 8565,
      "áį¡áĬł": 8566,
      "ÆĻo": 8567,
      "pokea": 8568,
      "áĮ»áįį": 8569,
      "ĠáĬ¢áĬķ": 8570,
      "ĠBened": 8571,
      "Ġdauke": 8572,
      "ĠÆ´ar": 8573,
      "isti": 8574,
      "Ġcla": 8575,
      "Ġfáº¹": 8576,
      "ĠIbujoko": 8577,
      "ĠÃ¬á¹£e": 8578,
      "Ġyá»į": 8579,
      "fa,": 8580,
      "Ġ\"The": 8581,
      "ck,": 8582,
      "by": 8583,
      "bes": 8584,
      "Ġbien": 8585,
      "pions": 8586,
      "pos": 8587,
      "wor": 8588,
      "Ġnye": 8589,
      "kasi": 8590,
      "ĠSing": 8591,
      "ĠSudan": 8592,
      "oja": 8593,
      "áĮ©": 8594,
      "Ġtakarar": 8595,
      "áī¥áĬĽ": 8596,
      "áĪ¨áįĪ": 8597,
      "áĭ²áĪ±": 8598,
      "Ġcewar": 8599,
      "áĪ¬áĬķ": 8600,
      "Ġmatakin": 8601,
      "ĠáĬªáĪİ": 8602,
      "Ġgabashin": 8603,
      "chaguliwa": 8604,
      "ĠáĬłáĭµáĪŃáĮİ": 8605,
      "ĠáĪļáĬĴáĪµáīµáĪŃ": 8606,
      "Ġmvua": 8607,
      "Ġ1914": 8608,
      "19)": 8609,
      "alitÃ©": 8610,
      "chie": 8611,
      "Ġl'ar": 8612,
      "Ġhttp://": 8613,
      "ĠDenmar": 8614,
      "Kam": 8615,
      "Ġmov": 8616,
      "ĠoÃ²rÃ¹n": 8617,
      "ikh": 8618,
      "ÃłnÃŃ": 8619,
      "face": 8620,
      "log": 8621,
      "hout": 8622,
      "Ġgbajumo": 8623,
      "ĠJac": 8624,
      "kina": 8625,
      "ĠAD": 8626,
      "urop": 8627,
      "Ġsud": 8628,
      "ĠprÃ©sent": 8629,
      "mall": 8630,
      "ĠáĬ¦áĪŃ": 8631,
      "Ġmes": 8632,
      "Ġprom": 8633,
      "áĬĲáĪ£": 8634,
      "Ġáĭ¨áĪļáī£áĪį": 8635,
      "áĪĬáĭ«áĬķ": 8636,
      "Ġkipindi": 8637,
      "Ġakafuatwa": 8638,
      "itabu": 8639,
      "áĪµáī°áĪŃ": 8640,
      "itÃ©s": 8641,
      "ĠRivers": 8642,
      "ĠáĪŃáĭķ": 8643,
      "ĠIndiya": 8644,
      "ĠáĬłáĪĽáĬ«": 8645,
      "ĠElezo": 8646,
      "ĠáĬĹáĪª": 8647,
      "Ġáīłáī°áĪĪáĭŃáĪĿ": 8648,
      "ĠáĮ½áĪķáįĪáīµ": 8649,
      "abi": 8650,
      "Ġiki": 8651,
      "ĠGida": 8652,
      "Ġmodern": 8653,
      "at,": 8654,
      "Ġpass": 8655,
      "ĠKab": 8656,
      "ata,": 8657,
      "âĢĻs": 8658,
      "áĪĲáĭŃ": 8659,
      "Ġ6.": 8660,
      "Cette": 8661,
      "ĠdarÃŃ": 8662,
      "ÃºlÃ©": 8663,
      "ĠÃłwÃ¹já»į": 8664,
      "ĠTown": 8665,
      "ĠonÃŃá¹£": 8666,
      "Ġolud": 8667,
      "AM": 8668,
      "PC": 8669,
      "tats": 8670,
      "Ġcham": 8671,
      "ĠáĭĪáĮ£": 8672,
      "áĭ¨áĬłáĪ": 8673,
      "ĠáĬ¥áĬķáĭµ": 8674,
      "Ġsadar": 8675,
      "áĮ£áĪª": 8676,
      "kanna": 8677,
      "ĠáīłáĪĺáĪµ": 8678,
      "ĠáĪĻáĭļáīĥ": 8679,
      "Ġasilia": 8680,
      "ĠáĪĨáĬĸáĪĿ": 8681,
      "ĠáĮĪáĬķáĭĺáī¥": 8682,
      "Pia": 8683,
      "Ġbun": 8684,
      "taire": 8685,
      "unawa": 8686,
      "Ġdescri": 8687,
      "Ġ80": 8688,
      "Ġkalenda": 8689,
      "ĠAnambra": 8690,
      "98": 8691,
      "Ġind": 8692,
      "deo": 8693,
      "ĠMada": 8694,
      "ices": 8695,
      "tps": 8696,
      "Ġpoliti": 8697,
      "ĠBunge": 8698,
      "Ġbefore": 8699,
      "ardin": 8700,
      "-Ã¡n": 8701,
      "Bisa": 8702,
      "Ġ0.": 8703,
      "wahi": 8704,
      "ĠgbÃŃ": 8705,
      "áĭ°áĮĪ": 8706,
      "áĮįáĬĺáīµ": 8707,
      "Ġmaarufu": 8708,
      "ĠÃ¬wÃł": 8709,
      "ĠyÃ¡": 8710,
      "Ġlaarin": 8711,
      "ĠGud": 8712,
      "Ġvina": 8713,
      "Ġule": 8714,
      "Ġáĭ°áĮĭ": 8715,
      "Ġconc": 8716,
      "Ġradi": 8717,
      "Ġaddini": 8718,
      "ĠolÃ¹gbÃ©": 8719,
      "ĠáĪģáĪīáĪĿ": 8720,
      "áį²áį±áį»áį¶áį": 8721,
      "áĪĽáĭŃáĪµáĮ¥": 8722,
      "Ġdauki": 8723,
      "ĠáĪļáĬĴáĪµáī´": 8724,
      "Elle": 8725,
      "Ġlissa": 8726,
      "ĠáĭµáĬķáĮĭáĭŃ": 8727,
      "Rayuwar": 8728,
      "ĠCouncil": 8729,
      "gr": 8730,
      "Ð»": 8731,
      "Ġ1964": 8732,
      "Ġland": 8733,
      "Ġville": 8734,
      "Ġsupport": 8735,
      "pond": 8736,
      "Ñģ": 8737,
      "ĠAja": 8738,
      "ased": 8739,
      "áĪĿáĪĮ": 8740,
      "áĪįáĪĿáĬĵ": 8741,
      "áĮĭáĪª": 8742,
      "áī¦áĪŃ": 8743,
      "ale.": 8744,
      "shinda": 8745,
      "ronom": 8746,
      "ghuli": 8747,
      "Ġdare": 8748,
      "ÃŃÃł": 8749,
      "ere,": 8750,
      "Ġgre": 8751,
      "ĠÃłpapá»įÌĢ": 8752,
      "usal": 8753,
      "ĠkÃ©de": 8754,
      "Ġaká»įká»į": 8755,
      "ĠkÃ¡Ãłkiri": 8756,
      "BÃ¡kan": 8757,
      "Ġcaract": 8758,
      "Ġmach": 8759,
      "ini.": 8760,
      "ĠYesu": 8761,
      "ĠAss": 8762,
      "ĠFestival": 8763,
      "tps://": 8764,
      "bles": 8765,
      "ĠPra": 8766,
      "vient": 8767,
      "Eneo": 8768,
      "anzo": 8769,
      "Ġ(áĬłáĪ": 8770,
      "ĠMili": 8771,
      "áĪĪáĪ°": 8772,
      "áĭ°áĮĭ": 8773,
      "áĪ«áĪª": 8774,
      "áī³áĪªáĬŃ": 8775,
      "áī£áī±": 8776,
      "áĮ¥áĪ¨áīµ": 8777,
      "áĬ«áĬķ": 8778,
      "áĭĭáĪŃáĭ«": 8779,
      "áĭĿáĬĵ": 8780,
      "Ġhukun": 8781,
      "ÉĹe": 8782,
      "áī²áīµ": 8783,
      "ĠWaarabu": 8784,
      "Ġ1972": 8785,
      "uruki": 8786,
      "Ġ1945": 8787,
      "ĠáĪķáĭŃáĭĪáīµ": 8788,
      "antake": 8789,
      "Ġyarjejen": 8790,
      "Ġutamaduni": 8791,
      "Ġkowane": 8792,
      "inent": 8793,
      "engo": 8794,
      "ĠDun": 8795,
      "si,": 8796,
      "haria": 8797,
      "Ġanal": 8798,
      "Ġ1962": 8799,
      "fication": 8800,
      "64": 8801,
      "hama": 8802,
      "Ġwá»įÌģ": 8803,
      "ĠÃłá¹£áº¹": 8804,
      "ĠÃ¬á¹£Ã¨": 8805,
      "ĠÃ¡n": 8806,
      "viron": 8807,
      "gÃ¨": 8808,
      "ston": 8809,
      "ĠAna": 8810,
      "ensis": 8811,
      "Ġdisc": 8812,
      "92": 8813,
      "vement": 8814,
      "áĮĲ": 8815,
      "áĭįáĬĵ": 8816,
      "áī½áĪī": 8817,
      "ĠáĬłáĭĪ": 8818,
      "áĭ°áī¡áī¥": 8819,
      "ĠáĪĺáī¥áīµ": 8820,
      "refu": 8821,
      "ĠáĪµáī´": 8822,
      "áĭļáĭ«áĬķ": 8823,
      "ĠáĬĲáīłáĪŃáį¡áį¡": 8824,
      "áĮ¨áīµ": 8825,
      "ĠBaba": 8826,
      "attun": 8827,
      "ĠáįĬáĪį": 8828,
      "Ġume": 8829,
      "Ġmamaye": 8830,
      "Ġ(lafazi": 8831,
      "Ġ(áĭĪáĭŃáĪĿ": 8832,
      "):": 8833,
      "isation": 8834,
      "cept": 8835,
      "ster": 8836,
      "ansu": 8837,
      "Ġatomu": 8838,
      "ĠSociety": 8839,
      "ey": 8840,
      "Ġoro": 8841,
      "tif": 8842,
      "ĠAlger": 8843,
      "Ã´te": 8844,
      "Lá»įÌģ": 8845,
      "Ohun": 8846,
      "Ġure": 8847,
      "arth": 8848,
      "ĠmÃ³": 8849,
      "Ġfour": 8850,
      "ĠCour": 8851,
      "ĠÃ¬dÃ¬": 8852,
      "ĠÃ¬lÃł": 8853,
      "ÃŃnÃł": 8854,
      "ĠorÃŃá¹£irÃŃá¹£i": 8855,
      "ĠGuusu": 8856,
      "ĠOrile-ede": 8857,
      "já»įÌĢgbá»įÌģn": 8858,
      ")áį¢": 8859,
      "yle": 8860,
      "Ġmito": 8861,
      "ĠáĮĵ": 8862,
      "áĪ«áĬĴ": 8863,
      "fici": 8864,
      "Ġmatasa": 8865,
      "ĠWaingereza": 8866,
      "iriwa": 8867,
      "Ġáīłáī°áĪĪáĭ«áĭ©": 8868,
      "ĠáīłáĬłáĭ²áĪµ": 8869,
      "ĠáįįáīħáĪŃ": 8870,
      "ccen": 8871,
      "ĠáĬłáĪįáįĭ": 8872,
      "Ġáĭ¨áĬĲáīłáĪ©": 8873,
      "Ġduniya,": 8874,
      "Ġáī¤áī°áĬŃáĪŃáĪµáī²áĭ«áĬķ": 8875,
      "ĠTechn": 8876,
      "Ġkiran": 8877,
      "Ġáĭ¨áįĸáĪĪáī²áĬ«": 8878,
      "IN": 8879,
      "ure,": 8880,
      "Ġhapa": 8881,
      "Ã©rica": 8882,
      "ĠCoast": 8883,
      "mÃ³": 8884,
      "urar": 8885,
      "omme": 8886,
      "osp": 8887,
      "Ġkansa": 8888,
      "ĠthÃ©": 8889,
      "Ġd'Ã©": 8890,
      "ĠRadio": 8891,
      "ship": 8892,
      "Ġcentury": 8893,
      "53": 8894,
      "fari": 8895,
      "Ġword": 8896,
      "ĠTour": 8897,
      "ĠCount": 8898,
      "gali": 8899,
      "ĠGr": 8900,
      "Ġ1952": 8901,
      "ussia": 8902,
      "-ede": 8903,
      "táº¹Ìģ": 8904,
      "wá»įÌģn": 8905,
      "ĠáĬĶ": 8906,
      "Ġnamba": 8907,
      "Ġáĭ¨áĭķ": 8908,
      "Ġima": 8909,
      "áĭ«áīµ": 8910,
      "ĠáīłáĪ®": 8911,
      "ĠHab": 8912,
      "áĬ«áĭµ": 8913,
      "áįĪáĪ«": 8914,
      "Ġáº¹Ìģ": 8915,
      "woorun": 8916,
      "Ġsoja": 8917,
      "ĠáĪķáĮį": 8918,
      "Ġkyau": 8919,
      "áį²áį±áį»áį·áį": 8920,
      "ĠHausawa": 8921,
      "Ġwatoto": 8922,
      "Ġmsingi": 8923,
      "okrasia": 8924,
      "pÃł": 8925,
      "Ġhor": 8926,
      "pedia.": 8927,
      "100": 8928,
      "Ġmor": 8929,
      "ĠHali": 8930,
      "Ġorgan": 8931,
      "Ġem": 8932,
      "ovu": 8933,
      "Ġthen": 8934,
      "Ġmoins": 8935,
      "Ġsite": 8936,
      "Ġmche": 8937,
      "Ġ(da": 8938,
      "Ġpub": 8939,
      "Ġiwa": 8940,
      "ĠáīłáĭļáĪģ": 8941,
      "ĠKikuu": 8942,
      "ĠCan": 8943,
      "buwar": 8944,
      "Ġuta": 8945,
      "áĭĿáī¡": 8946,
      "ĠVisiwa": 8947,
      "ĠáīłáĪĺáĮ¨áĪ¨áĪ»": 8948,
      "ĠáĬłáĬķáĭ°": 8949,
      "ĠAfirka.": 8950,
      "ĠáįĬáĭ°": 8951,
      "Ġ2020.": 8952,
      "áĮĪáĪĪáĮį": 8953,
      "Ã®t": 8954,
      "ĠáĪªáįĲáī¥áĪĬáĬŃ": 8955,
      "ĠáīłáĭĵáĪĪáĪĿ": 8956,
      "Ġshule": 8957,
      "ĠáĮłáĪĭ": 8958,
      "Ġagbe": 8959,
      "Ġint": 8960,
      "Ġyii": 8961,
      "Ġkáº¹rÃ¬n": 8962,
      "ĠolÃ¹ká»įÌģ": 8963,
      "ĠJohnson": 8964,
      "83": 8965,
      "alle": 8966,
      "rea": 8967,
      "Ġalum": 8968,
      "Ġ\"m": 8969,
      "áĪĿáĪµ": 8970,
      "dugu": 8971,
      "Ġspeci": 8972,
      ":-": 8973,
      "hispania": 8974,
      "oto": 8975,
      "áī°áĬŀáī½": 8976,
      "ĠFl": 8977,
      "áĪħáĪŃ": 8978,
      "ÆĻe": 8979,
      "Ġuwe": 8980,
      "ĠÆĻir": 8981,
      "ĠáĮįáĪ«": 8982,
      "Ġáĭ¨áī°áīĢ": 8983,
      "áĪĬáĪµ": 8984,
      "pokuwa": 8985,
      "chite": 8986,
      "Ġardhi": 8987,
      "áĭĵáĪĪáĪĿ": 8988,
      "ĠáĬ¢áĭ¨áĪ±áĪµ": 8989,
      "Ġkilimo": 8990,
      "Ġjamhuri": 8991,
      "ĠWanasayansi": 8992,
      "ĠFM,": 8993,
      "Ø¹": 8994,
      "Ġq": 8995,
      "Ġgovernment": 8996,
      "diyo": 8997,
      "faa": 8998,
      "Ġ0-": 8999,
      "ĠSwed": 9000,
      "org/wiki": 9001,
      "dáº¹": 9002,
      "ÃłbÃ¡": 9003,
      "Ã¬á¹£áº¹Ìģ": 9004,
      "ĠÃłrÃŃwÃ¡": 9005,
      "laka": 9006,
      "ĠOxford": 9007,
      "ini,": 9008,
      "ĠÃĢgbÃł": 9009,
      "pole": 9010,
      "Ġlik": 9011,
      "ĠCompan": 9012,
      "ĠÃ¬lÃłnÃł": 9013,
      "ĠPopu": 9014,
      "ain": 9015,
      "Ġaj": 9016,
      "Ġmana": 9017,
      "ĠNje": 9018,
      "ĠD.": 9019,
      "ĠU.S.": 9020,
      "oton": 9021,
      "ĠPaulo": 9022,
      "ĠArgentina": 9023,
      "kya": 9024,
      "Ãģ": 9025,
      "Ġtashi": 9026,
      "Ġáĭ¨áĮ¦áĪŃ": 9027,
      "Ġdasu": 9028,
      "ĠáīłáĬŃ": 9029,
      "áĪĪáĪį": 9030,
      "ĠJanar": 9031,
      "áįįáī°áĬĽ": 9032,
      "áĭ³áĭĬ": 9033,
      "ĠáĬĲáĭįáį¤": 9034,
      "Ġelimu": 9035,
      "ĠáĮįáĪį": 9036,
      "Ġáĭ°áĪŃ": 9037,
      "Ġáĭ°áī¥áĪ¨": 9038,
      "Ġshekarar,": 9039,
      "áĬĶáīµ": 9040,
      "Ġáĭ¨áĬłáĪŃ": 9041,
      "Ġbuil": 9042,
      "ĠáĪħáĮį": 9043,
      "ĠáīłáĬłáĪľáĪªáĬ«": 9044,
      "ĠGhana.": 9045,
      "ĠFun": 9046,
      "AL": 9047,
      "Ina": 9048,
      "à¸": 9049,
      "ĠBara": 9050,
      "Ġl'E": 9051,
      "Ġd'A": 9052,
      "ĠMexic": 9053,
      "Ġlarin": 9054,
      "ĠOjÃº": 9055,
      "ĠsÃŃwÃ¡jÃº": 9056,
      "ĠorÃŃlÃ¨": 9057,
      "Ġtechni": 9058,
      "ĠÃĪkÃ³,": 9059,
      "Ġakáº¹Ìģ": 9060,
      "ĠPortug": 9061,
      "Ġologun": 9062,
      "yara": 9063,
      "ØŃ": 9064,
      "kasa": 9065,
      "Ġwaye": 9066,
      "ĠáĮ»": 9067,
      "ĠáĬ¥áĮ½áĭĭáīµ": 9068,
      "ĠáĬłáĭ°áĪ¨áĮĪ": 9069,
      "áĬĲáĭĵáĬķ": 9070,
      "áĪ³áī¸áĭįáĬķ": 9071,
      "ĠáīłáĪ±": 9072,
      "Ġáĭ¨áĪ¶": 9073,
      "áĪ®áĪŀ": 9074,
      "áĭ®áīµ": 9075,
      "ĠáĬ¥áĬķáĭ°áĬĲáīłáĪŃ": 9076,
      "ĠhuÉĹu": 9077,
      "áĬĴáīµ": 9078,
      "ĠáĬłáĪµáī°áĭĭ": 9079,
      "áĪµáī³áĬķ": 9080,
      "Ġdigirin": 9081,
      "Ġtashar": 9082,
      "Ġmusulunci": 9083,
      "Ġmallaka": 9084,
      "ĠYear": 9085,
      "ĠáĬ¥áĬķáĬ³áĬķ": 9086,
      "ĠáĭĪáĭĺáī°": 9087,
      "Ġkata": 9088,
      "Ġvid": 9089,
      "Ġtour": 9090,
      "Ġ...": 9091,
      "ĠPoly": 9092,
      "ĠWaziri": 9093,
      "Tun": 9094,
      "bÃ¡n": 9095,
      "beth": 9096,
      "rama": 9097,
      "gaz": 9098,
      "ĠJourn": 9099,
      "Ġbado": 9100,
      "Ġ1961": 9101,
      "Ġ1963": 9102,
      "limin": 9103,
      "Ġpubli": 9104,
      "ĠArm": 9105,
      "Ġ90": 9106,
      "esearch": 9107,
      "vil": 9108,
      "Ġtatta": 9109,
      "áĭįáĪµ": 9110,
      "Ġrana": 9111,
      "ĠÃ¬jÃł": 9112,
      "ĠáīłáĪ³": 9113,
      "ĠUchaguzi": 9114,
      "ciya": 9115,
      "áĬ«áĪŃ": 9116,
      "Ġáĭ¨áī°áĬĲáĪ³": 9117,
      "áīłáīµáį¢": 9118,
      "Ġyankunan": 9119,
      "Ġbiyu.": 9120,
      "Ġmaneno": 9121,
      "ĠáĭŃáĮĪáĪĺ": 9122,
      "ĠÃ¨yÃŃ,": 9123,
      "Ġdangin": 9124,
      "Ġwá»įlÃ©": 9125,
      "Ġjagoranci": 9126,
      "Ġbincike": 9127,
      "inadamu": 9128,
      "ĠÃĮjáº¹ÌĢbÃº": 9129,
      "78": 9130,
      "Ġmem": 9131,
      "Ġmusi": 9132,
      "etu": 9133,
      "oll": 9134,
      "fi,": 9135,
      "ĠLeo": 9136,
      "Ġpartir": 9137,
      "ĠBrasil": 9138,
      "dh": 9139,
      "um.": 9140,
      "Ġwhile": 9141,
      "ĠSokoto": 9142,
      "79": 9143,
      "kusu": 9144,
      "tant": 9145,
      "issa": 9146,
      "leta": 9147,
      "kele": 9148,
      "ĠHouse": 9149,
      "ĠAlbert": 9150,
      "Ġatta": 9151,
      "ĠNigeria,": 9152,
      "Ġarea": 9153,
      "Ġderni": 9154,
      "well": 9155,
      "áĮ®": 9156,
      "Ġmbali": 9157,
      "Ġáĭ¨áįĪáĪ¨áĬķáĪ³áĭŃ": 9158,
      "áĭįáĪį": 9159,
      "ĠáĪĺáī³": 9160,
      "Ġbaki": 9161,
      "áį¡áī°": 9162,
      "fupi": 9163,
      "ĠâĢİ": 9164,
      "Ġalim": 9165,
      "Ġsiasa": 9166,
      "jo,": 9167,
      "Ġyanayo": 9168,
      "ananchi": 9169,
      "ĠáĮīáĪį": 9170,
      "áĪłáī¥": 9171,
      "Ġcommon": 9172,
      "Ġfiramare": 9173,
      "áĪĺáĪĪáĪµ": 9174,
      "Ġambalo": 9175,
      "ráº¹ÌĢ": 9176,
      "any": 9177,
      "tage": 9178,
      "Ġá¹£Ã¨": 9179,
      "antes": 9180,
      "ĠKejÃ¬lÃ¡": 9181,
      "m,": 9182,
      "Ġdur": 9183,
      "ĠBos": 9184,
      "Ġsouvent": 9185,
      "Ġbere": 9186,
      "Ġ(f": 9187,
      "irst": 9188,
      "ĠFas": 9189,
      "ĠQueen": 9190,
      "Ġáĭ¨áįĭ": 9191,
      "Ġboth": 9192,
      "áĪµáī²": 9193,
      "Ġgani": 9194,
      "áĪĽáĪįáį¢": 9195,
      "Ġbabu": 9196,
      "áĭ¨áĬķ": 9197,
      "ÆĻar": 9198,
      "Ġkwallaye": 9199,
      "oni,": 9200,
      "áĪ´áīµ": 9201,
      "Ġriga": 9202,
      "ĠáīłáĪ°áĪľáĬķ": 9203,
      "ĠáĭĺáĪĺáī»": 9204,
      "ĠJamhuriyar": 9205,
      "ĠáĪĺáĭĭáĭķáĪį": 9206,
      "publi": 9207,
      "Ġikon": 9208,
      "ance,": 9209,
      "tainment": 9210,
      "Ġcours": 9211,
      "ian": 9212,
      "mann": 9213,
      "zim": 9214,
      "utun": 9215,
      "ĠÃĮdÃŃ": 9216,
      "ĠÃ²nÃŃ": 9217,
      "ÃĮbáº¹ÌĢráº¹ÌĢ": 9218,
      "Ġkáº¹já»į": 9219,
      "Ġ{": 9220,
      "Ġsanda": 9221,
      "Ġlara": 9222,
      "ĠWhi": 9223,
      "-cent": 9224,
      "áĭ¢": 9225,
      "Ġmlima": 9226,
      "Ġ(6": 9227,
      "aland": 9228,
      "ĠKatoliki": 9229,
      "ikatar": 9230,
      "ĠPara": 9231,
      "ĠáĬłáĪ¥": 9232,
      "áĬ¨áĪ°": 9233,
      "ĠáĮ¥áĭ«áīĦ": 9234,
      "very": 9235,
      "ĠâĢĺyan": 9236,
      "ĠáīłáĪĮáĪĭ": 9237,
      "ĠáĪµáī¥áĪµáī¥": 9238,
      "ĠáĪĬáīĥáĭįáĬķáīµ": 9239,
      "ĠÙħ": 9240,
      "ĠTom": 9241,
      "utan": 9242,
      "Ġend": 9243,
      "Ġ1959": 9244,
      "ĠVietnam": 9245,
      "Mut": 9246,
      "asisi": 9247,
      "table": 9248,
      "18)": 9249,
      "ights": 9250,
      "Ġgáº¹gáº¹": 9251,
      "á¹£á»įÌĢ": 9252,
      "ultan": 9253,
      "Ġvis": 9254,
      "Ġá»ĮlÃ¡": 9255,
      "undwa": 9256,
      "Ġáº¹ranko": 9257,
      "04": 9258,
      "Pro": 9259,
      "fesa": 9260,
      "Ġsashen": 9261,
      "Ġwala": 9262,
      "áĭŃáīħ": 9263,
      "áĭ°áĪŃáĮī": 9264,
      "áĮĪáĭĽ": 9265,
      "Ġáī°áĪĽáĪª": 9266,
      "ĠMapapa": 9267,
      "ĠáĮįáĪªáĬŃ": 9268,
      "Ġáĭ¨áī°áĭĪáĪ°": 9269,
      "áī³áĭĪáīħ": 9270,
      "Ġkalmar": 9271,
      "ĠáĪ¥áĪŃáĭĵáīµ": 9272,
      "zingira": 9273,
      "Ġkidogo": 9274,
      "ajemi": 9275,
      "e)": 9276,
      "Äĵ": 9277,
      "Ġ(t": 9278,
      "Ġitan": 9279,
      "ĠNations": 9280,
      "Ġhistori": 9281,
      "ĠJer": 9282,
      "Ġuntil": 9283,
      "Ġlitt": 9284,
      "Ġdam": 9285,
      "Ġcro": 9286,
      "Ġ2008.": 9287,
      "ĠBad": 9288,
      "Ġbada": 9289,
      "ikoa": 9290,
      "ransis": 9291,
      "bÃ¨": 9292,
      "ring": 9293,
      "Ġáĭĳ": 9294,
      "Ġtam": 9295,
      "Ġschool": 9296,
      "amani": 9297,
      "áĪµáĪĬ": 9298,
      "áĪµáī³áīµ": 9299,
      "Ġiru": 9300,
      "Ġgbi": 9301,
      "ĠBill": 9302,
      "ĠTovuti": 9303,
      "áĬ«áīµ": 9304,
      "imá»į": 9305,
      "ĠáĪµáī¥": 9306,
      "wango": 9307,
      "ĠlÃ¡ÃłÃ¡": 9308,
      "Ġamatsayin": 9309,
      "Ġhuitwa": 9310,
      "Ġáĭ¨áĬłáĪĪáĪĿ": 9311,
      "ateau": 9312,
      "Ġá»įÌĢdá»įÌĢ": 9313,
      "Ġra'a": 9314,
      "Ġambaye": 9315,
      "áįīáīµ": 9316,
      "Ġáī°áĭĪáĪĪáĭ°": 9317,
      "ĠáĬłáĭįáĪ®áįĵ": 9318,
      "ĠRD1-score": 9319,
      "ĠRD1-score0": 9320,
      "ĠsÃ¡bÃł": 9321,
      "ĠáĪĺáĬĲáĪ»": 9322,
      "ĠEmpire": 9323,
      "Ġndege": 9324,
      "Ġhabari": 9325,
      "org/wiki/": 9326,
      "zari": 9327,
      "ly,": 9328,
      "Ġestab": 9329,
      "of": 9330,
      "atif": 9331,
      "zi.": 9332,
      "wikipedia.": 9333,
      "Uni": 9334,
      "car": 9335,
      "ile": 9336,
      "ĠCommon": 9337,
      "ĠLeague": 9338,
      "ĠPhilip": 9339,
      "Ġnyota": 9340,
      "ĠKwara": 9341,
      "áĭŃáĪŃáĪĭáĬķáĭµ": 9342,
      "ĠTha": 9343,
      "Ġmab": 9344,
      "ĠáĪĺáīĢáĪĺáĮ«": 9345,
      "cian": 9346,
      "Ġuchumi": 9347,
      "áĪŀáĬķ": 9348,
      "hod": 9349,
      "ĠAmani": 9350,
      "áī¡áĪŃ": 9351,
      "ishaji": 9352,
      "ĠáīħáĬĿ": 9353,
      "áĪ£áĭŃ": 9354,
      "áĪµáī°áĬĽáĭį": 9355,
      "Ġzamantake": 9356,
      "Ġtarayya": 9357,
      "ĠáĪ½áĪį": 9358,
      "Ġwanyama": 9359,
      "Ġáĭ¶áĪ®": 9360,
      "ĠáĭŃáĪĨáĬĵáĪį": 9361,
      "ĠáĪĺáĪ£áĪªáĭ«": 9362,
      "ĠtÃ¡n": 9363,
      "Ġnation": 9364,
      "ĠÃ²rÃ¬á¹£Ãł": 9365,
      "Ġoriláº¹": 9366,
      "Ġ1930": 9367,
      "Ġmáº¹ÌģfÃł": 9368,
      "ĠLibr": 9369,
      "Ġdel": 9370,
      "it,": 9371,
      "ĠHel": 9372,
      "Ġ2002,": 9373,
      "hou": 9374,
      "Ġhars": 9375,
      "Ġgeneral": 9376,
      "bra": 9377,
      "gÃ²": 9378,
      "vuti": 9379,
      "ert": 9380,
      "Ġ(14": 9381,
      "Ġlist": 9382,
      "essor": 9383,
      "ĠCape": 9384,
      "Hata": 9385,
      "Ġsheria": 9386,
      "Ġdaular": 9387,
      "Ġ(wa": 9388,
      "áī°áį¡": 9389,
      "áī°áĭ³": 9390,
      "áĭ°áĬķáīµ": 9391,
      "áĪĭáĮħ": 9392,
      "ĠC.": 9393,
      "áī£áī£": 9394,
      "áīłáĪ»": 9395,
      "áĪ©áĬŃ": 9396,
      "ĠVI": 9397,
      "Ġkida": 9398,
      "áĭķáīĨ": 9399,
      "áĭ©áīµ": 9400,
      "Ġmuhimman": 9401,
      "ĠáĬłáĪįáįİ": 9402,
      "unganisha": 9403,
      "Ġáĭ¨áĬ¥áĬķáĮįáĪĬáĭĿ": 9404,
      "elui": 9405,
      "Ġáī°áīĢáĪĿ": 9406,
      "ĠIbom": 9407,
      "ĠáĮ¨áĭĭ": 9408,
      "Ġtaimaka": 9409,
      "Ġsauransu.": 9410,
      "Or": 9411,
[...]
