{
  "version": "1.0",
  "truncation": null,
  "padding": null,
  "added_tokens": [],
  "normalizer": null,
  "pre_tokenizer": {
    "type": "Sequence",
    "pretokenizers": [
      {
        "type": "Split",
        "pattern": {
          "Regex": " ?\\S+|\\s+"
        },
        "behavior": "Isolated",
        "invert": false
      },
      {
        "type": "ByteLevel",
        "add_prefix_space": false,
        "trim_offsets": true,
        "use_regex": false
      }
    ]
  },
  "post_processor": null,
  "decoder": {
    "type": "ByteLevel",
    "add_prefix_space": true,
    "trim_offsets": true,
    "use_regex": true
  },
  "model": {
    "type": "BPE",
    "dropout": null,
    "unk_token": null,
    "continuing_subword_prefix": null,
    "end_of_word_suffix": null,
    "fuse_unk": false,
    "byte_fallback": false,
    "ignore_merges": false,
    "vocab": {
      "!": 0,
      "\"": 1,
      "#": 2,
      "$": 3,
      "%": 4,
      "&": 5,
      "'": 6,
      "(": 7,
      ")": 8,
      "*": 9,
      "+": 10,
      ",": 11,
      "-": 12,
      ".": 13,
      "/": 14,
      "0": 15,
      "1": 16,
      "2": 17,
      "3": 18,
      "4": 19,
      "5": 20,
      "6": 21,
      "7": 22,
      "8": 23,
      "9": 24,
      ":": 25,
      ";": 26,
      "<": 27,
      "=": 28,
      ">": 29,
      "?": 30,
      "@": 31,
      "A": 32,
      "B": 33,
      "C": 34,
      "D": 35,
      "E": 36,
      "F": 37,
      "G": 38,
      "H": 39,
      "I": 40,
      "J": 41,
      "K": 42,
      "L": 43,
      "M": 44,
      "N": 45,
      "O": 46,
      "P": 47,
      "Q": 48,
      "R": 49,
      "S": 50,
      "T": 51,
      "U": 52,
      "V": 53,
      "W": 54,
      "X": 55,
      "Y": 56,
      "Z": 57,
      "[": 58,
      "\\": 59,
      "]": 60,
      "^": 61,
      "_": 62,
      "`": 63,
      "a": 64,
      "b": 65,
      "c": 66,
      "d": 67,
      "e": 68,
      "f": 69,
      "g": 70,
      "h": 71,
      "i": 72,
      "j": 73,
      "k": 74,
      "l": 75,
      "m": 76,
      "n": 77,
      "o": 78,
      "p": 79,
      "q": 80,
      "r": 81,
      "s": 82,
      "t": 83,
      "u": 84,
      "v": 85,
      "w": 86,
      "x": 87,
      "y": 88,
      "z": 89,
      "{": 90,
      "|": 91,
      "}": 92,
      "~": 93,
      "¡": 94,
      "¢": 95,
      "£": 96,
      "¤": 97,
      "¥": 98,
      "¦": 99,
      "§": 100,
      "¨": 101,
      "©": 102,
      "ª": 103,
      "«": 104,
      "¬": 105,
      "®": 106,
      "¯": 107,
      "°": 108,
      "±": 109,
      "²": 110,
      "³": 111,
      "´": 112,
      "µ": 113,
      "¶": 114,
      "·": 115,
      "¸": 116,
      "¹": 117,
      "º": 118,
      "»": 119,
      "¼": 120,
      "½": 121,
      "¾": 122,
      "¿": 123,
      "À": 124,
      "Á": 125,
      "Â": 126,
      "Ã": 127,
      "Ä": 128,
      "Å": 129,
      "Æ": 130,
      "Ç": 131,
      "È": 132,
      "É": 133,
      "Ê": 134,
      "Ë": 135,
      "Ì": 136,
      "Í": 137,
      "Î": 138,
      "Ï": 139,
      "Ð": 140,
      "Ñ": 141,
      "Ò": 142,
      "Ó": 143,
      "Ô": 144,
      "Õ": 145,
      "Ö": 146,
      "×": 147,
      "Ø": 148,
      "Ù": 149,
      "Ú": 150,
      "Û": 151,
      "Ü": 152,
      "Ý": 153,
      "Þ": 154,
      "ß": 155,
      "à": 156,
      "á": 157,
      "â": 158,
      "ã": 159,
      "ä": 160,
      "å": 161,
      "æ": 162,
      "ç": 163,
      "è": 164,
      "é": 165,
      "ê": 166,
      "ë": 167,
      "ì": 168,
      "í": 169,
      "î": 170,
      "ï": 171,
      "ð": 172,
      "ñ": 173,
      "ò": 174,
      "ó": 175,
      "ô": 176,
      "õ": 177,
      "ö": 178,
      "÷": 179,
      "ø": 180,
      "ù": 181,
      "ú": 182,
      "û": 183,
      "ü": 184,
      "ý": 185,
      "þ": 186,
      "ÿ": 187,
      "Ā": 188,
      "ā": 189,
      "Ă": 190,
      "ă": 191,
      "Ą": 192,
      "ą": 193,
      "Ć": 194,
      "ć": 195,
      "Ĉ": 196,
      "ĉ": 197,
      "Ċ": 198,
      "ċ": 199,
      "Č": 200,
      "č": 201,
      "Ď": 202,
      "ď": 203,
      "Đ": 204,
      "đ": 205,
      "Ē": 206,
      "ē": 207,
      "Ĕ": 208,
      "ĕ": 209,
      "Ė": 210,
      "ė": 211,
      "Ę": 212,
      "ę": 213,
      "Ě": 214,
      "ě": 215,
      "Ĝ": 216,
      "ĝ": 217,
      "Ğ": 218,
      "ğ": 219,
      "Ġ": 220,
      "ġ": 221,
      "Ģ": 222,
      "ģ": 223,
      "Ĥ": 224,
      "ĥ": 225,
      "Ħ": 226,
      "ħ": 227,
      "Ĩ": 228,
      "ĩ": 229,
      "Ī": 230,
      "ī": 231,
      "Ĭ": 232,
      "ĭ": 233,
      "Į": 234,
      "į": 235,
      "İ": 236,
      "ı": 237,
      "Ĳ": 238,
      "ĳ": 239,
      "Ĵ": 240,
      "ĵ": 241,
      "Ķ": 242,
      "ķ": 243,
      "ĸ": 244,
      "Ĺ": 245,
      "ĺ": 246,
      "Ļ": 247,
      "ļ": 248,
      "Ľ": 249,
      "ľ": 250,
      "Ŀ": 251,
      "ŀ": 252,
      "Ł": 253,
      "ł": 254,
      "Ń": 255,
      "áĪ": 256,
      "Ġá": 257,
      "áī": 258,
      "áĬ": 259,
      "áĭ": 260,
      "an": 261,
      "ar": 262,
      "áĮ": 263,
      "Ġáĭ": 264,
      "ĠáĬ": 265,
      "in": 266,
      "ĠáĪ": 267,
      "áį": 268,
      "áĬķ": 269,
      "Ġáī": 270,
      "Ġt": 271,
      "Ġk": 272,
      "Ġn": 273,
      "wa": 274,
      "Ġa": 275,
      "Ġd": 276,
      "»į": 277,
      "ÃŃ": 278,
      "ĠÃ": 279,
      "Ġs": 280,
      "Ġm": 281,
      "áīµ": 282,
      "á»į": 283,
      "ya": 284,
      "áĪŃ": 285,
      "º¹": 286,
      "on": 287,
      "er": 288,
      "áº¹": 289,
      "Ġáĭ¨": 290,
      "en": 291,
      "áĭį": 292,
      "li": 293,
      "at": 294,
      "un": 295,
      "Ġl": 296,
      "łáĪ": 297,
      "áĪĿ": 298,
      "ka": 299,
      "áĪį": 300,
      "áĪµ": 301,
      "es": 302,
      "áº¹Ì": 303,
      "Ã©": 304,
      "Ġya": 305,
      "Ġda": 306,
      "ĠA": 307,
      "Ġo": 308,
      "Ãł": 309,
      "am": 310,
      "is": 311,
      "Ġwa": 312,
      "as": 313,
      "Ã¡": 314,
      "Ġb": 315,
      "Ġ(": 316,
      "he": 317,
      "Ġ1": 318,
      "ĠM": 319,
      "áį¢": 320,
      "á»įÌ": 321,
      "Ġc": 322,
      "Ġp": 323,
      "áĬĵ": 324,
      "Ġáīł": 325,
      "or": 326,
      "áī°": 327,
      "ti": 328,
      "áĭ«": 329,
      "áĪĪ": 330,
      "Ãº": 331,
      "Ġf": 332,
      "ĠáĮ": 333,
      "al": 334,
      "Ġi": 335,
      "áĭŃ": 336,
      "hi": 337,
      "áĪĺ": 338,
      "Ã¬": 339,
      "ĠáĬ¥": 340,
      "Ġna": 341,
      "áī½": 342,
      "Ġg": 343,
      "ha": 344,
      "ur": 345,
      "Ġw": 346,
      "le": 347,
      "ĠK": 348,
      "ĠáĬł": 349,
      "ba": 350,
      "ta": 351,
      "Ġr": 352,
      "ĠÃł": 353,
      "ĠS": 354,
      "Ġj": 355,
      "áĭ°": 356,
      "áĬĲ": 357,
      "Ġku": 358,
      "áī¥": 359,
      "ir": 360,
      "áĪ¨": 361,
      "áĮĪ": 362,
      "áĭµ": 363,
      "áº¹ÌĢ": 364,
      "áº¹Ìģ": 365,
      "ĠN": 366,
      "Ġta": 367,
      "á»įÌģ": 368,
      "áĪĭ": 369,
      "ĠáĬĲ": 370,
      "áĮį": 371,
      "ma": 372,
      "ik": 373,
      "us": 374,
      "ĠáĪĺ": 375,
      "ĠI": 376,
      "da": 377,
      "ia": 378,
      "Ġni": 379,
      "Ã¨": 380,
      "ĠB": 381,
      "áīł": 382,
      "Ġ2": 383,
      "¹£": 384,
      "áĪ«": 385,
      "ati": 386,
      "it": 387,
      "Ã³": 388,
      "áī³": 389,
      "ĠáĬ¨": 390,
      "la": 391,
      "Ġ19": 392,
      "gb": 393,
      "áĬŃ": 394,
      "ĠT": 395,
      "ĠnÃŃ": 396,
      "á»įn": 397,
      "to": 398,
      "ara": 399,
      "áĪĽ": 400,
      "Ġma": 401,
      "áĪ³": 402,
      "ĠC": 403,
      "om": 404,
      "áī£": 405,
      "ana": 406,
      "za": 407,
      "Ġáį": 408,
      "ed": 409,
      "ĠÃ¬": 410,
      "wá»įn": 411,
      "el": 412,
      "ri": 413,
      "and": 414,
      "Ġy": 415,
      "Ġh": 416,
      "Ã¹": 417,
      "áĬĽ": 418,
      "Ġáī°": 419,
      "Ġá»į": 420,
      "áĪª": 421,
      "ĠáĭŃ": 422,
      "ĠP": 423,
      "Ã²": 424,
      "ĠáīłáĪ": 425,
      "ĠW": 426,
      "di": 427,
      "ga": 428,
      "Ġáĭ¨áĪ": 429,
      "Ġthe": 430,
      "á¹£": 431,
      "ĠáĬłáĪ": 432,
      "ĠO": 433,
      "Ġ20": 434,
      "Ġin": 435,
      "em": 436,
      "áĪħ": 437,
      "áĮ¥": 438,
      "áĬ¨": 439,
      "áį£": 440,
      "Ġla": 441,
      "um": 442,
      "ĠáĪĿ": 443,
      "âĢ": 444,
      "ani": 445,
      "et": 446,
      "Ġde": 447,
      "Ġáĭ¨áĬ": 448,
      "ĠG": 449,
      "ĠD": 450,
      "ent": 451,
      "ĠL": 452,
      "Ġof": 453,
      "si": 454,
      "ut": 455,
      "ĠJ": 456,
      "ĠáĭĪ": 457,
      "áį¡": 458,
      "sa": 459,
      "Ãºn": 460,
      "ĠF": 461,
      "ing": 462,
      "ĠtÃŃ": 463,
      "áįį": 464,
      "á»įÌĢ": 465,
      "il": 466,
      "áĭ³": 467,
      "ĠáĬĲáĭį": 468,
      "áīĢ": 469,
      "ol": 470,
      "ke": 471,
      "áĭ¨": 472,
      "ĠR": 473,
      "bi": 474,
      "ĠáĬ¥áĬķ": 475,
      "áĭĪ": 476,
      "ĠH": 477,
      "ra": 478,
      "ce": 479,
      "ch": 480,
      "Ġ-": 481,
      "áĪ°": 482,
      "Ġti": 483,
      "áīħ": 484,
      "rÃŃ": 485,
      "ko": 486,
      "áĪĮ": 487,
      "ro": 488,
      "áĬ«": 489,
      "Ġba": 490,
      "ĠáĪĪ": 491,
      "ari": 492,
      "re": 493,
      "ĠE": 494,
      "ki": 495,
      "ul": 496,
      "áĬł": 497,
      "ĠU": 498,
      "ĠáĬĲáĭįáį¢": 499,
      "ku": 500,
      "ci": 501,
      "Ġha": 502,
      "ji": 503,
      "qu": 504,
      "ĠáĪµ": 505,
      "áī¸": 506,
      "Ġáĭ«": 507,
      "ĠÃ³": 508,
      "áĪī": 509,
      "Ġáĭĵ": 510,
      "ye": 511,
      "láº¹ÌĢ": 512,
      "Ġv": 513,
      "ama": 514,
      "de": 515,
      "are": 516,
      "áīłáĪ": 517,
      "áĭĬ": 518,
      "áĭĭ": 519,
      "áĪ®": 520,
      "os": 521,
      "áī±": 522,
      "İáī½": 523,
      "ÆĻ": 524,
      "Ġto": 525,
      "áī¸áĭį": 526,
      "eri": 527,
      "áįĪ": 528,
      "Ġz": 529,
      "00": 530,
      "Ġáĭ¨áĪļ": 531,
      "áĭĿ": 532,
      "ini": 533,
      "áĮ£": 534,
      "áĪįáį¢": 535,
      "áĪĨ": 536,
      "ĠáĪĽ": 537,
      "pa": 538,
      "áĭļ": 539,
      "áī¶": 540,
      "áĪ³áĪĮ": 541,
      "im": 542,
      "áĮł": 543,
      "áĮī": 544,
      "ata": 545,
      "gi": 546,
      "bu": 547,
      "Ġza": 548,
      "ĠÃĢ": 549,
      "yar": 550,
      "te": 551,
      "Ġsa": 552,
      "19": 553,
      "áĮĭ": 554,
      "Ġkuma": 555,
      "ÌĢ": 556,
      "ina": 557,
      "Ġkwa": 558,
      "ĠáīłáĬ": 559,
      "áĭ®": 560,
      "Ġand": 561,
      "Ãłn": 562,
      "yo": 563,
      "kar": 564,
      "fi": 565,
      "Ġshe": 566,
      "ĠáĪĿáĪ³áĪĮ": 567,
      "ation": 568,
      "ĠÃłwá»įn": 569,
      "fa": 570,
      "e,": 571,
      "Ġu": 572,
      "bo": 573,
      "iki": 574,
      "ĠáĪ²": 575,
      "áĭ²": 576,
      "ad": 577,
      "áĬķáĭµ": 578,
      "toka": 579,
      "Ġáº¹": 580,
      "ĠÆĻ": 581,
      "ĠáĮį": 582,
      "Ġáīµ": 583,
      "ali": 584,
      "Ġe": 585,
      "ĠY": 586,
      "ikin": 587,
      "áĭİáī½": 588,
      "ig": 589,
      "Ġáĭĺ": 590,
      "wan": 591,
      "Ġ201": 592,
      "áĪ¥": 593,
      "áīĥ": 594,
      "zi": 595,
      "Ġne": 596,
      "yan": 597,
      "Ġle": 598,
      "áĬĸ": 599,
      "áĪŀ": 600,
      "kan": 601,
      "áĭĺ": 602,
      "ni": 603,
      "gu": 604,
      "Ġsu": 605,
      "rin": 606,
      "Ġá¹£": 607,
      "Ġáĭ¨áī°": 608,
      "op": 609,
      "Ġka": 610,
      "ĠMa": 611,
      "ĠáĬ¥áĬĵ": 612,
      "Ġ\"": 613,
      "ant": 614,
      "áĬĲáīµ": 615,
      "ĠáĪ°": 616,
      "ge": 617,
      "Ġal": 618,
      "est": 619,
      "Ġáī¥": 620,
      "hin": 621,
      "áĬ¥": 622,
      "lÃ©": 623,
      "áĪĬ": 624,
      "Ġga": 625,
      "áĪ©": 626,
      "á»įÌģn": 627,
      "go": 628,
      "Ġáĭį": 629,
      "áĪĻ": 630,
      "asa": 631,
      "ec": 632,
      "áĬķáĮį": 633,
      "ĠÃ¨": 634,
      "Ġshi": 635,
      "ĠâĢ": 636,
      "Ġen": 637,
      "ĠÃłti": 638,
      ").": 639,
      "ers": 640,
      "ĠáīĢ": 641,
      "Ġkati": 642,
      "ann": 643,
      "har": 644,
      "áīłáĪŃ": 645,
      "ĭáĭŃ": 646,
      "fu": 647,
      "Ġáĭ°": 648,
      "ja": 649,
      "war": 650,
      "ĠÃĮ": 651,
      "ĠáĬ¥áĬķáĭ°": 652,
      "una": 653,
      "dÃºn": 654,
      "áĭĽ": 655,
      "Ġáĭ¨áĬłáĪ": 656,
      "Ġjáº¹Ìģ": 657,
      "lÃº": 658,
      "ot": 659,
      "me": 660,
      "áĪļ": 661,
      "Ã¬n": 662,
      "ĠÃĢwá»įn": 663,
      "ist": 664,
      "ĠáĬŃ": 665,
      "ban": 666,
      "ĠsÃŃ": 667,
      "ÅĦ": 668,
      "ic": 669,
      "Ġcikin": 670,
      "áĪİ": 671,
      "du": 672,
      "st": 673,
      "ĠNa": 674,
      "ĠlÃ¡": 675,
      "waka": 676,
      "Ġet": 677,
      "Ġkan": 678,
      "Ġwas": 679,
      "áĮħ": 680,
      "uwa": 681,
      "áī²": 682,
      "áī¢": 683,
      "Ġbi": 684,
      "Ġ200": 685,
      "yin": 686,
      "Ġam": 687,
      "ĠÃ²": 688,
      "Ġali": 689,
      "áĬĳ": 690,
      "Ã¹n": 691,
      "we": 692,
      "),": 693,
      "lo": 694,
      "áįĭ": 695,
      "ĠáĪį": 696,
      "Ġki": 697,
      "ere": 698,
      "uni": 699,
      "Ġkas": 700,
      "Ġhi": 701,
      "ĠAf": 702,
      "tion": 703,
      "Ġdaga": 704,
      "po": 705,
      "ĠÂ": 706,
      "ĠV": 707,
      "hu": 708,
      "anda": 709,
      "áĬĿ": 710,
      "Ġko": 711,
      "áĪ±": 712,
      "Ġje": 713,
      "áį¤": 714,
      "áĪĨáĬķ": 715,
      "kin": 716,
      "áĪ½": 717,
      "id": 718,
      "ans": 719,
      "ne": 720,
      "Ġun": 721,
      "ho": 722,
      "áĮİ": 723,
      "Ġkatika": 724,
      "Ġon": 725,
      "ĠAm": 726,
      "ĠáĪĭáĭŃ": 727,
      "ÃŃn": 728,
      "Ġsi": 729,
      "cin": 730,
      "áĭ«áĬķ": 731,
      "ĠÅĦ": 732,
      "chi": 733,
      "lu": 734,
      "áĪĪáĭį": 735,
      "Ġkar": 736,
      "Ġáī³": 737,
      "Ġáĭµ": 738,
      "Ġráº¹ÌĢ": 739,
      "Ġdu": 740,
      "áĪŃáĬĽ": 741,
      "Ġá»įdÃºn": 742,
      "Ġhu": 743,
      "ili": 744,
      "áĭ±": 745,
      "zo": 746,
      "eriya": 747,
      "áĪģ": 748,
      "Ġáī£": 749,
      "dÃ¨": 750,
      "do": 751,
      "jeriya": 752,
      "Ġan": 753,
      "ter": 754,
      "Ġmwaka": 755,
      "ÉĹ": 756,
      "áĭļáĪħ": 757,
      "¢áīµ": 758,
      "je": 759,
      "Ġ18": 760,
      "ĽáĪŃáĬĽ": 761,
      "Ġati": 762,
      "¢áīµáĭ®": 763,
      "won": 764,
      "áĮµ": 765,
      "ab": 766,
      "áĬĴ": 767,
      "áĭķ": 768,
      "Ġar": 769,
      "th": 770,
      "Ġce": 771,
      "gbÃł": 772,
      "ug": 773,
      "ĠIn": 774,
      "bÃŃ": 775,
      "áīĨ": 776,
      "yi": 777,
      "Ġshekar": 778,
      "áĮĢ": 779,
      "ine": 780,
      "ĠáīłáĪĺ": 781,
      "¢áīµáĭ®áĮµ": 782,
      "rÃ©": 783,
      "wo": 784,
      "Ġ3": 785,
      "áĪĪáīµ": 786,
      "Ġre": 787,
      "20": 788,
      "áĮ½": 789,
      "áĮĪáĪŃ": 790,
      "ber": 791,
      "áĪ¬": 792,
      "our": 793,
      "tokasi": 794,
      "Ġdes": 795,
      "ĠbÃŃ": 796,
      "áī¡": 797,
      "áĪµáĮ¥": 798,
      "Ġwá»įÌģn": 799,
      "¢áīµáĭ®áĮµáĭ«": 800,
      "Ġáĭ¨áĬłáĪĽáĪŃáĬĽ": 801,
      "Ġ.": 802,
      "Ġlo": 803,
      "áĪ¨áīµ": 804,
      "fin": 805,
      "Ġmat": 806,
      "âĢĻ": 807,
      "ká»įÌģ": 808,
      "Ġis": 809,
      "so": 810,
      "kuwa": 811,
      "ĠAl": 812,
      "ĠAn": 813,
      "Ġse": 814,
      "áīłáīµ": 815,
      "ĠáĬĲáīłáĪŃ": 816,
      "Ġl'": 817,
      "áĭľ": 818,
      "jo": 819,
      "ĠáĮ¥": 820,
      "Ã¡Ãł": 821,
      "Ġmas": 822,
      "que": 823,
      "áĪĺáĬķ": 824,
      "Ġli": 825,
      "Ġke": 826,
      "ĠÂ«": 827,
      "ov": 828,
      "Ġ199": 829,
      "kara": 830,
      "áĪ»": 831,
      "ĠáĭĪáĭ°": 832,
      "Ġili": 833,
      "Ġfi": 834,
      "ĠáĪĨ": 835,
      "ĠItokasi": 836,
      "ĠáĮĪ": 837,
      "áĪµáīµ": 838,
      "ĠáĬ¨áī°": 839,
      "má»į": 840,
      "res": 841,
      "»Į": 842,
      "áī»": 843,
      "Ġas": 844,
      "Ġyi": 845,
      "Ġpar": 846,
      "Ġcon": 847,
      "ĠáĬķ": 848,
      "ay": 849,
      "tan": 850,
      "ami": 851,
      "Ġdi": 852,
      "alio": 853,
      "ly": 854,
      "ris": 855,
      "ob": 856,
      "áĭ©": 857,
      "amu": 858,
      "ĠfÃºn": 859,
      "Ġau": 860,
      "Ġá¹£e": 861,
      "ĠWa": 862,
      "Ġol": 863,
      "Ġfor": 864,
      "áĭĵ": 865,
      "tu": 866,
      "áįĬ": 867,
      "s,": 868,
      "áĭįáĬķ": 869,
      "ance": 870,
      "áī¶áī½": 871,
      "ĠtÃ³": 872,
      "ve": 873,
      "ĠnÃŃn": 874,
      "Ġ:": 875,
      "ĠáĬ¥áĪµ": 876,
      "ĠorÃŃ": 877,
      "ou": 878,
      "sÃŃ": 879,
      "Â»": 880,
      "ala": 881,
      "ĠáĭįáĪµáĮ¥": 882,
      "pe": 883,
      "ang": 884,
      "ĠáĬłáĭŃ": 885,
      "Ġshekara": 886,
      "Ġcha": 887,
      "Ã¡n": 888,
      "áĪŃáĮī": 889,
      "far": 890,
      "mi": 891,
      "já»įÌģ": 892,
      "Ġshekarar": 893,
      "Ġ|": 894,
      "be": 895,
      "já»į": 896,
      "Ġmai": 897,
      "Ġaka": 898,
      "Ĭáĭľ": 899,
      "ada": 900,
      "Ġles": 901,
      "áĮłáĪ": 902,
      "áĪªáĭ«": 903,
      "anz": 904,
      "áĬĶ": 905,
      "mo": 906,
      "18": 907,
      "Ġáº¹ÌĢ": 908,
      "jÃº": 909,
      "Ġth": 910,
      "ĠWalio": 911,
      "áīĭ": 912,
      "isi": 913,
      "ĠNajeriya": 914,
      "ĠáĪģ": 915,
      "áĭ¶": 916,
      "oni": 917,
      "asar": 918,
      "ĠAfri": 919,
      "liwa": 920,
      "se": 921,
      "gun": 922,
      "áĪ²": 923,
      "od": 924,
      "áĬĽáĭį": 925,
      "áĬłáĪ": 926,
      "ĠnÃ¡Ãł": 927,
      "enye": 928,
      "áī¦": 929,
      "Ġcom": 930,
      "áĭŃáĪĿ": 931,
      "Ġ198": 932,
      "ate": 933,
      "áĪŃáĪµ": 934,
      "Ġkutoka": 935,
      "ru": 936,
      "áĬ¤": 937,
      "áĪľ": 938,
      "fe": 939,
      "mu": 940,
      "ita": 941,
      "Ġáīłáī°": 942,
      "áĭĻ": 943,
      "áĪĲ": 944,
      "áĬ®": 945,
      "na": 946,
      "'a": 947,
      "á¹£áº¹Ìģ": 948,
      "áī¤": 949,
      "yu": 950,
      "Ġáīħ": 951,
      "jÃŃ": 952,
      "ĠnÃŃnÃº": 953,
      "ÃĢ": 954,
      "asi": 955,
      "erÃ©": 956,
      "ĠáĬłáĪµ": 957,
      "ĠáĪ¥": 958,
      "ct": 959,
      "Ġáī¤": 960,
      "ĠáĬ«": 961,
      "arin": 962,
      "Ġina": 963,
      "ĠáīµáĪŃáĮī": 964,
      "Ġáĭ¨áĪĺ": 965,
      "ĠZ": 966,
      "áĬ©": 967,
      "Ġso": 968,
      "Ġ197": 969,
      "ĠáĮįáĬķ": 970,
      "áĪªáĬŃ": 971,
      "Ġá»įÌĢ": 972,
      "iri": 973,
      "ĠáĬ¥áĬķáĭ²": 974,
      "Ġá»įmá»į": 975,
      "ano": 976,
      "ag": 977,
      "Ġ196": 978,
      "ihar": 979,
      "Ġpro": 980,
      "ĠáĮĭ": 981,
      "ori": 982,
      "Ġáĭ¨áĬł": 983,
      "Ġgb": 984,
      "ĠÃ©": 985,
      "Ġá»Į": 986,
      "áīģ": 987,
      "áĮ¨": 988,
      "man": 989,
      "ĠlÃ¡ti": 990,
      "anar": 991,
      "Ġ'": 992,
      "ká»į": 993,
      "atu": 994,
      "Ġwanda": 995,
      "ran": 996,
      "áī¹": 997,
      "au": 998,
      "rÃŃÃł": 999,
      "áīłáĪ¨": 1000,
      "Ġ4": 1001,
      "ĠáĪ²áĪĨáĬķ": 1002,
      "ity": 1003,
      "áį¡áį¡": 1004,
      "ĭáĪĭ": 1005,
      "ÃłÃ¬": 1006,
      "ĠKi": 1007,
      "gba": 1008,
      "ement": 1009,
      "Ġgba": 1010,
      "ĠThe": 1011,
      "áĮĥ": 1012,
      "su": 1013,
      "ĠlÃ³": 1014,
      "s.": 1015,
      "áĬŃáĪį": 1016,
      "ai": 1017,
      "áĪĥ": 1018,
      "»áį": 1019,
      "ap": 1020,
      "Ġqu": 1021,
      "og": 1022,
      "ĠáīµáĪŃáĮīáĪĻ": 1023,
      "ĠâĢĵ": 1024,
      "ĠáĬĲáīłáĪŃáį¢": 1025,
      "ĠáīłáĬł": 1026,
      "ire": 1027,
      "ĠáĬłáĬķ": 1028,
      "Ã¬ÃŃ": 1029,
      "Ġd'": 1030,
      "áĪ´": 1031,
      "amar": 1032,
      ".áĪĿ": 1033,
      "ep": 1034,
      "ham": 1035,
      "jÃŃrÃŃÃł": 1036,
      "ĠdÃ©": 1037,
      "ĠsÃ¬": 1038,
      "Ba": 1039,
      "ĠNÃłÃ¬": 1040,
      "ĠáĪ³": 1041,
      "²áį": 1042,
      "áī´": 1043,
      "ane": 1044,
      "lis": 1045,
      "Ġsun": 1046,
      "les": 1047,
      "Ġ5": 1048,
      "200": 1049,
      "ary": 1050,
      "áĮŃ": 1051,
      "Ma": 1052,
      "ĠáĪĺáĬķáĮį": 1053,
      "ĠNÃłÃ¬jÃŃrÃŃÃł": 1054,
      "ĠáĮĬáĭľ": 1055,
      "ĠáīĢáĬķ": 1056,
      "ĠáĭĪáĭŃáĪĿ": 1057,
      "Ġáĭĭ": 1058,
      "uri": 1059,
      "und": 1060,
      "áī³áīµ": 1061,
      "Ġáĭĵ.áĪĿ": 1062,
      "ment": 1063,
      "usu": 1064,
      "Ġmw": 1065,
      "art": 1066,
      "Ġhai": 1067,
      "áĪªáĬ«": 1068,
      "ck": 1069,
      "Ġpe": 1070,
      "isha": 1071,
      "gbe": 1072,
      "obel": 1073,
      "ort": 1074,
      "Ġ(19": 1075,
      "annan": 1076,
      "ĠNobel": 1077,
      "ĠáĪµáĪĪ": 1078,
      "kÃł": 1079,
      "ub": 1080,
      "Ġwali": 1081,
      "ĠáĬĵ": 1082,
      "Ġest": 1083,
      "Ġdon": 1084,
      "ĠáĬłáĪĪ": 1085,
      "áĪ¨áīµáĬĵ": 1086,
      "Ġzuwa": 1087,
      "ĠáĪĬ": 1088,
      "áĮ»": 1089,
      "le-": 1090,
      "Ġáī¢": 1091,
      "ĠáįĪ": 1092,
      "ver": 1093,
      "ure": 1094,
      "Ġtare": 1095,
      "hen": 1096,
      "ĠáĬ¥áĪµáĬ¨": 1097,
      "Ġor": 1098,
      "á¹£Ã¹": 1099,
      "Ã¨dÃ¨": 1100,
      "Ġfar": 1101,
      "áĪĪáĪĿ": 1102,
      "ira": 1103,
      "ak": 1104,
      "sayin": 1105,
      "ĠáīłáĬĭáĪĭ": 1106,
      "ĠáĬķáĮī": 1107,
      "Ġkama": 1108,
      "ud": 1109,
      "ia.": 1110,
      "ale": 1111,
      "Ġawon": 1112,
      "Ġá»įjá»įÌģ": 1113,
      "The": 1114,
      "ll": 1115,
      "ĠorÃŃláº¹ÌĢ": 1116,
      "áĪ¥áīµ": 1117,
      "ede": 1118,
      "Ġra": 1119,
      "áį»áį": 1120,
      "ust": 1121,
      "zaliwa": 1122,
      "ĠáĭŃáĪħ": 1123,
      "lÃ¡": 1124,
      "yÃłn": 1125,
      "ĠáĭĺáĪĺáĬķ": 1126,
      "áĪ¨áĪµ": 1127,
      "Ġpl": 1128,
      "Ġyan": 1129,
      "ĠilÃ©": 1130,
      "áĬķáĪĿ": 1131,
      "lia": 1132,
      "á¹£Ã¨": 1133,
      "Ġmo": 1134,
      "Ġmut": 1135,
      "Ãĵ": 1136,
      "-Ã¨dÃ¨": 1137,
      "ca": 1138,
      "ju": 1139,
      "pÃŃn": 1140,
      "kun": 1141,
      "'s": 1142,
      "ĠáĬŃáįį": 1143,
      "áĪ®áī½": 1144,
      "Ġáī°áĪ¨áīµáĬĵ": 1145,
      "áĪķ": 1146,
      "kwa": 1147,
      "pá»įÌĢ": 1148,
      "áĮ«": 1149,
      "oma": 1150,
      "bar": 1151,
      "Ġwá»įn": 1152,
      "ith": 1153,
      "ĠáĬ¨áī°áĪĽ": 1154,
      "An": 1155,
      "vi": 1156,
      "Ġbe": 1157,
      "jÃ¬": 1158,
      "inu": 1159,
      "ew": 1160,
      "shin": 1161,
      "end": 1162,
      "Ġ6": 1163,
      "ĠSt": 1164,
      "amo": 1165,
      "dun": 1166,
      "ĠÉĹ": 1167,
      "áĮĪáĬ": 1168,
      "gbo": 1169,
      "áĭİ": 1170,
      "Ġ195": 1171,
      "ĠAr": 1172,
      "Ġwatan": 1173,
      "Ġmu": 1174,
      "Ġmatsayin": 1175,
      "Ġori": 1176,
      "ĠáĭĵáĪĺ": 1177,
      "es,": 1178,
      "pin": 1179,
      "Ġáĭĵ.áĪĿ.": 1180,
      "ĠÃ¬lÃº": 1181,
      "ĠLe": 1182,
      "Ġnchi": 1183,
      "Ġkuwa": 1184,
      "bÃ¡": 1185,
      "áĪŃáĭ«": 1186,
      "ĠPa": 1187,
      "ĠáĪĪáĪĺ": 1188,
      "kÃ³": 1189,
      "áįĵ": 1190,
      "ĠNig": 1191,
      "Ġáĭķ": 1192,
      "áĮĢáĪĺ": 1193,
      "ong": 1194,
      "Ġfun": 1195,
      "ff": 1196,
      "rom": 1197,
      "áī°áĬĽ": 1198,
      "ond": 1199,
      "tic": 1200,
      "áĭ´": 1201,
      "ish": 1202,
      "Ġci": 1203,
      "ele": 1204,
      "má»įÌĢ": 1205,
      "yÃ©": 1206,
      "Ġat": 1207,
      "Ġara": 1208,
      "Ġwasan": 1209,
      "Ġsuka": 1210,
      "Ġyake": 1211,
      "Ġyana": 1212,
      "hari": 1213,
      "ĠNi": 1214,
      "ts": 1215,
      "Ġawá»įn": 1216,
      "áĮįáĪŀ": 1217,
      "fan": 1218,
      "risto": 1219,
      "vers": 1220,
      "arta": 1221,
      "Ġhar": 1222,
      "ĠTu": 1223,
      "kani": 1224,
      "Ġ9": 1225,
      "ĠAd": 1226,
      "pÃŃnláº¹ÌĢ": 1227,
      "áį¦": 1228,
      "wÃ©": 1229,
      "Ġáĭ«áĪį": 1230,
      "nÃ¬": 1231,
      "ania": 1232,
      "ĠMare": 1233,
      "áĭµáĪŃ": 1234,
      "ĠarÃ¡": 1235,
      "emi": 1236,
      "Ġbir": 1237,
      "ore": 1238,
      "ow": 1239,
      "ĠáĮĢ": 1240,
      "áĪ¶": 1241,
      "ĠáĬĲáĮĪ": 1242,
      "bin": 1243,
      "angu": 1244,
      "yÃŃ": 1245,
      "Ġáįį": 1246,
      "ĠáĬ¢": 1247,
      "ord": 1248,
      "Ġlati": 1249,
      "pp": 1250,
      "áī³áĭĪ": 1251,
      "Ġ17": 1252,
      "Ġby": 1253,
      "Ġmi": 1254,
      "Ġáīģ": 1255,
      "Ġsha": 1256,
      "iku": 1257,
      "áīµáĬķ": 1258,
      "ĠáĪķ": 1259,
      "rit": 1260,
      "..": 1261,
      "ĠáĮĭáĪŃ": 1262,
      "ĠMar": 1263,
      "ont": 1264,
      "ĠáīłáĪĽ": 1265,
      "Ġch": 1266,
      "y,": 1267,
      "Ġad": 1268,
      "ene": 1269,
      "fariki": 1270,
      "Ġ7": 1271,
      "áĬŃáĪįáīł": 1272,
      "Ġáį¡": 1273,
      "ĠÆĻasar": 1274,
      "Ġvya": 1275,
      "áĪīáį¢": 1276,
      "Ġlá»į": 1277,
      "áīĤ": 1278,
      "ĠáĭĵáĬŃáĪįáīł": 1279,
      "che": 1280,
      "áĪİáī½": 1281,
      "ces": 1282,
      "áĮ¡": 1283,
      "áĭ°áĪ¨": 1284,
      "rÃ¹n": 1285,
      "ungi": 1286,
      "ard": 1287,
      "o,": 1288,
      "Ġmata": 1289,
      "eb": 1290,
      "ĠCh": 1291,
      "gbÃ©": 1292,
      "ĠáĪļ": 1293,
      "¦áĪŃ": 1294,
      "Ġáĭ°áĮįáĪŀ": 1295,
      "ĠerÃ©": 1296,
      "Ġfa": 1297,
      "uru": 1298,
      "kati": 1299,
      "ĠáĬłáĬķáĭµ": 1300,
      "ĠwÃł": 1301,
      "ÃĮ": 1302,
      "Ġvi": 1303,
      "huga": 1304,
      "isa": 1305,
      "ĠBa": 1306,
      "oh": 1307,
      "áĭ°áĪŃ": 1308,
      "ĠáĬłáĪį": 1309,
      "ĠáĭĵáĬŃáĪįáīł.": 1310,
      "ame": 1311,
      "áī°áĪ¨": 1312,
      "ht": 1313,
      "áĪĺáĬĲ": 1314,
      "usi": 1315,
      "16": 1316,
      "Ġkw": 1317,
      "Ġ8": 1318,
      "ĠpÃ©": 1319,
      "oli": 1320,
      "Ta": 1321,
      "áĮĪáĬĿ": 1322,
      "yÃ¬n": 1323,
      "áĪŃáīµ": 1324,
      "15": 1325,
      "Ġex": 1326,
      "anaz": 1327,
      "kum": 1328,
      "Ġiláº¹ÌĢ": 1329,
      "ura": 1330,
      "Ġ,": 1331,
      "ĠTuzo": 1332,
      "Ġ194": 1333,
      "ishi": 1334,
      "áĬķáīµ": 1335,
      "000": 1336,
      "ida": 1337,
      "Ġáĭ¨áĬ¢áīµáĭ®áĮµáĭ«": 1338,
      "ĠáĪĺáĬķáĮįáĪ¥áīµ": 1339,
      "áĬķáĪµ": 1340,
      "áĪĶ": 1341,
      "anazarta": 1342,
      "Ġjihar": 1343,
      "kuu": 1344,
      "rÃ²": 1345,
      "wÃ²": 1346,
      "ĠAfrika": 1347,
      "ĠáĪĪáĪĽ": 1348,
      "tÃ©": 1349,
      "tÃł": 1350,
      "áīłáĪ©": 1351,
      "ĠSa": 1352,
      "áĬķáīĭ": 1353,
      "ĠKar": 1354,
      "áī½áĬķ": 1355,
      "ĠÃ¨dÃ¨": 1356,
      "gbÃ¨": 1357,
      "wam": 1358,
      "ĠMarekani": 1359,
      "áĬª": 1360,
      "ĠorÃŃláº¹ÌĢ-Ã¨dÃ¨": 1361,
      "Ġloka": 1362,
      "lim": 1363,
      "áĪĭáĪįáį¢": 1364,
      "can": 1365,
      "nin": 1366,
      "ĠáĪĨáĬĲ": 1367,
      "Ġáĭ¨áĬĲ": 1368,
      "rÃŃkÃł": 1369,
      "ern": 1370,
      "uniya": 1371,
      "ast": 1372,
      "áĬĵáīµ": 1373,
      "ĠkÃŃ": 1374,
      "Ġhii": 1375,
      "Ġamba": 1376,
      "ĠáĪįáĮħ": 1377,
      "17": 1378,
      "ĠWaliozaliwa": 1379,
      "lá»į": 1380,
      "ry": 1381,
      "Ġkasance": 1382,
      "all": 1383,
      "anu": 1384,
      "ĠbÃ¡": 1385,
      "ĠYor": 1386,
      "olo": 1387,
      "kana": 1388,
      "ence": 1389,
      "gbÃ¡": 1390,
      "ĠáĭµáĪ¨áĪµ": 1391,
      "ĠolÃ³": 1392,
      "ĠáĭĿ": 1393,
      "ugha": 1394,
      "ĠSo": 1395,
      "áĭļáĭ«": 1396,
      "ĠWaliofariki": 1397,
      "Ġst": 1398,
      "Ġdans": 1399,
      "áįī": 1400,
      "NÃŃ": 1401,
      "husu": 1402,
      "Ã©e": 1403,
      "ĠAmeri": 1404,
      "Ġáĭ«áĪįáī°": 1405,
      "on,": 1406,
      "yáº¹": 1407,
      "ĠmÃ¡": 1408,
      "tá»įÌģ": 1409,
      "Ġwith": 1410,
      "Ġtsa": 1411,
      "tÃ¬": 1412,
      "ction": 1413,
      "áĭ°áī¥": 1414,
      "Ġ15": 1415,
      "Ġ16": 1416,
      "áī°áĪ¨áĮİ": 1417,
      "ÃĢwá»įn": 1418,
      "up": 1419,
      "Ġoá¹£Ã¹": 1420,
      "ĠyÃ¬ÃŃ": 1421,
      "ĠáĪħ": 1422,
      "10": 1423,
      "ĠÃĴ": 1424,
      "áĮĬ": 1425,
      "ĠkÃ³": 1426,
      "Ġdan": 1427,
      "hun": 1428,
      "Ġpia": 1429,
      "áī£áĪį": 1430,
      "ĠáĬ¤": 1431,
      "ĠRa": 1432,
      "Ġune": 1433,
      "Ġhe": 1434,
      "Ġáĭ¨áĬ¥": 1435,
      "o.": 1436,
      "Ġáīĭ": 1437,
      "ĠáĪµáĪĿ": 1438,
      "lÃ³": 1439,
      "âĢĿ": 1440,
      "ĠáĪĮ": 1441,
      "áĪ£": 1442,
      "áĪĨáĬĳ": 1443,
      "yÃ¨": 1444,
      "Ġkam": 1445,
      "Baada": 1446,
      "Ġ(200": 1447,
      "áĪ¸": 1448,
      "Ġfarko": 1449,
      "usa": 1450,
      "ĠáĬłáĮĪ": 1451,
      "ĠáīłáĬ¥": 1452,
      "le-ede": 1453,
      "shindi": 1454,
      "ĠáĪĢ": 1455,
      "nÃ¬yÃłn": 1456,
      "Ġfrom": 1457,
      "²áį±": 1458,
      "ĠrÃ©": 1459,
      "14": 1460,
      "ongo": 1461,
      "ĠHa": 1462,
      "áī¸áĭįáį¢": 1463,
      "Ġts": 1464,
      "Ġtun": 1465,
      "ember": 1466,
      "áĬķáĭ«": 1467,
      "ia,": 1468,
      "Ġkáº¹": 1469,
      "ĠáĪĽáĪĪáīµ": 1470,
      "emba": 1471,
      "bwa": 1472,
      "ok": 1473,
      "Ġwani": 1474,
      "ens": 1475,
      "Ġju": 1476,
      "Ġ=": 1477,
      "áĪĬáĭĿ": 1478,
      "ĠUni": 1479,
      "mar": 1480,
      "º¸": 1481,
      "áĪłáĪ": 1482,
      "ĠáĪĥ": 1483,
      "áī¸áĭįáĬķ": 1484,
      "Ġ10": 1485,
      "kÃ²": 1486,
      "sÃ¬": 1487,
      "ĠtÃºn": 1488,
      "ĠáĬķáĮīáĪ¥": 1489,
      "áĬ¨áī°": 1490,
      "ĠNiger": 1491,
      "cc": 1492,
      "Ġil": 1493,
      "áī±áĬķ": 1494,
      "mp": 1495,
      "ká»įÌĢ": 1496,
      "Ġ/": 1497,
      "áĪµáī°": 1498,
      "áĭįáĭ«áĬķ": 1499,
      "ĠÃ¨nÃ¬yÃłn": 1500,
      "e.": 1501,
      "her": 1502,
      "áįķ": 1503,
      "Ġninu": 1504,
      "âĢĵ": 1505,
      "ĠEn": 1506,
      "áī°áĪ¨áĮİáĪĺ": 1507,
      "ux": 1508,
      "ons": 1509,
      "Ġáĭ¨áĪļáĭ«": 1510,
      "u,": 1511,
      "áĪĢ": 1512,
      "ĠManazarta": 1513,
      "Ġwon": 1514,
      "áī£áī¢": 1515,
      "ĠAs": 1516,
      "Ġare": 1517,
      "ola": 1518,
      "Ġranar": 1519,
      "omin": 1520,
      "Ġtana": 1521,
      "Ġita": 1522,
      "ational": 1523,
      "ĠáĬłáĪĺ": 1524,
      "Ġile": 1525,
      "anan": 1526,
      "land": 1527,
      "ĠLa": 1528,
      "Ġáī³áĪªáĬŃ": 1529,
      "cho": 1530,
      "áĬķáĮ": 1531,
      "ĠáīłáĬłáĪ": 1532,
      "dÃŃ": 1533,
      "Ġáĭ«áĪįáī°áī°áĪ¨áĮİáĪĺ": 1534,
      "²áį±áį»áį": 1535,
      "dÃ©": 1536,
      "ĠâĢľ": 1537,
      "jin": 1538,
      "yya": 1539,
      "áĪĦ": 1540,
      "Ġhaife": 1541,
      "llon": 1542,
      "ĠáĮī": 1543,
      "Ġibi": 1544,
      "Ġ193": 1545,
      "ĠáĪ°áĭį": 1546,
      "1,": 1547,
      "gin": 1548,
      "áĭĽáīµ": 1549,
      "ĠáīĭáĬķáīĭ": 1550,
      "ĠkÃ²": 1551,
      "Ġsuna": 1552,
      "áĪŀáī½": 1553,
      "Ġmshindi": 1554,
      "rÃ¨": 1555,
      "áĮ¥áĪŃ": 1556,
      "ble": 1557,
      "dÃ¡": 1558,
      "Ġ(20": 1559,
      "áĪ«áīµ": 1560,
      "kio": 1561,
      "Ġáĭ³": 1562,
      "Ġáį£": 1563,
      "áī£áīµ": 1564,
      "áī¥áĪŃ": 1565,
      "ĠáĬłáĬ«": 1566,
      "áĪł": 1567,
      "ass": 1568,
      "áº¹Ìģg": 1569,
      "áĪįáĬŃ": 1570,
      "es.": 1571,
      "ungiyar": 1572,
      "Ġáĭ¨áĪĽ": 1573,
      "ito": 1574,
      "jÃ¡": 1575,
      "Ġbu": 1576,
      "Ġlokacin": 1577,
      "eng": 1578,
      "/áĪĿ": 1579,
      "áĭĭáĪįáį¢": 1580,
      "Ġáī¥áĭĻ": 1581,
      "istor": 1582,
      "tÃ²": 1583,
      "Ġbayan": 1584,
      "12": 1585,
      "wÃ¡": 1586,
      "cha": 1587,
      "tern": 1588,
      "Ġqui": 1589,
      "ande": 1590,
      "era": 1591,
      "Ġmasu": 1592,
      "Ġgbo": 1593,
      "ĠÃ¬gbÃł": 1594,
      "áĪĭáīµ": 1595,
      "ell": 1596,
      "ĠáĭŃáĮĪ": 1597,
      "áĬ¨áĪį": 1598,
      "Ġorile-ede": 1599,
      "áĪĿáĪ®": 1600,
      "ward": 1601,
      "ung": 1602,
      "er,": 1603,
      "Ġbiyu": 1604,
      "Ġfil": 1605,
      "min": 1606,
      "ĠÃ¡": 1607,
      "In": 1608,
      "ĠRo": 1609,
      "Ġhan": 1610,
      "Ġáĭĵ/áĪĿ": 1611,
      "Ġkasar": 1612,
      "ĠáĪŀ": 1613,
      "ĠDa": 1614,
      "áº¹ÌĢr": 1615,
      "ij": 1616,
      "ansa": 1617,
      "i,": 1618,
      "une": 1619,
      "áĪĭáĪį": 1620,
      "idi": 1621,
      "kon": 1622,
      "ĠAb": 1623,
      "ĠáĮł": 1624,
      "ĠTanz": 1625,
      "kala": 1626,
      "áĪ³áĭŃ": 1627,
      "dÃ¬": 1628,
      "á»įÌĢn": 1629,
      "áº¹Ìģgáº¹Ìģ": 1630,
      "shi": 1631,
      "atukio": 1632,
      "tÃŃ": 1633,
      "ĠÃ²á¹£Ã¨": 1634,
      "ĠáĪĻ": 1635,
      "Ġfara": 1636,
      "ĠdÃ¡": 1637,
      "áī³áĭĬ": 1638,
      "1.": 1639,
      "13": 1640,
      "ĠPapa": 1641,
      "Ġpour": 1642,
      "0,": 1643,
      "Ġzama": 1644,
      "ĠMatukio": 1645,
      "ĠMu": 1646,
      "Ġthat": 1647,
      "ĠáĬłáĪµáī°": 1648,
      "Ġav": 1649,
      "áĪĿáĪħ": 1650,
      "ph": 1651,
      "pÃ©": 1652,
      "áĮĤ": 1653,
      "ĠáĮ½": 1654,
      "fo": 1655,
      "anta": 1656,
      "ĠIs": 1657,
      "ĠáĮİ": 1658,
      "ĠLi": 1659,
      "Ġbab": 1660,
      "ľáĪªáĬ«": 1661,
      "ĠmÃ©": 1662,
      "áĪĺáĪŃ": 1663,
      "Ġbirnin": 1664,
      "ĠáĪ³áĭŃ": 1665,
      "Ġalikuwa": 1666,
      "versity": 1667,
      "Ġpáº¹ÌĢ": 1668,
      "ĠáĬ¥áĬķáĭ³": 1669,
      "int": 1670,
      "ld": 1671,
      "2,": 1672,
      "áĬķáĭ³": 1673,
      "ĠáĭĭáĬĵ": 1674,
      "Ġsur": 1675,
      "ĠáĬ®": 1676,
      "oro": 1677,
      "elle": 1678,
      "Ġjáº¹": 1679,
      "áĮĨ": 1680,
      "ĠáīłáĪļ": 1681,
      "áĭ²áĪµ": 1682,
      "din": 1683,
      "ote": 1684,
      "Ġny": 1685,
      ".áĬł": 1686,
      "ise": 1687,
      "ĠáĪĺáĬķ": 1688,
      "áĮįáĪŃ": 1689,
      "ĠáĪĺáĪµ": 1690,
      "jer": 1691,
      "Ġ14": 1692,
      "áī·": 1693,
      "Ġiya": 1694,
      "hugaban": 1695,
      "laya": 1696,
      "áĮłáĪŃ": 1697,
      "ĠNew": 1698,
      "Ġáī¤áī°": 1699,
      "elu": 1700,
      "ĠÃĮpÃŃnláº¹ÌĢ": 1701,
      "Ġáį¢": 1702,
      "ĠTa": 1703,
      "áĭĿáī¥": 1704,
      "Ġhadi": 1705,
      "utar": 1706,
      "ĠVi": 1707,
      "dan": 1708,
      "ereza": 1709,
      "áĪĭáĭŃ": 1710,
      "Ġyawan": 1711,
      "áĮĪáĬĺ": 1712,
      "ĠAg": 1713,
      "ĠMas": 1714,
      "ĠKu": 1715,
      "Ġiá¹£áº¹Ìģ": 1716,
      "ingereza": 1717,
      "yÃł": 1718,
      "irka": 1719,
      "ĠGu": 1720,
      "áįĸ": 1721,
      "Ġmji": 1722,
      "já»įba": 1723,
      "ungu": 1724,
      "ĠáĪģáĪī": 1725,
      "uth": 1726,
      "ingi": 1727,
      "Ġme": 1728,
      "Ġkwenye": 1729,
      "wá»įÌģ": 1730,
      "Ġáĭ¨áĪĨ": 1731,
      "ĠÆĻwa": 1732,
      "oc": 1733,
      "u.": 1734,
      "umi": 1735,
      "áĭī": 1736,
      "Ġgáº¹Ìģgáº¹Ìģ": 1737,
      "one": 1738,
      "ite": 1739,
      "jen": 1740,
      "ins": 1741,
      "jÃł": 1742,
      "ĠáįĬ": 1743,
      "Ġ(A": 1744,
      "ill": 1745,
      "tá»įÌģka": 1746,
      "à¤": 1747,
      "Ġus": 1748,
      "áĬŀ": 1749,
      "ĠUniversity": 1750,
      "ya,": 1751,
      "\".": 1752,
      "ĠNijeriya": 1753,
      "Ġman": 1754,
      "ĠKristo": 1755,
      "ren": 1756,
      "alla": 1757,
      "antar": 1758,
      "ĠtÃł": 1759,
      "ĠÃĪ": 1760,
      "ĠáĬłáĪĿ": 1761,
      "ect": 1762,
      "áĮĢáĪĺáĪªáĭ«": 1763,
      "Ġáĭ¨áĪĿ": 1764,
      "áº¹Ìģr": 1765,
      "--": 1766,
      "5,": 1767,
      "Ġpáº¹ÌĢlÃº": 1768,
      "áĪŃáĪµáī²": 1769,
      "ona": 1770,
      "wa,": 1771,
      "Ġlugha": 1772,
      "ult": 1773,
      "0.": 1774,
      "áĪĨáĬĲ": 1775,
      "vyo": 1776,
      "Ġlá»įÌģ": 1777,
      "ĠCom": 1778,
      "gbáº¹Ìģ": 1779,
      "ous": 1780,
      "ĠKa": 1781,
      "him": 1782,
      "ĠáĪĺáĭ°áī¥": 1783,
      "á¹£e": 1784,
      "1-": 1785,
      "ze": 1786,
      "Ã³n": 1787,
      "áĪ«áĭĬ": 1788,
      "Ġhis": 1789,
      "ĠáĪ°áĭİáī½": 1790,
      "atar": 1791,
      "ĠwÃ¡": 1792,
      "ua": 1793,
      "alin": 1794,
      "for": 1795,
      "ĠlÃ³rÃŃ": 1796,
      "Ġab": 1797,
      "Ġaiki": 1798,
      "Ġwana": 1799,
      "Makala": 1800,
      "han": 1801,
      "Ġkasa": 1802,
      "Ġinahusu": 1803,
      "wamn": 1804,
      "lic": 1805,
      "áº¹ÌģrÃŃkÃł": 1806,
      "anin": 1807,
      "áº¹ÌĢráº¹ÌĢ": 1808,
      "áī½áį¢": 1809,
      "ĠMe": 1810,
      "Ġáīłáĭĺ": 1811,
      "ĠTanzania": 1812,
      "kazi": 1813,
      "gÃºn": 1814,
      "Le": 1815,
      "3,": 1816,
      "ars": 1817,
      "Ġana": 1818,
      "2.": 1819,
      "Ġáī¦": 1820,
      "Ġmili": 1821,
      "emp": 1822,
      "Ġcomp": 1823,
      "ĠáĬĲáĮĪáĪŃ": 1824,
      "6,": 1825,
      "ĠAmáº¹ÌģrÃŃkÃł": 1826,
      "áįİ": 1827,
      "amba": 1828,
      "ors": 1829,
      "tawa": 1830,
      "sar": 1831,
      "ĠJam": 1832,
      "vel": 1833,
      "wÃ³": 1834,
      "uti": 1835,
      "áĬķáĮįáĪĬáĭĿ": 1836,
      "ya.": 1837,
      "ĠRe": 1838,
      "ĠMus": 1839,
      "láº¹Ìģ": 1840,
      "ĠáĭĵáĪĿ": 1841,
      "hemu": 1842,
      "7,": 1843,
      "áī°áĭį": 1844,
      "Ġáī°áĪĺ": 1845,
      "áī¦áī½": 1846,
      "ráº¹": 1847,
      "Ġup": 1848,
      "kali": 1849,
      "Ġinda": 1850,
      "Ġque": 1851,
      "rÃłn": 1852,
      "áĪĿáį¢": 1853,
      "oun": 1854,
      "áĮ¸": 1855,
      "ĠAfirka": 1856,
      "lá»įÌģ": 1857,
      "ĠKristo).": 1858,
      "6.": 1859,
      "ĠáĭĵáĪĺáīµ": 1860,
      "uwan": 1861,
      "Ya": 1862,
      "-áº¹ÌĢ": 1863,
      "Ġ(Baada": 1864,
      "wi": 1865,
      "ĠAp": 1866,
      "áį¥": 1867,
      "áĮłáīĢ": 1868,
      "8,": 1869,
      "Ġráº¹": 1870,
      "bÃł": 1871,
      "áĪĽáĪª": 1872,
      "Ġ192": 1873,
      "ĠáīĨ": 1874,
      "Ġkafa": 1875,
      "ĠmÃ¡a": 1876,
      "ĠÃ²á¹£Ã¨rÃ©": 1877,
      "fal": 1878,
      "Ġáĭ¨áĪļáĮĪáĬĿ": 1879,
      "bali": 1880,
      "illi": 1881,
      "kÃ¬": 1882,
      "ĠÆĻa": 1883,
      "ese": 1884,
      "7.": 1885,
      "ĠII": 1886,
      "áĪ¨áĭį": 1887,
      "ohn": 1888,
      "ash": 1889,
      "att": 1890,
      "Ġgu": 1891,
      "ĠCol": 1892,
      "ĠkÃ©": 1893,
      "4,": 1894,
      "ĠyÃŃ": 1895,
      "tá»įÌģkasÃŃ": 1896,
      "ĠtÃłbÃŃ": 1897,
      "Ġpa": 1898,
      "urs": 1899,
      "Ġmar": 1900,
      "5.": 1901,
      "áĮĵ": 1902,
      "á¹£áº¹": 1903,
      "ĠalÃ¡": 1904,
      "Ġap": 1905,
      "áĭŀ": 1906,
      "ĠáĬª": 1907,
      "ations": 1908,
      "ka.": 1909,
      "Ġdo": 1910,
      "áįĬáīµ": 1911,
      "Ġ12": 1912,
      "áĮįáī¥": 1913,
      "ĠÃ¨yÃŃ": 1914,
      "ĠÆĻwallon": 1915,
      "ĠáĪĿáĬŃ": 1916,
      "3.": 1917,
      "umani": 1918,
      "áĬ¢": 1919,
      "áĭ±áĪµ": 1920,
      "ome": 1921,
      "ĠáĬ¥áĭ¨": 1922,
      "tum": 1923,
      "y.": 1924,
      "Ġmag": 1925,
      "ue": 1926,
      "áĪģáĪĿ": 1927,
      "lÃ¹": 1928,
      ".áĬ¤": 1929,
      "4.": 1930,
      "áĪĭáĬķáĭµ": 1931,
      "áĭ³áĬķ": 1932,
      "áĬĸáī½": 1933,
      "Ġwata": 1934,
      "Ġkim": 1935,
      "kini": 1936,
      "Ġkwan": 1937,
      "áįĴ": 1938,
      "va": 1939,
      "Ġ;": 1940,
      "anci": 1941,
      "rá»įÌĢ": 1942,
      "ĠáĪĭ": 1943,
      "Ġká»į": 1944,
      "Ġou": 1945,
      "Ġáī¤áīµ": 1946,
      "áĮĮ": 1947,
      "sion": 1948,
      "ĠonÃŃ": 1949,
      "áĬ¥áĬķ": 1950,
      "amoja": 1951,
      "áĮ¨áĪ¨": 1952,
      "Ġáīĥ": 1953,
      "Ġduniya": 1954,
      "Ġohun": 1955,
      "iko": 1956,
      "ron": 1957,
      "áī³áī¸áĭį": 1958,
      "áĬłáī¥": 1959,
      "ost": 1960,
      "Ġdake": 1961,
      "enti": 1962,
      "ille": 1963,
      "Ġson": 1964,
      "isiwa": 1965,
      "jerumani": 1966,
      "áĭŃáĪħ": 1967,
      "an,": 1968,
      "áĪ¨áĬķ": 1969,
      "ĠáĪĺáĬ«": 1970,
      "ĠØ": 1971,
      "ĠBen": 1972,
      "8.": 1973,
      "uli": 1974,
      "lin": 1975,
      "ĠMo": 1976,
      "áĮ¦": 1977,
      "áĪ¨áĮĥ": 1978,
      "Ġtele": 1979,
      "ĠáĪĲ": 1980,
      "Éĵ": 1981,
      "ĠOk": 1982,
      "Ã¨re": 1983,
      "ĠÆ": 1984,
      "áīħáĪĿ": 1985,
      "engi": 1986,
      "lÃł": 1987,
      "ibi": 1988,
      "ated": 1989,
      "Ġuli": 1990,
      "Ġcewa": 1991,
      "1)": 1992,
      "ĠáĬłáī¥": 1993,
      "'ar": 1994,
      "Ġmul": 1995,
      "ĠolÃ¹": 1996,
      "ĠJihar": 1997,
      "Ġomo": 1998,
      "pi": 1999,
      "Ġ(an": 2000,
      "ĠáĬ¨áĬł": 2001,
      "Ġsan": 2002,
      "yen": 2003,
      "atun": 2004,
      "áĪĪáĭ«": 2005,
      "áī°áĪŃ": 2006,
      "Ġáī°áīĢ": 2007,
      ".áĬł.": 2008,
      "katifu": 2009,
      "áĪĿáĬĵ": 2010,
      "ĠáĬĲáīłáĪ¨": 2011,
      "ka,": 2012,
      "Ġake": 2013,
      "Ġbabban": 2014,
      "áĮĪáĭµ": 2015,
      "áīĨáĮ£": 2016,
      "ĠBK": 2017,
      "Ġzam": 2018,
      "ĠÂ»": 2019,
      "ĠáĪĨáĬĸ": 2020,
      "Ġwannan": 2021,
      "Ġplus": 2022,
      "ena": 2023,
      "Ġmwan": 2024,
      "Ġit": 2025,
      "áĪ°áĭį": 2026,
      "ĠFar": 2027,
      "áĪĺáĬĵ": 2028,
      "ept": 2029,
      "Ġwake": 2030,
      "Ġcomm": 2031,
      "ĠáĬłáĮĪáĪŃ": 2032,
      "ĠáīłáĪµ": 2033,
      "Ġkus": 2034,
      "ĠjÃ¹": 2035,
      "Ġwatu": 2036,
      "Ġgbogbo": 2037,
      "Ġmus": 2038,
      "Ġri": 2039,
      "Ġyar": 2040,
      "ora": 2041,
      "ĠáĬłáī£": 2042,
      "áĪ¨áĭ³": 2043,
      "iaka": 2044,
      "áĪīáīµ": 2045,
      "dar": 2046,
      "eo": 2047,
      "Ġáº¸": 2048,
      "mÃ¹": 2049,
      "ĠlÃ¨": 2050,
      "ĠáīłáĬ¢áīµáĭ®áĮµáĭ«": 2051,
      "áĬĲáĭļáĪħ": 2052,
      "áĭµáĬķ": 2053,
      "ited": 2054,
      "áĪĶáĪŃ": 2055,
      "ĠRi": 2056,
      "5)": 2057,
      "áĪĺáĪµ": 2058,
      "áĪĽáĭĬ": 2059,
      "uwar": 2060,
      "ĠáĬĵáī¸áĭįáį¢": 2061,
      "áĪ°áī¥": 2062,
      "ques": 2063,
      "ĠáĪ´": 2064,
      "ÃłÃ¡": 2065,
      "Ġáįķ": 2066,
      "ven": 2067,
      "ziki": 2068,
      "yyar": 2069,
      "áīª": 2070,
      "rÃº": 2071,
      "ĠgbÃ©": 2072,
      "Ġhukum": 2073,
      "ĠáĭĺáĬķáĭµ": 2074,
      "falme": 2075,
      "ima": 2076,
      "ĠKarne": 2077,
      "áīµáĬĵ": 2078,
      "áįħ": 2079,
      "Ġáĭ¨áĪ°": 2080,
      "áĮĪáĬĻ": 2081,
      "ĠáĮ¨": 2082,
      "ats": 2083,
      "Ġáī£áĪĪ": 2084,
      "lÃ¨": 2085,
      "Ġmáº¹Ìģ": 2086,
      "ashin": 2087,
      "ĠnÃŃgbÃł": 2088,
      "ĠáĮĢáĪĿáĪ®": 2089,
      "Ġyankin": 2090,
      "Ġ13": 2091,
      "mÃŃ": 2092,
      "Ãª": 2093,
      "Ġjama": 2094,
      "ta,": 2095,
      "ess": 2096,
      "áĭ¥": 2097,
      "ĠáĪ«": 2098,
      "áĮ½áĪĲ": 2099,
      "Ġwad": 2100,
      "Ġsehemu": 2101,
      "Ġáĭ«áĪĪ": 2102,
      "ĠUn": 2103,
      "der": 2104,
      "ĠIta": 2105,
      "áĪŃáĪ±": 2106,
      "Ġro": 2107,
      "Ġáįĵ": 2108,
      "amb": 2109,
      "cal": 2110,
      "wa.": 2111,
      "ĠáĬ¢áīµáĭ®áĮµáĭ«": 2112,
      "eshi": 2113,
      "ende": 2114,
      "ĠIngi": 2115,
      "ĠáĮ¦áĪŃ": 2116,
      "Ġmkuu": 2117,
      "ose": 2118,
      "jáº¹Ìģ": 2119,
      "á»Į": 2120,
      "ĠMata": 2121,
      "kÃ¹n": 2122,
      "áĭ¨áĪŃ": 2123,
      "Ġáĭ«áĪĪáĭį": 2124,
      "áī¡áī¥": 2125,
      "Ġte": 2126,
      "ĠáĮ¸": 2127,
      "kÃłn": 2128,
      "iss": 2129,
      "itÃ©": 2130,
      "ĠPro": 2131,
      "ĠJanu": 2132,
      "á¹£Ãł": 2133,
      "Ġáī¥áī»": 2134,
      "Ġwhi": 2135,
      "in,": 2136,
      "Ġlakini": 2137,
      "ĠÆĻafa": 2138,
      "3)": 2139,
      "ifa": 2140,
      "jáº¹": 2141,
      "Ġkamar": 2142,
      "áĬķáĬķ": 2143,
      "áī£áĪĪ": 2144,
      "Ġá»ĮÌĢ": 2145,
      "i.": 2146,
      "ÙĦ": 2147,
      "Ġpamoja": 2148,
      "áĬ¤áĪį": 2149,
      "Ġáī°áĭĪ": 2150,
      "hine": 2151,
      "Ni": 2152,
      "-Ã¬": 2153,
      "Ġcont": 2154,
      "Ġá»įdun": 2155,
      "Ġsá»į": 2156,
      "áĪłáĪ¨": 2157,
      "mba": 2158,
      "áĪįáĮ£": 2159,
      "rans": 2160,
      "ĠDe": 2161,
      "Ġorin": 2162,
      "Ġnom": 2163,
      "Ġmiaka": 2164,
      "ĠáĬ¨áįį": 2165,
      "ĥáĭŃ": 2166,
      "ĠáĪĺáĪį": 2167,
      "ĠBo": 2168,
      "yy": 2169,
      "Ġsamu": 2170,
      "Ġáĭ¨áĭĪ": 2171,
      "áĭĭáĪį": 2172,
      "Ùİ": 2173,
      "4)": 2174,
      "orn": 2175,
      "ĠáĬłáĭį": 2176,
      "bun": 2177,
      "ww": 2178,
      "áī³áĪįáį¢": 2179,
      "chool": 2180,
      "fuata": 2181,
      "áĪĭáī¸áĭį": 2182,
      "Ġnje": 2183,
      "Ġ(S": 2184,
      "Ġac": 2185,
      "ĠQ": 2186,
      "ĠáĬ¥.áĬ¤": 2187,
      "ĠJami": 2188,
      "ĠáĬ¦": 2189,
      "ĠfÃŃ": 2190,
      "ĠNaij": 2191,
      "Â«": 2192,
      "Ġsiku": 2193,
      "Ã¹bÃ¡": 2194,
      "iz": 2195,
      "Ã¬bÃŃ": 2196,
      "Ġ190": 2197,
      "fani": 2198,
      "Ġáī°áĬ¨": 2199,
      "Ġmaj": 2200,
      "kea": 2201,
      "6)": 2202,
      "áĭµáĪĿ": 2203,
      "lan": 2204,
      "Ã¬nrin": 2205,
      "ĠNigeria": 2206,
      "áį²áį±áį»áį": 2207,
      "ĠNaijir": 2208,
      "9,": 2209,
      "áĬħ": 2210,
      "ĠIngila": 2211,
      "Ġáº¹ÌĢká»įÌģ": 2212,
      "áĪļáĭ«": 2213,
      "7)": 2214,
      "tÃłn": 2215,
      "Ġdaya": 2216,
      "ato": 2217,
      "Ġgir": 2218,
      "ĠÃłká»įÌģ": 2219,
      "Ġyin": 2220,
      "ĠáīģáĮ¥áĪŃ": 2221,
      "ĠAust": 2222,
      "anen": 2223,
      "Ġsai": 2224,
      "Ġwasu": 2225,
      "Ġru": 2226,
      "kwai": 2227,
      "-19": 2228,
      "dha": 2229,
      "per": 2230,
      "Ġasi": 2231,
      "Ġala": 2232,
      "ĠáĪ¥áĪŃ": 2233,
      "anga": 2234,
      "annin": 2235,
      "ĠáĪī": 2236,
      "Ġaf": 2237,
      "Ġolu": 2238,
      "9.": 2239,
      "Ġtra": 2240,
      "co": 2241,
      "joba": 2242,
      "Ġmutane": 2243,
      "mÃ¬": 2244,
      "tor": 2245,
      "istoria": 2246,
      "rÃ¬": 2247,
      "Ġsam": 2248,
      "ĠNov": 2249,
      "ĠJohn": 2250,
      "Ġja": 2251,
      "Ġib": 2252,
      "pinle": 2253,
      "2)": 2254,
      "Ġ(C": 2255,
      "Ġob": 2256,
      "Ġes": 2257,
      "Ġsana": 2258,
      "Ġáĭ¨áīĢ": 2259,
      "áĬĵáĪį": 2260,
      "Da": 2261,
      "Ġáĭ¨áĪĨáĬĲ": 2262,
      "Ġgab": 2263,
      "Ġkwanza": 2264,
      "esa": 2265,
      "hana": 2266,
      "Ġáĭ®": 2267,
      "com": 2268,
      "ĠáĬłáīł": 2269,
      "ope": 2270,
      "ĠAward": 2271,
      "áĪ¥áī³áīµ": 2272,
      "Ġbaada": 2273,
      "áĪŃáĬŃ": 2274,
      "ĠáĭĪáĬķ": 2275,
      "ike": 2276,
      "ĠáĮ£": 2277,
      "Ġzina": 2278,
      "ĠáīłáĪĿ": 2279,
      "áī¢áĭ«": 2280,
      "ty": 2281,
      "zini": 2282,
      "ĠSept": 2283,
      "ute": 2284,
      "pÃ²": 2285,
      "áĬ¦": 2286,
      "ĠwÃŃ": 2287,
      "Ġnot": 2288,
      "ĠSe": 2289,
      "áĮ¨áĪ¨áĪ»": 2290,
      "ĠRD": 2291,
      "kÃ¨": 2292,
      "áĮłáĪ«": 2293,
      "ebru": 2294,
      "Ġum": 2295,
      "áĮ¤": 2296,
      "ĠáĪľ": 2297,
      "ĠáīłáĭļáĪħ": 2298,
      "ĠáĭµáĪŃ": 2299,
      "Ġdin": 2300,
      "eni": 2301,
      "ĠnÃŃpa": 2302,
      "uba": 2303,
      "andishi": 2304,
      "Ġsont": 2305,
      "cial": 2306,
      "enn": 2307,
      "áĪ³áīµ": 2308,
      "Ġshugaban": 2309,
      "áĪľáĬķ": 2310,
      "ĠRoma": 2311,
      "ĠYorÃ¹bÃ¡": 2312,
      "nÃŃ": 2313,
      "ĠÃłrÃ¹n": 2314,
      "ĠpÃ¨": 2315,
      "Ġgarin": 2316,
      "tawala": 2317,
      "Ġpr": 2318,
      "son": 2319,
      "La": 2320,
      "Ġáī¡": 2321,
      "ĠáĪĺáĬ«áĬ¨áĪį": 2322,
      "Ġavec": 2323,
      "ĠáīłáĪĭáĭŃ": 2324,
      "áĭİáī¹": 2325,
      "kÃº": 2326,
      "Ìģ": 2327,
      "ĠáīłáĭĺáĪĺáĬĲ": 2328,
      "ĠFr": 2329,
      "áĮįáĭļ": 2330,
      "Ġá»įjá»įÌģÃ¬bÃŃ": 2331,
      "áĬķáĮī": 2332,
      "ĠáĬ¨áĪĺ": 2333,
      "Ã©r": 2334,
      "Ġzili": 2335,
      "wá»įÌĢ": 2336,
      "áĬ³": 2337,
      "áº¹ÌģyÃ¬n": 2338,
      "ĠrÃŃ": 2339,
      "Ġaikin": 2340,
      "Ġduk": 2341,
      "ĠAbu": 2342,
      "hai": 2343,
      "Ġmakar": 2344,
      "ĠáīłáĪ°": 2345,
      "atin": 2346,
      "Ġ2019": 2347,
      "ula": 2348,
      "ĠChi": 2349,
      "ie": 2350,
      "ĠTh": 2351,
      "ram": 2352,
      "ĠjÃ¡": 2353,
      "áīħáĪŃ": 2354,
      "ĠAla": 2355,
      "ĠáĬŃáįįáĪĪ": 2356,
      "áī¥áĪ¨": 2357,
      "áĪĽáĭŃ": 2358,
      "áĪħáĪį": 2359,
      "ree": 2360,
      "Ġeneo": 2361,
      "chini": 2362,
      "Ġfir": 2363,
      "Ġhasa": 2364,
      "ungo": 2365,
      "ĠÉĹan": 2366,
      "Ġbo": 2367,
      "ĠNÃłÃ¬jÃŃrÃŃÃł.": 2368,
      "Ġodun": 2369,
      "ĠáĬłáĪŃ": 2370,
      "ase": 2371,
      "áĪĺáĪĪ": 2372,
      "ĠHar": 2373,
      "áĪĿáĪħáĪŃáīµ": 2374,
      "En": 2375,
      "yn": 2376,
      "Ġmá»įÌģ": 2377,
      "iá¹£áº¹Ìģ": 2378,
      "kazini": 2379,
      "tt": 2380,
      "ib": 2381,
      "Ġlangu": 2382,
      "Ġwakazi": 2383,
      "Ġáīł19": 2384,
      "Ġpo": 2385,
      "ogra": 2386,
      "áĭŃáĭĪ": 2387,
      "ign": 2388,
      "yoyin": 2389,
      "Ġgwamn": 2390,
      "áįĥ": 2391,
      "áº¹Ìģáº¹ÌĢ": 2392,
      "áīĦ": 2393,
      "\",": 2394,
      "áĬķáĮįáĪĬáĭĿáĬĽ": 2395,
      "sc": 2396,
      "áīµáį¢": 2397,
      "Ġwengi": 2398,
      "hariki": 2399,
      "Ã§": 2400,
      "gbÃ²": 2401,
      "Al": 2402,
      "áĬķáĬĵ": 2403,
      "ĠbÃŃi": 2404,
      "ashi": 2405,
      "Ġkya": 2406,
      "Ġji": 2407,
      "Ġgaba": 2408,
      "ashe": 2409,
      "Ã©s": 2410,
      "ĠáĬ¥áĬķáĭ²áĪģáĪĿ": 2411,
      "kÃ¡": 2412,
      "org": 2413,
      "//": 2414,
      "hili": 2415,
      "iv": 2416,
      "ĠâĢĺ": 2417,
      "ĠáĪ½": 2418,
      "áīµáį£": 2419,
      "áīĨáĮ£áĮłáĪŃ": 2420,
      "dÃŃn": 2421,
      "9)": 2422,
      "mad": 2423,
      "ĠGe": 2424,
      "uran": 2425,
      "ĠIb": 2426,
      "ress": 2427,
      "Ġáĭ¨áĮį": 2428,
      "áĪµáī³": 2429,
      "orld": 2430,
      "Ġáº¹gbáº¹Ìģ": 2431,
      "ĠmÃº": 2432,
      "uk": 2433,
      "://": 2434,
      "ĠÃ¬já»įba": 2435,
      "ĠkÃº": 2436,
      "Ġilu": 2437,
      "ĠTur": 2438,
      "Ġjina": 2439,
      "Ġáī¦áī³": 2440,
      "ĠBab": 2441,
      "gbá»įÌģn": 2442,
      "áĮįáĭļáĬłáī¥": 2443,
      "pen": 2444,
      "ĠÃ¨tÃ²": 2445,
      "is,": 2446,
      "Ġmafi": 2447,
      "Ġ[": 2448,
      "le,": 2449,
      "ĠPar": 2450,
      "áĮģ": 2451,
      "áĭįáį¢": 2452,
      "ĠFebru": 2453,
      "faransa": 2454,
      "Ġ)": 2455,
      "ĠÃĵ": 2456,
      "Ġzaidi": 2457,
      "ambo": 2458,
      "Ġ(M": 2459,
      "áī¥áĪ«": 2460,
      "Ġkubwa": 2461,
      "ĠGhana": 2462,
      "gar": 2463,
      "Ġnchini": 2464,
      "ĠáĬ¥.áĬ¤.áĬł.": 2465,
      "ĠSchool": 2466,
      "ĠAfrica": 2467,
      "a,": 2468,
      "ĠayÃ©": 2469,
      "áĮĪáĬķ": 2470,
      "zaji": 2471,
      "Ġter": 2472,
      "ĠáīłáīĢ": 2473,
      "áĬŀáī½": 2474,
      "8)": 2475,
      "ĠáĬĲáīłáĪ©": 2476,
      "ken": 2477,
      "áĪµáĬĵ": 2478,
      "Ġjama'a": 2479,
      "Ġwhich": 2480,
      "áĭ¬": 2481,
      "Ġsaba": 2482,
      "áĮĨáī½": 2483,
      "Ã©es": 2484,
      "láº¹": 2485,
      "wÃł": 2486,
      "ikia": 2487,
      "áĭ°áīµ": 2488,
      "an.": 2489,
      "Ġáī°áī¥": 2490,
      "áĪŃáĪµáī²áĭ«áĬķ": 2491,
      "ĠBe": 2492,
      "áĮ¥áĬķ": 2493,
      "Ġshine": 2494,
      "ton": 2495,
      "Ġapp": 2496,
      "Ġáīħáĭ±áĪµ": 2497,
      "huri": 2498,
      "92": 2499,
      "áĭķáĪ«": 2500,
      "ishwa": 2501,
      "Ġkm": 2502,
      "tom": 2503,
      "itu": 2504,
      "áĮįáĭļáĬłáī¥áĪĶáĪŃ": 2505,
      "áī¤áīµ": 2506,
      "ĠáĭŃáĮĪáĬĽ": 2507,
      "ĠYa": 2508,
      "kanin": 2509,
      "inc": 2510,
      "Ġkungiyar": 2511,
      "ashen": 2512,
      "³áĪµ": 2513,
      "Ġáĭ¨áĪµ": 2514,
      "ĠTe": 2515,
      "olog": 2516,
      "mÃ¬n": 2517,
      "ĠáĪ¨": 2518,
      "ĠáĪĿáĬŃáĬķáĭ«": 2519,
      "low": 2520,
      "ĠlÃ©": 2521,
      "áĭ¶áī½": 2522,
      "ĠApri": 2523,
      "Ġray": 2524,
      "áĭįáĪĿ": 2525,
      "Ġtara": 2526,
      "áĪº": 2527,
      "áĬŃáīµ": 2528,
      "Ġgud": 2529,
      "Ġamfani": 2530,
      "Ġkai": 2531,
      "áī£áĪĪáĭį": 2532,
      "ther": 2533,
      "ani.": 2534,
      "bre": 2535,
      "ĠáĬłáĪī": 2536,
      "Ġ'yan": 2537,
      "ĠOkto": 2538,
      "ĠáĪĿáĬķ": 2539,
      "áĮ£áĪį": 2540,
      "ĠkÃ©k": 2541,
      "a.": 2542,
      "anza": 2543,
      "50": 2544,
      "lish": 2545,
      "Ġiliyo": 2546,
      "11": 2547,
      "Ġele": 2548,
      "ĠWar": 2549,
      "yá»į": 2550,
      "isp": 2551,
      "Ġgasar": 2552,
      "ĠprÃ©": 2553,
      "gn": 2554,
      "áĮĪáĬĵ": 2555,
      "ĠJa": 2556,
      "sÃłn": 2557,
      "Ġjir": 2558,
      "Ġlili": 2559,
      "Ġshiga": 2560,
      "ĠÃ¬pÃŃnláº¹ÌĢ": 2561,
      "ĠáĭŃáī£": 2562,
      "fun": 2563,
      "ĠFran": 2564,
      "Ġfim": 2565,
      "Ġres": 2566,
      "ĠLag": 2567,
      "erin": 2568,
      "áĪ«áĪį": 2569,
      "yyu": 2570,
      "ĠMuham": 2571,
      "wu": 2572,
      "ĠkÃ©kerÃ©": 2573,
      "endele": 2574,
      "dÃł": 2575,
      "Ġtu": 2576,
      "áĭŃáĬķ": 2577,
      "áĮĪáī£": 2578,
      "Ġuku": 2579,
      "ĠÃ¬wÃ©": 2580,
      "dÃº": 2581,
      "Ġhali": 2582,
      "Ġkal": 2583,
      "Ġmara": 2584,
      "gbÃ¨gbÃ¨": 2585,
      "tar": 2586,
      "rÃ³": 2587,
      "alisar": 2588,
      "Ġáĭ¨áĬĲáīłáĪ¨": 2589,
      "run": 2590,
      "Ġcin": 2591,
      "Mwaka": 2592,
      "áĬĴáĭ«": 2593,
      "Ġsiya": 2594,
      "ĠáĬŃáįįáĪį": 2595,
      "ĠKen": 2596,
      "áĬĸáĪŃ": 2597,
      "Ġjami": 2598,
      "áī±áĪĿ": 2599,
      "vu": 2600,
      "tain": 2601,
      "cy": 2602,
      "fic": 2603,
      "Ġkab": 2604,
      "Ġáĭ²": 2605,
      "uis": 2606,
      "ĠáĪŃ": 2607,
      "30": 2608,
      "pt": 2609,
      "Ġtarehe": 2610,
      "ilaya": 2611,
      "vent": 2612,
      "gbegbe": 2613,
      "ĠHe": 2614,
      "Ç¹": 2615,
      "ĠáĬłáĬ«áī£áī¢": 2616,
      "mÃ¡": 2617,
      "ĠJap": 2618,
      "áĪĪáī°": 2619,
      "ĠáĬ¥áĬķáĮį": 2620,
      "áĮ½áĪĲáįį": 2621,
      "ĠlâĢĻ": 2622,
      "áĭ°áĪ¨áĮĪ": 2623,
      "Ġkir": 2624,
      "old": 2625,
      "Ġsannan": 2626,
      "ĠBar": 2627,
      "ates": 2628,
      "Ġ(N": 2629,
      "Ġtele.": 2630,
      "Ġáįĸ": 2631,
      "ĠPe": 2632,
      "Kati": 2633,
      "ulo": 2634,
      "áīĢáīµ": 2635,
      "ĠáĬłáīĨáĮ£áĮłáĪŃ": 2636,
      "cce": 2637,
      "áĭŃáĬĵ": 2638,
      "Ġform": 2639,
      "Ġal'": 2640,
      "ĠIntern": 2641,
      "ĠOktoba": 2642,
      "Ġco": 2643,
      "-áº¹ÌĢká»įÌģ": 2644,
      "bili": 2645,
      "ĠTi": 2646,
      "ĠAre": 2647,
      "Ã³Ã²": 2648,
      "Ġhad": 2649,
      "áĪįáīħ": 2650,
      "áĭ®áĬķ": 2651,
      "Ġwakati": 2652,
      "Ġ&": 2653,
      "vo": 2654,
      "ĠBir": 2655,
      "bert": 2656,
      "Ã¬dÃ¬": 2657,
      "Ali": 2658,
      "ĠáīłáĮį": 2659,
      "áĪ¨áĮį": 2660,
      "ĠáĬłáĬķáĭ±": 2661,
      "Ġkuto": 2662,
      "ĠNor": 2663,
      "Il": 2664,
      "sti": 2665,
      "oloni": 2666,
      "ĠkÃ³pa": 2667,
      "ĠOn": 2668,
      "isho": 2669,
      "ugh": 2670,
      "áĬķáĮĭ": 2671,
      "áĪŃáĭĿ": 2672,
      "áĮłáīĥ": 2673,
      "ĠáĮįáĭĽáīµ": 2674,
      "ĠáĬ¥áĭ«": 2675,
      "haribi": 2676,
      "ĠAt": 2677,
      "ĠKing": 2678,
      "áįĪáĪŃ": 2679,
      "rÃ¡": 2680,
      "ta.": 2681,
      "lah": 2682,
      "form": 2683,
      "itwa": 2684,
      "áĭµáĪŀ": 2685,
      "ikwa": 2686,
      "áī³áĪį": 2687,
      "Ġáº¹láº¹Ìģ": 2688,
      "áĮĪáĪĪ": 2689,
      "Ġamma": 2690,
      "Ġshir": 2691,
      "áĪĿáĬķ": 2692,
      "Ġáīłáī¥": 2693,
      "ĠX": 2694,
      "Ġmaka": 2695,
      "jia": 2696,
      "Ġáīłáĭ°": 2697,
      "áĮİáĪŃ": 2698,
      "ĠáĬ¨áī°áĪŀáī½": 2699,
      "ĠItalia": 2700,
      "ĠáĬłáĪĭ": 2701,
      "áįĢ": 2702,
      "hy": 2703,
      "Ġfo": 2704,
      "ĠáĬ¥áĬķáĭ°áĪļ": 2705,
      "áĭ¨áīµ": 2706,
      "ony": 2707,
      "esi": 2708,
      "-A": 2709,
      ",000": 2710,
      "ĠBur": 2711,
      "tÃ³": 2712,
      "asu": 2713,
      "ĠáĪ¶": 2714,
      "á»įÌģÃ¬dÃ¬": 2715,
      "áº¹Ìģrá»įÌģÃ¬dÃ¬": 2716,
      "ĠáĬĥáĭŃ": 2717,
      "k.": 2718,
      "Ġper": 2719,
      "ĠShe": 2720,
      "Ġhiyo": 2721,
      "ĠÃ¡st": 2722,
      "ĠlÃ¡ra": 2723,
      "ĠÃ¡stáº¹Ìģrá»įÌģÃ¬dÃ¬": 2724,
      "zama": 2725,
      "ĠáīłáįĬáīµ": 2726,
      "ĠÃģ": 2727,
      "tun": 2728,
      "áĬĺ": 2729,
      "eral": 2730,
      "ĠáĭŃáī½": 2731,
      "ĠDes": 2732,
      "rand": 2733,
      "ĠpÃł": 2734,
      "ĠAmur": 2735,
      "gas": 2736,
      "dio": 2737,
      "enda": 2738,
      "áĪĽáĬĸ": 2739,
      "ett": 2740,
      "bÃ¹n": 2741,
      "áīµáĪŃ": 2742,
      "ĠNajeriya.": 2743,
      "ĠÉĹa": 2744,
      "pÃ¡": 2745,
      "ĠMut": 2746,
      "thi": 2747,
      "ĠáĪĽáĪŃ": 2748,
      "ĠáĪģáĪĪáīµ": 2749,
      "áĪĪáĭ«áĭ©": 2750,
      "Ġseri": 2751,
      "idan": 2752,
      "Ġ(m": 2753,
      "ĠáĭŃáī³": 2754,
      "usini": 2755,
      "Ã©n": 2756,
      "Ġ2020": 2757,
      "ette": 2758,
      "áĪı": 2759,
      "áĪĳ": 2760,
      "áĪ°áĪ«": 2761,
      "ingine": 2762,
      "eno": 2763,
      "áī¥áĪµ": 2764,
      "use": 2765,
      "hali": 2766,
      "áīĢáĭį": 2767,
      "Ġkaratun": 2768,
      "ĠáĪ¸": 2769,
      "ĠUjerumani": 2770,
      "áĬ¬": 2771,
      "áĬŃáĪµ": 2772,
      "ĠáĭĺáĪĺ": 2773,
      "entre": 2774,
      "Ha": 2775,
      "Ġipa": 2776,
      "ys": 2777,
      "áĮ£áĪĿ": 2778,
      "jini": 2779,
      "ĠKe": 2780,
      "ĠáĪĿáĬķáĮ": 2781,
      "wn": 2782,
      "erian": 2783,
      "omo": 2784,
      "Ġhanyar": 2785,
      "áĭĸ": 2786,
      "Ġáī´": 2787,
      "fáº¹Ìģ": 2788,
      "boda": 2789,
      "Ġáĭ©": 2790,
      "ory": 2791,
      "ĠUingereza": 2792,
      "Ø§": 2793,
      "Wá»įÌģn": 2794,
      "sáº¹ÌĢ": 2795,
      "ĠÃĪkÃ³": 2796,
      "Ġhada": 2797,
      "ologi": 2798,
      "ĠáĬłáīłáī£": 2799,
      "ĠLagos": 2800,
      "Ġne,": 2801,
      "zwa": 2802,
      "áĪĪáĭŃ": 2803,
      "ĠorÃº": 2804,
      "Ġshekaru": 2805,
      "urin": 2806,
      "Ġjuu": 2807,
      "Ġbuga": 2808,
      "áĪ«áīħ": 2809,
      "ĠáĪĮáĪĭ": 2810,
      "Ġbaya": 2811,
      "Ġ(199": 2812,
      "áī£áĭŃ": 2813,
      "ero": 2814,
      "Ġabin": 2815,
      "Ġwere": 2816,
      "ĠCon": 2817,
      "ĠáĭĪáīħ": 2818,
      "ĠáĭĺáĪĺáĬĲ": 2819,
      "ks": 2820,
      "ĠKas": 2821,
      "Ġilikuwa": 2822,
      "lex": 2823,
      "Ġbáº¹ÌĢráº¹ÌĢ": 2824,
      "ĠKo": 2825,
      "imo": 2826,
      "omi": 2827,
      "p://": 2828,
      "ĠKam": 2829,
      "Ġtabi": 2830,
      "Sa": 2831,
      "Ġakan": 2832,
      "³áį": 2833,
      "en,": 2834,
      "áĪįáĮį": 2835,
      "Ġsama": 2836,
      "áĬķáį¡": 2837,
      "áĪĿáį£": 2838,
      "áĪ®áįĵ": 2839,
      "ĠáĭĵáĪĺáī³áīµ": 2840,
      "Ġupande": 2841,
      "áĪĿáĪŃ": 2842,
      "Ã©ri": 2843,
      "ĠáĮ¦áĪŃáĬĲáīµ": 2844,
      "He": 2845,
      "áĪĺáĪ¨": 2846,
      "Ġne.": 2847,
      "ĠáĪĥáĭŃ": 2848,
      "mma": 2849,
      "fri": 2850,
      "Ġwenye": 2851,
      "áĪŃáĪĺáĬķ": 2852,
      "áĮįáī£": 2853,
      "ĠáĪµáĪ«": 2854,
      "áĪªáĬ«áĭĬ": 2855,
      "wani": 2856,
      "Kwa": 2857,
      "0)": 2858,
      "ĠKan": 2859,
      "bia": 2860,
      "Ġká»įÌģ": 2861,
      "Ġáĭ¨áĭį": 2862,
      "Ġáĭ¨áĭĵ": 2863,
      "ĠáĬ¨áĪļ": 2864,
      "ĠáĪµáĪŃ": 2865,
      "Ġáĭ¨áĪĺáĮĢáĪĺáĪªáĭ«": 2866,
      "Ġmoja": 2867,
      "Ġdig": 2868,
      "kubwa": 2869,
      "ft": 2870,
      "iro": 2871,
      "Ġpad": 2872,
      "áĮįáĪ«": 2873,
      "ĠáĪ²áĭ«": 2874,
      "tiv": 2875,
      "alo": 2876,
      "Ġmba": 2877,
      "ĠÃ¬dÃŃ": 2878,
      "joibi": 2879,
      "ĠáĬłáĭŃáĬĲáīµ": 2880,
      "ople": 2881,
      "olu": 2882,
      "'i": 2883,
      "Ġyali": 2884,
      "ĠáĬłáĪ¨": 2885,
      "áĪĲáĬķáĪµ": 2886,
      "ĠgbÃł": 2887,
      "ĠAli": 2888,
      "ĠCo": 2889,
      "kuma": 2890,
      "Ġcan": 2891,
      "Wa": 2892,
      "Th": 2893,
      "Ġwaki": 2894,
      "ĠMin": 2895,
      "ĠKis": 2896,
      "lÃŃ": 2897,
      "áĪĺáīµ": 2898,
      "áĪĭáĪĪ": 2899,
      "Ġ189": 2900,
      "áĮłáĪ¨": 2901,
      "Ġmaso": 2902,
      "áĪįáĭµ": 2903,
      "rodha": 2904,
      "ular": 2905,
      "ĠáĬĲáīłáĪ¨áį¢": 2906,
      "ĠjÃ¹lá»į": 2907,
      "Ã´": 2908,
      "ĠKusini": 2909,
      "ĠHausa": 2910,
      "rÃ¨s": 2911,
      "ĠáĭĽ": 2912,
      "áĪŃáĭµ": 2913,
      "áº¹ÌģtÃ¬": 2914,
      "ĠIpinle": 2915,
      "áīłáī¥": 2916,
      "Ġ11": 2917,
      "Ġabo": 2918,
      "Ġye": 2919,
      "ĠAmerika": 2920,
      "Ġpla": 2921,
      "bila": 2922,
      "ĠplÃ¡n": 2923,
      "age": 2924,
      "ĠáĬ¨áĭļáĭ«": 2925,
      "ĠAug": 2926,
      "má»įÌģ": 2927,
      "áĬĲáĮĪáĪŃ": 2928,
      "Ġáį²áį±áį»áį": 2929,
      "Ġkarne": 2930,
      "Ġtsakanin": 2931,
      "ĠÃ¬gbÃłjÃ¡": 2932,
      "vid": 2933,
      "Ku": 2934,
      "áįįáĪ«": 2935,
      "ĠáĬ¨áįįáī°áĬĽ": 2936,
      "ÉĹa": 2937,
      "dogo": 2938,
      "sÃ¹": 2939,
      "ĠáĬ¥áĪŃ": 2940,
      "Ġtso": 2941,
      "Ġvita": 2942,
      "áĭ°áĪį": 2943,
      "Ġinc": 2944,
      "ĠáĭĪáĪŃ": 2945,
      "ĠáĬłáĭ²áĪµ": 2946,
      "Ġwo": 2947,
      "fÃł": 2948,
      "ĠáĬĲáĮĪáĪ¥áī³áīµ": 2949,
      "illiam": 2950,
      "koa": 2951,
      "ĠáĪłáĪ": 2952,
      "Ġtáº¹Ìģ": 2953,
      "áĮĢáĪĺáĪŃáĭ«": 2954,
      "ĠáĪĮáĪİáī½": 2955,
      "ĠáĬ³áĪµ": 2956,
      "ĠáĬ¥áĮħ": 2957,
      "ĠplÃ¡náº¹ÌģtÃ¬": 2958,
      "áĪĭáĪĿ": 2959,
      "port": 2960,
      "us,": 2961,
      "ĠMi": 2962,
      "Ġkum": 2963,
      "Ġnyingi": 2964,
      "Ġlab": 2965,
      "Ġdara": 2966,
      "Ġmon": 2967,
      "á¹£áº¹ÌĢ": 2968,
      "ĠáĪĽáĪµ": 2969,
      "Ġchini": 2970,
      "ps": 2971,
      "ĠáĪĺáĮł": 2972,
      "ĠKwa": 2973,
      "yÃ¡": 2974,
      "Ġyanz": 2975,
      "ÃĴ": 2976,
      "Ġann": 2977,
      "ĠáĬ©": 2978,
      "own": 2979,
      "nu": 2980,
      "Ġim": 2981,
      "Ġuna": 2982,
      "áĭĮ": 2983,
      "Ġhas": 2984,
      "fÃ¡": 2985,
      "pá»į": 2986,
      "ĠáĬłáįį": 2987,
      "ĠÃ¡stáº¹Ìģrá»įÌģÃ¬dÃ¬.": 2988,
      "Ġkuna": 2989,
      "fanin": 2990,
      "Ġnan": 2991,
      "ĠdÃŃ": 2992,
      "®áī½": 2993,
      "iwa": 2994,
      "eme": 2995,
      "áĪ¬áīµ": 2996,
      "ĠáĪĺáĪ°": 2997,
      "ĠáĪĿáĭµáĪŃ": 2998,
      "ĠmÃ©jÃ¬": 2999,
      "ĠÆĻar": 3000,
      "áīłáĪĭ": 3001,
      "ĠáĪįáĭ©": 3002,
      "atoli": 3003,
      "Ġ(2": 3004,
      "ĠEng": 3005,
      "áĪªáĭİáī½": 3006,
      "áįĪáĪ¨áĬķ": 3007,
      "ĠSan": 3008,
      "Ġmaji": 3009,
      "ĠJami'ar": 3010,
      "ĠBu": 3011,
      "phi": 3012,
      "Ġ188": 3013,
      "edi": 3014,
      "velop": 3015,
      "dani": 3016,
      "Ġtari": 3017,
      "ĠUnited": 3018,
      "Ġel": 3019,
      "Ġaá¹£": 3020,
      "áī³áĭŃ": 3021,
      "áī¶áĪµ": 3022,
      "ĠViungo": 3023,
      "áĬ¥áĪµ": 3024,
      "limbali": 3025,
      "áĭĵáīµ": 3026,
      "ĠáĭķáĪĪáīµ": 3027,
      "ĠGo": 3028,
      "ĠHu": 3029,
      "hon": 3030,
      "áº¸": 3031,
      "áĪįáį£": 3032,
      "Ġwato": 3033,
      "ĠkejÃ¬": 3034,
      "Ġáĭľ": 3035,
      "Ġime": 3036,
      "des": 3037,
      "orun": 3038,
      "Ġmbalimbali": 3039,
      "gÃ¹n": 3040,
      "ĠáĭĻ": 3041,
      "áĬ¨áĭļáĪħ": 3042,
      "Ġeni": 3043,
      "ĠKano": 3044,
      "ally": 3045,
      "aribu": 3046,
      "áĪµáĪĪ": 3047,
      "Ġalso": 3048,
      "áī²áĬ«": 3049,
      "áĮ¨áĪĽáĪª": 3050,
      "rÃł": 3051,
      "takatifu": 3052,
      "engine": 3053,
      "hir": 3054,
      "fer": 3055,
      "Ġsy": 3056,
      "Ġparti": 3057,
      "led": 3058,
      "áĭ°áĭį": 3059,
      "áĭİáĪµ": 3060,
      "mes": 3061,
      "Ġcomme": 3062,
      "Ġmwandishi": 3063,
      "Ġms": 3064,
      "ves": 3065,
      "wá»į": 3066,
      "ĠorÃºká»į": 3067,
      "ĠNe": 3068,
      "Ùħ": 3069,
      "Ġsini": 3070,
      "ĠáīłáĪŃ": 3071,
      "áįįáīµ": 3072,
      "nÃł": 3073,
      "ĠDuniya": 3074,
      "áĬķáį£": 3075,
      "áĪĭáīħ": 3076,
      "áĮ¢": 3077,
      "ĠáĬłáĭµáĪŃ": 3078,
      "ĠIlÃ©": 3079,
      "rÃŃn": 3080,
      "ĠgbajÃº": 3081,
      "Ġhal": 3082,
      "osti": 3083,
      "undi": 3084,
      "ĠáĪĽáĭķ": 3085,
      "áĪ¹": 3086,
      "Ġbáº¹Ìģáº¹ÌĢ": 3087,
      "áįĭáīµ": 3088,
      "eneo": 3089,
      "Ġáĭ«áĪµ": 3090,
      "isl": 3091,
      "2-": 3092,
      "bur": 3093,
      "ambar": 3094,
      "ublic": 3095,
      "ĠÃ¬má»įÌĢ": 3096,
      "áĬ¨áĪĪ": 3097,
      "ric": 3098,
      "Ġ(18": 3099,
      "ĠÃ¬tá»įÌģkasÃŃ": 3100,
      "bab": 3101,
      "Ġras": 3102,
      "ĠOl": 3103,
      "II": 3104,
      "aren": 3105,
      "Les": 3106,
      "Ġsami": 3107,
      "ĠUs": 3108,
      "fanya": 3109,
      "Ġguda": 3110,
      "ika": 3111,
      "ĠMal": 3112,
      "áĭ²áĭ«": 3113,
      "ĠáīĥáĪį": 3114,
      "ĠAfrican": 3115,
      "Ġ(B": 3116,
      "ģáĬķ": 3117,
      "áĪĭáĭĬ": 3118,
      "Ġáī¥áĪİ": 3119,
      "ĠColle": 3120,
      "Ġwacce": 3121,
      "Ġsaboda": 3122,
      "Ġpas": 3123,
      "Ġdau": 3124,
      "lÃ³gÃºn": 3125,
      "ĠáĬłáĪµáī°áĭ³": 3126,
      "ĠáĭĪáīħáīµ": 3127,
      "ĠAc": 3128,
      "áīłáĪį": 3129,
      "áĬ¢áīµáĭ®áĮµáĭ«": 3130,
      "áĪĭáĬŃ": 3131,
      "ĠnÃŃbi": 3132,
      "Ġ30": 3133,
      "ĠComm": 3134,
      "ĠjÃ¡de": 3135,
      "¹¢": 3136,
      "Ġak": 3137,
      "áī«": 3138,
      "áĪĿáį¡": 3139,
      "ĠáĬ¨áĬĲ": 3140,
      "ĠOá¹£Ã¹": 3141,
      "Ġsamar": 3142,
      "gal": 3143,
      "Ġ(áĭ¨": 3144,
      "Ġrec": 3145,
      "lla": 3146,
      "áī¨": 3147,
      "ĠáīµáĪĿáĪħáĪŃáīµ": 3148,
      "áĪĬáĭ«": 3149,
      "ĠwÃŃpÃ©": 3150,
      "dda": 3151,
      "ba,": 3152,
      "áīłáĭļáĪħ": 3153,
      "áįĪáĭį": 3154,
      "Ġkwamba": 3155,
      "irin": 3156,
      "ral": 3157,
      "Ġmá»įÌĢ": 3158,
      "ath": 3159,
      "ĠáĬłáĪ«": 3160,
      "yyana": 3161,
      "Katika": 3162,
      "Ġmin": 3163,
      "Ġ(P": 3164,
      "Ġ(áĬ¨": 3165,
      "áīĢáĪĺ": 3166,
      "Ġáī£áĪħ": 3167,
      "Ġmwana": 3168,
      "Ġáĭ¨áī³": 3169,
      "Ġáį²áį": 3170,
      "Ġáī°áĪ«": 3171,
      "Ġnuna": 3172,
      "ĠBan": 3173,
      "on.": 3174,
      "Ġ25": 3175,
      "ĠDi": 3176,
      "áī³áĭį": 3177,
      "áįĮ": 3178,
      "áĭ®áī½": 3179,
      "Ġsau": 3180,
      "umo": 3181,
      "rá»į": 3182,
      "insi": 3183,
      "ĠáĬ¨áĭļáĪħ": 3184,
      "áīĢáĪŃ": 3185,
      "Ġako": 3186,
      "Ġalif": 3187,
      "unci": 3188,
      "istan": 3189,
      "els": 3190,
      "Ġmwa": 3191,
      "ten": 3192,
      "Ġgame": 3193,
      "ĠáĪĦ": 3194,
      "áĪ½áĬķ": 3195,
      "Ġáĭ®áĪĲáĬķáĪµ": 3196,
      "Ġkafin": 3197,
      "atta": 3198,
      "orin": 3199,
      "gÃ©": 3200,
      "pan": 3201,
      "ĠTara": 3202,
      "Ġsababu": 3203,
      "ĠSha": 3204,
      "ĠBel": 3205,
      "ĠáĬ¨áĬłáĪ": 3206,
      "ĠInd": 3207,
      "ĠÃłká»įÌģká»įÌģ": 3208,
      "Ġ(o": 3209,
      "ani,": 3210,
      "ume": 3211,
      "áīłáĪ«": 3212,
      "áĭİáī½áĬķ": 3213,
      "Ġkawa": 3214,
      "ĠAare": 3215,
      "ĠáīłáĭĪ": 3216,
      "áĭŃáĭĪáīµ": 3217,
      "bÃ²": 3218,
      "hara": 3219,
      "tre": 3220,
      "Ġmto": 3221,
      "Ġlori": 3222,
      "ĠáīłáĮ£áĪĿ": 3223,
      "áĪĽáīµ": 3224,
      "Ġáº¹ni": 3225,
      "ÃĪ": 3226,
      "áĮĬáĭľ": 3227,
      "ĠáĭŃáī³áĭĪ": 3228,
      "ĠHai": 3229,
      "Ġimp": 3230,
      "ĠáĬłáĪĽ": 3231,
      "Ġáī¥áĪŃ": 3232,
      "bit": 3233,
      "áĪ«áĬķ": 3234,
      "Ġáį¡áį¡": 3235,
      "Ġaki": 3236,
      "con": 3237,
      "ras": 3238,
      "Ġmf": 3239,
      "Ãłráº¹": 3240,
      "Ġche": 3241,
      "Ġpáº¹": 3242,
      "Ġtake": 3243,
      "áīłáī°": 3244,
      "áĪ³áĭĬ": 3245,
      "Ġfirst": 3246,
      "ĠPart": 3247,
      "erv": 3248,
      "ger": 3249,
      "Ġkusini": 3250,
      "she": 3251,
      "Ġ2000": 3252,
      "ĠJos": 3253,
      "kokin": 3254,
      "ĠUlaya": 3255,
      "áĬĸáĪµ": 3256,
      "Ġmulkin": 3257,
      "ĠOr": 3258,
      "ĠLond": 3259,
      "Ġkoma": 3260,
      "áĭ°áĪĿ": 3261,
      "áĬĽáį¦": 3262,
      "ative": 3263,
      "Ġwalio": 3264,
      "Ġmakarantar": 3265,
      "Ġtrans": 3266,
      "cip": 3267,
      "emb": 3268,
      "áĪ«áĪ±": 3269,
      "ĠMay": 3270,
      "ĠáĪĿáĬŃáĬķáĭ«áīµ": 3271,
      "ĠÆĻasa": 3272,
      "ĠMat": 3273,
      "lÃ²": 3274,
      "ĠáĬ£": 3275,
      "ount": 3276,
      "ĠMusul": 3277,
      "wood": 3278,
      "ĠArewa": 3279,
      "fÃŃ": 3280,
      "áĪ³áī¥": 3281,
      "anzia": 3282,
      "Ġaká»į": 3283,
      "ĠagbÃ¨gbÃ¨": 3284,
      "áĬĲáĭį": 3285,
      "áĮĪáĪ©": 3286,
      "Ġal-": 3287,
      "ĠÂ«áĭ¨": 3288,
      "á¹£Ã¨lÃº": 3289,
      "ĠCar": 3290,
      "bon": 3291,
      "gy": 3292,
      "áī£áī¸áĭį": 3293,
      "ĠáĪ¥áĪ«": 3294,
      "Ġjim": 3295,
      "ĠTo": 3296,
      "sÃ¡": 3297,
      "amin": 3298,
      "25": 3299,
      "áĭĪáĭ°": 3300,
      "ĠYork": 3301,
      "ĠGre": 3302,
      "arabu": 3303,
      "moja": 3304,
      "Ġfito": 3305,
      "Ġ(T": 3306,
      "Ġdis": 3307,
      "Ġtaka": 3308,
      "ĠDan": 3309,
      "Ġkil": 3310,
      "áĭŃáīµ": 3311,
      "Ġits": 3312,
      "atoliki": 3313,
      "las": 3314,
      "ĠmÃŃ": 3315,
      "dÃ³": 3316,
      "par": 3317,
      "ĠáĪ±": 3318,
      "áĬķáī²": 3319,
      "ĠNaijiria": 3320,
      "Ġwasa": 3321,
      "Ġgida": 3322,
      "Ġhivyo": 3323,
      "gan": 3324,
      "Ġsamun": 3325,
      "w.": 3326,
      "ind": 3327,
      "Ġfilamu": 3328,
      "Ġhaka": 3329,
      "san": 3330,
      "Ġáĭ¶": 3331,
      "ĠáĬłáīĢ": 3332,
      "ĠáĪĺáĪłáĪ¨": 3333,
      "ĠáĪĺáĮ½áĪĲáįį": 3334,
      "Ġ100": 3335,
      "Ġinayo": 3336,
      "ĠÃłmÃ¬": 3337,
      "21": 3338,
      "Ġkad": 3339,
      "áĭĲ": 3340,
      "ĠAugust": 3341,
      "pat": 3342,
      "Ġpremi": 3343,
      "áĪįáĪµ": 3344,
      "ision": 3345,
      "Bayan": 3346,
      "ĠáĬłáīµ": 3347,
      "ĠáĬłáĪľáĪªáĬ«": 3348,
      "ĠáĭĪáĬķáĭµ": 3349,
      "ĠáĪĪáĬł": 3350,
      "áĬĸáĪ©": 3351,
      "ĠáĮ¥áīħáĪĿ": 3352,
      "áĮĪáĬĺáĭį": 3353,
      "ĠState": 3354,
      "ĠSouth": 3355,
      "tá»įÌĢ": 3356,
      "koso": 3357,
      "dition": 3358,
      "ĠáĪª": 3359,
      "Ġtro": 3360,
      "Ġdomin": 3361,
      "Ġáī½": 3362,
      "Ġ(K": 3363,
      "ĠYuni": 3364,
      "Ġáĭ°áĪ¨áĮĥ": 3365,
      "atic": 3366,
      "Ġwan": 3367,
      "Ġmal": 3368,
      "ĠagbÃ¡": 3369,
      "Ġida": 3370,
      "Ġáĭ¨áĪħ": 3371,
      "ĠBrit": 3372,
      "Ġbar": 3373,
      "utu": 3374,
      "pata": 3375,
      "Ġos": 3376,
      "ĠáĪĨáĬĲáį¢": 3377,
      "Ġyayin": 3378,
      "ĠDo": 3379,
      "ĠáĬłáĭ«": 3380,
      "ĠáīĭáĬķáīĭáĭİáī½": 3381,
      "warar": 3382,
      "áĭĪáĪ°": 3383,
      "ká»įÌĢá»įÌģ": 3384,
      "Ġ24": 3385,
      "ĠÃŃ": 3386,
      "atur": 3387,
      "ÙĬ": 3388,
      "60": 3389,
      "áįĲ": 3390,
      "Ã¬mÃ¹": 3391,
      "ĠáĬ¥áĮįáĪŃ": 3392,
      "áī¥áīµ": 3393,
      "ĠáĪĿáĪµ": 3394,
      "Ġáĭ¨áĬ¤": 3395,
      "ĠáĪ¥áĬĲ": 3396,
      "ĠSi": 3397,
      "igi": 3398,
      "anzi": 3399,
      "ĠEur": 3400,
      "ĠáĪĽáĬķ": 3401,
      "áīĥáĪµ": 3402,
      "áĪĬáĬŃ": 3403,
      "Ġwajen": 3404,
      "ĠWorld": 3405,
      "Ġ23": 3406,
      "Ġrep": 3407,
      "ĠNijeriya.": 3408,
      "ĠÃĮtá»įÌģkasÃŃ": 3409,
      "ĠWest": 3410,
      "med": 3411,
      "ĠKem": 3412,
      "imi": 3413,
      "ffi": 3414,
      "áĬĻ": 3415,
      "áĪŃáĪµáī¶áĪµ": 3416,
      "ĠáĭĪáĬķáĭĿ": 3417,
      "ĠKenya": 3418,
      "score": 3419,
      "uc": 3420,
      "áĪĿáĬĲáīµ": 3421,
      "Ġáīłáī³": 3422,
      "ĠNigerian": 3423,
      "paka": 3424,
      "áĮ£áīµ": 3425,
      "'in": 3426,
      "tique": 3427,
      "Ġuh": 3428,
      "áĪįáĮ£áĬķ": 3429,
      "âĢİ": 3430,
      "ĠAde": 3431,
      "Ġbut": 3432,
      "Ġ(I": 3433,
      "Ġáī°áī¥áĪİ": 3434,
      "áĭĭáīĤ": 3435,
      "Ġ21": 3436,
      "ĠáĪįáĮĨáī½": 3437,
      "Ġyanzu": 3438,
      "áĪĪáĬķ": 3439,
      "ĠáĬĲáīłáĪ©áį¢": 3440,
      "gion": 3441,
      "ĠWak": 3442,
      "ĠDec": 3443,
      "weza": 3444,
      "ĠAnd": 3445,
      "ĠáĭĿáĪŃáĭĿ": 3446,
      "80": 3447,
      "Ġ*": 3448,
      "Ã²rÃ¹n": 3449,
      "ĠInternational": 3450,
      "cto": 3451,
      "Ġge": 3452,
      "ma,": 3453,
      "áĪįáĪĿ": 3454,
      "ĠáĮŃ": 3455,
      "ĠÃłwon": 3456,
      "icha": 3457,
      "ĠnÃ¡Ãł.": 3458,
      "ulu": 3459,
      "Ġagba": 3460,
      "Ġá»įÌĢpá»įÌĢ": 3461,
      "Ġjam": 3462,
      "áīŃ": 3463,
      "ĠáĬłáįĪ": 3464,
      "Wak": 3465,
      "ananan": 3466,
      "endelea": 3467,
      "ĠNational": 3468,
      "red": 3469,
      "Ġbayyana": 3470,
      "ĠUfaransa": 3471,
      "ĠKad": 3472,
      "ĠáĮįáī¥": 3473,
      "ĠRD1-": 3474,
      "er.": 3475,
      "23": 3476,
      "Ġmanyan": 3477,
      "Yan": 3478,
      "ussi": 3479,
      "áĪ®áĪµ": 3480,
      "ĠáĪĺáĬķáĮĪáĭµ": 3481,
      "Ġcol": 3482,
      "ĠOs": 3483,
      "áĮĪáĪ«": 3484,
      "áĪĭáĭį": 3485,
      "ĠyÃ³Ã²": 3486,
      "Ġsec": 3487,
      "ĠMaj": 3488,
      "Ġkili": 3489,
      "Ġabu": 3490,
      "Ġpelu": 3491,
      "sa,": 3492,
      "jar": 3493,
      "áĪĪáī²áĬ«": 3494,
      "Ġáĭ¨áĬ¢": 3495,
      "Ġáī¥áĪĶ": 3496,
      "Ġyenye": 3497,
      "ĠKáº¹": 3498,
      "ĠáĮ¥áĬĵáīµ": 3499,
      "onn": 3500,
      "ashara": 3501,
      "ĠWilliam": 3502,
      "bÃº": 3503,
      "áĭĪáĪĪ": 3504,
      "áĭĪáī½": 3505,
      "ĠáĮ¥áĬķ": 3506,
      "Ġfam": 3507,
      "wahili": 3508,
      "ĠáĪĺáĪŃ": 3509,
      "áĭĬáīµ": 3510,
      "áĮłáīħ": 3511,
      "ex": 3512,
      "Ġkira": 3513,
      "áĬ¨áīµ": 3514,
      "ĠáĭŃáī£áĪĭáĪįáį¢": 3515,
      "áĪµáįĭ": 3516,
      "Ġ1.": 3517,
      "Ġnaa": 3518,
      "ĠJanuari": 3519,
      "Ġyawa": 3520,
      "fuat": 3521,
      "Ġambayo": 3522,
      "Ġwadanda": 3523,
      "ĠIngila.": 3524,
      "bÃ¬nrin": 3525,
      "uta": 3526,
      "ĠsÃŃláº¹ÌĢ": 3527,
      "ĠÃ²á¹£": 3528,
      "áĬĶáī³": 3529,
      "Ġcent": 3530,
      "Ġgi": 3531,
      "Ġaux": 3532,
      "ĠUg": 3533,
      "Ġ(F": 3534,
      "Ġgina": 3535,
      "ced": 3536,
      "ĠAh": 3537,
      "Ġirin": 3538,
      "ĠáĪ®": 3539,
      "ĠáĪĪáĪĿ": 3540,
      "áĭĺáĮĭ": 3541,
      "shen": 3542,
      "Ġyadda": 3543,
      "ĠFo": 3544,
      "BC": 3545,
      "ach": 3546,
      "áĪŁ": 3547,
      "ĠÐ": 3548,
      "-o": 3549,
      "22": 3550,
      "Ġsp": 3551,
      "ĠJi": 3552,
      "áĭĭáĬķ": 3553,
      "áĪĺáĬĵáĭĬ": 3554,
      "ĠáĪīáīĥáĪµ": 3555,
      "Ġfin": 3556,
      "ĠAgosti": 3557,
      "Ġáī°áĪ°": 3558,
      "Ġ1,": 3559,
      "de,": 3560,
      "Ġtas": 3561,
      "Ġlit": 3562,
      "ÙĨ": 3563,
      "áĪ¾": 3564,
      "áĪ¨áĪĿ": 3565,
      "ĠIbi": 3566,
      "Ġáīłáĭ¨": 3567,
      "ĠCha": 3568,
      "Ġáĭ¨áĪķ": 3569,
      "Ġserikali": 3570,
      "áĪĽáĬķ": 3571,
      "áĭķáĪ«áī¥": 3572,
      "pas": 3573,
      "ley": 3574,
      "...": 3575,
      "Ġexp": 3576,
      "islamu": 3577,
      "ĠÃłgbÃ©": 3578,
      "áº¹ÌĢáº¹Ìģ": 3579,
      "BN": 3580,
      "áįĪáĪį": 3581,
      "Ġáĭ¨áĬłáĪľáĪªáĬ«": 3582,
      "fiya": 3583,
      "ĠMan": 3584,
      "Ġhave": 3585,
      "Ġáīłáĭĵ": 3586,
      "ĠáīħáĪŃ": 3587,
      "Ã®": 3588,
      "Ġgar": 3589,
      "umu": 3590,
      "unan": 3591,
      "Ġkaskazini": 3592,
      "áįİáī½": 3593,
      "ĠSu": 3594,
      "ĠáĬ¥áĬķáĮĤ": 3595,
      "ria": 3596,
      "ros": 3597,
      "ms": 3598,
      "umba": 3599,
      "Ġáĭ¨áĪļáĪĪáĭį": 3600,
      "le.": 3601,
      "amp": 3602,
      "ĠáĬ¨áĬ¥": 3603,
      "Ġpoli": 3604,
      "báº¹ÌĢráº¹ÌĢ": 3605,
      "ĠáĮīáĭ³": 3606,
      "Ġ(ojoibi": 3607,
      "Ġsar": 3608,
      "ĠJula": 3609,
      "Ġprodu": 3610,
      "overn": 3611,
      "imu": 3612,
      "ĠAgba": 3613,
      "Ã¹gbá»įÌģn": 3614,
      "ĠáĭĪáĭŃ": 3615,
      "ĠáĬŃáĪį": 3616,
      "Ã¢": 3617,
      "Ġ(áīł": 3618,
      "ork": 3619,
      "ĠgÃŃ": 3620,
      "áĬĲáĪ³": 3621,
      "ĠilÃ©-áº¹ÌĢká»įÌģ": 3622,
      "Ġmp": 3623,
      "ĠGab": 3624,
      "ĠáĬķáĮį": 3625,
      "ĠFil": 3626,
      "ĠnÃŃnu": 3627,
      "ĠOgun": 3628,
      "ents": 3629,
      "los": 3630,
      "ĠdâĢĻ": 3631,
      "Ġáĭ¨áīµ": 3632,
      "ĠáĮĮ": 3633,
      "ĠáĬ¥áĬķáĭ²áĪħ": 3634,
      "ĠáĭŃáī³áĭĪáīĥ": 3635,
      "Ġtar": 3636,
      "que,": 3637,
      "70": 3638,
      "áĪİáīµ": 3639,
      "ĠáĭŃáīĢ": 3640,
      "ĠáīµáĬķ": 3641,
      "Ġakwai": 3642,
      "ĠChar": 3643,
      "chagu": 3644,
      "unia": 3645,
      "Ġran": 3646,
      "áī¥áĪ¨áīµ": 3647,
      "ĠÃ²un": 3648,
      "ĠáĪģáĪĪ": 3649,
      "ĠáįķáĪ¬": 3650,
      "ĠAbd": 3651,
      "Ġogun": 3652,
      "ĠáĪķáĭĿáī¥": 3653,
      "dÃ¹": 3654,
      "ĠIS": 3655,
      "its": 3656,
      "ime": 3657,
      "ĠJamhuri": 3658,
      "áĪµáĬķ": 3659,
      "ĠÃłkÃ³": 3660,
      "áĬŃáĪī": 3661,
      "áĭĪáĮ£": 3662,
      "Ġáī³áĪªáĬ«áĭĬ": 3663,
      "40": 3664,
      "Ġ(U": 3665,
      "Ġgudanar": 3666,
      "91": 3667,
      "ĠCa": 3668,
      "ĠJanuary": 3669,
      "Ġmaeneo": 3670,
      "ĠEl": 3671,
      "igh": 3672,
      "ĠáĪĺáĮ¨áĪ¨áĪ»": 3673,
      "ĠEd": 3674,
      "ding": 3675,
      "sÃ¬n": 3676,
      "áĬĲáī±": 3677,
      "ĠPres": 3678,
      "pele": 3679,
      "áĪĺáĭį": 3680,
      "áĪ¨áĪ°": 3681,
      "cent": 3682,
      "áĪŃáī²": 3683,
      "ĠáīłáĬĲ": 3684,
      "baki": 3685,
      "gbÃ³": 3686,
      "Ġbara": 3687,
      "gaji": 3688,
      "ĠAra": 3689,
      "Ġáº¹láº¹ÌģbÃ¹n": 3690,
      "Ġpop": 3691,
      "ĠJuni": 3692,
      "Ġcar": 3693,
      "ĠáĬĲáĭįáį¡áį¡": 3694,
      "ĠáĬĵáī¸áĭį": 3695,
      "ĠCity": 3696,
      "ĠFiz": 3697,
      "Ġwak": 3698,
      "ĠAllah": 3699,
      "áĭįáĪ®áįĵ": 3700,
      "Ġfina": 3701,
      "ĠáĭĿáĪŃáĭĿáĪŃ": 3702,
      "Ġqu'": 3703,
      "Ġgidan": 3704,
      "Daga": 3705,
      "áīłáĪ©áīµ": 3706,
      "kÃ¹nrin": 3707,
      "ĠNajeriya,": 3708,
      "ĠChina": 3709,
      "ĠKaduna": 3710,
      "ĠJulai": 3711,
      "¶áį": 3712,
      "áĬ¨áī°áĪĽ": 3713,
      "áĪĺáĭµ": 3714,
      "da,": 3715,
      "Ġ22": 3716,
      "áī°áĬķ": 3717,
      "Ġigba": 3718,
      "ĠSec": 3719,
      "ĠAk": 3720,
      "ĠMachi": 3721,
      "Ġmutum": 3722,
      "áĬĵáī¸áĭį": 3723,
      "ĠáīłáĬ©": 3724,
      "ĠUr": 3725,
      "wara": 3726,
      "ĠAmerican": 3727,
      "igizaji": 3728,
      "Ġno": 3729,
      "áĬĵáĪįáį¢": 3730,
      "ĠáĮĬ": 3731,
      "áĪĺáĪį": 3732,
      "Ġáįĭ": 3733,
      "ĠáĪģáĬĶáī³": 3734,
      "rÃ²yÃ¬n": 3735,
      "ĠMuhammad": 3736,
      "fia": 3737,
      "Ġáº¸ÌĢ": 3738,
      "en.": 3739,
      "áī¤áī°": 3740,
      "ĠsinimÃ¡": 3741,
      "ism": 3742,
      "als": 3743,
      "ki,": 3744,
      "mala": 3745,
      "ĠSh": 3746,
      "ge,": 3747,
      "soci": 3748,
      "Ġsanya": 3749,
      "áĪ«áĪ²": 3750,
      "láº¹ÌĢ-Ã¨dÃ¨": 3751,
      "ants": 3752,
      "Ġáĭ¨áĬ¥áĪµ": 3753,
      "Ġlake": 3754,
      "ight": 3755,
      "78": 3756,
      "ling": 3757,
      "áĮĦ": 3758,
      "Ġáī»": 3759,
      "Ġmita": 3760,
      "Ġpáº¹lu": 3761,
      "Ġgabatar": 3762,
      "yyukan": 3763,
      "ef": 3764,
      "ĠáĬĲáĮ»": 3765,
      "ĠfÃŃÃ¬mÃ¹": 3766,
      "ĠpadÃł": 3767,
      "ĠPet": 3768,
      "Ġáī±": 3769,
      "ĠojÃº": 3770,
      "áĪħáĬķ": 3771,
      "ĠgbajÃºmá»įÌĢ": 3772,
      "lam": 3773,
      "Ġcour": 3774,
      "dini": 3775,
      "uro": 3776,
      "áĭ«áĭĬ": 3777,
      "áĪĪáī½": 3778,
      "áĪĪáĪĽ": 3779,
      "ĠáĪĺáĪįáĬŃ": 3780,
      "asihi": 3781,
      "roup": 3782,
      "cri": 3783,
      "Ġdai": 3784,
      "ĠRom": 3785,
      "ĠáĮįáĭµáĪĿ": 3786,
      "áĪ¶áī½": 3787,
      "ĠáĪļáĬĴ": 3788,
      "ince": 3789,
      "Ġ28": 3790,
      "amman": 3791,
      "ĠáįĪáĪŃ": 3792,
      "wÃ¡jÃº": 3793,
      "ĠJe": 3794,
      "ĠIndi": 3795,
      "áĭļáīĥ": 3796,
      "Ġkasuwan": 3797,
      "Ġmfalme": 3798,
      "Ġmahai": 3799,
      "Ġijoba": 3800,
      "gue": 3801,
      "ĠáĬŃáĪŃáĪµáī²áĭ«áĬķ": 3802,
      "Ġbec": 3803,
      "ĠBro": 3804,
      "ation,": 3805,
      "part": 3806,
      "ĠlÃ¡Ãł": 3807,
      "áĬĵáĬķ": 3808,
      "d.": 3809,
      "uss": 3810,
      "ĠKir": 3811,
      "ĠÃ¬tÃłn": 3812,
      "áĭĭáĬĵ": 3813,
      "ĠAng": 3814,
      "ĠáĬłáĪĺáīµ": 3815,
      "Ġtangu": 3816,
      "erre": 3817,
      "esha": 3818,
      "Ġáĭ¨áī£": 3819,
      "ĠMtakatifu": 3820,
      "ĠáĬĲáĮĪáĪ®áī½": 3821,
      "Ġsh": 3822,
      "-M": 3823,
      "ĠFor": 3824,
      "ĠwÃ³n": 3825,
      "Ġráº¹ÌĢ.": 3826,
      "áĪģáĬķ": 3827,
      "áī´áĭİáĪµ": 3828,
      "Ġn.": 3829,
      "áº¹ráº¹": 3830,
      "ires": 3831,
      "ĠPol": 3832,
      "áĬ¸": 3833,
      "Ġáīłáĭį": 3834,
      "Ġáī¢áĪĨáĬķ": 3835,
      "Ġzai": 3836,
      "Ġl'Ã©": 3837,
      "dhi": 3838,
      "orge": 3839,
      "ĠÃłÃ¬": 3840,
      "Ġ27": 3841,
      "á¹£u": 3842,
      "ĠáĭĺáĪŃ": 3843,
      "atsina": 3844,
      "Ġpri": 3845,
      "Ġall": 3846,
      "pend": 3847,
      "ĠáĭŃáĪĺáĪµ": 3848,
      "áī»áī¸áĭį": 3849,
      "Ġkammala": 3850,
      "Ġáĭ¨áĪĽáĭŃ": 3851,
      "ĠMashariki": 3852,
      "www.": 3853,
      "ÃłÃł": 3854,
      "Ġfran": 3855,
      "badan": 3856,
      "thiop": 3857,
      "ĠSeptember": 3858,
      "yon": 3859,
      "Ġtáº¹": 3860,
      "ĠBi": 3861,
      "ĠOlÃ³": 3862,
      "Ġpeke": 3863,
      "ĠWan": 3864,
      "áĮĪáĭ°": 3865,
      "á¹£i": 3866,
      "Ġáĭ«áĪħáĪį": 3867,
      "ĠáĭŃáĮĪáĬĽáĪįáį¢": 3868,
      "Ġkaribu": 3869,
      "rÃ¬n": 3870,
      "áĪĤ": 3871,
      "ĠsÃ¡": 3872,
      "gbá»įÌĢn": 3873,
      "ĠáĭŃáĪħáĪĿ": 3874,
      "Ġduni": 3875,
      "Ġyayi": 3876,
      "Ġmaza": 3877,
      "Ġaliye": 3878,
      "ĠDesemba": 3879,
      "gh": 3880,
      "90": 3881,
      "áīłáĬł": 3882,
      "Ġáįª": 3883,
      "Ġdeux": 3884,
      "bÃŃláº¹ÌĢ": 3885,
      "r.": 3886,
      "asan": 3887,
      "Ġhuko": 3888,
      "ĠáĪ¦": 3889,
      "ĠáĭŃáĪĨ": 3890,
      "ĠáīłáĪĻ": 3891,
      "ĠáĭµáĪŃáĮħ": 3892,
      "ĠDecember": 3893,
      "ater": 3894,
      "kama": 3895,
      "sa.": 3896,
      "Ġkula": 3897,
      "ĠBer": 3898,
      "ĠMei": 3899,
      "ĠBra": 3900,
      "Ġkuanzia": 3901,
      "Ġrubu": 3902,
      "Ġjirgin": 3903,
      "24": 3904,
      "áįĶ": 3905,
      "ĠSar": 3906,
      "madu": 3907,
      "oselu": 3908,
      "áĮłáĭį": 3909,
      "Ġ(198": 3910,
      "áī·áĪįáį¢": 3911,
      "ĠMed": 3912,
      "Ġmais": 3913,
      "áĮĢáĪŃáĪĺáĬķ": 3914,
      "Ġbirni": 3915,
      "Ġyamma": 3916,
      "ĠFa": 3917,
      "ĠLegas": 3918,
      "Ġhukumar": 3919,
      "ĠAprili": 3920,
      "ĠáĬ¡": 3921,
      "Ġpá»įÌĢ": 3922,
      "Ġiye": 3923,
      "áĪĺáĮ£": 3924,
      "ĠáĬ¥áĬĲ": 3925,
      "áĬ¥áĬķáĮįáĪĬáĭĿáĬĽ": 3926,
      "lá»įpá»įÌĢ": 3927,
      "Ġid": 3928,
      "Ġhann": 3929,
      "Ġkilom": 3930,
      "Ġada": 3931,
      "asara": 3932,
      "Ġkáº¹Ìģ": 3933,
      "ĠáĪĺáĮĢáĪĺáĪŃáĭ«": 3934,
      "'est": 3935,
      "Ġdama": 3936,
      "eth": 3937,
      "Ã§a": 3938,
      "-áĬł": 3939,
      "ges": 3940,
      "ĠáĭŃáĭĺ": 3941,
      "áįĪáĮ¥": 3942,
      "Ġdaban": 3943,
      "ÙĪ": 3944,
      "Ġtheir": 3945,
      "lima": 3946,
      "ĠáĪĿáĬķáĪĿ": 3947,
      "Ġchake": 3948,
      "ĠAmurka": 3949,
      "ĠáĪĿáĬķáĮ®áī½": 3950,
      "alÃ¡": 3951,
      "ĠáīłáĪ½": 3952,
      "Ġsake": 3953,
      "ĠPer": 3954,
      "Ġkwaikwa": 3955,
      "t,": 3956,
      "Ãī": 3957,
      "lÃ¬": 3958,
      "áĪĽáĬĸáīµ": 3959,
      "áĪ·": 3960,
      "áĬķáĭ±": 3961,
      "áĪĺáĪ°": 3962,
      "ĠáĪĿáĪŃ": 3963,
      "Ġáĭĭáī¢": 3964,
      "áĪĭáĪ´": 3965,
      "ĠSeptemba": 3966,
      "la,": 3967,
      "Ġses": 3968,
      "28": 3969,
      "dom": 3970,
      "áĬķáĭ°": 3971,
      "Ġsuke": 3972,
      "ĠPri": 3973,
      "Ġ26": 3974,
      "ĠParty": 3975,
      "gbon": 3976,
      "ĠwaÉĹ": 3977,
      "kiyar": 3978,
      "oth": 3979,
      "ĠáĪł": 3980,
      "áĮĪáĪį": 3981,
      "Ġáĭ¨áĬ«": 3982,
      "Ġáĭ¨áī°áĪ°": 3983,
      "ĠáĭŃáĪħáĬķ": 3984,
      "áĬ¥áĬķáĭ°": 3985,
      "ĠEm": 3986,
      "aru": 3987,
      "Ġinter": 3988,
      "Ġáº¹ÌĢyÃł": 3989,
      "ctober": 3990,
      "dÃ²": 3991,
      "·áį": 3992,
      "Ġere": 3993,
      "áĬŃáĪŃ": 3994,
      "áīłáĪĪ": 3995,
      "Ġkudu": 3996,
      "ology": 3997,
      "ved": 3998,
      "antu": 3999,
      "cess": 4000,
      "ĠáĪĺáĪĨáĬĳ": 4001,
      "lor": 4002,
      "ĠOrÃŃ": 4003,
      "istri": 4004,
      "eli": 4005,
      "ĠinÃº": 4006,
      "ĠÉĹaya": 4007,
      "kÃ¹": 4008,
      "Ġlin": 4009,
      "áīłáĪĺ": 4010,
      "Ġiko": 4011,
      "fiyar": 4012,
      "Ġhtt": 4013,
      "opo": 4014,
      "ĠáĮ½áĪĳ": 4015,
      "ĠáĪĽáĪŃáīĨ": 4016,
      "rÃ¡n": 4017,
      "ĠEle": 4018,
      "Ġbas": 4019,
      "Ġkik": 4020,
      "por": 4021,
      "Ġban": 4022,
      "gbáº¹": 4023,
      "Ġmwigizaji": 4024,
      "uld": 4025,
      "k,": 4026,
      "Ġndani": 4027,
      "ĠáĪ¥áĪŃáĭĪ": 4028,
      "Ġuhuru": 4029,
      "bal": 4030,
      "Ġthis": 4031,
      "Ġwaje": 4032,
      "ret": 4033,
      "ĠáĪµáĪĻ": 4034,
      "Walio": 4035,
      "Äģ": 4036,
      "ĠMis": 4037,
      "1892": 4038,
      "ĠShi": 4039,
      "ĠáĮłáĪ": 4040,
      "ĠSal": 4041,
      "ĠáĪĺáĭµ": 4042,
      "áĭ³áĪŃ": 4043,
      "ĠáĪłáĪ«": 4044,
      "Ġce,": 4045,
      "mÃ¬nÃł": 4046,
      "Ġkutokana": 4047,
      "LÃ¡": 4048,
      "ĠRep": 4049,
      "Ġmutu": 4050,
      "ght": 4051,
      "ĠáĬħ": 4052,
      "áĭ¨áĪ±": 4053,
      "Ġher": 4054,
      "Ġ29": 4055,
      "sÃ¨": 4056,
      "gra": 4057,
      "Ġfannin": 4058,
      "ĠGa": 4059,
      "áĭ¨áĪĿ": 4060,
      "ĠÃĢÃłráº¹": 4061,
      "Ġáĭ°áĪ´": 4062,
      "Ġ2011": 4063,
      "ikuu": 4064,
      "ĠáĪĤ": 4065,
      "ĠáĬłáĪ³": 4066,
      "ĠDis": 4067,
      "torÃŃ": 4068,
      "FA": 4069,
      "cl": 4070,
      "binrin": 4071,
      "hed": 4072,
      "ĠFebruari": 4073,
      "áĪĭáĪĽ": 4074,
      "Ġáĭ¨áĪ¥": 4075,
      "ĠáĪĿáĪįáĬŃ": 4076,
      "Ġeniyan": 4077,
      "áĬĵáĭĬ": 4078,
      "olly": 4079,
      "risti": 4080,
      "ĠTiba": 4081,
      "Ġáį¤": 4082,
      "áĭļáĪģ": 4083,
      "Ġá¹£ÃŃ": 4084,
      "Ġá¹£iá¹£áº¹Ìģ": 4085,
      "áįĪáĪ¨áĬķáĪ³áĭŃ": 4086,
      "báº¹ÌĢ": 4087,
      "Ġyao": 4088,
      "ĠÃłgbÃł": 4089,
      "ature": 4090,
      "ĠMad": 4091,
      "áĪ¡": 4092,
      "ĠEbun": 4093,
      "Ġgirma": 4094,
      "3-": 4095,
      "asha": 4096,
      "ĠáĪĺáĪª": 4097,
      "ĠáĭŃáĪ°": 4098,
      "indi": 4099,
      "Ġmutanen": 4100,
      "ĠNovemba": 4101,
      "ilu": 4102,
      "áĪ¯": 4103,
      "ĠáĬĴ": 4104,
      "ĠáĬĸ": 4105,
      "ĠáĭĪáĪ¨áĭ³": 4106,
      "ĠáĭĪáĮĪáĬķ": 4107,
      "sÃŃláº¹ÌĢ": 4108,
      "ĠáĬłáĪĪáīĥ": 4109,
      "Ġbiyar": 4110,
      "Ġdiff": 4111,
      "Ġ2015": 4112,
      "áĭķáĪį": 4113,
      "Ġoloselu": 4114,
      "Ġd'un": 4115,
      "áĪłáĪ«": 4116,
      "Ġone": 4117,
      "agor": 4118,
      "urn": 4119,
      "ĠGer": 4120,
      "ĠBabban": 4121,
      "chu": 4122,
      "kawa": 4123,
      "ĠáĮħ": 4124,
      "Ġmis": 4125,
      "Ġ(D": 4126,
      "Ã³mÃ¬nÃł": 4127,
      "ete": 4128,
      "fasi": 4129,
      "ĠáĬłáĪ¸": 4130,
      "ĠâĢ¢": 4131,
      "ĠNorth": 4132,
      "Ki": 4133,
      "-I": 4134,
      "ĠrÃ¨": 4135,
      "áĪĪáī½áį¢": 4136,
      "ĠáĭķáĪĪ": 4137,
      "ĠMag": 4138,
      "-C": 4139,
      "áĭĳ": 4140,
      "ĠOrodha": 4141,
      "Ġkaramar": 4142,
      "ÉĹin": 4143,
      "áī¶áī½áĬķ": 4144,
      "ĠáĪ´áīµ": 4145,
      "Ġ186": 4146,
      "ispania": 4147,
      "ĠShugaban": 4148,
      "asiasa": 4149,
      "ĠRais": 4150,
      "Ġáĭ¨áĭĺ": 4151,
      "ĠáĬłáĮ¥": 4152,
      "ĠDem": 4153,
      "lÃ©wÃ²": 4154,
      "áĮįáī¥áĮ½": 4155,
      "adem": 4156,
      "Ġentre": 4157,
      "iste": 4158,
      "ĠDar": 4159,
      "Ġother": 4160,
      "áĪĺáĪ«": 4161,
      "áĮĪáī¥": 4162,
      "Ġáī³áĭĭáīĤ": 4163,
      "Ġáīłáī°áĪĪáĭŃ": 4164,
      "Ġwho": 4165,
      "26": 4166,
      "Ġmawa": 4167,
      "Ġut": 4168,
      "al,": 4169,
      "ĠáĪº": 4170,
      "ĠáĬ¥áĭį": 4171,
      "áĮĪáīł": 4172,
      "áĭ²áĪħ": 4173,
      "Ġise": 4174,
      "áĬ®áī½": 4175,
      "Ġwilaya": 4176,
      "áĮ¦áĪŃ": 4177,
      "Ġdang": 4178,
      "Ġwá»į": 4179,
      "ĠáīłáĪĮ": 4180,
      "ĠáĬŃáįįáĪĭ": 4181,
      "ĠFrance": 4182,
      "htt": 4183,
      "ben": 4184,
      "wana": 4185,
      "ĠáīłáĮ¥": 4186,
      "ce,": 4187,
      "áĪ°áĬķ": 4188,
      "ĠáĬłáĭŃáĭ°": 4189,
      "Ġkilomita": 4190,
      "inai": 4191,
      "Ġpers": 4192,
      "Ġruwa": 4193,
      "fauti": 4194,
      "ĠYam": 4195,
      "29": 4196,
      "45": 4197,
      "áĬ¹": 4198,
      "Ġláº¹ÌģyÃ¬n": 4199,
      "ĠáĬłáĭ°": 4200,
      "áĪ³áī¸áĭį": 4201,
      "ĠgÃŃga": 4202,
      "Ø±": 4203,
      "likana": 4204,
      "gen": 4205,
      "ĠkÃ¡": 4206,
      "ures": 4207,
      "c.": 4208,
      "Ġver": 4209,
      "rie": 4210,
      "gawa": 4211,
      "hel": 4212,
      "mÃº": 4213,
      "Ġacc": 4214,
      "ander": 4215,
      "Ġsauran": 4216,
      "bb": 4217,
      "gÃ¡": 4218,
      "ĠbÃł": 4219,
      "ĠáīĢáĮ¥": 4220,
      "ĠilÃ©-": 4221,
      "d,": 4222,
      "hidi": 4223,
      "uly": 4224,
      "jeo": 4225,
      "-f": 4226,
      "ĠáīłáĪģ": 4227,
      "áįĪáĪµ": 4228,
      "áĪķáĪŃ": 4229,
      "Ġrayuwa": 4230,
      "Ġrasmi": 4231,
      "27": 4232,
      "áįĳ": 4233,
      "ĠÃī": 4234,
      "áĪĺáī±": 4235,
      "áĪ¨áī¥": 4236,
      "áĮ¥áĪ¨": 4237,
      "Ġmusul": 4238,
      "Ġwote": 4239,
      "rop": 4240,
      "mbo": 4241,
      "Ġtena": 4242,
      "hÃ¹n": 4243,
      "áĭµáĪ¨áĮį": 4244,
      "ĠEx": 4245,
      "ĠPort": 4246,
      "men": 4247,
      "tions": 4248,
      "arÃŃ": 4249,
      "ĠFebruary": 4250,
      "ĠCollege": 4251,
      "Pa": 4252,
      "ĠáĪ»": 4253,
      "Ġtit": 4254,
      "áįĪáīµ": 4255,
      "áĪĿáĪħáĪŃ": 4256,
      "ĠáĬ¥áĬķáĮįáĪĬáĭĿ": 4257,
      "ģáĬĳ": 4258,
      "áĮłáĪ©": 4259,
      "ĠáĬłáĮĪáĪįáĮį": 4260,
      "ĠNovember": 4261,
      "ĠSte": 4262,
      "-Ãł": 4263,
      "ĠmÃ¬ÃŃ": 4264,
      "áĪ¨áĮĭ": 4265,
      "ĠáĬ¥áĭ¨áī°": 4266,
      "Ġact": 4267,
      "Ġbaba": 4268,
      "dÃłn": 4269,
      "ĠCor": 4270,
      "áĮłáĬĵ": 4271,
      "Ġ2006": 4272,
      "ĠolÃ³rin": 4273,
      "ĠEthiop": 4274,
      "Ġ(G": 4275,
      "zu": 4276,
      "Ġca": 4277,
      "ays": 4278,
      "Ã¬sÃŃ": 4279,
      "á»įÌģá»įÌĢ": 4280,
      "Ġ2007": 4281,
      "Ã©,": 4282,
      "as,": 4283,
      "áĬĹ": 4284,
      "Ġá»įÌĢkan": 4285,
      "yl": 4286,
      "omen": 4287,
      "Ġhukumomin": 4288,
      "báº¹Ìģ": 4289,
      "ĠSer": 4290,
      "á»įÌĢrá»įÌĢ": 4291,
      "Ġasili": 4292,
      "âĢº": 4293,
      "kashin": 4294,
      "Ġaji": 4295,
      "ĠAnna": 4296,
      "faff": 4297,
      "ino": 4298,
      "yoyi": 4299,
      "ĠáĬ¥áĬĲáĭļáĪħ": 4300,
      "áĭ°áĮį": 4301,
      "ĠmÃ¬ÃŃrÃłn": 4302,
      "Ð°": 4303,
      "ikana": 4304,
      "áĬĥ": 4305,
      "sÃł": 4306,
      "Ġkarni": 4307,
      "Ġsyst": 4308,
      "Ġ(O": 4309,
      "áī£áĭĬ": 4310,
      "in.": 4311,
      "Ġshu": 4312,
      "áį²áį": 4313,
      "ĠáĪĽáī´áĭİáĪµ": 4314,
      "lejin": 4315,
      "Ġilimi": 4316,
      "attalin": 4317,
      "zer": 4318,
      "way": 4319,
      "day": 4320,
      "-m": 4321,
      "Ġinclu": 4322,
      "´áį": 4323,
      "ĠáĬ¬": 4324,
      "áī½áĭį": 4325,
      "ĠáĪµáīµ": 4326,
      "Ġáĭįáĭµ": 4327,
      "áĪ±áĪĿ": 4328,
      "Ġtsarin": 4329,
      "ĠobÃ¬nrin": 4330,
      "Ġd'a": 4331,
      "iter": 4332,
      "illa": 4333,
      "Ġlashe": 4334,
      "wezi": 4335,
      "jáº¹ÌĢ": 4336,
      "ĪáĪĿ": 4337,
      "Ġáĭ´": 4338,
      "áĮĭáĪį": 4339,
      "ĠdÃ¡ra": 4340,
      "p://www.": 4341,
      "alis": 4342,
      "ĠKik": 4343,
      "Ġdigiri": 4344,
      "Ġmkubwa": 4345,
      "Ġkuli": 4346,
      "Ġ2010": 4347,
      "amuziki": 4348,
      "'ad": 4349,
      ")áį£": 4350,
      "Ġwh": 4351,
      "ĠáĪĺáĬĲ": 4352,
      "ĠáĭķáĪĪáī³áīµ": 4353,
      "Am": 4354,
      "ĠLu": 4355,
      "ĠKatsina": 4356,
      "kÃŃ": 4357,
      "t.": 4358,
      "uring": 4359,
      "ĠáĪĺáĭĿ": 4360,
      "áĪ«áĪīáį¢": 4361,
      "aux": 4362,
      "áĪŃáĭ«áĪĿ": 4363,
      "-O": 4364,
      "ombe": 4365,
      "ical": 4366,
      "ĠIbadan": 4367,
      "lack": 4368,
      "ily": 4369,
      "Ġomi": 4370,
      "áĭ¨áĬł": 4371,
      "Ġeyi": 4372,
      "Ġá¹£Ãł": 4373,
      "dÃºgbÃ²": 4374,
      "Ġd'une": 4375,
      "Ġsub": 4376,
      "ury": 4377,
      "dá»įÌĢ": 4378,
      "Ġáį³áį": 4379,
      "áįĵáĬķ": 4380,
      "ĠTazama": 4381,
      "gne": 4382,
      "umb": 4383,
      "ĠipÃ²": 4384,
      "Ġ(J": 4385,
      "col": 4386,
      "ĠMon": 4387,
      "Ġprin": 4388,
      "A.": 4389,
      "áĮĪáĭį": 4390,
      "ĠAlakoso": 4391,
      "ĠáĮ¥áĬķáī³áĭĬ": 4392,
      "Ġ(p": 4393,
      "ĠQu": 4394,
      "Ġolo": 4395,
      "ĠÎ": 4396,
      "Ġ0": 4397,
      "ove": 4398,
      "ĠáīĢáĬĵáīµ": 4399,
      "ac": 4400,
      "Ġbin": 4401,
      "Ġ(E": 4402,
      "ĠOctober": 4403,
      "Ġ2012": 4404,
      "tive": 4405,
      "Ġwe": 4406,
      "Ġtáº¹ÌĢ": 4407,
      "áĮĪáĪª": 4408,
      "Ġáĭ¨áĪĻ": 4409,
      "ĠáĬłáĪģáĬķ": 4410,
      "áĭ®áĪŃ": 4411,
      "sÃ¬kÃ²": 4412,
      "Ġlá»įÌģwá»įÌģ": 4413,
      "Ġba.": 4414,
      "wanda": 4415,
      "ĠÆĺ": 4416,
      "ing,": 4417,
      "tim": 4418,
      "tab": 4419,
      "Ġáīł18": 4420,
      "Ġile-": 4421,
      "áĪĽáī½": 4422,
      "áĭ³áĪĿ": 4423,
      "áĪ©áīµ": 4424,
      "Ġmusamman": 4425,
      "Ġkwaikwayo": 4426,
      "Ġdir": 4427,
      "Ġ2014": 4428,
      "ĠBahari": 4429,
      "Ġagbegbe": 4430,
      "ĠáĭĵáĪĪáĪĿ": 4431,
      "ĠáīłáĬłáĬķáĭµ": 4432,
      "Ġlá»įÌģdÃºn": 4433,
      "ulation": 4434,
      "ĠYar": 4435,
      "áĭ®áĪµ": 4436,
      "áĪ»áĭİáī½": 4437,
      "áī»áĭŃáĬĵ": 4438,
      "ĠáĪŀáīµ": 4439,
      "áĪŃáĪµáī²áĭ«": 4440,
      "ĠáįĵáĪŃáī²": 4441,
      "Ġkila": 4442,
      "ed.": 4443,
      "di,": 4444,
      "kiya": 4445,
      "angan": 4446,
      "rid": 4447,
      "Ġ187": 4448,
      "itt": 4449,
      "ugu": 4450,
      "iru": 4451,
      "áįĦ": 4452,
      "áĪĽáĪŃ": 4453,
      "ĠáĭĪáĪ¨": 4454,
      "áĭĪáĪŃ": 4455,
      "áįĪáĪĪ": 4456,
      "Ġvile": 4457,
      "Ġtáº¹Ìģláº¹ÌĢ": 4458,
      "kata": 4459,
      "Ġtaima": 4460,
      "rew": 4461,
      "Ġmod": 4462,
      "Ġjo": 4463,
      "Ġ|-": 4464,
      "Ġáīłáīµ": 4465,
      "áī³áī¸áĭįáĬķ": 4466,
      "ĠáĬłáĬķáĭ³": 4467,
      "arch": 4468,
      "ĠOb": 4469,
      "Ġbila": 4470,
      "Ġmaa": 4471,
      "ers,": 4472,
      "Ġkamfanin": 4473,
      "ĠMajalisar": 4474,
      "áĪĵ": 4475,
      "áĪĪáī¥": 4476,
      "Ġfáº¹Ìģ": 4477,
      "ĠIII": 4478,
      "-S": 4479,
      "Ġbeen": 4480,
      "ĠAlex": 4481,
      "199": 4482,
      "ĠáĪĺáĬķáĮįáĪµáīµ": 4483,
      "pÃ¨": 4484,
      "enne": 4485,
      "ollywood": 4486,
      "Tare": 4487,
      "ÙĲ": 4488,
      "ĠMto": 4489,
      "Ġarewa": 4490,
      "Ġsiyasa": 4491,
      "is.": 4492,
      "Ġmot": 4493,
      "Ġmama": 4494,
      "ĠÃ¬gbÃ©": 4495,
      "Ġutawala": 4496,
      "âĢĻa": 4497,
      "jÃ²": 4498,
      "áĮ¹": 4499,
      "áī£áĪŃ": 4500,
      "ĠOba": 4501,
      "eman": 4502,
      "ki.": 4503,
      "kua": 4504,
      "tÃłkÃ¬": 4505,
      "ĠÃģf": 4506,
      "áĭ¨áĪ±áĪµ": 4507,
      "Ġcons": 4508,
      "Ġzaman": 4509,
      "ĠFizikia": 4510,
      "Ġ(L": 4511,
      "ĠNÃŃ": 4512,
      "ĠáĬ¥áĬķáĪµ": 4513,
      "Ġáī¥áĪĪáĭį": 4514,
      "Ġáĭ°áī¡áī¥": 4515,
      "ĠMarch": 4516,
      "h,": 4517,
      "Ġcal": 4518,
      "ĠCent": 4519,
      "Ita": 4520,
      "áĪįáĭ°": 4521,
      "ĠolÃº": 4522,
      "Ġ2.": 4523,
      "Ġlambar": 4524,
      "Ġjagor": 4525,
      "ĠHot": 4526,
      "Ġvo": 4527,
      "ĠFaransa": 4528,
      "Ġidadi": 4529,
      "35": 4530,
      "Ġ(s": 4531,
      "áį¡áĭ¨": 4532,
      "Ġhukuma": 4533,
      "ĠKiingereza": 4534,
      "wiki": 4535,
      "Ġfilm": 4536,
      "-B": 4537,
      "Ġá¹¢": 4538,
      "Ġayyukan": 4539,
      "Ġsani": 4540,
      "ely": 4541,
      "Ġkarkashin": 4542,
      "Ġáĭ¨áĬĲáīłáĪ¨áĭį": 4543,
      "amad": 4544,
      "my": 4545,
      "||": 4546,
      "Ġ2003": 4547,
      "julikana": 4548,
      "áīº": 4549,
      "áĪĮáĬŃáīµ": 4550,
      "ĠáĭµáĪĿ": 4551,
      "ĠáįĪáĪŃáĭĸ": 4552,
      "ĠÃģfrÃŃkÃł": 4553,
      "alu": 4554,
      "Ġkazi": 4555,
      "dá»įÌģ": 4556,
      "Ġmá»į": 4557,
      "áĭĭáīµ": 4558,
      "198": 4559,
      "Ãªme": 4560,
      "score0": 4561,
      "ĠfranÃ§a": 4562,
      "/)": 4563,
      "Ġten": 4564,
      "ĠAir": 4565,
      "áī¼": 4566,
      "ancin": 4567,
      "ĠKati": 4568,
      "Ġjari": 4569,
      "áĮįáĬķ": 4570,
      "áĮįáĪį": 4571,
      "Ġá»įÌĢrá»įÌĢ": 4572,
      "ĠáĬķáĮīáĪµ": 4573,
      "keo": 4574,
      "yansi": 4575,
      "Vi": 4576,
      "kw": 4577,
      "Ġasa": 4578,
      "ĠRay": 4579,
      "ĠSaint": 4580,
      "Ar": 4581,
      "áĪĭáĪīáį¢": 4582,
      "ĠPo": 4583,
      "ĠáĬłáĬ«áĪį": 4584,
      "faffun": 4585,
      "ĠØ§": 4586,
      "ĠAbdul": 4587,
      "aniya": 4588,
      "Ġhak": 4589,
      "Ġapa": 4590,
      "ĠDu": 4591,
      "Ġpos": 4592,
      "ilar": 4593,
      "ye-": 4594,
      "ĠAdÃ©": 4595,
      "Ġpres": 4596,
      "áī¥áĭĻ": 4597,
      "atan": 4598,
      "Ġidi": 4599,
      "Ġinto": 4600,
      "bÃłdÃłn": 4601,
      "Ġbang": 4602,
      "Ġfe": 4603,
      "Ġkn": 4604,
      "ubli": 4605,
      "Ġlar": 4606,
      "áĬ¨áĪ«": 4607,
      "ĠDel": 4608,
      "ci,": 4609,
      "Ġáĭ¨áĪļáĪį": 4610,
      "Ġá¹£Ã¹gbá»įÌģn": 4611,
      "ĠáĪĨáĬĲáĭį": 4612,
      "áĮłáīĥáĪĭáĭŃ": 4613,
      "ĠÃ²á¹£erÃ©": 4614,
      "yyun": 4615,
      "Ġ(R": 4616,
      "umma": 4617,
      "Ġaut": 4618,
      "Ġwat": 4619,
      "áĬĲáīłáĪŃ": 4620,
      "Ġchi": 4621,
      "Ġkayan": 4622,
      "Ġasalin": 4623,
      "ongozi": 4624,
      "Ġdali": 4625,
      "kiwa": 4626,
      "iti": 4627,
      "Itokasi": 4628,
      "pÃ¹": 4629,
      "Ġgo": 4630,
      "gbÃ¬": 4631,
      "ĠFasihi": 4632,
      "Ġáĭ¨áĪĿáīµ": 4633,
      "kand": 4634,
      "ondo": 4635,
      "tokea": 4636,
      "Ġsunan": 4637,
      "tomon": 4638,
      "sin": 4639,
      "ĠnÃ¬": 4640,
      "áī³áĭ°": 4641,
      "ÃŃnÃŃ": 4642,
      "áĬ©áĪį": 4643,
      "áĮłáīĢáĪĿ": 4644,
      "6-": 4645,
      "Ä«": 4646,
      "Ġlu": 4647,
      "istory": 4648,
      "Ġ2,": 4649,
      "ĠPl": 4650,
      "ko,": 4651,
      "Ġmalla": 4652,
      "ĠAcadem": 4653,
      "tÃ¡": 4654,
      "áĪįáįį": 4655,
      "Ġáī°áĬĲ": 4656,
      "áĪ©áĬķ": 4657,
      "yika": 4658,
      "ĠAlÃ¡": 4659,
      "ĠáĪ³áĭŃáĪĨáĬķ": 4660,
      "ĠRoma,": 4661,
      "S.": 4662,
      "chni": 4663,
      "arab": 4664,
      "Ġmn": 4665,
      "áĪįáį¡áį¡": 4666,
      "áĭ«áĭį": 4667,
      "ĠSun": 4668,
      "ĠáĪĺáĮ»": 4669,
      "ĠTari": 4670,
      "ĠUganda": 4671,
      "ĠÃłgbÃ©lÃ©wÃ²": 4672,
      "Ġbisa": 4673,
      "Ġnau": 4674,
      "anisha": 4675,
      "Ġáīłáīħ": 4676,
      "ÃºsÃ¹": 4677,
      "Ġiá¹£": 4678,
      "ĠáĬłáī£áĪį": 4679,
      "Ġkifo": 4680,
      "arci": 4681,
      "ences": 4682,
      "Ġkwallon": 4683,
      "ĠGir": 4684,
      "ĠáĪĪáĭį": 4685,
      "ĠáĪĽáĪħ": 4686,
      "áĮłáįĭ": 4687,
      "âĢĻar": 4688,
      "áĪĦáĭµ": 4689,
      "ĠáĬŃáĪįáĪį": 4690,
      "ĠMai": 4691,
      "As": 4692,
      "ĠPi": 4693,
      "ĠAmerika.": 4694,
      "kur": 4695,
      "Ġ185": 4696,
      "ĠOri": 4697,
      "áī¬": 4698,
      "áĮ³": 4699,
      "áĪ«áĪµ": 4700,
      "Ġáĭ¨áī°áĪĪáĭ«áĭ©": 4701,
      "Ġáī³áĪĭáīħ": 4702,
      "ID": 4703,
      "ation.": 4704,
      "Ġ2013": 4705,
      "ĠKananan": 4706,
      "Ġ2005": 4707,
      "ĠAbi": 4708,
      "ĠáĬĳ": 4709,
      "Ġáĭ¨áĭ°": 4710,
      "áĪįáīµ": 4711,
      "Ġnada": 4712,
      "ĠnÃŃtorÃŃ": 4713,
      "ĠNaijiria.": 4714,
      "ĠáĪĽáĪµáī³áĭĪ": 4715,
      "huwar": 4716,
      "Ġcor": 4717,
      "ages": 4718,
      "Ġused": 4719,
      "ĠáĭĲ": 4720,
      "ĠAwards": 4721,
      "Ġojo": 4722,
      "ĠalÃłÃł": 4723,
      "Ġshirin": 4724,
      "Ġbiashara": 4725,
      "Ġreli": 4726,
      "gbÃ¡yÃ©": 4727,
      "ĠáīłáĬ¥áĬķáĮįáĪĬáĭĿáĬĽ": 4728,
      "ĠalÃłÃłyÃ¨": 4729,
      "sÃ³": 4730,
      "Ġaussi": 4731,
      "Ġdari": 4732,
      "hem": 4733,
      "ĠDola": 4734,
      "Ġkara": 4735,
      "elles": 4736,
      "ĠKudu": 4737,
      "Ġtsohon": 4738,
      "µáį": 4739,
      "ania.": 4740,
      "Ġáĭ¨áĮĪ": 4741,
      "ĠáĬłáĭµ": 4742,
      "ourn": 4743,
      "yÃłwÃ³": 4744,
      "ĠpÃłtÃłkÃ¬": 4745,
      "ĠJu": 4746,
      "Ġkuhusu": 4747,
      "Ġambao": 4748,
      "gent": 4749,
      "tr": 4750,
      "Ġsim": 4751,
      "hÃłn": 4752,
      "wá»įÌĢn": 4753,
      "áĪµáī±": 4754,
      "isto": 4755,
      "Ġyabo": 4756,
      "Ġ(n": 4757,
      "á»ĮÌĢ": 4758,
      "ĠLondon": 4759,
      "mer": 4760,
      "ĠAsi": 4761,
      "ford": 4762,
      "káº¹Ìģ": 4763,
      "anti": 4764,
      "ĠRu": 4765,
      "arai": 4766,
      "Ġyote": 4767,
      "Ġhata": 4768,
      "AN": 4769,
      "badi": 4770,
      "Ùı": 4771,
      "tudi": 4772,
      "ĠISBN": 4773,
      "fáº¹ÌĢ": 4774,
      "sent": 4775,
      "Ġede": 4776,
      "ĠáĪ©": 4777,
      "Ġnjia": 4778,
      "yayyun": 4779,
      "Ġciki": 4780,
      "Ġáīłáĭļáĭ«": 4781,
      "ĠÃ¬bÃŃláº¹ÌĢ": 4782,
      "áī²áĬķ": 4783,
      "áĮłáĪį": 4784,
      "ĠáĪĢáĮĪáĪŃ": 4785,
      "ĠKanisa": 4786,
      "phy": 4787,
      "endo": 4788,
      "himu": 4789,
      "ĠkÃ¬": 4790,
      "áīłáĪĮ": 4791,
      "áĮ¥áĬķáī³áĭĬ": 4792,
      "Ġyo": 4793,
      "ĠLo": 4794,
      "Ã¨me": 4795,
      "Ġáĭ¨áī°áī£áĪĪáĭį": 4796,
      "ĠáĪ²áĪĨáĬķáį£": 4797,
      "ĠáĪĺáĪłáĪ¨áīµ": 4798,
      "48": 4799,
      "iya": 4800,
      "ĠKiswahili": 4801,
      "ĠAll": 4802,
      "el,": 4803,
      "ĠZa": 4804,
      "cer": 4805,
      "ari,": 4806,
      "ji,": 4807,
      "ĠdÃł": 4808,
      "áī°áĭĭáĪįáį¢": 4809,
      "Ġáĭ¨áĪĮ": 4810,
      "ĠáĭĻáĪªáĭ«": 4811,
      "Ġ'yar": 4812,
      "Ġ'Yan": 4813,
      "Ġsous": 4814,
      "-a": 4815,
      "áĪŃáĪĭáĬķáĭµ": 4816,
      "áĪĭáĪī": 4817,
      "áī¶áī¹": 4818,
      "huo": 4819,
      "ĠáĬ¥áĮħáĮį": 4820,
      "Ġmasa": 4821,
      "Ġcer": 4822,
      "ler": 4823,
      "onge": 4824,
      "Ġjerin": 4825,
      "áĪŃáĮį": 4826,
      "ĠáĮĨ": 4827,
      "áĭŃáĬĲáīµ": 4828,
      "áĪ«áī¸áĭį": 4829,
      "áĬŃáĪĪ": 4830,
      "ĠnÃ¡Ãł,": 4831,
      "Ġá»ĮdÃºn": 4832,
      "-áº¹ÌĢyáº¹": 4833,
      "áī¨áĪŃ": 4834,
      "rent": 4835,
      "ĠÃ©tÃ©": 4836,
      "hal": 4837,
      "ji.": 4838,
      "Ġvisiwa": 4839,
      "Ġláº¹Ìģ": 4840,
      "ĠáĬłáĬĲ": 4841,
      "ĠIle": 4842,
      "ĠáįĢ": 4843,
      "áįįáĬĵ": 4844,
      "áĭĺáī¥": 4845,
      "áĪ±áĬķ": 4846,
      "ĠGeorge": 4847,
      "ĠMov": 4848,
      "áĬ¨áĪŃ": 4849,
      "áĬ«áī£áī¢": 4850,
      "áĪİáĬķ": 4851,
      "áĪĥáĬķ": 4852,
      "Ġmace": 4853,
      "asaha": 4854,
      "75": 4855,
      "row": 4856,
      "Ġlanguage": 4857,
      "bakar": 4858,
      "áĬĲáīłáĪ¨": 4859,
      "áĪªáī³": 4860,
      "ĠHistoria": 4861,
      "ĠáĬ«áĪį": 4862,
      "ĠolÃ³á¹£Ã¨lÃº": 4863,
      "ká»įÌĢwÃ©": 4864,
      "Ġmajalisar": 4865,
      "Ġosere": 4866,
      "Ġá»įÌĢpá»įÌĢlá»įpá»įÌĢ": 4867,
      "iran": 4868,
      "dent": 4869,
      "ĠdÃº": 4870,
      "fika": 4871,
      "overnment": 4872,
      "Ġkusa": 4873,
      "ĠMungu": 4874,
      "Ġpi": 4875,
      "Ġmasana": 4876,
      "ĠYamma": 4877,
      "-da": 4878,
      "ĠKya": 4879,
      "Ġtak": 4880,
      "Ġnombre": 4881,
      "da.": 4882,
      "áĬŃáĪŃáĪµáī²áĭ«áĬķ": 4883,
      "áĪīáĪĿ": 4884,
      "ĠáĮį.": 4885,
      "Ġafter": 4886,
      "196": 4887,
      "Ġrais": 4888,
      "ĠMusulunci": 4889,
      "Ġuti": 4890,
      "Ġfait": 4891,
      "wÃ¹": 4892,
      "ĠAwá»įn": 4893,
      "áī½áĪį": 4894,
      "áĮĪáĬĽ": 4895,
      "ĠáĪĺáĪ¨áĮĥ": 4896,
      "áī£áĪįáį¢": 4897,
      "ĠáĪĽáĮ£": 4898,
      "áī²áĬŃ": 4899,
      "ĠáĭŃáī½áĪĭáĪįáį¢": 4900,
      "Ġnam": 4901,
      "Ġoffi": 4902,
      "rahim": 4903,
      "Ġnyingine": 4904,
      "sai": 4905,
      "ĠApril": 4906,
      "Ġyara": 4907,
      "Ġkaratu": 4908,
      "Ġkawaida": 4909,
      "ĠAustra": 4910,
      "Un": 4911,
      "gbara": 4912,
      "entomon": 4913,
      "áĭ«áĪµ": 4914,
      "ĠÃ¬l": 4915,
      "ĠapÃ¡": 4916,
      "ĠEnglish": 4917,
      "ĠáĭŃáī³áĭĪáīĥáĪįáį¢": 4918,
      "ista": 4919,
      "Hi": 4920,
      "Ġsc": 4921,
      "ĠEs": 4922,
      "Ġdini": 4923,
      "Ġkup": 4924,
      "ĠLes": 4925,
      "ĠPeople": 4926,
      "ĠMutane": 4927,
      "áĪŃ-": 4928,
      "ĠowÃ³": 4929,
      "áĪ³áī°": 4930,
      "Ġáī°áįĪ": 4931,
      "ĠáĭŃáĭĪ": 4932,
      "ĠáĭŃáī»": 4933,
      "ĠáīłáĪį": 4934,
      "áĪĪáī°áĬĽáĭį": 4935,
      "Ġmbili": 4936,
      "ĠKongo": 4937,
      "ĠSp": 4938,
      "ĠGÃ³mÃ¬nÃł": 4939,
      "Ã¼": 4940,
      "gá»įÌģ": 4941,
      "ving": 4942,
      "áĬ½": 4943,
      "áĬĭáĪĭ": 4944,
      "ĠáĬ¥áĭµ": 4945,
      "ĠáĬ¥áĬķáĭ°áĪĨáĬĲ": 4946,
      "áĪ²áĬķ": 4947,
      "dÃŃnlÃ³gÃºn": 4948,
      "It": 4949,
      "ĠáĪĺáĪĪ": 4950,
      "-K": 4951,
      "unge": 4952,
      "áĬ¾": 4953,
      "yal": 4954,
      "ĠIjoba": 4955,
      "Ġzote": 4956,
      "ouv": 4957,
      "Ġáĭ¨áĪĨáĬĳ": 4958,
      "Ġáĭ©áĬĴ": 4959,
      "ky": 4960,
      "ĠKil": 4961,
      "Ġ2018": 4962,
      "Ġ1999": 4963,
      "Ġrel": 4964,
      "ĠTan": 4965,
      "Ġzi": 4966,
      "ĠMart": 4967,
      "sition": 4968,
      "Ġbahari": 4969,
      "ĠHaifaffun": 4970,
      "Ġn.k.": 4971,
      "On": 4972,
      "ĠSud": 4973,
      "áī¥áĪĬáĬŃ": 4974,
      "Ġáĭ«áĪī": 4975,
      "the": 4976,
      "Ġmost": 4977,
      "ital": 4978,
      "áĬķáĮ«": 4979,
      "Ġáĭ¨áĪĭ": 4980,
      "áīłáĭį": 4981,
      "áīłáĬĽ": 4982,
      "ando": 4983,
      "Ġáī°áīĭ": 4984,
      "áīĥáĪį": 4985,
      "Ġonimo": 4986,
      "áįĵáĬķáĭ«": 4987,
      "Ġáīłáĭ°áī¡áī¥": 4988,
      "tal": 4989,
      "kumbu": 4990,
      "stitu": 4991,
      "lem": 4992,
      "ĠBBC": 4993,
      "ĠHer": 4994,
      "áĭ«áĭ«": 4995,
      "áĭ¨áĭį": 4996,
      "Ġilimin": 4997,
      "alÃ¡Ã¬sÃŃ": 4998,
      "36": 4999,
      "arautar": 5000,
      "ĠKemia": 5001,
      "Ġtwo": 5002,
      "ties": 5003,
      "Ã¨res": 5004,
      "áĬ¡": 5005,
      "áĪĪáĭ°": 5006,
      "ĠáĪĺáĭĭ": 5007,
      "ĠáĬ«áĪĮ": 5008,
      "Ġmwanamuziki": 5009,
      "ĠwaÉĹanda": 5010,
      "ĠBal": 5011,
      "âĢ¦": 5012,
      "ye.": 5013,
      "-Ãºn": 5014,
      "Ġnu": 5015,
      "áĬ«áĪį": 5016,
      "áĭĽáĪ¬": 5017,
      "darÃŃ": 5018,
      "CO": 5019,
      "ubu": 5020,
      ".,": 5021,
      "Ġer": 5022,
      "chumi": 5023,
      "Ġmagharibi": 5024,
      "Ġ2016": 5025,
      "áĮ¼": 5026,
      "áĬĲáī¶áī½": 5027,
      "ĠáĪĺáī¶": 5028,
      "áĭĪáīħ": 5029,
      "Ġáĭ¨áī°áĬŃáĪī": 5030,
      "áīģáĪŃ": 5031,
      "Ġgen": 5032,
      "burg": 5033,
      "ĠOpen": 5034,
      "34": 5035,
      "orÃŃ": 5036,
      "ĠáīłáĬ¨": 5037,
      "áĬĲáīµáĬķ": 5038,
      "ĠJames": 5039,
      "ĠHo": 5040,
      "ide": 5041,
      "vir": 5042,
      "Ġáĭ¨áįĸ": 5043,
      "áĭ¨áĪĺ": 5044,
      "Awon": 5045,
      "Ġkun": 5046,
      "Na": 5047,
      "Ġsome": 5048,
      "Ġfit": 5049,
      "yana": 5050,
      "áī³áī½áĬķ": 5051,
      "áĭĺáĬķ": 5052,
      "áĪĬáĭ®áĬķ": 5053,
      "ilia": 5054,
      "áĭ°áĪ¨áĮī": 5055,
      "gram": 5056,
      "ines": 5057,
      "Ġhudu": 5058,
      "eph": 5059,
      "ĠAsia": 5060,
      "tumia": 5061,
      "ĠØ§ÙĦ": 5062,
      "ila": 5063,
      "ather": 5064,
      "Ġcette": 5065,
      "irÃŃ": 5066,
      "ĠÃ¬á¹£": 5067,
      "ĠáĭŃáĮłáīĢ": 5068,
      "ĠáīłáĪ¨": 5069,
      "áįĪáĬķ": 5070,
      "áĪŀáīµ": 5071,
      "ĠáĮĪáī¥": 5072,
      "ĠáĭĵáĪĺáī±": 5073,
      "á¹£áº¹ÌĢláº¹ÌĢ": 5074,
      "unt": 5075,
      "Ġkut": 5076,
      "Ġhaifi": 5077,
      "kunan": 5078,
      "Ġmagana": 5079,
      "jÃ³": 5080,
      "áĭµáĪµáīµ": 5081,
      "áįįáĪªáĬ«": 5082,
      "áĬĳáĪµ": 5083,
      "áĮłáĪĭ": 5084,
      "ĠPaul": 5085,
      "ject": 5086,
      "ÆĻa": 5087,
      "stit": 5088,
      "ĠHukum": 5089,
      "ĠEurope": 5090,
      "Awá»įn": 5091,
      "áĭ£": 5092,
      "arly": 5093,
      "Ġáĭ±": 5094,
      "ĠkÃł": 5095,
      "ĠFI": 5096,
      "Ġvol": 5097,
      "Ġegbe": 5098,
      "áī¢áīµ": 5099,
      "sÃŃtÃ¬": 5100,
      "áĬłáĪĿ": 5101,
      "ĠRayayyun": 5102,
      "Ġáĭ¨áĪ°áĭį": 5103,
      "ĠHen": 5104,
      "ĠBritish": 5105,
      "DP": 5106,
      "fara": 5107,
      "ante": 5108,
      "yama": 5109,
      "ĠáĪĺáĮ¥": 5110,
      "Ġáį«": 5111,
      "ĠáĬłáĪ°": 5112,
      "ĠáīµáĪįáīħ": 5113,
      "áĬ¥áĮįáĭļáĬłáī¥áĪĶáĪŃ": 5114,
      "ĠáĪľáīµáĪŃ": 5115,
      "Â²": 5116,
      "aria": 5117,
      "ĠJuly": 5118,
      "chn": 5119,
      "gon": 5120,
      "Ġfarkon": 5121,
      "ĠKaskazini": 5122,
      "Ġhalarci": 5123,
      "ctions": 5124,
      "Ġ(a": 5125,
      "áĮĪáĬĲ": 5126,
      "ĠÃ¬dÃ¡": 5127,
      "áĬłáĪį": 5128,
      "ĠáĪķáĭĿ": 5129,
      "ĠáįķáĪ¬áĭļ": 5130,
      "br": 5131,
      "Ġ(W": 5132,
      "kiti": 5133,
      "Ġmwenye": 5134,
      "ĠTai": 5135,
      "ĠÃłÃł": 5136,
      "ĠáĬ¨áĪĽ": 5137,
      "Ġnew": 5138,
      "ĠáĭįáĮ¤": 5139,
      "Ġkáº¹rin": 5140,
      "lar": 5141,
      "ĠÃĮbÃłdÃłn": 5142,
      "ĠáĪ¥áĪĭáĪ´": 5143,
      "37": 5144,
      "yd": 5145,
      "stru": 5146,
      "Ġáĭŀ": 5147,
      "Ġshuga": 5148,
      "ĠlÃ²": 5149,
      "ĠSw": 5150,
      "áīħáĪµ": 5151,
      "Ġharshen": 5152,
      "ĠáīłáĬ©áĪį": 5153,
      "Ġsou": 5154,
      "us.": 5155,
      "ĠYan": 5156,
      "Tana": 5157,
      "áĬķáĭ³áĪŃ": 5158,
      "ĠáĮįáī¥áĮ½": 5159,
      "ĠNchi": 5160,
      "Ġpwani": 5161,
      "áĭķáĭĿ": 5162,
      "ĠgÃ©n": 5163,
      "áĪ«áĪĿ": 5164,
      "áĪªáīµ": 5165,
      "ga,": 5166,
      "áīĢáĪį": 5167,
      "áĬ¨áī°áĪĪáĭį": 5168,
      "itin": 5169,
      "-R": 5170,
      "kiri": 5171,
      "Ġndi": 5172,
      "Ġs'": 5173,
      "Ġcutar": 5174,
      "anna": 5175,
      "Ġwakil": 5176,
      "Ġrubuta": 5177,
      "ĠWe": 5178,
      "vis": 5179,
      "Ġnum": 5180,
      "ambu": 5181,
      "áĪµáī°áĬĽ": 5182,
      "Ġgbe": 5183,
      "áĭ³áĮħ": 5184,
      "ĠáĭµáĬķ": 5185,
      "ĠáīģáĮ¥": 5186,
      "ĠáĮ½áĪĳáįį": 5187,
      "ĠdÃ©c": 5188,
      "Ġlokaci": 5189,
      "Ġtarihi": 5190,
      "yp": 5191,
      "Ġuni": 5192,
      "onde": 5193,
      "Ġ1960": 5194,
      "Ð¸": 5195,
      "Ġmore": 5196,
      "ĠPr": 5197,
      "''": 5198,
      "Agbegbe": 5199,
      "ĠMusa": 5200,
      "ĠMkoa": 5201,
      "áī£áĪī": 5202,
      "ĠáĪĪáī°": 5203,
      "ĠáĬ¥áĬķáĭ°áī°": 5204,
      "Ġ2008": 5205,
      "Ġráº¹ÌĢ,": 5206,
      "ĠáīłáĪĺáĪĨáĬĳ": 5207,
      "ĠKiarabu": 5208,
      "Ġgwamnatin": 5209,
      "ĠHan": 5210,
      "cience": 5211,
      "ÙĴ": 5212,
      "áĪĪáĪģ": 5213,
      "Ġigb": 5214,
      "Ġá»įba": 5215,
      "ĠFM": 5216,
      "áĬłáĭŃ": 5217,
      "ye,": 5218,
      "áĪ¥áī±": 5219,
      "ĠáĪħáĭĿáī¥": 5220,
      "áĮİáĪŃáĮİáĪŃ": 5221,
      "Ġakoko": 5222,
      "ĠWaz": 5223,
      "Ġkadha": 5224,
      "berg": 5225,
      "Ġnipa": 5226,
      "áĭ³áĬķáīµ": 5227,
      "ĠáĪµáĪĪáĭļáĪħ": 5228,
      "tical": 5229,
      "áº¹ÌĢáº¹ÌģsÃ¬": 5230,
      "ĠilÃ©-iá¹£áº¹Ìģ": 5231,
      "Ã¤": 5232,
      "ĠWas": 5233,
      "Ġ--": 5234,
      "ĠVol": 5235,
      "Ġbinc": 5236,
      "ataifa": 5237,
      "ÃºÃºsÃ¹": 5238,
      "ales": 5239,
      "ĠáĬłáī£áīµ": 5240,
      "ĠáĭŃáĬĲ": 5241,
      "áĬªáĭ«": 5242,
      "ĠáĪĿáĬķáĮŃ": 5243,
      "Ġáĭ¨áĪĺáĮĢáĪĺáĪªáĭ«áĭį": 5244,
      "fs": 5245,
      "upe": 5246,
      "Ġkisiwa": 5247,
      "Ġbet": 5248,
      "ĠIbile": 5249,
      "Ġover": 5250,
      "áī§": 5251,
      "Ġmet": 5252,
      "ĠáĬłáĭ¨áĪŃ": 5253,
      "Ġmad": 5254,
      "Ġáĭ¨áĬĸ": 5255,
      "áĬłáĬķ": 5256,
      "ĠáĬŃáĪŃáĪµáī¶áĪµ": 5257,
      "Ġpart": 5258,
      "ĠáįĬáĭ°áĪį": 5259,
      "ĠáĪ«áĪµ": 5260,
      "ĠáĪĺáĮłáĬķ": 5261,
      "áįĪáĮ¥áĪ®": 5262,
      "Ġ2017": 5263,
      "ĠTra": 5264,
      "Ka": 5265,
      "ãĥ": 5266,
      "ĠMarejeo": 5267,
      "Ġzamani": 5268,
      "Ġabubu": 5269,
      "ule": 5270,
      "xt": 5271,
      "zil": 5272,
      "áĮ¾": 5273,
      "áī£áī¥": 5274,
      "ĠáīłáĪĨ": 5275,
      "ĠWá»įÌģn": 5276,
      "ĠáĬ¥áĬķáĬ³": 5277,
      "áĭĽáĭĿ": 5278,
      "ĠáĬłáĭŃáĭ°áĪĪáĪĿ": 5279,
      "Ġ2009": 5280,
      "ped": 5281,
      "omb": 5282,
      "Ġnon": 5283,
      "aso": 5284,
      "ĠYe": 5285,
      "Éĵa": 5286,
      "Ġcommun": 5287,
      "ption": 5288,
      "Ġont": 5289,
      "4-": 5290,
      "ĠAba": 5291,
      "ĠáīłáĪ«": 5292,
      "Ġáº¹ÌĢyáº¹": 5293,
      "ĠáĬłáĬķáĭ³áĬķáĭµ": 5294,
      "Ġiwe": 5295,
      "ĠAdam": 5296,
      "kÃ©": 5297,
      "Ġinf": 5298,
      "Ð¾": 5299,
      "Ġpili": 5300,
      "alth": 5301,
      "Har": 5302,
      "0,000": 5303,
      "papá»įÌĢ": 5304,
      "ĠMakar": 5305,
      "áĬĿáĬĲáīµ": 5306,
      "ĠYoruba": 5307,
      "ĠsÃ©": 5308,
      "Ġ()": 5309,
      "ĠSc": 5310,
      "ĠCal": 5311,
      "ĠáĪĺáĪ³": 5312,
      "áĪ«áĬ¤áĪį": 5313,
      "áīłáĪ¬": 5314,
      "áĭĿáĪĽáī½": 5315,
      "ĠáĬłáĪĿáĪĭáĬŃ": 5316,
      "Ġshirya": 5317,
      "Tarehe": 5318,
      "Ã¶": 5319,
      "AS": 5320,
      "Ġneman": 5321,
      "ĠSara": 5322,
      "Ġthey": 5323,
      "Ġba,": 5324,
      "ĠKwalejin": 5325,
      "ojÃº": 5326,
      "áĪµáī¶": 5327,
      "Ġ202": 5328,
      "áĭ¨áī°": 5329,
      "und)": 5330,
      "Ġdont": 5331,
      "ĠáĬ¨áī°áĪĽáĭį": 5332,
      "yáº¹yáº¹": 5333,
      "ĠáīłáĪĻáĪī": 5334,
      "ĠBay": 5335,
      "ĠJune": 5336,
      "\")": 5337,
      "dinin": 5338,
      "lie": 5339,
      "ĠáĬ¨áĪ°": 5340,
      "ĠtÃŃtÃŃ": 5341,
      "áĬ«áī³": 5342,
      "ĠáĬ¥áĬķáĭ°áĮĪáĬĵ": 5343,
      "ĠáĪĽáĪŃáīĨáĪµ": 5344,
      "gani": 5345,
      "Ġcap": 5346,
      "ĠDemoc": 5347,
      "tit": 5348,
      "ĠMic": 5349,
      "áĭ«áĭĿ": 5350,
      "ĠáīłáĬ¢": 5351,
      "ĠlÃ¡báº¹Ìģ": 5352,
      "ĠÃłká»įÌģlÃ©": 5353,
      "ĠáĭµáĪŃáĮħáīµ": 5354,
      "ĠáĬ«áĪĮáĬķáĭ³áĪŃ": 5355,
      "ĠNijar": 5356,
      "ĠNigeria.": 5357,
      "Ġag": 5358,
      "hindi": 5359,
      "ĠBorn": 5360,
      "ĠÃ©ta": 5361,
      "áĪĭáĬķ": 5362,
      "riban": 5363,
      "Ġtofauti": 5364,
      "áĪ©áĪĿ": 5365,
      "Ġmashariki": 5366,
      "áīĭáĬķáīĭ": 5367,
      "Ġá»įjá»įÌģalÃ¡Ã¬sÃŃ": 5368,
      "áĬķáĭ³áĬķáĭµ": 5369,
      "fÃ¡sÃŃtÃ¬": 5370,
      "áĮİáĪŃáĮİáĪŃáĭ«áĬķ": 5371,
      "39": 5372,
      "Ã¯": 5373,
      "Ġ(;": 5374,
      "ĠdÃ©part": 5375,
      "ĠTim": 5376,
      "ĠGuine": 5377,
      "Ġpre": 5378,
      "ĠAbuja": 5379,
      "Ġdhidi": 5380,
      "adin": 5381,
      "ĠáĪĺáĮ£": 5382,
      "áĪŀáĬŃ": 5383,
      "Ġwá»įn.": 5384,
      "ĠáįķáĪ®": 5385,
      "áĮ£áĪįáĭ«áĬķ": 5386,
      "ĠáīłáĪ½áī³": 5387,
      "ĠAcademy": 5388,
      "ĠáĪĽáĮ£áīĢ": 5389,
      "zing": 5390,
      "to,": 5391,
      "Tangu": 5392,
      "Ġzaben": 5393,
      "Ġila": 5394,
      "ateur": 5395,
      "ctor": 5396,
      "31": 5397,
      "mÃ©": 5398,
      "ĠáĬĹ": 5399,
      "áĪŃáĬķ": 5400,
      "kam": 5401,
      "áĪįáĮħ": 5402,
      "áī½áĪģ": 5403,
      "Ġáī°áĬĵ": 5404,
      "á»įÌģá»įÌĢlÃ¹": 5405,
      "Ġsasa": 5406,
      "Ġsuch": 5407,
      "Ġrashin": 5408,
      "bihi": 5409,
      "Ġbai": 5410,
      "ÆĻin": 5411,
      "ĠÆĻungiyar": 5412,
      "Ġprop": 5413,
      "Ġitace": 5414,
      "Ġpekee": 5415,
      "amaduni": 5416,
      "sá»į": 5417,
      "ĠáĪİ": 5418,
      "áī°áĬĽáĭį": 5419,
      "áĪ«áĪ½": 5420,
      "áĪµáīµáĬĵ": 5421,
      "ĠgboyÃ¨": 5422,
      "irefu": 5423,
      "com/": 5424,
      "ĠAbubakar": 5425,
      "ĠAnnabi": 5426,
      "ings": 5427,
      "Ġ2015,": 5428,
      "olution": 5429,
      "let": 5430,
      "ĠyÃłn": 5431,
      "ĠGerman": 5432,
      "Ġâ": 5433,
      "Ġáĭ¨áĮ¥": 5434,
      "Ġáīłáįį": 5435,
      "áĪ³áĪį": 5436,
      "ĠáĪĿáĬĵáĪį": 5437,
      "ĠGwamn": 5438,
      "á»įÌĢkan": 5439,
      "bijin": 5440,
      "istr": 5441,
      "Ġá»Įjá»įÌģ": 5442,
      "áĭ³áĬķáĭ±": 5443,
      "áĭ®áĪŃáĮĬ": 5444,
      "ĠáĪĿáĬĵáĪįáī£áīµ": 5445,
      "A)": 5446,
      "Ġindi": 5447,
      "ĠtÃ¬": 5448,
      "áĪįáīģ": 5449,
      "áĪ¨áį¢": 5450,
      "áĬ¨áī¥": 5451,
      "áĭ´áīµ": 5452,
      "Ġtala": 5453,
      "Ġspe": 5454,
      "ikukuu": 5455,
      "rÃ¹": 5456,
      "ºáį": 5457,
      "ĠJama": 5458,
      "Ġáīłáī¥áĭĽáīµ": 5459,
      "anzibar": 5460,
      "tÃº": 5461,
      "Wannan": 5462,
      "Ġbayar": 5463,
      "Ġ2004": 5464,
      "cis": 5465,
      "Ġkina": 5466,
      "áĪŃáį£": 5467,
      "Ġáīµáĭį": 5468,
      "áĮİáĬķ": 5469,
      "ĠwÃ¡yÃ©": 5470,
      "Ġáĭ¨áĭĵáĪĪáĪĿ": 5471,
      "mÃ²": 5472,
      "tÃºn": 5473,
      "ĠCharles": 5474,
      "omina": 5475,
      "ĠEast": 5476,
      "lymp": 5477,
      "Ana": 5478,
      "ĠKÃ¡": 5479,
      "iriki": 5480,
      "rika": 5481,
      "ĠLove": 5482,
      "ments": 5483,
      "Láº¹ÌģyÃ¬n": 5484,
      "hÃ¬n": 5485,
      "Ġmjini": 5486,
      "áī°áį¢": 5487,
      "ĠÃłp": 5488,
      "ĠÃ¬rÃ²yÃ¬n": 5489,
      "Ġáī°áĭĭ": 5490,
      "áīłáĪ°": 5491,
      "áĪ¥áĪ«áīħ": 5492,
      "Ġáī£áĪį": 5493,
      "ĠáįĪáĪ¨áĬķ": 5494,
      "Ġibile": 5495,
      "Ġáĭ¨áīĢáĬķ": 5496,
      "Ġká»įÌģká»įÌģ": 5497,
      "patikana": 5498,
      "Ġgege": 5499,
      "li,": 5500,
      "mai": 5501,
      "ĠIl": 5502,
      "kad": 5503,
      "ĠVer": 5504,
      "¹áį": 5505,
      "ĠáĪ¹": 5506,
      "ĠáīłáĪķ": 5507,
      "áīłáĪī": 5508,
      "Ġconsi": 5509,
      "áĮ¡áīµ": 5510,
      "ones": 5511,
      "Ġyaani": 5512,
      "usta": 5513,
      "ĠTun": 5514,
      "Ġmulki": 5515,
      "jan": 5516,
      "ĠáīłáĮİáĪŃáĮİáĪŃáĭ«áĬķ": 5517,
      "ĠáĪįáĭ°áīµ": 5518,
      "ĠáĭµáĬķáĮĭ": 5519,
      "ĠáĬłáĪĪáĪĿ": 5520,
      "Ġlá»į.": 5521,
      "ĠáĬłáĮĪáĪ«áīµ": 5522,
      "áĪıáĪįáį¢": 5523,
      "ĠPrin": 5524,
      "ĠLugha": 5525,
      "Ġhuo": 5526,
      "Ġmiji": 5527,
      "pti": 5528,
      "Ġáĭ¨áī¥": 5529,
      "ĠáĬłáĭ³": 5530,
      "ĠyÃł": 5531,
      "ĠáĪįáī¥": 5532,
      "hesa": 5533,
      "nam": 5534,
      "ce-": 5535,
      "ĠÆ´": 5536,
      "Ġoko": 5537,
      "195": 5538,
      "Ġpata": 5539,
      "Ġ1990": 5540,
      "ĠFir": 5541,
      "ictor": 5542,
      "ĠTV": 5543,
      "Ġáĭ¨áĪŀ": 5544,
      "ĠáĪĽáĪµáī³áĭĪáĪ»áĭİáī½": 5545,
      "Ġtiti": 5546,
      "Ġser": 5547,
      "ulani": 5548,
      "ulture": 5549,
      "Kuna": 5550,
      "ĠMari": 5551,
      "atri": 5552,
      "Ġdubu": 5553,
      "tics": 5554,
      "dia": 5555,
      "Ġiá¹£áº¹": 5556,
      "áĬĲáī±áĬķ": 5557,
      "Ġáĭ¨áĬ®": 5558,
      "áĭ«áĬķáĭ³áĬķáĭ±": 5559,
      "Ġ50": 5560,
      "ĠáĬŃáįįáĪİáī½": 5561,
      "Ġáĭ¨áĪļáĭ«áĪµ": 5562,
      "Ġmur": 5563,
      "ographi": 5564,
      "ĠFilm": 5565,
      "val": 5566,
      "ĠNuwa": 5567,
      "karar": 5568,
      "Ø¨": 5569,
      "Ġato": 5570,
      "Ġ\"S": 5571,
      "ween": 5572,
      "rÃºn": 5573,
      "Ġáī¶": 5574,
      "áĪµáĪĽ": 5575,
      "ĠáĮ«": 5576,
      "iláº¹ÌĢ": 5577,
      "Ġ180": 5578,
      "ĠáĬ¥áĬķáĭ²áĭ«": 5579,
      "ĠIsland": 5580,
      "Ġtarihin": 5581,
      "Ġlitta": 5582,
      "hol": 5583,
      "38": 5584,
      "Ġdunia": 5585,
      "Ġ2014,": 5586,
      "ĠoyÃ¨": 5587,
      "ĠáĮ³": 5588,
      "ĠáĬłáī¶": 5589,
      "áĮĪáīµ": 5590,
      "áĬłáīµ": 5591,
      "Ġvari": 5592,
      "Ġ2016,": 5593,
      "Ġ2017,": 5594,
      "urch": 5595,
      "Ġtsawon": 5596,
      "ĠMiji": 5597,
      "yer": 5598,
      "Manazarta": 5599,
      "¸áį": 5600,
      "áī¾": 5601,
      "Ġtattalin": 5602,
      "Ġáĭ¨áĪĪáĭį": 5603,
      "Ġ(áĬ¥áĬķáĮįáĪĬáĭĿáĬĽ": 5604,
      "Ġgoma": 5605,
      "ĠáĬ¨áĪģ": 5606,
      "ĠUmoja": 5607,
      "Ġ2012,": 5608,
      "Ġáī¥áĭĽáīµ": 5609,
      "Ġgaban": 5610,
      "áī¦áīµ": 5611,
      "Ġcibi": 5612,
      "áĮĪáĪªáī±": 5613,
      "Ko": 5614,
      "ĠAtlan": 5615,
      "Ġabout": 5616,
      "7-": 5617,
      "omas": 5618,
      "This": 5619,
      "ĠKim": 5620,
      "ĠJana": 5621,
      "Ġuk": 5622,
      "Ġ2011,": 5623,
      "mani": 5624,
      "ĠjÃ©": 5625,
      "cÃ©": 5626,
      "áĬķáĪ³áĭĬ": 5627,
      "Ġmilli": 5628,
      "isan": 5629,
      "áĪ³áĪ³áĭŃ": 5630,
      "sib": 5631,
      "Ġ3.": 5632,
      "ĠáĭĿáĪŃáĭ«": 5633,
      "Ġáī¡áĭµáĬķ": 5634,
      "ĠáĪĪáĪĿáĪ³áĪĮ": 5635,
      "vision": 5636,
      "L'": 5637,
      "ĠMor": 5638,
      "de.": 5639,
      "Ġ~": 5640,
      "Ġkabisa": 5641,
      "Wakati": 5642,
      "-n": 5643,
      "Ðµ": 5644,
      "ĠDavid": 5645,
      "rench": 5646,
      "fen": 5647,
      "ĠOlÃº": 5648,
      "Ġ2091": 5649,
      "ĠáĭĪáĪįáĭ°": 5650,
      "Ġáĭ³áĪŃ": 5651,
      "dy": 5652,
      "Ġhawa": 5653,
      "but": 5654,
      "limu": 5655,
      "unin": 5656,
      "Ġ1980": 5657,
      "Ġbabbar": 5658,
      "chaguzi": 5659,
      "Ġknown": 5660,
      "Ġgrand": 5661,
      "Ġpeut": 5662,
      "ĠdÃ©partement": 5663,
      "C)": 5664,
      "ráº¹Ìģ": 5665,
      "liza": 5666,
      "reat": 5667,
      "tÃłgÃ©": 5668,
      "Ġ(áĬ¨1892": 5669,
      "ĠOmo": 5670,
      "ĠUS": 5671,
      "ross": 5672,
      "ball": 5673,
      "ine,": 5674,
      "cher": 5675,
      "áĬķáĭ¶": 5676,
      "Ġáĭ¨áĬ¦": 5677,
      "Ġkwam": 5678,
      "áĭĵáĬķ": 5679,
      "anzishwa": 5680,
      "sÃ¡ra": 5681,
      "ĠLou": 5682,
      "=\"": 5683,
      "yari": 5684,
      "Ġrub": 5685,
      "ĠShuga": 5686,
      "ing.": 5687,
      "julo": 5688,
      "Ġáĭ¨áĭ«": 5689,
      "Ã¨s": 5690,
      "Ġáĭĺáĭ´": 5691,
      "áĪ©áį¢": 5692,
      "Ġ2019,": 5693,
      "jÃ¹": 5694,
      "umia": 5695,
      "cs": 5696,
      "Î¿": 5697,
      "Ġtayi": 5698,
      "bukumbu": 5699,
      "Ġmuhimu": 5700,
      "Ġhankali": 5701,
      "Ġmwanasiasa": 5702,
      "Ġ(1": 5703,
      "et,": 5704,
      "Ġáĭ¨áīĨ": 5705,
      "áīłáīĥ": 5706,
      "Ġáī°áīĥ": 5707,
      "ĠáĮłáīħ": 5708,
      "jáº¹sÃ¡ra": 5709,
      "áī¥áĪ«áĭŃ": 5710,
      "ĠáĬĥáĭŃáĪį": 5711,
      "Ġáĭ¨áĭįáĮŃ": 5712,
      "áĪĮáĬŃáīµáĪªáĬŃ": 5713,
      "Ġkin": 5714,
      "Ġ(H": 5715,
      "Ãºpá»įÌĢ": 5716,
      "ĠMak": 5717,
      "lisha": 5718,
      "ĠkmÂ²": 5719,
      "gÃ³": 5720,
      "áĪĪáĪĺ": 5721,
      "ĠÃłgbÃ¡yÃ©": 5722,
      "ĠáĪĽáĪŃáĭ«áĪĿ": 5723,
      "ĠYo": 5724,
      "ĠáĮĪáĭ°": 5725,
      "Ġáīłáī°áĮ¨áĪĽáĪª": 5726,
      "áĪĲáįĬ": 5727,
      "yensi": 5728,
      "-Ã¬wÃ©": 5729,
      "Ġder": 5730,
      "hairi": 5731,
      "Ġkasashen": 5732,
      "-s": 5733,
      "chard": 5734,
      "Ġleur": 5735,
      "ĠIbrahim": 5736,
      "Ġgr": 5737,
      "hab": 5738,
      "ĠâĢĶ": 5739,
      "cul": 5740,
      "Ġaina": 5741,
      "Ġip": 5742,
      "Mji": 5743,
      "áĪŃáī±": 5744,
      "Ġ(áĬł": 5745,
      "Ġmap": 5746,
      "Ġma'a": 5747,
      "Ġáĭ¨áĪĢ": 5748,
      "ĠGar": 5749,
      "ĠáĪĪáĬ¥": 5750,
      "akini": 5751,
      "ĠáĭľáĬĵ": 5752,
      "tro": 5753,
      "ĠTs": 5754,
      "ultur": 5755,
      "ĠáĬĥáĭŃáĪĪ": 5756,
      "Î±": 5757,
      "ĠBank": 5758,
      "Ġwurin": 5759,
      "Ġkuji": 5760,
      "dai": 5761,
      "tokana": 5762,
      "olojia": 5763,
      "ĠWakristo": 5764,
      "losop": 5765,
      "Â°": 5766,
      "Ġayáº¹yáº¹": 5767,
      "ĠáĬłáīħ": 5768,
      "áĪ«áĭį": 5769,
      "ĠáĬ¨áĪĮ": 5770,
      "ĠáĭŃáĪĦ": 5771,
      "ets": 5772,
      "Ġáĭ¨áĪļáī³áĭĪ": 5773,
      "ĠáĮįáĭĽ": 5774,
      "ĠáĮĪáĬķ": 5775,
      "lá»įÌģgbá»įÌĢn": 5776,
      "ubwa": 5777,
      "tia": 5778,
      "ĠBri": 5779,
      "te,": 5780,
      "Ġeff": 5781,
      "Ġ2002": 5782,
      "ĠAwon": 5783,
      "ke,": 5784,
      "ĠMayu": 5785,
      "Ġgwamnati": 5786,
      "gain": 5787,
      "ĠáĬ¥áĬĶ": 5788,
      "áĮ¥áĪĿ": 5789,
      "áĬ¨áĭļáĭ«": 5790,
      "ĠKib": 5791,
      "Ġká»įkÃłn": 5792,
      "ĠáĪĺáĮ»áĪķ": 5793,
      "eld": 5794,
      "Ġ%": 5795,
      "Ġik": 5796,
      "Ġkimanin": 5797,
      "Ġkasuwanci": 5798,
      "----": 5799,
      "ĠMy": 5800,
      "ĠSat": 5801,
      "áĬķáī³": 5802,
      "Ġáĭ¨áĬŃ": 5803,
      "ĠJo": 5804,
      "áº¸ÌĢ": 5805,
      "sociation": 5806,
      "49": 5807,
      "cia": 5808,
      "kut": 5809,
      "Ġ(\"": 5810,
      "Ġmwisho": 5811,
      "Se": 5812,
      "Ġtemp": 5813,
      "ingia": 5814,
      "ire,": 5815,
      "ister": 5816,
      "ayÃ©": 5817,
      "Ġ<": 5818,
      "Ġnasara": 5819,
      "Ġosu": 5820,
      "áĭµáĬĵ": 5821,
      "áīłáīħ": 5822,
      "áĭĽáĬĽáĭį": 5823,
      "ĠáĪµáĪĪáĪļ": 5824,
      "himman": 5825,
      "Ġmilioni": 5826,
      "kÃ¡láº¹ÌĢ": 5827,
      "ĠáĪĺáĪįáĬŃáĭĵ": 5828,
      "wili": 5829,
      "lub": 5830,
      "Ġ31": 5831,
      "76": 5832,
      "hilosop": 5833,
      "ĠTurai": 5834,
      "ĠLÃ¡": 5835,
      "ĠEmp": 5836,
      "páº¹ÌĢ": 5837,
      "áĪŃáī£": 5838,
      "ĠcrÃ©": 5839,
      "áĭµáĪ¨áĪµ": 5840,
      "ĠáĪĻáĪī": 5841,
      "vin": 5842,
      "Ġipo": 5843,
      "ĠáĬłáĪħ": 5844,
      "ĠMaka": 5845,
      "ĠáīĢáĭ³": 5846,
      "Ġkale": 5847,
      "ĠBib": 5848,
      "bi,": 5849,
      "Ø¯": 5850,
      "Ġwork": 5851,
      "Ġjin": 5852,
      "umla": 5853,
      "ra,": 5854,
      "Ġamb": 5855,
      "fuatana": 5856,
      "áīµáĪĿ": 5857,
      "áĬĵáĭŃáīµ": 5858,
      "ĠfÃ¬": 5859,
      "uman": 5860,
      "Ġpartic": 5861,
      "ĠáĬłáĪīáį¢": 5862,
      "gbÃ¬má»įÌĢ": 5863,
      "ĠFIFA": 5864,
      "aman": 5865,
      "ĠMil": 5866,
      "Ġwu": 5867,
      "Ġá»Įba": 5868,
      "ÙİÙ": 5869,
      "biwa": 5870,
      "Ġcika": 5871,
      "limi": 5872,
      "al.": 5873,
      "ĠpÃłÃ¡": 5874,
      "áĮĪáĪ«áīµ": 5875,
      "áīłáĪ³": 5876,
      "Ġá»įÌĢnÃł": 5877,
      "NÃŃgbÃł": 5878,
      "ĠáĬłáĮĪáĪ®áī½": 5879,
      "Ġáī¥áĪĶáĪ«áĭĬ": 5880,
      "Ġop": 5881,
      "Ġsupp": 5882,
      "Ġhim": 5883,
      "Ġrap": 5884,
      "ĠMw": 5885,
      "ĠFi": 5886,
      "iá¹£áº¹": 5887,
      "áĪµáĪĿ": 5888,
      "ĠáĬ¥áĮįáĭļáĬłáī¥áĪĶáĪŃ": 5889,
      "tali": 5890,
      "ĠÃłjá»į": 5891,
      "áĮĪáī¡": 5892,
      "áīĢáĭµáĪŀ": 5893,
      "pokeo": 5894,
      "Ġáī£áĭŃ": 5895,
      "Ġmilima": 5896,
      "ĠÆ³": 5897,
      "ibiyar": 5898,
      "ÃĴun": 5899,
      "ĠáĭĪáĭŃáĬķáĪĿ": 5900,
      "ĠáīĢáĮ¥áĪİ": 5901,
      "ĠArt": 5902,
      "olowo": 5903,
      "ar,": 5904,
      "Ġwhen": 5905,
      "ĠUk": 5906,
      "ĠYoh": 5907,
      "-E": 5908,
      "Ġdawo": 5909,
      "Ġmaana": 5910,
      "Ġal'ad": 5911,
      "ye-shi": 5912,
      "32": 5913,
      "ful": 5914,
      "yáº¹ÌĢ": 5915,
      "Ġáī°áĮįáī£": 5916,
      "áīłáĪµ": 5917,
      "Ġáĭ¨áī°áĪĺ": 5918,
      "ers.": 5919,
      "áĬłáĪĪ": 5920,
      "ĠÃ²á¹£Ã¨lÃº": 5921,
      "bara": 5922,
      "ĠmÃªme": 5923,
      "Ġwrit": 5924,
      "bawa": 5925,
      "amawa": 5926,
      "aro": 5927,
      "ĠÃª": 5928,
      "orth": 5929,
      "ĠSy": 5930,
      "âĢľ": 5931,
      "Ġhili": 5932,
      "Ġkuu": 5933,
      "ĠWatu": 5934,
      "Ġsakand": 5935,
      "Ġkumbukumbu": 5936,
      "Ġif": 5937,
      "Ġjá»į": 5938,
      "ĠÃ¬f": 5939,
      "áĪĪáĪĿáĪ³áĪĮ": 5940,
      "áĪ¸áĬĲ": 5941,
      "ĠáĪĽáĮ£áīĢáĪ»": 5942,
      "ĠSala": 5943,
      "Ġsaur": 5944,
      "ĠFed": 5945,
      "ollow": 5946,
      "ĠVal": 5947,
      "99": 5948,
      "Ġáīłáį": 5949,
      "Ġáįİ": 5950,
      "ĠáĭŃáĭ©": 5951,
      "Ġáĭ«áĭĺ": 5952,
      "over": 5953,
      "Ġlilikuwa": 5954,
      "-daban": 5955,
      "ĠBenin": 5956,
      "eu": 5957,
      "van": 5958,
      "Ġemp": 5959,
      "ĠdÃ¬": 5960,
      "Ġ(kwa": 5961,
      "áī°áīµ": 5962,
      "áį¡áīł": 5963,
      "adhim": 5964,
      "wÃ²rÃ¡n": 5965,
      "onekana": 5966,
      "Ġdaban-daban": 5967,
      "Ġ2016.": 5968,
      "bele": 5969,
      "ĠEnugu": 5970,
      "ole": 5971,
      "Ġainsi": 5972,
      "ĠMos": 5973,
      "Ġidan": 5974,
      "ed,": 5975,
      "ĠPop": 5976,
      "bÃ©": 5977,
      "Ġmirefu": 5978,
      "Ġnafasi": 5979,
      "ĠS.": 5980,
      "Ġwadda": 5981,
      "ĠMer": 5982,
      "ĠÃłá¹£Ãł": 5983,
      "ĠáĬ¨áĭĪ": 5984,
      "áīħáĭ«": 5985,
      "rÃŃwÃ¡": 5986,
      "ĠáĮ¥áĪ©": 5987,
      "áĭįáĬķáīµ": 5988,
      "ĠNÃłÃ¬jÃŃrÃŃÃł,": 5989,
      "estiv": 5990,
      "ĠpÃ¡": 5991,
      "Ġami": 5992,
      "Ġkungi": 5993,
      "ĠKasa": 5994,
      "Ġmuda": 5995,
      "frika": 5996,
      "Ġajili": 5997,
      "fiki": 5998,
      "Ġ(ya": 5999,
      "BÃŃ": 6000,
      "Ġáĭ¨áįĪ": 6001,
      "unda": 6002,
      "áĬŃáĬķ": 6003,
      "ĠáīłáĪħ": 6004,
      "Ġleo": 6005,
      "jÃ¡de": 6006,
      "á»įÌĢnÃ¹": 6007,
      "ĠáĬłáįįáĪªáĬ«": 6008,
      "1=": 6009,
      "ishin": 6010,
      "ĠPak": 6011,
      "ĠGold": 6012,
      "Ġ40": 6013,
      "ĠJapan": 6014,
      "Ġutilis": 6015,
      "ĠFab": 6016,
      "já»įÌĢ": 6017,
      "táº¹ÌĢ": 6018,
      "ware": 6019,
      "ĠáĪĺáĪ¬áīµ": 6020,
      "Ġ1970": 6021,
      "ĠáīłáĪĽáĪĪáīµ": 6022,
      "ĠáĬ¥áĬķáĮįáĪĬáĭĿáĬĽ": 6023,
      "jÃ©": 6024,
      "ner": 6025,
      "Ġwalikuwa": 6026,
      "ĠMoham": 6027,
      "bunge": 6028,
      "ĠTanbihi": 6029,
      "Ġoni": 6030,
      "Ġ3,": 6031,
      "ĠStates": 6032,
      "ĠDen": 6033,
      "Ġreg": 6034,
      "emo": 6035,
      "ĠBello": 6036,
      "áĪŃáī¶": 6037,
      "un,": 6038,
      "Ġnigba": 6039,
      "áĬ¨áī³": 6040,
      "Ġhizi": 6041,
      "áĭ©áĪµ": 6042,
      "áĮ«áĭĪ": 6043,
      "Ġkáº¹ta": 6044,
      "ĠáĪ³áĭŃáĬķáĪ³áĭĬ": 6045,
      "Ġrayuwar": 6046,
      "ĠáįĸáĪĪáī²áĬ«": 6047,
      "ichael": 6048,
      "Ġmahaifin": 6049,
      "áī¥áĪ«áĭŃáĪµáĮ¥": 6050,
      "Ġout": 6051,
      "ĠBr": 6052,
      "ĠCO": 6053,
      "Ġ\"M": 6054,
      "Ġ2018,": 6055,
      "Ġmapokeo": 6056,
      "kofu": 6057,
      "Ġmiliyan": 6058,
      "ĠRiver": 6059,
      "ĠTarayyar": 6060,
      "Ġjam'i": 6061,
      "áĪ³áĬķ": 6062,
      "Ġeto": 6063,
      "Ġperm": 6064,
      "ĠáĮīáĭ³áĭŃ": 6065,
      "Ġbetween": 6066,
      "ratic": 6067,
      "ĠWomen": 6068,
      "ce.": 6069,
      "Ġthan": 6070,
      "Ab": 6071,
      "kh": 6072,
      "biya": 6073,
      "ogo": 6074,
      "ĠCham": 6075,
      "ĠOlu": 6076,
      "Ġhakan": 6077,
      "pro": 6078,
      "irgin": 6079,
      "Ġsoci": 6080,
      "ĠJapani": 6081,
      "47": 6082,
      "ĠáĪ¬": 6083,
      "Ġgra": 6084,
      "á¹£irÃŃ": 6085,
      "ĠOá¹£u": 6086,
      "Ġáĭ«áĪ³": 6087,
      "ĠáĬ¥áĬķáĭ³áĭŃ": 6088,
      "ĠáĭĽáĪ¬": 6089,
      "áĭ®áĪŃáĮĬáĪµ": 6090,
      "Ġlina": 6091,
      "ĠAkin": 6092,
      "ĠhaÉĹa": 6093,
      "ikan": 6094,
      "cour": 6095,
      "áĮĪáĪ¨": 6096,
      "ĠáĬ¨áĪĨáĬĲ": 6097,
      "ella": 6098,
      "Ġáĭ¨áĪļáĪ°": 6099,
      "áīĤáīµ": 6100,
      "Ġaká»įrin": 6101,
      "ĠáĪļáĬĴáĪµáīµ": 6102,
      "46": 6103,
      "ged": 6104,
      "ĠA.": 6105,
      "Ġshida": 6106,
      "ĠZanzibar": 6107,
      "Ġtuntun": 6108,
      "Ġmarubu": 6109,
      "cen": 6110,
      "Ġlong": 6111,
      "ologie": 6112,
      "dis": 6113,
      "rol": 6114,
      "diyya": 6115,
      "Ġtalla": 6116,
      "yayya": 6117,
      "áĪŃáĬĵ": 6118,
      "Ġáĭ¨áįį": 6119,
      "áĪįáĬķ": 6120,
      "áĪµáī´": 6121,
      "asashen": 6122,
      "Ġáīłáī£": 6123,
      "Ġjeshi": 6124,
      "ĠÃ¬p": 6125,
      "ety": 6126,
      "kejÃ¬": 6127,
      "áĬĳáĬķ": 6128,
      "áĬ®áĬĸ": 6129,
      "ĠáĪļáĪĬáĭ®áĬķ": 6130,
      "ĠáīłáĪµáī°": 6131,
      "Ġzilizo": 6132,
      "áĬĺáīµ": 6133,
      "Papa": 6134,
      "33": 6135,
      "Ġret": 6136,
      "ĠSch": 6137,
      "ĠIsa": 6138,
      "anada": 6139,
      "Ġhilo": 6140,
      "lished": 6141,
      "ĠÃªtre": 6142,
      "Ġkita": 6143,
      "isari": 6144,
      "Ġdep": 6145,
      "Ġatt": 6146,
      "velopment": 6147,
      "áīĢáĪ¨": 6148,
      "re,": 6149,
      "ĠáīłáĬ®": 6150,
      "áĬłáĪµ": 6151,
      "áĬ®áīµ": 6152,
      "ĠáĬĵáīµáį¢": 6153,
      "Ġáī°áĬ¨áī³": 6154,
      "2=": 6155,
      "Ġoru": 6156,
      "Ġfound": 6157,
      "Åį": 6158,
      "Ġkofin": 6159,
      "Ġ(197": 6160,
      "idayar": 6161,
      "ĠOf": 6162,
      "nes": 6163,
      "tho": 6164,
      "yá»įÌģ": 6165,
      "°áį»áį": 6166,
      "onal": 6167,
      "áĭµáĪĺ": 6168,
      "Ġáį»áį": 6169,
      "ĠáĭŃáĮł": 6170,
      "áĬ«áĪĿ": 6171,
      "ĠáĪµáī¥áĪµ": 6172,
      "Ġáĭ¨áĪļáĮĪáĬĻ": 6173,
      "Ġáĭ¨áī°áī£áĪĪ": 6174,
      "áĪĻáīµ": 6175,
      "Ġáĭ°áĪ«áĪ²": 6176,
      "ĠolÃ¹darÃŃ": 6177,
      "ĠáĮ¸áī£áĭŃ": 6178,
      "galement": 6179,
      "Ġáī£áĪħáĪŃ": 6180,
      "ĠAustralia": 6181,
      "Ġ(Â«": 6182,
      "ĠGra": 6183,
      "Lakini": 6184,
      "Ġkundi": 6185,
      "z,": 6186,
      "waju": 6187,
      "ĠUmar": 6188,
      "view": 6189,
      "áĭµáĪ®": 6190,
      "ĠáĪĺáīħ": 6191,
      "áĪİáĮĤ": 6192,
      "ĠáīħáĪŃáĪµ": 6193,
      "ĠAfrika.": 6194,
      "rÃºká»į": 6195,
      "ĠbÃłbÃ¡": 6196,
      "Ġkabila": 6197,
      "Ġsune": 6198,
      "Ġ(196": 6199,
      "C.": 6200,
      "Ġcl": 6201,
      "ko.": 6202,
      "assa": 6203,
      "ĠMali": 6204,
      "Ġpeople": 6205,
      "Ġmengine": 6206,
      "es)": 6207,
      "áĪ«áĪįáį¢": 6208,
      "áĬ¨áĪĭ": 6209,
      "áĪľáīµ": 6210,
      "áĬĵáĭŃáīµáĭµ": 6211,
      "ĠWat": 6212,
      "uts": 6213,
      "org/": 6214,
      "Ġing": 6215,
      "ĠHispania": 6216,
      "pindi": 6217,
      "Ġmkoa": 6218,
      "Ġvili": 6219,
      "ics": 6220,
      "ĠÆ³an": 6221,
      "Ġ(tÃŃ": 6222,
      "ĠáĬ¥áĪĿáĬĲáīµ": 6223,
      "ĠáĬłáĮĭ": 6224,
      "áĪĭáīģ": 6225,
      "áĪĭáĮĬ": 6226,
      "ĠáĭŃáĪĭáĪįáį¢": 6227,
      "áĪ°áĪŃ": 6228,
      "ĠáĭįáĮŃ": 6229,
      "ĠelÃ©": 6230,
      "wun": 6231,
      "Ġtatu": 6232,
      "Ġl'a": 6233,
      "ĠChristi": 6234,
      "neo": 6235,
      "ĠUrusi": 6236,
      "Ã©tÃ©": 6237,
      "ĠBest": 6238,
      "áī¥áĬķ": 6239,
      "áĪĭáĪµ": 6240,
      "ĠáĪ²áĪĨáĬĳ": 6241,
      "áĬŀáī¹": 6242,
      "Ġwaka": 6243,
      "eurs": 6244,
      "pu": 6245,
      "ĠÉĹau": 6246,
      "yyuka": 6247,
      "Ġmil": 6248,
      "or,": 6249,
      "Ġunder": 6250,
      "irc": 6251,
      "El": 6252,
      "áĬķáĬŃ": 6253,
      "ĠÃº": 6254,
      "ĠáĬ¥áĪŃáĪ±": 6255,
      "áīħáĬĵ": 6256,
      "Ġzin": 6257,
      "ĠáīłáĬ¦": 6258,
      "ĠáĬķáĮīáĪł": 6259,
      "lassi": 6260,
      "ĠáĪĺáĪĨáĬĳáĬķ": 6261,
      "Ġmch": 6262,
      "Ġtabb": 6263,
      "Ġmfano": 6264,
      "58": 6265,
      "ĠBlack": 6266,
      "Ġmak": 6267,
      "ĠInstit": 6268,
      "ĠSoci": 6269,
      "Ġawa": 6270,
      "Ġkij": 6271,
      "ĠNollywood": 6272,
      "ĠáĭĪáī³áĭ°": 6273,
      "ĠáĪ¥áįįáĪ«": 6274,
      "ĠáĪµáĪĪáĪĨáĬĲ": 6275,
      "Ġambako": 6276,
      "ĠkÃºrÃ²": 6277,
      "ĠáĪ¦áĪµáīµ": 6278,
      "ĠMagharibi": 6279,
      "5-": 6280,
      "ĠWal": 6281,
      "ĠFrench": 6282,
      "ĠRobert": 6283,
      "ĠSt.": 6284,
      "ĠMkuu": 6285,
      "Ġjimbo": 6286,
      "kia": 6287,
      "áĬķáĭ²": 6288,
      "Ġmáº¹": 6289,
      "Ġáĭ¨áīħ": 6290,
      "áī£áī³": 6291,
      "Ã²fin": 6292,
      "ĠáĪ²áīĢ": 6293,
      "áĮħáĪĿ": 6294,
      "áĮŃáĪŃ": 6295,
      "ĠRD2-": 6296,
      "Ġpu": 6297,
      "ouse": 6298,
      "que.": 6299,
      "Ġterrit": 6300,
      "ĠMuhammadu": 6301,
      "anzisha": 6302,
      "unga": 6303,
      ".S.": 6304,
      "Ch": 6305,
      "zation": 6306,
      "Ġtri": 6307,
      "Ġkare": 6308,
      "áĭ«áĪį": 6309,
      "taka": 6310,
      "Ġá»įÌģ": 6311,
      "Ã¡nÃ¬": 6312,
      "ĠáĮįáĬķáĬĻ": 6313,
      "áī¨áĪŃáĪ²": 6314,
      "Bab": 6315,
      "futa": 6316,
      "ĠEthiopia": 6317,
      "42": 6318,
      "Ġgwa": 6319,
      "ĠÃ©galement": 6320,
      "Ġmpya": 6321,
      "ĠHukumar": 6322,
      "ĠYohane": 6323,
      "ĠSpa": 6324,
      "ush": 6325,
      "ĠFin": 6326,
      "ott": 6327,
      "Ad": 6328,
      "áĬ¨áĪ¨áĪĿ": 6329,
      "áĬ«áĬ¨áĪĪ": 6330,
      "áĪĨáĬĸ": 6331,
      "ĠáĭµáĪį": 6332,
      "ĠáīµáĪŃáĮīáĪĿ": 6333,
      "assan": 6334,
      "ĠáĮİáĬķ": 6335,
      "conom": 6336,
      "Ġyau": 6337,
      "ĠSikukuu": 6338,
      "Ġshirye-shi": 6339,
      "ĠRepublic": 6340,
      "sive": 6341,
      "hoto": 6342,
      "kari": 6343,
      "ishe": 6344,
      "ĠWil": 6345,
      "ĠBas": 6346,
      "áĮª": 6347,
      "áĪµáĭ«": 6348,
      "Ġ(áĭĪ": 6349,
      "Ġipinle": 6350,
      "gbá»įÌģ": 6351,
      "áĬŃáĪ²": 6352,
      "áĪªáĪµ": 6353,
      "ĠOlymp": 6354,
      "áĬłáĬķáĭµ": 6355,
      "Ġáĭĺáįĭ": 6356,
      "áīĥáĪ´": 6357,
      "Ġhuadhim": 6358,
      "kÃ³so": 6359,
      "Ġgargaji": 6360,
      "Ġmnamo": 6361,
      "ba.": 6362,
      "eland": 6363,
      "Ġonly": 6364,
      "Ġwao": 6365,
      "imbo": 6366,
      "ple": 6367,
      "tori": 6368,
      "ES": 6369,
      "Ġed": 6370,
      "Ġjus": 6371,
      "Ġmahali": 6372,
      "Ġ2014.": 6373,
      "ĠsÃ¬n": 6374,
      "Ã¡jÃº": 6375,
      "áīĢáĮ¥": 6376,
      "ĠáĪµáĪŀáī½": 6377,
      "áĪĻáĬķ": 6378,
      "ĠolÃ³rÃŃ": 6379,
      "ĠOrÃŃláº¹ÌĢ-Ã¨dÃ¨": 6380,
      "ĠáĪĿáĪįáĬŃáīµ": 6381,
      "áīħáĪµáīĥáĪ´": 6382,
      "Ġname": 6383,
      "Ġpartie": 6384,
      ");": 6385,
      "-G": 6386,
      "Ġtout": 6387,
      "Ġwengine": 6388,
      "ĠÆĻidayar": 6389,
      "Ġkadhaa": 6390,
      "-P": 6391,
      "Ġduring": 6392,
      "Ġprof": 6393,
      "à¤ķ": 6394,
      "ĠGuinea": 6395,
      "bÃ³": 6396,
      "pita": 6397,
      "áĬķáĮİ": 6398,
      "áĪĽáĪ½": 6399,
      "oman": 6400,
      "áĭ³áĪį": 6401,
      "ĠáĭĺáĪĺáĬĵáĭĬ": 6402,
      "Ġ2015.": 6403,
      "Ġáīłáī°áĪĪ": 6404,
      "ĠAmáº¹ÌģrÃŃkÃł.": 6405,
      "ĠáĪĥáĭŃáĪĽáĬĸáīµ": 6406,
      "To": 6407,
      "Ġoun": 6408,
      "ements": 6409,
      "Jina": 6410,
      "owe": 6411,
      "Ġkoloni": 6412,
      "Ġbikin": 6413,
      "ĠCibiyar": 6414,
      "Ġzinazo": 6415,
      "Ġwengi,": 6416,
      "-finai": 6417,
      "Ġmasana'": 6418,
      "ombo": 6419,
      "ĠGi": 6420,
      "zarin": 6421,
      "Ġmik": 6422,
      "De": 6423,
      "áĪĿáī¥": 6424,
      "ĠMul": 6425,
      "ĠáĪĿáĭķáĪ«áī¥": 6426,
      "áį¡áĬ¥": 6427,
      "áĭ²áĭ®": 6428,
      "ĠáīµáĪŃ": 6429,
      "ĠáīµáĪĿáĪħáĪŃ": 6430,
      "Ġ1994": 6431,
      "ĠáĪĺáĪ°áĪ¨áīµ": 6432,
      "áĪµáĪĪáĭļáĪħ": 6433,
      "ĠÃłÃ¬sÃłn": 6434,
      "ĠáĭŃáĪĨáĬĵáĪįáį¢": 6435,
      "Ġsara": 6436,
      "ĠKingdom": 6437,
      "Waliozaliwa": 6438,
      "ĠHotuna": 6439,
      "ĠMakarantar": 6440,
      "ĠNuwamba": 6441,
      "ĠKale": 6442,
      "ower": 6443,
      "wÃłÃ¡": 6444,
      "áĪĿáįĴ": 6445,
      "áĪĽáĪį": 6446,
      "Ġáĭ¨áĪ®": 6447,
      "ĠGáº¹ÌĢáº¹ÌģsÃ¬": 6448,
      "ĠhaÉĹin": 6449,
      "âĢĻi": 6450,
      "ĠáĬĲáĮĪáĪł": 6451,
      "Ġáĭ«áĪĪáĭįáĬķ": 6452,
      "ĠáĭŃáīĢáĪ«áĪīáį¢": 6453,
      "Ġpataki": 6454,
      "iso": 6455,
      "ografia": 6456,
      "Ġanci": 6457,
      "ĠgÃ©nÃ©r": 6458,
      "Ra": 6459,
      "Ġmay": 6460,
      "hysi": 6461,
      "Ġintern": 6462,
      "Ġzake": 6463,
      "ught": 6464,
      "lishi": 6465,
      "96": 6466,
      "ĠirÃº": 6467,
      "Ġáĭ¨áĪ´": 6468,
      "áĮĭáīµ": 6469,
      "ĠÃ²kÃ¨": 6470,
      "ominira": 6471,
      "Ġáī°áĪ«áĪ«": 6472,
      "ĠáĭŃáĪĺáĪµáĪĭáĪįáį¢": 6473,
      "ĠBau": 6474,
      "Ġtime": 6475,
      "ĠJoseph": 6476,
      "mb": 6477,
      "xi": 6478,
      "fini": 6479,
      "line": 6480,
      "ches": 6481,
      "ÆĻi": 6482,
      "Ġmatsa": 6483,
      "Ġsho": 6484,
      "ouver": 6485,
      "áĭ°áĪµ": 6486,
      "ĠáĬŃáĪŃáĪµáī²áĭ«": 6487,
      "áĮĢáīµ": 6488,
      "ĠáĮĭáĪ«": 6489,
      "ames": 6490,
      "ĠCong": 6491,
      "Ġalors": 6492,
      "nÃº": 6493,
      "Ġtafi": 6494,
      "Ġalipo": 6495,
      "rist": 6496,
      "sh": 6497,
      "Ġ2013,": 6498,
      "Ġpays": 6499,
      "ĠLab": 6500,
      "ĠJuli": 6501,
      "IS": 6502,
      "Ġáĭ¨áĪĪáĪĿ": 6503,
      "Ġwá»įÌĢn": 6504,
      "Ġáį©": 6505,
      "Ġá»įjá»į": 6506,
      "ĠáĭŃáĭŀ": 6507,
      "áĮ£áĬķ": 6508,
      "ĠÃĮlÃº": 6509,
      "Ġkowa": 6510,
      "ĠáĮĪáĮ½": 6511,
      "ĠáĮ½áĪķ": 6512,
      "ĠáįĪáĪŃáĭĸáĬķ": 6513,
      "Ġikan": 6514,
      "Ġyaliyo": 6515,
      "lect": 6516,
      "di.": 6517,
      "qui": 6518,
      "ĠáĬĽ": 6519,
      "ĠáīłáĬ«": 6520,
      "ĠÃłÃ¡": 6521,
      "ĠÃłjáº¹sÃ¡ra": 6522,
      "ĠIV": 6523,
      "áĭ³áĭµ": 6524,
      "ĠáĭįáĪĢ": 6525,
      "áĪ²áĭ«": 6526,
      "Ġsosai": 6527,
      "ĠáĭķáĪĪáī°": 6528,
      "ĠáįįáĪ¬": 6529,
      "áĬ¥áĬķáĭ²": 6530,
      "hesabiwa": 6531,
      "TA": 6532,
      "ĠoÃ¹": 6533,
      "ĠSoko": 6534,
      "wari": 6535,
      "duc": 6536,
      "ĠBook": 6537,
      "ĠMovie": 6538,
      "Ġjinsi": 6539,
      "Â»)": 6540,
      "kamakon": 6541,
      "win": 6542,
      "Ġáĭ¨áĬ¨": 6543,
      "Ġláº¹": 6544,
      "áĪĪáį¢": 6545,
      "Ġáĭ¨áĪ±": 6546,
      "ĠáĪµáĪĭ": 6547,
      "ick": 6548,
      "Ġlis": 6549,
      "áĮłáĪĪ": 6550,
      "áĬķáĮĮ": 6551,
      "áī¥áĪŃáĪĥ": 6552,
      "ĠáĪĿáĬķáĮĬáĭľ": 6553,
      "Ġ1993": 6554,
      "ĠMusic": 6555,
      "yc": 6556,
      "we,": 6557,
      "Ġocc": 6558,
      "hiyar": 6559,
      "Ġaddinin": 6560,
      "imakin": 6561,
      "BA": 6562,
      "um,": 6563,
      "Ġsystem": 6564,
      "ĠGirl": 6565,
      "áĬ£": 6566,
      "áī³áĬķ": 6567,
      "Ġá»įlá»įÌģ": 6568,
      "áĬ«áĬ¤áĪį": 6569,
      "áĪİáī¹": 6570,
      "ĠáĪįáĮģ": 6571,
      "Ġáī¢áĭ«": 6572,
      "ĠKejÃ¬": 6573,
      "wÃº": 6574,
      "Ġmaisha": 6575,
      "á¹¢": 6576,
      "Ġbro": 6577,
      "ĠKig": 6578,
      "araka": 6579,
      "str": 6580,
      "ĠRoyal": 6581,
      "via": 6582,
      "Ġáĭ¨áīł": 6583,
      "Ġáĭ¨áĮĭ": 6584,
      "iláº¹": 6585,
      "ĠáĭįáĪĥ": 6586,
      "ĠáīłáĪĺáĪĨáĬķ": 6587,
      "ĠQue": 6588,
      "maji": 6589,
      "geme": 6590,
      "Ùĩ": 6591,
      "Ġ2010,": 6592,
      "Ġass": 6593,
      "Ġkit": 6594,
      "Ġ(17": 6595,
      "kuta": 6596,
      "Ġkirk": 6597,
      "Ġng": 6598,
      "ĠZam": 6599,
      "Mo": 6600,
      "sÃ¡n": 6601,
      "áĬķáīĢ": 6602,
      "ĠáĪĺáĮį": 6603,
      "ĠáĬ¨áĪĿ": 6604,
      "ĠáīłáĬ¤": 6605,
      "áĬ¥áĬĲáĭļáĪħ": 6606,
      "ÃŃnÃº": 6607,
      "Ġáī£áĪķáĪŃ": 6608,
      "Ġanti": 6609,
      "áīłáīµáĬķ": 6610,
      "Ġáĭ¨áĬłáĭ¨áĪŃ": 6611,
      "áīĤáĭ«": 6612,
      "ĠKaramar": 6613,
      "ĠolÃ³gun": 6614,
      "---": 6615,
      "Ġmáº¹Ìģta": 6616,
      "áī¨áĪŃáĪ²áī²": 6617,
      "tiki": 6618,
      "71": 6619,
      "Mu": 6620,
      "Ġent": 6621,
      "amban": 6622,
      "Ġlui": 6623,
      "yahu": 6624,
      "Ġ4,": 6625,
      "ident": 6626,
      "Ġwatakatifu": 6627,
      "Ġkimataifa": 6628,
      "itÃ¬": 6629,
      "ĠáĪĪáĪļ": 6630,
      "yota": 6631,
      "áĬĽáĭįáĪĿ": 6632,
      "ĠBrazil": 6633,
      "gine": 6634,
      "llo": 6635,
      "amment": 6636,
      "sim": 6637,
      "Ġkawo": 6638,
      "Ġrawar": 6639,
      "Ġasali": 6640,
      "Ġáīª": 6641,
      "yÃ¬ÃŃ": 6642,
      "áĭ«áĪľ": 6643,
      "ĠáĬłáĭĭ": 6644,
      "Ġhala": 6645,
      "adar": 6646,
      "Ġá»ĮÌĢyá»įÌģ": 6647,
      "Ġtáº¹li": 6648,
      "Ġgroup": 6649,
      "Ġbakwai": 6650,
      "team": 6651,
      "go,": 6652,
      "Ġsecond": 6653,
      "ĠLim": 6654,
      "ĠFarans": 6655,
      "Ġkusan": 6656,
      "volution": 6657,
      "ating": 6658,
      "âĢ¹": 6659,
      "Ġ2001": 6660,
      "gáº¹": 6661,
      "áĬķáī¥": 6662,
      "ti,": 6663,
      "ĠáĮĥ": 6664,
      "áĭŃáĪģ": 6665,
      "Ġáī°áĮ½": 6666,
      "ĠáīłáĪĭ": 6667,
      "áįįáĬķ": 6668,
      "áĪ°áīµ": 6669,
      "Ġsayensi": 6670,
      "ĠbÃŃbÃŃ": 6671,
      "Ġáº¹ÌĢrá»į": 6672,
      "ĠÃ©c": 6673,
      "ĠáĬłáĪĪáĭį": 6674,
      "ĠáĬłáĪĪáĭįáį¢": 6675,
      "Ġorigin": 6676,
      "wÃ¹já»į": 6677,
      "ĠáĭŃáī»áĪĭáĪįáį¢": 6678,
      "88": 6679,
      "Ġnasar": 6680,
      "Ġlafiya": 6681,
      "ĠzaÉĵ": 6682,
      "yá»įÌĢ": 6683,
      "lewa": 6684,
      "ĠSin": 6685,
      "Ġhistoria": 6686,
      "safa": 6687,
      "-z": 6688,
      "Ġmmoja": 6689,
      "Ġ(The": 6690,
      "Ġprincip": 6691,
      "ĠáīĦ": 6692,
      "Ġsig": 6693,
      "Ġmtu": 6694,
      "ĠáĬłáĭĺ": 6695,
      "ĠIlimi": 6696,
      "áĪ³áĪ°": 6697,
      "ch,": 6698,
      "chungu": 6699,
      "ciyar": 6700,
      "ĠMac": 6701,
      "Ġhuu": 6702,
      "agen": 6703,
      "Ġmuziki": 6704,
      "Ġcheo": 6705,
      "áĬ¨áī°áĪĽáĭį": 6706,
      "Ġáī¢áĪĨáĬķáĪĿ": 6707,
      "ĠáĪĿáĬķáĮĬáĭľáĪĿ": 6708,
      "gres": 6709,
      "Ġaye": 6710,
      "ĠJean": 6711,
      "Ge": 6712,
      "ĠÅ": 6713,
      "ĠGree": 6714,
      "ver,": 6715,
      "ĠMont": 6716,
      "ĠMaria": 6717,
      "Ġlabarai": 6718,
      "Ġhannu": 6719,
      "ĠáĬĲáĮ¥": 6720,
      "Ġáī°áĬŃáĪį": 6721,
      "ĠPÃ³": 6722,
      "ĠWata": 6723,
      "Ġv.": 6724,
      "áī¡áĬķ": 6725,
      "ĠáĬłáĪįáī°": 6726,
      "ĠáĪłáĪ«áĭĬáīµ": 6727,
      "ĠÃºn": 6728,
      "Ġconf": 6729,
      "Ġ1987": 6730,
      "55": 6731,
      "ĠSak": 6732,
      "Ġ2011.": 6733,
      "ĠOyo": 6734,
      "Ġ\"A": 6735,
      "ĠIsra": 6736,
      "kta": 6737,
      "uka": 6738,
      "ville": 6739,
      "Ġáĭ¨áįĬ": 6740,
      "áĪĺáĮ¥": 6741,
      "Ġgas": 6742,
      "ĠÃłdÃºgbÃ²": 6743,
      "ĠÃ¬á¹£áº¹ÌĢláº¹ÌĢ": 6744,
      "áĪªáīĥ": 6745,
      "ĠáĭĪáĮ¥": 6746,
      "áī¸áĭĭáĪįáį¢": 6747,
      "ĠáĪ°áĬĲ": 6748,
      "Ġ1998": 6749,
      "ĠáĪĬáīĥ": 6750,
      "ĠáīĨáĭŃ": 6751,
      "áĬķáĮīáĪ¥": 6752,
      "ĠáĬłáĪ«áīµ": 6753,
      "áĪįáĪµáįįáĬĵ": 6754,
      "Ġáįªáį»áį": 6755,
      "Ġá¹£ÃŃá¹£e": 6756,
      "ĠdÃºrÃ³": 6757,
      "ĠGeorg": 6758,
      "Ġfus": 6759,
      "uttu": 6760,
      "ĠdÃ©velop": 6761,
      "Ġrangi": 6762,
      "%)": 6763,
      "77": 6764,
      "Ġ||": 6765,
      "Ġpopulation": 6766,
      "bá»įÌĢ": 6767,
      "Ġfut": 6768,
      "ĠáĬ¨áĮį": 6769,
      "lay": 6770,
      "ĠTr": 6771,
      "elli": 6772,
      "Ġáī°áĮĪ": 6773,
      "áĪªáĬ®áī½": 6774,
      "ĠáĭŃáīĨ": 6775,
      "ĠÃ¬dÃŃlÃ©": 6776,
      "ĠÃ¬dÃŃje": 6777,
      "ĠmÃŃrÃłn": 6778,
      "ĠáĮĮáī³": 6779,
      "ĠáĮĬáĭ®áĪŃáĮĬáĪµ": 6780,
      "ĠDemocratic": 6781,
      "ator": 6782,
      "ana,": 6783,
      "Ġduniya.": 6784,
      "::": 6785,
      "ĠAri": 6786,
      "amia": 6787,
      "zz": 6788,
      "Ġ×": 6789,
      "Ġalb": 6790,
      "ĠnÃ©": 6791,
      "ĠCam": 6792,
      "ĠCali": 6793,
      "ĠWilaya": 6794,
      "zed": 6795,
      "Ġnde": 6796,
      "ĠMary": 6797,
      "áĪĪáīĢ": 6798,
      "ikisho": 6799,
      "áĪĽáĭįáĭ«áĬķ": 6800,
      "ĠáįĮ": 6801,
      "ĠFÃ¡": 6802,
      "áĪ°áĪĽ": 6803,
      "áī¸áĭī": 6804,
      "ĠáĪĬáīĢ": 6805,
      "ĠáĬłáĪĺáī³áīµ": 6806,
      "áī·áĬķ": 6807,
      "mÃ¬nira": 6808,
      "pasáº¹": 6809,
      "ker": 6810,
      "esse": 6811,
      "ĠAma": 6812,
      "ots": 6813,
      "98": 6814,
      "fikia": 6815,
      "harar": 6816,
      "....": 6817,
      "Ġambapo": 6818,
      "Ġgwamnan": 6819,
      "ĠfranÃ§ais": 6820,
      "Ġx": 6821,
      "áĪµáį£": 6822,
      "ĠMala": 6823,
      "ĠáīłáĪĢ": 6824,
      "ĠGen": 6825,
      "áĬ«áĪĦ": 6826,
      "ĠáĮĪáĭ¥": 6827,
      "ĠáĪĺáĬķáĮįáĪ¥áī³áīµ": 6828,
      "áĭŀáī½": 6829,
      "Ġáĭ¨áīĢáĭµáĪŀ": 6830,
      "Ġqu'il": 6831,
      "áĪĨáĬĸáĪĿ": 6832,
      "ĠCat": 6833,
      "ient": 6834,
      "pindu": 6835,
      "jwa": 6836,
      "56": 6837,
      "Ġdem": 6838,
      "Ġwar": 6839,
      "áĭ°áĬķ": 6840,
      "áĪ³áĪįáį¢": 6841,
      "ĠOla": 6842,
      "Ġáº¹ran": 6843,
      "Ġ\"B": 6844,
      "áĬĴáĪįáĬŃ": 6845,
      "Ġ1991": 6846,
      "áįĬáĭ«": 6847,
      "Ġáĭ¨áĪļáĮĪáĬĿáīłáīµ": 6848,
      "Lugha": 6849,
      "xic": 6850,
      "ĠIr": 6851,
      "ĠKijerumani": 6852,
      "Ġpublic": 6853,
      "til": 6854,
      "Ġwi": 6855,
      "Ġfollow": 6856,
      "Ġins": 6857,
      "ĠIndia": 6858,
      "VID": 6859,
      "ĠáĬĥ": 6860,
      "Ġsal": 6861,
      "yam": 6862,
      "Ġfili": 6863,
      "ĠáĬ¥áĬ©áĪį": 6864,
      "ĠáĬłáĬĵ": 6865,
      "Ġren": 6866,
      "ĠáįĴ": 6867,
      "ĠÃ¬bÃ¡": 6868,
      "ĠÃ²bÃŃ": 6869,
      "ĠáĪĨáĬĳ": 6870,
      "Ġ4.": 6871,
      "Ġáĭķáĭµ": 6872,
      "ĠáīłáĬłáĪģáĬĳ": 6873,
      "ĠáĭĺáĬķáĭµáį£": 6874,
      "lÃŃÃł": 6875,
      "She": 6876,
      "Ġ''": 6877,
      "Ġbaadaye": 6878,
      "Ġdist": 6879,
      "ĠMs": 6880,
      "Ġpremier": 6881,
      "anni": 6882,
      "la.": 6883,
      "Ġlead": 6884,
      "44": 6885,
      "gor": 6886,
      "ĠHars": 6887,
      "adhi": 6888,
      "Ġart": 6889,
      "áįı": 6890,
      "ĠáīĤ": 6891,
      "am,": 6892,
      "áĪĪáĭĭáĪįáį¢": 6893,
      "Ġta,": 6894,
      "ĠáĬ¨áī£": 6895,
      "ĠÃ¬yÃ¡": 6896,
      "Ġáī°áĮ«": 6897,
      "Ġáĭ¨áĪģ": 6898,
      "rough": 6899,
      "áĭĿáĪĿ": 6900,
      "ĠáĪ²áĪį": 6901,
      "ĠáĮįáĭµ": 6902,
      "ĠâĢ¹": 6903,
      "áĭ±áį¢": 6904,
      "ĠáĪĬáĭ«": 6905,
      "áĭ°áĪ¨áĮĪáĭį": 6906,
      "ĠáĪĺáĮ»áĪķáįįáīµ": 6907,
      "ĠIle-": 6908,
      "ĠTer": 6909,
      "ĠGrand": 6910,
      "cil": 6911,
      "ĠAu": 6912,
      "atini": 6913,
      "elf": 6914,
      "John": 6915,
      "kai": 6916,
      "ĠMpaka": 6917,
      "ington": 6918,
      "kubali": 6919,
      "limfuata": 6920,
      "Ġkyautar": 6921,
      "ĠBiranen": 6922,
      "h.": 6923,
      "nia": 6924,
      "Ġáĭ¨áĮĢáĪŃáĪĺáĬķ": 6925,
      "Ġ(b": 6926,
      "áī°áĬĵ": 6927,
      "áĪ¨áĪŃ": 6928,
      "ĠIá¹£áº¹Ìģ": 6929,
      "ĠáīłáĪŀ": 6930,
      "ĠáĬ¥áĬķáīħáĪµáīĥáĪ´": 6931,
      "ge.": 6932,
      "Ġáī¥áĪĶáĪŃ": 6933,
      "ĠáĬŃáĪĪáī¥": 6934,
      "ĠáīłáĪĺáī£áĪį": 6935,
      "ĠáĮĪáī¥áĪ¨": 6936,
      "áĭ°áĪŃáĮį": 6937,
      "Ġoluilu": 6938,
      "ĠáĬłáīĢáįį": 6939,
      "Ġmambo": 6940,
      "ĠGod": 6941,
      "teur": 6942,
      "ant,": 6943,
      "ĠtrÃ¨s": 6944,
      "Ġ(in": 6945,
      "ina,": 6946,
      "ĠNews": 6947,
      "ĠPoland": 6948,
      "aron": 6949,
      "Ġ1996": 6950,
      "engene": 6951,
      "dancin": 6952,
      "Ġwakifuata": 6953,
      "ĠKal": 6954,
      "ĠLea": 6955,
      "ĠRichard": 6956,
      "ĠBauchi": 6957,
      "áĭ·": 6958,
      "áĪŃáī³": 6959,
      "Ġ(He": 6960,
      "ĠáĬ¥áĪĿ": 6961,
      "á¹£o": 6962,
      "Ġáĭ¨áĪļáĪ°áĪ«": 6963,
      "ĠáĪĽáĬħ": 6964,
      "áĪ¥áĪ«": 6965,
      "Ġá¹£áº¹": 6966,
      "joko": 6967,
      "Ġstr": 6968,
      "Ġstate": 6969,
      "ography": 6970,
      "yá»įrÃŃ": 6971,
      "Ġáĭ¨áĭĵáĪĺáī±": 6972,
      "kn": 6973,
      "Ġgur": 6974,
      "usin": 6975,
      "ĠHigh": 6976,
      "ĠTanzania.": 6977,
      "AR": 6978,
      "Ġshari": 6979,
      "Ġni:": 6980,
      "Ġuishe": 6981,
      "Ġarziki": 6982,
      "ĠDisamba": 6983,
      "Ġhuadhimisha": 6984,
      "ushe": 6985,
      "cture": 6986,
      "usieurs": 6987,
      "ĠáĪĺáĬ®": 6988,
      "ĠáĪĺáĪ£": 6989,
      "Ġnipasáº¹": 6990,
      "ĠáĬ¨áĮ¥": 6991,
      "áĬ¨áĬĵ": 6992,
      "áĬķáĮįáĪį": 6993,
      "ĠáĬĲáĮĪáĪ¥áīµ": 6994,
      "Ġáĭ¨áĬĲáīłáĪ©áīµ": 6995,
      "áĮĬáĭ«": 6996,
      "fofin": 6997,
      "áĮĬáĭľáĭį": 6998,
      "ĠáīµáĬķáĪ½": 6999,
      "ĠáĪºáĪħ": 7000,
      "Ġwhere": 7001,
      "ĠAct": 7002,
      "ĠUN": 7003,
      "Ġ1997": 7004,
      "hamia": 7005,
      "babisha": 7006,
      "fuatwa": 7007,
      "Ġduniani": 7008,
      "Ġtakriban": 7009,
      "Ġmirefu).": 7010,
      "den": 7011,
      "ĠAw": 7012,
      "Ġpin": 7013,
      "ĠKÃ²": 7014,
      "ĠáĬ¨áĪµ": 7015,
      "ĠáĪµáĬķ": 7016,
      "Ġáĭ«áĪĭáī¸áĭį": 7017,
      "Ġ2007.": 7018,
      "Ġkoyar": 7019,
      "Ġkowan": 7020,
      "Ġyanayin": 7021,
      "ĠáīĥáĪĭáīµ": 7022,
      "Ġzinabaki": 7023,
      "Ġwenyewe": 7024,
      "ĠArewacin": 7025,
      "ĠáĬłáĮĪáĪįáĮįáĪİáīµ": 7026,
      "Ġ(15": 7027,
      "haji": 7028,
      "ire.": 7029,
      "-D": 7030,
      "huwa": 7031,
      "inad": 7032,
      "do,": 7033,
      "73": 7034,
      "Ġ1995": 7035,
      "Ġdaida": 7036,
      "ament": 7037,
      "ĠKin": 7038,
      "ĠSeri": 7039,
      "Ġkwenda": 7040,
      "Ġyammacin": 7041,
      "</": 7042,
      "Ġsta": 7043,
      "áĪįáĮĭ": 7044,
      "ma.": 7045,
      "ĠhÃłn": 7046,
      "ĠJ.": 7047,
      "ĠFestiv": 7048,
      "Ġáĭ¨áī°áī£": 7049,
      "ĠAnamb": 7050,
      "ĠáĬłáĪµáįĪ": 7051,
      "ĠáĮĢáĪŃáĪĺáĬķ": 7052,
      "Ġáī°áĪĺáĪ³áĪ³áĭŃ": 7053,
      "ĠáĬłáī£áĪĭáīµ": 7054,
      "áĬ®áĬĸáĪļ": 7055,
      "esu": 7056,
      "htm": 7057,
      "gÃŃ": 7058,
      "ĠId": 7059,
      "-i": 7060,
      "je,": 7061,
      "wer": 7062,
      "Ġndogo": 7063,
      "Ġ(,": 7064,
      "Ġces": 7065,
      "ĠJamiâĢĻar": 7066,
      "Ġbecame": 7067,
      "Ray": 7068,
      "Ø©": 7069,
      "áĭŃáĪį": 7070,
      "ĠáĬłáĮį": 7071,
      "ĠáĬłáĮł": 7072,
      "Ġá»įwá»įÌģ": 7073,
      "áĭ¨áĪļ": 7074,
      "depend": 7075,
      "Ġleyin": 7076,
      "áĪĬáĬķ": 7077,
      "ĠáĪĪáĪĽáĪµ": 7078,
      "pá»įlá»į": 7079,
      "aj": 7080,
      "áĮłáīµ": 7081,
      "Ġ(2005)": 7082,
      "c,": 7083,
      "historia": 7084,
      "Ġcount": 7085,
      "Ġmakuu": 7086,
      "ja,": 7087,
      "Ġfon": 7088,
      "ĠSau": 7089,
      "otball": 7090,
      "ĠrÃ©gion": 7091,
      "ministr": 7092,
      "ÑĢ": 7093,
      "áĮİáī½": 7094,
      "ĠMichael": 7095,
      "ĠáĬ¥áĪ«áĪ±": 7096,
      "Ġtaken": 7097,
      "ĠCoun": 7098,
      "Ġáĭ¨áĬ¡": 7099,
      "áĪīáĬķ": 7100,
      "ĠáĭĵáĭŃáĬĲáīµ": 7101,
      "Ġáĭ¨áĬłáĭįáĪ®áįĵ": 7102,
      "ĠáĬłáĪĪáį¢": 7103,
      "ĠáĮĢáĪĺáĪ¨": 7104,
      "ĠadarÃŃ": 7105,
      "wÃ²sÃłn": 7106,
      "ĠáĬłáĪĿáī£": 7107,
      "ĠáĬŃáįįáĪĭáĮĪáĪŃ": 7108,
      "á¹£irÃŃá¹£i": 7109,
      "Ġkashe": 7110,
      "ĠKaisari": 7111,
      "ĠFabra": 7112,
      "Ġwould": 7113,
      "gie": 7114,
      "ĠÂ»,": 7115,
      "Ġsamo": 7116,
      "Ġ(An": 7117,
      "ĠSup": 7118,
      "Ġká»įÌĢ": 7119,
      "Ġsans": 7120,
      "Ġáĭ¨áĪ«áĪ±": 7121,
      "alement": 7122,
      "áĪ°áĪį": 7123,
      "áĭĺáĭį": 7124,
      "Ġkan.": 7125,
      "Ġ2006.": 7126,
      "¢áīµáĭ®áĮµáĭ«áĬķ": 7127,
      "Ġconstitu": 7128,
      "Ġkimi": 7129,
      "ĠáĪĺáĪįáĬ©": 7130,
      "Ġáī°áĬ¨áī³áĭŃ": 7131,
      "yá»įkÃł": 7132,
      "Ç¹kan": 7133,
      "ĠdÃŃáº¹ÌĢ": 7134,
      "Ġtalabijin": 7135,
      "kÃºn": 7136,
      "ra.": 7137,
      "Ġjul": 7138,
      "Ġmpaka": 7139,
      "kacin": 7140,
      "Ġtakwa": 7141,
      "fazi": 7142,
      "umiwa": 7143,
      "Ġkm2": 7144,
      "Ġelect": 7145,
      "Ġkabla": 7146,
      "Ġabinci": 7147,
      "ĠRoman": 7148,
      "Ġ),": 7149,
      "ĠáĮĦ": 7150,
      "áĪĺáĬĳ": 7151,
      "ĠKáº¹Ìģ": 7152,
      "áĬŃáĪŃáĪµáī¶áĪµ": 7153,
      "elon": 7154,
      "Ġáī°áĭ°áĪŃ": 7155,
      "ĠáĪĿáĪħ": 7156,
      "ĠáĪµáĭ«áĪľ": 7157,
      "ĠÃ²fin": 7158,
      "Ġáĭ¨áĪĨáĬĲáĭį": 7159,
      "ĠYunifÃ¡sÃŃtÃ¬": 7160,
      "fore": 7161,
      "Ġdisp": 7162,
      "ĠlÃŃ": 7163,
      "irun": 7164,
      "eter": 7165,
      "zon": 7166,
      "aract": 7167,
      "Ġkashi": 7168,
      "Ġkarshe": 7169,
      "pewa": 7170,
      "ĠAssociation": 7171,
      "Ġmakabila": 7172,
      "Au": 7173,
      "áĬĲáĬĽ": 7174,
      "áĪĭáĪĭ": 7175,
      "Ġnibi": 7176,
      "ĠáĭŃáĪĺ": 7177,
      "áĭ³áĪª": 7178,
      "áĪİáĪµ": 7179,
      "Ġ1975": 7180,
      "áī£áī¢áĪİáĬķ": 7181,
      "Ġmeji": 7182,
      "ĠKÃ¡tÃ³": 7183,
      "Nig": 7184,
      "ĠgÃ©": 7185,
      "ĠKimi": 7186,
      "Ã¨rÃ¨": 7187,
      "ĠáīĢáĭŃ": 7188,
      "Ġmemba": 7189,
      "Ġdamar": 7190,
      "Ġulio": 7191,
      "Wakristo": 7192,
      "-e": 7193,
      "mary": 7194,
      "ws": 7195,
      "able": 7196,
      "tá»į": 7197,
      "Ġ+": 7198,
      "áĬķáĮ»": 7199,
      "áĮįáĬĵ": 7200,
      "áīłáī³áĪįáį¢": 7201,
      "Ã²wÃ²": 7202,
      "áĭ¨áĪ©": 7203,
      "ĠáĮ£áĪį": 7204,
      "áĪªáī³áĬķáĭ«": 7205,
      "Ġtura": 7206,
      "uniyar": 7207,
      "Ġacikin": 7208,
      "ĠTarihi": 7209,
      "bas": 7210,
      "Ġcity": 7211,
      "ĠIm": 7212,
      "âĢĶ": 7213,
      "seed": 7214,
      "les,": 7215,
      "79": 7216,
      "CM": 7217,
      "ĠKK": 7218,
      "ithi": 7219,
      "ĠChin": 7220,
      "ĠCOVID": 7221,
      "Ġ(la": 7222,
      "Ġchar": 7223,
      "Ġgari": 7224,
      "Ġhut": 7225,
      "Ġsen": 7226,
      "Ġáĭ¨áĪį": 7227,
      "ĠáīłáĭŃ": 7228,
      "áĪĪáī±": 7229,
      "ĠáĮ¤": 7230,
      "ĠWam": 7231,
      "oly": 7232,
      "Ġhaka,": 7233,
      "fihÃłn": 7234,
      "ĠáĪ°áĪŃ": 7235,
      "Ġáĭ°áī¥": 7236,
      "áīĭáīĭ": 7237,
      "áīģáīµ": 7238,
      "áº¹ÌģrÃ¬n": 7239,
      "áĭŃáĪħáĪĿ": 7240,
      "Ġáĭ¨áĪħáĭĿáī¥": 7241,
      "áįĲáī¥áĪĬáĬŃ": 7242,
      "ĠáĬĽáĭį": 7243,
      "Ġ1989": 7244,
      "Ġ60": 7245,
      "Ġresp": 7246,
      "-20": 7247,
      "68": 7248,
      "Ġmany": 7249,
      "uv": 7250,
      "Î¹": 7251,
      "heria": 7252,
      "43": 7253,
      "Ġngu": 7254,
      "Ġneno": 7255,
      "Ġwatum": 7256,
      "Ġsaurans": 7257,
      "áĭµáĪ¨": 7258,
      "ĠNo": 7259,
      "ĠáĪĿáĭķáĪ«": 7260,
      "Ġáī¤áī¶áī½": 7261,
      "áĮ»áįĪ": 7262,
      "Ġáĭ¨áĬĲáĮĪ": 7263,
      "ĠÃ²á¹£Ã¨rÃ©bÃ¬nrin": 7264,
      "voir": 7265,
      "ĠannÃ©es": 7266,
      "Ġáĭ¨áĪĻáĭļáīĥ": 7267,
      "ĠkÃłwÃ©": 7268,
      "lahi": 7269,
      "http://www.": 7270,
      "p.": 7271,
      "Ġ(16": 7272,
      "ĠSil": 7273,
      "Ġpeu": 7274,
      "Ġani": 7275,
      "asayansi": 7276,
      "Ġyake.": 7277,
      "umar": 7278,
      "ovi": 7279,
      "áĮįáĪĽáĭĬ": 7280,
      "ĠUt": 7281,
      "imba": 7282,
      "áĮĭáĮĪáĪŃ": 7283,
      "áĬķáĮįáĪ¥áīµ": 7284,
      "ĠÃ¨rÃ²": 7285,
      "ĠÃĮjá»į": 7286,
      "áĭ±áīµ": 7287,
      "Ġfiimu": 7288,
      "ĠáĬ¥áĪµáĬ«": 7289,
      "Ġáĭ©áĬĴáī¨áĪŃáĪ²áī²": 7290,
      "ĠáĮįáĬķáĬĻáĬĲáīµ": 7291,
      "Ġwá»įÌĢnyÃŃ": 7292,
      "Ġdirect": 7293,
      "ĠEgy": 7294,
      "ĠÆĻars": 7295,
      "ĠLiber": 7296,
      "ĠTri": 7297,
      "ĠUsman": 7298,
      "zuri": 7299,
      "lian": 7300,
      "ĠAth": 7301,
      "urt": 7302,
      "ĠIbn": 7303,
      "áĬķáĮĢ": 7304,
      "áĭµáīħ": 7305,
      "áĬŃáĪĿáĬĵ": 7306,
      "ĠáĬ¥áĬķáĭ´áīµ": 7307,
      "áĮłáī¥": 7308,
      "lÃ©lÃ³gÃºn": 7309,
      "ney": 7310,
      "ĠáĭĭáĮĭ": 7311,
      "Ġáī°áĪĺáĪį": 7312,
      "ĠáĪģáĪĪáī°áĬĽ": 7313,
      "Ġelle": 7314,
      "Ġwur": 7315,
      "ĠOffi": 7316,
      "ututtu": 7317,
      "rac": 7318,
      "Ġyanki": 7319,
      "ĠParis": 7320,
      "ĠVictor": 7321,
      "Ġthere": 7322,
      "ĠThomas": 7323,
      "PP": 7324,
      "ĠGood": 7325,
      "-0": 7326,
      "Iá¹£áº¹Ìģ": 7327,
      "áĬĵáĮĪáĪŃ": 7328,
      "Ã¬yÃłn": 7329,
      "Ġmakubwa": 7330,
      "ĠáīłáĪ¥": 7331,
      "ĠáĬŃáĪŃ": 7332,
      "áĪµáīµáĪª": 7333,
      "Ġáº¹ÌĢka": 7334,
      "áĭ°áī¥áĪ¨": 7335,
      "ĠÃĴgÃ¹n": 7336,
      "Ġfilin": 7337,
      "áįĸáĪŃáīµ": 7338,
      "ĠáĬ¨áĭļáĭ«áĪĿ": 7339,
      "Ġmshairi": 7340,
      "OR": 7341,
      "arn": 7342,
      "ĠtÃº": 7343,
      "Ġband": 7344,
      "Ġ2017.": 7345,
      "áī¢áĭŃ": 7346,
      "ĠVo": 7347,
      "formation": 7348,
      "Å«": 7349,
      "ists": 7350,
      "-T": 7351,
      "3=": 7352,
      "ek": 7353,
      "atis": 7354,
      "Ġlim": 7355,
      "ĠMaris": 7356,
      "Ġibn": 7357,
      "pakana": 7358,
      "te.": 7359,
      "Ġwasannin": 7360,
      "Ġabubuwan": 7361,
      "41": 7362,
      "mÃł": 7363,
      "kaa": 7364,
      "áĭ«áīĦ": 7365,
      "áĪĪáīłáīµ": 7366,
      "Ġweb": 7367,
      "ĠáĬłáĬŃ": 7368,
      "ĠGomina": 7369,
      "ĠDay": 7370,
      "ĠáĪĪáĭĪ": 7371,
      "ĠáĮ¥áīłáī¥": 7372,
      "áĪĲáĪ´": 7373,
      "ĠgbÃ¡": 7374,
      "ĠAmerica": 7375,
      "ĠáĮ¨áĪĿáĪ®": 7376,
      "ĠfÃŃl": 7377,
      "ĠáĬłáĪµáī°áĭ³áĭ°áĮį": 7378,
      "áīħáĭ«áĬĸáĪµ": 7379,
      "gÃ¬": 7380,
      "Ġpap": 7381,
      "riki": 7382,
      "ĠRÃ©": 7383,
      "imbab": 7384,
      "ÉĹu": 7385,
      "umika": 7386,
      "jenga": 7387,
      "-H": 7388,
      "-d": 7389,
      "ket": 7390,
      "ĠáīłáĮĭ": 7391,
      "Ġáīł16": 7392,
      "ĠáĬłáī¡": 7393,
      "ĠáĪĺáī¥": 7394,
      "áĪĽáī¸áĭį": 7395,
      "fawa": 7396,
      "Ġáĭĺáĭį": 7397,
      "istori": 7398,
      "ĠáĪįáĪĽ": 7399,
      "áĮ½áĭĭáīµ": 7400,
      "ĠáĮĪáĬĵ": 7401,
      "ĠáĪ¥áĮĭ": 7402,
      "Ġ1976": 7403,
      "Ġgbá»įÌģ": 7404,
      "Ġ5,": 7405,
      "issance": 7406,
      "ĠáĬłáĭįáĪ«": 7407,
      "lÃ¬kÃ¬": 7408,
      "Ġáĭ°áĪ´áīµ": 7409,
      "ĠáįĪáĪ¨áĬķáĪ³áĭŃ": 7410,
      "Ã©c": 7411,
      "oshi": 7412,
      "Ġ1988": 7413,
      "ĠBurt": 7414,
      "gori": 7415,
      "hiri": 7416,
      "ĠPan": 7417,
      "Ġshekarun": 7418,
      "stant": 7419,
      "Ġinv": 7420,
      "Ġmuka": 7421,
      "dá»į": 7422,
      "pÃłÃ¡": 7423,
      "ªáĭ«": 7424,
      "Ġáī²": 7425,
      "ĠáĬĲáįĥ": 7426,
      "ĠáĪĺáĪĭ": 7427,
      "ĠáĪĺáĬĸ": 7428,
      "ĠPal": 7429,
      "ester": 7430,
      "áįĬáĭİáī½": 7431,
      "ĠáĪļáĬ«áĬ¤áĪį": 7432,
      "ĠáĬªáĭ³áĬķ": 7433,
      "Ġáīłáī¥áĭĻ": 7434,
      "áīĢáĪĺáĮ«": 7435,
      "ĠáĮłáīħáĪĭáĭŃ": 7436,
      "ĠKÃ¡tÃ³lÃ¬kÃ¬": 7437,
      "ĠfÃŃlmÃ¹": 7438,
      "Ġagain": 7439,
      "Ġmwezi": 7440,
      "ohann": 7441,
      "ĠMarekani.": 7442,
      "Ġtaron": 7443,
      "chukua": 7444,
      "arabci": 7445,
      "Ġsakandare": 7446,
      "Ġhalafu": 7447,
      "dÃ¡n": 7448,
      "ĠÃ©tait": 7449,
      "72": 7450,
      "emble": 7451,
      "Ġ2018.": 7452,
      "áĪ¦": 7453,
      "áĭ°áĪŃáĪµ": 7454,
      "ĠáĪĺáĮĢáĪĺáĪªáĭ«": 7455,
      "ĠIgb": 7456,
      "áĪ«áĭįáĭ«áĬķ": 7457,
      "gbá»įn": 7458,
      "áĮ¥áĬĲáīµ": 7459,
      "ĠáĪĿáĬĴáĪįáĬŃ": 7460,
      "áĮĭáī¢áīµ": 7461,
      "Ġang": 7462,
      "ovuti": 7463,
      "áī¤áī±": 7464,
      "Ġsojo": 7465,
      "Ġá»Įmá»į": 7466,
      "ĠÉĹin": 7467,
      "rÃ¬á¹£Ãł": 7468,
      "Ġ2020,": 7469,
      "Ġtransl": 7470,
      "Ġworld": 7471,
      "ĠIk": 7472,
      "ara,": 7473,
      "ĠWo": 7474,
      "iction": 7475,
      "anguage": 7476,
      "undin": 7477,
      "bor": 7478,
      "ãĤ": 7479,
      "Ġjiki": 7480,
      "olf": 7481,
      "Ġsu.": 7482,
      "gwa": 7483,
      "Ġhizo": 7484,
      "Ġlime": 7485,
      "Ġhaifar": 7486,
      "Ġyears": 7487,
      "Ġtsohuwar": 7488,
      "-áĬ¢": 7489,
      "Ġaure": 7490,
      "Ġdab": 7491,
      "Ġpuis": 7492,
      "áĭ«áĪįáį¢": 7493,
      "áĭ«áĭįáĭ«áĬķ": 7494,
      "áĪ³áĭį": 7495,
      "ument": 7496,
      "ĠáĭĵáĪĭáĪĽ": 7497,
      "ÃłnÃł": 7498,
      "Ġáº¹bÃŃ": 7499,
      "Ġáĭ¨áĪĺáĮ£": 7500,
      "ĠáĪĬáĪĨáĬķ": 7501,
      "Ġáĭķáĭį": 7502,
      "ryen": 7503,
      "ĠolÃ³Ã²": 7504,
      "ĠáĪľáĭ³": 7505,
      "Pope": 7506,
      "Ø³": 7507,
      "gaba": 7508,
      "otes": 7509,
      "ĠInstitute": 7510,
      "Ġph": 7511,
      "Ġl'in": 7512,
      "Ġhab": 7513,
      "Ġhannun": 7514,
      "pha": 7515,
      "sy": 7516,
      "fÃ©": 7517,
      "ĠÙ": 7518,
      "áº¹áº¹ráº¹": 7519,
      "áĪĿáīłáĪŃ": 7520,
      "áī³áĪĿ": 7521,
      "gbáº¹ÌĢ": 7522,
      "ĠáĭĪáĭĺ": 7523,
      "Ġáĭ«áĭį": 7524,
      "áīłáĪ®": 7525,
      "áĬķáĭµáĪµáĬĵ": 7526,
      "áĬķáĮįáĪµáīµ": 7527,
      "áī¹áĬķ": 7528,
      "áĮĥáĭĿáĪĽáī½": 7529,
      "nÃ¬s": 7530,
      "ĠáĮ¸áĪĲáįĬ": 7531,
      "ĠáīłáĪŃáĬ«áī³": 7532,
      "ĠáĬłáĪµáī°áĭ³áĭ°áĪŃ": 7533,
      "ĠPÃ³pÃ¹": 7534,
      "59": 7535,
      "Shi": 7536,
      "fáº¹": 7537,
      "ĠBC": 7538,
      "pande": 7539,
      "ĠRec": 7540,
      "Ġ2006,": 7541,
      "ĠAlexander": 7542,
      "NA": 7543,
      "Ġfur": 7544,
      "ĠCi": 7545,
      "ĠEr": 7546,
      "500": 7547,
      "190": 7548,
      "ĠÂ».": 7549,
      "áĬ»": 7550,
      "áĪįáĬĵ": 7551,
      "áĬĲáĮĪ": 7552,
      "irar": 7553,
      "áīłáĬłáĪ": 7554,
      "áį¡áĬł": 7555,
      "Ġ1982": 7556,
      "áĮ»áįį": 7557,
      "ĠáĬ¢áĬķ": 7558,
      "ĠlÃ¡Ãłrin": 7559,
      "Ġari": 7560,
      "Ġganin": 7561,
      "omm": 7562,
      "ariya": 7563,
      "Ġharkokin": 7564,
      "Ġambazo": 7565,
      "Ġjamii": 7566,
      "Ġkuliko": 7567,
      "Ġnatur": 7568,
      "atre": 7569,
      "ĠpremiÃ¨re": 7570,
      "ĠWash": 7571,
      "papa": 7572,
      "Ð½": 7573,
      "sili": 7574,
      "ĠJon": 7575,
      "ĠHistory": 7576,
      "koki": 7577,
      "Ġaro": 7578,
      "Ġ1967": 7579,
      "áĮ©": 7580,
      "áī¥áĬĽ": 7581,
      "áĪ¨áįĪ": 7582,
      "usan": 7583,
      "ĠJáº¹Ìģ": 7584,
      "osentomon": 7585,
      "Ġuko": 7586,
      "áĭ²áĪ±": 7587,
      "Ġkanta": 7588,
      "áĪ¬áĬķ": 7589,
      "Ġ1984": 7590,
      "ĠáĬªáĪİ": 7591,
      "ĠKamusi": 7592,
      "ĠáĬłáĭµáĪŃáĮİ": 7593,
      "ĠáĪļáĬĴáĪµáīµáĪŃ": 7594,
      "Ġ(d.": 7595,
      "su.": 7596,
      "ded": 7597,
      "ĠÉĵ": 7598,
      "Ġinu": 7599,
      "Ġkudancin": 7600,
      "Ġ5.": 7601,
      "ĠIslam": 7602,
      "Ġimani": 7603,
      "ĠAngel": 7604,
      "Ġnufin": 7605,
      "Ġfitar": 7606,
      "]]": 7607,
      "kuna": 7608,
      "ĠáĬ¦áĪŃ": 7609,
      "Ġphilosop": 7610,
      "áĬĲáĪ£": 7611,
      "ĠÃ¬gbÃ¬má»įÌĢ": 7612,
      "Ġáĭ¨áĪļáī£áĪį": 7613,
      "áĪĬáĭ«áĬķ": 7614,
      "Ġhigh": 7615,
      "áĪµáī°áĪŃ": 7616,
      "ĠSchool,": 7617,
      "ĠáĪŃáĭķ": 7618,
      "ĠáĬłáĪĽáĬ«": 7619,
      "ĠáĬĹáĪª": 7620,
      "Ġáīłáī°áĪĪáĭŃáĪĿ": 7621,
      "ĠáĮ½áĪķáįĪáīµ": 7622,
      "ĠMc": 7623,
      "hil": 7624,
      "tat": 7625,
      "Ġtawa": 7626,
      "iken": 7627,
      "ried": 7628,
      "Ġloc": 7629,
      "Ġ1974": 7630,
      "limia": 7631,
      "Ġ2019.": 7632,
      "Ïģ": 7633,
      "Ġcas": 7634,
      "Ġwit": 7635,
      "tains": 7636,
      "Ġkuta": 7637,
      "Ġkutumia": 7638,
      "ĠTsa": 7639,
      "Ġhivi": 7640,
      "ĠWaislamu": 7641,
      "áĪĲáĭŃ": 7642,
      "Far": 7643,
      "tra": 7644,
      "lement": 7645,
      "other": 7646,
      "Ġplay": 7647,
      "áº¹áº¹": 7648,
      "ĠMoro": 7649,
      "ĠáĭĪáĮ£": 7650,
      "áĭ¨áĬłáĪ": 7651,
      "ĠáĬ¥áĬķáĭµ": 7652,
      "áĮ£áĪª": 7653,
      "bujoko": 7654,
      "ĠáīłáĪĺáĪµ": 7655,
      "ĠáĪĻáĭļáīĥ": 7656,
      "lá»įÌģwá»įÌģ": 7657,
      "tumÃ²": 7658,
      "ĠáĪĨáĬĸáĪĿ": 7659,
      "ĠáĮĪáĬķáĭĺáī¥": 7660,
      "Ġtáº¹lifÃŃ": 7661,
      "Ġmit": 7662,
      "eren": 7663,
      "yr": 7664,
      "Ġkis": 7665,
      "Ġwame": 7666,
      "ĠMwaka": 7667,
      "Ġika": 7668,
      "veau": 7669,
      "arufu": 7670,
      "Ġwatsa": 7671,
      "holanzi": 7672,
      "AC": 7673,
      "don": 7674,
      "firi": 7675,
      "ĠMiss": 7676,
      "Ġmen": 7677,
      "Ġgan": 7678,
      "Ġ2009,": 7679,
      "bá»įÌģá»įÌĢlÃ¹": 7680,
      "Ġoju": 7681,
      "áĭ°áĮĪ": 7682,
      "áĮįáĬĺáīµ": 7683,
      "emu": 7684,
      "Ġáĭ°áĮĭ": 7685,
      "ĠáĪģáĪīáĪĿ": 7686,
      "áį²áį±áį»áį¶áį": 7687,
      "áĪĽáĭŃáĪµáĮ¥": 7688,
      "ĠáĪļáĬĴáĪµáī´": 7689,
      "ĠáĭµáĬķáĮĭáĭŃ": 7690,
      "ĠMet": 7691,
      "Ġnahiyar": 7692,
      "ĠBÃŃ": 7693,
      "Ġhayo": 7694,
      "Ġhttp://": 7695,
      "xim": 7696,
      "ĠImo": 7697,
      "Ġ1986": 7698,
      "fano": 7699,
      "ÏĤ": 7700,
      "ĠApp": 7701,
      "Duk": 7702,
      "Lo": 7703,
      "hind": 7704,
      "Ġ(2004)": 7705,
      "74": 7706,
      "Yana": 7707,
      "fik": 7708,
      "site": 7709,
      "uko": 7710,
      "uve": 7711,
      "ĠkÃ¡Ãł": 7712,
      "Ġmengi": 7713,
      "áĪĿáĪĮ": 7714,
      "áĪįáĪĿáĬĵ": 7715,
      "ĠpÃŃn": 7716,
      "Ġtaba": 7717,
      "ĠGasar": 7718,
      "áĮĭáĪª": 7719,
      "ĠÃĮjáº¹ÌĢ": 7720,
      "Ġaskofu": 7721,
      "Ġáº¹ÌĢsÃ¬n": 7722,
      "áī¦áĪŃ": 7723,
      "wiwa": 7724,
      "dÃŃnlá»įÌģgbá»įÌĢn": 7725,
      "Ġtáº¹ÌģnÃ¬s": 7726,
      "Ġcalled": 7727,
      "tes": 7728,
      "Ġowo": 7729,
      "jumo": 7730,
      "52": 7731,
      "dua": 7732,
      "Ġhttp://www.": 7733,
      "Par": 7734,
      "ĠLatin": 7735,
      "Ġvers": 7736,
      "ĠVita": 7737,
      "ours": 7738,
      "Ġplusieurs": 7739,
      "ĠArgent": 7740,
      "Ġsaman": 7741,
      "Ġyear": 7742,
      "bÃ¬": 7743,
      "Ġtur": 7744,
      "Ġdro": 7745,
      "á»įlÃ¡": 7746,
      "Ġ(áĬłáĪ": 7747,
      "áĪĪáĪ°": 7748,
      "áĭ°áĮĭ": 7749,
      "áĪ«áĪª": 7750,
      "áī³áĪªáĬŃ": 7751,
      "áī£áī±": 7752,
      "andan": 7753,
      "áĮ¥áĪ¨áīµ": 7754,
      "áĬ«áĬķ": 7755,
      "áĭĭáĪŃáĭ«": 7756,
      "áĭĿáĬĵ": 7757,
      "áī²áīµ": 7758,
      "ĠáĪķáĭŃáĭĪáīµ": 7759,
      "jÃłkÃ¡láº¹ÌĢ": 7760,
      "Ġnumber": 7761,
      "Ġjulá»į": 7762,
      "ict": 7763,
      "Ġprogram": 7764,
      "angwa": 7765,
      "enegal": 7766,
      "17)": 7767,
      "Ġlors": 7768,
      "ison": 7769,
      "Ġsabon": 7770,
      "jejen": 7771,
      "ĠÉĹari": 7772,
      "istrict": 7773,
      "ĠMisri": 7774,
      "Ġ(13": 7775,
      "position": 7776,
      "ĠAustria": 7777,
      "pÃ³": 7778,
      "áĮĲ": 7779,
      "áĭįáĬĵ": 7780,
      "áī½áĪī": 7781,
      "ĠáĬłáĭĪ": 7782,
      "áĭ°áī¡áī¥": 7783,
      "ĠáĪĺáī¥áīµ": 7784,
      "Ġá»įpá»įlá»į": 7785,
      "ĠáĪµáī´": 7786,
      "áĭļáĭ«áĬķ": 7787,
      "stan": 7788,
      "ĠáĬĲáīłáĪŃáį¡áį¡": 7789,
      "áĮ¨áīµ": 7790,
      "ĠáįĬáĪį": 7791,
      "ÃĪyÃŃ": 7792,
      "Ġ(áĭĪáĭŃáĪĿ": 7793,
      "html": 7794,
      "Ġ(10": 7795,
      "andika": 7796,
      "ĠPor": 7797,
      "Ġthree": 7798,
      "ĠCongress": 7799,
      "ÉĹi": 7800,
      "Ġiyaka": 7801,
      "ĠMk": 7802,
      "Bi": 7803,
      ")áį¢": 7804,
      "dÃ¬ÃŃ": 7805,
      "jÃ¨": 7806,
      "ission": 7807,
      "ĠáĮĵ": 7808,
      "áĪ«áĬĴ": 7809,
      "ĠÃ¬s": 7810,
      "ĠAngo": 7811,
      "Ġáīłáī°áĪĪáĭ«áĭ©": 7812,
      "ĠáīłáĬłáĭ²áĪµ": 7813,
      "ĠáįįáīħáĪŃ": 7814,
      "ĠáĬłáĪįáįĭ": 7815,
      "Ġáĭ¨áĬĲáīłáĪ©": 7816,
      "Ġáī¤áī°áĬŃáĪŃáĪµáī²áĭ«áĬķ": 7817,
      "Ġáĭ¨áįĸáĪĪáī²áĬ«": 7818,
      "kas": 7819,
      "dic": 7820,
      "ĠYou": 7821,
      "onyesha": 7822,
      "Ġcibiyar": 7823,
      "Ġtabbatar": 7824,
      "yahudi": 7825,
      "-F": 7826,
      "-N": 7827,
      "Ce": 7828,
      "à¥": 7829,
      "isme": 7830,
      "ĠÃį": 7831,
      "Ġmain": 7832,
      "Ġ70": 7833,
      "Ġzar": 7834,
      "BÃ¡": 7835,
      "Jihar": 7836,
      "zungu": 7837,
      "ĠáĬĶ": 7838,
      "ĠsÃ³": 7839,
      "Ġáĭ¨áĭķ": 7840,
      "Ġcou": 7841,
      "áĭ«áīµ": 7842,
      "ĠSho": 7843,
      "ĠáīłáĪ®": 7844,
      "áĬ«áĭµ": 7845,
      "áįĪáĪ«": 7846,
      "Ġmatu": 7847,
      "ĠilÃ©-Ã¬wÃ©": 7848,
      "ĠáĪķáĮį": 7849,
      "ambia": 7850,
      "áį²áį±áį»áį·áį": 7851,
      "fÃŃrÃŃkÃł": 7852,
      "Babban": 7853,
      "ice": 7854,
      "Ġhuwa": 7855,
      "ection": 7856,
      "duction": 7857,
      "ĠUniversity,": 7858,
      "inin": 7859,
      "bai": 7860,
      "Nchi": 7861,
      "Ġgro": 7862,
      "Ġ1979": 7863,
      "Ġ(2015": 7864,
      "Ġgirm": 7865,
      "Ġnotamment": 7866,
      "Hivyo": 7867,
      "Ġgargajiya": 7868,
      "m.": 7869,
      "Ġnord": 7870,
      "liya": 7871,
      "Ã¡Ã¡jÃº": 7872,
      "ĠáīłáĭļáĪģ": 7873,
      "ĠSol": 7874,
      "Ġá»įgá»įÌģ": 7875,
      "áĭĿáī¡": 7876,
      "Ġáº¹gbáº¹": 7877,
      "ĠáīłáĪĺáĮ¨áĪ¨áĪ»": 7878,
      "Ġ1992": 7879,
      "man,": 7880,
      "ĠáĬłáĬķáĭ°": 7881,
      "tÃłrÃŃ": 7882,
      "ĠáįĬáĭ°": 7883,
      "áĮĪáĪĪáĮį": 7884,
      "ĠáĪªáįĲáī¥áĪĬáĬŃ": 7885,
      "ĠáīłáĭĵáĪĪáĪĿ": 7886,
      "ĠáĮłáĪĭ": 7887,
      "Dans": 7888,
      "enza": 7889,
      "emia": 7890,
      "ĠGroup": 7891,
      "Ġfamilia": 7892,
      "ois": 7893,
      "Ġaz": 7894,
      "bel": 7895,
      "un.": 7896,
      "Ġfond": 7897,
      "Ġjumla": 7898,
      "Ġconstru": 7899,
      "Ġyanayi": 7900,
      "Ġ(2016": 7901,
      "Ġlittafin": 7902,
      "áĪĿáĪµ": 7903,
      "ans,": 7904,
      "ĠSahara": 7905,
      "86": 7906,
      "dáº¹Ìģ": 7907,
      "áī°áĬŀáī½": 7908,
      "áĪħáĪŃ": 7909,
      "si.": 7910,
      "ulin": 7911,
      "ĠáĮįáĪ«": 7912,
      "Ġáĭ¨áī°áīĢ": 7913,
      "áĪĬáĪµ": 7914,
      "áĭĵáĪĪáĪĿ": 7915,
      "ĠáĬ¢áĭ¨áĪ±áĪµ": 7916,
      "Ġperson": 7917,
      "toni": 7918,
      "to.": 7919,
      "Ġkan,": 7920,
      "ĠFound": 7921,
      "imbabwe": 7922,
      "tin": 7923,
      "Ġ(3": 7924,
      "Ġriki": 7925,
      "Ġsakamakon": 7926,
      "rise": 7927,
      "Ġ1978": 7928,
      "ĠCalifor": 7929,
      "ĠDelta": 7930,
      "85": 7931,
      "onin": 7932,
      "illar": 7933,
      "ĠPeter": 7934,
      "Ġáĭ¨áĮ¦áĪŃ": 7935,
      "ĠáīłáĬŃ": 7936,
      "áĪĪáĪį": 7937,
      "áįįáī°áĬĽ": 7938,
      "áĭ³áĭĬ": 7939,
      "ĠáĬĲáĭįáį¤": 7940,
      "ĠáĮįáĪį": 7941,
      "Ġáĭ°áĪŃ": 7942,
      "Ġáĭ°áī¥áĪ¨": 7943,
      "áĬĶáīµ": 7944,
      "Ġáĭ¨áĬłáĪŃ": 7945,
      "ĠáĪħáĮį": 7946,
      "ĠáīłáĬłáĪľáĪªáĬ«": 7947,
      "Ġpoint": 7948,
      "Ġkáº¹Ìģká»įÌĢá»įÌģ": 7949,
      "ĠKwam": 7950,
      "Ġtaifa": 7951,
      "umm": 7952,
      "ĠLaw": 7953,
      "Ġmakao": 7954,
      "ĠBiblia": 7955,
      "-J": 7956,
      "Ġ$": 7957,
      "Ġ1983": 7958,
      "Ġ1966": 7959,
      "Ġimport": 7960,
      "amare": 7961,
      "Ġtradition": 7962,
      "ffa": 7963,
      "ĠKol": 7964,
      "ĠChe": 7965,
      "ĠPhili": 7966,
      "ĠRos": 7967,
      "ellement": 7968,
      "Ġgiga": 7969,
      "Orodha": 7970,
      "wÃ¬": 7971,
      "ĠáĮ»": 7972,
      "ĠáĬ¥áĮ½áĭĭáīµ": 7973,
      "ĠáĬłáĭ°áĪ¨áĮĪ": 7974,
      "ĠÃłká»į": 7975,
      "áĬĲáĭĵáĬķ": 7976,
      "áĪ³áī¸áĭįáĬķ": 7977,
      "ĠáīłáĪ±": 7978,
      "Ġáĭ¨áĪ¶": 7979,
      "jiji": 7980,
      "áĪ®áĪŀ": 7981,
      "áĭ®áīµ": 7982,
      "Ġ2010.": 7983,
      "anne": 7984,
      "ĠáĬ¥áĬķáĭ°áĬĲáīłáĪŃ": 7985,
      "áĬĴáīµ": 7986,
      "ĠRound)": 7987,
      "ĠáĬłáĪµáī°áĭĭ": 7988,
      "Ġmajor": 7989,
      "Ġjiho": 7990,
      "áĪµáī³áĬķ": 7991,
      "Ġkawai": 7992,
      "ĠáĬ¥áĬķáĬ³áĬķ": 7993,
      "ĠáĭĪáĭĺáī°": 7994,
      "Ġnkan": 7995,
      "ĠIra": 7996,
      "ĠB.": 7997,
      "attle": 7998,
      "zani": 7999,
      "ate,": 8000,
      "edia": 8001,
      "ull": 8002,
      "Ġmats": 8003,
      "ĠInternet": 8004,
      "ode": 8005,
      "sha": 8006,
      "Ġkuj": 8007,
      "ĠHam": 8008,
      "Ġshafi": 8009,
      "Ġwanao": 8010,
      "jÃ¬n": 8011,
      "áĭįáĪµ": 8012,
      "li.": 8013,
      "ĠKari": 8014,
      "Ġnitori": 8015,
      "ĠáīłáĪ³": 8016,
      "áĬ«áĪŃ": 8017,
      "Ġáĭ¨áī°áĬĲáĪ³": 8018,
      "áīłáīµáį¢": 8019,
      "ĠáĭŃáĮĪáĪĺ": 8020,
      "ĠlÃ¡ÃłrÃŃn": 8021,
      "yáº¹ÌĢwÃ²": 8022,
      "Ġsitu": 8023,
      "Ġmanu": 8024,
      "ĠPoli": 8025,
      "ultani": 8026,
      "pl": 8027,
      "zung": 8028,
      "Ġhana": 8029,
      "gg": 8030,
      "Ġfadin": 8031,
      "Ġkufuatana": 8032,
      "Ġkiasi": 8033,
      "Ġbiyu,": 8034,
      "ĠFrancis": 8035,
      "ĠKasuwan": 8036,
      "III": 8037,
      "Ġfina-finai": 8038,
      "gemea": 8039,
      "Ġnou": 8040,
      "-áº¹": 8041,
      "fund": 8042,
      "páº¹Ìģ": 8043,
      "áĮ®": 8044,
      "Ġáĭ¨áįĪáĪ¨áĬķáĪ³áĭŃ": 8045,
      "áĭįáĪį": 8046,
      "ĠNet": 8047,
      "ĠáĪĺáī³": 8048,
      "áį¡áī°": 8049,
      "Ġearly": 8050,
      "Ġenc": 8051,
      "istry": 8052,
      "ĠáĮīáĪį": 8053,
      "áĪłáī¥": 8054,
      "áĪĺáĪĪáĪµ": 8055,
      "Hasa": 8056,
      "s)": 8057,
      "Ġdid": 8058,
      "tanga": 8059,
      "95": 8060,
      "Ġdest": 8061,
      "Ġmv": 8062,
      "amini": 8063,
      "ituo": 8064,
      "Waliofariki": 8065,
      "omp": 8066,
      "rich": 8067,
      "ĠChristian": 8068,
      "mir": 8069,
      "Ġmade": 8070,
      "ama,": 8071,
      "Ġ2007,": 8072,
      "vice": 8073,
      "-á»į": 8074,
      "táº¹": 8075,
      "Ġsign": 8076,
      "Ġáĭ¨áįĭ": 8077,
      "áĪµáī²": 8078,
      "ĠKur": 8079,
      "áĪĽáĪįáį¢": 8080,
      "áĭ¨áĬķ": 8081,
      "áĪ´áīµ": 8082,
      "ĠyÃ¬ÃŃ.": 8083,
      "ĠáīłáĪ°áĪľáĬķ": 8084,
      "ĠFrank": 8085,
      "ĠáĭĺáĪĺáī»": 8086,
      "ĠáĪĺáĭĭáĭķáĪį": 8087,
      "ĠtÃ©": 8088,
      "ery": 8089,
      "Ġyakin": 8090,
      "Ġzaune": 8091,
      "ĠKifaransa": 8092,
      "Ġyawancin": 8093,
      "97": 8094,
      "ĠHindi": 8095,
      "ia.org/": 8096,
      "ril": 8097,
      "ĠDon": 8098,
      "hird": 8099,
      "Tari": 8100,
      "ÏĦ": 8101,
      "lit": 8102,
      "Ġpor": 8103,
      "B.": 8104,
      "áĭ¢": 8105,
      "Ġdashi": 8106,
      "Ġrike": 8107,
      "ĠáĬłáĪ¥": 8108,
      "áĬ¨áĪ°": 8109,
      "Ġvit": 8110,
      "ĠáĮ¥áĭ«áīĦ": 8111,
      "kÃ²rÃ²": 8112,
      "Ġwadannan": 8113,
      "ĠáīłáĪĮáĪĭ": 8114,
      "ĠáĪµáī¥áĪµáī¥": 8115,
      "ĠáĪĬáīĥáĭįáĬķáīµ": 8116,
      "andard": 8117,
      "Ġsuc": 8118,
      "ĠâĢİ": 8119,
      "Ġlangue": 8120,
      "son,": 8121,
      "Ġwell": 8122,
      "bour": 8123,
      "ĠAlf": 8124,
      "endera": 8125,
      "ii": 8126,
      "Ġsci": 8127,
      "Ġsour": 8128,
      "ĠIlu": 8129,
      "ton,": 8130,
      "Ġmy": 8131,
      "Ġ2008,": 8132,
      "Ġ1977": 8133,
      "Ġakiwa": 8134,
      "wikiped": 8135,
      "-Ã²": 8136,
      "ÉĻ": 8137,
      "Ġphysi": 8138,
      "áĭŃáīħ": 8139,
      "ĠwÃ²": 8140,
      "áĭ°áĪŃáĮī": 8141,
      "áĮĪáĭĽ": 8142,
      "Ġáī°áĪĽáĪª": 8143,
      "ĠáĮįáĪªáĬŃ": 8144,
      "Ġáĭ¨áī°áĭĪáĪ°": 8145,
      "ĠÅĦlÃ¡": 8146,
      "áī³áĭĪáīħ": 8147,
      "ĠChurch": 8148,
      "ĠáĪ¥áĪŃáĭĵáīµ": 8149,
      "ĠmÃºláº¹ÌĢ": 8150,
      "tumÃ²:": 8151,
      "ghu": 8152,
      "ilÃ©": 8153,
      "Ġforme": 8154,
      "Ġbeing": 8155,
      "Ġ1950": 8156,
      "Ġ1918": 8157,
      "Ġ1965": 8158,
      "GB": 8159,
      "atsayin": 8160,
      "ana.": 8161,
      "ĠOko": 8162,
      "ente": 8163,
      "ĠHenry": 8164,
      "ti.": 8165,
      "sible": 8166,
      "sitÃ¬": 8167,
      "Ġáĭĳ": 8168,
      "áĪµáĪĬ": 8169,
      "áĪµáī³áīµ": 8170,
      "lai": 8171,
      "áĬ«áīµ": 8172,
      "ĠáĪµáī¥": 8173,
      "Ġáĭ¨áĬłáĪĪáĪĿ": 8174,
      "ĠparÃŃ": 8175,
      "gbÃ©sÃŃ": 8176,
      "áįīáīµ": 8177,
      "Ġáī°áĭĪáĪĪáĭ°": 8178,
      "ĠáĬłáĭįáĪ®áįĵ": 8179,
      "ĠáĪĺáĬĲáĪ»": 8180,
      "Ġtáº¹Ìģláº¹ÌĢ.": 8181,
      "ĠBorno": 8182,
      "ĠLouis": 8183,
      "ĠDunia": 8184,
      "artar": 8185,
      "Ġjiha": 8186,
      "ywa": 8187,
      "Ġkupi": 8188,
      "mah": 8189,
      "bi.": 8190,
      "ci.": 8191,
      "undun": 8192,
      "Ġyanke": 8193,
      "Ġ(2006)": 8194,
      "ĠWatakatifu": 8195,
      "Ġnational": 8196,
      "athan": 8197,
      "ĠIt": 8198,
      "ĠWin": 8199,
      "ine.": 8200,
      "gement": 8201,
      "ĠpÃºpá»įÌĢ": 8202,
      "áĭŃáĪŃáĪĭáĬķáĭµ": 8203,
      "ĠáĪĺáīĢáĪĺáĮ«": 8204,
      "sid": 8205,
      "áĪŀáĬķ": 8206,
      "áī¡áĪŃ": 8207,
      "ĠáīħáĬĿ": 8208,
      "ories": 8209,
      "ĠgbÃ³": 8210,
      "áĪ£áĭŃ": 8211,
      "áĪµáī°áĬĽáĭį": 8212,
      "Ã³nÃł": 8213,
      "Ġcontinu": 8214,
      "Ġoluko": 8215,
      "ĠáĪ½áĪį": 8216,
      "rÃ¡lÃŃÃł": 8217,
      "Ġáĭ¶áĪ®": 8218,
      "ĠáĭŃáĪĨáĬĵáĪį": 8219,
      "ĠCentral": 8220,
      "Ġoruko": 8221,
      "ĠáĪĺáĪ£áĪªáĭ«": 8222,
      "ĠStudi": 8223,
      "ĠUm": 8224,
      "Ġzane": 8225,
      "fai": 8226,
      "Ġchama": 8227,
      "Ġdepuis": 8228,
      "Ġ(c": 8229,
      "ĠSta": 8230,
      "ĠOm": 8231,
      "uter": 8232,
      "ĠFe": 8233,
      "ĠaprÃ¨s": 8234,
      "ĠMartin": 8235,
      "kere": 8236,
      "arra": 8237,
      "ĠKid": 8238,
      "Ġlau": 8239,
      "ĠGovernment": 8240,
      "sions": 8241,
      "ĠAnti": 8242,
      "Ġcompos": 8243,
      "ĠSalaam": 8244,
      "Ġsanar": 8245,
      "áī°áį¡": 8246,
      "áī°áĭ³": 8247,
      "áĭ°áĬķáīµ": 8248,
      "áĪĭáĮħ": 8249,
      "áī£áī£": 8250,
      "ĠGÃºÃºsÃ¹": 8251,
      "ĠJina": 8252,
      "áīłáĪ»": 8253,
      "Ġzo": 8254,
      "áĪ©áĬŃ": 8255,
      "otun": 8256,
      "áĭķáīĨ": 8257,
      "áĭ©áīµ": 8258,
      "ĠáĬłáĪįáįİ": 8259,
      "Ġáĭ¨áĬ¥áĬķáĮįáĪĬáĭĿ": 8260,
      "Ġáī°áīĢáĪĿ": 8261,
      "ĠáĮ¨áĭĭ": 8262,
      "ĠAustrÃ¡lÃŃÃł": 8263,
      "ĠkÃºkur": 8264,
      "Ġinganta": 8265,
      "ĠkÃºkurÃº": 8266,
      "ĠfÃ©": 8267,
      "lob": 8268,
      "Ġkeje": 8269,
      "kunrin": 8270,
      "Ġast": 8271,
      "ĠAle": 8272,
      "uses": 8273,
      "ĠMohammed": 8274,
      "Ġyasa": 8275,
      "Ġimo": 8276,
      "ĠWab": 8277,
      "Ġtenis": 8278,
      "x,": 8279,
      "Ġkuzaliwa": 8280,
      "ĠLife": 8281,
      "Ġsiyasan": 8282,
      "Ġjami'ar": 8283,
      "Kuma": 8284,
      "Ġbangaren": 8285,
      "chunguza": 8286,
      "ked": 8287,
      "áĬķáĪ°": 8288,
      "áĬķáĬ«": 8289,
      "áĪįáį¤": 8290,
      "áĬĲáĮį": 8291,
      "áīłáĭ«": 8292,
      "dian": 8293,
      "áįįáī°": 8294,
      "áīħáĪį": 8295,
      "ado": 8296,
      "ĠkarÃ¹n": 8297,
      "ĠáĬĲáīłáĪŃáį¤": 8298,
      "Ġ1973": 8299,
      "ĠáĪµáĪĿáĪĿáĬĲáīµ": 8300,
      "kÃ²Ã³": 8301,
      "ĠáĪĺáĬķáĮĪ": 8302,
      "ĠáĬ¨áĬłáĬķáĭµ": 8303,
      "áĪŃáĪ±áĪĿ": 8304,
      "ĠáĭŃáī³áĪĺáĬĵ": 8305,
      "ĠSir": 8306,
      "Ġkeji": 8307,
      "ĠSecond": 8308,
      "ĠFederal": 8309,
      "ser": 8310,
      "ĠKon": 8311,
      "Ġ36": 8312,
      "ĠCommun": 8313,
      "wiki/": 8314,
      "by": 8315,
      "iyar": 8316,
      "ĠCiv": 8317,
      "Ġhaya": 8318,
      "Ġ2013.": 8319,
      "ĠUsw": 8320,
      "ĠSarkin": 8321,
      "Ġofficial": 8322,
      "hat": 8323,
      "ĠAbe": 8324,
      "rÃ©sent": 8325,
      "lot": 8326,
      "me,": 8327,
      "áī¿": 8328,
      "ĠáĭĬ": 8329,
      "Ġmam": 8330,
      "Ġáĭ¨áĪ«": 8331,
      "Ġáĭ¨áĮİ": 8332,
      "Ġáĭ¨áĪĺáĬķ": 8333,
      "ĠáĪĺáīĢ": 8334,
      "Ġ1920": 8335,
      "ĠTrans": 8336,
      "ĠÃ¬wÃ¡": 8337,
      "Ġáī°áĮĪáĬĿ": 8338,
      "Ġá»įká»įÌĢ": 8339,
      "ĠáīłáĪ¶": 8340,
      "ĠáĭĪáĭ²áĭ«": 8341,
      "áīĢáĪĿ": 8342,
      "Ġáĭ«áĭ°áĪŃ": 8343,
      "ĠáĪĽáĪ¨": 8344,
      "áī¶áĭ¶": 8345,
      "ĠÃĢyá»įkÃł": 8346,
      "ĠsÃŃnÃº": 8347,
      "ĠáĪ¥áĪįáĮ£áĬķ": 8348,
      "Ġ1971": 8349,
      "áĪķáĪį": 8350,
      "áĪ£áĪ¥": 8351,
      "land,": 8352,
      "à¤ĺ": 8353,
      "áįİáĪŃ": 8354,
      "ĠonÃŃmá»įÌĢ": 8355,
      "áī¥áĪ¨áī°": 8356,
      "ĠÃģfÃŃrÃŃkÃł": 8357,
      "ĠÃ¬lera": 8358,
      "Ġfada": 8359,
      "ĠDara": 8360,
      "'o": 8361,
      "ds": 8362,
      "ip": 8363,
      "nÃ©": 8364,
      "uel": 8365,
      "onia": 8366,
      "ĠP.": 8367,
      "ĠAfrilu": 8368,
      "cus": 8369,
      "Ġnoma": 8370,
      "54": 8371,
      "anth": 8372,
      "xford": 8373,
      "ĠNic": 8374,
      "Ġáī£áĪħáĪį": 8375,
      "ĠáĪĿáĬŃáĪŃ": 8376,
      "áĪ¨áĮĭáĮĪ": 8377,
      "áĬ¥áĬķáĭ²áĪģáĪĿ": 8378,
      "Ġáī°áĮ«áĭĭ": 8379,
      "Ġcri": 8380,
      "áĪŃáīµáĪ«": 8381,
      "Ġtsakiyar": 8382,
      "Ġnasarar": 8383,
      "NN": 8384,
      "resent": 8385,
      "yÃ²": 8386,
      "ËĪ": 8387,
      "Ġtir": 8388,
      "Ġsame": 8389,
      "ĠIya": 8390,
      "ĠOsu": 8391,
      "illes": 8392,
      "Ġ1985": 8393,
      "fÃº": 8394,
      "tto": 8395,
      "áī®": 8396,
      "ined": 8397,
      "Ġkisi": 8398,
      "Ġsyn": 8399,
      "ĠMji": 8400,
      "áĪĪáĪµ": 8401,
      "áī½áĬ¹": 8402,
      "Ġgidi": 8403,
      "Ġruwan": 8404,
      "áī¥áī»": 8405,
      "áĭ¨áĪµ": 8406,
      "áĭ¨áĬ¢áīµáĭ®áĮµáĭ«": 8407,
      "Ġuwan": 8408,
      "Ġáĭ¨áī°áĭĪáĪĪ": 8409,
      "Ġkananan": 8410,
      "áĪģáįį": 8411,
      "»áįī": 8412,
      "wamna": 8413,
      "engwa": 8414,
      "Ġulikuwa": 8415,
      "áĭ¥áĬķ": 8416,
      "Ġáī°áĪ«áĪ®áī½": 8417,
      "ĠÃłmÃ¬-áº¹ÌĢyáº¹": 8418,
      "Ġáīłáī³áĪªáĬŃ": 8419,
      "ĠdiffÃ©r": 8420,
      "istoire": 8421,
      "Ġmillion": 8422,
      "ĠáĬłáĪµáįĪáĪĭáĮĬ": 8423,
      "ĠáĭŃáĮĪáĪĺáī³áĪįáį¢": 8424,
      "-c": 8425,
      "uren": 8426,
      "keji": 8427,
      "Ġany": 8428,
      "Ġexemp": 8429,
      "ĠRes": 8430,
      "Kar": 8431,
      "Ã£": 8432,
      "ĠBak": 8433,
      "ĠZe": 8434,
      "ĠSenegal": 8435,
      "ĠCap": 8436,
      "Ġhalin": 8437,
      "Ġhaki": 8438,
      "Ġzabe": 8439,
      "Ġkiongozi": 8440,
      "Ġjam'iyyar": 8441,
      "Mar": 8442,
      "yáº¹Ìģ": 8443,
      "zza": 8444,
      "assi": 8445,
      "ĠSab": 8446,
      "áĬŃáĬĸ": 8447,
      "omini": 8448,
      "Ġyáº¹": 8449,
      "áīĢáĮ½": 8450,
      "áĭĪáĪ¨": 8451,
      "ĠáĪ°áĪĽ": 8452,
      "ĠáĭµáĬķáĮįáĪį": 8453,
      "ĠáĬķáĮ¥áĪ¨": 8454,
      "áĬķáĮīáĪł": 8455,
      "ĠáĭŃáĮĪáĬĽáĪīáį¢": 8456,
      "áĬĺáĭį": 8457,
      "ange": 8458,
      "ĠChuo": 8459,
      "ĠL'": 8460,
      "ulus": 8461,
      "07": 8462,
      "Ðº": 8463,
      "ĠDevelopment": 8464,
      "ĠDin": 8465,
      "Ġkakar": 8466,
      "ungano": 8467,
      "Ġdukkan": 8468,
      "ĠTuranci": 8469,
      "badili": 8470,
      "Ġjusqu": 8471,
      "Ġcre": 8472,
      "ĠSoma": 8473,
      "husi": 8474,
      "yÃ¬": 8475,
      "Ġsing": 8476,
      "Ġáĭ¨áĭļáĪħ": 8477,
      "Ġáĭ¨áī´": 8478,
      "ĠáīłáĮ¥áĬķáī³áĭĬ": 8479,
      "time": 8480,
      "áĬĲáĪµ": 8481,
      "áī¥áĪĭ": 8482,
      "usha": 8483,
      "ĠBern": 8484,
      "ĠáĬ¨áĭĺ": 8485,
      "ĠÃ¬dÃł": 8486,
      "rian": 8487,
      "Ġáī°áī£áĪĪ": 8488,
      "ĠPasi": 8489,
      "Ã²gÃ¹n": 8490,
      "Ġáĭ«áĪµáī°": 8491,
      "áī±áĪŃáĬŃ": 8492,
      "Ġáĭ¨áĪļáī£áĪĪáĭį": 8493,
      "Ġáĭ¨áĪļáĬĸáĪŃ": 8494,
      "á»įÌģnÃł": 8495,
      "Ġáĭįáīħáĭ«áĬĸáĪµ": 8496,
      "áĪłáĪ©": 8497,
      "ĠáĪµáĪŃáĭĵáīµ": 8498,
      "Ġincluding": 8499,
      "áĪŀáĬŃáĪ«áĪ²": 8500,
      "usiness": 8501,
      "dad": 8502,
      "ĠBras": 8503,
      "Ġ400": 8504,
      "Ġserv": 8505,
      "ikata": 8506,
      "embe": 8507,
      "utres": 8508,
      "ĠRed": 8509,
      "eriod": 8510,
      "ĠAlhaji": 8511,
      "elekea": 8512,
      "Ġshawara": 8513,
      "ĠKikatoliki": 8514,
      "ĠSim": 8515,
      "ĠDuba": 8516,
      "ilway": 8517,
      "áĥ": 8518,
      "ĠAcc": 8519,
      "Ġdeath": 8520,
      "ĠFal": 8521,
      ".O": 8522,
      "katar": 8523,
      "Ġáī«": 8524,
      "wal": 8525,
      "Ġáĭ¨Â«": 8526,
      "Ġ(áĭĺ": 8527,
      "taire": 8528,
      "áĪ«áĪŃ": 8529,
      "ites": 8530,
      "Ġá»įká»į": 8531,
      "ĠáīłáĪĪ": 8532,
      "Ġáĭ¨áĪ©": 8533,
      "ĠOlÃ¹": 8534,
      "áĭ²áīµ": 8535,
      "Ġá¹£áº¹ÌĢ": 8536,
      "ĠáĪ°áįĬ": 8537,
      "ĠÃĮjá»įba": 8538,
      "áĪ»áĪ»": 8539,
      "ĠáĭĭáĬķáĮ«": 8540,
      "ĠáĪļáĪµáīµ": 8541,
      "ĠáĭµáĪ¨áĪµáį£": 8542,
      "áįīáį¢": 8543,
      "ĠáīłáĬ¥áĪµ": 8544,
      "Ġnomba": 8545,
      "áĬħáĪ£áĪ¥": 8546,
      "Ġkaláº¹ÌĢ": 8547,
      "ĠáĪĺáĪ°áĪ¨": 8548,
      "áĪĺáĪ°áĪ¨": 8549,
      "ĠdÃłgbÃł": 8550,
      "Alimfuata": 8551,
      "Äĵ": 8552,
      "ession": 8553,
      "Ġfasaha": 8554,
      "hip": 8555,
      "Ġzao": 8556,
      "ĠÆĻwarar": 8557,
      "Ġamince": 8558,
      "Ġkasuwa": 8559,
      "Ġlow": 8560,
      "Ġtsara": 8561,
      "frican": 8562,
      "Viungo": 8563,
      "Ġshirye-shiryen": 8564,
      "vy": 8565,
      "Ġstu": 8566,
      "ĠMana": 8567,
      "umbe": 8568,
      "ĠDam": 8569,
      "tein": 8570,
      "wanza": 8571,
      "Ġ2012.": 8572,
      "jet": 8573,
      "ĠShehu": 8574,
      "ĠEdward": 8575,
      "atik": 8576,
      "Ġ(Y": 8577,
      "lav": 8578,
      "elo": 8579,
      "bio": 8580,
      "89": 8581,
      "bÃ¹": 8582,
      "Ġáĭī": 8583,
      "Ġkur": 8584,
      "Ġagbara": 8585,
      "ĠáĪĺáĪĨáĬķ": 8586,
      "ĠáĭŃáĬĸ": 8587,
      "ĠáĭĪáĮĪ": 8588,
      "ĠáĬĲáĭįáį£": 8589,
      "áįĭáĬķ": 8590,
      "áĪģáĪĪáīµ": 8591,
      "Ġmasarautar": 8592,
      "ĠáĬ¥áĪµáĭ«": 8593,
      "Ġkáº¹tÃł": 8594,
      "Ġkáº¹fÃł": 8595,
      "Ġal'umma": 8596,
      "llaye": 8597,
      "Ġmahaifiyar": 8598,
      "ĠKilatini": 8599,
      "ĠâĢ¹âĢ¹": 8600,
      "Ġauri": 8601,
      "Ġ(6": 8602,
      "Ġport": 8603,
      "Ġrem": 8604,
      "ques,": 8605,
      "zi,": 8606,
      "ard,": 8607,
      "Ġuse": 8608,
      "Ð»": 8609,
      "Ġbata": 8610,
      "ĠItalia.": 8611,
      "cle": 8612,
      "gro": 8613,
      "Ġatom": 8614,
      "Ġmer": 8615,
      "ĠOlo": 8616,
      "ĠpÃ©ri": 8617,
      "test": 8618,
      "Ġshi.": 8619,
      "okras": 8620,
      "Ġchake.": 8621,
      "Ġarewacin": 8622,
      "Ġtakwas": 8623,
      "Ġwatumwa": 8624,
      "bá»į": 8625,
      "ksi": 8626,
      "áĬķáī°": 8627,
      "Ġame": 8628,
      "Ġáĭ¨áī»áĭŃáĬĵ": 8629,
      "áĭįáĪ®": 8630,
      "Ġojoibi": 8631,
      "Ãłwá»įn": 8632,
      "as.": 8633,
      "áĬĵáį£": 8634,
      "titu": 8635,
      "áĪĪáĭµ": 8636,
      "áĭµáĪį": 8637,
      "áĬĽáĭįáĬķ": 8638,
      "Ġáī°áĭĽ": 8639,
      "ĠáĪĿáĮįáī¥": 8640,
      "áįįáĪ¬": 8641,
      "áīħáĭ±áĪµ": 8642,
      "Ġeko": 8643,
      "ĠáĪ°áĭĵáīµ": 8644,
      "bangi": 8645,
      "ĠáĪįáĬŃ": 8646,
      "ĠáĪĨáĭŃ": 8647,
      "Ġáĭ¨áĬłáĬķáĭµ": 8648,
      "áĮĪáĬĻáīµ": 8649,
      "áīłáī°áĮ¨áĪĽáĪª": 8650,
      "ĠáĭįáĮ¤áīµ": 8651,
      "sta": 8652,
      "ĠTele": 8653,
      "go.": 8654,
      "wos": 8655,
      "alamu": 8656,
      "Ġgano": 8657,
      "atique": 8658,
      "Ġrefer": 8659,
      "ĠAso": 8660,
      "ur,": 8661,
      "ĠKeb": 8662,
      "Ġsayari": 8663,
      "ĠZimbabwe": 8664,
      "Ġshaharar": 8665,
      "Ġdiffer": 8666,
      "ĠHanyoyin": 8667,
      "ĠKibantu": 8668,
      "Ġcikak": 8669,
      "furu": 8670,
      "jec": 8671,
      "Ġlater": 8672,
      "ĠSpe": 8673,
      "ĠCons": 8674,
      "bic": 8675,
      "ĠNairo": 8676,
      "ĠGreek": 8677,
      "dÃ¹n": 8678,
      "tary": 8679,
      "Ġur": 8680,
      "Ġáī¬": 8681,
      "Ġawo": 8682,
      "áº¹gáº¹": 8683,
      "áĪµáĮ¡": 8684,
      "Ġáīł17": 8685,
      "ĠÃłsÃ¬kÃ²": 8686,
      "áīłáīł": 8687,
      "ĠÃ¬yÃłwÃ³": 8688,
      "ĠÃ¬tÃłgÃ©": 8689,
      "ĠáĭŃáĪĪ": 8690,
      "á¹£ep": 8691,
      "ĠáĭĪáĪ°": 8692,
      "kim": 8693,
      "Ġáĭ¨áī°áĮĪáĬĺ": 8694,
      "ĠáĬ¥áĬĵáīµ": 8695,
      "Ġáī¥áĪĭ": 8696,
      "áĬķáĮįáĭµ": 8697,
      "ĠVirgin": 8698,
      "áĭ©áĬĵáĭŃáīµáĭµ": 8699,
      "ector": 8700,
      "kÃ¬tÃ¬": 8701,
      "Ġplace": 8702,
      "Ġaá¹£ojÃº": 8703,
      "ĠÃłkÃ³kÃ²": 8704,
      "ĠáĭįáĭµáĭµáĪŃ": 8705,
      "ĠáĬłáĪįáįĭáī¤áīµ": 8706,
      "ĠKore": 8707,
      "ga.": 8708,
      "ĠDani": 8709,
      "bogbo": 8710,
      "ĠUnion": 8711,
      "ia.org/wiki/": 8712,
      "Akwai": 8713,
      "Mi": 8714,
      "ĠAá¹£": 8715,
      "ari.": 8716,
      "Ġ1969": 8717,
      "ords": 8718,
      "Ġmfumo": 8719,
      "Ġfal": 8720,
      "ĠJohann": 8721,
      "Ġ2009.": 8722,
      "Ġagainst": 8723,
      "Ñģ": 8724,
      "Ø¹": 8725,
      "ĠM.": 8726,
      "ĠCup": 8727,
      "Ġ\"C": 8728,
      "ridge": 8729,
      "áĮ§": 8730,
      "irs": 8731,
      "áĮįáĭµáĪĿ": 8732,
      "áį¡áĭŃ": 8733,
      "áįĪáĮ¸": 8734,
      "áĪ³áĪĮáĪĿ": 8735,
      "ĠáĪ°áī¥": 8736,
      "áĪĬáīµ": 8737,
      "Ġ6.": 8738,
      "áĭ°áĪ¨áĮį": 8739,
      "ĠilÃ¨": 8740,
      "ĠáĬªáĬķáĮį": 8741,
      "ĠáįĵáĪŃáī²áĭİáī½": 8742,
      "Ġlat": 8743,
      "umbi": 8744,
      "Ġmatan": 8745,
      "Ġfiye": 8746,
      "Ġ1981": 8747,
      "-p": 8748,
      "-18": 8749,
      "rey": 8750,
      "Ġdesign": 8751,
      "Ġ(2003)": 8752,
      "ĠBuhari": 8753,
      "Ġtrois": 8754,
      "Ġinflu": 8755,
      "Af": 8756,
      "Ġdim": 8757,
      "el.": 8758,
      "ellow": 8759,
      "olin": 8760,
      "poli": 8761,
      "Ġthrough": 8762,
      "owever,": 8763,
      "zikin": 8764,
      "Ġnigb": 8765,
      "áĪĽáĪ¨": 8766,
      "áĪ³áĪ°áī¥": 8767,
      "ĠFasaha": 8768,
      "inguis": 8769,
      "áĭ³áīµ": 8770,
      "Ġáĭ«áĪĭ": 8771,
      "Ġáĭ«áĪīáīµ": 8772,
      "áįĪáĪ¨": 8773,
      "áīĥáīµ": 8774,
      "Ġwase": 8775,
      "Ġkarshen": 8776,
      "Ġáī£áĪĪáĭį": 8777,
      "áĮłáĪī": 8778,
      "Ġwasanni": 8779,
      "áĪ«áĭĬáīµ": 8780,
      "ĠáĬ¢áīµáĭ®áĮµáĭ«áĭĬ": 8781,
      "ĠFrÃ¡n": 8782,
      "-oÃ²rÃ¹n": 8783,
      "ĠáĬŃáįįáĪĭáĮĪáĪ«áīµ": 8784,
      "ĠáĬ¥áĬķáĪµáĪ³": 8785,
      "ĠYammacin": 8786,
      "áĭ«áĭ«áĭ£": 8787,
      "ĠáĭŀáĬķ": 8788,
      "Ġukoloni": 8789,
      "ĠAz": 8790,
      "ĠMara": 8791,
      "elÃ©": 8792,
      "ĠGlo": 8793,
      "wikipedia.org/wiki/": 8794,
      "100": 8795,
      "87": 8796,
      "TV": 8797,
      "pya": 8798,
      "light": 8799,
      "ĠFer": 8800,
      "chol": 8801,
      "yi,": 8802,
      "ĠPremi": 8803,
      "Ġwasi": 8804,
      "Ġvon": 8805,
      "uthor": 8806,
      "ĠScience": 8807,
      "Ġsaka": 8808,
      "Ġlililo": 8809,
      "ological": 8810,
      "ĠPress,": 8811,
      "Ġsigni": 8812,
      "-L": 8813,
      "eux": 8814,
      "Ġdog": 8815,
      "Ġáĭ¨áĮįáī¥áĮ½": 8816,
      "Ġiba": 8817,
      "á»įÌģlÃ¡": 8818,
      "áĪĭáĪĽáĭĬ": 8819,
      "ĠÃ¬pÃŃn": 8820,
      "ĠÃ¬wá»įÌĢ": 8821,
      "Ġáī°áĪ¸": 8822,
      "Ã²Ã³": 8823,
      "áīĢáĪµ": 8824,
      "áīħáĪ¨áī¥": 8825,
      "ĠáĪĪáĬłáĪ": 8826,
      "ĠáĪµáĪľáĬķ": 8827,
      "áĮłáį¢": 8828,
      "áĮĭáĬķ": 8829,
      "ĠmÃ¡rÃ¹n": 8830,
      "ĠáīłáĪļáĪį": 8831,
      "ĠáįĬáīµ": 8832,
      "ĠÃ²á¹£Ã¨rÃ©kÃ¹nrin": 8833,
      "ulit": 8834,
      "Ġmáº¹Ìģrin": 8835,
      "ĠáĪĥáĭŃáĪĽáĬĸ": 8836,
      "ĠáĪ²áīĢáĪ©": 8837,
      "áĬĢ": 8838,
      "Ġsin": 8839,
      "ĠAkwa": 8840,
      "Ġma'": 8841,
      "Ġstru": 8842,
      "ps://": 8843,
      "64": 8844,
      "Ġcho": 8845,
      "ĠWilliams": 8846,
      "gÃł": 8847,
      "ian": 8848,
      "Ġlenye": 8849,
      "ĠAsa": 8850,
      "orm": 8851,
      "Ġhapo": 8852,
      "we.": 8853,
      "Ġ...": 8854,
      "Ġd'I": 8855,
      "ĠLib": 8856,
      "ĠBirnin": 8857,
      "Ġjimillar": 8858,
      "ĠPasifiki": 8859,
      "ale,": 8860,
      "ano,": 8861,
      "vant": 8862,
      "Ġtá»įÌģ": 8863,
      "ĠnÇ¹kan": 8864,
      "Ġáīł15": 8865,
      "áĪĺáį¢": 8866,
      "Ã¬lÃº": 8867,
      "ĠáĪĺáĭ°": 8868,
      "ĠIran": 8869,
      "ĠáĬŃáī¥": 8870,
      "ter,": 8871,
      "finan": 8872,
      "Ġolori": 8873,
      "Ġthese": 8874,
      "áī¤áĪį": 8875,
      "ĠáĮĭáĭľ": 8876,
      "ĠArts": 8877,
      "áĮ¡áį¢": 8878,
      "ĠáĪĢáī¥": 8879,
      "ĠáīłáĬłáĪĽáĪŃáĬĽ": 8880,
      "áº¹Ìģráº¹Ìģ": 8881,
      "ĠlÃ³rÃŃláº¹ÌĢ": 8882,
      "Ġappe": 8883,
      "Ġáī»áĭŃáĬĵ": 8884,
      "ĠfÃ¬dÃŃ": 8885,
      "astern": 8886,
      "ĠKai": 8887,
      "ĠáĪĪáĭĺ": 8888,
      "nie": 8889,
      "Ġ80": 8890,
      "ĠKuma": 8891,
      "Ro": 8892,
      "tÃ¹": 8893,
      "Ġ{": 8894,
      "Ġty": 8895,
      "Ġkufanya": 8896,
      "Ġhuru": 8897,
      "Ġsab": 8898,
      "Ġ\"The": 8899,
      "ĠZiwa": 8900,
      "zungum": 8901,
      "Ġwasemaji": 8902,
      "Historia": 8903,
      "mond": 8904,
      "ĠCross": 8905,
      "etnam": 8906,
      "ĠDut": 8907,
      "kula": 8908,
      "ĠCOVID-19": 8909,
      "wen": 8910,
      "Ġ0.": 8911,
      "ango": 8912,
      "ĠPulit": 8913,
      "ĠGram": 8914,
      "Ã¡ÃŃ": 8915,
      "ĠbÃ³": 8916,
      "Ġ(áĬ¥": 8917,
      "ĠáĪĺáĪªáĭİáī½": 8918,
      "Ġáį³": 8919,
      "ĠáĭŃáĪįáīħ": 8920,
      "Ġáĭ¨áĪļáĮł": 8921,
      "Ġáīµáĭķ": 8922,
      "oph": 8923,
      "ĠáĬ¥áĬķáĭ°áĪļáĭ«": 8924,
      "ĠlÃ¡tÃłrÃŃ": 8925,
      "Ġáĭ¨áĬ¥áĮįáĪŃ": 8926,
      "tÃ²já»į": 8927,
      "áĮ½áĪĲáįĪ": 8928,
      "ĠagbÃ¡bá»įÌģá»įÌĢlÃ¹": 8929,
      "âĢºâĢº": 8930,
      "ĠáĭĪáĪ¨áĪ«": 8931,
      "ĠáĪĪáĭįáĮ¥": 8932,
      "áĭķáīĨáī¥": 8933,
      "ĠFrÃ¡nsÃ¬": 8934,
      ":-": 8935,
      "á»": 8936,
      "Ġmbunge": 8937,
      "Ġkamfan": 8938,
      "Ġasilimia": 8939,
      "ĠTarayya": 8940,
      "AL": 8941,
      "ĠIgbo": 8942,
      "ĠreprÃ©sent": 8943,
      "Ġclassi": 8944,
      "Ġisi": 8945,
      "ĠKit": 8946,
      "ĠPas": 8947,
      "Ġl'h": 8948,
      "asile": 8949,
      "pinduzi": 8950,
      "At": 8951,
      "OrÃŃ": 8952,
      "Ġsá»įÌĢrá»įÌĢ": 8953,
      "Ġmáº¹ÌģrÃ¬n": 8954,
      "Ã©.": 8955,
      "Ġpáº¹Ìģ": 8956,
      "áĭ«áī°": 8957,
      "ĠjÃŃ": 8958,
      "áĬĲáĪ±": 8959,
      "áĪ¨áĮ¥": 8960,
      "áĪ«áĭŃ": 8961,
      "Ġ1914": 8962,
      "áį¡áĬ¨": 8963,
      "áĮ£áĪįáį¢": 8964,
      "ĠáĪĽáĬŃ": 8965,
      "ĠáīĢáĭ°áĪĿ": 8966,
      "log": 8967,
      "amua": 8968,
      "ck,": 8969,
      "endant": 8970,
      "ĠáĪĪáĪĺáĮĢáĪĺáĪªáĭ«": 8971,
      "áĭ°áĪ¨áĪ°": 8972,
      "ĠyÃ¬ÃŃ,": 8973,
      "dÃ¡sÃŃláº¹ÌĢ": 8974,
      "ĠKuu": 8975,
      "ĠáĬłáĪīáīµáį¢": 8976,
      "ĠÃĪkÃ³.": 8977,
      "Ġshugabar": 8978,
      "ĠáĪĺáĬ®áĬķáĬķ": 8979,
      "Ġtáº¹lifÃŃá¹£": 8980,
      "eria": 8981,
      "Ġgun": 8982,
      "ĠEdo": 8983,
      "f.": 8984,
      "pos": 8985,
      "Ġmm": 8986,
      "Ġcat": 8987,
      "19)": 8988,
      "âĢĻs": 8989,
      "Ġautres": 8990,
      "bes": 8991,
      "ĠlÃł": 8992,
      "Ġcla": 8993,
      "ĠJari": 8994,
      "oni.": 8995,
      "kundu": 8996,
      "ĠBened": 8997,
      "Ġdun": 8998,
      "Ġyaki": 8999,
      "Ġopo": 9000,
      "ÆĻo": 9001,
      "face": 9002,
      "pokea": 9003,
      "hout": 9004,
      "Ġdauke": 9005,
      "ĠÆ´ar": 9006,
      "ØŃ": 9007,
      "ĠáĪ£": 9008,
      "áĪĿáĬķáīµ": 9009,
      "isti": 9010,
      "Ġfáº¹": 9011,
      "áĪĺáĪĿ": 9012,
      "ĠIbujoko": 9013,
      "ĠÃ¬á¹£e": 9014,
      "Ġyá»į": 9015,
      "ĠáĪµáī³": 9016,
      "áĪ®áĬķ": 9017,
      "áįĪáĮłáĪ¨": 9018,
      "ĠáīĢáĪŃ": 9019,
      "ĠáĮĪáĭĽ": 9020,
      "áĮĥáĪĿ": 9021,
      "ĠáĬĲáĮĪáĪ¥áī±": 9022,
      "ĠáĪĽáĪĪáīµáĪĿ": 9023,
      "ĠáĬłáĪĿáĪµáīµ": 9024,
      "pions": 9025,
      "áį²áį°áį»áį": 9026,
      "ĠáĪļáĬĴáĪµáī´áĪŃ": 9027,
      "áī¶áĭ¶áĬŃáĪµ": 9028,
      "áĬŃáĬĸáĪİáĮĤ": 9029,
      "ĠSing": 9030,
      "deo": 9031,
      "Ġbien": 9032,
      "ĠSudan": 9033,
      "53": 9034,
      "oja": 9035,
      "wor": 9036,
      "Ġnye": 9037,
      "kasi": 9038,
      "ĠAD": 9039,
      "ĠMid": 9040,
      "chie": 9041,
      "AM": 9042,
      "Ġtakarar": 9043,
      "alitÃ©": 9044,
      "Ġcewar": 9045,
      "Ġmatakin": 9046,
      "Ġgabashin": 9047,
      "ĠJac": 9048,
      "âĢİâĢİ": 9049,
      "chaguliwa": 9050,
      "Ġmvua": 9051,
      "69": 9052,
      "83": 9053,
      "Kam": 9054,
      "Ġmes": 9055,
      "Ġmov": 9056,
      "urop": 9057,
      "ikh": 9058,
      "um)": 9059,
      "Ġl'ar": 9060,
      "ĠDenmar": 9061,
      "57": 9062,
      "mall": 9063,
      "áĪŃáīħ": 9064,
      "Ġáĭ¨áĪĪ": 9065,
      "Ġáĭ¨áĮ¥áĬķ": 9066,
      "at,": 9067,
      "ĠoÃ²rÃ¹n": 9068,
      "Ġprom": 9069,
      "Ġáīł20": 9070,
      "Ġáĭ¨áĪļáĭĪ": 9071,
      "ÃłnÃŃ": 9072,
      "Ġsud": 9073,
      "áĪļáĬķ": 9074,
      "ĠáĮ¥áĪŃ": 9075,
      "Ġgbajumo": 9076,
      "ĠáīłáĪĽáĪµ": 9077,
      "Ġáī´áĪĮ": 9078,
      "ĠáĪĺáĪ³áĪªáĭ«": 9079,
      "f,": 9080,
      "kina": 9081,
      "pond": 9082,
      "itabu": 9083,
      "ĠprÃ©sent": 9084,
      "abi": 9085,
      "ĠÙħ": 9086,
      "Ġkipindi": 9087,
      "Ġakafuatwa": 9088,
      "Ġ1964": 9089,
      "ĠRivers": 9090,
      "itÃ©s": 9091,
      "en.wikipedia.org/wiki/": 9092,
      "ĠIndiya": 9093,
      "ĠElezo": 9094,
      "Ġmodern": 9095,
      "Ġiki": 9096,
      "ĠGida": 9097,
      "à¤ļ": 9098,
      "gr": 9099,
      "Ġcham": 9100,
      "Ġpass": 9101,
      "ĠKab": 9102,
      "ĠTown": 9103,
      "ensis": 9104,
      "Cette": 9105,
      "à¸": 9106,
      "ĠáĪ¾": 9107,
      "ĠdarÃŃ": 9108,
      "áīµáĪµ": 9109,
      "Ġáĭ¨áī³áĭĪ": 9110,
      "áĪµáī¶áī½": 9111,
      "ÃºlÃ©": 9112,
      "ĠÃłwÃ¹já»į": 9113,
      "áĭµáĪ®áĪµ": 9114,
      "Ġáī°áĮ¨áĪĽáĪª": 9115,
      "Ġáĭ¨áĪļáī³": 9116,
      "Ġáĭ¨áĪļáĮĪáĬĺáĭį": 9117,
      "kanna": 9118,
      "ĠáīłáĪĺáīĢ": 9119,
      "Ġdescri": 9120,
      "ĠáįĪáĪĭ": 9121,
      "Ġradi": 9122,
      "ardin": 9123,
      "ĠonÃŃá¹£": 9124,
      "Ġolud": 9125,
      "Ġáĭ¨áĬ¥áĪµáįĵáĬķáĭ«": 9126,
      "ĠáĬłáĪ¸áĬĲ": 9127,
      "PC": 9128,
      "tats": 9129,
      "Ġsadar": 9130,
      "ices": 9131,
      "Ġbefore": 9132,
      "Ġasilia": 9133,
      "Pia": 9134,
      "unawa": 9135,
      "Ġ1972": 9136,
      "Ġkalenda": 9137,
      "Ġpoliti": 9138,
      "ĠAnambra": 9139,
      "Ġland": 9140,
      "Ġind": 9141,
      "ata,": 9142,
      "ĠMada": 9143,
      "ĠCouncil": 9144,
      "ĠBunge": 9145,
      "Ġ1952": 9146,
      "-Ã¡n": 9147,
      "Bisa": 9148,
      "fari": 9149,
      "Ġáĭ¨áī¤áī°": 9150,
      "áĬĵáī±": 9151,
      "ĠgbÃŃ": 9152,
      "ĠáĬ¨áĭį": 9153,
      "áĪĽáĪµ": 9154,
      "Ġmaarufu": 9155,
      "ĠÃ¬wÃł": 9156,
      "ĠyÃ¡": 9157,
      "ĠáĭŃáĬ¨": 9158,
      "Ġáĭ¨áĪĲ": 9159,
      "Ġlaarin": 9160,
      "ĠGud": 9161,
      "Ġvina": 9162,
      "Ġule": 9163,
      "ĠáīµáĬŃ": 9164,
      "Ġáĭ¨áī°áĪĪ": 9165,
      "Ġanal": 9166,
      "ĠáĮĪáī£": 9167,
      "Ġconc": 9168,
      "Ġáĭ¨áĪĺáĪµ": 9169,
      "Ġaddini": 9170,
      "Ġ1945": 9171,
      "áįķáĪ¬": 9172,
      "ĠolÃ¹gbÃ©": 9173,
      "áĪłáĪ¨áī°": 9174,
      "Ġdauki": 9175,
      "áĬĵáī¸áĭįáĪĿ": 9176,
      "ĠáįķáĪ¬áĭļáĭ³áĬķáīµ": 9177,
      "Elle": 9178,
      "Ġlissa": 9179,
      "Rayuwar": 9180,
      "ĠáĬ¥áĪµáĬ«áĪģáĬķ": 9181,
      "ĠáĭŃáī³áĪĺáĬĵáĪįáį¢": 9182,
      "ale.": 9183,
      "Ġsupport": 9184,
      "):": 9185,
      "Ġgre": 9186,
      "ĠAja": 9187,
      "Ġville": 9188,
      "ronom": 9189,
      "s:": 9190,
      "yle": 9191,
      "ghuli": 9192,
      "Ġq": 9193,
      "Ġdare": 9194,
      "ÃŃÃł": 9195,
      "ere,": 9196,
      "Ġáĭ¨áĮ£áĪįáĭ«áĬķ": 9197,
      "ĠÃłpapá»įÌĢ": 9198,
      "usal": 9199,
      "Ġmach": 9200,
      "ĠPra": 9201,
      "áĭ¨áĪģ": 9202,
      "ĠHab": 9203,
      "áĪīáį£": 9204,
      "áĮłáĬķ": 9205,
      "áĮĭáĭŃ": 9206,
      "ĠáĪģáĪĪáī°áĬĽáĭį": 9207,
      "Ġ1962": 9208,
      "ĠAss": 9209,
      "Ġáī¤áī°áĪ°áī¥": 9210,
      "ĠkÃ©de": 9211,
      "áĮĮáī³": 9212,
      "ĠáĬłáī¥áĭĽ": 9213,
      "ĠáĭµáĪŃáĮĬ": 9214,
      "ĠáĪŃáīĢáīµ": 9215,
      "áīłáĪ«áĭĬ": 9216,
      "Ġaká»įká»į": 9217,
      "Ġáĭ¨áĬ¤áĪĮáĬŃáīµáĪªáĬŃ": 9218,
      "ĠáĪµáīµáĪĨáĬķ": 9219,
      "ĠkÃ¡Ãłkiri": 9220,
      "BÃ¡kan": 9221,
      "Ġcaract": 9222,
      "Ġáī°áĪµáįĭ": 9223,
      "gali": 9224,
      "ĠYesu": 9225,
      "ĠFestival": 9226,
      "IN": 9227,
      "bles": 9228,
      "inent": 9229,
      "vient": 9230,
      "fication": 9231,
      "ĠSociety": 9232,
      "Eneo": 9233,
      "ey": 9234,
      "anzo": 9235,
      "ĠMili": 9236,
      "Ġint": 9237,
      "Ġhukun": 9238,
      "ÉĹe": 9239,
      "ĠWaarabu": 9240,
      "shinda": 9241,
      "uruki": 9242,
      "antake": 9243,
      "Ġyarjejen": 9244,
      "Ġdisc": 9245,
      "Ġutamaduni": 9246,
      "Ġkowane": 9247,
      "engo": 9248,
      "ense": 9249,
      "ĠDun": 9250,
      "si,": 9251,
      "haria": 9252,
      "-áĪ²áĬķ": 9253,
      "hama": 9254,
      "vement": 9255,
      "áĮ»áįī": 9256,
      "áįģ": 9257,
      "áĭ«áī¸áĭį": 9258,
      "Ġwá»įÌģ": 9259,
      "ĠÃłá¹£áº¹": 9260,
      "ĠáĪĺáĪĿ": 9261,
      "ĠÃ¬á¹£Ã¨": 9262,
      "cept": 9263,
      "áĬ«áĭĬ": 9264,
      "áĮ£áĮ«": 9265,
      "áĭĽáĪĿ": 9266,
      "ston": 9267,
      "ĠáĪįáĭĳ": 9268,
      "ĠáĮ¥áīģáĪŃ": 9269,
      "áĪ®áī½áĬķ": 9270,
      "ĠÃ¡n": 9271,
      "ĠáĭĽáįį": 9272,
      "viron": 9273,
      "gÃ¨": 9274,
      "arth": 9275,
      "isation": 9276,
      "áīłáĭ°": 9277,
      "ĠCour": 9278,
      "ster": 9279,
      "ĠAna": 9280,
      "ĠRadio": 9281,
      "refu": 9282,
      "Ġdif": 9283,
      "ĠBaba": 9284,
      "ship": 9285,
      "attun": 9286,
      "Ġume": 9287,
      "ĠTechn": 9288,
      "Ġmamaye": 9289,
      "Ġ(lafazi": 9290,
      "ansu": 9291,
      "Ġatomu": 9292,
      "Ġoro": 9293,
      "Ġ(14": 9294,
      "Ġfour": 9295,
      "alle": 9296,
      "ĠAlger": 9297,
      "Ã´te": 9298,
      "Ġcentury": 9299,
      "Lá»įÌģ": 9300,
      "Ohun": 9301,
      "Ġure": 9302,
      "áĬķáĮłáĪ¨": 9303,
      "ĠmÃ³": 9304,
      "áīµáĪį": 9305,
      "Ġpub": 9306,
      "ĠáīłáĮİ": 9307,
      "ĠáīłáĭĭáĬĵ": 9308,
      "ĠáĮĤ": 9309,
      "Ġima": 9310,
      "ĠáĬłáĮłáīĥáĪĭáĭŃ": 9311,
      "áĮįáĭ³": 9312,
      "áĮįáĪªáĬŃ": 9313,
      "ĠÃ¬dÃ¬": 9314,
      "ĠÃ¬lÃł": 9315,
      "áĮłáĬĿ": 9316,
      "áĪŀáĪµ": 9317,
      "Ġáī¥áĪĦ": 9318,
      "ÃŃnÃł": 9319,
      "ĠorÃŃá¹£irÃŃá¹£i": 9320,
      "ĠáĬłáĪµáīĢáĭµáĪŀ": 9321,
      "Ġáĭ¨áĪĺáĪ¬áīµ": 9322,
      "áĬŃáĪįáīµ": 9323,
      "Ġ90": 9324,
      "ĠáĪĢáĭŃ": 9325,
      "áįķáĪ®": 9326,
      "ĠGuusu": 9327,
      "áĭĭáĪįáį¡áį¡": 9328,
      "ĠáĪ¶áĪµáīµ": 9329,
      "ĠáĪĽáĭķáĬ¨áĪį": 9330,
      "Ġáī¥áĪŃáĪĥáĬķ": 9331,
      "Ġáīłáī³áī½": 9332,
      "ĠOrile-ede": 9333,
      "áĬ«áī£áī¢áĭį": 9334,
      "já»įÌĢgbá»įÌģn": 9335,
      "áĬ«áĬ¨áĪĪáĬĽáĭį": 9336,
      "áĬķáĮĮáĪį": 9337,
      "ĠáĪĿáĪħáĬķáĭµáĪµáĬĵ": 9338,
      "wahi": 9339,
      "Ġmito": 9340,
      "ĠTour": 9341,
      "ĠCan": 9342,
      "ĠCount": 9343,
      "ĠGr": 9344,
      "new": 9345,
      "Ġmatasa": 9346,
      "ĠWaingereza": 9347,
      "iriwa": 9348,
      "ccen": 9349,
      "Ġduniya,": 9350,
      "Ġkiran": 9351,
      "e)": 9352,
      "ure,": 9353,
      "omme": 9354,
      "Ġhapa": 9355,
      "osp": 9356,
      "Ã©rica": 9357,
      "ĠCoast": 9358,
      "mÃ³": 9359,
      "urar": 9360,
      "Ġkansa": 9361,
[...]
