{
  "version": "1.0",
  "truncation": null,
  "padding": null,
  "added_tokens": [
    {
      "id": 0,
      "content": "[UNK]",
      "single_word": false,
      "lstrip": false,
      "rstrip": false,
      "normalized": false,
      "special": true
    }
  ],
  "normalizer": {
    "type": "NFC"
  },
  "pre_tokenizer": {
    "type": "ByteLevel",
    "add_prefix_space": true,
    "trim_offsets": true,
    "use_regex": false
  },
  "post_processor": null,
  "decoder": {
    "type": "ByteLevel",
    "add_prefix_space": true,
    "trim_offsets": true,
    "use_regex": true
  },
  "model": {
    "type": "BPE",
    "dropout": null,
    "unk_token": "[UNK]",
    "continuing_subword_prefix": null,
    "end_of_word_suffix": null,
    "fuse_unk": false,
    "byte_fallback": false,
    "ignore_merges": false,
    "vocab": {
      "[UNK]": 0,
      "!": 1,
      "\"": 2,
      "#": 3,
      "$": 4,
      "%": 5,
      "&": 6,
      "'": 7,
      "(": 8,
      ")": 9,
      "*": 10,
      "+": 11,
      ",": 12,
      "-": 13,
      ".": 14,
      "/": 15,
      "0": 16,
      "1": 17,
      "2": 18,
      "3": 19,
      "4": 20,
      "5": 21,
      "6": 22,
      "7": 23,
      "8": 24,
      "9": 25,
      ":": 26,
      ";": 27,
      "<": 28,
      "=": 29,
      ">": 30,
      "?": 31,
      "@": 32,
      "A": 33,
      "B": 34,
      "C": 35,
      "D": 36,
      "E": 37,
      "F": 38,
      "G": 39,
      "H": 40,
      "I": 41,
      "J": 42,
      "K": 43,
      "L": 44,
      "M": 45,
      "N": 46,
      "O": 47,
      "P": 48,
      "Q": 49,
      "R": 50,
      "S": 51,
      "T": 52,
      "U": 53,
      "V": 54,
      "W": 55,
      "X": 56,
      "Y": 57,
      "Z": 58,
      "[": 59,
      "\\": 60,
      "]": 61,
      "^": 62,
      "_": 63,
      "`": 64,
      "a": 65,
      "b": 66,
      "c": 67,
      "d": 68,
      "e": 69,
      "f": 70,
      "g": 71,
      "h": 72,
      "i": 73,
      "j": 74,
      "k": 75,
      "l": 76,
      "m": 77,
      "n": 78,
      "o": 79,
      "p": 80,
      "q": 81,
      "r": 82,
      "s": 83,
      "t": 84,
      "u": 85,
      "v": 86,
      "w": 87,
      "x": 88,
      "y": 89,
      "z": 90,
      "{": 91,
      "|": 92,
      "}": 93,
      "~": 94,
      "¡": 95,
      "¢": 96,
      "£": 97,
      "¤": 98,
      "¥": 99,
      "¦": 100,
      "§": 101,
      "¨": 102,
      "©": 103,
      "ª": 104,
      "«": 105,
      "¬": 106,
      "®": 107,
      "¯": 108,
      "°": 109,
      "±": 110,
      "²": 111,
      "³": 112,
      "´": 113,
      "µ": 114,
      "¶": 115,
      "·": 116,
      "¸": 117,
      "¹": 118,
      "º": 119,
      "»": 120,
      "¼": 121,
      "½": 122,
      "¾": 123,
      "¿": 124,
      "Â": 125,
      "Ã": 126,
      "Ä": 127,
      "Å": 128,
      "Æ": 129,
      "Ç": 130,
      "È": 131,
      "É": 132,
      "Ê": 133,
      "Ë": 134,
      "Ì": 135,
      "Í": 136,
      "Î": 137,
      "Ï": 138,
      "Ð": 139,
      "Ñ": 140,
      "Ò": 141,
      "Ó": 142,
      "Ô": 143,
      "Õ": 144,
      "Ö": 145,
      "×": 146,
      "Ø": 147,
      "Ù": 148,
      "Ú": 149,
      "Û": 150,
      "Ü": 151,
      "Þ": 152,
      "à": 153,
      "á": 154,
      "â": 155,
      "ã": 156,
      "ä": 157,
      "å": 158,
      "æ": 159,
      "ç": 160,
      "è": 161,
      "é": 162,
      "ê": 163,
      "ë": 164,
      "ì": 165,
      "í": 166,
      "ï": 167,
      "ð": 168,
      "Ġ": 169,
      "Ģ": 170,
      "ģ": 171,
      "Ĥ": 172,
      "ĥ": 173,
      "Ħ": 174,
      "ħ": 175,
      "Ĩ": 176,
      "ĩ": 177,
      "Ī": 178,
      "ī": 179,
      "Ĭ": 180,
      "ĭ": 181,
      "Į": 182,
      "į": 183,
      "İ": 184,
      "ı": 185,
      "Ĳ": 186,
      "ĳ": 187,
      "Ĵ": 188,
      "ĵ": 189,
      "Ķ": 190,
      "ķ": 191,
      "ĸ": 192,
      "Ĺ": 193,
      "ĺ": 194,
      "Ļ": 195,
      "ļ": 196,
      "Ľ": 197,
      "ľ": 198,
      "Ŀ": 199,
      "ŀ": 200,
      "Ł": 201,
      "ł": 202,
      "Ń": 203,
      "áĪ": 204,
      "aĠ": 205,
      "Ġá": 206,
      "áī": 207,
      "áĬ": 208,
      "áĭ": 209,
      "nĠ": 210,
      "iĠ": 211,
      "eĠ": 212,
      "ar": 213,
      "an": 214,
      "Ġáĭ": 215,
      "ĠáĬ": 216,
      "áĮ": 217,
      "ĠáĪ": 218,
      "áį": 219,
      "Ġáī": 220,
      "áĬķ": 221,
      ",Ġ": 222,
      "»į": 223,
      "ÃŃ": 224,
      "in": 225,
      "oĠ": 226,
      "at": 227,
      "al": 228,
      "áīµ": 229,
      "á»į": 230,
      "sĠ": 231,
      "áĪŃ": 232,
      "Ãł": 233,
      "º¹": 234,
      "er": 235,
      "inĠ": 236,
      "waĠ": 237,
      "yaĠ": 238,
      "Ġáĭ¨": 239,
      "am": 240,
      "uĠ": 241,
      "áº¹": 242,
      "as": 243,
      "daĠ": 244,
      "áĭį": 245,
      "ak": 246,
      "anĠ": 247,
      "Ġáīł": 248,
      "áĪį": 249,
      "áĪĿ": 250,
      "áĪµ": 251,
      "en": 252,
      "ik": 253,
      "arĠ": 254,
      "Ã©": 255,
      "il": 256,
      "áº¹Ì": 257,
      "Ã¬": 258,
      "ku": 259,
      "or": 260,
      "ÃŃĠ": 261,
      "is": 262,
      "ĠáĬł": 263,
      "on": 264,
      "Ã¡": 265,
      "naĠ": 266,
      "it": 267,
      "áĪĺ": 268,
      "áį¢": 269,
      "áĪĪ": 270,
      "á»įÌ": 271,
      "ab": 272,
      "tĠ": 273,
      "áĬĵ": 274,
      "áī°": 275,
      "ĠáĮ": 276,
      "un": 277,
      "ir": 278,
      "Ãº": 279,
      "áĭ«": 280,
      "Ġt": 281,
      "ĠáĬ¥": 282,
      "sh": 283,
      "ur": 284,
      "taĠ": 285,
      "ay": 286,
      "áĭŃ": 287,
      "Ã³": 288,
      "19": 289,
      "áī½": 290,
      "áĪ¨": 291,
      "gb": 292,
      "ch": 293,
      "ĠA": 294,
      "onĠ": 295,
      "ad": 296,
      "Ã¨": 297,
      "el": 298,
      ".Ġ": 299,
      "áĪĭ": 300,
      "áīł": 301,
      "áĭ°": 302,
      "áĬĲ": 303,
      "im": 304,
      "om": 305,
      "ol": 306,
      "es": 307,
      "áī¥": 308,
      "áº¹ÌĢ": 309,
      "áĮĪ": 310,
      "áĪĽ": 311,
      "áĭµ": 312,
      "dĠ": 313,
      "áº¹Ìģ": 314,
      "áĪ«": 315,
      "esĠ": 316,
      "ĠáĬĲ": 317,
      "á»įÌģ": 318,
      "ĠáĪĺ": 319,
      "niĠ": 320,
      "áĮį": 321,
      "20": 322,
      "ĠáĬ¨": 323,
      "iy": 324,
      "Ġ(": 325,
      "¹£": 326,
      "ag": 327,
      "heĠ": 328,
      "unĠ": 329,
      "áĬł": 330,
      "áī³": 331,
      "em": 332,
      "Ã²": 333,
      "aĠm": 334,
      "ok": 335,
      "a,Ġ": 336,
      "wá»į": 337,
      "us": 338,
      "áĬŃ": 339,
      "of": 340,
      "deĠ": 341,
      "ul": 342,
      "áĪ³": 343,
      "Ġáį": 344,
      ")Ġ": 345,
      "ic": 346,
      "aĠk": 347,
      "af": 348,
      "áī£": 349,
      "aj": 350,
      "ut": 351,
      "ali": 352,
      "ĠM": 353,
      "um": 354,
      "ek": 355,
      "ĠáĭŃ": 356,
      "Ã©Ġ": 357,
      "yĠ": 358,
      "wan": 359,
      "Ã¹": 360,
      "Ġáī°": 361,
      "tiĠ": 362,
      "ÃłĠ": 363,
      "áĪª": 364,
      "Ġáĭ¨áĪ": 365,
      "áĬĽ": 366,
      "iaĠ": 367,
      "á¹£": 368,
      "a.": 369,
      "enĠ": 370,
      "Ġá»į": 371,
      "ing": 372,
      "áĪħ": 373,
      "uk": 374,
      "aw": 375,
      "âĢ": 376,
      "wá»įnĠ": 377,
      "ac": 378,
      "áį£": 379,
      "áĮ¥": 380,
      "ĠáĪĿ": 381,
      "id": 382,
      "if": 383,
      "ah": 384,
      "ap": 385,
      "ĠáĭĪ": 386,
      "Ã³Ġ": 387,
      "ib": 388,
      "á»įÌĢ": 389,
      "áį¡": 390,
      "kum": 391,
      "áįį": 392,
      "ĠáĬĲáĭį": 393,
      "ig": 394,
      "aiĠ": 395,
      "ĠáĬ¥áĬķ": 396,
      "áĭ³": 397,
      "az": 398,
      "laĠ": 399,
      "áĬ¨": 400,
      "áīĢ": 401,
      "akaĠ": 402,
      "áĪ°": 403,
      "ĠÃ": 404,
      "e,Ġ": 405,
      "araĠ": 406,
      "ĠáĪĪ": 407,
      "áĪĮ": 408,
      "áĭĪ": 409,
      "Ġn": 410,
      "ot": 411,
      "iĠyaĠ": 412,
      "ĠS": 413,
      "os": 414,
      "baĠ": 415,
      "áĬ«": 416,
      "áīħ": 417,
      "re": 418,
      "ÆĻ": 419,
      "áĮł": 420,
      "ĠT": 421,
      "leĠ": 422,
      "erĠ": 423,
      "ÃºnĠ": 424,
      "áĪī": 425,
      "Ġk": 426,
      "ĠK": 427,
      "ĠáĪµ": 428,
      "tr": 429,
      "anaĠ": 430,
      "i,Ġ": 431,
      "ĠB": 432,
      "qu": 433,
      "Ġs": 434,
      "Ġáĭ«": 435,
      "ĠáĬĲáĭįáį¢": 436,
      "ish": 437,
      "ĠN": 438,
      "áī¸": 439,
      "ati": 440,
      "Ġáĭĵ": 441,
      "op": 442,
      "ceĠ": 443,
      "isĠ": 444,
      "neĠ": 445,
      "áĪ®": 446,
      "ug": 447,
      "et": 448,
      "Ġl": 449,
      "áĭĬ": 450,
      "201": 451,
      "iĠwaĠ": 452,
      "shek": 453,
      "ang": 454,
      "áĭĭ": 455,
      "İáī½": 456,
      "áī±": 457,
      "áī¸áĭį": 458,
      "zaĠ": 459,
      "Ġáĭ¨áĪļ": 460,
      "ip": 461,
      "áįĪ": 462,
      "ĠáĪĽ": 463,
      "uwaĠ": 464,
      "kumaĠ": 465,
      "áº¹ÌģĠ": 466,
      "ikaĠ": 467,
      "iyaĠ": 468,
      "ij": 469,
      "iĠk": 470,
      "áĪįáį¢": 471,
      "áĭĿ": 472,
      "ĠI": 473,
      "pr": 474,
      "áĮ£": 475,
      "áĭ¨": 476,
      "edĠ": 477,
      "áĪĨ": 478,
      "og": 479,
      "200": 480,
      "ist": 481,
      "ob": 482,
      "and": 483,
      "Ġáĭ¨áĬł": 484,
      "ĠL": 485,
      "áĭļ": 486,
      "ed": 487,
      "ĠW": 488,
      "áī¶": 489,
      "i.": 490,
      "iv": 491,
      "tok": 492,
      "áĪ³áĪĮ": 493,
      "áĪ©": 494,
      "áĮī": 495,
      "ikinĠ": 496,
      "andĠ": 497,
      "all": 498,
      "ih": 499,
      "th": 500,
      "Ġ-": 501,
      "ha": 502,
      "od": 503,
      "oj": 504,
      "ĠtheĠ": 505,
      "láº¹ÌĢ": 506,
      "18": 507,
      "áĮĭ": 508,
      "akeĠ": 509,
      "ec": 510,
      "áĭ®": 511,
      "ÃŃn": 512,
      "iĠm": 513,
      "ent": 514,
      "nÃŃĠ": 515,
      "ĠáĪĿáĪ³áĪĮ": 516,
      "ÌĢ": 517,
      "tÃŃĠ": 518,
      "ash": 519,
      "e.": 520,
      "áĬ¥": 521,
      "entĠ": 522,
      "ĠáĮį": 523,
      "ub": 524,
      "ĠáĪ²": 525,
      "ĠO": 526,
      "aniĠ": 527,
      "ud": 528,
      "amaĠ": 529,
      "wat": 530,
      "Ġáīµ": 531,
      "Ġd": 532,
      "Ġm": 533,
      "áĭ²": 534,
      "áĬķáĭµ": 535,
      "áĪ¥": 536,
      "ĠC": 537,
      "amb": 538,
      "ow": 539,
      "Ġáĭĺ": 540,
      "etĠ": 541,
      "fr": 542,
      "asĠ": 543,
      "áĪŀ": 544,
      "atiĠ": 545,
      "áĬĸ": 546,
      "áĭİáī½": 547,
      "kas": 548,
      "ÃºĠ": 549,
      "Ġáº¹": 550,
      "áīĥ": 551,
      "Ġáĭ¨áī°": 552,
      "ant": 553,
      "theĠ": 554,
      "ĠáĪ°": 555,
      "ĠJ": 556,
      "agaĠ": 557,
      "ĠD": 558,
      "áĪļ": 559,
      "00": 560,
      "cikinĠ": 561,
      "Ġáī¥": 562,
      "ung": 563,
      "áĪĻ": 564,
      "Ġ1": 565,
      "ĠH": 566,
      "áĭĺ": 567,
      "lÃ¡": 568,
      "ĠáĬ¥áĬĵ": 569,
      "ĠP": 570,
      "toĠ": 571,
      "jeĠ": 572,
      "rÃŃ": 573,
      "áĬĲáīµ": 574,
      "ÃĢ": 575,
      "wakaĠ": 576,
      "áĪĬ": 577,
      "le": 578,
      "Ġáĭį": 579,
      "Ġá¹£": 580,
      "Ãłwá»įnĠ": 581,
      "ĠáīĢ": 582,
      "iz": 583,
      "ĠtÃŃĠ": 584,
      "ikiĠ": 585,
      "Ġáĭ°": 586,
      "ti": 587,
      "áĬķáĮį": 588,
      "Ã¡Ġ": 589,
      "á»įĠ": 590,
      "st": 591,
      "ĠáĬ¥áĬķáĭ°": 592,
      "ov": 593,
      "ou": 594,
      "ráº¹ÌĢ": 595,
      "areĠ": 596,
      "ark": 597,
      "ĠáĪĭ": 598,
      "áīłáĪŃ": 599,
      "ew": 600,
      "nd": 601,
      "ts": 602,
      "iĠnaĠ": 603,
      "áĪģ": 604,
      "oĠyaĠ": 605,
      "ans": 606,
      "ann": 607,
      "ĠáĬŃ": 608,
      "ind": 609,
      "áĭĽ": 610,
      "o,Ġ": 611,
      "shekar": 612,
      "anc": 613,
      "áĬķĠáīł": 614,
      "),Ġ": 615,
      "ÉĹ": 616,
      "áĪİ": 617,
      "was": 618,
      "ÅĦ": 619,
      "aĠyaĠ": 620,
      "oy": 621,
      "av": 622,
      "199": 623,
      "dagaĠ": 624,
      "hu": 625,
      "ÃłtiĠ": 626,
      "wá»įÌģ": 627,
      "oc": 628,
      "ĠF": 629,
      "Ġá»įd": 630,
      "áĪ½": 631,
      "bÃŃĠ": 632,
      "áī²": 633,
      "ĠáĪį": 634,
      "gaĠ": 635,
      "áĬĳ": 636,
      "áĮħ": 637,
      "waĠm": 638,
      "for": 639,
      "áī¢": 640,
      "ep": 641,
      "iyarĠ": 642,
      "eĠd": 643,
      "au": 644,
      "anz": 645,
      "Ġp": 646,
      "aĠnaĠ": 647,
      "áįĭ": 648,
      "ng": 649,
      "áĪĪáĭį": 650,
      "ÃłnĠ": 651,
      "áĪ±": 652,
      "auĠ": 653,
      "áĪĽáĪŃ": 654,
      "uw": 655,
      "our": 656,
      "ĠE": 657,
      "ĠR": 658,
      "ĠG": 659,
      "adaĠ": 660,
      "Ġáĭµ": 661,
      "iniĠ": 662,
      "amm": 663,
      "áĬĿ": 664,
      "Ġáī³": 665,
      "ataĠ": 666,
      "waĠk": 667,
      "wen": 668,
      "e-": 669,
      "oh": 670,
      "ter": 671,
      "ĠÃĢ": 672,
      "áį¤": 673,
      "ej": 674,
      "shiĠ": 675,
      "a'": 676,
      "ĠáīłáĬ": 677,
      "inaĠ": 678,
      "Ġáī£": 679,
      "Mar": 680,
      "Â«": 681,
      "ayaĠ": 682,
      "daĠk": 683,
      "uz": 684,
      "ĠáĪĭáĭŃ": 685,
      "áĮİ": 686,
      "ong": 687,
      "Ġb": 688,
      "Al": 689,
      "ariĠ": 690,
      "a.Ġ": 691,
      "nÃŃ": 692,
      "usĠ": 693,
      "atikaĠ": 694,
      "uĠm": 695,
      "áĪ¬": 696,
      "áĭ±": 697,
      "ĠâĢ": 698,
      "Ġáĭ¨áĬ": 699,
      "ats": 700,
      "wak": 701,
      "ÃĮ": 702,
      "dÃ¨": 703,
      "áĬķĠáĬł": 704,
      "su": 705,
      "con": 706,
      "jáº¹ÌģĠ": 707,
      "lesĠ": 708,
      "¢áīµ": 709,
      "198": 710,
      "áĭļáĪħ": 711,
      "Â»": 712,
      "kutok": 713,
      "áĪľ": 714,
      "áĪĽáĪŃáĬĽ": 715,
      "âĢĻ": 716,
      "áĪ¨áīµ": 717,
      "awaĠ": 718,
      ").": 719,
      "ajer": 720,
      "¢áīµáĭ®": 721,
      "áĮµ": 722,
      "ation": 723,
      "eg": 724,
      "ank": 725,
      "Ġá»įdÃºnĠ": 726,
      "áĭķ": 727,
      "áĬĴ": 728,
      "áĪĪáīµ": 729,
      "hi": 730,
      "wá»įn": 731,
      "estĠ": 732,
      "áĮµáĭ«": 733,
      "áīĨ": 734,
      "¢áīµáĭ®áĮµáĭ«": 735,
      ",Ġm": 736,
      "ineĠ": 737,
      "arĠdaĠ": 738,
      "ĠáīłáĬł": 739,
      "áĮĢ": 740,
      "com": 741,
      "sÃ¬": 742,
      "ká»įÌģ": 743,
      "Ġf": 744,
      "asiĠ": 745,
      "ta": 746,
      "sam": 747,
      "áĮĪáĪŃ": 748,
      "Ã¬j": 749,
      "áĮ½": 750,
      "yeĠ": 751,
      "ĠáĮ¥": 752,
      "shekaraĠ": 753,
      "asaĠ": 754,
      "eb": 755,
      "ez": 756,
      "áĪµáĮ¥": 757,
      "ĠáĪĨ": 758,
      "áĪ»": 759,
      "Najer": 760,
      "Ġáĭ¨áĬłáĪĽáĪŃáĬĽ": 761,
      "áī¡": 762,
      "Am": 763,
      "197": 764,
      "iwaĠ": 765,
      "Ã¨dÃ¨": 766,
      "kanĠ": 767,
      "ev": 768,
      "ĠáĪĿáĪ³áĪĮĠáĬĲáĭįáį¢": 769,
      "asarĠ": 770,
      "áĭ«áĬķ": 771,
      "shekararĠ": 772,
      "ĠáīłáĪĺ": 773,
      "ĠáĬĲáīłáĪŃ": 774,
      "Ġáĭ¨áĬłáĪĽáĪŃáĬĽĠáĪĿáĪ³áĪĮĠáĬĲáĭįáį¢": 775,
      "áĭľ": 776,
      "ĠY": 777,
      "ĠáĭĪáĭ°": 778,
      "196": 779,
      "ion": 780,
      "áīłáīµ": 781,
      "áĪĨáĬķ": 782,
      "ĠnÃŃĠ": 783,
      "ĠaĠ": 784,
      "pl": 785,
      "ers": 786,
      "reĠ": 787,
      "ĠáĮĪ": 788,
      "Ch": 789,
      "wá»įÌģnĠ": 790,
      "ĠáĬ¨áī°": 791,
      "ationĠ": 792,
      "ĠáĬķ": 793,
      "ĠyaĠ": 794,
      "Ġ2": 795,
      "end": 796,
      "yiĠ": 797,
      "ayinĠ": 798,
      "ĠáĭĺáĪĺ": 799,
      "Ġw": 800,
      "ileĠ": 801,
      "up": 802,
      "áĪµáīµ": 803,
      "oz": 804,
      "siĠ": 805,
      "Ã©r": 806,
      "ill": 807,
      "ikuwaĠ": 808,
      "»Į": 809,
      "ani": 810,
      "yÃ¬": 811,
      "aĠdaĠ": 812,
      "áī»": 813,
      "oĠk": 814,
      "any": 815,
      "nch": 816,
      "ÃŃláº¹ÌĢ": 817,
      "ĠAl": 818,
      "Itok": 819,
      "oĠm": 820,
      "uh": 821,
      "ach": 822,
      "l'": 823,
      "gbaĠ": 824,
      "kutokaĠ": 825,
      ".ĠM": 826,
      "o.": 827,
      "áĭ©": 828,
      "art": 829,
      "ĠáĬ¥áĪµ": 830,
      "naĠm": 831,
      "alaĠ": 832,
      "und": 833,
      "ÃĢwá»įnĠ": 834,
      "Ã¬l": 835,
      "áī¶áī½": 836,
      "ĠáĪģ": 837,
      "wandaĠ": 838,
      "áĪªáĭ«": 839,
      "áįĬ": 840,
      "áĪµáī°": 841,
      "arinĠ": 842,
      "áĭĵ": 843,
      "ex": 844,
      "ionĠ": 845,
      "ĠáĭįáĪµáĮ¥": 846,
      "Sh": 847,
      "anceĠ": 848,
      "áĬĽáĭį": 849,
      "Ã¹nĠ": 850,
      "itaĠ": 851,
      "abb": 852,
      "Wali": 853,
      "áĪŃáĮī": 854,
      "Ġh": 855,
      "iharĠ": 856,
      "ĠÂ«": 857,
      "aut": 858,
      "Ġá»Į": 859,
      "Ĭáĭľ": 860,
      "shekaraĠtaĠ": 861,
      "ain": 862,
      "Ã²Ġ": 863,
      "uĠyaĠ": 864,
      "Ġáĭ¨áĪĺ": 865,
      "air": 866,
      "Afr": 867,
      "áĬĶ": 868,
      "ĠtiĠ": 869,
      "ef": 870,
      "iá¹£": 871,
      "já»įÌģ": 872,
      "uc": 873,
      "iw": 874,
      "rÃ©": 875,
      "ukaĠ": 876,
      "áīĭ": 877,
      "wam": 878,
      "áĪ²": 879,
      "ugh": 880,
      "daĠs": 881,
      "alĠ": 882,
      "s,Ġ": 883,
      "bay": 884,
      "áĭŃáĪĿ": 885,
      "tar": 886,
      "se": 887,
      "áĭ¶": 888,
      "Ġáīłáī°": 889,
      "ĠáĭŃáĪħ": 890,
      "ĠAĠ": 891,
      "áīµĠáĬł": 892,
      "Ġáīħ": 893,
      "ĠÃĮ": 894,
      "ĠáĬ«": 895,
      "áī¦": 896,
      "Ġáº¹ÌĢ": 897,
      "queĠ": 898,
      "meĠ": 899,
      "ioĠ": 900,
      "u,Ġ": 901,
      "áĪĲ": 902,
      "rinĠ": 903,
      "ĠáĬ¥áĬķáĭ²": 904,
      "gbÃł": 905,
      "ass": 906,
      "biĠ": 907,
      "áĪŃáĪµ": 908,
      "áº¹Ġ": 909,
      "aĠcikinĠ": 910,
      "ĠáĪ¥": 911,
      "Ġáī¤": 912,
      "wa": 913,
      "áĭĻ": 914,
      "rist": 915,
      "emb": 916,
      "ĠáīµáĪŃáĮī": 917,
      "agb": 918,
      "aĠtaĠ": 919,
      "uf": 920,
      "ny": 921,
      "har": 922,
      "áĪł": 923,
      "aninĠ": 924,
      "ĠáĮĭ": 925,
      "ran": 926,
      "Ġá¹£eĠ": 927,
      "kar": 928,
      "195": 929,
      "áĬ®": 930,
      "ereĠ": 931,
      "ith": 932,
      "ÃŃrÃŃ": 933,
      "zuwaĠ": 934,
      "aur": 935,
      "Ġ|": 936,
      "ell": 937,
      "Ġá»įm": 938,
      "raĠ": 939,
      "ĠU": 940,
      "áī¤": 941,
      "áĪªáĬŃ": 942,
      "áĬ©": 943,
      "17": 944,
      "áĬ¤": 945,
      "aliĠ": 946,
      "suĠ": 947,
      "áĭįáĬķ": 948,
      "obel": 949,
      "ĠáĬłáĭŃ": 950,
      "ItokasiĠ": 951,
      "atik": 952,
      "áĬķáĮ": 953,
      "ciĠ": 954,
      "áĪĥ": 955,
      "Ġá»įÌĢ": 956,
      "ĠtoĠ": 957,
      "áĪĪáĪĿ": 958,
      "Nobel": 959,
      "uneĠ": 960,
      "áī¹": 961,
      "ofĠtheĠ": 962,
      "war": 963,
      "acinĠ": 964,
      "á»įÌĢĠ": 965,
      "áīģ": 966,
      "jam": 967,
      "áīłáĪ¨": 968,
      "Ab": 969,
      "awonĠ": 970,
      "áį¡áį¡": 971,
      "est": 972,
      "aĠs": 973,
      "ĠáĪµáĪĪ": 974,
      "ĠáĪ³": 975,
      "ĠáīµáĪŃáĮīáĪĻ": 976,
      "ieĠ": 977,
      "áĮ¨": 978,
      "15": 979,
      "Ġáĭĭ": 980,
      "áĬŃáĪį": 981,
      "lÃ©": 982,
      "ĭáĪĭ": 983,
      "»áį": 984,
      "lÃ³": 985,
      ":Ġ": 986,
      "dÃ©": 987,
      "ich": 988,
      "anĠk": 989,
      "anĠm": 990,
      "aadaĠ": 991,
      "ĠáĬĲáīłáĪŃáį¢": 992,
      "atsayinĠ": 993,
      "nÃ¬": 994,
      "u.": 995,
      "haif": 996,
      "ansĠ": 997,
      "yaĠK": 998,
      "tak": 999,
      "ess": 1000,
      ".áĪĿ": 1001,
      "16": 1002,
      "ÃłÃ¬j": 1003,
      "áĪ´": 1004,
      "aliwaĠ": 1005,
      "²áį": 1006,
      "inc": 1007,
      "ĠáĪĺáĬķáĮį": 1008,
      "ÃłÃ¬jÃŃrÃŃ": 1009,
      "antĠ": 1010,
      "áĪķ": 1011,
      "imb": 1012,
      "Ãºn": 1013,
      "iliĠ": 1014,
      "daĠm": 1015,
      "ĠáĮĬáĭľ": 1016,
      "áĮĥ": 1017,
      "Ġáĭ¨áĬłáĪĽáĪŃáĬĽĠáĪĿáĪ³áĪĮĠáĬĲáĭįáį¢ĠáīµáĪŃáĮīáĪĻ": 1018,
      "aĠb": 1019,
      "ewaĠ": 1020,
      "áī´": 1021,
      "ĠáĭĪáĭŃáĪĿ": 1022,
      "watanĠ": 1023,
      "uĠk": 1024,
      "eoĠ": 1025,
      "ementĠ": 1026,
      "rÃŃĠ": 1027,
      "eng": 1028,
      "wall": 1029,
      "aĠy": 1030,
      "Ãłn": 1031,
      "Ġáĭĵ.áĪĿ": 1032,
      "aĠku": 1033,
      "ayeĠ": 1034,
      "ĠnaĠ": 1035,
      "Ã¬n": 1036,
      "ĠáĬĵ": 1037,
      "ĠniĠ": 1038,
      "ond": 1039,
      "aĠd": 1040,
      "ĠTheĠ": 1041,
      "amarĠ": 1042,
      "ni": 1043,
      "áĪªáĬ«": 1044,
      "194": 1045,
      "ĠáĪĬ": 1046,
      "ĠáįĪ": 1047,
      "Jam": 1048,
      "tÃŃĠÃ³Ġ": 1049,
      "aneĠ": 1050,
      "10": 1051,
      "Ã¬d": 1052,
      "Ġáī¢": 1053,
      "daĠy": 1054,
      "áī³áīµ": 1055,
      "fir": 1056,
      "eri": 1057,
      "áĪĿĠáīł": 1058,
      "ĠáĬķáĮī": 1059,
      "ÃŃnÃºĠ": 1060,
      "es,Ġ": 1061,
      "ĠáĬ¥áĪµáĬ¨": 1062,
      "NajeriyaĠ": 1063,
      "gab": 1064,
      "áĪ¨áīµáĬĵ": 1065,
      "arr": 1066,
      "ĠáĮįáĬķ": 1067,
      "desĠ": 1068,
      "tat": 1069,
      "aĠf": 1070,
      "wakaĠwaĠ": 1071,
      "á¹£Ã¹": 1072,
      "ĠAm": 1073,
      "oĠwaĠ": 1074,
      "ĠsÃŃĠ": 1075,
      "orÃŃláº¹ÌĢ": 1076,
      "erÃ©Ġ": 1077,
      "ro": 1078,
      "wonĠ": 1079,
      "áĪ¨áīµáĬĵĠáĪĿáĪ³áĪĮ": 1080,
      "áĪ®áī½": 1081,
      "ĠáīłáĬĭáĪĭ": 1082,
      "Ar": 1083,
      "unaĠ": 1084,
      "ĠáĬłáĬķ": 1085,
      "nÃ¡": 1086,
      "ibiĠ": 1087,
      "Ġá»įjá»įÌģ": 1088,
      "nanĠ": 1089,
      "a-": 1090,
      "ĠÃĵ": 1091,
      "ĠáĬ¨áī°áĪĽ": 1092,
      "uĠwaĠ": 1093,
      "14": 1094,
      "áį»áį": 1095,
      "ĠâĢĵ": 1096,
      "áĪ¨áĪµ": 1097,
      "azar": 1098,
      "á¹£Ã¨": 1099,
      "bÃ¡": 1100,
      "kuwaĠ": 1101,
      "ĠáĬŃáįį": 1102,
      "ĠnÃŃ": 1103,
      "ofar": 1104,
      "ingĠ": 1105,
      "aif": 1106,
      "áīµĠáīł": 1107,
      "aĠl": 1108,
      "-Ã¨dÃ¨": 1109,
      "aĠmatsayinĠ": 1110,
      "he": 1111,
      "ugab": 1112,
      "apaĠ": 1113,
      "ey": 1114,
      "rit": 1115,
      "Ġáī°áĪ¨áīµáĬĵĠáĪĿáĪ³áĪĮ": 1116,
      "áĬķáĪĿ": 1117,
      "Un": 1118,
      "áĮŃ": 1119,
      "uzoĠyaĠ": 1120,
      "ÆĻasarĠ": 1121,
      "chaĠ": 1122,
      "iĠs": 1123,
      "daĠkumaĠ": 1124,
      "pÃŃn": 1125,
      "bir": 1126,
      "ĠáĪ²áĪĨáĬķ": 1127,
      "ĠáĪĪáĪĺ": 1128,
      "ayy": 1129,
      "lá»į": 1130,
      "oĠniĠ": 1131,
      "yaĠk": 1132,
      "ersĠ": 1133,
      "áĮĪáĬ": 1134,
      "aceĠ": 1135,
      "Pr": 1136,
      "had": 1137,
      "áĪīáį¢": 1138,
      "daĠkeĠ": 1139,
      "eur": 1140,
      "áĭİ": 1141,
      "TuzoĠyaĠ": 1142,
      "asuĠ": 1143,
      "âĢĵ": 1144,
      "inĠm": 1145,
      "s.": 1146,
      "Ġáĭķ": 1147,
      "'sĠ": 1148,
      "Ãłr": 1149,
      "ĠlÃ¡": 1150,
      "ĠáĭĵáĪĺ": 1151,
      "Ã¬t": 1152,
      "shir": 1153,
      "ais": 1154,
      "anazar": 1155,
      "edeĠ": 1156,
      "Ġj": 1157,
      "áĪ¶": 1158,
      "áĪĭáĭŃ": 1159,
      "ĠáīĢáĬķ": 1160,
      "Marek": 1161,
      "II": 1162,
      "Kar": 1163,
      "áĪįáī°": 1164,
      ".ĠItokasiĠ": 1165,
      "wenyeĠ": 1166,
      "ĠÃĢwá»įnĠ": 1167,
      "193": 1168,
      "ĠáĬ¢": 1169,
      "fÃºnĠ": 1170,
      "ĠáĪĺáĬķáĮįáĪ¥": 1171,
      "amf": 1172,
      "Ad": 1173,
      "ityĠ": 1174,
      "Ġáįį": 1175,
      "wali": 1176,
      "áĮĢáĪĺ": 1177,
      "yÃłnĠ": 1178,
      "shind": 1179,
      "eĠ(": 1180,
      "sÃŃĠ": 1181,
      "12": 1182,
      "áĮ»": 1183,
      "wal": 1184,
      "aid": 1185,
      "yanaĠ": 1186,
      "deĠlaĠ": 1187,
      "ĠtÃŃĠÃ³Ġ": 1188,
      "tur": 1189,
      "Ġáĭĵ.áĪĿ.": 1190,
      "iláº¹ÌĢ": 1191,
      "ĠáĮĢ": 1192,
      "áįĵ": 1193,
      "d'": 1194,
      "Ġ3": 1195,
      "áĭ´": 1196,
      "fark": 1197,
      "hal": 1198,
      "ĠgaĠ": 1199,
      "áĮįáĪŀ": 1200,
      "iki": 1201,
      "Ġc": 1202,
      "ari": 1203,
      "ri": 1204,
      "ins": 1205,
      "áĪŃáĭ«": 1206,
      "NobelĠyaĠ": 1207,
      "kÃ³": 1208,
      "aĠg": 1209,
      "pÃŃnláº¹ÌĢ": 1210,
      "tor": 1211,
      "Ġáīģ": 1212,
      "13": 1213,
      "par": 1214,
      "sab": 1215,
      "áį¦": 1216,
      "ninĠ": 1217,
      "ĠNÃłÃ¬jÃŃrÃŃ": 1218,
      "funĠ": 1219,
      "áĪ¸": 1220,
      "vyaĠ": 1221,
      "biy": 1222,
      "Kan": 1223,
      "ĠáĬĲáĮĪ": 1224,
      "ai": 1225,
      "maiĠ": 1226,
      "ilim": 1227,
      "duĠ": 1228,
      "An": 1229,
      "jiharĠ": 1230,
      "ĠáĪķ": 1231,
      "TuzoĠyaĠNobelĠyaĠ": 1232,
      "yÃŃĠ": 1233,
      "aĠwaĠ": 1234,
      "ath": 1235,
      "áĭµáĪŃ": 1236,
      "ait": 1237,
      "Walioz": 1238,
      "seĠ": 1239,
      "Ol": 1240,
      "y,Ġ": 1241,
      "Ġof": 1242,
      "bÃŃ": 1243,
      "ĠáĪļ": 1244,
      "áī³áĭĪ": 1245,
      "neĠyaĠ": 1246,
      "Ġáį²áį": 1247,
      "tareĠ": 1248,
      "000": 1249,
      "shindiĠwaĠ": 1250,
      "ile-": 1251,
      "ard": 1252,
      "ĠáĮĭáĪŃ": 1253,
      "por": 1254,
      "Ġáĭ¨áĬ¢áīµáĭ®áĮµáĭ«": 1255,
      "hiiĠ": 1256,
      "umb": 1257,
      "anĠs": 1258,
      "paĠ": 1259,
      "an,Ġ": 1260,
      "Ġáį¡": 1261,
      "aryĠ": 1262,
      "uj": 1263,
      "oĠnaĠ": 1264,
      "In": 1265,
      "áĪİáī½": 1266,
      "áĬŃáĪįáīł": 1267,
      "ele": 1268,
      "iĠ(": 1269,
      "áĮ«": 1270,
      "..": 1271,
      "Ġ\"": 1272,
      "inuĠ": 1273,
      "yan": 1274,
      "kÃ²": 1275,
      "waniĠ": 1276,
      "ĠáĭĵáĬŃáĪįáīł": 1277,
      "aĠM": 1278,
      "Ġáĭ°áĮįáĪŀ": 1279,
      "gbÃłĠ": 1280,
      "wÃ¡": 1281,
      "áĭ°áĪ¨": 1282,
      "áĮ¡": 1283,
      "Nij": 1284,
      "¦áĪŃ": 1285,
      "ili": 1286,
      "áīĤ": 1287,
      "lá»įÌģ": 1288,
      "atuk": 1289,
      "ĠAnĠ": 1290,
      "iya.": 1291,
      "abuĠ": 1292,
      "ĠdaĠ": 1293,
      "ĠV": 1294,
      "inĠk": 1295,
      "zam": 1296,
      "Ãłwá»įn": 1297,
      "ya": 1298,
      "kÃł": 1299,
      "aisĠ": 1300,
      "aĠ(": 1301,
      "Ã¹n": 1302,
      "kub": 1303,
      "aĠshekaraĠtaĠ": 1304,
      "wasĠ": 1305,
      "ĠáĭµáĪ¨áĪµ": 1306,
      "áĭ°áĪŃ": 1307,
      "shindiĠwaĠTuzoĠyaĠNobelĠyaĠ": 1308,
      "amuĠ": 1309,
      "donĠ": 1310,
      "eĠm": 1311,
      "ontĠ": 1312,
      "anaĠnaĠ": 1313,
      "ranarĠ": 1314,
      "TheĠ": 1315,
      "já»į": 1316,
      "áĮĪáĬĿ": 1317,
      "akar": 1318,
      "ofarikiĠ": 1319,
      "alis": 1320,
      "Ã¬lÃº": 1321,
      "obaĠ": 1322,
      "istor": 1323,
      "ezaĠ": 1324,
      "ĠáĮł": 1325,
      "olÃ³": 1326,
      "wasanĠ": 1327,
      "ĠáĬłáĬķáĭµ": 1328,
      "dun": 1329,
      "embaĠ": 1330,
      "ĠáĭĺáĪĺáĬķ": 1331,
      "áī°áĪ¨": 1332,
      "olog": 1333,
      "Ġg": 1334,
      "omb": 1335,
      "ĠáĪĪáĪĽ": 1336,
      "ens": 1337,
      "igh": 1338,
      "koĠ": 1339,
      "alikuwaĠ": 1340,
      "Ġ:": 1341,
      "okacinĠ": 1342,
      "áīµĠáĭ¨": 1343,
      "áĪĭáĪįáį¢": 1344,
      "far": 1345,
      "áĪĶ": 1346,
      "wallonĠ": 1347,
      "haifeĠ": 1348,
      "áĬķáīĭ": 1349,
      "orÃŃláº¹ÌĢ-Ã¨dÃ¨": 1350,
      "áĬķáĪµ": 1351,
      "ĠáĭĿ": 1352,
      "ĠMak": 1353,
      "abbanĠ": 1354,
      "ĠáĬ¤": 1355,
      "uku": 1356,
      "Ġth": 1357,
      "awá»įnĠ": 1358,
      "ĠáĪĮ": 1359,
      "áī°áĬĽ": 1360,
      "aleĠ": 1361,
      "fin": 1362,
      "arÃ¡": 1363,
      "ĠáĪįáĮħ": 1364,
      "áīłáĪ©": 1365,
      "Ġjáº¹ÌģĠ": 1366,
      "out": 1367,
      "ask": 1368,
      "sunĠ": 1369,
      "As": 1370,
      "Ib": 1371,
      "ĠáĪĨáĬĲ": 1372,
      "aus": 1373,
      "parĠ": 1374,
      "ogb": 1375,
      "fil": 1376,
      "ĠáĪĢ": 1377,
      "iqu": 1378,
      "uĠmwakaĠ": 1379,
      ").ĠM": 1380,
      "aĠkwaĠ": 1381,
      "ph": 1382,
      "Ã¬m": 1383,
      "yakeĠ": 1384,
      "Ã¬w": 1385,
      "áĪŃáīµ": 1386,
      "yarĠ": 1387,
      "annanĠ": 1388,
      "áĬª": 1389,
      "ivers": 1390,
      "Ġáĭ«áĪįáī°": 1391,
      "áĭļáĭ«": 1392,
      "ĠáĪħ": 1393,
      "aĠkar": 1394,
      "inger": 1395,
      "in,Ġ": 1396,
      "áĪ«áĭĬ": 1397,
      "âĢĿ": 1398,
      "enc": 1399,
      "Tanz": 1400,
      "tÃł": 1401,
      "Ġáīĭ": 1402,
      "áįī": 1403,
      "áīµáĬķ": 1404,
      "ĠáĭĵáĬŃáĪįáīł.": 1405,
      "Ġáĭ¨áĬ¥": 1406,
      "osĠ": 1407,
      "áĪ£": 1408,
      "ogr": 1409,
      "sunaĠ": 1410,
      "ĠáĬ¨áĬł": 1411,
      "lÃ©Ġ": 1412,
      "dÃ¡": 1413,
      "asi": 1414,
      "kus": 1415,
      "ajiĠ": 1416,
      "WaliozaliwaĠ": 1417,
      "sÃŃ": 1418,
      "192": 1419,
      "oun": 1420,
      "á»įÌģnĠ": 1421,
      "aĠaĠ": 1422,
      "from": 1423,
      "Is": 1424,
      "hak": 1425,
      "áĪĨáĬĳ": 1426,
      "áĬķáīµ": 1427,
      "oá¹£Ã¹": 1428,
      "aniaĠ": 1429,
      "áĭĺáĪĺ": 1430,
      "fiĠ": 1431,
      "nam": 1432,
      "Ġ(B": 1433,
      "ia": 1434,
      "Ġáĭ¨áĬĲ": 1435,
      "Ã¨Ġ": 1436,
      "lim": 1437,
      "áī°áĪ¨áĮİ": 1438,
      ";Ġ": 1439,
      "teĠ": 1440,
      "ĠáĪĥ": 1441,
      "i'": 1442,
      "aĠt": 1443,
      "atiĠyaĠ": 1444,
      "oll": 1445,
      "tionĠ": 1446,
      "kut": 1447,
      "atikaĠm": 1448,
      "aziĠ": 1449,
      "jer": 1450,
      "Ġá»įmá»į": 1451,
      "mut": 1452,
      "Ġáĭ³": 1453,
      "ageĠ": 1454,
      "áĭ°áī¥": 1455,
      "iya,Ġ": 1456,
      "o-": 1457,
      "oth": 1458,
      "Ã¬Ġ": 1459,
      "daĠd": 1460,
      "anazartaĠ": 1461,
      "áī£áĪį": 1462,
      "áĪĢ": 1463,
      "Ã³Ġt": 1464,
      "sonĠ": 1465,
      "Fr": 1466,
      "ĠáĪĽáĪĪáīµ": 1467,
      "afiĠ": 1468,
      "way": 1469,
      "org": 1470,
      "Ã¨nÃ¬": 1471,
      "AfrikaĠ": 1472,
      "áī¸áĭįáį¢": 1473,
      "eu": 1474,
      "pÃ©Ġ": 1475,
      "áĬķáĭ«": 1476,
      "Or": 1477,
      "inah": 1478,
      "indaĠ": 1479,
      "áĪ«áīµ": 1480,
      "áĪŀáī½": 1481,
      "áĪĬáĭĿ": 1482,
      "ilÃ©": 1483,
      "es.": 1484,
      "ĠáĬķáĮīáĪ¥": 1485,
      "hem": 1486,
      "san": 1487,
      "º¸": 1488,
      "aĠh": 1489,
      "Nig": 1490,
      "with": 1491,
      "att": 1492,
      "alÃ¡": 1493,
      "soĠ": 1494,
      "li": 1495,
      "er,Ġ": 1496,
      "Ġáĭ¨áĪļáĭ«": 1497,
      "antaĠ": 1498,
      "ĠáĮī": 1499,
      "afinĠ": 1500,
      "Amer": 1501,
      "wÃłĠ": 1502,
      "áį£Ġáīł": 1503,
      "ile-edeĠ": 1504,
      "diĠ": 1505,
      "Ã²r": 1506,
      "oriĠ": 1507,
      "Nijer": 1508,
      "waĠnaĠ": 1509,
      "Ġáī³áĪªáĬŃ": 1510,
      "ouĠ": 1511,
      "ĠáĬłáĪĪ": 1512,
      "oĠ(": 1513,
      ",000": 1514,
      "aul": 1515,
      "Rom": 1516,
      "ĠáīĭáĬķáīĭ": 1517,
      "ĠáĪ°áĭį": 1518,
      "áī°áĪ¨áĮİáĪĺ": 1519,
      "Ki": 1520,
      "uĠnaĠ": 1521,
      "ĠáĪĺáĬķáĮįáĪ¥áīµ": 1522,
      "áĬĵáīµ": 1523,
      "áº¹Ìģg": 1524,
      "Ġáī¥áĭĻ": 1525,
      "ru": 1526,
      "ord": 1527,
      "láº¹Ìģ": 1528,
      "áĮĬ": 1529,
      "áī£áī¢": 1530,
      "Afir": 1531,
      "bu": 1532,
      "lyĠ": 1533,
      "waj": 1534,
      "±áį»áį": 1535,
      "form": 1536,
      "andaĠ": 1537,
      "Ġáĭ«áĪįáī°áī°áĪ¨áĮİáĪĺ": 1538,
      "Ġáĭ«áĪįáī°áī°áĪ¨áĮİáĪĺĠáĪĿáĪ³áĪĮ": 1539,
      "oĠl": 1540,
      "inahus": 1541,
      "Ãł.": 1542,
      "St": 1543,
      "iss": 1544,
      "pá»įÌĢ": 1545,
      "áĪĦ": 1546,
      "atif": 1547,
      "uwarĠ": 1548,
      "on,Ġ": 1549,
      "gbÃ©": 1550,
      "inĠtheĠ": 1551,
      "abiĠ": 1552,
      "risto": 1553,
      "ĠAb": 1554,
      "Ġáĭ¨áĬłáĪĽáĪŃáĬĽĠáĪĿáĪ³áĪĮĠáĬĲáĭįáį¢ĠáīµáĪŃáĮīáĪĻĠáĭ«áĪįáī°áī°áĪ¨áĮİáĪĺĠáĪĿáĪ³áĪĮ": 1555,
      "iliy": 1556,
      "189": 1557,
      "iriĠ": 1558,
      "ĠáĪŀ": 1559,
      "urk": 1560,
      "ashinĠ": 1561,
      "ĠMakalaĠ": 1562,
      "danĠ": 1563,
      "ra": 1564,
      "áįķ": 1565,
      "lÃºĠ": 1566,
      "anu": 1567,
      "nchiĠ": 1568,
      "ĠMakalaĠhiiĠ": 1569,
      "eaĠ": 1570,
      "áĪĭáīµ": 1571,
      "ĠMakalaĠhiiĠinahus": 1572,
      "ĠMakalaĠhiiĠinahusuĠmwakaĠ": 1573,
      "arg": 1574,
      "190": 1575,
      "Ġáį£": 1576,
      "ational": 1577,
      "Ġkáº¹": 1578,
      "ĠáĪĻ": 1579,
      "áĬ¨áī°": 1580,
      "áĪ³áĭŃ": 1581,
      "ĠáĬłáĪį": 1582,
      "atukioĠ": 1583,
      "ishaĠ": 1584,
      "gr": 1585,
      "Ã©t": 1586,
      "oteĠ": 1587,
      "ouv": 1588,
      "tanaĠ": 1589,
      "ĠáĬłáĪµ": 1590,
      "gbeĠ": 1591,
      "per": 1592,
      "áĪįáĬŃ": 1593,
      "aadaĠyaĠK": 1594,
      "awanĠ": 1595,
      "11": 1596,
      "wad": 1597,
      "ankinĠ": 1598,
      "tÃ³Ġ": 1599,
      "áĭĭáĪįáį¢": 1600,
      "tareĠdaĠ": 1601,
      "shugab": 1602,
      "áī¥áĪŃ": 1603,
      "tsĠ": 1604,
      "lÃº": 1605,
      "uat": 1606,
      "Ã©eĠ": 1607,
      "áĮ¥áĪŃ": 1608,
      "Ġá»įmá»įĠ": 1609,
      "pos": 1610,
      "ĠáĬĲáĮĪáĪŃ": 1611,
      "ear": 1612,
      "áĪĿáĪ®": 1613,
      "ĠáĭŃáĮĪ": 1614,
      "yÃ¬nĠ": 1615,
      "ĠáĬ®": 1616,
      "yaĠm": 1617,
      "Ã¨nÃ¬yÃłnĠ": 1618,
      "anĠhaifeĠ": 1619,
      "emi": 1620,
      "áĪĭáĪį": 1621,
      "áĬĵĠáīł": 1622,
      "aadaĠyaĠKristo": 1623,
      "Mus": 1624,
      "jáº¹Ìģ": 1625,
      "Ġáĭ¨áĪĽ": 1626,
      "piaĠ": 1627,
      "ĠáĮİ": 1628,
      "Ġ(BaadaĠyaĠKristo": 1629,
      "yÃ¬ÃŃĠ": 1630,
      "asar": 1631,
      "Ġ(BaadaĠyaĠKristo).ĠM": 1632,
      "áī³áī¸áĭį": 1633,
      "Ã²á¹£Ã¨": 1634,
      "Ġáĭĵ/": 1635,
      "orile-edeĠ": 1636,
      "weng": 1637,
      "Afirk": 1638,
      "áĬ¨áĪį": 1639,
      "tern": 1640,
      "nÃŃnÃºĠ": 1641,
      "dagaĠcikinĠ": 1642,
      "shekararĠ201": 1643,
      "farkoĠ": 1644,
      "ÃŃá¹£": 1645,
      "Ã¨r": 1646,
      "It": 1647,
      "cl": 1648,
      "áĪĿáĪħ": 1649,
      "enceĠ": 1650,
      "kasanceĠ": 1651,
      "esh": 1652,
      "ĠáĪĺáĪµ": 1653,
      "ĠdeĠ": 1654,
      "lÃ¡tiĠ": 1655,
      "birninĠ": 1656,
      "áĪĺáĪŃ": 1657,
      "ool": 1658,
      "ĠáĮ½": 1659,
      "Br": 1660,
      "ofĠ": 1661,
      "lugh": 1662,
      "aik": 1663,
      "áī³áĭĬ": 1664,
      "ĠáĭĭáĬĵ": 1665,
      "ayiĠ": 1666,
      "olaĠ": 1667,
      ")ĠjeĠ": 1668,
      "áĪĨáĬĲ": 1669,
      "ĠAr": 1670,
      "ĠáĪ³áĭŃ": 1671,
      "oir": 1672,
      "uli": 1673,
      "áī½áĬķ": 1674,
      "ern": 1675,
      "ĠáĬ¥áĬķáĭ³": 1676,
      "yinĠ": 1677,
      "eĠs": 1678,
      "iá¹£áº¹ÌģĠ": 1679,
      "arab": 1680,
      "aĠkatikaĠ": 1681,
      "ÆĻwallonĠ": 1682,
      "áĮįáĪŃ": 1683,
      "ilikuwaĠ": 1684,
      "ept": 1685,
      "ju": 1686,
      "áĮĤ": 1687,
      "Ã¬á¹£": 1688,
      "áĪľáĪªáĬ«": 1689,
      "nÃ¡ÃłĠ": 1690,
      "yanĠ": 1691,
      "ĠáĪĺáĬķ": 1692,
      "amoj": 1693,
      "niĠm": 1694,
      "Ġáī¤áī°": 1695,
      "shiĠneĠ": 1696,
      "ĠWali": 1697,
      "ĠáĪģáĪī": 1698,
      "an.": 1699,
      "ĠáĬłáĪĺ": 1700,
      "báº¹ÌĢ": 1701,
      "ianĠ": 1702,
      "tÃ¬": 1703,
      "áĭ²áĪµ": 1704,
      ".áĬł": 1705,
      "ci": 1706,
      "aĠÅĦ": 1707,
      "ĠAn": 1708,
      "ser": 1709,
      "anoĠ": 1710,
      "int": 1711,
      "zin": 1712,
      "andeĠ": 1713,
      "ĠáĬłáĬ«": 1714,
      "comm": 1715,
      "kwaĠ": 1716,
      "peĠ": 1717,
      "akiĠ": 1718,
      "ĠáīłáĪĽ": 1719,
      "add": 1720,
      "ayanĠ": 1721,
      "Ġáĭĵ/áĪĿ": 1722,
      "áĭįáĭ«áĬķ": 1723,
      "auk": 1724,
      "jÃº": 1725,
      "sun": 1726,
      "ĠáĬłáĮĪ": 1727,
      "Ġ(BaadaĠyaĠKristo).ĠMatukioĠ": 1728,
      "ĠgaĠwatanĠ": 1729,
      "áī·": 1730,
      "bayanĠ": 1731,
      "aĠn": 1732,
      "ĠCh": 1733,
      "abil": 1734,
      "ká»į": 1735,
      "Ġ18": 1736,
      "e.Ġ": 1737,
      "Ġáį¢": 1738,
      "ĠNÃŃ": 1739,
      "a)Ġ": 1740,
      "ĠáįĬ": 1741,
      "áĮłáĪŃ": 1742,
      "Ġáº¸": 1743,
      "icanĠ": 1744,
      "áĭĿáī¥": 1745,
      "inĠdaĠ": 1746,
      "ĠáĪµáĪĿ": 1747,
      "amp": 1748,
      "ulk": 1749,
      "aikiĠ": 1750,
      "Éĵ": 1751,
      "Ġáĭ¨áĪĨ": 1752,
      "akarant": 1753,
      "zamaĠ": 1754,
      "ĠnÃ¡": 1755,
      "áĮĪáĬĺ": 1756,
      "áĮĨ": 1757,
      "ustr": 1758,
      "tÃŃĠwá»įÌģnĠ": 1759,
      "áĬķáĭ³": 1760,
      "ameĠ": 1761,
      "ma": 1762,
      "Ing": 1763,
      "hukum": 1764,
      "res": 1765,
      "byĠ": 1766,
      "kir": 1767,
      "30": 1768,
      "uniĠ": 1769,
      "ateĠ": 1770,
      "áº¹Ìģgáº¹ÌģĠ": 1771,
      "áī£áīµ": 1772,
      "1.": 1773,
      "alif": 1774,
      "ráº¹": 1775,
      "iseĠ": 1776,
      "JiharĠ": 1777,
      "50": 1778,
      "ork": 1779,
      "te": 1780,
      "eriaĠ": 1781,
      "ack": 1782,
      "pour": 1783,
      "\".": 1784,
      "kul": 1785,
      "áĭĽáīµ": 1786,
      "bal": 1787,
      "eheĠ": 1788,
      "gu": 1789,
      "mÃ¡": 1790,
      "áº¹Ìģr": 1791,
      "ko": 1792,
      "áĭī": 1793,
      "ĠBK": 1794,
      "áī±áĬķ": 1795,
      "ká»įĠ": 1796,
      "áĬŀ": 1797,
      "omoĠ": 1798,
      "1,Ġ": 1799,
      "i.Ġ": 1800,
      "lÃ¨": 1801,
      "lak": 1802,
      "Ġáį²áį±áį»áį": 1803,
      "omaĠ": 1804,
      "áįĸ": 1805,
      "áĪ¨áĭį": 1806,
      "anciĠ": 1807,
      "áĪĺáĬķ": 1808,
      "bi": 1809,
      "hur": 1810,
      "ká»įÌĢ": 1811,
      "almeĠ": 1812,
      "eneoĠ": 1813,
      "áĮĢáĪĺáĪªáĭ«": 1814,
      "iung": 1815,
      "--": 1816,
      "sur": 1817,
      "enn": 1818,
      "oci": 1819,
      "áĪŃáĪµáī²": 1820,
      "ÆĻaf": 1821,
      "1-": 1822,
      "Ġ4": 1823,
      "a,Ġm": 1824,
      "páº¹ÌĢ": 1825,
      "okoĠ": 1826,
      "ĠáĪĨáĬĸ": 1827,
      "ashar": 1828,
      "ĠáĪĺáĭ°áī¥": 1829,
      "ect": 1830,
      "gir": 1831,
      "alinĠ": 1832,
      "deĠl'": 1833,
      "gbÃ©Ġ": 1834,
      "quiĠ": 1835,
      "ĠáĪ°áĭİáī½": 1836,
      "intaĠ": 1837,
      "Ġáī¦": 1838,
      "Ġáĭ¨áĪĿ": 1839,
      "nying": 1840,
      "sĠ(": 1841,
      "emberĠ": 1842,
      "ahar": 1843,
      "gbÃ¡": 1844,
      "Ġáĭ¨áĬłáĪĽáĪŃáĬĽĠáĪĿáĪ³áĪĮĠáĬĲáĭįáį¢ĠáīµáĪŃáĮīáĪĻĠáĭ«áĪįáī°áī°áĪ¨áĮİáĪĺĠáĪĿáĪ³áĪĮĠáī°áĪ¨áīµáĬĵĠáĪĿáĪ³áĪĮ": 1845,
      "Ind": 1846,
      "Ingil": 1847,
      "saĠ": 1848,
      "áº¹ÌģrÃŃ": 1849,
      "tunĠ": 1850,
      "sehem": 1851,
      "akinĠ": 1852,
      "2006": 1853,
      "manĠ": 1854,
      "ĠáīłáĭļáĪħ": 1855,
      "we": 1856,
      "oniĠ": 1857,
      "cr": 1858,
      "áī¦áī½": 1859,
      "ous": 1860,
      "aux": 1861,
      "di": 1862,
      "áī½áį¢": 1863,
      "jáº¹": 1864,
      "má»įÌĢ": 1865,
      "Ġáī°áĪĺ": 1866,
      "latiĠ": 1867,
      "waiĠ": 1868,
      "ĠáĬłáĪµáī°": 1869,
      "ĠSh": 1870,
      "ÆĻwallonĠÆĻaf": 1871,
      "ĠandĠ": 1872,
      "ÃĮpÃŃnláº¹ÌĢ": 1873,
      "2,Ġ": 1874,
      "hisĠ": 1875,
      "aij": 1876,
      "orinĠ": 1877,
      "Univers": 1878,
      "otĠ": 1879,
      "sp": 1880,
      "ĠáīĨ": 1881,
      "dansĠ": 1882,
      "ray": 1883,
      "ĠÃĪ": 1884,
      "ueĠ": 1885,
      "isaĠ": 1886,
      "ĠtÃ³Ġ": 1887,
      "ĠAd": 1888,
      "5,Ġ": 1889,
      "yáº¹": 1890,
      "itt": 1891,
      "áĪĭáī¸áĭį": 1892,
      "ominĠ": 1893,
      "ishiĠ": 1894,
      "stĠ": 1895,
      "aĠmwakaĠwaĠ": 1896,
      "Ġá»ĮÌĢ": 1897,
      "ivy": 1898,
      "ras": 1899,
      "áĪĿáį¢": 1900,
      "tion": 1901,
      "ia,Ġ": 1902,
      "eleĠ": 1903,
      "Ã¹Ġ": 1904,
      "mat": 1905,
      "pÃł": 1906,
      "ÃŃr": 1907,
      "aliy": 1908,
      "MarekaniĠ": 1909,
      "wh": 1910,
      "áįİ": 1911,
      "mar": 1912,
      "vi": 1913,
      "ĠáĬ¢áīµáĭ®áĮµáĭ«": 1914,
      "pamoj": 1915,
      "Ã¡n": 1916,
      "2.": 1917,
      "áĬķáĮįáĪĬáĭĿ": 1918,
      "Ãłw": 1919,
      "ĠÃĴ": 1920,
      "5.": 1921,
      "2019": 1922,
      "iluĠ": 1923,
      "iqueĠ": 1924,
      "dakeĠ": 1925,
      "ber": 1926,
      "ia.": 1927,
      "jÃ¡": 1928,
      "wamn": 1929,
      "2007": 1930,
      "alam": 1931,
      "áĮłáīĢ": 1932,
      "tsak": 1933,
      "bÃ¡Ġ": 1934,
      "cor": 1935,
      "ilÃ©-": 1936,
      "New": 1937,
      "Ãª": 1938,
      "áī°áĭį": 1939,
      "kubwaĠ": 1940,
      "Ġáĭ¨áĪļáĮĪáĬĿ": 1941,
      "ĠáĬª": 1942,
      "áį£Ġáĭ¨": 1943,
      "Ak": 1944,
      "fit": 1945,
      "irg": 1946,
      "cewaĠ": 1947,
      "ilĠ": 1948,
      "tan": 1949,
      "ĠáĪĲ": 1950,
      "áĪĽáĪª": 1951,
      "áĪīáīµ": 1952,
      "ĠáĬ¨áĭļáĪħ": 1953,
      "in.": 1954,
      "man": 1955,
      "entr": 1956,
      "KarneĠyaĠ": 1957,
      "wand": 1958,
      "Dun": 1959,
      "ÃĴ": 1960,
      "iĠkwaĠ": 1961,
      "faraĠ": 1962,
      "be": 1963,
      "i-": 1964,
      "atĠ": 1965,
      "ubl": 1966,
      "ĠâĢľ": 1967,
      "\"Ġ": 1968,
      "ĠáĬłáĪĿ": 1969,
      "shig": 1970,
      "ĠáĪĿáĬŃ": 1971,
      "a:": 1972,
      "Ãłm": 1973,
      "fic": 1974,
      "á»įÌģkas": 1975,
      "áį¥": 1976,
      "oul": 1977,
      "veĠ": 1978,
      "yar": 1979,
      "ĠáĬ¥áĭ¨": 1980,
      "WaliofarikiĠ": 1981,
      "ĠáīłáĬ¥": 1982,
      "0.": 1983,
      "dÃºnĠ": 1984,
      "8,Ġ": 1985,
      "Ãł,Ġ": 1986,
      "áĮ¸": 1987,
      "eh": 1988,
      "ĠáīłáĪļ": 1989,
      "ĠáĭĵáĪĿ": 1990,
      "áĬĸáī½": 1991,
      "daĠsukaĠ": 1992,
      "Ġáīĥ": 1993,
      "oĠvyaĠ": 1994,
      "chĠ": 1995,
      "ananĠ": 1996,
      "kuf": 1997,
      "kasarĠ": 1998,
      "Tar": 1999,
      "ast": 2000,
      "Ã©sĠ": 2001,
      ",ĠmshindiĠwaĠTuzoĠyaĠNobelĠyaĠ": 2002,
      "Ã¬r": 2003,
      "ajiĠwaĠ": 2004,
      "dar": 2005,
      "adiĠ": 2006,
      "áĭ±áĪµ": 2007,
      "wakeĠ": 2008,
      "ĠáĪĺáĭ°áī¥Ġ:": 2009,
      "Gu": 2010,
      "Ã¬gbÃł": 2011,
      "ĠáĪ´": 2012,
      "áĮĵ": 2013,
      "isiwaĠ": 2014,
      "áĪĭáĬķáĭµ": 2015,
      ".áĬ¤": 2016,
      "áĭŀ": 2017,
      "2014": 2018,
      "Ãºr": 2019,
      "ardĠ": 2020,
      "áĮįáī¥": 2021,
      "2016": 2022,
      "ÆĻar": 2023,
      "kun": 2024,
      "itĠ": 2025,
      "wannanĠ": 2026,
      "acc": 2027,
      "ousĠ": 2028,
      "ninuĠ": 2029,
      "uwanĠ": 2030,
      "mentĠ": 2031,
      "ign": 2032,
      "Ġáįķ": 2033,
      "ĠáĪĺáĬ«": 2034,
      "abar": 2035,
      "taĠk": 2036,
      "áĪ°áĭį": 2037,
      "adeĠ": 2038,
      "lah": 2039,
      "ani.": 2040,
      "áįĴ": 2041,
      "anenĠ": 2042,
      "áĭ³áĬķ": 2043,
      "yak": 2044,
      "ĠZ": 2045,
      "abaĠ": 2046,
      "Ok": 2047,
      "uwan": 2048,
      "Ġáĭ¨áĪ°": 2049,
      "ĠTaĠ": 2050,
      "áĮ¨áĪ¨": 2051,
      "ĠáĪł": 2052,
      "Ġáº¹gb": 2053,
      "Wak": 2054,
      "land": 2055,
      "áĪ¨áĮĥ": 2056,
      "ĠlÃ¡tiĠ": 2057,
      "PapaĠ": 2058,
      "áĪĪáĭ«": 2059,
      "part": 2060,
      "áĪ°áī¥": 2061,
      "23": 2062,
      "wÃ²": 2063,
      "iĠniĠ": 2064,
      "jama'": 2065,
      "áĬķĠáĭ«": 2066,
      "olÃ¹": 2067,
      "ĠáĬ¥áĬķáĭ²áĪģ": 2068,
      "jÃ¹": 2069,
      "atur": 2070,
      "kup": 2071,
      "gbogb": 2072,
      "á»įÌģĠ": 2073,
      "act": 2074,
      "Ġáī£áĪĪ": 2075,
      "arans": 2076,
      "adh": 2077,
      "biyuĠ": 2078,
      "Ġ(BaadaĠyaĠKristo).ĠMatukioĠWaliozaliwaĠ": 2079,
      "gud": 2080,
      "áĪ¨áĬķ": 2081,
      "anj": 2082,
      "Ã¨t": 2083,
      "ambaĠ": 2084,
      "Ġáī°áīĢ": 2085,
      "ĠáĪ«": 2086,
      "ajalis": 2087,
      "áĮ¦": 2088,
      "ĠáĮĢáĪĿáĪ®": 2089,
      "iteĠ": 2090,
      "iesĠ": 2091,
      "za": 2092,
      "Gh": 2093,
      "ĠáĬ¥áĬĲ": 2094,
      "ust": 2095,
      "áĮĮ": 2096,
      "ĠáĬĲáīłáĪ¨": 2097,
      "Ġáįĵ": 2098,
      "tiĠoĠ": 2099,
      "na": 2100,
      "ancinĠ": 2101,
      "ĠfÃºnĠ": 2102,
      "fi": 2103,
      "ĠáĮ¨": 2104,
      "aĠkas": 2105,
      "eluĠ": 2106,
      "ráº¹ÌĢĠ": 2107,
      "iĠM": 2108,
      "Ø§": 2109,
      "áīĨáĮ£": 2110,
      "ement": 2111,
      "ĠáĬĲáĮĪáĪ¥": 2112,
      "áĮĪáĭµ": 2113,
      "tt": 2114,
      "ĠáĬłáīł": 2115,
      "áĪ¨áĭ³": 2116,
      "eth": 2117,
      "angu": 2118,
      "ĠAmáº¹ÌģrÃŃ": 2119,
      "pin": 2120,
      "rub": 2121,
      "ĠáĭĵáĪĺáīµ": 2122,
      "Itali": 2123,
      "kung": 2124,
      "áĭįĠáĭ¨": 2125,
      "idanĠ": 2126,
      "oyinĠ": 2127,
      "i'arĠ": 2128,
      "irinĠ": 2129,
      ".áĬ¤.áĬł": 2130,
      "0,Ġ": 2131,
      "atifuĠ": 2132,
      "Wa": 2133,
      "ilÃ©Ġ": 2134,
      "wasanĠÆĻwallonĠÆĻaf": 2135,
      "Ag": 2136,
      "Gr": 2137,
      "ĠáĬ¦": 2138,
      "aim": 2139,
      "ĠáĬĵáī¸áĭįáį¢": 2140,
      "chool": 2141,
      "áĪĽáĭĬ": 2142,
      "uhamm": 2143,
      "ba": 2144,
      "ink": 2145,
      "áīħáĪĿ": 2146,
      "ĠáĭĺáĬķáĭµ": 2147,
      "uch": 2148,
      "ÃŃnÃº": 2149,
      "enyeĠ": 2150,
      "25": 2151,
      "ten": 2152,
      "zaid": 2153,
      "ĠáĮ¸": 2154,
      "Mat": 2155,
      "áĬķĠáĬ¨": 2156,
      "omm": 2157,
      "áĭĺáĪĺáĬĲ": 2158,
      "áĪĶáĪŃ": 2159,
      "áĮĪáĬĻ": 2160,
      "iaĠyaĠ": 2161,
      "áįħ": 2162,
      "Ġ9": 2163,
      "áī°áĪŃ": 2164,
      "babbanĠ": 2165,
      "áĬĵáĪį": 2166,
      "ĠáĪĿáĬķáĮ": 2167,
      "sak": 2168,
      "áĬķĠáĪĺ": 2169,
      "ĠáĮ¦áĪŃ": 2170,
      "24": 2171,
      "áīª": 2172,
      "áĪįáĮ£": 2173,
      "prÃ©": 2174,
      "áĮ½áĪĲ": 2175,
      "iaĠm": 2176,
      "iam": 2177,
      "áĭ¥": 2178,
      "iraĠ": 2179,
      "pamojaĠnaĠ": 2180,
      "Ġáĭ«áĪĪ": 2181,
      "ail": 2182,
      "kÃ¬": 2183,
      "si": 2184,
      "anninĠ": 2185,
      "jiĠm": 2186,
      "kÃ³Ġ": 2187,
      "wanzaĠ": 2188,
      "8.": 2189,
      "y.": 2190,
      "aĠranarĠ": 2191,
      "Ãły": 2192,
      "ym": 2193,
      "istr": 2194,
      "hany": 2195,
      "ĠtaĠ": 2196,
      "iniĠyaĠ": 2197,
      "ar,Ġ": 2198,
      "ne,Ġ": 2199,
      "áĪŃáĪ±": 2200,
      "kud": 2201,
      "gbaj": 2202,
      "min": 2203,
      "utaĠ": 2204,
      "ĠIn": 2205,
      "ebru": 2206,
      "an-": 2207,
      "zil": 2208,
      "áĬķĠáĭ¨": 2209,
      "itiĠ": 2210,
      "Ġáī°áĭĪ": 2211,
      "ohunĠ": 2212,
      "samuĠ": 2213,
      "21": 2214,
      "elleĠ": 2215,
      "7,Ġ": 2216,
      "rel": 2217,
      "shenĠ": 2218,
      "Ġáī¥áī»": 2219,
      "amfaniĠ": 2220,
      "ial": 2221,
      "Ġ5": 2222,
      "saiĠ": 2223,
      "ÙĦ": 2224,
      "áĭ¨áĪŃ": 2225,
      "áī¡áī¥": 2226,
      "plusĠ": 2227,
      "ĠIl": 2228,
      "3.": 2229,
      "ĠMar": 2230,
      "ká»įÌģĠ": 2231,
      "idaĠ": 2232,
      "jinaĠ": 2233,
      "ikoĠ": 2234,
      "ĠáĬłáī¥": 2235,
      "eĠof": 2236,
      "áĪĿĠáĭ¨": 2237,
      "lu": 2238,
      "po": 2239,
      "daĠakaĠ": 2240,
      "aka": 2241,
      ")Ġ(": 2242,
      "cons": 2243,
      "akanĠ": 2244,
      "ukoĠ": 2245,
      ").Ġ": 2246,
      "wah": 2247,
      "ĠáĬ¥.áĬ¤.áĬł": 2248,
      "eux": 2249,
      "lat": 2250,
      "aĠshekararĠ": 2251,
      "Ã©k": 2252,
      "Ã¬bÃŃĠ": 2253,
      "egbeĠ": 2254,
      "gbÃ¨": 2255,
      "Ġáī°áĬ¨": 2256,
      "2009": 2257,
      "Ã¬b": 2258,
      "ĠáĪī": 2259,
      "Ãłd": 2260,
      "ĠáĬłáī£": 2261,
      "Ã¡nĠ": 2262,
      "aĠmaiĠ": 2263,
      "uhammad": 2264,
      "odunĠ": 2265,
      "shineĠ": 2266,
      "ĠtÃŃĠwá»įÌģnĠ": 2267,
      "ationsĠ": 2268,
      "áĬ¤áĪį": 2269,
      ".ĠItokasiĠÃĢwá»įnĠ": 2270,
      "akarantarĠ": 2271,
      "dab": 2272,
      "igb": 2273,
      "uĠ(": 2274,
      "áĬłáī¥": 2275,
      "iungoĠvyaĠ": 2276,
      "áīµĠáĪĺ": 2277,
      "Ã©j": 2278,
      "áĪĺáĪµ": 2279,
      "ashenĠ": 2280,
      "aadaĠyaĠ": 2281,
      "El": 2282,
      "jerum": 2283,
      "Ġáĭ®": 2284,
      "áĭĭáĪį": 2285,
      "áī³áĪįáį¢": 2286,
      "ĠáĬ¨áįį": 2287,
      "TanzaniaĠ": 2288,
      "asoĠ": 2289,
      "cinĠ": 2290,
      "atunĠ": 2291,
      "áīµáĬĵ": 2292,
      "ikeĠ": 2293,
      "áĬĵáĭĬ": 2294,
      "aijir": 2295,
      "3,Ġ": 2296,
      "ÉĹanĠ": 2297,
      "uv": 2298,
      "umm": 2299,
      "ĠnÃŃnÃºĠ": 2300,
      "2Ġ": 2301,
      "outh": 2302,
      "jiĠ": 2303,
      "Ãłká»įÌģ": 2304,
      "orÃ¹": 2305,
      "ĠáīģáĮ¥áĪŃ": 2306,
      "7.": 2307,
      "lam": 2308,
      "nj": 2309,
      "i,Ġm": 2310,
      "áĪĿáĬĵ": 2311,
      "ĠlÃ³": 2312,
      "á»įbaĠ": 2313,
      "oĠlaĠ": 2314,
      "eĠdesĠ": 2315,
      "edĠtoĠ": 2316,
      "ww": 2317,
      "kÃłĠ": 2318,
      "sik": 2319,
      "ĠáĪ¥áĪŃ": 2320,
      "ingerezaĠ": 2321,
      "icĠ": 2322,
      "Ġáĭ«áĪĪáĭį": 2323,
      "áĭįáĪ®": 2324,
      "oĠch": 2325,
      "alikuwaĠm": 2326,
      "al'": 2327,
      "Ã¨reĠ": 2328,
      "essĠ": 2329,
      "ech": 2330,
      "ĠáĮ£": 2331,
      "iveĠ": 2332,
      "dig": 2333,
      "watuĠ": 2334,
      "aĠkanĠ": 2335,
      "ĠáĪľ": 2336,
      "awalaĠ": 2337,
      "Th": 2338,
      "miĠ": 2339,
      "ĠáĪĺáĪį": 2340,
      "En": 2341,
      "áĪļáĭ«": 2342,
      "fÃŃ": 2343,
      "ĠáĬĥ": 2344,
      "2004": 2345,
      "rÃ¨": 2346,
      "ĠáĭĪáĬķ": 2347,
      "ĠkanĠ": 2348,
      "ÃłrÃ¹nĠ": 2349,
      "aun": 2350,
      "áī£áĪĪ": 2351,
      "ohnĠ": 2352,
      "wasanĠÆĻwallonĠÆĻafaĠtaĠ": 2353,
      "riĠ": 2354,
      "Ġáī¡": 2355,
      "pe": 2356,
      "Ġ6": 2357,
      "Nigeri": 2358,
      "ne": 2359,
      "weĠ": 2360,
      "Ġáĭ¨áĪĨáĬĲ": 2361,
      "finĠ": 2362,
      "kÃ¡": 2363,
      "iya": 2364,
      "ilayaĠ": 2365,
      "odĠ": 2366,
      "vit": 2367,
      ")ĠniĠ": 2368,
      "amil": 2369,
      "Ã¨yÃŃĠ": 2370,
      "afaĠ": 2371,
      "laĠm": 2372,
      "ĠjeĠ": 2373,
      "áĬķĠáĭŃ": 2374,
      "ajalisarĠ": 2375,
      "Ben": 2376,
      "ofinĠ": 2377,
      "ical": 2378,
      "ĠJanu": 2379,
      "ĠáĭµáĪŃ": 2380,
      "nom": 2381,
      "falmeĠ": 2382,
      "wasanĠÆĻwallonĠÆĻafaĠtaĠÆĻasarĠ": 2383,
      "Um": 2384,
      "Ġ20": 2385,
      "áĬ¢": 2386,
      "\",Ġ": 2387,
      "26": 2388,
      "ÃĢwá»įn": 2389,
      "áī¢áĭ«": 2390,
      "lokacinĠ": 2391,
      "Ùİ": 2392,
      "astĠ": 2393,
      "orth": 2394,
      "Ġlá»į": 2395,
      "ĠAg": 2396,
      "Ġá»įdunĠ": 2397,
      "29": 2398,
      "iĠzaĠ": 2399,
      "comp": 2400,
      "asheĠ": 2401,
      "áĭįĠáīł": 2402,
      "Ġ'": 2403,
      "Ã§": 2404,
      "ĠáĪ½": 2405,
      "avec": 2406,
      "Tr": 2407,
      "dayaĠ": 2408,
      "adar": 2409,
      "áĪ«áĪį": 2410,
      "gunĠ": 2411,
      "ĠáĪĺáĭ°áī¥Ġ:Ġáī°áĪ¨áīµáĬĵĠáĪĿáĪ³áĪĮ": 2412,
      "áĮ¨áĪ¨áĪ»": 2413,
      "ort": 2414,
      "ĠáĬ¨áĪĺ": 2415,
      "ungiyarĠ": 2416,
      "bur": 2417,
      "wasuĠ": 2418,
      "lin": 2419,
      "itÃ©Ġ": 2420,
      "iĠkatikaĠ": 2421,
      "Col": 2422,
      "áī¥áĪ¨": 2423,
      "ĠRD": 2424,
      "áº¹Ìģáº¹ÌĢ": 2425,
      "ĠáĪĺáĬ«áĬ¨áĪį": 2426,
      ")Ġáīł": 2427,
      "Ġal": 2428,
      "itedĠ": 2429,
      "autarĠ": 2430,
      "harĠ": 2431,
      "áº¹l": 2432,
      "ĠáĬ¨áĭļáĭ«": 2433,
      "outĠ": 2434,
      "eĠd'": 2435,
      "akwaiĠ": 2436,
      "Har": 2437,
      "uaĠ": 2438,
      "nchiniĠ": 2439,
      "Amurk": 2440,
      "áĬħ": 2441,
      "fim": 2442,
      "áĭµáĪĿ": 2443,
      "áĭİáī¹": 2444,
      "yĠ(": 2445,
      "ĠAfr": 2446,
      "iĠyaĠK": 2447,
      "oneĠ": 2448,
      "Ġ17": 2449,
      "Ġá»įjá»įÌģÃ¬bÃŃĠ": 2450,
      "áĮ¤": 2451,
      "eseĠ": 2452,
      "áĪħáĪį": 2453,
      "nÃŃĠá»įdÃºnĠ": 2454,
      "áĪĺáĪĪ": 2455,
      "ĠSept": 2456,
      "Itokasi": 2457,
      "Ujerum": 2458,
      "Ġ/": 2459,
      "ÃłÃ¡": 2460,
      "Ġáĭ¨áīĢ": 2461,
      "wandaĠyaĠ": 2462,
      "sukaĠ": 2463,
      "Ìģ": 2464,
      "áĭŃáĭĪ": 2465,
      "ĠWak": 2466,
      "188": 2467,
      "áĬķáĬĵ": 2468,
      "Ãłt": 2469,
      "orl": 2470,
      "eĠduĠ": 2471,
      "ian": 2472,
      "rah": 2473,
      "áĬ³": 2474,
      "ĠáĬłáĪŃ": 2475,
      "anĠhaifeĠshiĠ": 2476,
      "27": 2477,
      "rÃ©Ġ": 2478,
      "odh": 2479,
      "UniversityĠ": 2480,
      "beĠ": 2481,
      "Ã©,Ġ": 2482,
      "ĠáĬŃáįįáĪĪ": 2483,
      "áĮįáĭļ": 2484,
      "Naijir": 2485,
      "tun": 2486,
      "wá»įÌĢ": 2487,
      "atol": 2488,
      "kuuĠwaĠ": 2489,
      "usuĠ": 2490,
      "Le": 2491,
      "gáº¹Ìģgáº¹ÌģĠ": 2492,
      "ĠÃ¨dÃ¨": 2493,
      "Bir": 2494,
      "ĠáĬłáĮĪáĪŃ": 2495,
      "iyeĠ": 2496,
      "ĠáīµáĪĿáĪħ": 2497,
      "iĠdaĠ": 2498,
      "0Ġ": 2499,
      "Ur": 2500,
      "Ã©n": 2501,
      "itsĠ": 2502,
      "endele": 2503,
      "Ġáī¤áīµ": 2504,
      "áĪµáĪ«": 2505,
      "áĬ¥áĬķáĮįáĪĬáĭĿ": 2506,
      "ook": 2507,
      "alm": 2508,
      "áīħáĪŃ": 2509,
      "lor": 2510,
      "atuĠ": 2511,
      "áĪµáī³": 2512,
      "acceĠ": 2513,
      "a.ĠM": 2514,
      "28": 2515,
      "aá¹£": 2516,
      "iyoĠ": 2517,
      "áįĬáīµ": 2518,
      "zab": 2519,
      "itu": 2520,
      "áĪĽáĭŃ": 2521,
      "lakiniĠ": 2522,
      "ound": 2523,
      "áįĥ": 2524,
      "ĠPr": 2525,
      "Ã©esĠ": 2526,
      "onn": 2527,
      "upandeĠ": 2528,
      "ÃĮt": 2529,
      "WaliofarikiĠKarneĠyaĠ": 2530,
      "aĠK": 2531,
      "ejÃ¬": 2532,
      "hil": 2533,
      "ahaif": 2534,
      "ownĠ": 2535,
      "bas": 2536,
      "zaĠm": 2537,
      "inĠs": 2538,
      "gbogboĠ": 2539,
      "Ġáīħáĭ±áĪµ": 2540,
      "idĠ": 2541,
      "2005": 2542,
      "och": 2543,
      "Are": 2544,
      "kur": 2545,
      "áīĨáĮ£áĮłáĪŃ": 2546,
      "ĠáĬ¨áĬĲ": 2547,
      "ionsĠ": 2548,
      "Fas": 2549,
      "njeĠ": 2550,
      "aĠzaĠ": 2551,
      "jin": 2552,
      "woĠ": 2553,
      "áīĦ": 2554,
      "ayoĠ": 2555,
      "áĮłáĪ«": 2556,
      "Ġáī¦áī³": 2557,
      "pol": 2558,
      "zaĠk": 2559,
      "leg": 2560,
      "Ul": 2561,
      "fer": 2562,
      "ham": 2563,
      "orĠ": 2564,
      "áĬķáĮĭ": 2565,
      "iceĠ": 2566,
      "ĠJul": 2567,
      "Ġjáº¹Ìģ": 2568,
      "ograp": 2569,
      "dÃŃ": 2570,
      "áĪı": 2571,
      "Ã©g": 2572,
      "imuĠ": 2573,
      "ĠáĪĪáĬł": 2574,
      "ĠnÃ¡ÃłĠ": 2575,
      "aÉĹ": 2576,
      "sÃ¡": 2577,
      "reg": 2578,
      "tareheĠ": 2579,
      "áĬŀáī½": 2580,
      "yÃŃ": 2581,
      "Ġáĭ¨áĭĪ": 2582,
      "akarĠ": 2583,
      "ĠApr": 2584,
      "e)Ġ": 2585,
      "arib": 2586,
      ".ĠÃĢwá»įnĠ": 2587,
      "tobaĠ": 2588,
      "utaneĠ": 2589,
      "ĠáĬ¥áĬķáĮį": 2590,
      "ĠInĠ": 2591,
      "dr": 2592,
      "iakaĠ": 2593,
      "otoĠ": 2594,
      "Austr": 2595,
      "Jap": 2596,
      "duk": 2597,
      "shugabanĠ": 2598,
      "áĮįáĭļáĬłáī¥": 2599,
      "áĮģ": 2600,
      "Tanzani": 2601,
      "atiĠwaĠ": 2602,
      "áĪĿáĪŃ": 2603,
      "ult": 2604,
      "áĮĨáī½": 2605,
      "Ac": 2606,
      "aikinĠ": 2607,
      "anaĠk": 2608,
      "Qu": 2609,
      "ĠáĬĲáīłáĪ©": 2610,
      "port": 2611,
      "ĠáĪĿáĬŃáĬķáĭ«": 2612,
      "Ġá»įjá»įÌģÃ¬bÃŃĠnÃŃĠ": 2613,
      "2020": 2614,
      "ipaĠ": 2615,
      "shekaruĠ": 2616,
      "ĠÃĢwá»įn": 2617,
      "keĠ": 2618,
      "ĠáĪ¨": 2619,
      "isp": 2620,
      "is,Ġ": 2621,
      "orn": 2622,
      "Ġáī°áī¥": 2623,
      "haÉĹ": 2624,
      "ĠAĠcikinĠ": 2625,
      "ĠAs": 2626,
      "rec": 2627,
      "Ġáĭ²": 2628,
      "ĠAk": 2629,
      "aghar": 2630,
      "ĠáĪĪáĪĿ": 2631,
      "ĠOr": 2632,
      "owoĠ": 2633,
      "áĭ¬": 2634,
      "embaĠ-": 2635,
      "iá¹£áº¹Ìģ": 2636,
      "ĠWaliofarikiĠ": 2637,
      "2015": 2638,
      "wakaziĠ": 2639,
      "ward": 2640,
      "arĠm": 2641,
      "áĮ¥áĬķ": 2642,
      "ĠNov": 2643,
      "oreĠ": 2644,
      "Ġ16": 2645,
      "áĭķáĪ«": 2646,
      "nchiĠyaĠ": 2647,
      "eeĠ": 2648,
      "ogoĠ": 2649,
      "oup": 2650,
      "áĭ¶áī½": 2651,
      "Marekani": 2652,
      "Stat": 2653,
      "ont": 2654,
      "Shugab": 2655,
      "Ġáĭĵ/áĪĿĠ-": 2656,
      "ĠáĬ¥.áĬ¤.áĬł.": 2657,
      "ick": 2658,
      "áī¥áĪ«": 2659,
      "emiĠ": 2660,
      "bug": 2661,
      "áĪŃáĬŃ": 2662,
      "ett": 2663,
      "ĠFebru": 2664,
      "awoĠ": 2665,
      "ĠáĭŃáĮĪáĬĽ": 2666,
      "ood": 2667,
      "eĠdeĠ": 2668,
      "Ã©c": 2669,
      "Ã¬s": 2670,
      "ayÃ©Ġ": 2671,
      "áĮĪáī£": 2672,
      "áĬĸáĪŃ": 2673,
      "pá»įÌĢĠ": 2674,
      "áĪº": 2675,
      "áĬķáĮī": 2676,
      "ilaĠ": 2677,
      "iliĠyaĠ": 2678,
      "2-": 2679,
      "Ãĵ": 2680,
      "kunĠ": 2681,
      "ĠWá»įÌģnĠ": 2682,
      "oroĠ": 2683,
      "naĠk": 2684,
      "weny": 2685,
      "Tur": 2686,
      "ilit": 2687,
      "Haus": 2688,
      "Ġ7": 2689,
      "oke": 2690,
      "e,Ġm": 2691,
      "//": 2692,
      "taf": 2693,
      "Ġ.": 2694,
      "bar": 2695,
      "osh": 2696,
      "isi": 2697,
      "gwamn": 2698,
      "rá»įÌĢ": 2699,
      "Ġáįĸ": 2700,
      "áĮįáĭļáĬłáī¥áĪĶáĪŃ": 2701,
      "4.": 2702,
      "áĪĨáĬķĠáīł": 2703,
      "2003": 2704,
      "ĠáĪģáĪĪáīµ": 2705,
      "eorg": 2706,
      "o.Ġ": 2707,
      "yl": 2708,
      "Ã¬nrinĠ": 2709,
      "Ã¬wÃ©Ġ": 2710,
      "ubaĠ": 2711,
      "ĠáĪŃ": 2712,
      "aĠS": 2713,
      "atedĠ": 2714,
      "uleĠ": 2715,
      "yĠof": 2716,
      "bayaĠ": 2717,
      "áī£áĪĪáĭį": 2718,
      "arenĠ": 2719,
      "ĠOk": 2720,
      "Ã¬já»įbaĠ": 2721,
      "³áĪµ": 2722,
      "âĢľ": 2723,
      "ĠAmáº¹ÌģrÃŃkÃł": 2724,
      "rin": 2725,
      "tob": 2726,
      "Ã¬pÃŃnláº¹ÌĢ": 2727,
      "ukanĠ": 2728,
      "ciĠgab": 2729,
      "Mal": 2730,
      "waĠkwaĠ": 2731,
      "balimb": 2732,
      "odhaĠyaĠ": 2733,
      "girm": 2734,
      "pÃ¨": 2735,
      "wur": 2736,
      "áĬ¦": 2737,
      "ar.": 2738,
      "ashiĠ": 2739,
      "ene": 2740,
      "kumaĠtaĠ": 2741,
      "ihiĠ": 2742,
      "Jami'arĠ": 2743,
      "lÃ¹": 2744,
      "azin": 2745,
      "ogunĠ": 2746,
      "áĪģáĬķ": 2747,
      "1999": 2748,
      "ĠNÃłÃ¬jÃŃrÃŃÃłĠ": 2749,
      "ĠáĬŃáįįáĪį": 2750,
      "ttp": 2751,
      "At": 2752,
      "yp": 2753,
      "ĠzuwaĠ": 2754,
      "apoĠ": 2755,
      "lex": 2756,
      "ĠáĪĮáĪĭ": 2757,
      "loĠ": 2758,
      "Ġ|ĠRD": 2759,
      "Em": 2760,
      "áĪ³áīµ": 2761,
      "áĬķáį¡": 2762,
      "áĪ°áĪ«": 2763,
      "aÆĻ": 2764,
      "allyĠ": 2765,
      "Par": 2766,
      "omin": 2767,
      "Ed": 2768,
      "aoĠ": 2769,
      "inay": 2770,
      "ĠáĭĽ": 2771,
      "kÃº": 2772,
      "ĠetĠ": 2773,
      "odaĠ": 2774,
      "ĠtÃºnĠ": 2775,
      "áĬĴáĭ«": 2776,
      "amfaninĠ": 2777,
      "áĬ¥áĬķáĮįáĪĬáĭĿáĬĽ": 2778,
      "May": 2779,
      ",ĠÃ³Ġ": 2780,
      "áĭŃáĪį": 2781,
      "://": 2782,
      "ĠáĪ¶": 2783,
      "ĠáĭŃáī£": 2784,
      "áĪĿĠáĬ¨": 2785,
      "itionĠ": 2786,
      "idiĠ": 2787,
      "by": 2788,
      "áĪ¹": 2789,
      "áĭ°áĪ¨áĮĪ": 2790,
      "áĪįáīħ": 2791,
      "Kis": 2792,
      "kÃŃĠ": 2793,
      "rik": 2794,
      "azamaĠ": 2795,
      "ĠNig": 2796,
      "má»į": 2797,
      "áĮ£áĪį": 2798,
      "Ç¹": 2799,
      "áĬ¢áīµáĭ®áĮµáĭ«": 2800,
      "ĠáĪ¸": 2801,
      "ejiĠ": 2802,
      "ingerez": 2803,
      "Ġ8": 2804,
      "Ġáĭ¨áĮį": 2805,
      "imm": 2806,
      "áĮ½áĪĲáįį": 2807,
      "áĪĪáī°": 2808,
      "gbá»įÌģnĠ": 2809,
      "laf": 2810,
      "Ġáĭ©": 2811,
      "ĠáĬ¥áĭ«": 2812,
      "iyanĠ": 2813,
      "Bar": 2814,
      "ĠPapaĠ": 2815,
      "de": 2816,
      "anzaĠ": 2817,
      "yaĠM": 2818,
      "Ã³nĠ": 2819,
      "áī³áĭŃ": 2820,
      "áĪįáĮį": 2821,
      "gbÃ²": 2822,
      "ainĠ": 2823,
      "str": 2824,
      "Ã©l": 2825,
      "farans": 2826,
      "odeĠ": 2827,
      "Ġáī´": 2828,
      "andĠtheĠ": 2829,
      "Ken": 2830,
      "iyyarĠ": 2831,
      "wasanĠÆĻwallonĠÆĻafaĠtaĠÆĻasarĠIngil": 2832,
      "etr": 2833,
      "lÃŃ": 2834,
      "usin": 2835,
      "6.": 2836,
      "áĪ¨áĮį": 2837,
      "qu'": 2838,
      "yÃ©Ġ": 2839,
      ".ĠI": 2840,
      "ĠLeĠ": 2841,
      "Ġáĭ¨áĪĺáĮĢáĪĺáĪªáĭ«": 2842,
      "daĠt": 2843,
      "kuj": 2844,
      "áĭŃáĬĵ": 2845,
      "ĠáĪĽáĪŃ": 2846,
      "Ã©kerÃ©Ġ": 2847,
      "22": 2848,
      "ireĠ": 2849,
      "jÃ¡Ġ": 2850,
      "áĪŃáĭĿ": 2851,
      "en,Ġ": 2852,
      "ĠáĬ¥áĬĵĠáīł": 2853,
      "Ã¬y": 2854,
      "emp": 2855,
      "Najeriya.": 2856,
      "ĠáĬ¨áī°áĪŀáī½": 2857,
      "oisĠ": 2858,
      "arĠk": 2859,
      "ĠkÃŃĠ": 2860,
      "áĬŃáīµ": 2861,
      "ĠáĬ¥áĬķáĭ°áĪļ": 2862,
      "sontĠ": 2863,
      "Ã¬dÃ¬": 2864,
      "eyĠ": 2865,
      "yad": 2866,
      "atinĠ": 2867,
      "áĭŃáĪĽ": 2868,
      "âĢĺ": 2869,
      "áĮłáīĥ": 2870,
      "tsakaninĠ": 2871,
      "áĬķáĭ°": 2872,
      "ine": 2873,
      "istĠ": 2874,
      "ÅĦĠ": 2875,
      "ViungoĠvyaĠ": 2876,
      "pad": 2877,
      "ush": 2878,
      "áĭµáĪŀ": 2879,
      "ingĠtheĠ": 2880,
      "sin": 2881,
      "tÃŃ": 2882,
      "áĮĪáĪĪ": 2883,
      "lÃ³g": 2884,
      "Ang": 2885,
      "Om": 2886,
      "áĪ«áī¸áĭį": 2887,
      "niĠnaĠ": 2888,
      "okac": 2889,
      "áįĪáĪŃ": 2890,
      "jag": 2891,
      "niĠk": 2892,
      "áī³áĪį": 2893,
      "ĠáīłáĬ¢áīµáĭ®áĮµáĭ«": 2894,
      "orÃº": 2895,
      "Ġ(áīł": 2896,
      "á»įÌģkasÃŃĠ": 2897,
      "wacceĠ": 2898,
      "lÃ¡n": 2899,
      "whi": 2900,
      "ina": 2901,
      "ĠÃłtiĠ": 2902,
      "ani,Ġ": 2903,
      "áĮİáĪŃ": 2904,
      "áº¹Ìģrá»įÌģ": 2905,
      "Ray": 2906,
      "Ã¡st": 2907,
      "esĠdeĠ": 2908,
      "áī¤áīµ": 2909,
      "garinĠ": 2910,
      "Ġáīłáī°áĪĪ": 2911,
      "ĠBKĠ(BaadaĠyaĠKristo).ĠMatukioĠWaliozaliwaĠ": 2912,
      "Ã¡stáº¹Ìģrá»įÌģ": 2913,
      "Lag": 2914,
      "áĬĺ": 2915,
      "áīµáĪŃ": 2916,
      "elop": 2917,
      "áĬŃáĪµ": 2918,
      "utum": 2919,
      "edĠtheĠ": 2920,
      "Ġáº¹láº¹Ìģ": 2921,
      "iĠnaĠm": 2922,
      "áĬķáĬķ": 2923,
      "áī£áĭŃ": 2924,
      "ĠáĭŃáī½": 2925,
      "Ġ10": 2926,
      "itaĠceĠ": 2927,
      "ĠáĬłáĬ«áī£áī¢": 2928,
      "40": 2929,
      "Wat": 2930,
      "áī¥áĪµ": 2931,
      ",ĠM": 2932,
      "esĠ(": 2933,
      "áīĢáĪŃ": 2934,
      "yanz": 2935,
      "ternational": 2936,
      "amaĠm": 2937,
      "ojo": 2938,
      "eiĠ": 2939,
      "yst": 2940,
      "onÃŃ": 2941,
      "ĠáĬŃáĪŃáĪµáī²": 2942,
      "br": 2943,
      "áĪĳ": 2944,
      "áĪ¥áĪ«": 2945,
      "kungiyarĠ": 2946,
      "ism": 2947,
      "áĮĪáĬĵ": 2948,
      "NijeriyaĠ": 2949,
      "áĪĪáĭ«áĭ©": 2950,
      "NÃłÃ¬jÃŃrÃŃ": 2951,
      "kaĠ": 2952,
      "Ã¡stáº¹Ìģrá»įÌģÃ¬dÃ¬": 2953,
      "yankinĠ": 2954,
      "ert": 2955,
      "áĪĿĠáĬł": 2956,
      "dh": 2957,
      "kumaĠm": 2958,
      "oph": 2959,
      "ĠáĪĮáĪİáī½": 2960,
      "fur": 2961,
      "uuĠ": 2962,
      "áįĢ": 2963,
      "orÃ¹bÃ¡": 2964,
      "say": 2965,
      "áĮįáī£": 2966,
      "áĭŃáĪĽáĬĸ": 2967,
      "sannanĠ": 2968,
      "kund": 2969,
      "red": 2970,
      "iĠh": 2971,
      "Us": 2972,
      "bin": 2973,
      "áĬķĠáĪµ": 2974,
      "iwaĠnaĠ": 2975,
      "sáº¹ÌĢ": 2976,
      "áĭĸ": 2977,
      "áĪĭáĪĪ": 2978,
      "tÃ¬Ġk": 2979,
      "Ã³Ã²": 2980,
      "omiĠ": 2981,
      "ĠáĬłáīłáī£": 2982,
      "100": 2983,
      "illiam": 2984,
      "iĠyaĠk": 2985,
      "hadiĠ": 2986,
      "aaĠ": 2987,
      "daĠtaĠ": 2988,
      "áĮĪáĬķ": 2989,
      "ĠTar": 2990,
      "4,Ġ": 2991,
      "ĠáĭĪáīħ": 2992,
      "ĠáĭĺáĪĺáĬĲ": 2993,
      "Ġáĭ¨áĬĲáīłáĪ¨": 2994,
      "erĠ(": 2995,
      "awa,Ġ": 2996,
      "samunĠ": 2997,
      "\"Ġ(": 2998,
      "mÃ¬n": 2999,
      "ĠáĬ©": 3000,
      "ĠáĬ¥áĪŃ": 3001,
      "ungeĠ": 3002,
      "Ġ19": 3003,
      "eral": 3004,
      "Ipin": 3005,
      "mad": 3006,
      "ÃłkÃ³": 3007,
      "ĠTh": 3008,
      "2011": 3009,
      "oá¹£Ã¹Ġkáº¹": 3010,
      "ĠáĮ¦áĪŃáĬĲáīµ": 3011,
      "bÃ¹nĠ": 3012,
      "áĭµáĬķ": 3013,
      "ĠNÃŃĠá»įdÃºnĠ": 3014,
      "Bur": 3015,
      "col": 3016,
      "já»įĠ": 3017,
      "ĠáĪĺáĮł": 3018,
      "Ã¬lÃºĠ": 3019,
      "³áį": 3020,
      "anarĠ": 3021,
      "ulun": 3022,
      "ĠáĪ²áĭ«": 3023,
      "Ġtr": 3024,
      "iyaĠtaĠ": 3025,
      "eursĠ": 3026,
      "oodĠ": 3027,
      "artaĠ": 3028,
      "Con": 3029,
      "Muhammad": 3030,
      "ax": 3031,
      "lâĢĻ": 3032,
      "n.": 3033,
      "ĠleĠ": 3034,
      "atĠtheĠ": 3035,
      "2013": 3036,
      "187": 3037,
      "nÃŃĠibiĠ": 3038,
      "-áº¹ÌĢ": 3039,
      "baĠdaĠ": 3040,
      "186": 3041,
      "áĪªáĬ«áĭĬ": 3042,
      "hanyarĠ": 3043,
      "ĠáīłáĪĭáĭŃ": 3044,
      "ĠáĬ¥áĮħ": 3045,
      "Leg": 3046,
      "gar": 3047,
      "Ã¡r": 3048,
      "áĪ«áĪ±": 3049,
      "ongoz": 3050,
      "ĠNÃłÃ¬jÃŃrÃŃÃł": 3051,
      "jih": 3052,
      "ÃłĠlaĠ": 3053,
      "ment": 3054,
      "ukeĠ": 3055,
      "ĠáĭĪáĪŃ": 3056,
      "tonĠ": 3057,
      "ĠlaĠ": 3058,
      "Ãłp": 3059,
      "áĪĺáĪ¨": 3060,
      "okinĠ": 3061,
      "Tib": 3062,
      "wÃ©Ġ": 3063,
      "uĠzaĠ": 3064,
      "AmerikaĠ": 3065,
      "BC": 3066,
      "anguĠ": 3067,
      "áĪĲáĬķáĪµ": 3068,
      "Ã´": 3069,
      "ĠáĭŃáī³": 3070,
      "Ġ15": 3071,
      "ĠáĬ¥áĬĵĠáĭ¨": 3072,
      "Kik": 3073,
      "áĬ¬": 3074,
      "isiĠ": 3075,
      "elek": 3076,
      "áĭ°áĪį": 3077,
      "áĮįáĪ«": 3078,
      "Sp": 3079,
      "mon": 3080,
      "iĠyaĠm": 3081,
      "orÃŃláº¹ÌĢĠÃ¨dÃ¨": 3082,
      "ĠáĬĲáīłáĪ¨áį¢": 3083,
      "vol": 3084,
      "wig": 3085,
      "áĪĭáĪĿ": 3086,
      "koaĠwaĠ": 3087,
      "Ufarans": 3088,
      "vil": 3089,
      "Ġy": 3090,
      "aĠc": 3091,
      "atarĠdaĠ": 3092,
      "áĪįáĭµ": 3093,
      "áĭ°áīµ": 3094,
      "ensĠ": 3095,
      "ock": 3096,
      "ojoibiĠ": 3097,
      "ium": 3098,
      "plÃ¡n": 3099,
      "anyaĠ": 3100,
      "oduc": 3101,
      "Was": 3102,
      "lamb": 3103,
      "iyyaĠ": 3104,
      "ivyoĠ": 3105,
      "ix": 3106,
      "jáº¹Ġ": 3107,
      "ars": 3108,
      "ĠáĭĵáĪĺáī³áīµ": 3109,
      "sÃŃláº¹ÌĢ": 3110,
      "áĭįáĪ®áįĵ": 3111,
      "6,Ġ": 3112,
      "Ùħ": 3113,
      "Ġáĭ¶": 3114,
      "áĪŃáĭµ": 3115,
      "erg": 3116,
      "ĠLesĠ": 3117,
      "uhur": 3118,
      "ĠáĬłáĬķáĭ±": 3119,
      "anazarta": 3120,
      "icsĠ": 3121,
      "ĠSt": 3122,
      "ĠáĪĽáĪµ": 3123,
      "kumaĠyaĠ": 3124,
      "aâĢĻ": 3125,
      "áº¹ÌģtÃ¬Ġk": 3126,
      "uss": 3127,
      "Ã¬gbÃłjÃ¡Ġ": 3128,
      "ĠáĬ³áĪµ": 3129,
      "áĪ¨áī¥": 3130,
      "dom": 3131,
      "á¹£eĠ": 3132,
      "rÃŃláº¹ÌĢ": 3133,
      "áº¹ÌģtÃ¬ĠkÃ©kerÃ©Ġ": 3134,
      "ĠtÃŃ": 3135,
      "katikaĠ": 3136,
      "us,Ġ": 3137,
      "áĮĢáĪĺáĪŃáĭ«": 3138,
      "páº¹ÌĢlÃºĠ": 3139,
      "Farans": 3140,
      "ilm": 3141,
      "Ġáī³áĪĭ": 3142,
      "Pol": 3143,
      "eop": 3144,
      "warĠ": 3145,
      "áĬĵáĪįáį¢": 3146,
      "wajenĠ": 3147,
      "Sal": 3148,
      "Ãī": 3149,
      "ilom": 3150,
      "ĠáĪįáĭ©": 3151,
      "áĭĵáĪĪáĪĿ": 3152,
      "nÃŃĠibiĠÃ¬gbÃłjÃ¡Ġ": 3153,
      "plÃ¡náº¹ÌģtÃ¬ĠkÃ©kerÃ©Ġ": 3154,
      "oĠtaĠ": 3155,
      "omeĠ": 3156,
      "ĠáĪĿáĭµáĪŃ": 3157,
      "ĠáĬ¨áįįáī°áĬĽ": 3158,
      "cour": 3159,
      "áĬĵáī¸áĭį": 3160,
      "shiry": 3161,
      "nÃŃĠibiĠÃ¬gbÃłjÃ¡ĠÃ¡stáº¹Ìģrá»įÌģÃ¬dÃ¬": 3162,
      "eraĠ": 3163,
      "ĠáĪµáĪ«": 3164,
      "takatifuĠ": 3165,
      "nÃłĠ": 3166,
      "aká»į": 3167,
      "áĪľáĬķ": 3168,
      "ÃĪ": 3169,
      "ĠáĭĻ": 3170,
      "Ġáĭľ": 3171,
      "icaĠ": 3172,
      "áī£áī¸áĭį": 3173,
      "ĠáĪĽáĪĪáīµĠáĬĲáĭįáį¢": 3174,
      "plÃ¡náº¹ÌģtÃ¬ĠkÃ©kerÃ©ĠnÃŃĠibiĠÃ¬gbÃłjÃ¡ĠÃ¡stáº¹Ìģrá»įÌģÃ¬dÃ¬": 3175,
      "áī±áĪĿ": 3176,
      "ulik": 3177,
      "ukuĠ": 3178,
      "IpinleĠ": 3179,
      "orÃŃĠ": 3180,
      "áĪªáĭİáī½": 3181,
      "app": 3182,
      "jirg": 3183,
      "sheĠ": 3184,
      "daĠyawanĠ": 3185,
      "ĠáĬĲáĮĪáĪ¥áī³áīµ": 3186,
      "Cl": 3187,
      "wÃŃ": 3188,
      "Æĺ": 3189,
      "akaĠm": 3190,
      "tÃ³": 3191,
      "iyas": 3192,
      "áįįáĪ«": 3193,
      "Eb": 3194,
      "ĠáĪĦ": 3195,
      "ĠtÃł": 3196,
      "ostĠ": 3197,
      "2018": 3198,
      "Ij": 3199,
      "áĭĮ": 3200,
      "ĠáĪµáĪŃ": 3201,
      "ĠlesĠ": 3202,
      "commeĠ": 3203,
      "-áĬł": 3204,
      "ijiĠ": 3205,
      "9.": 3206,
      "ableĠ": 3207,
      "ĠsÃŃ": 3208,
      "lughaĠyaĠ": 3209,
      "ttp://": 3210,
      "etaĠ": 3211,
      "áīµáį¢": 3212,
      "áĬĵĠáĭ¨": 3213,
      ".ĠT": 3214,
      "aĠkamaĠ": 3215,
      "wana": 3216,
      "ustĠ": 3217,
      ")Ġjáº¹ÌģĠ": 3218,
      "wasanĠk": 3219,
      "nunaĠ": 3220,
      "esĠetĠ": 3221,
      "áĭİáĪµ": 3222,
      "AĠ": 3223,
      "áĪµáįĭ": 3224,
      "áī¶áĪµ": 3225,
      "hadaĠ": 3226,
      "áĪ¨áĬķáĪ³áĭŃ": 3227,
      "kamarĠ": 3228,
      "samiĠ": 3229,
      "histor": 3230,
      "oleĠ": 3231,
      "ĠáĭķáĪĪáīµ": 3232,
      "tal": 3233,
      "Ã©d": 3234,
      "oĠM": 3235,
      "ostiĠ": 3236,
      "ĠYork": 3237,
      "áĭ²áĪµĠáĬłáīłáī£": 3238,
      "ier": 3239,
      "insĠ": 3240,
      "inter": 3241,
      "Ġáī¥áĪİ": 3242,
      "áī²áĬ«": 3243,
      "cont": 3244,
      "áĮ¨áĪĽáĪª": 3245,
      "Bl": 3246,
      "Ãłti": 3247,
      "ĠáĪĽáĭķ": 3248,
      "2008": 3249,
      "Ã²á¹£Ã¨rÃ©": 3250,
      "aĠkasanceĠ": 3251,
      "dauk": 3252,
      "kÃłn": 3253,
      "yaw": 3254,
      "áīµĠáĬ¨": 3255,
      "daĠyaĠ": 3256,
      "kuwaĠm": 3257,
      "wÃłĠnÃŃĠ": 3258,
      "eshiĠ": 3259,
      "Ġáīłáī¥": 3260,
      "áĪĿáį¡": 3261,
      "unanĠ": 3262,
      "áĭ°áī¡áī¥": 3263,
      "filamuĠ": 3264,
      "ĠáĭĭáĬĵĠáĬ¨áī°áĪĽ": 3265,
      "Hu": 3266,
      ".ĠK": 3267,
      "2010": 3268,
      "ojÃº": 3269,
      "Il": 3270,
      "áīµáį£": 3271,
      "ĠáĬłáĭį": 3272,
      "2017": 3273,
      "ĠáīĥáĪį": 3274,
      "alit": 3275,
      "áĪĬáĭ«": 3276,
      "Ġáī£áĪħ": 3277,
      "Ġ=": 3278,
      "as,Ġ": 3279,
      "oit": 3280,
      "Ãłá¹£": 3281,
      "ĠDes": 3282,
      "III": 3283,
      "CO": 3284,
      "entur": 3285,
      "ĠÂ«áĭ¨": 3286,
      "agbÃ¨": 3287,
      "gameĠ": 3288,
      "ikuĠ": 3289,
      "kunaĠ": 3290,
      "orÃŃ": 3291,
      "niĠÃ³Ġ": 3292,
      "treĠ": 3293,
      "occ": 3294,
      "Gab": 3295,
      "terĠ": 3296,
      "wereĠ": 3297,
      "chiniĠyaĠ": 3298,
      "wanam": 3299,
      "wambaĠ": 3300,
      "60": 3301,
      "ayarĠ": 3302,
      "imoĠ": 3303,
      "áĬĸáĪ©": 3304,
      "áĮĢáĪŃ": 3305,
      "ananĠhukum": 3306,
      "erÃ©": 3307,
      "Ã¬nĠ": 3308,
      "áĪĭáĭĬ": 3309,
      "áĮ£áĪĿ": 3310,
      "áĭ«áĭį": 3311,
      "ime": 3312,
      "áīĢáĭį": 3313,
      "Ġjáº¹ÌģĠplÃ¡náº¹ÌģtÃ¬ĠkÃ©kerÃ©ĠnÃŃĠibiĠÃ¬gbÃłjÃ¡ĠÃ¡stáº¹Ìģrá»įÌģÃ¬dÃ¬": 3314,
      "fu": 3315,
      "ultur": 3316,
      "áĬ¨áĪĪ": 3317,
      "wa.": 3318,
      "atarĠ": 3319,
      "áĭ®áī½": 3320,
      "Ġáī¥áĪŃ": 3321,
      "iziki": 3322,
      "Ġáĭ®áĪĲáĬķáĪµ": 3323,
      "ĠFr": 3324,
      "áĮįáĪŃĠáĬ³áĪµ": 3325,
      "gbajÃº": 3326,
      "kÃ¨": 3327,
      "lant": 3328,
      "ĠáĬ£": 3329,
      "áĮ¢": 3330,
      "áĪĭáĬŃ": 3331,
      "Ġáĭ¨áĬ¤": 3332,
      "mwakaĠ": 3333,
      "ĠáĪ±": 3334,
      "ortĠ": 3335,
      "abl": 3336,
      "Kud": 3337,
      "áĪ³áī¸áĭį": 3338,
      "Ġáī°áĪ«": 3339,
      "opul": 3340,
      "edĠinĠ": 3341,
      "UnitedĠ": 3342,
      "ki": 3343,
      ",ĠandĠ": 3344,
      "sĠof": 3345,
      "ĠJam": 3346,
      "istanĠ": 3347,
      "mÃŃ": 3348,
      "ta,Ġ": 3349,
      "ĠinĠ": 3350,
      "al-": 3351,
      "áīµĠáĭŃ": 3352,
      "premi": 3353,
      "dis": 3354,
      "jiĠwaĠ": 3355,
      "áī¨": 3356,
      "old": 3357,
      "ÃłĠl'": 3358,
      "kan": 3359,
      "sÃ¹": 3360,
      "yab": 3361,
      "Ġ(áĬ¨": 3362,
      "Ġ-ĠM": 3363,
      "áĬĸáĪµ": 3364,
      "Afrik": 3365,
      "hasaĠ": 3366,
      "inat": 3367,
      "kal": 3368,
      "áĭ®áĬķ": 3369,
      "orldĠ": 3370,
      "Histor": 3371,
      "áīĢáĪĺ": 3372,
      "toĠtheĠ": 3373,
      "eph": 3374,
      "ĠáīµáĪĿáĪħáĪŃáīµ": 3375,
      "tum": 3376,
      "zaiĠ": 3377,
      "¹¢": 3378,
      "oĠsiĠ": 3379,
      "áĪĭáĭį": 3380,
      "ĠØ": 3381,
      "ÃłgbÃ©": 3382,
      "ĠdinĠ": 3383,
      "asharik": 3384,
      "tit": 3385,
      "erm": 3386,
      "ĠNiĠ": 3387,
      "Allah": 3388,
      "má»įÌģ": 3389,
      "ĠáĮįáĭĽáīµ": 3390,
      "kutokaĠMarekani": 3391,
      "oá¹£Ã¹Ġk": 3392,
      "Ġáº¹gbáº¹ÌģĠ": 3393,
      "Ġáĭ¨áĪħ": 3394,
      "iaĠnaĠ": 3395,
      "ĠáĬłáĭŃáĬĲáīµ": 3396,
      "ĠNÃłÃ¬jÃŃrÃŃÃł.": 3397,
      "i)Ġ": 3398,
      "ÙĬ": 3399,
      "urop": 3400,
      "Ġ(áĭ¨": 3401,
      "ofaut": 3402,
      "ÆĻas": 3403,
      "80": 3404,
      "School": 3405,
      "langu": 3406,
      "erb": 3407,
      "áĬĵĠáĪĺ": 3408,
      "áĪ³áī¥": 3409,
      "ific": 3410,
      "ĠDagaĠ": 3411,
      "ĠáĮ¥áīħáĪĿ": 3412,
      "Jamhur": 3413,
      "ightĠ": 3414,
      ")Ġáĭ¨": 3415,
      "Fiziki": 3416,
      "cut": 3417,
      "ys": 3418,
      "||": 3419,
      "orsĠ": 3420,
      "sÃ¬Ġ": 3421,
      "áī»áī¸áĭį": 3422,
      "Ġáº¸ÌĢ": 3423,
      "ĠáĪª": 3424,
      "on.": 3425,
      "ĠáĭĪáĬķáĭµ": 3426,
      "áĭĪáī½": 3427,
      "Ġkm": 3428,
      "leur": 3429,
      "e:": 3430,
      "iel": 3431,
      "ĠáĬ¨áĪļ": 3432,
      "wanz": 3433,
      "áĬĽáį¦": 3434,
      "áįįáĪªáĬ«": 3435,
      "bayyanaĠ": 3436,
      "otherĠ": 3437,
      "Ã²á¹£Ã¨rÃ©Ġ": 3438,
      "Kam": 3439,
      "ony": 3440,
      "Najeriya,Ġ": 3441,
      "ĠáĬ¥áĬķáĭ²áĪģáĪĿ": 3442,
      "fáº¹Ìģ": 3443,
      "wa,Ġ": 3444,
      "Ã®": 3445,
      "akos": 3446,
      "ĠAc": 3447,
      ".ĠB": 3448,
      "ĠMach": 3449,
      "iĠmaiĠ": 3450,
      "ĠáĪ²áĪĨáĬķĠáīł": 3451,
      "mas": 3452,
      "chiĠ": 3453,
      "Ġjáº¹ÌģĠplÃ¡náº¹ÌģtÃ¬ĠkÃ©kerÃ©ĠnÃŃĠibiĠÃ¬gbÃłjÃ¡ĠÃ¡stáº¹Ìģrá»įÌģÃ¬dÃ¬.ĠItokasiĠ": 3454,
      "ox": 3455,
      "Ã¨sĠ": 3456,
      "áī³áĭį": 3457,
      "ariĠ-": 3458,
      "wakil": 3459,
      "dag": 3460,
      "pat": 3461,
      "Ġ199": 3462,
      "Ġáį¡áį¡": 3463,
      "anĠhaifeĠshiĠaĠshekaraĠtaĠ": 3464,
      "King": 3465,
      "soci": 3466,
      "áī«": 3467,
      "arwaĠ": 3468,
      "un,Ġ": 3469,
      "ĠKar": 3470,
      "aĠB": 3471,
      "ĠáĮįáĭµáĪĿ": 3472,
      "ĠáĬ¥áĬĲáĭļáĪħ": 3473,
      "If": 3474,
      "Kad": 3475,
      "áĬķáį£": 3476,
      "áĬĲáĭį": 3477,
      "Ġáįĭ": 3478,
      "ĠáĭĪáĭŃ": 3479,
      "2012": 3480,
      "rad": 3481,
      "ĠwasĠ": 3482,
      "lokac": 3483,
      "wish": 3484,
      "unif": 3485,
      "áĭ°áĪĿ": 3486,
      "resĠ": 3487,
      "Ġáĭ¨áĭį": 3488,
      "áĪ³áĭĬ": 3489,
      "ÃłmÃ¬": 3490,
      "scor": 3491,
      ".ĠL": 3492,
      "iĠkar": 3493,
      "stit": 3494,
      "Ġáĭ¨áĬ¢": 3495,
      "landĠ": 3496,
      "Ġáī½": 3497,
      "áĬķĠáīłáĪĺ": 3498,
      "ĠáĪ¥áĬĲ": 3499,
      "waik": 3500,
      "ĠAgostiĠ": 3501,
      "AnĠ": 3502,
      "Ã³ĠtiĠ": 3503,
      "áĮĪáĪ©": 3504,
      "ĠáĬ¨áĬ¥": 3505,
      "Ã²á¹£": 3506,
      "anb": 3507,
      "lÃ¡raĠ": 3508,
      "áī³áĭĪáīĥ": 3509,
      "fas": 3510,
      "rib": 3511,
      "áĪĿáį£": 3512,
      "áīĨáĪµ": 3513,
      "tarih": 3514,
      "iusĠ": 3515,
      ",ĠS": 3516,
      "uĠniĠ": 3517,
      "áīłáī¥": 3518,
      "iaĠ(": 3519,
      "ibiyarĠ": 3520,
      "etteĠ": 3521,
      "áĪłáĪ¨": 3522,
      "ĠáīĭáĬķáīĭáĭİáī½": 3523,
      "butĠ": 3524,
      "agharib": 3525,
      "waikway": 3526,
      "daĠakeĠ": 3527,
      "áĪįáĪµ": 3528,
      "eniĠ": 3529,
      "áĭĪáĮ£": 3530,
      "aisĠwaĠ": 3531,
      "prÃ©s": 3532,
      "45": 3533,
      "als": 3534,
      "kuh": 3535,
      "jÃºĠ": 3536,
      "áįĮ": 3537,
      "áº¹ÌģyÃ¬nĠ": 3538,
      "aĠkwaĠm": 3539,
      "áįĪáĭį": 3540,
      "áĬķáī²": 3541,
      "áĬĲáī±": 3542,
      "áīĢáīµ": 3543,
      "3-": 3544,
      "aud": 3545,
      "tim": 3546,
      "ĠáĪ®": 3547,
      "waĠniĠ": 3548,
      "ĠáĪĺáĪ°": 3549,
      "atic": 3550,
      "edĠbyĠ": 3551,
      "MataĠ": 3552,
      "yw": 3553,
      "yamm": 3554,
      "ilis": 3555,
      "ai,Ġ": 3556,
      "ginaĠ": 3557,
      "ric": 3558,
      "áĭĪáĪ°": 3559,
      "báº¹ÌĢráº¹ÌĢ": 3560,
      "omp": 3561,
      "umaĠ": 3562,
      "dÃ©Ġ": 3563,
      "i:": 3564,
      "akk": 3565,
      "prop": 3566,
      "Ġáĭ°áĪ¨áĮĥ": 3567,
      "ĠáĬłáĪµáī°áĭ³": 3568,
      "1,": 3569,
      "lik": 3570,
      "amin": 3571,
      "áĭ°áĭį": 3572,
      "áĪ®áĪµ": 3573,
      "sÃ¬nĠ": 3574,
      "dok": 3575,
      "dul": 3576,
      "arm": 3577,
      "ful": 3578,
      "máº¹Ìģ": 3579,
      "er.": 3580,
      "ĠOktobaĠ": 3581,
      "Kim": 3582,
      "ref": 3583,
      "gid": 3584,
      "notĠ": 3585,
      "aĠjiharĠ": 3586,
      "bÃŃiĠ": 3587,
      "ĠJulaiĠ": 3588,
      "'y": 3589,
      "aniĠyaĠ": 3590,
      "uĠM": 3591,
      "eweĠ": 3592,
      "samarĠdaĠ": 3593,
      "ĠáĪĨáĬĲáį¢": 3594,
      "yn": 3595,
      "arb": 3596,
      "asil": 3597,
      "hakaĠ": 3598,
      "aireĠ": 3599,
      "wigiz": 3600,
      "iĠneĠ": 3601,
      "ararĠ": 3602,
      "áĮĬáĭľ": 3603,
      "adinĠ": 3604,
      "iĠwaĠm": 3605,
      "áīĥáĪµ": 3606,
      "Ġáº¹ÌĢká»įÌģ": 3607,
      "ĠáĪ¥áĪ«": 3608,
      "ĠáĭĪáĬķáĭĿ": 3609,
      "gáº¹Ìģgáº¹ÌģĠbÃŃĠ": 3610,
      "o:": 3611,
      "arak": 3612,
      "ĠáĬłáĪ¨": 3613,
      "alib": 3614,
      "sehemuĠyaĠ": 3615,
      "atolikiĠ": 3616,
      "'yanĠ": 3617,
      "35": 3618,
      "70": 3619,
      "AareĠ": 3620,
      "Gre": 3621,
      "kÃ¹n": 3622,
      "tel": 3623,
      "alsoĠ": 3624,
      "âĢİ": 3625,
      "Ġáĭ«áĪµ": 3626,
      "thi": 3627,
      "áĪĬáĬŃ": 3628,
      "ewarĠ": 3629,
      "oyÃ¨": 3630,
      "ĠáĪįáĮĨáī½": 3631,
      "Ã¬dÃŃ": 3632,
      "score": 3633,
      "pÃ¡": 3634,
      "arch": 3635,
      "uth": 3636,
      "áĭ¨áīµ": 3637,
      "duniyaĠ": 3638,
      "ĠáĮŃ": 3639,
      "alip": 3640,
      "ĠáĮįáī¥": 3641,
      "ĠEl": 3642,
      "BN": 3643,
      "kaf": 3644,
      "áĬĻ": 3645,
      "inn": 3646,
      "akam": 3647,
      "ĠáĮ¥áĬķ": 3648,
      "anzish": 3649,
      "...": 3650,
      "yank": 3651,
      "áĪ¾": 3652,
      "áĬĲáīłáĪ¨": 3653,
      "ÉĹayaĠ": 3654,
      "ĠáĪģáĪĪ": 3655,
      "agbÃ¡": 3656,
      "Ġáī°áī¥áĪİ": 3657,
      "ernĠ": 3658,
      "Ġáĭ¨áĪķ": 3659,
      "áĮłáĪ¨": 3660,
      "hasĠ": 3661,
      "ĠáĬ¥áĬķáĭ²áĪħ": 3662,
      "áĪŃáĪµáī¶áĪµ": 3663,
      "Eng": 3664,
      "Kir": 3665,
      "taraĠ": 3666,
      "err": 3667,
      "Ã¬gb": 3668,
      "taĠyiĠ": 3669,
      "Ġáī¥áĪĶ": 3670,
      "uzikiĠ": 3671,
      "yÃłĠ": 3672,
      "áį²áį": 3673,
      "Ġáĭ¨áīł": 3674,
      "áĪĿáĬĲáīµ": 3675,
      "ĠBayanĠ": 3676,
      "áĭĭáīĤ": 3677,
      "ĠáĭĿáĪŃáĭĿ": 3678,
      "GhanaĠ": 3679,
      "eanĠ": 3680,
      "áĭĲ": 3681,
      "serik": 3682,
      "waf": 3683,
      "®áī½": 3684,
      "ĠáīµáĬķ": 3685,
      "ograph": 3686,
      "ĠáĬĲáīłáĪ©áį¢": 3687,
      "áĬķáĭ±": 3688,
      "ĠáīłáĪ°": 3689,
      "Ã©m": 3690,
      "Franc": 3691,
      "ĠtÃłbÃŃĠ": 3692,
      "Im": 3693,
      "áįĲ": 3694,
      "ĠáĮĮ": 3695,
      "kÃ²Ġ": 3696,
      "Ġá¹¢": 3697,
      "áĪµáĬĵ": 3698,
      "Ġ(áĬł": 3699,
      "walej": 3700,
      "pek": 3701,
      "yawanĠ": 3702,
      "ÙĨ": 3703,
      "áĪŁ": 3704,
      "are": 3705,
      "ĠáĪĺáĮ½áĪĲáįį": 3706,
      "2000": 3707,
      "mutaneĠ": 3708,
      "ĠáĪĺáĬķáĮĪáĭµ": 3709,
      "oĠA": 3710,
      "áĪįáĪĿ": 3711,
      "áįįáīµ": 3712,
      "áĭĪáĪĪ": 3713,
      "ĠMwakaĠ": 3714,
      "ĠEnĠ": 3715,
      "waÉĹ": 3716,
      "babb": 3717,
      "n,Ġ": 3718,
      "oor": 3719,
      "Ã©.": 3720,
      "ĠNÃŃĠ": 3721,
      "egeĠ": 3722,
      "kiĠ": 3723,
      "Ã¢": 3724,
      "Ġv": 3725,
      "Ġthe": 3726,
      "Ã©jÃ¬": 3727,
      "stitut": 3728,
      "áīŃ": 3729,
      "oseĠ": 3730,
      "Ġáĭ¨áĬłáĪľáĪªáĬ«": 3731,
      "ĠLÃ¡": 3732,
      "kutokaĠMarekaniĠ": 3733,
      "Ann": 3734,
      "fromĠtheĠ": 3735,
      "90": 3736,
      "TV": 3737,
      "Ġ198": 3738,
      "uĠdaĠ": 3739,
      "Ġ14": 3740,
      "serv": 3741,
      "DuniyaĠ": 3742,
      "hab": 3743,
      "amad": 3744,
      "áĪįáį£": 3745,
      "áĪĪáī²áĬ«": 3746,
      "Ã©ri": 3747,
      "áĪ¶áī½": 3748,
      "áĭŃáĪĪ": 3749,
      "chang": 3750,
      "usiĠ": 3751,
      "Ġl'": 3752,
      "áĪ¬áīµ": 3753,
      "ublic": 3754,
      "ĠáĪīáīĥáĪµ": 3755,
      "Ġ196": 3756,
      "ÃłwonĠ": 3757,
      "áĪĭáĪĽ": 3758,
      "ĠsiĠ": 3759,
      "anyanĠ": 3760,
      "jagor": 3761,
      "Od": 3762,
      "bad": 3763,
      "eauĠ": 3764,
      "lÃł": 3765,
      "ertĠ": 3766,
      "YanĠ": 3767,
      "ĠáīłáĪĿ": 3768,
      "utanenĠ": 3769,
      "ĠáĪµáĪĪáĭļáĪħ": 3770,
      "firstĠ": 3771,
      "2Ġáĭĵ.áĪĿ.": 3772,
      "Ik": 3773,
      "cesĠ": 3774,
      "ce,Ġ": 3775,
      "day": 3776,
      "anis": 3777,
      "áĭŃáīµ": 3778,
      "usamm": 3779,
      "áĬĶáī³": 3780,
      "ĠáīħáĪŃ": 3781,
      "masuĠ": 3782,
      "uĠB": 3783,
      "Ġáī°áĪ°": 3784,
      "áĮłáīħ": 3785,
      "ohonĠ": 3786,
      "ĠáĬķáĮį": 3787,
      "iweĠ": 3788,
      "wandishiĠ": 3789,
      "1)Ġ": 3790,
      "Lond": 3791,
      "ectionĠ": 3792,
      "áĭĺáĮĭ": 3793,
      "Comm": 3794,
      "din": 3795,
      "dang": 3796,
      "Ġáĭ¨áĪµ": 3797,
      "Ġáĭ¨áįĪ": 3798,
      "ĠáĬłáĭµáĪŃ": 3799,
      "una": 3800,
      "unĠniĠ": 3801,
      "ĠnÃŃpaĠ": 3802,
      "hukumarĠ": 3803,
      "jÃ¡deĠ": 3804,
      "Af": 3805,
      "Ġáī»": 3806,
      "enoĠ": 3807,
      "awarĠ": 3808,
      "pres": 3809,
      "entsĠ": 3810,
      "nÃŃgbÃł": 3811,
      "ÃŃrÃłnĠ": 3812,
      "ilÃ©-áº¹ÌĢ": 3813,
      "Ġ[": 3814,
      "gbá»įÌĢ": 3815,
      "ristoĠ": 3816,
      "a-fin": 3817,
      "ayyarĠ": 3818,
      "ĠáįķáĪ¬": 3819,
      "pakaĠ": 3820,
      "sit": 3821,
      "áĪĺáīµ": 3822,
      "áĬĲáĪ³": 3823,
      "ÆĻasaĠ": 3824,
      "ĠhisĠ": 3825,
      "tÃłbÃŃĠ": 3826,
      "ition": 3827,
      ".Ġ(": 3828,
      "ĠáĪĿáĬķáĪĿ": 3829,
      "Ġáĭ¨áĪļáĪĪáĭį": 3830,
      "watoĠ": 3831,
      "gudaĠ": 3832,
      "áĭŃáĭĪáīµ": 3833,
      "áĭķáĪ«áī¥": 3834,
      "Brit": 3835,
      "ilip": 3836,
      "taĠnaĠ": 3837,
      "ĠWan": 3838,
      "film": 3839,
      "AN": 3840,
      "gw": 3841,
      "yenyeĠ": 3842,
      "uĠK": 3843,
      "ĠáĮīáĭ³": 3844,
      "sunanĠ": 3845,
      "iiĠ": 3846,
      "Ġáī±": 3847,
      "Ġáī³áĪªáĬ«áĭĬ": 3848,
      "áįİáī½": 3849,
      "ĠáĬ¥áĬķáĮĤ": 3850,
      "ĠáĪĽáĬķ": 3851,
      "ĠItok": 3852,
      "OrodhaĠyaĠ": 3853,
      "ĠáĭŃáī£áĪĭáĪįáį¢": 3854,
      "iaĠk": 3855,
      "Ġr": 3856,
      "ĠáĬ¡": 3857,
      "ĠáĬŃáĪį": 3858,
      "NigeriaĠ": 3859,
      "gudan": 3860,
      "awan": 3861,
      "has": 3862,
      "ideĠ": 3863,
      "wilayaĠ": 3864,
      "akaĠk": 3865,
      "áĪ¨áĪĿ": 3866,
      "áĪĽáīµ": 3867,
      "ĠnÃŃĠá»įdÃºnĠ": 3868,
      "amfaniĠdaĠ": 3869,
      "pÃ©": 3870,
      "Ġ197": 3871,
      "áįĪáĪį": 3872,
      "kasuwan": 3873,
      "Ir": 3874,
      "Kas": 3875,
      "lÃ³Ġ": 3876,
      "oĠdaĠ": 3877,
      "ĠáīłáĪŃ": 3878,
      "icalĠ": 3879,
      "haveĠ": 3880,
      "wasanĠkwaikway": 3881,
      "áĪĤ": 3882,
      "ĠáĮĬ": 3883,
      "áĪ«áĬķ": 3884,
      "umbaĠ": 3885,
      "auranĠ": 3886,
      "áĪĺáĭį": 3887,
      "áī¥áĪ¨áīµ": 3888,
      "áį£ĠáĬł": 3889,
      "asharaĠ": 3890,
      "36": 3891,
      "ĠáīłáīĢ": 3892,
      "arkonĠ": 3893,
      "ammaĠ": 3894,
      "SBN": 3895,
      "mag": 3896,
      "ráº¹Ġ": 3897,
      "u-": 3898,
      "yá»į": 3899,
      "shaw": 3900,
      "ĠNew": 3901,
      "ectr": 3902,
      "ity": 3903,
      "ĠáĪķáĭĿáī¥": 3904,
      "jÃ¹lá»į": 3905,
      "Ġáĭ¨áī³": 3906,
      "ĠáīłáĪµ": 3907,
      "iff": 3908,
      "ĠJuniĠ": 3909,
      "overn": 3910,
      "lÃ³rÃŃĠ": 3911,
      "9,Ġ": 3912,
      "Ts": 3913,
      "la": 3914,
      "yayinĠ": 3915,
      "áĬķáĭ²": 3916,
      "ĠsÃ¬": 3917,
      "Ġáĭĭáī¢": 3918,
      "Ã¨tÃ²": 3919,
      "lakeĠ": 3920,
      "nuĠ": 3921,
      "tab": 3922,
      "aĠmat": 3923,
      "Ã¬f": 3924,
      "onsĠ": 3925,
      ".ĠS": 3926,
      "áĬŃáĪī": 3927,
      "lÃ³gÃºnĠ": 3928,
      "io": 3929,
      "moj": 3930,
      "Â°": 3931,
      "ĠáīłáĮį": 3932,
      "kuk": 3933,
      "kuz": 3934,
      "áĮłáĭį": 3935,
      "NewĠYork": 3936,
      "JohnĠ": 3937,
      "w.": 3938,
      "áĪĪáī½": 3939,
      "niĠwá»įÌģnĠ": 3940,
      "ishiĠwaĠ": 3941,
      "ĠdesĠ": 3942,
      "asiasaĠ": 3943,
      "orÃºká»įĠ": 3944,
      "enz": 3945,
      "ĠnÃŃnÃº": 3946,
      "oĠkatikaĠ": 3947,
      "2)Ġ": 3948,
      "sel": 3949,
      "uel": 3950,
      "ĠáĪ¦": 3951,
      "áĪ¨áĪ°": 3952,
      "ĠáĬĲáĭįáį¡áį¡": 3953,
      "Ã¬má»įÌĢ": 3954,
      "Mad": 3955,
      "uuĠyaĠ": 3956,
      "aliĠyaĠ": 3957,
      "akoĠ": 3958,
      "ĠáĮħ": 3959,
      "ĠáĪµáĪĻ": 3960,
      "ĠEn": 3961,
      "ĠáĬĵáī¸áĭį": 3962,
      "ĠMachiĠ": 3963,
      "jÃł": 3964,
      "lab": 3965,
      "ĠáĬħ": 3966,
      "ĠáĬĴ": 3967,
      "ĠáĬłáīĢ": 3968,
      "onĠtheĠ": 3969,
      "iyasaĠ": 3970,
      "Ġlá»įÌģ": 3971,
      "wardĠ": 3972,
      "UlayaĠ": 3973,
      "ĠApriliĠ": 3974,
      "2Ġ-": 3975,
      "34": 3976,
      "Min": 3977,
      "Mis": 3978,
      "k.": 3979,
      "mÃ¬": 3980,
      "arz": 3981,
      "anniĠ": 3982,
      "adiĠyaĠ": 3983,
      "indiĠ": 3984,
      "ĠáĭĿáĪŃáĭĿáĪŃ": 3985,
      "For": 3986,
      "jim": 3987,
      "adem": 3988,
      "ubuĠ": 3989,
      "ĠáīĢáĬķĠáīł": 3990,
      "anĠhaifeĠtaĠ": 3991,
      "upandeĠwaĠ": 3992,
      "Paul": 3993,
      "Ġáįª": 3994,
      "contr": 3995,
      "dayaĠdagaĠcikinĠ": 3996,
      "Ġáº¹láº¹ÌģbÃ¹nĠ": 3997,
      "yÃ¨": 3998,
      "aĠneĠ": 3999,
      "onc": 4000,
      "iya.Ġ": 4001,
      "quesĠ": 4002,
      "áĭļáĪģ": 4003,
      "huoĠ": 4004,
      "ocr": 4005,
      "áĭĵáīµ": 4006,
      "thiop": 4007,
      "ael": 4008,
      "iâĢĻ": 4009,
      "ye": 4010,
      "ilion": 4011,
      "Ġtáº¹Ìģ": 4012,
      "agesĠ": 4013,
      "1Ġ": 4014,
      "Ah": 4015,
      "s'": 4016,
      "¶áį": 4017,
      "akonĠ": 4018,
      "áĭ«áĭĬ": 4019,
      "áĬŃáĪŃáĪµáī²": 4020,
      "taim": 4021,
      "ĠáįĪáĪŃ": 4022,
      "FA": 4023,
      "yr": 4024,
      "iny": 4025,
      "Ã¬gbÃłĠ": 4026,
      "áĮĪáĪ«": 4027,
      "ĠManazartaĠ": 4028,
      "ĠMeiĠ": 4029,
      "iĠkamaĠ": 4030,
      "ongoĠ": 4031,
      "ĠáĪģáĬĶáī³": 4032,
      "Äģ": 4033,
      "ĠUn": 4034,
      "Kib": 4035,
      "olos": 4036,
      "áĪ«áĪ²": 4037,
      "yÃ¬ÃŃ": 4038,
      "kusin": 4039,
      "Ã©tÃ©Ġ": 4040,
      "aĠÆĻasarĠ": 4041,
      "alementĠ": 4042,
      "ĠáĬĲáĮ»": 4043,
      "ĠáĭŃáī³áĭĪáīĥ": 4044,
      "le-": 4045,
      "ĠáĮ¥áĬĵáīµ": 4046,
      "gen": 4047,
      "ĠáĪļáĬĴ": 4048,
      "Mas": 4049,
      "áĪ¯": 4050,
      "olon": 4051,
      "áį¤Ġáīł": 4052,
      "ĠYaĠ": 4053,
      "aĠlokacinĠ": 4054,
      "ĠáĪĪáĪĿáĪ³áĪĮ": 4055,
      "eal": 4056,
      "igbaĠ": 4057,
      "not": 4058,
      "áĪŃáī²": 4059,
      "eny": 4060,
      "ĠáĬłáĪĽ": 4061,
      "áĪģáĬĳ": 4062,
      "aliwa": 4063,
      "ĠáĭĺáĪŃ": 4064,
      "jinaĠlaĠ": 4065,
      "Ãłká»įÌģká»įÌģ": 4066,
      "ĠáĪĤ": 4067,
      "áĪĺáĮ£": 4068,
      "ĠAy": 4069,
      "aff": 4070,
      "sabodaĠ": 4071,
      "ĠáĬĲáĮĪáĪ®áī½": 4072,
      "kim": 4073,
      "mataĠ": 4074,
      "suk": 4075,
      "uis": 4076,
      "alk": 4077,
      ".ĠH": 4078,
      "áĭļáīĥ": 4079,
      "185": 4080,
      "Amerik": 4081,
      "entreĠ": 4082,
      "anish": 4083,
      "ĠáĬĸ": 4084,
      "ĠáĪĺáĮ¨áĪ¨áĪ»": 4085,
      "ĠItokasiĠ": 4086,
      "ana'": 4087,
      "áĬķĠáĪĪ": 4088,
      "ĠáĭŃáīĢ": 4089,
      "tsarinĠ": 4090,
      "rÃ©g": 4091,
      "áī´áĭİáĪµ": 4092,
      "UjerumaniĠ": 4093,
      "lav": 4094,
      ",ĠB": 4095,
      "ÃŃnuĠ": 4096,
      ".ĠManazartaĠ": 4097,
      "walejinĠ": 4098,
      "Europ": 4099,
      "cik": 4100,
      "dÃ¬": 4101,
      "ough": 4102,
      "ĠáĬ¥áĭį": 4103,
      "ureĠ": 4104,
      "ĠáĪĺáĮĢáĪĺáĪŃáĭ«": 4105,
      "Ġáī°áįĪ": 4106,
      "Ek": 4107,
      "Og": 4108,
      "Os": 4109,
      "VI": 4110,
      "inf": 4111,
      "ikub": 4112,
      "aĠma": 4113,
      "okeaĠ": 4114,
      "that": 4115,
      "8-": 4116,
      "bÃł": 4117,
      "sesĠ": 4118,
      "ataif": 4119,
      "ĠLaĠ": 4120,
      "ojÃºĠ": 4121,
      "Ãłwá»įnĠÃ¨nÃ¬yÃłnĠ": 4122,
      "wakatiĠwaĠ": 4123,
      "pá»įÌĢlá»į": 4124,
      "sehemuĠ": 4125,
      "ÃłyÃ¨": 4126,
      "Ob": 4127,
      "iakaĠm": 4128,
      "áĬķĠ(": 4129,
      "anĠ(": 4130,
      "áº¹Ìģká»įÌĢ": 4131,
      "ĠÃģ": 4132,
      "commun": 4133,
      "ĠáĪĿáĬķáĮ®áī½": 4134,
      "And": 4135,
      "Dis": 4136,
      "Ug": 4137,
      "tÃºnĠ": 4138,
      "áĪĪáĪĽ": 4139,
      "prot": 4140,
      "arÃ¡ĠAmáº¹ÌģrÃŃkÃł": 4141,
      "babbanĠbirninĠ": 4142,
      "ĠáĭµáĪŃáĮħ": 4143,
      "yanzuĠ": 4144,
      "National": 4145,
      "ĠáĬłáįĪ": 4146,
      "ayyaĠ": 4147,
      "ĠáĪĿáĪŃ": 4148,
      "ifuat": 4149,
      "opoĠ": 4150,
      "angaz": 4151,
      "zinaz": 4152,
      "áĮĪáĬĺáĭį": 4153,
      "www.": 4154,
      "a\"": 4155,
      "nem": 4156,
      "áĪĺáĭµ": 4157,
      "áĮĪáĪį": 4158,
      "affunĠ": 4159,
      "ĠKwaĠ": 4160,
      "ativeĠ": 4161,
      "anziaĠ": 4162,
      "mÃ¡aĠÅĦ": 4163,
      "ĠáĭŃáĮĪáĬĽáĪįáį¢": 4164,
      "ananĠhukumominĠ": 4165,
      "-Ġ": 4166,
      "Kemi": 4167,
      "ship": 4168,
      "áīłáĪį": 4169,
      "ĠáĪĺáĪŃ": 4170,
      "ĠáĭŃáĪħáĪĿ": 4171,
      "Ġáī¢áĪĨáĬķ": 4172,
      "Cr": 4173,
      "Georg": 4174,
      "peluĠ": 4175,
      "utĠ": 4176,
      "ÙĪ": 4177,
      "atib": 4178,
      "ÃłgbÃł": 4179,
      "ed.": 4180,
      "wararr": 4181,
      "Adam": 4182,
      "UniversityĠof": 4183,
      "NaijiriaĠ": 4184,
      "okuwaĠ": 4185,
      "ane": 4186,
      "adil": 4187,
      "aĠkasarĠ": 4188,
      "áį¡áĬ¥": 4189,
      "Ġ|ĠRD1-": 4190,
      "Kats": 4191,
      "agbaĠ": 4192,
      "lÃ²": 4193,
      "sĠandĠ": 4194,
      "On": 4195,
      "juĠ": 4196,
      "en.": 4197,
      "áĭŃáĬķ": 4198,
      "esab": 4199,
      "awai": 4200,
      "ourn": 4201,
      "áī·áĪįáį¢": 4202,
      "isaĠgaĠ": 4203,
      "Ã³p": 4204,
      "Ġáī°áĭĭ": 4205,
      "áį£ĠáĬ¨": 4206,
      "ĠkwaĠ": 4207,
      "anaĠdaĠ": 4208,
      "áĪ±áĪµ": 4209,
      "ĠáīłáĬ©": 4210,
      "áĬ¸": 4211,
      "iláº¹": 4212,
      "gbá»įÌģ": 4213,
      "ectĠ": 4214,
      "aifaffunĠ": 4215,
      "''": 4216,
      "Ġ194": 4217,
      "áĪ·": 4218,
      "atom": 4219,
      "áį¢Ġáīł": 4220,
      "áĪ¨áĮĭ": 4221,
      "ĠAwonĠ": 4222,
      "Waliofar": 4223,
      "aĠdun": 4224,
      "á»įÌģkasÃŃ": 4225,
      "UingerezaĠ": 4226,
      "e)": 4227,
      "fiĠs": 4228,
      "jar": 4229,
      "t,Ġ": 4230,
      ".Ġ-": 4231,
      "imp": 4232,
      "usi": 4233,
      "Ġáĭ¨áī°áĪ°": 4234,
      "áĪłáĪ«": 4235,
      "Ã²rÃ¹nĠ": 4236,
      "eneoĠlaĠ": 4237,
      "nau": 4238,
      "sababuĠ": 4239,
      "ĠáĬŃáįįáĪĪĠáĭĺáĪĺáĬķ": 4240,
      "31": 4241,
      "baadaĠyaĠ": 4242,
      "kamaĠ": 4243,
      "ĠáĪĺáĪįáĬŃ": 4244,
      "láº¹ÌĢĠ": 4245,
      "Mor": 4246,
      "a;": 4247,
      "ctob": 4248,
      "nÃŃnÃº": 4249,
      "work": 4250,
      "ijobaĠ": 4251,
      "econ": 4252,
      "ĠáīĢáĮ¥": 4253,
      "AS": 4254,
      "báº¹Ìģáº¹ÌĢ": 4255,
      "dÃ¡Ġ": 4256,
      "lit": 4257,
      "rem": 4258,
      "vis": 4259,
      "ĠáĬłáīĨáĮ£áĮłáĪŃ": 4260,
      "áĪĭáĪ´": 4261,
      "Ġáĭ¨áĪ¥": 4262,
      "Ġáĭ¨áī°áĪĺ": 4263,
      "ĠJohnĠ": 4264,
      "ĠáĭŃáĪħáĬķ": 4265,
      "ĠáĮ½áĪĳ": 4266,
      "Ġáīłáī°áĪĪáĭŃ": 4267,
      "Igb": 4268,
      "ĠáĪº": 4269,
      "ecemberĠ": 4270,
      "udiĠ": 4271,
      "37": 4272,
      "a)": 4273,
      "mak": 4274,
      "otaĠ": 4275,
      "ikanĠ": 4276,
      "áĭĪáĭ°": 4277,
      "iziĠ": 4278,
      "Ġáĭ¨áĪĽáĭŃ": 4279,
      "ĠWalioz": 4280,
      "ziliz": 4281,
      "ManazartaĠ": 4282,
      "War": 4283,
      "al,Ġ": 4284,
      "umiaĠ": 4285,
      "Ġ12": 4286,
      "atikaĠk": 4287,
      "lambarĠ": 4288,
      "fÃºn": 4289,
      "hor": 4290,
      "ia.Ġ": 4291,
      "·áį": 4292,
      "áįĶ": 4293,
      "ĠáĬ¥áĮįáĪŃĠáĬ³áĪµ": 4294,
      "aguz": 4295,
      "utawalaĠ": 4296,
      "ident": 4297,
      "Ġáĭ°áĪ´": 4298,
      "tain": 4299,
      "ly": 4300,
      "mulk": 4301,
      "ĠáĪ»": 4302,
      "áĬķáī°": 4303,
      "anaĠnaĠm": 4304,
      "prof": 4305,
      "áĪ½áī³": 4306,
      "uĠmasoĠ": 4307,
      "uck": 4308,
      "Roma,Ġ": 4309,
      "91": 4310,
      "A.": 4311,
      "daiĠ": 4312,
      "akiniĠ": 4313,
      "áĮĪáīł": 4314,
      "rew": 4315,
      "Ġd'": 4316,
      "ĠEd": 4317,
      "wandaĠakaĠ": 4318,
      "Ġhad": 4319,
      "ĠáĪ¥áĪŃáĭĪ": 4320,
      "Uk": 4321,
      "ba.": 4322,
      "lo": 4323,
      "áĪµáĭ«": 4324,
      "áĪµáįĵ": 4325,
      "ĠáĮįáĬķĠáīł": 4326,
      "Ġá»įjá»įÌģĠk": 4327,
      "ĠáĪĽáĪŃáīĨáĪµ": 4328,
      "des": 4329,
      "áĬŃáĪŃ": 4330,
      "ugustĠ": 4331,
      "ayyunĠ": 4332,
      "5Ġ-": 4333,
      "wÃ³nĠ": 4334,
      "Ø±": 4335,
      "unt": 4336,
      "elyĠ": 4337,
      "ĠIs": 4338,
      "aĠgasarĠ": 4339,
      "Ã³ĠtÃ³Ġ": 4340,
      "ouldĠ": 4341,
      "ajiĠwaĠfilamuĠ": 4342,
      "fÃŃÃ¬m": 4343,
      "4-": 4344,
      "hat": 4345,
      "Ãłg": 4346,
      "Ã³mÃ¬n": 4347,
      "ĠáĮįáĭĽ": 4348,
      "áįĭáīµ": 4349,
      "Ãłwá»įnĠá»įjá»įÌģÃ¬bÃŃĠnÃŃĠ": 4350,
      "ĠáĭĪáīħáīµ": 4351,
      "low": 4352,
      "litt": 4353,
      "iranĠ": 4354,
      "áº¹ÌĢáº¹Ìģ": 4355,
      "Ã¹gbá»įÌģnĠ": 4356,
      "idayarĠ": 4357,
      "áĪĮáĪĭ": 4358,
      "áĪłáĪ¨áīµ": 4359,
      "addin": 4360,
      "digir": 4361,
      "gasarĠ": 4362,
      "lish": 4363,
      "yautarĠ": 4364,
      "á»Į": 4365,
      "áĪĺáĪį": 4366,
      "ĠáĭĪáĪ¨áĭ³": 4367,
      "Ġáĭ«áĪį": 4368,
      "dev": 4369,
      "anyĠ": 4370,
      ",ĠtheĠ": 4371,
      "ĠáĪĿáĪįáĬŃ": 4372,
      "áĬĥ": 4373,
      "ÃłgbÃłĠ": 4374,
      "erv": 4375,
      "ĠRay": 4376,
      "azamaĠpiaĠ": 4377,
      "William": 4378,
      "cap": 4379,
      "ariĠwaĠ": 4380,
      "okeĠ": 4381,
      "áį¡áĬł": 4382,
      "produc": 4383,
      "áĭĺáĪŃ": 4384,
      "Ġáī³áĭĭáīĤ": 4385,
      "waĠkatikaĠ": 4386,
      "áī¤áī°": 4387,
      "Fasih": 4388,
      "rÃŃláº¹ÌĢ-Ã¨dÃ¨": 4389,
      "ilomitaĠ": 4390,
      "maĠ": 4391,
      "alb": 4392,
      "elĠ": 4393,
      "Ġáį¤": 4394,
      "áĬ¨áīµ": 4395,
      "ativ": 4396,
      "Ġpáº¹ÌĢ": 4397,
      "Ã¬má»įÌĢĠ": 4398,
      "olaĠlaĠ": 4399,
      "Ã¨tÃ²Ġ": 4400,
      "sikuĠyaĠ": 4401,
      "Pap": 4402,
      "aam": 4403,
      "new": 4404,
      "áĭŃáĬĲáīµ": 4405,
      "ĠMwakaĠwaĠ": 4406,
      "tsohonĠ": 4407,
      "hukumaĠ": 4408,
      "juuĠyaĠ": 4409,
      "burg": 4410,
      "gin": 4411,
      "gidanĠ": 4412,
      "áĪ¡": 4413,
      "forĠtheĠ": 4414,
      "Ã¬tá»įÌģkasÃŃĠ": 4415,
      "Fir": 4416,
      "cel": 4417,
      "oĠtiĠ": 4418,
      "inĠM": 4419,
      "Ã©p": 4420,
      "áĪĪáī½áį¢": 4421,
      "adayeĠ": 4422,
      "áĮĪáĭ°": 4423,
      "fran": 4424,
      "arkashinĠ": 4425,
      "Ġáīłáī°áĮ¨áĪĽáĪª": 4426,
      "ĠAmer": 4427,
      "jama'aĠ": 4428,
      "Ø§ÙĦ": 4429,
      "Ġáº¹láº¹ÌģbÃ¹nĠNobel": 4430,
      "laĠk": 4431,
      "ux": 4432,
      "atanĠ": 4433,
      "inĠS": 4434,
      "wanaf": 4435,
      "6-": 4436,
      "Joh": 4437,
      "Uingerez": 4438,
      "ai.": 4439,
      "sÃ³": 4440,
      "ton": 4441,
      "uisĠ": 4442,
      "áĬĵĠáĬ¨": 4443,
      "kask": 4444,
      "áĭķáĪį": 4445,
      "International": 4446,
      "alÃ¡Ã¬": 4447,
      "Colleg": 4448,
      "dominĠ": 4449,
      "pasĠ": 4450,
      "eĠnaĠ": 4451,
      "áĪĺáĪ«": 4452,
      "ĠL'": 4453,
      "the": 4454,
      "entom": 4455,
      "aniĠdaĠ": 4456,
      "anci": 4457,
      "ĠáīłáĬłáĬķáĭµ": 4458,
      "áĬ®áī½": 4459,
      "ĠáĬ¥áĭ¨áī°": 4460,
      "3Ġ": 4461,
      "lang": 4462,
      "ĠáĬ¬": 4463,
      "ÃŃnĠ": 4464,
      "akatifuĠ": 4465,
      "ĠáĬłáīµ": 4466,
      "áĪĺáī±": 4467,
      "agu": 4468,
      "áĭĪáīħ": 4469,
      "1997": 4470,
      "sup": 4471,
      "Ġwith": 4472,
      "1892Ġáĭĵ.áĪĿ.": 4473,
      "aĠwatanĠ": 4474,
      "Ã³Ġá¹£eĠ": 4475,
      "áĭ³áĪŃ": 4476,
      "ĠKatikaĠ": 4477,
      "Ġáº¹niĠ": 4478,
      "ĠáĭķáĪĪ": 4479,
      "Ã¬tÃłnĠ": 4480,
      "áĪ¸áĬĲ": 4481,
      "danĠwasanĠÆĻwallonĠÆĻafaĠtaĠÆĻasarĠIngil": 4482,
      "Bab": 4483,
      "Dr": 4484,
      "deux": 4485,
      "waz": 4486,
      "Ġáĭ´": 4487,
      "alum": 4488,
      "á»įnĠ": 4489,
      "kulaĠ": 4490,
      "un.": 4491,
      "áĮ¥áĪ¨": 4492,
      "oyeĠ": 4493,
      "maj": 4494,
      "oot": 4495,
      "aĠsh": 4496,
      "iti": 4497,
      "ĠAwá»įnĠ": 4498,
      "iĠmwaĠ": 4499,
      "daĠkar": 4500,
      "tionsĠ": 4501,
      "wÃŃpÃ©Ġ": 4502,
      "lil": 4503,
      "wez": 4504,
      "Ã²unĠ": 4505,
      "utt": 4506,
      "áĭĪáĪŃ": 4507,
      "ĠdiĠ": 4508,
      "ÅĦĠp": 4509,
      "wamnanĠ": 4510,
      "ĠáĬŃáįįáĪĭ": 4511,
      "ĠáĬ¥áĬķáĮįáĪĬáĭĿ": 4512,
      "aar": 4513,
      "bor": 4514,
      "cc": 4515,
      "famil": 4516,
      "yÃ³Ã²": 4517,
      "ĠAgb": 4518,
      "oloj": 4519,
      "áĭ²áĭ«": 4520,
      "ShugabanĠ": 4521,
      "5Ġ": 4522,
      "Ap": 4523,
      "bang": 4524,
      "lasheĠ": 4525,
      "aseĠ": 4526,
      "taĠhanyarĠ": 4527,
      "Ġáĭįáĭµ": 4528,
      "tatt": 4529,
      "mutuĠ": 4530,
      "bÃłĠ": 4531,
      "bec": 4532,
      "vy": 4533,
      "áĬķĠáī°": 4534,
      "inal": 4535,
      "Ġáīłáī³": 4536,
      "ons": 4537,
      "itz": 4538,
      "á»įÌģá»įÌĢ": 4539,
      "Ã²yÃ¬nĠ": 4540,
      "áº¹luĠ": 4541,
      "gameĠdaĠ": 4542,
      "Jos": 4543,
      "jiniĠ": 4544,
      "nas": 4545,
      "opeĠ": 4546,
      "Ġ13": 4547,
      "iliyanĠ": 4548,
      "which": 4549,
      "EbunĠ": 4550,
      "Gir": 4551,
      "North": 4552,
      "sá»į": 4553,
      "áĭĳ": 4554,
      "alik": 4555,
      "enez": 4556,
      "áīłáĪĭ": 4557,
      "ole": 4558,
      "áĪ«áĪµ": 4559,
      "áĮįáī¥áĮ½": 4560,
      "dÃº": 4561,
      "alim": 4562,
      "ikiaĠ": 4563,
      "áĮĪáī¥": 4564,
      "ĠMtoĠ": 4565,
      "ed,Ġ": 4566,
      "184": 4567,
      "áĪķáĪŃ": 4568,
      "1Ġ-": 4569,
      "5)Ġ": 4570,
      "Lib": 4571,
      "alil": 4572,
      "ere": 4573,
      "ori": 4574,
      "áĪĪáĬķ": 4575,
      "áĬ¨áī°áĪĽ": 4576,
      "rahim": 4577,
      "binc": 4578,
      "hiyoĠ": 4579,
      "Ãģ": 4580,
      "áº¹áº¹": 4581,
      "Ã©ta": 4582,
      "aĠkwenyeĠ": 4583,
      "áĮ¥áĪ®": 4584,
      "ott": 4585,
      "ĠáĪĽáī´áĭİáĪµ": 4586,
      "áĪİáīµ": 4587,
      "lá»įÌģwá»įÌģ": 4588,
      "ĠáĪĥáĭŃáĪĽáĬĸ": 4589,
      "ollyw": 4590,
      "byĠtheĠ": 4591,
      "bab": 4592,
      "ne.": 4593,
      "nadaĠ": 4594,
      "aĠr": 4595,
      "áī½áĭį": 4596,
      ".ĠN": 4597,
      "awak": 4598,
      "ector": 4599,
      "áĪ½áĬķ": 4600,
      "conc": 4601,
      "ĠáĬłáĪĪáīĥ": 4602,
      "ÃłgbÃ©lÃ©": 4603,
      "Az": 4604,
      "Hisp": 4605,
      "oldĠ": 4606,
      "áĭµáĪ¨áĮį": 4607,
      "wang": 4608,
      "áĭĺáĭį": 4609,
      "1996": 4610,
      "ĠAĠwatanĠ": 4611,
      "ĠáĮĢáĪŃ": 4612,
      "TibaĠmwakaĠwaĠ": 4613,
      "t.": 4614,
      "Æ´": 4615,
      "aĠniĠ": 4616,
      "orig": 4617,
      "adam": 4618,
      "áĭ°áĮį": 4619,
      "ĠáĭŃáĪĺáĪµ": 4620,
      "eĠdansĠ": 4621,
      "oĠkwaĠ": 4622,
      "Ġá»įjá»įÌģĠkáº¹": 4623,
      "Di": 4624,
      "Id": 4625,
      "Of": 4626,
      "kuuĠ": 4627,
      "áĮłáĪ©": 4628,
      "ĠkatikaĠ": 4629,
      "Ġ195": 4630,
      "ĠáĬłáĪľáĪªáĬ«": 4631,
      "uriĠ": 4632,
      "Ġáĭ¨áĪĻ": 4633,
      "ráº¹ÌĢ.": 4634,
      "kutokaĠnchiĠyaĠ": 4635,
      "Ġhttp://": 4636,
      "incip": 4637,
      "torÃŃĠ": 4638,
      "rayuwaĠ": 4639,
      "Pl": 4640,
      "uguĠ": 4641,
      "áĭ®áĪµ": 4642,
      "aĠyaĠk": 4643,
      "halar": 4644,
      "portĠ": 4645,
      "ele.ĠItokasiĠÃĢwá»įnĠ": 4646,
      "wadan": 4647,
      "awá»įn": 4648,
      "bÃ¬nrinĠ": 4649,
      "hivyoĠ": 4650,
      "t-": 4651,
      "yaĠkasanceĠ": 4652,
      "arĠs": 4653,
      "ali.": 4654,
      "enĠm": 4655,
      "kutokanaĠnaĠ": 4656,
      "1960": 4657,
      "ĠáĮ¥áĬķáī³áĭĬ": 4658,
      "3)Ġ": 4659,
      "hum": 4660,
      "kÃŃ": 4661,
      "mÃŃĠ": 4662,
      "wing": 4663,
      "taĠkasanceĠ": 4664,
      ".ĠÃĮ": 4665,
      "áį¡áīł": 4666,
      "áĭĪáĪ¨": 4667,
      "ipoĠ": 4668,
      "rÃŃnĠ": 4669,
      "Man": 4670,
      "Mag": 4671,
      "ling": 4672,
      "oloniĠ": 4673,
      "ĠáĭŃáĪĨ": 4674,
      "kumb": 4675,
      "áįĪáĪµ": 4676,
      "prov": 4677,
      "Musulun": 4678,
      "ĠáĬŃáĪŃáĪµáī²áĭ«áĬķ": 4679,
      "'yarĠ": 4680,
      "Ay": 4681,
      "fan": 4682,
      "hann": 4683,
      "kÃ¹": 4684,
      "ikuku": 4685,
      "ĠáĪĺáĪĨáĬĳ": 4686,
      "1998": 4687,
      ")áį£": 4688,
      "HaifaffunĠ": 4689,
      "Ġáĭ¨áĬ«": 4690,
      ".ĠÃĢ": 4691,
      "Ġáį³áį": 4692,
      "áī£áĭĬ": 4693,
      "sanyaĠ": 4694,
      "lexand": 4695,
      "oloseluĠ": 4696,
      "jáº¹ÌĢ": 4697,
      "mÃº": 4698,
      "eĠdaĠ": 4699,
      "ary": 4700,
      ")ĠnaĠ": 4701,
      "ĠáĪĿáĪµ": 4702,
      "antsĠ": 4703,
      "unguĠ": 4704,
      "áĪĪáĭįáį¢": 4705,
      "iwaĠkuwaĠ": 4706,
      "askazin": 4707,
      "Jan": 4708,
      "hut": 4709,
      "ĠáĮĨ": 4710,
      "ation,Ġ": 4711,
      "ĠáĬķáĮīáĪµ": 4712,
      "ilÃ©-áº¹ÌĢká»įÌģ": 4713,
      "S.": 4714,
      "má»įÌĢĠ": 4715,
      "popul": 4716,
      "´áį": 4717,
      "ĠáĬĳ": 4718,
      "áĮ¦áĪŃ": 4719,
      "abub": 4720,
      "onĠ(": 4721,
      ".ĠItokasi": 4722,
      "áĮįáĪį": 4723,
      "áĮĭáĪį": 4724,
      "1987": 4725,
      "aĠfanninĠ": 4726,
      "encesĠ": 4727,
      "Hukum": 4728,
      "Yamm": 4729,
      "dur": 4730,
      "hud": 4731,
      "hank": 4732,
      "tabiĠ": 4733,
      "áĬĹ": 4734,
      "oryĠ": 4735,
      "áĮĪáĪª": 4736,
      "áĬķĠáīłáĪĽ": 4737,
      "1990": 4738,
      "Ġá»įÌĢkanĠ": 4739,
      ")Ġt": 4740,
      "Del": 4741,
      "Ethiop": 4742,
      "Mak": 4743,
      "gÃ¹nĠ": 4744,
      "takeĠ": 4745,
      "ayans": 4746,
      "áĪ«áĪīáį¢": 4747,
      "iyoy": 4748,
      "aĠmap": 4749,
      "kumaĠk": 4750,
      "aiĠnaĠ": 4751,
      "ĠBr": 4752,
      "ĠáĭĵáĪĪáĪĿ": 4753,
      "ItokasiĠÃĢwá»įnĠ": 4754,
      "2,": 4755,
      "bungeĠ": 4756,
      "ead": 4757,
      "owaĠ": 4758,
      "tuĠ": 4759,
      "ver": 4760,
      "onaĠ": 4761,
      "ĠAĠranarĠ": 4762,
      "áīłáĪ©áīµ": 4763,
      "wengiĠ": 4764,
      "asharikiĠ": 4765,
      "áĬ¹": 4766,
      "áįĳ": 4767,
      "áĪįáĭ°": 4768,
      "ordĠ": 4769,
      "ity,Ġ": 4770,
      "trans": 4771,
      "o,Ġm": 4772,
      "áĪ»áĭİáī½": 4773,
      "wigizajiĠwaĠfilamuĠ": 4774,
      "9Ġ-": 4775,
      "ba,Ġ": 4776,
      "jir": 4777,
      "jum": 4778,
      "penĠ": 4779,
      "áĬķĠáĪĪáĪĺ": 4780,
      "intĠ": 4781,
      "esiĠ": 4782,
      "áĮĪáĭį": 4783,
      "Ġáĭ°áī¡áī¥": 4784,
      "já»įbaĠ": 4785,
      "Ġá»įmá»įĠorÃŃláº¹ÌĢ-Ã¨dÃ¨": 4786,
      "jirginĠ": 4787,
      "ĠáĭķáĪĪáī³áīµ": 4788,
      "Mon": 4789,
      "visiwaĠ": 4790,
      "erc": 4791,
      "olu": 4792,
      "1980": 4793,
      "ĠáĬłáĬķáĭ³": 4794,
      "Atlant": 4795,
      "lamuĠ": 4796,
      "oku": 4797,
      "ĠÉĹ": 4798,
      "asalinĠ": 4799,
      "áĬĵĠáĬł": 4800,
      "ahariĠ": 4801,
      "aussiĠ": 4802,
      "withĠ": 4803,
      "ĠBKĠ(BaadaĠyaĠKristo).ĠMatukioĠWaliozaliwaĠWaliofarikiĠKarneĠyaĠ": 4804,
      "áĮĢáĪŃáĪĺáĬķ": 4805,
      "South": 4806,
      "láº¹": 4807,
      "áī£áĪŃ": 4808,
      "âĢº": 4809,
      "Ġáī¥áĪĪáĭį": 4810,
      "nÃŃbiĠ": 4811,
      "Char": 4812,
      "áĬ©áĪį": 4813,
      "áĬķáĮ«": 4814,
      "DP": 4815,
      "Yar": 4816,
      "áĪĿáĬķ": 4817,
      "irĠ": 4818,
      "ayĠ": 4819,
      "Ġáĭ«áĪħáĪį": 4820,
      "ambayoĠ": 4821,
      "ungu": 4822,
      "áĭĺáĪĺáĬĲĠáĪīáīĥáĪµ": 4823,
      "sakeĠ": 4824,
      "aĠG": 4825,
      "áĭ«áĪµ": 4826,
      "ĠáĪĺáĭµ": 4827,
      "ĠáĪµáīµ": 4828,
      "iĠwaĠk": 4829,
      "ĠduĠ": 4830,
      "toĠgbaĠ": 4831,
      "ammal": 4832,
      "harshenĠ": 4833,
      "báº¹ÌĢráº¹ÌĢĠ": 4834,
      "franÃ§": 4835,
      "4)Ġ": 4836,
      "Ph": 4837,
      "nÃ¹": 4838,
      "Ãłf": 4839,
      "ĠáīłáįĬáīµ": 4840,
      "aniĠ(": 4841,
      "-ĠM": 4842,
      "Car": 4843,
      "egb": 4844,
      "nomb": 4845,
      "ĠáīłáĮ£áĪĿ": 4846,
      "adha": 4847,
      "áĪĽáī½": 4848,
      "á¹£áº¹ÌģĠ": 4849,
      "apá»įÌĢ": 4850,
      "áĭ®áĪŃ": 4851,
      "aĠyankinĠ": 4852,
      "alinĠarz": 4853,
      "ĠTareheĠ": 4854,
      "hadaĠdaĠ": 4855,
      "fuataĠ": 4856,
      "jÃ¬": 4857,
      "vileĠ": 4858,
      "entiĠ": 4859,
      "iyy": 4860,
      "age": 4861,
      "ĠáĭĪáĪ¨": 4862,
      "iĠkoĠ": 4863,
      "áĭ¨áĪ±áĪµ": 4864,
      "ĠáĭµáĪĿ": 4865,
      "AfricanĠ": 4866,
      "ĠáĬłáĭŃáĭ°": 4867,
      "á¹£Ã¹ĠK": 4868,
      "shiĠneĠdanĠwasanĠÆĻwallonĠÆĻafaĠtaĠÆĻasarĠIngil": 4869,
      "ĠáįĵáĪŃáī²": 4870,
      "Oy": 4871,
      "UN": 4872,
      "Vi": 4873,
      "lem": 4874,
      "ana,Ġ": 4875,
      "ÃłÃłyÃ¨": 4876,
      "áĬ«áī£áī¢": 4877,
      "ndÃŃn": 4878,
      "tsar": 4879,
      "oĠmak": 4880,
      "al'umm": 4881,
      "75": 4882,
      "tÃłĠ": 4883,
      "vir": 4884,
      "áĪĵ": 4885,
      "áįĦ": 4886,
      "abak": 4887,
      "imÃ¡Ġ": 4888,
      "arkinĠ": 4889,
      "AfrikaĠK": 4890,
      "nyingiĠ": 4891,
      "Waliofariki": 4892,
      "rÃº": 4893,
      "sing": 4894,
      "arÃ¡Ġ": 4895,
      "ana.": 4896,
      "endĠ": 4897,
      "ikish": 4898,
      "áī¥áīµ": 4899,
      "utilis": 4900,
      "tiĠwonĠ": 4901,
      "ĠáĪĽáĪħ": 4902,
      "1989": 4903,
      "ĠáĪĺáĬķáĮįáĪµáīµ": 4904,
      "amarĠhukumaĠ": 4905,
      "ĠáĪĿáĬŃáĬķáĭ«áīµ": 4906,
      "Bal": 4907,
      "endaĠ": 4908,
      "aysĠ": 4909,
      "Ġáĭ¨áī°áĪĪáĭ«áĭ©": 4910,
      "áĪłĠáĬĲáĮĪáĪ¥": 4911,
      "Ã¹n-": 4912,
      "usammanĠ": 4913,
      "ĠáīĢáĬķĠáīłáĬ¢áīµáĭ®áĮµáĭ«": 4914,
      "euĠ": 4915,
      "loriĠ": 4916,
      "nolog": 4917,
      "Ġáĭ¨áīµ": 4918,
      "áĪĪáī¥": 4919,
      "ĠáĪĺáĬĲ": 4920,
      "áĮłáĬĵ": 4921,
      "ĠHistor": 4922,
      "amarĠhukumarĠ": 4923,
      "endeleaĠku": 4924,
      "Peop": 4925,
      "Waz": 4926,
      "aĠlaĠ": 4927,
      "áĮ¹": 4928,
      "oĠchaĠ": 4929,
      "aliz": 4930,
      "ifoĠch": 4931,
      "ĠHeĠ": 4932,
      "Ã³mÃ¬nÃłĠ": 4933,
      "'estĠ": 4934,
      "RaisĠwaĠ": 4935,
      "US": 4936,
      "tÃ²": 4937,
      "Ã¼": 4938,
      "ĠestĠ": 4939,
      "atun": 4940,
      "iter": 4941,
      "reeĠ": 4942,
      "ĠItaĠ": 4943,
      "frÃŃ": 4944,
      "FizikiaĠmwakaĠwaĠ": 4945,
      "wÃ¡Ġ": 4946,
      "alab": 4947,
      "áį¡áĭ¨": 4948,
      "ceĠtaĠ": 4949,
      "ĠáĪĽáĮ£": 4950,
      "haifiĠ": 4951,
      "aitĠ": 4952,
      "ĠáĪ´áīµ": 4953,
      "unifÃ¡": 4954,
      "Pas": 4955,
      "Wah": 4956,
      "ĠáĭĲ": 4957,
      "ĠAf": 4958,
      "ost": 4959,
      "neĠaĠ": 4960,
      "2002": 4961,
      "forĠ": 4962,
      "incl": 4963,
      "engineĠ": 4964,
      "ĠáįĪáĪŃáĭĸ": 4965,
      "39": 4966,
      "Far": 4967,
      "Ilim": 4968,
      "canĠ": 4969,
      "áĪįáįį": 4970,
      "ternĠ": 4971,
      "fitoĠ": 4972,
      "padÃłĠ": 4973,
      "rap": 4974,
      "yam": 4975,
      "ina,Ġ": 4976,
      "áĪµáī±": 4977,
      "Ã¬p": 4978,
      "Alakos": 4979,
      "fina-fin": 4980,
      "rubut": 4981,
      "IV": 4982,
      "lá»įĠ": 4983,
      "moĠ": 4984,
      "oaĠ": 4985,
      "ĠáĪ©": 4986,
      "ÃŃgaĠ": 4987,
      "áĪĮáĬŃáīµ": 4988,
      "ĠBaadaĠyaĠ": 4989,
      "dagaĠbayaĠ": 4990,
      "Ġáī³áĪĭáīħ": 4991,
      "Riv": 4992,
      "bil": 4993,
      "udaĠ": 4994,
      "Æ³": 4995,
      "insuĠ": 4996,
      "áĪĭáĪīáį¢": 4997,
      "áĬĲáī¶áī½": 4998,
      "ĠáĪĺáĪª": 4999,
      "ĠáĪĪáĬ¥": 5000,
      "180": 5001,
      "eje": 5002,
      "a'aik": 5003,
      "Ġáº¹ÌĢká»įÌģĠ": 5004,
      "indaĠtaĠ": 5005,
      "score0": 5006,
      "kn": 5007,
      "pers": 5008,
      "vitaĠ": 5009,
      "itwaĠ": 5010,
      "imaĠ": 5011,
      "umeĠ": 5012,
      "ĠáĬ¥áĬķáĪµ": 5013,
      "thatĠ": 5014,
      "over": 5015,
      "ationĠof": 5016,
      "bak": 5017,
      "wamb": 5018,
      "yáº¹Ġ": 5019,
      "al.": 5020,
      "áĭ«áĭĿ": 5021,
      "Ġáĭ¨áĪļáĪį": 5022,
      "áĪ¥áīµ": 5023,
      "lÃ¡ti": 5024,
      "Â»Ġ(": 5025,
      "labar": 5026,
      "sk": 5027,
      "áĬķĠáĪĽ": 5028,
      "áĬķĠáĪĪáĪĽ": 5029,
      "itaceĠ": 5030,
      "Ã²finĠ": 5031,
      "awa.": 5032,
      "kasaĠ": 5033,
      "epend": 5034,
      "auy": 5035,
      "ĠfiĠ": 5036,
      "Najeriya": 5037,
      "birniĠ": 5038,
      "rubutaĠ": 5039,
      "polit": 5040,
      "4Ġ": 5041,
      "Aj": 5042,
      "a,": 5043,
      "ce": 5044,
      "mod": 5045,
      "pá»į": 5046,
      "ĠáįĢ": 5047,
      "Ġáĭ¨áĪĮ": 5048,
      "iaĠyaĠK": 5049,
      "áĬ«áĪį": 5050,
      "ever": 5051,
      "áĮłáīĥáĪĭáĭŃ": 5052,
      "ystem": 5053,
      "iâĢĻarĠ": 5054,
      "Be": 5055,
      "dir": 5056,
      "ron": 5057,
      "rashinĠ": 5058,
      "tas": 5059,
      "Ð°": 5060,
      "ĠáĪĺáĭĿ": 5061,
      "áī³áĭ°": 5062,
      "ĠOl": 5063,
      "ÅĦĠá¹£": 5064,
      "KanananĠhukumominĠ": 5065,
      "LagosĠ": 5066,
      "BabbanĠ": 5067,
      "Sain": 5068,
      "áĪ«áĪĿ": 5069,
      "áĪ³áī°": 5070,
      "ĠáĭŃáĪ°": 5071,
      "su.": 5072,
      "ĠáĭĺáĪĺáĬķĠáĬł": 5073,
      "kÃ³paĠ": 5074,
      "ahariĠyaĠ": 5075,
      "ĠáĪĽáĪµáī³áĭĪ": 5076,
      "DolaĠlaĠ": 5077,
      "mp": 5078,
      "rang": 5079,
      "aĠtiĠ": 5080,
      "aniĠm": 5081,
      "áĪŃáĮį": 5082,
      "isionĠ": 5083,
      "abin": 5084,
      "ablaĠ": 5085,
      "ĠAward": 5086,
      "áĪ³áĪį": 5087,
      "áĬķáĮ»": 5088,
      "Waliozaliwa": 5089,
      "entomonĠ": 5090,
      "zur": 5091,
      "áīº": 5092,
      "áĮĦ": 5093,
      "enneĠ": 5094,
      "esp": 5095,
      "umiĠ": 5096,
      "wanasiasaĠ": 5097,
      "idg": 5098,
      "ojaĠwaĠ": 5099,
      "ĠdagaĠ": 5100,
      "ovut": 5101,
      "awaĠdaĠ": 5102,
      "Afric": 5103,
      "rasm": 5104,
      "ĠáĮĢáĪĿáĪ®ĠáĬ¥áĪµáĬ¨": 5105,
      "ctoberĠ": 5106,
      "Bib": 5107,
      "YorÃ¹bÃ¡": 5108,
      "bl": 5109,
      "Ġáĭ¨áĭĵ": 5110,
      "iref": 5111,
      "áĪĭáĪī": 5112,
      "ing,Ġ": 5113,
      "shirinĠ": 5114,
      "Kiswah": 5115,
      "ĠáĬ¥áĮħáĮį": 5116,
      "eyiĠ": 5117,
      "rá»į": 5118,
      "woteĠ": 5119,
      "ãĥ": 5120,
      "naĠku": 5121,
      "ĠáĬ¥áĭµ": 5122,
      "áĪĽáĬķ": 5123,
      "neĠdagaĠ": 5124,
      "aunaĠ": 5125,
      "anzib": 5126,
      "gabatarĠdaĠ": 5127,
      "ana'ant": 5128,
      "ruwaĠ": 5129,
      "sim": 5130,
      "sá»įĠ": 5131,
      "yauĠ": 5132,
      "ÙĲ": 5133,
      "astr": 5134,
      "abr": 5135,
      "ayenĠ": 5136,
      "áĬĲáīłáĪŃ": 5137,
      "olÃº": 5138,
      "ipin": 5139,
      "iĠkwenyeĠ": 5140,
      "wamit": 5141,
      "áĪĦáĭµ": 5142,
      "oireĠ": 5143,
      "berg": 5144,
      "darÃŃĠ": 5145,
      "ĠáĬŃáĪįáĪį": 5146,
      "him": 5147,
      "rom": 5148,
      "áĭįáĪĿ": 5149,
      "áĪĪáį¢": 5150,
      "ĠáĪĺáĪłáĪ¨áīµ": 5151,
      "Ġni": 5152,
      "áĮłáįĭ": 5153,
      "1970": 5154,
      "zaÉĵ": 5155,
      "Ã¬bÃŃláº¹ÌĢ": 5156,
      "cinĠk": 5157,
      "jul": 5158,
      "áī¼": 5159,
      "abinĠ": 5160,
      "áĬĲáĮĪáĪŃ": 5161,
      "áĬ¨áĪ«": 5162,
      "amaĠdaĠ": 5163,
      "áī»áĭŃáĬĵ": 5164,
      "iquesĠ": 5165,
      "dabanĠ": 5166,
      "áĪĪáī°áĬĽáĭį": 5167,
      "alÃ¡Ã¬sÃŃĠ": 5168,
      "car": 5169,
      "gbÃ³": 5170,
      "ĠáĪĪáĭį": 5171,
      "Ġáĭ¨áĬłáĪĽáĪŃáĬĽĠáĪĿáĪ³áĪĮĠáĬĲáĭįáį¢ĠáīµáĪŃáĮīáĪĻĠáĪĺáĭ°áī¥Ġ:Ġáī°áĪ¨áīµáĬĵĠáĪĿáĪ³áĪĮ": 5172,
      "olÃ³rinĠ": 5173,
      "wajeĠ": 5174,
      "7Ġ-": 5175,
      "Kal": 5176,
      "µáį": 5177,
      "áĭ°áĮĭ": 5178,
      "áī£áĪī": 5179,
      "ifeĠ": 5180,
      "áĮ£áīµ": 5181,
      "obÃ¬nrinĠ": 5182,
      "etĠdeĠ": 5183,
      "áĪĻáĪī": 5184,
      "Ġ11": 5185,
      "au,Ġ": 5186,
      "takrib": 5187,
      "ĠáĪ«áĪµ": 5188,
      "balimbaliĠ": 5189,
      "Med": 5190,
      "Ġáĭ±": 5191,
      "Ãłb": 5192,
      "2001": 5193,
      "ojuĠ": 5194,
      "atsay": 5195,
      "lÃ©-": 5196,
      "lá»įĠsÃŃĠ": 5197,
      "ĠáĪĢáĮĪáĪŃ": 5198,
      "whoĠ": 5199,
      "iĠtaĠ": 5200,
      "alÃłÃłyÃ¨": 5201,
      "aĠkoĠ": 5202,
      "waĠmasoĠ": 5203,
      "wakatiĠ": 5204,
      "1988": 5205,
      "ĠhadiĠ": 5206,
      "eff": 5207,
      "al'ad": 5208,
      "ciĠgabaĠdaĠ": 5209,
      "ViungoĠvyaĠnjeĠ": 5210,
      "bÃłd": 5211,
      "mus": 5212,
      "páº¹luĠ": 5213,
      "orm": 5214,
      "abab": 5215,
      "agn": 5216,
      "wandaĠkeĠ": 5217,
      "á¹£áº¹Ìģ": 5218,
      "ĠCol": 5219,
      "1986": 5220,
      "Ãłráº¹Ġ": 5221,
      "Ġáĭ¨áĪ°áĭį": 5222,
      "ĠáĭĻáĪªáĭ«": 5223,
      "ĠWaliozaliwaĠ": 5224,
      "MkoaĠwaĠ": 5225,
      "let": 5226,
      "nasar": 5227,
      "takaĠ": 5228,
      "artĠ": 5229,
      "akaf": 5230,
      "áĮĪáĭĽ": 5231,
      "Ġ(áĬ¥áĬķáĮįáĪĬáĭĿáĬĽ": 5232,
      "aĠmwakaĠ": 5233,
      "áĬŃáĪĪ": 5234,
      "ymp": 5235,
      "okeoĠyaĠ": 5236,
      "ĠNigeri": 5237,
      "-19": 5238,
      "der": 5239,
      "peu": 5240,
      "so": 5241,
      "vent": 5242,
      "Â²": 5243,
      "iki.": 5244,
      "Ã¬k": 5245,
      "idadiĠyaĠ": 5246,
      "Ġáĭ¨áī°áī£áĪĪáĭį": 5247,
      "ĠaĠcikinĠ": 5248,
      "ext": 5249,
      "iwonĠ": 5250,
      "Ġ|-": 5251,
      "nÃ¡Ãł": 5252,
      "Nijeriya.": 5253,
      "Yoh": 5254,
      "dÃ¹": 5255,
      "hukoĠ": 5256,
      ".ĠW": 5257,
      "ictor": 5258,
      "ĠâĢ¢": 5259,
      "yÃ¬n": 5260,
      "jerinĠ": 5261,
      "AmericanĠ": 5262,
      "intaĠnaĠ": 5263,
      "kÃ¹nrinĠ": 5264,
      "tattalinĠarz": 5265,
      "rÃ²": 5266,
      "tanguĠ": 5267,
      "aĠJiharĠ": 5268,
      "ÃłgbÃ¡": 5269,
      "Ã³Ġá¹£": 5270,
      "elg": 5271,
      "kumbu": 5272,
      "áī¶áī¹": 5273,
      "áĭĺáī¥": 5274,
      "Ġáº¹ÌĢyÃłĠ": 5275,
      "Ibad": 5276,
      "8Ġ-": 5277,
      "Ng": 5278,
      "dog": 5279,
      "áī¬": 5280,
      "Ġáĭ¨áī£": 5281,
      "isc": 5282,
      "áī°áĭĭáĪįáį¢": 5283,
      "áī½áĪį": 5284,
      "áī½áĪģ": 5285,
      "ishwaĠ": 5286,
      "ograf": 5287,
      "Ġáĭ¨áĪĿáīµ": 5288,
      "ĠlÃ³rÃŃĠ": 5289,
      "wanamuzikiĠ": 5290,
      "áī¨áĪŃ": 5291,
      "FI": 5292,
      "rá»įÌĢĠ": 5293,
      "tall": 5294,
      "wÃ²Ġ": 5295,
      "Ä«": 5296,
      "aĠC": 5297,
      "aĠL": 5298,
      "arabuĠ": 5299,
      "inz": 5300,
      "Ġáĭ«áĪī": 5301,
      "olÃ³á¹£Ã¨": 5302,
      "tanaĠdaĠ": 5303,
      "KemiaĠmwakaĠwaĠ": 5304,
      "Dav": 5305,
      "jÃłĠ": 5306,
      "ving": 5307,
      "inĠ(": 5308,
      "Ġáīłáĭ¨": 5309,
      "awezaĠ": 5310,
      "ĠbÃŃ": 5311,
      "Ġá»Įjá»įÌģ": 5312,
      "nyingineĠ": 5313,
      "KenyaĠ": 5314,
      "Rob": 5315,
      "bÃº": 5316,
      "tÃ¡": 5317,
      "áĪ¦áĪŃ": 5318,
      ",ĠK": 5319,
      "erik": 5320,
      "áī¥áĭĻ": 5321,
      "áĮĪáĬĽ": 5322,
      "emocr": 5323,
      "Ġáį«": 5324,
      "aiĠdaĠ": 5325,
      "áĪĮáĪİáī½": 5326,
      "Ġáĭ¨áī°áĬŃáĪī": 5327,
      "jam'": 5328,
      "ĠáĪµáĪĪáĪĨáĬĲ": 5329,
      "47": 5330,
      "áĮĪáĬĲ": 5331,
      "Ġáī°áĬĲ": 5332,
      "áĪªáī³": 5333,
      "ÆĻungiyarĠ": 5334,
      "Ġá¹£Ã¹gbá»įÌģnĠ": 5335,
      "Ãłn.": 5336,
      "NigerianĠ": 5337,
      "Aw": 5338,
      "Kil": 5339,
      "Sc": 5340,
      "áĬĭáĪĭ": 5341,
      "adir": 5342,
      "áĪ³áĪ°": 5343,
      "áĬ¨áĪŃ": 5344,
      "stat": 5345,
      "ĠáĪĨáĬĲáĭį": 5346,
      "lughaĠ": 5347,
      "bertĠ": 5348,
      "Ġáĭ©áĬĴ": 5349,
      "dam": 5350,
      "tofaut": 5351,
      "áī£áĪįáį¢": 5352,
      "awal": 5353,
      "azz": 5354,
      "áī²áĬŃ": 5355,
      "agbegbeĠ": 5356,
      "auxĠ": 5357,
      "Tanzania": 5358,
      "CC": 5359,
      "Her": 5360,
      "mark": 5361,
      "Ġáĭŀ": 5362,
      "aya,Ġ": 5363,
      "ali,Ġ": 5364,
      "ansuĠ": 5365,
      "ĠáĪķáĭĿ": 5366,
      "tÃłkÃ¬": 5367,
      "oundĠ": 5368,
      "ĠáįķáĪ®": 5369,
      "áĪįáĮ£áĬķ": 5370,
      "jiĠmkuuĠwaĠ": 5371,
      "rop": 5372,
      "Ã¤": 5373,
      "Ã¶": 5374,
      ",ĠO": 5375,
      "inÃºĠ": 5376,
      "Ã¬gbÃ©": 5377,
      "ĠáĬłáĭ«": 5378,
      "abis": 5379,
      "áĭ¨áĪĿ": 5380,
      "edĠth": 5381,
      "ubakarĠ": 5382,
      "ÅĦĠs": 5383,
      "resp": 5384,
      "adhim": 5385,
      "ĠáĭŃáī½áĪĭáĪįáį¢": 5386,
      "99": 5387,
      "ta.": 5388,
      "Ùı": 5389,
      "ĠáĬ¥áĪ±": 5390,
      "cheĠ": 5391,
      "eliĠ": 5392,
      "âĢ¦": 5393,
      "baĠtaĠ": 5394,
      "asĠtheĠ": 5395,
      "ĠáĬ¥áĬķáĭ°áĪĨáĬĲ": 5396,
      "ĠYorÃ¹bÃ¡": 5397,
      "Ã¨nÃ¬yÃłnĠalÃłÃłyÃ¨": 5398,
      "3Ġ-": 5399,
      "doĠ": 5400,
      "eniyanĠ": 5401,
      "áĪĭáĪħ": 5402,
      "aĠmas": 5403,
      "osereĠ": 5404,
      "iá¹£áº¹": 5405,
      "sabab": 5406,
      "ĠáĭĵáĬŃáĪįáīł.ĠáĮįáĭµáĪĿ": 5407,
      "tech": 5408,
      "zabenĠ": 5409,
      "Australi": 5410,
      "áĮ¥áĬķáī³áĭĬ": 5411,
      "sar": 5412,
      "Ø¨": 5413,
      "áĪŃáī±": 5414,
      "iyoyinĠ": 5415,
      "Ġáī°áīĭ": 5416,
      "idiĠyaĠ": 5417,
      "á»įÌĢrá»įÌĢ": 5418,
      "ĠlokacinĠ": 5419,
      "áĬĳáĪµ": 5420,
      "yiĠaikiĠ": 5421,
      "ĠáĪŀáīµ": 5422,
      "ĠáĬłáĪĺáīµ": 5423,
      "Ġáĭ¨áĪĨáĬĳ": 5424,
      "pourĠ": 5425,
      "ĠáĬłáĬķáĭ³áĬķáĭµ": 5426,
      "cul": 5427,
      "ile": 5428,
      "áī¥áĪĬáĬŃ": 5429,
      "a,ĠM": 5430,
      "afr": 5431,
      "ambay": 5432,
      "areĠdaĠ": 5433,
      "ĠáīłáĪĺáĪĨáĬĳ": 5434,
      "Ã¬dÃ¡": 5435,
      "partic": 5436,
      "English": 5437,
      "includ": 5438,
      "38": 5439,
      "Bank": 5440,
      "Ġ*": 5441,
      "ĠáĪİ": 5442,
      "oni": 5443,
      "áĪ«áĪ½": 5444,
      "esĠof": 5445,
      "reat": 5446,
      "etoĠ": 5447,
      "ojoj": 5448,
      "wá»įÌģn": 5449,
      "shiryaĠ": 5450,
      "IjobaĠ": 5451,
      "gbá»įÌĢnĠ": 5452,
      "kumbukumb": 5453,
      "Ex": 5454,
      "Tang": 5455,
      "ein": 5456,
      "ĠÐ": 5457,
      "ĠofĠtheĠ": 5458,
      "áĬ½": 5459,
      "annaĠ": 5460,
      "ĠáĪ¹": 5461,
      "atak": 5462,
      "usĠ(": 5463,
      "awaĠnaĠ": 5464,
      "ĠáĬ«áĪĮ": 5465,
      "ĠÃĪkÃ³": 5466,
      "Ã²á¹£erÃ©Ġ": 5467,
      "ĠáĪ¥áĪŃáĭĪĠáĪĺáĬķáĮįáĪ¥áīµ": 5468,
      "Bay": 5469,
      "Co": 5470,
      "iwaĠk": 5471,
      "nÃł": 5472,
      "aĠD": 5473,
      "aĠNajeriyaĠ": 5474,
      "sĠdeĠ": 5475,
      "ĠáĬ¥áĬķáĬ³": 5476,
      "kasaĠdaĠ": 5477,
      "tÃŃĠÃ³ĠsÃ¬": 5478,
      "Tarih": 5479,
      "prÃ©sent": 5480,
      "Kit": 5481,
      "jimb": 5482,
      "eĠtaĠ": 5483,
      "arĠK": 5484,
      "on-": 5485,
      "imeĠ": 5486,
      "áĭ³áĪĿ": 5487,
      "aziniĠ": 5488,
      "haih": 5489,
      "Ġmáº¹Ìģ": 5490,
      "áīĥáĪį": 5491,
      "ĠÂ«áĬł": 5492,
      "Ġá»ĮdÃºnĠ": 5493,
      "nÃŃnÃºĠerÃ©Ġ": 5494,
      "ĠáĪĿáĬķáĮŃ": 5495,
      "BBC": 5496,
      "Sen": 5497,
      "a),Ġ": 5498,
      "cer": 5499,
      "gáº¹": 5500,
      "sol": 5501,
      "vers": 5502,
      "áĮ¼": 5503,
      "aĠkatikaĠm": 5504,
      "ĠáĭŃáĪĦ": 5505,
      "ĠáĪĪáī°": 5506,
      "ĠáĬĲáĭįáį¢Ġáĭ¨": 5507,
      "ĠmÃ¡": 5508,
      "ÃłtiĠÃłwá»įnĠ": 5509,
      "ĠáĭµáĬķ": 5510,
      "argaj": 5511,
      ",ĠmshindiĠwaĠTuzoĠyaĠNobelĠyaĠTibaĠmwakaĠwaĠ": 5512,
      "UmojaĠwaĠ": 5513,
      "Janair": 5514,
      "BA": 5515,
      "Wam": 5516,
      "fÃł": 5517,
      "iev": 5518,
      "vari": 5519,
      "Ġ(áĬ¥": 5520,
      "unĠm": 5521,
      "ĠáĭįáĪµáĮ¥Ġáĭ¨áĪļáĮĪáĬĿ": 5522,
      "uĠkwaĠ": 5523,
      "rough": 5524,
      "ĠáĭĵáĪĺáī±": 5525,
      "Ġ30": 5526,
      "áĮłáīĢáĪĿ": 5527,
      "Ġáī°áĭĪáĪĪ": 5528,
      "áĪłáĪ¨áī°": 5529,
      "48": 5530,
      "C.": 5531,
      "cin": 5532,
      "ĠwaĠ": 5533,
      "áīłáĬĽ": 5534,
      "ĠáīµáĪįáīħ": 5535,
      "áĭ²áĪħ": 5536,
      "áĭĽáĬĽáĭį": 5537,
      "ĠáĮĪáī¥": 5538,
      "ĠAĠshekararĠ": 5539,
      "ĠáĪ²áĪĨáĬķĠáĭŃáĪħ": 5540,
      "Ã¬á¹£áº¹ÌĢ": 5541,
      "ĠáĬłáĬ«áĪį": 5542,
      ")ĠáĬ¨": 5543,
      "Gl": 5544,
      "Nov": 5545,
      "ball": 5546,
      "du": 5547,
      "lÃłĠ": 5548,
      "ranĠ": 5549,
      "rig": 5550,
      "istaĠ": 5551,
      "Ã¨meĠ": 5552,
      "ĠáĭĪáĮĪáĬķ": 5553,
      "ret": 5554,
      "ĠWannanĠ": 5555,
      "ĠáīĢáĬĵáīµ": 5556,
      "ariĠtaraĠ": 5557,
      "1976": 5558,
      "Ġá»įÌĢpá»įÌĢlá»į": 5559,
      "áĭ°áĪ¨áĮī": 5560,
      "ne,ĠdaĠkeĠ": 5561,
      "kuhusuĠ": 5562,
      "ĠáĭŃáī³áĭĪáīĥáĪįáį¢": 5563,
      "Born": 5564,
      "Zanzib": 5565,
      "biyarĠ": 5566,
      "iedĠ": 5567,
      "ĠisĠ": 5568,
      "engaĠ": 5569,
      "áĪĪáĪģ": 5570,
      "elez": 5571,
      "usiniĠ": 5572,
      "âĢĶ": 5573,
      "ibit": 5574,
      "ijiĠyaĠ": 5575,
      "nÃŃĠÃĮpÃŃnláº¹ÌĢ": 5576,
      "ubuc": 5577,
      "tsawonĠ": 5578,
      "jami'": 5579,
      "ĠáĪľáīµáĪŃ": 5580,
      "bugaĠ": 5581,
      "agbÃ¨gbÃ¨": 5582,
      "ĠáįķáĪ¬áĭļ": 5583,
      "fun": 5584,
      "fÃłĠ": 5585,
      "Ġáī¶": 5586,
      ".ĠO": 5587,
      "áĭĭáĬķ": 5588,
      "princip": 5589,
      "áĬĿáĬĲáīµ": 5590,
      "Chin": 5591,
      "TarayyarĠ": 5592,
      "Ã¬sÃłnĠ": 5593,
      "Es": 5594,
      "Part": 5595,
      "Uh": 5596,
      "faĠ": 5597,
      "saf": 5598,
      "áĮ³": 5599,
      "ÃºÃº": 5600,
      "Ġti": 5601,
      "gbÃ¨Ġ": 5602,
      "áĭµáĪµáīµ": 5603,
      ")ĠM": 5604,
      "ĠáĪĿáĬĵáĪį": 5605,
      "izoĠ": 5606,
      "ráº¹ÌĢĠnÃŃĠ": 5607,
      "ĠGeorg": 5608,
      "Ġ21": 5609,
      "ember": 5610,
      "Abuj": 5611,
      "Abdul": 5612,
      "atiĠyaĠm": 5613,
      "áī¥áĪŃáĪĥ": 5614,
      "ĠáĬĲáĮĪáĪŃĠáĮįáĬķ": 5615,
      "asarautarĠ": 5616,
      "ĠáĬłáĮĪáĪįáĮį": 5617,
      "urb": 5618,
      "ĠkatikaĠm": 5619,
      "áĪ©áīµ": 5620,
      "ĠáĭįáĮ¤": 5621,
      "ĠáĬ¥áĬķáĭ°áī°": 5622,
      "autaĠ": 5623,
      "Ġáĭ¨áĬ®": 5624,
      "ĠáĮįáī¥áĮ½": 5625,
      "imÃ¡ĠÃłgbÃ©lÃ©": 5626,
      "aand": 5627,
      "eenĠ": 5628,
      "kafinĠ": 5629,
      "muĠ": 5630,
      "sÃ¨": 5631,
      "sub": 5632,
      "well": 5633,
      "ĠáīłáĬĲ": 5634,
      "áĪįáĮħ": 5635,
      "onek": 5636,
      "ĠáĮ³": 5637,
      "Ã³paĠ": 5638,
      "okanaĠnaĠ": 5639,
      "Ġáĭ¨áĪŀ": 5640,
      "ahaliĠ": 5641,
      "áĬ¨áī¥": 5642,
      "ĠáĬŃáĪŃáĪµáī¶áĪµ": 5643,
      "ĠáĪ¥áĪĭáĪ´": 5644,
      "áīģáĪŃ": 5645,
      "áĭĺáĪĺáĬĲĠáĭ®áĪĲáĬķáĪµ": 5646,
      "ĠáĭĽáĪ¬": 5647,
      "ĠNigeriaĠ": 5648,
      "pekeeĠ": 5649,
      "7-": 5650,
      "Sud": 5651,
      "Ġ193": 5652,
      "áī°áĬĽáĭį": 5653,
      "azoĠ": 5654,
      "áīħáĪµ": 5655,
      "áįĪáīµ": 5656,
      "avy": 5657,
      "1993": 5658,
      "1979": 5659,
      "1966": 5660,
      "ers,Ġ": 5661,
      "ÃªmeĠ": 5662,
      "68": 5663,
      "Award": 5664,
      "Nuw": 5665,
      "dâĢĻ": 5666,
      "ientĠ": 5667,
      "áĭ£": 5668,
      "áĭįáĪµ": 5669,
      ".ĠD": 5670,
      "áº¹ÌĢĠ": 5671,
      "azi": 5672,
      "ĠneĠ": 5673,
      "ĠSchool": 5674,
      "erĠof": 5675,
      "ĠLugh": 5676,
      "Christ": 5677,
      "ĠáĬ«áĪį": 5678,
      "páº¹ÌĢlÃº": 5679,
      "Ã¬rÃ²yÃ¬nĠ": 5680,
      "ĠáĮ½áĪĳáįį": 5681,
      "Ful": 5682,
      "aish": 5683,
      "fáº¹ÌģĠ": 5684,
      "lÃ¬": 5685,
      "áĬķáĭ¶": 5686,
      "onÃŃá¹£": 5687,
      "ĠAnd": 5688,
      "ĠáĪħáĭĿáī¥": 5689,
      "áĪ«áĭĬáīµ": 5690,
      "áĬķáĭ³áĪŃ": 5691,
      "eneoĠyaĠ": 5692,
      "ĠáĪĽáĮ£áīĢ": 5693,
      "MajalisarĠ": 5694,
      "fus": 5695,
      "hark": 5696,
      "áĬķĠáĭ¨áĪļ": 5697,
      "áĪµáĪĽ": 5698,
      "ital": 5699,
      "á»įÌģk": 5700,
      "aharaĠ": 5701,
      "áīĢáĪį": 5702,
      "etwe": 5703,
      "conn": 5704,
      "Ã¬dÃŃĠ": 5705,
      "daĠyakeĠ": 5706,
      "atukio": 5707,
      "AnnabiĠ": 5708,
      "5-": 5709,
      "=\"": 5710,
      "nit": 5711,
      "áĬ¾": 5712,
      "áĬķĠáĬ¥áĬĵ": 5713,
      "inst": 5714,
      "ĠáĬłáĮ¥": 5715,
      "Ã©ĠparĠ": 5716,
      "áĭ³áĮħ": 5717,
      "ijer": 5718,
      "áĪŀáīµ": 5719,
      "áĭįáĪį": 5720,
      "anĠNajeriyaĠ": 5721,
      "ĠáĬ¥áĬĶ": 5722,
      "ĠáĪĺáĪ¨áĮĥ": 5723,
      "ÆĻidayarĠ": 5724,
      "áĮłáĪį": 5725,
      "ĠáĪĽáĪŃáĭ«": 5726,
      "áĪĨáĬķĠáĬł": 5727,
      "ocinĠ": 5728,
      "áĭķáĭĿ": 5729,
      "yanaĠdaĠ": 5730,
      "ĠáįĬáĭ°áĪį": 5731,
      "áº¹Ìģgáº¹ÌģĠbÃŃĠ": 5732,
      "LegasĠ": 5733,
      "fÃŃÃ¬mÃ¹": 5734,
      "ĠAgbegbeĠ": 5735,
      ";Ġ(": 5736,
      "to": 5737,
      "anoĠyaĠ": 5738,
      "áįĪáĪĪ": 5739,
      "oyal": 5740,
      "alikuwaĠmshindiĠwaĠTuzoĠyaĠNobelĠyaĠ": 5741,
      "Ġlá»įĠsÃŃĠ": 5742,
      "wenyeweĠ": 5743,
      "gwamnatinĠ": 5744,
      "áĮİáĪŃáĮİáĪŃ": 5745,
      "ilioniĠ": 5746,
      ":ĠTheĠ": 5747,
      "Eg": 5748,
      "wap": 5749,
      "gbáº¹Ìģ": 5750,
      "iyaĠdaĠ": 5751,
      "ĠâĢĺ": 5752,
      "Ġáĭ¨áĬ¦": 5753,
      "ĠÃĵĠ": 5754,
      "KanisaĠ": 5755,
      "contin": 5756,
      "56": 5757,
      "dontĠ": 5758,
      "aĠp": 5759,
      ",ĠD": 5760,
      "áĪįáį¡áį¡": 5761,
      "ĠáĪĺáī¶": 5762,
      "Ã³ĠsÃ¬": 5763,
      "ĠItĠ": 5764,
      "isteĠ": 5765,
      "ileĠniĠ": 5766,
      ":Ġ\"": 5767,
      "aĠkung": 5768,
      "ĠáīģáĮ¥": 5769,
      "áĬªáĭ«": 5770,
      "AfirkaĠtaĠ": 5771,
      "ementsĠ": 5772,
      "consid": 5773,
      "ĠáĬĥáĭŃáĪĪ": 5774,
      "Ġáĭ¨áĪĺáĮĢáĪĺáĪªáĭ«áĭį": 5775,
      "shirye-": 5776,
      "fasah": 5777,
      "toĠgbaĠEbunĠ": 5778,
      "The": 5779,
      "div": 5780,
      "gÃ©n": 5781,
      "tabb": 5782,
      "wÃł": 5783,
      "áī§": 5784,
      "arew": 5785,
      "amiĠ": 5786,
      "arĠS": 5787,
      "es)Ġ": 5788,
      "ajiliĠyaĠ": 5789,
      "ojaĠ": 5790,
      "ĠáĮĪáĭ°": 5791,
      "IbileĠ": 5792,
      "naf": 5793,
      "ikip": 5794,
      "ĠáĬłáĬĲ": 5795,
      "ayáº¹": 5796,
      "ÆĻir": 5797,
      ",ĠmwandishiĠ": 5798,
      "zamaniĠ": 5799,
      "nje": 5800,
      "whichĠ": 5801,
      "daĠyawanĠjama'aĠ": 5802,
      "Re": 5803,
      "kam": 5804,
      "me": 5805,
      "yaut": 5806,
      ".ĠÃĵ": 5807,
      "ĠáĪĺáĮ»": 5808,
      ")ĠS": 5809,
      "Ġáĭ¨áĪĢ": 5810,
      "ĠninuĠ": 5811,
      "áĪµáī°áĬĽ": 5812,
      "amfan": 5813,
      "walikuwaĠ": 5814,
      "RayayyunĠ": 5815,
      "ĠáĬŃáĪŃáĪµáī²áĭ«": 5816,
      "Ġ-ĠMtakatifuĠ": 5817,
      "3,": 5818,
      "Kh": 5819,
      "Yul": 5820,
      "ierĠ": 5821,
      "áº¸": 5822,
      "ana": 5823,
      "in-": 5824,
      "áĭ«áĭ«": 5825,
      "urr": 5826,
      "ĠIb": 5827,
      "obiĠ": 5828,
      "indaĠyaĠ": 5829,
      "áĪµáĪ«áīħ": 5830,
      "ammalaĠkar": 5831,
      "frÃŃkÃł": 5832,
      "AC": 5833,
      "Jul": 5834,
      "d,Ġ": 5835,
      "long": 5836,
      "oá¹£": 5837,
      "yiĠm": 5838,
      "ÙĴ": 5839,
      "áĬķáĪ³áĭĬ": 5840,
      "áĭ°áĬķ": 5841,
      "umoĠ": 5842,
      "enĠ(": 5843,
      "áĭĿáĪĽáī½": 5844,
      "Ġ22": 5845,
      "ĠáĪļáĪĬ": 5846,
      "gudanarĠdaĠ": 5847,
      "etweenĠ": 5848,
      "Per": 5849,
      "Vol": 5850,
      "faf": 5851,
      "sal": 5852,
      "saur": 5853,
      "ĠáĬłáįį": 5854,
      "offic": 5855,
      "huadhim": 5856,
      "yaaniĠ": 5857,
      "anbihiĠ": 5858,
      "ĠáĮ«": 5859,
      "alij": 5860,
      "áĬ«áī³": 5861,
      "áĭĭáīµ": 5862,
      "áĪ©áį¢": 5863,
      "ĠDecemberĠ": 5864,
      "auĠm": 5865,
      "ejeoĠ": 5866,
      "egem": 5867,
      "1977": 5868,
      "alÃ¡Ã¬sÃŃĠnÃŃĠ": 5869,
      "fre": 5870,
      "larg": 5871,
      "men": 5872,
      "sos": 5873,
      "zakeĠ": 5874,
      "áĪªáĪµ": 5875,
      "áįĪáĪ¨áĬķáĪ³áĭŃ": 5876,
      "progr": 5877,
      "áĪģáĪĪáīµ": 5878,
      "aĠyaĠm": 5879,
      "ĠGu": 5880,
      "plac": 5881,
      "aĠgarinĠ": 5882,
      "áĮĬáĪµ": 5883,
      "IjobaĠIbileĠ": 5884,
      "ĠáĬ«áĪĮáĬķáĭ³áĪŃ": 5885,
      "gan": 5886,
      "gÃ¡": 5887,
      "rá»įĠ": 5888,
      "ĠáĬĹ": 5889,
      "akat": 5890,
      "ĠáĬłáĭ²áĪµ": 5891,
      "ĠAh": 5892,
      "iaĠM": 5893,
      "ossĠ": 5894,
      "ambaoĠ": 5895,
      "Ġ23": 5896,
      "wÃ¡jÃº": 5897,
      "overnmentĠ": 5898,
      "áĮİáĪŃáĮİáĪŃáĭ«áĬķ": 5899,
      "Port": 5900,
      "eyeĠ": 5901,
      "fad": 5902,
      "yayiĠ": 5903,
      "itoĠ": 5904,
      "ajir": 5905,
      "utionĠ": 5906,
      "ĠMus": 5907,
      "truc": 5908,
      "áĪŀáĬŃ": 5909,
      "lÃ¡Ġ": 5910,
      "ĠPart": 5911,
      "1994": 5912,
      "Ġ25": 5913,
      "Ġá»įjá»įÌģalÃ¡Ã¬sÃŃĠnÃŃĠ": 5914,
      "yanay": 5915,
      "Ġáĭ³áĪŃ": 5916,
      "wengi,Ġ": 5917,
      "ĠJanuaryĠ": 5918,
      "Cap": 5919,
      "Sat": 5920,
      "loc": 5921,
      "ois": 5922,
      "áī£áī¥": 5923,
      "wanaĠ": 5924,
      "áĪ°áĪĽ": 5925,
      "ĠThe": 5926,
      "Ġst": 5927,
      "ĠáĭµáĬķáĮĭ": 5928,
      "ĠáīłáĬ¢": 5929,
      "ĠwÃ¡": 5930,
      "ichael": 5931,
      "áĭ³áĬķáĭ±": 5932,
      "ĠAfric": 5933,
      "oĠAgbaĠ": 5934,
      "Gen": 5935,
      "Wh": 5936,
      "co": 5937,
      "sir": 5938,
      "sib": 5939,
      "eĠM": 5940,
      "ingĠtoĠ": 5941,
      "áīĢáĭµáĪŀ": 5942,
      "áĪ°áĬķ": 5943,
      "et,Ġ": 5944,
      "nÃŃĠÃ¬lÃº": 5945,
      "ation.": 5946,
      "ĠAlim": 5947,
      "exp": 5948,
      "Pres": 5949,
      "ari'": 5950,
      "beenĠ": 5951,
      "Ġáĭ¨áĬĲáīłáĪ¨áĭį": 5952,
      "áį²áį±áį»áį": 5953,
      "rank": 5954,
      "yÃ¡": 5955,
      "yth": 5956,
      "Ø¯": 5957,
      "áĮ¾": 5958,
      "áĪĪáĪĺ": 5959,
      "tĠ(": 5960,
      "irninĠ": 5961,
      "ipeĠ": 5962,
      "ĠJinaĠ": 5963,
      "Ãłwá»įnĠá»įmá»į": 5964,
      "Ãłká»įÌģlÃ©Ġ": 5965,
      "harĠzuwaĠ": 5966,
      "49": 5967,
      "Nd": 5968,
      "aeĠ": 5969,
      "cikiĠ": 5970,
      "nah": 5971,
      "ĠáīĢáĭ³": 5972,
      "bÃŃĠnÃŃ": 5973,
      "waĠkwanzaĠ": 5974,
      "KanoĠ": 5975,
      "aribuĠ": 5976,
      "StateĠ": 5977,
      "Ġhttp://www.": 5978,
      "áĮĪáĪªáī±": 5979,
      "KanananĠhukumominĠjiharĠ": 5980,
      "YohaneĠ": 5981,
      "500": 5982,
      "Gwamn": 5983,
      "Mut": 5984,
      "dá»įÌģ": 5985,
      "gargaj": 5986,
      "inap": 5987,
      "intoĠ": 5988,
      "ami": 5989,
      "urch": 5990,
      "iliminĠ": 5991,
      "Ġáĭ¨áĪļáĭ«áĪµ": 5992,
      "ĠáīłáĬ©áĪį": 5993,
      "ĠáīĢáĮ¥áĪİ": 5994,
      "91Ġáĭĵ.áĪĿ.": 5995,
      "gá»įÌģ": 5996,
      "áĪŃ-": 5997,
      "áĮĪáī¡": 5998,
      "ĠMay": 5999,
      "identĠ": 6000,
      "ĠKÃ¡": 6001,
      "áĪģáĪī": 6002,
      "ĠwÃłĠ": 6003,
      "ĠáĪĨáĬĸáĪĿ": 6004,
      "dansĠleĠ": 6005,
      "áĪ¥áĪ«áīħ": 6006,
      "áĮİáĪŃáĮİáĪŃáĭ«áĬķĠáĬ«áĪĮáĬķáĭ³áĪŃ": 6007,
      "cal": 6008,
      "Ãłj": 6009,
      "aminĠ": 6010,
      "ikuuĠ": 6011,
      "Ã©lÃ©": 6012,
      "agenĠ": 6013,
      "ĠáĭŃáĭĺ": 6014,
      "azarinĠ": 6015,
      "áī¢áīµ": 6016,
      "aĠnaĠm": 6017,
      "nemanĠ": 6018,
      "lambarĠyab": 6019,
      "áĭ®áĪŃáĮĬáĪµ": 6020,
      "ijerum": 6021,
      "Pet": 6022,
      "WestĠ": 6023,
      "e),Ġ": 6024,
      "sign": 6025,
      "tic": 6026,
      "¹áį": 6027,
      "ºáį": 6028,
      "aya.": 6029,
      "elsĠ": 6030,
      "ĠáĭŃáĬĲ": 6031,
      "osiĠ": 6032,
      "Ġmá»įÌģ": 6033,
      "1978": 6034,
      "áī³áĭĪáīħ": 6035,
      "Ġáĭĭáī¢ĠáĪĿáĬķáĮ®áī½": 6036,
      "Sw": 6037,
      "etiĠ": 6038,
      "gidaĠ": 6039,
      "ĠatiĠ": 6040,
      "áĬķáĭ°áĪŃ": 6041,
      "ĠAugustĠ": 6042,
      "áĪĭáĪµ": 6043,
      "áĬ¨áįį": 6044,
      "press": 6045,
      "ĠdÃ¡": 6046,
      "ĠCl": 6047,
      "áĬķĠáīłáĬł": 6048,
      "ÉĹauk": 6049,
      "withĠtheĠ": 6050,
      "aliye": 6051,
      "áĪıáĪįáį¢": 6052,
      "ĠáĪĽáĪµáī³áĭĪáĪ»áĭİáī½": 6053,
      "76": 6054,
      "her": 6055,
      "je": 6056,
      "mÃ¹": 6057,
      "Ã¯": 6058,
      "waĠM": 6059,
      "ench": 6060,
      "undĠ": 6061,
      "ĠáĪĺáĮ¥": 6062,
      "Ġáį»áį": 6063,
      "ajuĠ": 6064,
      "Ġáī°áĬĵ": 6065,
      "ceĠdakeĠ": 6066,
      "iĠkifoĠch": 6067,
      "ĠáĪįáī¥": 6068,
      "1967": 6069,
      "Ġá»ĮbaĠ": 6070,
      "áĪĿĠáīłáĬ¥áĬķáĮįáĪĬáĭĿáĬĽ": 6071,
      "ayyukanĠ": 6072,
      "ĠBKĠ(BaadaĠyaĠKristo).ĠMatukioĠ": 6073,
      "ĠAgbegbeĠIjobaĠIbileĠ": 6074,
      ":ĠM": 6075,
      "Ele": 6076,
      "Hot": 6077,
      "maĠÅĦ": 6078,
      "pi": 6079,
      "wu": 6080,
      "a,Ġk": 6081,
      "fordĠ": 6082,
      "ĠáĪĻáĪī": 6083,
      "Ġ(BaadaĠyaĠKristo).ĠMatukioĠWaliozaliwaĠWaliofarikiĠKarneĠyaĠ": 6084,
      "zaidiĠ": 6085,
      "yaddaĠ": 6086,
      "ĠáĬłáĭŃáĭ°áĪĪáĪĿ": 6087,
      "Turk": 6088,
      "pÃ²": 6089,
      "yaliy": 6090,
      "áĪįáīģ": 6091,
      "aboutĠ": 6092,
      "ĠáĬ¥áĮįáĭļáĬłáī¥áĪĶáĪŃ": 6093,
      "urg": 6094,
      "áĮĪáĪ¨": 6095,
      "wakaz": 6096,
      "áĭ«áĬķáĭ³áĬķáĭ±": 6097,
      "ainsiĠ": 6098,
      "ĠáĬŃáįįáĪİáī½": 6099,
      "ĠAnĠginaĠ": 6100,
      "ĠAmáº¹ÌģrÃŃkÃłĠ": 6101,
      "ĠáĬĥáĭŃáĪį": 6102,
      "azamaĠpiaĠOrodhaĠyaĠ": 6103,
      "58": 6104,
      "Tun": 6105,
      "fl": 6106,
      "pia": 6107,
      "yoteĠ": 6108,
      "ake.": 6109,
      "ika": 6110,
      "arĠtaĠ": 6111,
      "áīłáĭį": 6112,
      ")Ġ-": 6113,
      "afuĠ": 6114,
      "ĠáĭŃáĮłáīĢ": 6115,
      "kumaĠmaiĠ": 6116,
      "áīĢáĪ¨": 6117,
      "áĪ°áĪŃ": 6118,
      "Ġáī£áĪį": 6119,
      "Ġ24": 6120,
      "uatanaĠnaĠ": 6121,
      "sakand": 6122,
      "ĠFebruariĠ-": 6123,
      "Iv": 6124,
      "Map": 6125,
      "tá»įÌĢ": 6126,
      "Î±": 6127,
      "iĠaĠ": 6128,
      "atr": 6129,
      "chez": 6130,
      "ĠáĭĪáĪįáĭ°": 6131,
      "ĠWat": 6132,
      "Ġá¹£ÃŃá¹£": 6133,
      "daĠyawaĠ": 6134,
      "ĠáĭĿáĪŃáĭ«": 6135,
      "Braz": 6136,
      "ublish": 6137,
      "NÃłÃ¬jÃŃrÃŃÃłĠ": 6138,
      "unifÃ¡sÃŃ": 6139,
      "4Ġ-": 6140,
      "Cor": 6141,
      "ES": 6142,
      "iograf": 6143,
      "uit": 6144,
      "yĠM": 6145,
      "¸áį": 6146,
      "ĠáīłáĮ¥": 6147,
      "áĭŃáĪŃ": 6148,
      "ĠáĪĺáĪ³": 6149,
      "ĠOnĠ": 6150,
      "áĬĽáĭįĠáĬŃáįįáĪĪĠáĭĺáĪĺáĬķ": 6151,
      "autresĠ": 6152,
      "ĠáīĢáĬķĠáį²áį±áį»áį": 6153,
      "Ibrahim": 6154,
      "ique,Ġ": 6155,
      "Ġal-": 6156,
      "áĬŃáĪŃáĪµáī²áĭ«áĬķ": 6157,
      "AlakosoĠAgbaĠ": 6158,
      "%Ġ": 6159,
      "Wan": 6160,
      "dak": 6161,
      "dÃ³": 6162,
      "nip": 6163,
      "sanĠ": 6164,
      "vid": 6165,
      "Ã¨yÃŃ": 6166,
      "a,ĠK": 6167,
      "áĪ³áĪ³áĭŃ": 6168,
      "ajaĠ": 6169,
      "1995": 6170,
      "áĪµáīµáĬĵ": 6171,
      "ĠáĮłáīħ": 6172,
      "oá¹£Ã¹ĠK": 6173,
      "KadunaĠ": 6174,
      "Pak": 6175,
      "TA": 6176,
      "e\"": 6177,
      "pandeĠ": 6178,
      "ual": 6179,
      "áī¾": 6180,
      ",ĠL": 6181,
      "á»įkÃłn": 6182,
      "ĠáīłáĮİáĪŃáĮİáĪŃáĭ«áĬķĠáĬ«áĪĮáĬķáĭ³áĪŃ": 6183,
      "enr": 6184,
      "taĠfarkoĠ": 6185,
      "Ġáįİ": 6186,
      "iĠmwakaĠ": 6187,
      "oveĠ": 6188,
      "áĭĽáĭĿ": 6189,
      "All": 6190,
      "wakifuat": 6191,
      "150": 6192,
      "ĠgÃŃgaĠ": 6193,
      "daban-": 6194,
      "Ġ2091Ġáĭĵ.áĪĿ.": 6195,
      "upandeĠwaĠm": 6196,
      "Salaam": 6197,
      "Film": 6198,
      "Ger": 6199,
      "PC": 6200,
      "Wais": 6201,
      "dá»įÌĢ": 6202,
      "áĬķáīĢ": 6203,
      "ĠáĬłáī£áĪį": 6204,
      "áĬĵáĭį": 6205,
      "áĭ³áĬķáīµ": 6206,
      "tÃŃĠÃ³Ġt": 6207,
      "Ġáĭĺáĭ´": 6208,
      "ĠáĮ¥áĪ©": 6209,
      "Ã¬tÃłg": 6210,
      "ÃºrÃ²": 6211,
      "ographi": 6212,
      "shiĠneĠdanĠwasanĠÆĻwallonĠÆĻafaĠtaĠÆĻasarĠIngila.": 6213,
      "Ġ|-Ġ|": 6214,
      "Cong": 6215,
      "nuf": 6216,
      "ild": 6217,
      "áĪªáīµ": 6218,
      "osp": 6219,
      "isĠ(": 6220,
      "ĠChar": 6221,
      ",ĠmwigizajiĠwaĠfilamuĠ": 6222,
      "Ġ26": 6223,
      "iĠsikuĠ": 6224,
      "ĠáīĢáĬķĠáĪĽáĪĪáīµĠáĬĲáĭįáį¢": 6225,
      "Lagos": 6226,
      "Ġ(áĬ¨1892Ġáĭĵ.áĪĿ.": 6227,
      "ĠáĬłáīĨáĮ£áĮłáĪŃĠ(áĬ¨1892Ġáĭĵ.áĪĿ.": 6228,
      "digiriĠnaĠ": 6229,
      "ĠáīĢáĬķĠáīłáĬ¢áīµáĭ®áĮµáĭ«ĠáĬłáīĨáĮ£áĮłáĪŃĠ(áĬ¨1892Ġáĭĵ.áĪĿ.": 6230,
      "ĠáĮĢáĪĿáĪ®ĠáĬ¥áĪµáĬ¨Ġ2091Ġáĭĵ.áĪĿ.": 6231,
      "ĠáīĢáĬķĠáīłáĬ¢áīµáĭ®áĮµáĭ«ĠáĬłáīĨáĮ£áĮłáĪŃĠ(áĬ¨1892Ġáĭĵ.áĪĿ.ĠáĮĢáĪĿáĪ®ĠáĬ¥áĪµáĬ¨Ġ2091Ġáĭĵ.áĪĿ.": 6232,
      "a).": 6233,
      "cent": 6234,
      "ohu": 6235,
      "sch": 6236,
      ",ĠÃłtiĠ": 6237,
      "ĠáĭŃáĭ©": 6238,
      "áĪİáĬķ": 6239,
      "ĠáĪįáĭ°áīµ": 6240,
      "áĭ©áĪµ": 6241,
      "Ã¨rÃ¨": 6242,
      "pÃłtÃłkÃ¬": 6243,
      "ĠJanuariĠ-": 6244,
      "Ġáĭ¨áīĢáĬķĠáĪµ": 6245,
      "n.k.": 6246,
      "ĠáĪ²áĪĨáĬķĠáĭŃáĪħĠáīĢáĬķĠáīłáĬ¢áīµáĭ®áĮµáĭ«ĠáĬłáīĨáĮ£áĮłáĪŃĠ(áĬ¨1892Ġáĭĵ.áĪĿ.ĠáĮĢáĪĿáĪ®ĠáĬ¥áĪµáĬ¨Ġ2091Ġáĭĵ.áĪĿ.": 6247,
      "áĪĿĠáīłáĬ¥áĬķáĮįáĪĬáĭĿáĬĽĠáĪ²áĪĨáĬķĠáĭŃáĪħĠáīĢáĬķĠáīłáĬ¢áīµáĭ®áĮµáĭ«ĠáĬłáīĨáĮ£áĮłáĪŃĠ(áĬ¨1892Ġáĭĵ.áĪĿ.ĠáĮĢáĪĿáĪ®ĠáĬ¥áĪµáĬ¨Ġ2091Ġáĭĵ.áĪĿ.": 6248,
      "ĠáīłáĮİáĪŃáĮİáĪŃáĭ«áĬķĠáĬ«áĪĮáĬķáĭ³áĪŃĠáĭ¨áīĢáĬķĠáĪµ": 6249,
      "ĠáīłáĮİáĪŃáĮİáĪŃáĭ«áĬķĠáĬ«áĪĮáĬķáĭ³áĪŃĠáĭ¨áīĢáĬķĠáĪµáĪĿĠáīłáĬ¥áĬķáĮįáĪĬáĭĿáĬĽĠáĪ²áĪĨáĬķĠáĭŃáĪħĠáīĢáĬķĠáīłáĬ¢áīµáĭ®áĮµáĭ«ĠáĬłáīĨáĮ£áĮłáĪŃĠ(áĬ¨1892Ġáĭĵ.áĪĿ.ĠáĮĢáĪĿáĪ®ĠáĬ¥áĪµáĬ¨Ġ2091Ġáĭĵ.áĪĿ.": 6250,
      "Can": 6251,
      "WorldĠ": 6252,
      "ĠkumaĠ": 6253,
      "amaĠk": 6254,
      "ĠáĬłáī¶": 6255,
      "ones": 6256,
      "abi": 6257,
      "ĠáĬ¥áĪŃáĪ±": 6258,
      "ĠAnaĠ": 6259,
      "áĭ°áĪµ": 6260,
      "ekoĠ": 6261,
      "estiv": 6262,
      "dÃ¡raĠ": 6263,
      "mutum": 6264,
      "jáº¹sÃ¡": 6265,
      "ĠSeptembaĠ-": 6266,
      "ĠAgostiĠ-": 6267,
      "áº¹ÌĢáº¹ÌģsÃ¬": 6268,
      "áĪĮáĬŃáīµáĪªáĬŃ": 6269,
      "ĠáĪĽáĮ£áīĢáĪ»": 6270,
      "rin,Ġ": 6271,
      "wacinĠ": 6272,
      "anth": 6273,
      "onom": 6274,
      "omasĠ": 6275,
      "âĢ¢": 6276,
      "ĠáĪĿáĬķ": 6277,
      "Ġáĭ«áĪĭáī¸áĭį": 6278,
      "ĠáĬĲáĭįáį¢Ġáīł": 6279,
      "ijinĠ": 6280,
      "Ġáĭ¨áī°áįĪ": 6281,
      "ĠáĮĪáĬķ": 6282,
      "Ġ27": 6283,
      "áĪµáī°áĭ³": 6284,
      "áĪĲáįĬ": 6285,
      "ĠáīĢáĬķĠ-": 6286,
      "askof": 6287,
      "ĠáĬłáĪĿáĪĭáĬŃ": 6288,
      "áī¥áĪ«áĭŃ": 6289,
      "ĠJulaiĠ-": 6290,
      "46": 6291,
      "86": 6292,
      "Sam": 6293,
      "bat": 6294,
      "gaĠm": 6295,
      "hel": 6296,
      "hiy": 6297,
      "ram": 6298,
      "writ": 6299,
      "aniĠk": 6300,
      "us.": 6301,
      "ajeĠ": 6302,
      "ĠLáº¹ÌģyÃ¬nĠ": 6303,
      "watakatifuĠ": 6304,
      "ĠCar": 6305,
      "toĠjeĠ": 6306,
      "suchĠ": 6307,
      "aĠduk": 6308,
      "view": 6309,
      "haÉĹinĠ": 6310,
      "Ġtrans": 6311,
      "irefu": 6312,
      "bo": 6313,
      "da": 6314,
      "gh": 6315,
      "orÃŃá¹£": 6316,
      "áĪĪáīłáīµ": 6317,
      "ĠAp": 6318,
      "alich": 6319,
      "Ġá»įbaĠ": 6320,
      "ĠCon": 6321,
      "ĠáīĢáīł": 6322,
      "----": 6323,
      "rÃ¨sĠ": 6324,
      "ĠAyy": 6325,
      "Phil": 6326,
      "San": 6327,
      "lilikuwaĠ": 6328,
      "Ġ0": 6329,
      "eroĠ": 6330,
      "ĠáĬłáĭµ": 6331,
      "shair": 6332,
      "ellesĠ": 6333,
      "ĠáĪĺáĪĪ": 6334,
      "useĠ": 6335,
      "áĪ°áĪ¨": 6336,
      "ĠSe": 6337,
      "opol": 6338,
      "uhim": 6339,
      "ĠáĪ²áĪĨáĬķáį£": 6340,
      "aiss": 6341,
      "Ġáī¤áī°ĠáĬŃáĪŃáĪµáī²áĭ«áĬķ": 6342,
      "sikuĠ": 6343,
      "aĠmapokeoĠyaĠ": 6344,
      "33": 6345,
      "Bo": 6346,
      "Coun": 6347,
      "GÃ³mÃ¬nÃłĠ": 6348,
      "del": 6349,
      "zoteĠ": 6350,
      "Î¿": 6351,
      "Ġ<": 6352,
      "áĪ¦": 6353,
      "aĠdagaĠ": 6354,
      "ĠáĪ¬": 6355,
      "áĪµáĪį": 6356,
      "ensiĠ": 6357,
      "ĠAng": 6358,
      "áĪĽáī¸áĭį": 6359,
      "áī³áī½áĬķ": 6360,
      "akeĠkir": 6361,
      "ĠáĮįáĭµ": 6362,
      "ndaniĠyaĠ": 6363,
      "Ġpl": 6364,
      "assanĠ": 6365,
      "AfrikaĠyaĠM": 6366,
      "Italia": 6367,
      "ÃĮtá»įÌģkasÃŃĠ": 6368,
      "96": 6369,
      "Jum": 6370,
      "Mil": 6371,
      "mall": 6372,
      "imaninĠ": 6373,
      "agul": 6374,
      "ĠáĭŃáī»": 6375,
      "Ġáĭ¨áĪ´": 6376,
      "áĪħáĬķ": 6377,
      "ĠlatiĠ": 6378,
      "aniĠnaĠ": 6379,
      "etĠleĠ": 6380,
      "eĠdÃ©": 6381,
      "ĠGr": 6382,
      "Mart": 6383,
      "ĠáĪµáĪĪáĪļ": 6384,
      "áĬķáĭ³áĬķáĭµ": 6385,
      "ĠAfricanĠ": 6386,
      "BiranenĠ": 6387,
      "Ġáī¥áĪĶáĪ«áĭĬ": 6388,
      "ĠáĪĺáĪįáĬŃáĭĵ": 6389,
      "kaskazin": 6390,
      "MutaneĠ": 6391,
      "Nor": 6392,
      "bá»įÌģá»įÌĢ": 6393,
      "oÃ²rÃ¹nĠ": 6394,
      "áĬĵáĭŃáīµ": 6395,
      ")ĠalikuwaĠm": 6396,
      "ĠMat": 6397,
      "ĠáĬ¥áĬķáĭ°áĮĪáĬĵ": 6398,
      "1991": 6399,
      "succ": 6400,
      "evelop": 6401,
      "ĠÃĢwá»įnĠá»įjá»įÌģalÃ¡Ã¬sÃŃĠnÃŃĠ": 6402,
      "uhuruĠ": 6403,
      "abrair": 6404,
      "gwamnanĠ": 6405,
      "pir": 6406,
      "Ġ~": 6407,
      "ĠØ§ÙĦ": 6408,
      "inĠK": 6409,
      "arĠesĠ": 6410,
      "áĮįáĬķ": 6411,
      "aĠmakarantarĠ": 6412,
      "igu": 6413,
      "áĭ³áĪį": 6414,
      "proc": 6415,
      "áĪ©áĪĿ": 6416,
      "ohamm": 6417,
      "Ġáī£áĭŃ": 6418,
      "Al-": 6419,
      "karniĠnaĠ": 6420,
      "daĠdamaĠ": 6421,
      "ĠÃĪkÃ³Ġ": 6422,
      "ViungoĠvyaĠnje": 6423,
      "iakaĠmirefu": 6424,
      "abakiĠsikuĠ": 6425,
      "57": 6426,
      "Air": 6427,
      "Agb": 6428,
      "Janu": 6429,
      "dif": 6430,
      "o)Ġ": 6431,
      "Ð¾": 6432,
      "ikiĠwaĠ": 6433,
      "ĠáĭŃáĭĪ": 6434,
      "neĠnaĠ": 6435,
      "econd": 6436,
      "ÃŃnÃŃ": 6437,
      "Ġ1.": 6438,
      "Ġ28": 6439,
      "partĠ": 6440,
      "class": 6441,
      ",ĠmshindiĠwaĠTuzoĠyaĠNobelĠyaĠFizikiaĠmwakaĠwaĠ": 6442,
      ",ĠmshindiĠwaĠTuzoĠyaĠNobelĠyaĠKemiaĠmwakaĠwaĠ": 6443,
      "ninuĠawonĠ": 6444,
      "aimakinĠ": 6445,
      "Ġáīłáī¥áĭĽáīµ": 6446,
      "uisheĠ": 6447,
      "aguziĠwaĠ": 6448,
      "Roma,Ġhuadhim": 6449,
      "ĠkatikaĠmiakaĠmirefu": 6450,
      "wakifuataĠmapokeoĠyaĠ": 6451,
      "wakifuataĠmapokeoĠyaĠRoma,Ġhuadhim": 6452,
      "kinĠ": 6453,
      "Ð¸": 6454,
      "áĬķáī³": 6455,
      "ĠáĬłáĭ¨áĪŃ": 6456,
      "okanĠ": 6457,
      "ĠáĭĪáĮĪ": 6458,
      "áįįáĬĵ": 6459,
      "ĠdonĠ": 6460,
      "nÃŃpaĠ": 6461,
      "1984": 6462,
      "yawan": 6463,
      "zinabakiĠsikuĠ": 6464,
      "ĠDesembaĠ-": 6465,
      "ristoĠwengi,Ġ": 6466,
      "uisheĠzinabakiĠsikuĠ": 6467,
      "ristoĠwengi,ĠwakifuataĠmapokeoĠyaĠRoma,Ġhuadhim": 6468,
      "Gb": 6469,
      "Sch": 6470,
      "jour": 6471,
      "Åį": 6472,
      "inceĠ": 6473,
      "onlyĠ": 6474,
      "gboyÃ¨": 6475,
      "áĪ«áĪįáį¢": 6476,
      "Ġáī°áīĥ": 6477,
      "ishaĠm": 6478,
      "watum": 6479,
      "áĭĽáĪ¬": 6480,
      "ion,Ġ": 6481,
      "áīłáīµĠáĮĬáĭľ": 6482,
      "ĠAll": 6483,
      "parti": 6484,
      "ight": 6485,
      "Ġáī³áĪªáĬ«áĭĬĠáĪĽáĪµáī³áĭĪáĪ»áĭİáī½": 6486,
      "ĠáĬ¥áĬķáĮįáĪĬáĭĿáĬĽ": 6487,
      "Fin": 6488,
      "band": 6489,
      "oung": 6490,
      "zoĠyaĠ": 6491,
      "oĠs": 6492,
      "kuch": 6493,
      "ĠáĬłáĪĪáĪĿ": 6494,
      "ĠáĮĥ": 6495,
      "ĠáĪĺáĮ£": 6496,
      "Ġáĭ¨áĪ®": 6497,
      "oss": 6498,
      "com/": 6499,
      "anyik": 6500,
      "kuduĠmasoĠ": 6501,
      "Ġáī°áĬ¨áī³": 6502,
      "a.ĠManazartaĠ": 6503,
      "Academ": 6504,
      "Ġáī£áĪħáĪŃ": 6505,
      "onyesh": 6506,
      "pakaĠuisheĠzinabakiĠsikuĠ": 6507,
      "ablaĠyaĠ": 6508,
      "Wal": 6509,
      "biliĠ": 6510,
      "anishaĠ": 6511,
      "ine,Ġ": 6512,
      "inform": 6513,
      "ayarĠdaĠ": 6514,
      "áĮĪáĪ«áīµ": 6515,
      "wann": 6516,
      "re.": 6517,
      "ĠBa": 6518,
      "ugu": 6519,
      "ĠáĭįáĪĢ": 6520,
      "Ġáĭ°áĪ«áĪ²": 6521,
      "arkiĠ": 6522,
      "áī¦áīµ": 6523,
      "Arab": 6524,
      "ÃĮtá»įÌģkasÃŃ": 6525,
      "econdĠ": 6526,
      "ĠáĪĿáĬĵáĪįáī£áīµ": 6527,
      "(m": 6528,
      ".,Ġ": 6529,
      "1=": 6530,
      "400": 6531,
      "zoĠ": 6532,
      "aĠT": 6533,
      "shaĠ": 6534,
      "áĮįáĪªáĬŃ": 6535,
      "wá»įĠ": 6536,
      "ĠáĭŃáĪĺ": 6537,
      "awarĠdaĠ": 6538,
      "Ġáīµáĭį": 6539,
      "wendaĠ": 6540,
      "Ã©rÃ©": 6541,
      "undum": 6542,
      "uĠkatikaĠ": 6543,
      "eurĠ": 6544,
      "ĠáįįáĪ¬": 6545,
      "áī³áĭĪáīĢ": 6546,
      "ĠáįĸáĪĪáī²áĬ«": 6547,
      "ĠOktobaĠ-": 6548,
      "ĠAlimfuataĠ": 6549,
      "FM": 6550,
      "fac": 6551,
      "atab": 6552,
      "akokoĠ": 6553,
      "Ã¬bÃ¡": 6554,
      "Ã¡Ã¡": 6555,
      "Ġáĭ¨áĪĥ": 6556,
      "ibr": 6557,
      "ĠBen": 6558,
      "udi": 6559,
      "ĠáīłáĬ¦": 6560,
      "1969": 6561,
      "anyoyinĠ": 6562,
      "tureĠ": 6563,
      "ÃłwÃ³Ġ": 6564,
      "áĮ£áĪįáĭ«áĬķ": 6565,
      "ĠMachiĠ-": 6566,
      "97": 6567,
      "Ġ192": 6568,
      "áĬķáĬŃ": 6569,
      "itabuĠ": 6570,
      "cheoĠ": 6571,
      "Ã¨ĠnÃŃĠ": 6572,
      "ĠTr": 6573,
      "ĠkoĠ": 6574,
      "ĠDuk": 6575,
      "Ġpar": 6576,
      "wá»įn.": 6577,
      "ĠáīłáĬłáĪģáĬĳ": 6578,
      "ĠfunĠ": 6579,
      "ĠyaĠmutuĠ": 6580,
      "Ã©rÃ©Ġ": 6581,
      "ĠáĪ³áĭŃáĬķáĪ³áĭĬ": 6582,
      "rayuw": 6583,
      "áĮįáī£áĪŃ": 6584,
      "halarciĠ": 6585,
      "ĠAnĠginaĠbirninĠ": 6586,
      ":ĠS": 6587,
      "IS": 6588,
      "coun": 6589,
      "aĠN": 6590,
      "aĠshekararĠ201": 6591,
      "anaĠm": 6592,
      "áĬķáĮİ": 6593,
      "ator": 6594,
      "ĠáĬłáĪ«": 6595,
      "ĠáĭŃáĮł": 6596,
      "ifarans": 6597,
      "ĠWilliam": 6598,
      "ĠPar": 6599,
      "compos": 6600,
      "JamiâĢĻarĠ": 6601,
      "wallonĠkaf": 6602,
      "Musul": 6603,
      "ArewacinĠ": 6604,
      "AR": 6605,
      "Larab": 6606,
      "Rh": 6607,
      "baiĠ": 6608,
      "hul": 6609,
      "log": 6610,
      "nÃŃnuĠ": 6611,
      "velop": 6612,
      "amer": 6613,
      "ĠáīłáĪ½áī³": 6614,
      "áĭµáĪĺ": 6615,
      "áĪ«áĭį": 6616,
      "áĬŃáĪ²": 6617,
      "ĠKu": 6618,
      "ĠKunaĠ": 6619,
      "ovieĠ": 6620,
      "daĠsukeĠ": 6621,
      "áĮ«áĭĪ": 6622,
      "wengineĠ": 6623,
      "Ã©galementĠ": 6624,
      "ĠáĮīáĭ³áĭŃ": 6625,
      "toĠgbaĠEbunĠNobel": 6626,
      "áī¥áĪ«áĭŃáĪµáĮ¥": 6627,
      "arĠesĠSalaam": 6628,
      ":Ġm": 6629,
      "Sar": 6630,
      "Uch": 6631,
      "d.Ġ": 6632,
      "Ùĩ": 6633,
      "ilinĠ": 6634,
      "off": 6635,
      "idarĠ": 6636,
      "áįįáĮ¥": 6637,
      "akaĠdaĠ": 6638,
      "angl": 6639,
      "edĠasĠ": 6640,
      "own": 6641,
      "ĠáĭĺáĪĺáĬĵáĭĬ": 6642,
      "auriĠ": 6643,
      "aliwaĠnaĠ": 6644,
      "Ġcentur": 6645,
      "ombeĠ": 6646,
      "ĠáĪ³áĭŃáĪĨáĬķ": 6647,
      "ĠhadiĠkifoĠch": 6648,
      "cinĠkofinĠ": 6649,
      "ĠáĪĺáĪįáĬŃáĭĵĠáĪĿáĭµáĪŃ": 6650,
      "WilayaĠ": 6651,
      "tu": 6652,
      "temp": 6653,
      "Ġáīłáīµ": 6654,
      "ĠAdÃ©": 6655,
      "Ġ(m": 6656,
      "ibuĠ": 6657,
      "áīħáĭ«": 6658,
      "2012,Ġ": 6659,
      "ĠInd": 6660,
      "ĠáīµáĪŃ": 6661,
      "lÃ¡b": 6662,
      "iá¹£áº¹Ġ": 6663,
      "aadaĠyaĠm": 6664,
      "group": 6665,
      "OktobaĠ": 6666,
      "atureĠ": 6667,
      "áĭ°áĪ¨áĮĪáĭį": 6668,
      "dhidiĠyaĠ": 6669,
      "ĠáĪ¦áĪµáīµ": 6670,
      "ĠáĪļáĬĴáĪµáīµ": 6671,
      "nasaraĠ": 6672,
      "kumbukumbuĠzaĠ": 6673,
      "ÃºÃºsÃ¹": 6674,
      "rab": 6675,
      "ĠÎ": 6676,
      "anim": 6677,
      "á»įdÃºnĠ": 6678,
      "uĠtaĠ": 6679,
      "áĪįáĮĭ": 6680,
      "áĪµáī¶": 6681,
      "áĪµáī´": 6682,
      "isk": 6683,
      "ĠáĬłáĪī": 6684,
      "acikinĠ": 6685,
      "azim": 6686,
      "ĠTanaĠ": 6687,
      "ĠáĪµáĪĭ": 6688,
      "nÃ¡Ãł.": 6689,
      "Ã¨resĠ": 6690,
      "2019,Ġ": 6691,
      "ĠJanuariĠ": 6692,
      "áº¹lif": 6693,
      "ĠSeptemberĠ": 6694,
      "ahaifiy": 6695,
      "ĠNovembaĠ-": 6696,
      "ĠáĮĬáĭ®áĪŃáĮĬáĪµ": 6697,
      "kumbukumbuĠzaĠwatakatifuĠ": 6698,
      "PP": 6699,
      "Ta": 6700,
      "asayans": 6701,
      "Ã©qu": 6702,
      "áĪĭáīħ": 6703,
      "áīłáīĥ": 6704,
      "import": 6705,
      "ekaĠ": 6706,
      "ĠáĭĪáĪĪ": 6707,
      "Â«Ġ": 6708,
      "tainĠ": 6709,
      "áĬ®áĬĸ": 6710,
      "atikaĠkar": 6711,
      "biasharaĠ": 6712,
      "2=": 6713,
      "DanĠ": 6714,
      "gent": 6715,
      "pwan": 6716,
      "roĠ": 6717,
      "rÃ¬": 6718,
      "rich": 6719,
      "tot": 6720,
      "tÃłnĠ": 6721,
      "alamaĠ": 6722,
      "eneĠ": 6723,
      "irÃŃá¹£": 6724,
      "ĠMas": 6725,
      "á¹£áº¹ÌĢ": 6726,
      "iĠkatikaĠm": 6727,
      "áĭ¨áĭį": 6728,
      "aĠyakeĠ": 6729,
      "ĠáĬĵáīµáį¢": 6730,
      "ĠáĭķáĪĪáī°": 6731,
      "ĠViungoĠvyaĠ": 6732,
      "aularĠ": 6733,
      "ĠáĬ¥áĬķáĭ³áĭŃ": 6734,
      "Ġáī¡áĭµ": 6735,
      "kundiĠ": 6736,
      "tarihinĠ": 6737,
      "waÉĹan": 6738,
      "Ġpáº¹ÌĢlÃºĠ": 6739,
      "ĠkatikaĠmiakaĠmirefu).ĠM": 6740,
      "Dam": 6741,
      "Den": 6742,
      "cultur": 6743,
      "jeshiĠ": 6744,
      "pyaĠ": 6745,
      "pass": 6746,
      "tarĠ": 6747,
      "°áį»áį": 6748,
      "áĪŃáī¶": 6749,
      "ĠAt": 6750,
      "igir": 6751,
      "ĠseĠ": 6752,
      "Ġáĭ¨áī°áī£áĪĪ": 6753,
      "1983": 6754,
      "undiĠ": 6755,
      "yaoĠ": 6756,
      "ĠáĮ¸áī£áĭŃ": 6757,
      "ÃĢwá»įnĠáº¹láº¹ÌģbÃ¹nĠNobel": 6758,
      "UnitedĠStat": 6759,
      "Wash": 6760,
      "dÃŃn": 6761,
      "hunĠ": 6762,
      "piaĠm": 6763,
      "tang": 6764,
      "uĠaĠ": 6765,
      "áĪĿĠáĪĨáĬĲ": 6766,
      "ominaĠ": 6767,
      "Ġáį©": 6768,
      "Ġáĭ¨áĪ±": 6769,
      "Ġáĭ¨áĪļáĮĪáĬĻ": 6770,
      "prim": 6771,
      "etĠlaĠ": 6772,
      "kasashenĠ": 6773,
      "ĠáĭįáĮŃ": 6774,
      "áĪİáĮĤ": 6775,
      "1992": 6776,
      "airesĠ": 6777,
      "ĠáīħáĪŃáĪµ": 6778,
      "ĠÃĵĠk": 6779,
      "wenyeĠm": 6780,
      "team": 6781,
      "orÃ¹bÃ¡Ġ": 6782,
      "ijobaĠib": 6783,
      "kulaĠdaĠ": 6784,
      "áĬĵáĭŃáīµáĭµ": 6785,
      "\"M": 6786,
      "Ro": 6787,
      "ialĠ": 6788,
      "lom": 6789,
      "val": 6790,
      "alth": 6791,
      "áĪŃáĮİ": 6792,
      "ÃłÃ¬sÃłnĠ": 6793,
      "Ġáĭ¨áĭĵáĪĪáĪĿ": 6794,
      "áĪĪáĮł": 6795,
      "ĠáĬ¥áĪĿ": 6796,
      "ĠáĬ¥áĪĿáĬĲáīµ": 6797,
      "chiĠzaĠ": 6798,
      "leĠm": 6799,
      "ugust": 6800,
      "iĠkwaĠm": 6801,
      "andik": 6802,
      "áĬķĠáīłáī°": 6803,
      "ĠáĭµáĪį": 6804,
      "áĭļáĪħáĪĿ": 6805,
      "1950": 6806,
      "road": 6807,
      "ayyuk": 6808,
      "lá»įÌģdÃºnĠ": 6809,
      "crip": 6810,
      "agharibiĠ": 6811,
      "Ġáī¥áĪŃáĪĥ": 6812,
      "Ġáĭ¨áĭįáĮŃ": 6813,
      ")ĠáĬ¥áĬĵ": 6814,
      "Ha": 6815,
      "rÃ³": 6816,
      "yaraĠ": 6817,
      "áĬ¡": 6818,
      "ini.": 6819,
      ".ĠJ": 6820,
      "áĪĭáĮĬ": 6821,
      "á»įÌģn": 6822,
      "ĠáįĮ": 6823,
      "ĠáĭĪáī³áĭ°": 6824,
      "áĬ¨áĪĭ": 6825,
      "2015,Ġ": 6826,
      "ĠáĭįáĪĥ": 6827,
      "áĪ±áĪĿ": 6828,
      "Ġbáº¹ÌĢ": 6829,
      "conom": 6830,
      "1975": 6831,
      "áĪ²áī²": 6832,
      "daĠsuk": 6833,
      "ĠáĬ¥áĬķáĭ²áĭ«": 6834,
      "ĠUch": 6835,
      "áĮŃáĪŃ": 6836,
      "áįĸáĪĪáī²áĬ«": 6837,
      "shigaĠ": 6838,
      "ĠFebruaryĠ": 6839,
      "agbÃ¨gbÃ¨Ġ": 6840,
      "babbarĠ": 6841,
      "emocratic": 6842,
      "imÃ¡ĠÃłgbÃ©lÃ©wÃ²": 6843,
      "ristoĠwengi,ĠwakifuataĠmapokeoĠyaĠRoma,ĠhuadhimishaĠ": 6844,
      "Kor": 6845,
      "ra'": 6846,
      "as.": 6847,
      "olf": 6848,
      "áĪ«áĪ³áī¸áĭį": 6849,
      "ĠBab": 6850,
      "eder": 6851,
      "ĠáĪ²áĪĨáĬĳ": 6852,
      "ĠmÃº": 6853,
      "áĬķĠáĬłáĭŃ": 6854,
      "ĠAlit": 6855,
      "uhimm": 6856,
      "nchiĠzaĠ": 6857,
      "áĬŀáī¹": 6858,
      "ĠJuniĠ-": 6859,
      "ĠáĪĽáĪŃáĭ«áĪĿ": 6860,
      "Wab": 6861,
      "ĠáīĤ": 6862,
      "áĮįáĬĺ": 6863,
      "empl": 6864,
      "afiĠk": 6865,
      "ĠáĪĿáĭķáĪ«áī¥": 6866,
      "igab": 6867,
      "ĠáĪµáī¥áĪµ": 6868,
      "edik": 6869,
      "leyĠ": 6870,
      "expl": 6871,
      "1959": 6872,
      "ĠnÃŃgbÃł": 6873,
      "Fabrair": 6874,
      "gomaĠ": 6875,
      "arsaĠ": 6876,
      "anch": 6877,
      "amoĠ": 6878,
      "Ã¬á¹£Ã¨": 6879,
      "áĪĺáĬĵ": 6880,
      "uni": 6881,
      "adi": 6882,
      "iĠkanĠ": 6883,
      "ivil": 6884,
      "huÉĹ": 6885,
      "áīµĠáĬłáĭŃ": 6886,
      "ĠáĪ¥áįįáĪ«": 6887,
      "ĠáĮįáĬķáĬĻ": 6888,
      "ityĠof": 6889,
      "walip": 6890,
      "Ã¬wá»įÌĢ": 6891,
      "isiwaĠchaĠ": 6892,
      "jáº¹sÃ¡raĠ": 6893,
      "fait": 6894,
      "mÃ¹Ġ": 6895,
      "ren": 6896,
      "inaĠm": 6897,
      "ĠáĬłáĭ²áĪµĠáĬłáīłáī£": 6898,
      "áī°áĬķ": 6899,
      "ĠáĮĦ": 6900,
      "taĠm": 6901,
      "áī£áī³": 6902,
      "ĠáĭŃáĪĭáĪįáį¢": 6903,
      "ĠSp": 6904,
      "leĠdeĠ": 6905,
      "iyaĠnaĠ": 6906,
      "ĠWorldĠ": 6907,
      "ĠáĪ²áīĢ": 6908,
      "Ãłwá»įnĠÃ²": 6909,
      "stant": 6910,
      "ÅĦĠá¹£eĠ": 6911,
      "term": 6912,
      "ĠbÃ¡": 6913,
      "1985": 6914,
      "Ã¨dÃ¨Ġ": 6915,
      ".ĠManazarta": 6916,
      "aryĠSchool": 6917,
      "Ã¬wÃ©": 6918,
      "ociet": 6919,
      "fimĠdinĠ": 6920,
      "áº¹Ìģká»įÌĢá»įÌģ": 6921,
      "gÃ©nÃ©r": 6922,
      "55": 6923,
      "NA": 6924,
      "cetteĠ": 6925,
      "hivy": 6926,
      "jÃ©Ġ": 6927,
      "le,Ġ": 6928,
      "rÃłnĠ": 6929,
      "tenĠ": 6930,
      "Ġáīª": 6931,
      "sĠinĠ": 6932,
      "Ġáīłáĭļáĭ«": 6933,
      "ĠAustr": 6934,
      "áĭµáĪ®": 6935,
      "awa": 6936,
      "áĬ«áĪŃ": 6937,
      "ĠNi": 6938,
      "odiĠ": 6939,
      "owÃ³Ġ": 6940,
      "áĪİáī¹": 6941,
      "ĠáĪįáĮģ": 6942,
      "ĠEm": 6943,
      "Shir": 6944,
      "Ġ|Ġ": 6945,
      "ministr": 6946,
      "Black": 6947,
      "4,": 6948,
      "87": 6949,
      "beg": 6950,
      "kush": 6951,
      "áĪĪáīĥ": 6952,
      "a,ĠdaĠ": 6953,
      "isĠtheĠ": 6954,
      "ĠIm": 6955,
      "ĠWh": 6956,
      "Ġáĭĺáįĭ": 6957,
      "daĠsaur": 6958,
      "ĠáīłáĬĭáĪĭĠáĬ¥áĪµáĬ¨": 6959,
      "anĠsiyas": 6960,
      "ĠáĭĪáĭŃáĬķáĪĿ": 6961,
      "ollywoodĠ": 6962,
      "OlÃ³": 6963,
      "já»įÌĢ": 6964,
      "yÃłn": 6965,
      "áīłáīħ": 6966,
      "ibnĠ": 6967,
      "ĠáĬ¥áĬķáĭ´": 6968,
      "áĬ¨áĪ¨áĪĿ": 6969,
      "Ġáĭ¨áĬłáĭ¨áĪŃ": 6970,
      "áīĥáĪ´": 6971,
      "tsohu": 6972,
      "ĠlÃ¡ti": 6973,
      "Ġáī°áĪ«áĪ«": 6974,
      "ĠáĮĮáī³": 6975,
      "ĠáĪĺáĮ¨áĪ¨áĪ»ĠáĭµáĪ¨áĪµ": 6976,
      "franÃ§ais": 6977,
      "Ny": 6978,
      "Sir": 6979,
      "Yor": 6980,
      "Yes": 6981,
      "kaw": 6982,
      "tanĠ": 6983,
      "táº¹ÌĢ": 6984,
      "tá»įÌģ": 6985,
      "ĠáīĦ": 6986,
      "áĬķĠáĭĪáĭ°": 6987,
      "Ġáĭ¨áĮ¥": 6988,
      "áĪĪáĭŃ": 6989,
      "unic": 6990,
      "emok": 6991,
      "utamad": 6992,
      "owev": 6993,
      "auc": 6994,
      "ĠáĮĪáīł": 6995,
      "waoĠ": 6996,
      "AbubakarĠ": 6997,
      ":Ġ/": 6998,
      "....": 6999,
      "entral": 7000,
      "Ahmad": 7001,
      "áīħáĪµáīĥáĪ´": 7002,
      "Pal": 7003,
      "Rep": 7004,
      "crÃ©": 7005,
      "jej": 7006,
      "pre": 7007,
      "aĠnĠ": 7008,
      "ine.": 7009,
      "asaliĠ": 7010,
      "áĭ«áĬķĠáĬł": 7011,
      "agg": 7012,
      "ĠKK": 7013,
      "ĠbyĠ": 7014,
      "áīĭáĬķáīĭ": 7015,
      "áĬ®áīµ": 7016,
      "ĠáĬķáĮīáĪłĠáĬĲáĮĪáĪ¥": 7017,
      "Ã©eĠparĠ": 7018,
      "ĠáīłáĪĽáĪĪáīµ": 7019,
      "ĠNÃŃgbÃł": 7020,
      "yammacinĠ": 7021,
      "áĪµáįĵáĬķáĭ«": 7022,
      "Joseph": 7023,
      "DolaĠlaĠRom": 7024,
      "Bi": 7025,
      "Way": 7026,
      "banĠ": 7027,
      "áĮª": 7028,
      "ini": 7029,
      "áĪ¨áĪŃ": 7030,
      "áĪ¨áįĪ": 7031,
      "imataif": 7032,
      "202": 7033,
      "ajiĠm": 7034,
      "ipp": 7035,
      "ipindiĠ": 7036,
      "áĮħáĪĿ": 7037,
      "ĠRob": 7038,
      "bayarĠdaĠ": 7039,
      "imbab": 7040,
      "insaĠ": 7041,
      "ollow": 7042,
      "láº¹ÌģyÃ¬nĠ": 7043,
      "ĠáĮ½áĪķ": 7044,
      "kubwaĠyaĠ": 7045,
      "falmeĠm": 7046,
      "ikukuu": 7047,
      "aĠkungiyarĠ": 7048,
      "(S": 7049,
      "KwalejinĠ": 7050,
      "Lat": 7051,
      "jÃŃ": 7052,
      "les": 7053,
      "now": 7054,
      "ari,Ġ": 7055,
      "anal": 7056,
      "Ġáīłáĭĵ": 7057,
      "áĪĿáįĴ": 7058,
      "ĠáĬłáī£áīµ": 7059,
      "chaĠm": 7060,
      "olanz": 7061,
      "ici": 7062,
      "áīĢáĮ¥": 7063,
      "thĠcentur": 7064,
      "ĠHar": 7065,
      "ĠáĬ¥áĬķáĭ°Ġáī°": 7066,
      "dÃ©c": 7067,
      "round": 7068,
      "ĠáĬĲáĮĪáĪł": 7069,
      "ilimaĠyaĠ": 7070,
      "ĠofĠ": 7071,
      "haka,Ġ": 7072,
      "pÃłÃ¡Ġ": 7073,
      "baadayeĠ": 7074,
      "oorunĠ": 7075,
      "nÃŃgbÃłĠtÃŃĠ": 7076,
      "ĠáĭŃáīĢáĪ«áĪīáį¢": 7077,
      "def": 7078,
      "ty": 7079,
      "ycl": 7080,
      "erinĠ": 7081,
      "áĭ«áĪľ": 7082,
      "el,Ġ": 7083,
      "ĠáĪĺáī¥": 7084,
      "ĠMa": 7085,
      "yĠandĠ": 7086,
      "andĠt": 7087,
      "áĬ¥áĮįáĭļáĬłáī¥áĪĶáĪŃ": 7088,
      "áĬķáĮįáĪį": 7089,
      "áĪİáĪµ": 7090,
      "ĠáĮĪáĮ½": 7091,
      "inĠmall": 7092,
      "KiingerezaĠ": 7093,
      "Burtan": 7094,
      "gbajÃºmá»įÌĢ": 7095,
      "Ġtáº¹Ìģláº¹ÌĢ": 7096,
      "6Ġ-": 7097,
      "Ber": 7098,
      "Des": 7099,
      "LeĠ": 7100,
      "Lim": 7101,
      "nis": 7102,
      "anay": 7103,
      "ĠáĬĽ": 7104,
      "áĬķáĮĢ": 7105,
      "oĠjeĠ": 7106,
      "Ãłk": 7107,
      "akh": 7108,
      "naĠM": 7109,
      "itanĠ": 7110,
      "aĠkarkashinĠ": 7111,
      "Ġáĭ¨áĪģ": 7112,
      "Ġá»įÌģ": 7113,
      "ing.": 7114,
      "ote.": 7115,
      "ĠBay": 7116,
      "ĠáĬĲáĭįáį¢ĠáĬ¨": 7117,
      "ĠPl": 7118,
      "ĠáīłáĪĺáĮ¨áĪ¨áĪ»": 7119,
      "ĠáĮĭáĪ«": 7120,
      "d'unĠ": 7121,
      "lughaĠzaĠ": 7122,
      "daĠtakeĠ": 7123,
      "gbajÃºmá»įÌĢĠ": 7124,
      "ĠáĭµáĪŃáĮħáīµ": 7125,
      "ĠáĭĵáĪĺáī±ĠáĪĺáĮ¨áĪ¨áĪ»ĠáĭµáĪ¨áĪµ": 7126,
      "32": 7127,
      "300": 7128,
      "Go": 7129,
      "Se": 7130,
      "TanbihiĠ": 7131,
      "kit": 7132,
      "nouv": 7133,
      "runĠ": 7134,
      "s)Ġ": 7135,
      "ãĤ": 7136,
      "Ġáĭ¨áīĨ": 7137,
      "amu": 7138,
      "akabil": 7139,
      "ĠáīłáĪ¨": 7140,
      "ilich": 7141,
      "a,ĠkumaĠ": 7142,
      "ĠáįĴ": 7143,
      "áīħáĭ±áĪµ": 7144,
      "ĠáĪµáĪŀáī½": 7145,
      "Ġáī¥áĭĽáīµ": 7146,
      "wá»įÌģĠ": 7147,
      "uhimuĠ": 7148,
      "uchum": 7149,
      "rikic": 7150,
      "awaidaĠ": 7151,
      "ipinleĠ": 7152,
      "áī¨áĪŃáĪ²áī²": 7153,
      "ijobaĠibileĠniĠ": 7154,
      "jejen": 7155,
      "c.": 7156,
      "ji": 7157,
      "tash": 7158,
      "Ðµ": 7159,
      "an'": 7160,
      "itaĠm": 7161,
      "esĠandĠ": 7162,
      "deĠm": 7163,
      "ráº¹ÌĢ,Ġ": 7164,
      "ĠáīłáĬ®": 7165,
      "samoĠ": 7166,
      "áĬķáĮĮ": 7167,
      "ĠáīłáĬĭáĪĭĠáīł": 7168,
      "aĠmatsayinĠmaiĠ": 7169,
      "zamaĠm": 7170,
      "ĠáīµáĬķáĪ½": 7171,
      "ĠáĬłáįĪĠáī³áĪªáĬŃ": 7172,
      "Ġá»įÌĢpá»įÌĢlá»įpá»įÌĢĠ": 7173,
      "ijobaĠibileĠniĠIpinleĠ": 7174,
      "(yaĠ": 7175,
      "/w": 7176,
      "Reg": 7177,
      "bid": 7178,
      "bikinĠ": 7179,
      "bisaĠgaĠ": 7180,
      "mÃ©jÃ¬": 7181,
      "uy": 7182,
      "is.": 7183,
      "uraĠ": 7184,
      "ĠáĪĺáīħ": 7185,
      "niĠsikuĠyaĠ": 7186,
      "ull": 7187,
      "alifor": 7188,
      "áīĢáīł": 7189,
      "áĬ«áĬ¨áĪĪ": 7190,
      "2018,Ġ": 7191,
      "ipÃ²": 7192,
      "ĠáĪ°áĬĲ": 7193,
      "waĠmwakaĠ": 7194,
      "Ġáī£áĪķáĪŃ": 7195,
      "ezek": 7196,
      "áĪµáī°áĪŃ": 7197,
      "áĪ²áĭ«": 7198,
      "ĠáĪĬáĭ«": 7199,
      "áĮ»áįĪ": 7200,
      "namoĠ": 7201,
      "ĠáĪĿáĬķáĮĬáĭľ": 7202,
      "ÃłdÃº": 7203,
      "ĠNovemberĠ": 7204,
      "ĠApriliĠ-": 7205,
      "ikubwaĠ": 7206,
      "MusulunciĠ": 7207,
      "ĠáĪĺáĮ»áĪķ": 7208,
      ");": 7209,
      "Nair": 7210,
      "e).": 7211,
      "haliĠ": 7212,
      "ĠenĠ": 7213,
      "ĠáĬłáįįáĪªáĬ«": 7214,
      "abinc": 7215,
      "Ãºpá»įÌĢ": 7216,
      "ĠáĬ¨áĪĽ": 7217,
      "áĮ¥áĪĿ": 7218,
      "aprÃ¨sĠ": 7219,
      "áĬ«áĬ¤áĪį": 7220,
      "2017,Ġ": 7221,
      "ĠId": 7222,
      "ĠLakiniĠ": 7223,
      "ihÃłnĠ": 7224,
      "áīĥáĭįáĬķ": 7225,
      "ĠJos": 7226,
      "ovi": 7227,
      "Ġáĭ¨áĬ¡": 7228,
      "uĠyaĠm": 7229,
      "wurinĠ": 7230,
      "ÉĹayaĠdagaĠcikinĠ": 7231,
      "KatsinaĠ": 7232,
      "ĠáĭĺáĪĺáĬķĠáĬłáīĨáĮ£áĮłáĪŃ": 7233,
      "shirye-shiry": 7234,
      "ĠáĭķáĪĪáī°ĠáĪŀáīµ": 7235,
      "ristoĠwengi,ĠwakifuataĠmapokeoĠyaĠRoma,ĠhuadhimishaĠkumbukumbuĠzaĠwatakatifuĠ": 7236,
      "88": 7237,
      "Comp": 7238,
      "bahar": 7239,
      "betweenĠ": 7240,
      "son": 7241,
      "taw": 7242,
      "ariĠyaĠ": 7243,
      "ĠáĬłáĪīáį¢": 7244,
      "shim": 7245,
      "ĠáĪĪáĪļ": 7246,
      "que,Ġ": 7247,
      "ĠJiharĠ": 7248,
      "ansu.": 7249,
      "ĠáĬŃáĪĪáī¥": 7250,
      "taif": 7251,
      "ion.": 7252,
      "ĠyaĠmwakaĠ": 7253,
      "uff": 7254,
      "zamanĠk": 7255,
      "ĠáīĨáĭŃ": 7256,
      "Ġáº¹gbáº¹Ìģ": 7257,
      "ÙİÙ": 7258,
      "Fasah": 7259,
      "ĠAkwaiĠ": 7260,
      "ĠJamesĠ": 7261,
      "lÃ¡raĠÃłwá»įnĠ": 7262,
      "SBNĠ9": 7263,
      "ikiped": 7264,
      "77": 7265,
      "AM": 7266,
      "Apr": 7267,
      "Hind": 7268,
      "hy": 7269,
      "kwaĠm": 7270,
      "alorsĠ": 7271,
      "iki,Ġ": 7272,
      "onimoĠ": 7273,
      "áĭµáĬĵ": 7274,
      "ahiĠ": 7275,
      "á»įÌĢĠsÃŃĠ": 7276,
      "ouisĠ": 7277,
      "efuĠ": 7278,
      "ufuĠ": 7279,
      "ĠjÃ¡": 7280,
      "áīĤáĭ«": 7281,
      "duni": 7282,
      "hakanĠ": 7283,
      "Nijeriya.Ġ": 7284,
      "AfirkaĠ": 7285,
      "áĪĿáĪħáĪŃáīµ": 7286,
      "British": 7287,
      "peutĠ": 7288,
      "CibiyarĠ": 7289,
      "De": 7290,
      "Yun": 7291,
      "call": 7292,
      "gn": 7293,
      "o'": 7294,
      "sc": 7295,
      "wid": 7296,
      "ya.": 7297,
      "zim": 7298,
      "Å«": 7299,
      "ara.": 7300,
      "áĬķáīħ": 7301,
      "áīµáĪĿ": 7302,
      "orukoĠ": 7303,
      "onal": 7304,
      "shaf": 7305,
      "ellaĠ": 7306,
      "áĪĭáĪĭ": 7307,
      "obinĠ": 7308,
      "ambr": 7309,
      "ambul": 7310,
      "ĠáīłáĬ¤": 7311,
      "Ġ29": 7312,
      "shekaraĠtaĠalif": 7313,
      "taronĠ": 7314,
      "Ġáī¢áĭ«": 7315,
      "Ãłráº¹": 7316,
      "ilimiaĠ": 7317,
      "Ġá»ĮÌĢy": 7318,
      "ĠáĬ¨áĭļáĪħĠáĭķáĪĪáīµ": 7319,
      "olÃ¹darÃŃĠ": 7320,
      "ĠáīµáĪĿáĪħáĪŃ": 7321,
      ":ĠA": 7322,
      "Lugh": 7323,
      "owan": 7324,
      "yay": 7325,
      "Ġáĭ¨áĪĭ": 7326,
      "ilsĠ": 7327,
      "ĠáĬłáĪģáĬķ": 7328,
      "áĪĪáīĢ": 7329,
      "áĪĽáĪį": 7330,
      "ĠáĬĲáĮ¥": 7331,
      "ĠáĬ¨áĪ°": 7332,
      "áĭĪáĭŃáĪĿ": 7333,
      "áĬ«áĪĿ": 7334,
      "ĠáĪµáĪľ": 7335,
      "trad": 7336,
      "ashir": 7337,
      "Ġmill": 7338,
      "áĭ²áĭ®": 7339,
      "samanĠ": 7340,
      "ĠáĮĪáī¥áĪ¨": 7341,
      "áĪ²áĬķ": 7342,
      "aureĠ": 7343,
      "Olymp": 7344,
      "ĠáĬłáĮĪáĪ®áī½": 7345,
      "má»įÌĢĠsÃŃĠ": 7346,
      "auniyarĠ": 7347,
      "LondonĠ": 7348,
      "ĠMeiĠ-": 7349,
      "BahariĠyaĠ": 7350,
      "Ver": 7351,
      "dat": 7352,
      "hanaĠ": 7353,
      "hajiĠ": 7354,
      "ooĠ": 7355,
      "pap": 7356,
      "wuĠ": 7357,
      "wÃ³": 7358,
      "aĠwasanĠ": 7359,
      "amiaĠ": 7360,
      "arĠg": 7361,
      "taĠzamaĠ": 7362,
      "ictĠ": 7363,
      "Ġáī°áĮ½": 7364,
      "ĠThisĠ": 7365,
      "ijeĠ": 7366,
      "oĠyaĠm": 7367,
      "waÆĻ": 7368,
      "Ġáĭķáĭµ": 7369,
      "egeĠbiĠ": 7370,
      "ĠáĬ¨áĭļáĪħĠáĭķáĪĪáīµĠáīłáĬĭáĪĭĠáĬ¥áĪµáĬ¨": 7371,
      "59": 7372,
      "aineĠ": 7373,
      "mafiĠ": 7374,
      "som": 7375,
      "yÃ©": 7376,
      "anoĠwaĠ": 7377,
      "yaĠyiĠ": 7378,
      "ĠáīłáĪĻáĪī": 7379,
      "enaĠ": 7380,
      "arĠ(": 7381,
      "áĪĺáĮ¥": 7382,
      "gbáº¹ÌĢ": 7383,
      "emistr": 7384,
      "Ã©ĠdeĠ": 7385,
      "áĬ¨áī³": 7386,
      "ĠTang": 7387,
      "ĠBÃŃĠ": 7388,
      "Ġáĭ¨áĪļáĪ°": 7389,
      "1974": 7390,
      "1968": 7391,
      "takenĠ": 7392,
      "arÃ¡ĠNÃłÃ¬jÃŃrÃŃÃł": 7393,
      "askaziniĠ": 7394,
      "Ġáĭ¨áĪļáĮĪáĬĿáīłáīµ": 7395,
      "ĠáĭŃáĪĨáĬĵáĪįáį¢": 7396,
      "knownĠ": 7397,
      "ĠyaĠmwakaĠ(yaĠ": 7398,
      "ĠáĬ¨áĭļáĪħĠáĭķáĪĪáīµĠáīłáĬĭáĪĭĠáĬ¥áĪµáĬ¨ĠáĭĵáĪĺáī±ĠáĪĺáĮ¨áĪ¨áĪ»ĠáĭµáĪ¨áĪµ": 7399,
      "Kih": 7400,
      "Sok": 7401,
      "Te": 7402,
      "mostĠ": 7403,
      "rÃ¹": 7404,
      "ugb": 7405,
      "antiĠ": 7406,
      "akub": 7407,
      "taĠfaraĠ": 7408,
      "ulikuwaĠ": 7409,
      "ingĠs": 7410,
      "uka": 7411,
      "âĢ¹": 7412,
      "ĠáĭĪáĮ¥": 7413,
      "áĬ«áĪĦ": 7414,
      "trav": 7415,
      "áĭĭáĬĵ": 7416,
      "iĠkatiĠyaĠ": 7417,
      "Ġáĭ¨áĬłáĭįáĪ®áįĵ": 7418,
      "ĠáĪ²áĪį": 7419,
      "wataĠ": 7420,
      "ĠJoh": 7421,
      "ĠáīĢáĭŃ": 7422,
      "imboĠ": 7423,
      "1930": 7424,
      "áĭŀáī½": 7425,
      "adhiĠyaĠ": 7426,
      "jihoh": 7427,
      "talab": 7428,
      "Ġáįªáį»áį": 7429,
      "ĠUnivers": 7430,
      "abubuwanĠ": 7431,
      "OgunĠ": 7432,
      "http://": 7433,
      "kejÃ¬": 7434,
      "pá»įĠ": 7435,
      "sy": 7436,
      "kuw": 7437,
      "áĭ«áĭĺ": 7438,
      "áĪªáīĥ": 7439,
      "áĪªáĬ®áī½": 7440,
      "áĬ¨áĪ°": 7441,
      "ĠkÃ²": 7442,
      "ĠBl": 7443,
      "áī¸áĭĭáĪįáį¢": 7444,
      "auch": 7445,
      "Ġáº¹ÌĢyáº¹": 7446,
      "lá»įÌģgbá»įÌĢnĠ": 7447,
      "istoriaĠ": 7448,
      "Ġáī°áĪĺáĪ³áĪ³áĭŃ": 7449,
      "njiaĠ": 7450,
      "ĠSeptembaĠ": 7451,
      "orld": 7452,
      "ĠDesembaĠ": 7453,
      "nau'": 7454,
      "Hous": 7455,
      "OL": 7456,
      "Sept": 7457,
      "diniĠ": 7458,
      "iaĠkatikaĠ": 7459,
      "wÃ³Ġ": 7460,
      "ÃłrÃŃ": 7461,
      "Ġáĭ¨áī¥": 7462,
      "áĪĿáī¥": 7463,
      "illaĠ": 7464,
      "ĠáĬłáĪ³": 7465,
      "ĠáĮ¤": 7466,
      "unz": 7467,
      "1920": 7468,
      "chaĠk": 7469,
      ".ĠF": 7470,
      "áĬĲáī±áĬķ": 7471,
      "áĪĽáĪ½": 7472,
      "a,ĠnaĠ": 7473,
      "utuĠ": 7474,
      "aliaĠ": 7475,
      "Ġáī°áĬŃáĪį": 7476,
      "actor": 7477,
      "prob": 7478,
      "oginĠ": 7479,
      "Ġáī¥áĪĶáĪŃ": 7480,
      "ĠtÃŃĠÃ³Ġt": 7481,
      "areĠnaĠ": 7482,
      "ĠáĮĪáĭ¥": 7483,
      "ĠáĬ¥áĪµáĬ«": 7484,
      "1957": 7485,
      "nÃ¡Ãł,Ġ": 7486,
      "áĬĵĠáĪĺáĭĭ": 7487,
      "VID": 7488,
      "John": 7489,
      "Brazil": 7490,
      "ĠkatikaĠmiakaĠmirefu).ĠMpakaĠuisheĠzinabakiĠsikuĠ": 7491,
      "Er": 7492,
      "Waf": 7493,
      "pil": 7494,
      "vij": 7495,
      "year": 7496,
      "Ãł-": 7497,
      "ĠáīłáįĬ": 7498,
      "ĠáīłáĭĺáĪĺáĬĲĠáĭ®áĪĲáĬķáĪµ": 7499,
      "ĠáĬłáĪħ": 7500,
      "shahar": 7501,
      "áĭ°áĮĪ": 7502,
      "áĭµáĪ¨": 7503,
      "áī¸áĭī": 7504,
      "thisĠ": 7505,
      "ĠdÃ©": 7506,
      "induz": 7507,
      "epoĠ": 7508,
      "MarisĠ": 7509,
      "nÃŃtorÃŃĠ": 7510,
      "ationalĠ": 7511,
      "aĠkuanziaĠ": 7512,
      "ĠthisĠ": 7513,
      ",000.": 7514,
      "zauneĠ": 7515,
      "ĠáĭŃáĪĺáĪµáĪĭáĪįáį¢": 7516,
      ",Ġá»įdÃºnĠ": 7517,
      "-c": 7518,
      "Bon": 7519,
      "fÃ©r": 7520,
      "ie,Ġ": 7521,
      "má»įĠ": 7522,
      "sÃłnĠ": 7523,
      "daĠnaĠ": 7524,
      "ĠáīłáĪĮáĪĭ": 7525,
      "ĠáĬ¥áĬ©áĪį": 7526,
      "áī£áĪħ": 7527,
      "ingtonĠ": 7528,
      "ahud": 7529,
      "erĠandĠ": 7530,
      "quiĠs": 7531,
      "eteĠ": 7532,
      "MarejeoĠ": 7533,
      "Alg": 7534,
      "ĠâĢ¹": 7535,
      "áĬķĠáĬłáĪµ": 7536,
      "kanĠnÃ¡ÃłĠ": 7537,
      "1958": 7538,
      "fÃºnĠÃłwá»įnĠ": 7539,
      "Intern": 7540,
      "ilÃ©Ġáº¹ÌĢká»įÌģ": 7541,
      "---": 7542,
      "IĠ": 7543,
      "Pop": 7544,
      "mÃ©": 7545,
      "sa": 7546,
      "Ġáī²": 7547,
      ",ĠtÃŃĠ": 7548,
      "ata,Ġ": 7549,
      "erĠt": 7550,
      "Ġáīłáĭį": 7551,
      "áĪĿáī£": 7552,
      "áĪĿĠáĪĪ": 7553,
      "áĪĪáĭĭáĪįáį¢": 7554,
      "áĪ³áĪįáį¢": 7555,
      "afterĠ": 7556,
      "áĭ³áĭµ": 7557,
      "ĠsÃŃláº¹ÌĢ": 7558,
      "Ġáĭ«áĪ³": 7559,
      "auyaĠ": 7560,
      "áĬĴáĪįáĬŃ": 7561,
      "ĠáĭĺáĪĺáĬķĠáīł": 7562,
      "áįĬáĭ«": 7563,
      "ĠáĬ«áĪŃ": 7564,
      "ichardĠ": 7565,
      "aientĠ": 7566,
      "bÃŃbÃŃĠ": 7567,
      "abbanĠbirninĠ": 7568,
      "alsaf": 7569,
      "asayansiĠwaĠ": 7570,
      "Com": 7571,
      "dinĠ": 7572,
      "daid": 7573,
      "jaĠ": 7574,
      "táº¹Ìģ": 7575,
      "uiĠ": 7576,
      "atum": 7577,
      "daĠM": 7578,
      "áĪ¨áįį": 7579,
      "olud": 7580,
      "Ã©ĠenĠ": 7581,
      "appl": 7582,
      "ĠáĪįáĪĽ": 7583,
      "Ġpour": 7584,
      "uwa,Ġ": 7585,
      "Â»,Ġ": 7586,
      "ĠáĪĨáĬĳ": 7587,
      "jami": 7588,
      "ĠáĪĬáīĢ": 7589,
      "áĪ¸áĬķ": 7590,
      "ilimiĠ": 7591,
      "Ġáĭ¨áĬ¥áĬķáĮįáĪĬáĭĿ": 7592,
      "fromĠ": 7593,
      "ĠáĮ£áĪį": 7594,
      "67": 7595,
      "Greg": 7596,
      "rest": 7597,
      "sens": 7598,
      "atiĠm": 7599,
      "ÃłsÃ¬": 7600,
      "áĭ°áį¢": 7601,
      "iaĠniĠ": 7602,
      "ĠáĬ¥áĬķáīħáĪµáīĥáĪ´": 7603,
      "Ġlangu": 7604,
      "ĠáĪĽáĬħ": 7605,
      "ĠOá¹£Ã¹ĠK": 7606,
      "amba": 7607,
      "ambakoĠ": 7608,
      "ÃĢÃłráº¹Ġ": 7609,
      "overĠ": 7610,
      "shekarunĠ": 7611,
      "ĠpÃ©Ġ": 7612,
      "taur": 7613,
      "ional": 7614,
      "waĠnaĠPapaĠ": 7615,
      "shigaĠcikinĠ": 7616,
      "Ã¬bÃ²": 7617,
      "iakaĠyaĠ": 7618,
      "Ã´t": 7619,
      "ambayoĠniĠ": 7620,
      "Gar": 7621,
      "Kong": 7622,
      "buk": 7623,
      "coll": 7624,
      "dunĠ": 7625,
      "re,Ġ": 7626,
      "Ø©": 7627,
      "aĠF": 7628,
      "áįı": 7629,
      ",Ġwá»įÌģnĠ": 7630,
      "áĪįáĪĽ": 7631,
      "onyĠ": 7632,
      "1918": 7633,
      "áĬŃáĪŃáĪµáī¶áĪµ": 7634,
      "Ġá»įlá»įÌģ": 7635,
      "áĭ³áĪª": 7636,
      "ojoĠ": 7637,
      "nÃŃĠorÃŃláº¹ÌĢ-Ã¨dÃ¨": 7638,
      "ambapoĠ": 7639,
      "ĠáĪ°áĪŃ": 7640,
      "ĠHak": 7641,
      "ĠPopeĠ": 7642,
      "izariĠwaĠ": 7643,
      "Ġwh": 7644,
      "dÃ©part": 7645,
      "walit": 7646,
      "Kiingerez": 7647,
      "ĠáĬłáĮĪáĪ«áīµ": 7648,
      "ÃªtreĠ": 7649,
      "ItaliaĠ": 7650,
      "ĠOrodhaĠyaĠ": 7651,
      "ĠáĪĺáĪ°áĪ¨áīµ": 7652,
      "kasuwanciĠ": 7653,
      "Ã³pÃ¹": 7654,
      "lambarĠyaboĠtaĠ": 7655,
      "85": 7656,
      "::": 7657,
      "AF": 7658,
      "Dok": 7659,
      "barĠ": 7660,
      "dubuĠ": 7661,
      "gam": 7662,
      "rag": 7663,
      "tÃº": 7664,
      "Ø³": 7665,
      "áĭ·": 7666,
      "ĠáĬ¨áĪĨáĬĲ": 7667,
      "idd": 7668,
      "trouv": 7669,
      "áĭ²áĪ±": 7670,
      "ambal": 7671,
      "oweĠ": 7672,
      "ts,Ġ": 7673,
      "waĠkar": 7674,
      "áį¤Ġáĭ¨": 7675,
      "1982": 7676,
      "1964": 7677,
      "seed": 7678,
      "ĠÃĮbÃłd": 7679,
      "Ġáī¤áī¶áī½": 7680,
      "ĠáīµáĪŃáĮīáĪĿ": 7681,
      "ĠÃĵĠjáº¹ÌģĠ": 7682,
      "Ġthat": 7683,
      "áįĸáĪĬ": 7684,
      "Ġáī°áĬ¨áī³áĭŃ": 7685,
      "ÃĢwá»įnĠá»įjá»įÌģÃ¬bÃŃĠnÃŃĠ": 7686,
      "Ġ|ĠRD2-": 7687,
      "Ġáĭ¶áĪ®": 7688,
      "Amerika.Ġ": 7689,
      "influ": 7690,
      "oluiluĠ": 7691,
      "shairiĠ": 7692,
      ")áį¢": 7693,
      "B.": 7694,
      "Nam": 7695,
      "lov": 7696,
      "raj": 7697,
      "tele.ĠItokasiĠÃĢwá»įnĠ": 7698,
      "anaĠkwaĠ": 7699,
      "asc": 7700,
      "ĠáĬłáĪģ": 7701,
      "áĭŃáīħ": 7702,
      "áĮĪáĪ®áī½": 7703,
      "ida": 7704,
      "apt": 7705,
      "ĠáĭĪáĮ£": 7706,
      "aiĠtaĠ": 7707,
      "áĭ³áĭĬ": 7708,
      "áĭĪáĮ¡": 7709,
      "2010,Ġ": 7710,
      "áī¸áĭįáĬķ": 7711,
      "and,Ġ": 7712,
      "andĠS": 7713,
      "ent,Ġ": 7714,
      "amboĠ": 7715,
      "ammentĠ": 7716,
      "1965": 7717,
      "ĠÃĮpÃŃnláº¹ÌĢ": 7718,
      "karatunĠ": 7719,
      "ĠtoĠtheĠ": 7720,
      "olÃ³rÃŃĠ": 7721,
      "duniaĠ": 7722,
      "perm": 7723,
      "ÃºrÃ³Ġ": 7724,
      "Naijiria.Ġ": 7725,
      "pÃ¨ĠnÃŃĠ": 7726,
      "-áº¹ÌĢyáº¹": 7727,
      "Kibant": 7728,
      "ĠÃģfrÃŃkÃł": 7729,
      "ĠáĪºáĪħ": 7730,
      "bincik": 7731,
      "ĠyaĠmutuĠaĠshekaraĠtaĠ": 7732,
      "AD": 7733,
      "Oj": 7734,
      "Pul": 7735,
      "Tim": 7736,
      "baraĠ": 7737,
      "cibiyarĠ": 7738,
      "dec": 7739,
      "uataĠ": 7740,
      "yawaĠ": 7741,
      "ÃłĠt": 7742,
      "akas": 7743,
      "ilarĠ": 7744,
      "áĪĺáĬĲ": 7745,
      "áĪĪáĪµ": 7746,
      "áº¹ÌģmÃŃ": 7747,
      "áĪ«áĪª": 7748,
      "áĬŃáĬķ": 7749,
      "repr": 7750,
      "áĮłáī¥": 7751,
      "ĠáĭĵáĭŃáĬĲáīµ": 7752,
      "Ġáĭ¨áī°áī£": 7753,
      "Ġáĭ°áī¥": 7754,
      "áĭ°áĪŃáĮį": 7755,
      "ráº¹ÌĢĠÅĦ": 7756,
      "ĠWakatiĠwaĠ": 7757,
      "ĠáĭĺáĪĺáĬĲĠáĪĽáī´áĭİáĪµ": 7758,
      "CE": 7759,
      "Had": 7760,
      "Juli": 7761,
      "ht": 7762,
      "haz": 7763,
      "jah": 7764,
      "Ġ,Ġ": 7765,
      "ĠáĬłáīħ": 7766,
      "áĭ«áĪĿ": 7767,
      "ĠáĬ¥áĪ«áĪ±": 7768,
      "oliĠ": 7769,
      "unĠk": 7770,
      "awaÆĻ": 7771,
      "Ġáĭ¨áĪļáĪ°áĪ«": 7772,
      "ungum": 7773,
      "áĭĺáĬķ": 7774,
      "oĠyaĠk": 7775,
      "1981": 7776,
      "haifeĠshiĠ": 7777,
      "ulkiĠ": 7778,
      "Ġáį²áį±áį»áį·áį": 7779,
      "ĠáĬ¥áĬķáĭ²áĪģáĪĿĠáīł": 7780,
      "Ã¨yÃŃĠtÃŃĠ": 7781,
      "UfaransaĠ": 7782,
      "ĠáĬłáīĢáįį": 7783,
      "áĮ¥áĪ¨ĠáĬĲáĮĪáĪ®áī½": 7784,
      "ootball": 7785,
      "áĬ®áĬĸáĪļ": 7786,
      "ĠáĮįáĬķáĬĻáĬĲáīµ": 7787,
      "89": 7788,
      "AlÃ¡": 7789,
      "s:": 7790,
      "áĮİáī½": 7791,
      "Ãłjáº¹sÃ¡raĠ": 7792,
      "áĪįáīµ": 7793,
      "kuanz": 7794,
      "áĬĵáĮĪáĪŃ": 7795,
      "aĠmar": 7796,
      "ĠSouth": 7797,
      "2011,Ġ": 7798,
      "anteĠ": 7799,
      "ĠáĬŃáĪŃ": 7800,
      "1971": 7801,
      "play": 7802,
      "oĠmwakaĠ": 7803,
      "áī¦áĪŃ": 7804,
      "Marekani.": 7805,
      "nÃŃnÃºĠÃłwá»įnĠ": 7806,
      "jama'aĠaĠ": 7807,
      "Ġ'YanĠ": 7808,
      "gwamnatiĠ": 7809,
      "Kasuwan": 7810,
      "2ĠâĢĵ": 7811,
      "Bel": 7812,
      "IleĠ": 7813,
      "Ka": 7814,
      "ObaĠ": 7815,
      "Royal": 7816,
      "diff": 7817,
      "fon": 7818,
      "aroĠ": 7819,
      "inrinĠ": 7820,
      "asiliĠyaĠ": 7821,
      "onneĠ": 7822,
      "shidaĠ": 7823,
      "ĠáĪĺáĬ®": 7824,
      "aĠkatiĠyaĠ": 7825,
      "ignĠ": 7826,
      "i,ĠM": 7827,
      "i,Ġk": 7828,
      "ĠLe": 7829,
      "ĠWas": 7830,
      "huuĠ": 7831,
      "áĭ±áį¢": 7832,
      "ĠáĪĺáĬķáĮįáĪ¥áī³áīµ": 7833,
      "ĠáĮĢáĪĺáĪ¨": 7834,
      "Ġáĭ¨áĬĲáīłáĪ©": 7835,
      "jinsiĠ": 7836,
      "ĠáĭľáĬĵĠáĪĺáĭĭ": 7837,
      "Ġáĭ¨áĪħáĭĿáī¥": 7838,
      "UgandaĠ": 7839,
      "ĠáĬŃáįįáĪĭáĮĪáĪŃ": 7840,
      "'YanĠ": 7841,
      "54": 7842,
      "66": 7843,
      "Kur": 7844,
      "ara,Ġ": 7845,
      "kunanĠ": 7846,
      "abor": 7847,
      "adin": 7848,
      "ĠáĪĿáĪħ": 7849,
      "ĠÃī": 7850,
      "oper": 7851,
      "ansaĠ": 7852,
      "ĠáīłáĪĺáī£áĪį": 7853,
      "ationĠdeĠ": 7854,
      "d'uneĠ": 7855,
      "olÃ³gunĠ": 7856,
      "áĬ¨áī°áĪĪáĭį": 7857,
      "wadandaĠ": 7858,
      "ĠáĪĽáĪŃáīĨáĪµĠáĭ°áĮįáĪŀ": 7859,
      "Ġáĭ¨áĪĻáĭļáīĥ": 7860,
      "AfrikaĠKusin": 7861,
      "Ġáĭ©áĬĴáī¨áĪŃáĪ²áī²": 7862,
      "atikaĠkarneĠyaĠ": 7863,
      "tsohuwarĠ": 7864,
      "DarĠesĠSalaam": 7865,
      "Laf": 7866,
      "Oá¹£": 7867,
      "dÃ³Ġ": 7868,
      "hay": 7869,
      "hiliĠ": 7870,
      "mo": 7871,
      "oÆĻ": 7872,
      "áĬķáĪ°": 7873,
      "áĬķĠáĬ¥áĬķáĭ°": 7874,
      "áĪĿáīµ": 7875,
      "arĠdaĠk": 7876,
      "ayÃ©": 7877,
      "áī½áĪī": 7878,
      "omenĠ": 7879,
      "olic": 7880,
      "ĠáĪĺáĮĭ": 7881,
      "áĪ³áĭį": 7882,
      "Ġáī°áĮ«": 7883,
      "apÃ¡Ġ": 7884,
      "á»įÌĢkanĠ": 7885,
      "udan": 7886,
      "ĠHasaĠ": 7887,
      "annÃ©esĠ": 7888,
      "ammalaĠ": 7889,
      "Ġá»Įmá»į": 7890,
      "ĠAĠshekaraĠtaĠ": 7891,
      "ĠáĬ¢áĭ¨áĪ±áĪµ": 7892,
      "haliĠyaĠ": 7893,
      "Ġáī¥áĭĻĠáĮĬáĭľ": 7894,
      "earlyĠ": 7895,
      "ĠáĬłáĪµáī°áĭ³áĭ°áĮį": 7896,
      "Ġáĭ¨áĭĵáĪĺáī±": 7897,
      "suchĠasĠ": 7898,
      "Chi": 7899,
      "Kol": 7900,
      "Som": 7901,
      "Tel": 7902,
      "geĠ": 7903,
      "hap": 7904,
      "hataĠ": 7905,
      "ton,Ġ": 7906,
      "wag": 7907,
      "ĠdaĠkumaĠ": 7908,
      "ÃłrinĠ": 7909,
      "akanaĠnaĠ": 7910,
      "enseĠ": 7911,
      "ikh": 7912,
      "una,Ġ": 7913,
      "oluk": 7914,
      "áĭµáīħ": 7915,
      "emaĠ": 7916,
      "aĠmasuĠ": 7917,
      "uts": 7918,
      "ĠáĪĿáĭķáĪ«": 7919,
      "ÆĻwararr": 7920,
      "etsĠ": 7921,
      "ĠOlÃ³": 7922,
      "ĠDav": 7923,
      "leoĠ": 7924,
      "arri": 7925,
      "Isra": 7926,
      "KamusiĠ": 7927,
      "Kingdom": 7928,
      "EastĠ": 7929,
      "Rash": 7930,
      "hiĠ": 7931,
      "natur": 7932,
      "waĠnaĠm": 7933,
      "áīłáī³áĪįáį¢": 7934,
      "áĬĲáĬĽ": 7935,
      "esaĠ": 7936,
      "áī³áī½": 7937,
      "usulun": 7938,
      "Ġsin": 7939,
      "ubli": 7940,
      "Ġmá»įÌģĠ": 7941,
      "ĠComm": 7942,
      "wasem": 7943,
      "foreĠ": 7944,
      "ĠáĪĬáīĥáĭįáĬķ": 7945,
      "ologieĠ": 7946,
      "Ġáī°áĪĺáĪį": 7947,
      "whereĠ": 7948,
      "ĠáĪĺáĪįáĬ©": 7949,
      "COVID": 7950,
      "áĪªáī³áĬķáĭ«": 7951,
      "(N": 7952,
      "CN": 7953,
      "Sab": 7954,
      "nic": 7955,
      "rÃ¹nĠ": 7956,
      "ruku": 7957,
      "à¤": 7958,
      "atesĠ": 7959,
      "á»įrÃŃĠ": 7960,
      "Ġáĭ¨áĪĪáĭį": 7961,
      "illeĠ": 7962,
      "ĠáĬłáĪĭ": 7963,
      "uruĠ": 7964,
      "elaĠ": 7965,
      "Ġáī°áĭ°áĪŃ": 7966,
      "osoph": 7967,
      "áīħáĬĵ": 7968,
      "ĠBÃ¡": 7969,
      "Ġáĭ°áī¥áĪ¨": 7970,
      "hukun": 7971,
      "ĠáĭĭáĮĭ": 7972,
      "haifarĠdaĠ": 7973,
      "ĠAbdul": 7974,
      ")ĠjeĠosereĠ": 7975,
      "ĠWakristoĠwengi,ĠwakifuataĠmapokeoĠyaĠRoma,ĠhuadhimishaĠkumbukumbuĠzaĠwatakatifuĠ": 7976,
      "ominiraĠ": 7977,
      "sayensiĠ": 7978,
      "ulikanaĠ": 7979,
      "áįĲáī¥áĪĬáĬŃ": 7980,
      "FirstĠ": 7981,
      "ĠáĪ³áĭŃáĬķáĪ³áĭĬĠáĮ¸áī£áĭŃ": 7982,
      ",7": 7983,
      "</": 7984,
      "Victor": 7985,
      "bakwaiĠ": 7986,
      "cas": 7987,
      "duĠm": 7988,
      "hÃ¬nĠ": 7989,
      "sasaĠ": 7990,
      "vo": 7991,
      "asiĠyaĠ": 7992,
      "ĠáĬłáĮĭ": 7993,
      "ĠKi": 7994,
      "uwaĠdaĠ": 7995,
      "ĠLag": 7996,
      "ĠáĮįáĬķĠáĬł": 7997,
      "ĠOctoberĠ": 7998,
      "áī²áĬķ": 7999,
      "a'sĠ": 8000,
      "ĠáĮ¥áĪŃ": 8001,
      "1972": 8002,
      "áīĭáīĭ": 8003,
      "aĠfaraĠ": 8004,
      "yÃ¬ÃŃĠniĠ": 8005,
      "Ã¨rÃ²": 8006,
      "pÃłÃ¡": 8007,
      "whenĠ": 8008,
      "ĠTaĠkumaĠ": 8009,
      "áĬķáĮīáĪ¥": 8010,
      "jimill": 8011,
      "ĠKÃ¡tÃ³": 8012,
      "velopp": 8013,
      "áīħáĭ«áĬĸáĪµ": 8014,
      "44": 8015,
      "Febru": 8016,
      "HeĠ": 8017,
      "Hung": 8018,
      "Sil": 8019,
      "binĠ": 8020,
      "bÃ³": 8021,
      "gig": 8022,
      "liv": 8023,
      "lÃ¨Ġ": 8024,
      "pas": 8025,
      "ĠáĬĶ": 8026,
      "ateur": 8027,
      "asiliĠ": 8028,
      "1914": 8029,
      "ador": 8030,
      ".ĠR": 8031,
      "áĬĲáĭĵ": 8032,
      "áĮįáĪĽáĭĬ": 8033,
      "aĠkwall": 8034,
      "ĠáĭŃáīĨ": 8035,
      "appar": 8036,
      "áįĪáĪĭáĮĬ": 8037,
      "edĠbyĠtheĠ": 8038,
      "obj": 8039,
      "anzuĠ": 8040,
      "ĠEng": 8041,
      "compl": 8042,
      "ĠáĮ¥áĭ«": 8043,
      "ĠáĪ¥áĮĭ": 8044,
      "Ġá»įÌĢrá»įÌĢ": 8045,
      "ĠáĪļáĬ«áĬ¤áĪį": 8046,
      "zamanĠ": 8047,
      "ĠáĬ¨áĭļáĭ«áĪĿ": 8048,
      "ĠWá»įÌģnĠbÃŃĠ": 8049,
      "patakiĠ": 8050,
      "wamitinĠ": 8051,
      "takribanĠ": 8052,
      "falmeĠmkuuĠwaĠ": 8053,
      "ĠáĪĿáĬķáĮĬáĭľáĪĿ": 8054,
      "Alexand": 8055,
      "Ge": 8056,
      "Kin": 8057,
      "maz": 8058,
      "siteĠ": 8059,
      "Ġáīłáĭ°áī¡áī¥": 8060,
      "envir": 8061,
      "ondeĠ": 8062,
      "áĪĪáī±": 8063,
      "Ã³n": 8064,
      "áĬłáīµ": 8065,
      "Ã²:": 8066,
      "Ġáĭ¨áĪ¶": 8067,
      "2013,Ġ": 8068,
      "ĠáĮįáĪ«": 8069,
      "áĪ¥áĬĲ": 8070,
      "Ġáĭĺáĭį": 8071,
      ",ĠmwanamuzikiĠ": 8072,
      "ĠfÃºn": 8073,
      "áĪµáīµáĪª": 8074,
      "áĪĲáĪ´": 8075,
      "engenez": 8076,
      "áįĵáĬķ": 8077,
      "nameĠ": 8078,
      "fiel": 8079,
      "ĠáĮ¸áĪĲáįĬ": 8080,
      "ĠNovembaĠ": 8081,
      "Pasif": 8082,
      "3=": 8083,
      ":ĠB": 8084,
      "bis": 8085,
      "bilaĠ": 8086,
      "ci.": 8087,
      "hot": 8088,
      "kÃ¨Ġ": 8089,
      "sci": 8090,
      "yc": 8091,
      "Åĵ": 8092,
      "ÏĤ": 8093,
      "inj": 8094,
      "áĪµáĪŃ": 8095,
      "islamuĠ": 8096,
      "ĠáĪĿáĬĴáĪįáĬŃ": 8097,
      "aham": 8098,
      "ĠTaĠkasanceĠ": 8099,
      "trÃ¨sĠ": 8100,
      "ĠIk": 8101,
      "áĮĭáĮĪáĪŃ": 8102,
      "anci,Ġ": 8103,
      "áī¢áĭŃ": 8104,
      "egunĠ": 8105,
      "ĠáĮ¥áīłáī¥": 8106,
      "reĠdeĠ": 8107,
      "ĠáĪģáĪĪáī°áĬĽáĭį": 8108,
      "kuwaĠnaĠ": 8109,
      "eyinĠ": 8110,
      "ĠáįįáīħáĪŃ": 8111,
      "Ãłwá»įnĠáº¹": 8112,
      "ectiv": 8113,
      "Ġáīłáī°áĪĪáĭŃáĪĿ": 8114,
      "Ã¬dÃŃjeĠ": 8115,
      "Hispani": 8116,
      "wadandaĠsukaĠ": 8117,
      "CharlesĠ": 8118,
      "birniĠne,ĠdaĠkeĠ": 8119,
      "ĠáĮłáīħáĪĭáĭŃ": 8120,
      "bá»įÌģá»įÌĢlÃ¹": 8121,
      "ĠáĪļáĬĴáĪµáīµáĪŃ": 8122,
      "Ġá»ĮÌĢyá»įÌģ": 8123,
      "High": 8124,
      "Ma": 8125,
      "Wil": 8126,
      "cit": 8127,
      "nen": 8128,
      "rÃ²Ġ": 8129,
      "vik": 8130,
      "Ġ×": 8131,
      ",ĠT": 8132,
      "alg": 8133,
      "Ãłjá»į": 8134,
      "áĪµáĪĿ": 8135,
      "ĠáĬłáĪīáīµ": 8136,
      "ĠAĠm": 8137,
      "ĠAlÃ¡": 8138,
      "ĠáĬĲáįĥ": 8139,
      "ĠáĪĪáĭĪ": 8140,
      "etnam": 8141,
      "áĮĭáĪ«": 8142,
      "su,Ġ": 8143,
      "Ġáĭ¨áĪĺáĮ£": 8144,
      "elloĠ": 8145,
      "ĠáįĪáĪ¨áĬķáĪ³áĭŃ": 8146,
      "Ġáĭķáĭį": 8147,
      "áĮ»áįį": 8148,
      "ĠáĪĢáī¥": 8149,
      "issionĠ": 8150,
      "ĠáĮ¨áĪĿáĪ®": 8151,
      "inkinĠ": 8152,
      "NÃłÃ¬jÃŃrÃŃÃł": 8153,
      "TarayyarĠAmurk": 8154,
      "lÃ¬kÃ¬": 8155,
      "unifÃ¡sÃŃtÃ¬": 8156,
      "ml": 8157,
      "ress": 8158,
      "akawaĠ": 8159,
      "ĠáīłáĭĪ": 8160,
      "ise": 8161,
      "islam": 8162,
      "Ã¡lÃŃ": 8163,
      "esternĠ": 8164,
      "áĮįáĪĪ": 8165,
      "ambarĠ": 8166,
      "antak": 8167,
      "ĠPaul": 8168,
      "ĠparĠ": 8169,
      "MariaĠ": 8170,
      "áįĬáĭİáī½": 8171,
      "daĠsauranĠ": 8172,
      "ĠAĠshekararĠ201": 8173,
      "farkoĠnaĠ": 8174,
      "áī³áĭĪáīģ": 8175,
      "olÃ³Ã²": 8176,
      "wandishiĠwaĠ": 8177,
      "activ": 8178,
      "fÃŃl": 8179,
      "Ã©crit": 8180,
      "ĠáĪģáĪĪáī°áĬĽ": 8181,
      "Ġáīłáī¥áĭĽáīµĠáĭ¨áĪļáĮĪáĬĿáīłáīµ": 8182,
      "Ġáīłáī¥áĭĽáīµĠáĭ¨áĪļáĮĪáĬĿáīłáīµĠáĪĺáĪįáĬŃáĭĵĠáĪĿáĭµáĪŃ": 8183,
      "\"m": 8184,
      ",0": 8185,
      "Day": 8186,
      "Sing": 8187,
      "Wag": 8188,
      "earĠ": 8189,
      "mÃºĠ": 8190,
      "n'": 8191,
      "paysĠ": 8192,
      "tay": 8193,
      "ven": 8194,
      "yÃł": 8195,
      "alem": 8196,
      "ĠáĬłáĬĵ": 8197,
      "ĠáĮĵ": 8198,
      "áĭ°áĪŃáĪµ": 8199,
      "áĬĲáī³áī¸áĭį": 8200,
      "imul": 8201,
      "ĠáĪĺáĪ£": 8202,
      "Ã²wÃ²": 8203,
      "usul": 8204,
      "áĬŃáĪĿáĬĵ": 8205,
      "ingsĠ": 8206,
      "ahĠ": 8207,
      "ĠáĭĪáĪ°": 8208,
      "ÆĻan": 8209,
      "ĠBi": 8210,
      "eter": 8211,
      "ĠIf": 8212,
      "áĭ¨áĪ©": 8213,
      "artic": 8214,
      "ĠnÃŃbiĠ": 8215,
      "ĠáĪķáĮį": 8216,
      "OlÃº": 8217,
      "áīĤáīµ": 8218,
      "dansĠlesĠ": 8219,
      "tsakiyarĠ": 8220,
      "Guine": 8221,
      "kudancinĠ": 8222,
      "áīĢáĪĺáĮ«": 8223,
      "olojiaĠ": 8224,
      "ĠáĪĥáĭŃáĪĽáĬĸáīµ": 8225,
      "ĠáĮĢáĪŃáĪĺáĬķ": 8226,
      "ĠItaĠceĠ": 8227,
      "ayáº¹yáº¹": 8228,
      "GÃ³mÃ¬nÃłĠÃĮpÃŃnláº¹ÌĢ": 8229,
      "ĠáĬĽáĭį": 8230,
      "-áĬ¢": 8231,
      "Ile-": 8232,
      "Sul": 8233,
      "bit": 8234,
      "do": 8235,
      "jo": 8236,
      "tÃ¬Ġ": 8237,
      "yoĠ": 8238,
      "yas": 8239,
      "zak": 8240,
      "Ã£": 8241,
      "ÆĬ": 8242,
      "ÑĢ": 8243,
      "ĠáĭĬ": 8244,
      ",ĠleĠ": 8245,
      "Ãłká»į": 8246,
      "áĪµáĪĪ": 8247,
      "electr": 8248,
      "áĬĲáĪ£": 8249,
      "age,Ġ": 8250,
      "áī³áĪªáĬŃ": 8251,
      "ĠMaj": 8252,
      "appr": 8253,
      "azing": 8254,
      "ĠáĪµáĭ«áĪľ": 8255,
      "ishinĠ": 8256,
      "ĠáĭĵáĪĭáĪĽ": 8257,
      "áĮĭáīµ": 8258,
      "ĠáĬ¥áĬķáĭ°ĠáĬĲáīłáĪŃ": 8259,
      "territ": 8260,
      "eziĠ": 8261,
      "ChinaĠ": 8262,
      "acheĠ": 8263,
      "áĪµáī°áĬĽáĭį": 8264,
      "tÃŃĠÃ³Ġjáº¹ÌģĠ": 8265,
      "ogboĠ": 8266,
      "ĠáĪħáĮį": 8267,
      "Ġá»įmá»įĠbÃŃbÃŃĠ": 8268,
      "yake.": 8269,
      "ĠáĪľáĭ³": 8270,
      "ĠFebruariĠ": 8271,
      "ayÃ©Ġráº¹ÌĢ": 8272,
      "Angel": 8273,
      "wasanĠkwaikwayoĠ": 8274,
      "YammacinĠ": 8275,
      "nombre": 8276,
      "KiswahiliĠ": 8277,
      "ĠáĪļáĪĬáĭ®áĬķ": 8278,
      "egeme": 8279,
      "ĠáĭµáĬķáĮĭáĭŃ": 8280,
      "foisĠ": 8281,
      "gÃºn": 8282,
      "liss": 8283,
      "v.": 8284,
      "aĠÆĻar": 8285,
      "ĠáĬ¦áĪŃ": 8286,
      ",ĠÃłwá»įnĠ": 8287,
      "aml": 8288,
      "áĪįáī¥": 8289,
      "áĪĿáīłáĪŃ": 8290,
      "áĭ«áĪįáį¢": 8291,
      "ĠAir": 8292,
      "elim": 8293,
      "aciĠ": 8294,
      "ĠáĭĪáĭĺ": 8295,
      "á»įÌĢnÃ¹": 8296,
      "otunĠ": 8297,
      "ĠTanguĠ": 8298,
      "leĠof": 8299,
      "Ġká»į": 8300,
      "áĮĭáĪª": 8301,
      "atiĠawá»įnĠ": 8302,
      "waĠki": 8303,
      "uzikiĠwaĠ": 8304,
      "agbaraĠ": 8305,
      "nigb": 8306,
      "ĠáĬ¨áī°áĪĽĠáĬĲáĭįáį¢": 8307,
      "ĠáĬ¢áĬķ": 8308,
      "ĠtÃŃĠÃ³ĠsÃ¬": 8309,
      "athem": 8310,
      "Island": 8311,
      "shiĠneĠÉĹanĠ": 8312,
      "ĠáįĬáĪį": 8313,
      "ĠÃĪyÃŃĠ": 8314,
      "ongoziĠwaĠ": 8315,
      "premiÃ¨reĠ": 8316,
      "ĠWanasayansiĠwaĠ": 8317,
      "arewacinĠ": 8318,
      "ĠáĭĺáĪĺáĬķĠáĬłáīĨáĮ£áĮłáĪŃĠáĭ¨áĭĵáĪĺáī±": 8319,
      "ĠKÃ¡tÃ³lÃ¬kÃ¬": 8320,
      "(M": 8321,
      "GB": 8322,
      "Jar": 8323,
      "OpenĠ": 8324,
      "PÃ³pÃ¹": 8325,
      "ci,Ġ": 8326,
      "oiĠ": 8327,
      "wÃłÃ¡": 8328,
      "zan": 8329,
      "ama,Ġ": 8330,
      "áī°áīµ": 8331,
      "uny": 8332,
      "Ã¨Ã¨": 8333,
      "agoĠ": 8334,
      "ĠdansĠ": 8335,
      "ĠFor": 8336,
      "epuisĠ": 8337,
      "nguv": 8338,
      "1973": 8339,
      "ĠnÃŃĠÃĮpÃŃnláº¹ÌĢ": 8340,
      "áī¤áī±": 8341,
      "áĮĥáĭĿáĪĽáī½": 8342,
      "Ġáį²áį°áį»áį": 8343,
      "uatwaĠnaĠPapaĠ": 8344,
      "oirĠ": 8345,
      "ĠnÃ¡Ãł.": 8346,
      "i-m": 8347,
      "akaoĠmak": 8348,
      "falmeĠwaĠ": 8349,
      "MayuĠ": 8350,
      "Ã¬tá»įÌģkasÃŃĠÃĢwá»įnĠ": 8351,
      "HispaniaĠ": 8352,
      "HukumarĠ": 8353,
      "jam'iyyarĠ": 8354,
      "1)": 8355,
      "9-": 8356,
      "98": 8357,
      "Sol": 8358,
      "Zar": 8359,
      "aor": 8360,
      "bel": 8361,
      "gÃ¹n": 8362,
      "kÃ¹nĠ": 8363,
      "ká»įÌĢĠ": 8364,
      "las": 8365,
      "souv": 8366,
      ",ĠaĠ": 8367,
      "ĠáīłáĪķ": 8368,
      "itionsĠ": 8369,
      "aye.": 8370,
      "ustaĠ": 8371,
      "ifi": 8372,
      "azam": 8373,
      "ugg": 8374,
      "kumaĠanĠ": 8375,
      "ediaĠ": 8376,
      "tÃŃĠaĠ": 8377,
      "Ġáĭ°áĮĭ": 8378,
      "ĠGb": 8379,
      "ers.": 8380,
      "associ": 8381,
      "jami'arĠ": 8382,
      "firam": 8383,
      "tattaf": 8384,
      "ĠáĬ¨áī°áĪĽáĭį": 8385,
      "yanayinĠ": 8386,
      "alikuwaĠPap": 8387,
      "aĠkarniĠnaĠ": 8388,
      "FranceĠ": 8389,
      "ĠáĬªáĪİ": 8390,
      "ĠáīĥáĪĭáīµ": 8391,
      "isiwaĠvyaĠ": 8392,
      "almarĠ": 8393,
      "Tanzania.": 8394,
      "wasanĠÆĻwallonĠÆĻafaĠtaĠÆĻasarĠIngila": 8395,
      "CCM": 8396,
      "ĠáĬĹáĪª": 8397,
      "Wad": 8398,
      "Zamb": 8399,
      "fa": 8400,
      "gask": 8401,
      "mir": 8402,
      "oid": 8403,
      "tayiĠ": 8404,
      "wÃ©": 8405,
      "Î¹": 8406,
      "er,Ġm": 8407,
      "ĠáīłáĪµáī°": 8408,
      "ĠtunĠ": 8409,
      "ĠáĬ¥áĭ«áĬķáĭ³áĬķáĭ±": 8410,
      "áĭŃáĪģ": 8411,
      "ĠAlexand": 8412,
      "omor": 8413,
      "áĮĪáīµ": 8414,
      "ĠáĬ¥áĬķáĭµ": 8415,
      "osentomonĠ": 8416,
      "áĭĿáĪĿ": 8417,
      "nÃŃĠÃ¬pÃŃnláº¹ÌĢ": 8418,
      "uduĠ": 8419,
      "shiĠdaĠ": 8420,
      "ongo": 8421,
      "1956": 8422,
      "niĠá»įdunĠ": 8423,
      "JamesĠ": 8424,
      "Argent": 8425,
      "Ã²rÃ¡nĠ": 8426,
      "ĠáĪĻáĭļáīĥ": 8427,
      "ilÃ©-iá¹£áº¹ÌģĠ": 8428,
      "jiĠmkuuĠ": 8429,
      "ĠáĪŃáĭķ": 8430,
      "ĠtÃŃtÃŃĠ": 8431,
      "AareĠorile-edeĠ": 8432,
      "GeorgeĠ": 8433,
      "amarĠhukumaĠceĠdakeĠ": 8434,
      "ĠAlimfuataĠPapaĠ": 8435,
      "95": 8436,
      "AdÃ©": 8437,
      "UK": 8438,
      "Ut": 8439,
      "ZiwaĠ": 8440,
      "dÃŃĠ": 8441,
      "jus": 8442,
      "poĠ": 8443,
      "tw": 8444,
      "u)Ġ": 8445,
      "ĠauĠ": 8446,
      "áĬ£": 8447,
      "áīµáĪµ": 8448,
      "ama": 8449,
      "asilimiaĠ": 8450,
      "Ġáīłáīħ": 8451,
      "ilik": 8452,
      "ĠáĬ¥áĮ½": 8453,
      "ulaĠ": 8454,
      "Ġáį³": 8455,
      "aziĠyaĠ": 8456,
      "ĠSab": 8457,
      "ambayeĠ": 8458,
      "ĠDansĠ": 8459,
      "Ġáĭ°áĪŃ": 8460,
      "Ġbáº¹Ìģáº¹ÌĢ": 8461,
      "estĠunĠ": 8462,
      "1963": 8463,
      "biyu,Ġ": 8464,
      "auseĠ": 8465,
      "phil": 8466,
      "premierĠ": 8467,
      "ĠDagaĠbayaĠ": 8468,
      "jÃłkÃ¡": 8469,
      "ĠáĪĿáĪįáĬŃáīµ": 8470,
      "ĠáĬ¥áĬķáĪµáĪ³": 8471,
      "fusk": 8472,
      "ElezoĠyaĠ": 8473,
      "ĠViungoĠvyaĠnjeĠ": 8474,
      "KamusiĠElezoĠyaĠ": 8475,
      "KamusiĠElezoĠyaĠKik": 8476,
      "Kais": 8477,
      "Mac": 8478,
      "PDP": 8479,
      "Ros": 8480,
      "dawoĠ": 8481,
      "mi": 8482,
      "siyasaĠ": 8483,
      "ËĪ": 8484,
      "ĠasĠ": 8485,
      "áĮ©": 8486,
      "alish": 8487,
      "aki": 8488,
      "chamaĠ": 8489,
      "ĠáĪĺáĪ¬áīµ": 8490,
      "áĬ¨áĬĵ": 8491,
      "refer": 8492,
      "áĮ£áĪª": 8493,
      "ĠEosentomonĠ": 8494,
      "Â»)": 8495,
      "ebr": 8496,
      "ionn": 8497,
      "aĠdaĠkumaĠ": 8498,
      "Ġáĭ¨áĪĺáĬķáĮį": 8499,
      "áĪĲáĭŃ": 8500,
      "nyÃŃĠ": 8501,
      "1940": 8502,
      "gabashinĠ": 8503,
      "ather": 8504,
      "ujokoĠ": 8505,
      "já»įĠKÃ¡tÃ³lÃ¬kÃ¬": 8506,
      "Kiarab": 8507,
      "dansĠlaĠ": 8508,
      "a.ĠManazarta": 8509,
      "ĠáĭĺáĪĺáĬĲĠáĪĽáĪŃáīĨáĪµĠáĭ°áĮįáĪŀ": 8510,
      "cutarĠ": 8511,
      "ĠáĪļáĬĴáĪµáī´": 8512,
      "Bibl": 8513,
      "jimboĠlaĠ": 8514,
      "sosaiĠ": 8515,
      "ĠáĮĪáĬķáĭĺáī¥": 8516,
      "Pulitz": 8517,
      "aal": 8518,
      "lob": 8519,
      "medĠ": 8520,
      "toutĠ": 8521,
      "wÃŃĠ": 8522,
      "ÉĻ": 8523,
      "eĠniĠ": 8524,
      "Ġáī«": 8525,
      ",ĠC": 8526,
      "ere,Ġ": 8527,
      "kuv": 8528,
      "ĠáĬłáĭĭ": 8529,
      "tĠof": 8530,
      "áĪĽáĪ¨": 8531,
      "ĠáĪĺáĮĢáĪĺáĪªáĭ«": 8532,
      "Ã²kÃ¨": 8533,
      "Ġáī°áĮĪ": 8534,
      "Ġáĭ¨áĪļáĬĸáĪŃ": 8535,
      "oyiĠ": 8536,
      "ĠáĬĲáīłáĪŃáį¡áį¡": 8537,
      "exic": 8538,
      "exist": 8539,
      "adarÃŃĠ": 8540,
      "áĪĽáĭŃáĪµáĮ¥": 8541,
      "villeĠ": 8542,
      "aká»įrinĠ": 8543,
      "áĪįáĪµáįįáĬĵ": 8544,
      "áĭĺáĮĭáĮĢ": 8545,
      "áº¹Ìģká»įÌĢá»įÌģĠ": 8546,
      "wá»įÌģnĠá¹£eĠ": 8547,
      "NuwambaĠ": 8548,
      "\"B": 8549,
      "'ad": 8550,
      "kÃ©": 8551,
      "yat": 8552,
      "áĪĿáĪĮ": 8553,
      "1919": 8554,
      "usedĠ": 8555,
      "ingĠaĠ": 8556,
      "ĠBar": 8557,
      "ĠlÃ³Ġ": 8558,
      "ovuĠ": 8559,
      "takwasĠ": 8560,
      "aĠbug": 8561,
      "Ã¬dÃŃn": 8562,
      "áī³áĭĪáīĢáĭį": 8563,
      "áĮ¡áīµ": 8564,
      "ique.": 8565,
      "jáº¹ÌģĠá»įÌĢkanĠ": 8566,
      "ĠáĪģáĪīáĪĿ": 8567,
      "áįĸáĪŃáīµ": 8568,
      "ĠáĬłáĪĿáī£": 8569,
      "JapaniĠ(": 8570,
      "oitwaĠ": 8571,
      "Ifáº¹ÌĢ": 8572,
      "akafuatwaĠnaĠPapaĠ": 8573,
      "evelopmentĠ": 8574,
      "anyoyinĠhaÉĹinĠ": 8575,
      "Ath": 8576,
      "fÃŃrÃŃ": 8577,
      "sÃłn": 8578,
      "Ġ190": 8579,
      "inv": 8580,
      "oĠT": 8581,
      "erch": 8582,
      "áĪĪáĪ°": 8583,
      "ĠáĮ»": 8584,
      "shari'": 8585,
      "taĠsamuĠ": 8586,
      "ĠáĬ¨áĮ¥": 8587,
      "Ġ(S": 8588,
      "baĠsuĠ": 8589,
      "Ġkar": 8590,
      "ĠBrit": 8591,
      "áĭĭáĪŃáĭ«": 8592,
      "ederal": 8593,
      "etĠlesĠ": 8594,
      "wasuĠm": 8595,
      "oyonĠ": 8596,
      "1962": 8597,
      "oĠkwenyeĠ": 8598,
      "ĠAl-": 8599,
      "áĪªáĭ«áĭİáī½": 8600,
      "nye": 8601,
      "ĠUm": 8602,
      "ĠáĪĬáĪĨáĬķ": 8603,
      "ĠChrist": 8604,
      "Ġáį²áį±áį»áį¶áį": 8605,
      "2007.": 8606,
      "ement,Ġ": 8607,
      "oĠchaĠm": 8608,
      "Ġáĭ¨áĪĨáĬĲáĭį": 8609,
      "ArewaĠmasoĠ": 8610,
      "lakeĠlaĠ": 8611,
      "ĠAmericanĠ": 8612,
      "ĠáĬĥáĭŃáĪĪĠáĪ¥áĪĭáĪ´": 8613,
      "shirye-shiryenĠ": 8614,
      "Ju": 8615,
      "Mah": 8616,
      "Nk": 8617,
      "ge": 8618,
      "ganinĠ": 8619,
      "sil": 8620,
      "ÃłyÃłnĠ": 8621,
      "Ġáĭ¨áĪĪáĪĿ": 8622,
      "Ġáīłáį": 8623,
      "kunaĠm": 8624,
      "ĠáĬłáĭĺ": 8625,
      "áī°áĬŀáī½": 8626,
      "áĭ«áī¸áĭį": 8627,
      "ĠáĪĺáĪĭ": 8628,
      "afutaĠ": 8629,
      "ibut": 8630,
      "opp": 8631,
      "2008,Ġ": 8632,
      "ectsĠ": 8633,
      "jeĠijobaĠibileĠniĠIpinleĠ": 8634,
      "tersĠ": 8635,
      "Â».": 8636,
      ",ĠmaisĠ": 8637,
      "anyanĠm": 8638,
      "Shek": 8639,
      "seur": 8640,
      "UnionĠ": 8641,
      "IbnĠ": 8642,
      "Ġáĭ¨áĬĲáĮĪ": 8643,
      "KiarabuĠ": 8644,
      "ĠáĬłáĪĺáī³áīµ": 8645,
      "ĠáįĬáĭ°": 8646,
      "ká»įÌĢwÃ©Ġ": 8647,
      "echnolog": 8648,
      "áĪĺáĪĪáĪµ": 8649,
      "Ġáĭ¨áīĢáĭµáĪŀ": 8650,
      "ĠkmÂ²": 8651,
      "huoĠKik": 8652,
      "mataĠtaĠ": 8653,
      "ĠGeorgeĠ": 8654,
      "Mand": 8655,
      "]]": 8656,
      "eas": 8657,
      "hus": 8658,
      "hij": 8659,
      "Ø¹": 8660,
      "Ġfor": 8661,
      "ina.": 8662,
      "alesĠ": 8663,
      "onj": 8664,
      "áĪ«áĬĴ": 8665,
      "ĠMan": 8666,
      "Ġáī°áĪĽáĪª": 8667,
      "acr": 8668,
      "áįĪáĪ«": 8669,
      "ikaĠlaĠ": 8670,
      "eck": 8671,
      "ĠHarĠ": 8672,
      "stitu": 8673,
      "ĠáĬ¥áĬķáĭ°ĠáĪĨáĬĲ": 8674,
      "ewa,Ġ": 8675,
      "ts.": 8676,
      "ĠEx": 8677,
      "ĠáĭµáĬķáĮįáĪį": 8678,
      "ĠáīłáĬłáĪľáĪªáĬ«": 8679,
      "Amáº¹ÌģrÃŃ": 8680,
      "Chad": 8681,
      "Sheh": 8682,
      "jamhur": 8683,
      "aĠdonĠ": 8684,
      "ĠáĬłáĬķáīĢ": 8685,
      "Islam": 8686,
      "Frank": 8687,
      "ĠnÃ¡Ãł": 8688,
      "Afrika.": 8689,
      "Ġtáº¹ÌģnÃ¬": 8690,
      "áĪ¨áĮĭáĮĪ": 8691,
      "origin": 8692,
      "á»įÌģkaĠs": 8693,
      "áĭŃáĪŃáĪĭáĬķáĭµ": 8694,
      "Nijeriya.ĠKanananĠhukumominĠjiharĠ": 8695,
      "IlÃ©-": 8696,
      "Zam": 8697,
      "Zimbab": 8698,
      "cigab": 8699,
      "dáº¹Ìģ": 8700,
      "mÃ©j": 8701,
      "nus": 8702,
      "pal": 8703,
      "til": 8704,
      "uoĠ": 8705,
      "wach": 8706,
      "zik": 8707,
      "á»įlÃ¡": 8708,
      "en'sĠ": 8709,
      "áĭ«áĪį": 8710,
      "áĬĲáĪµ": 8711,
      "ĠáĪĺáĬĸ": 8712,
      "iyuĠ": 8713,
      "agueĠ": 8714,
      "áī£áī±": 8715,
      "á¹£áº¹": 8716,
      "Ġáĭ«áĭį": 8717,
      "Ġáĭ¨áĪļáī£áĪį": 8718,
      "áĭĿáī¡": 8719,
      "Ġáĭ¨áĬłáĬķáĭµ": 8720,
      "ĠáĮį.": 8721,
      "ĠOm": 8722,
      "Ġáī¥áĪĭ": 8723,
      "Ġá¹£iá¹£áº¹ÌģĠ": 8724,
      "ráº¹ÌĢĠniĠ": 8725,
      "ráº¹ÌĢĠjáº¹ÌģĠ": 8726,
      "Ã©ric": 8727,
      "ĠNÃłÃ¬jÃŃrÃŃÃł,Ġ": 8728,
      "ĠáĬªáĭ³áĬķ": 8729,
      "Ç¹kanĠ": 8730,
      "lafiyaĠ": 8731,
      "ĠáĪªáįĲáī¥áĪĬáĬŃ": 8732,
      "utawalaĠwaĠ": 8733,
      "ĠáīĢáĬĵáīµĠáĭŃáīĢáĪ«áĪīáį¢": 8734,
      "nufinĠ": 8735,
      "fÃŃlmÃ¹Ġ": 8736,
      "Ash": 8737,
      "Cal": 8738,
      "Mu": 8739,
      "We": 8740,
      "e;": 8741,
      "eat": 8742,
      "kafaĠ": 8743,
      "lineĠ": 8744,
      "manyanĠ": 8745,
      "Ïģ": 8746,
      "áĬķáĬ«": 8747,
      "yaĠzamaĠ": 8748,
      "unm": 8749,
      "ĠtiĠk": 8750,
      "gbÃ¡Ġ": 8751,
      "deĠL": 8752,
      "icr": 8753,
      "ĠMal": 8754,
      "ots": 8755,
      "Ġáĭ¨áĬłáĪĪáĪĿ": 8756,
      "áĪ¥áĪŃ": 8757,
      "lev": 8758,
      "ations": 8759,
      "hich": 8760,
      "áī¡áĪŃ": 8761,
      "ellow": 8762,
      "aĠbirninĠ": 8763,
      "tareĠdaĠm": 8764,
      "ologyĠ": 8765,
      "ĠáĬķáĮīáĪ¥ĠáĬĲáīłáĪŃáį¢": 8766,
      "ĠáĮīáĪį": 8767,
      "lakin": 8768,
      "kufuatanaĠnaĠ": 8769,
      "2016.": 8770,
      "jiĠmku": 8771,
      "áĮĪáĪĪáĮį": 8772,
      "Greek": 8773,
      "Girl": 8774,
      "afrikaĠ": 8775,
      "Ġá¹£ÃŃá¹£eĠ": 8776,
      "ĠáĭŃáī»áĪĭáĪįáį¢": 8777,
      "),": 8778,
      "Oá¹£Ã¹": 8779,
      "daraĠ": 8780,
      "kaiĠ": 8781,
      "ounĠ": 8782,
      "pÃ¡Ġ": 8783,
      "rÃ¬n": 8784,
      "raisĠ": 8785,
      "áĮĲ": 8786,
      "ĠáĬłáī¡": 8787,
      "áĬĵáĭŃ": 8788,
      "1917": 8789,
      "áĬĲáĮį": 8790,
      "ĠáĬ¨áĭĪ": 8791,
      "quel": 8792,
      "ĠlÃ¨": 8793,
      "wasanninĠ": 8794,
      "nÃŃgbÃłĠ": 8795,
      "ĠáĮ¥áĬĵ": 8796,
      "evenĠ": 8797,
      "gabat": 8798,
      "ĠáīĢáĬķĠáĬĲáĭįáį¢": 8799,
      "other": 8800,
      "grand": 8801,
      "Ã²á¹£Ã¨lÃº": 8802,
      "ilĠestĠ": 8803,
      "ejÃ¬lÃ¡": 8804,
      "ArewaĠ": 8805,
      "ungeĠlaĠ": 8806,
      "áĪ¨áī¥áĬĽ": 8807,
      "Ġáī¢áĪĨáĬķáĪĿ": 8808,
      "Seneg": 8809,
      "ammalaĠkaratunĠ": 8810,
      "jimillarĠ": 8811,
      "ĠáĭĪáĭĺáī°": 8812,
      "Sun": 8813,
      "Ub": 8814,
      "bun": 8815,
      "dÃł": 8816,
      "kok": 8817,
      "sousĠ": 8818,
      "vin": 8819,
      "viv": 8820,
      "ĠÃłĠ": 8821,
      "áĬ»": 8822,
      "Ġáĭĳ": 8823,
      ",ĠG": 8824,
      ",ĠR": 8825,
      "asili": 8826,
      "iko": 8827,
      "ika.": 8828,
      "char": 8829,
      "áĮįáĬĿ": 8830,
      "áį£ĠáĪĪ": 8831,
      "áĬ«áĭµ": 8832,
      "ĠKatikaĠm": 8833,
      "ijiĠm": 8834,
      "áĭļáĭ«áĬķ": 8835,
      "Ġ100": 8836,
      "ĠáĬ¥áĬķáĭ°áĬĲáīłáĪŃ": 8837,
      "aveĠ": 8838,
      "waĠkamaĠ": 8839,
      "ĠâĢİ": 8840,
      "ĠáĭĺáĪĺáī»": 8841,
      "ughul": 8842,
      "áĪłáī¥": 8843,
      "1945": 8844,
      "filinĠ": 8845,
      "Ã¬wÃ²": 8846,
      "ĠáĪĺáĪµáĬ¨áĪ¨áĪĿ": 8847,
      "juuĠ": 8848,
      "abilaĠlaĠ": 8849,
      "kubwaĠwaĠ": 8850,
      "2014.": 8851,
      "ĠáĮ¨áĭĭ": 8852,
      "relig": 8853,
      "peop": 8854,
      "lokacinĠdaĠ": 8855,
      ".ĠÃĢwá»įnĠÃ¬t": 8856,
      "binrinĠ": 8857,
      "Historia": 8858,
      "áĭĪáĪĪáĭ±": 8859,
      "esabiwaĠkuwaĠ": 8860,
      "usieursĠ": 8861,
      "Æ³anĠ": 8862,
      "owever,Ġ": 8863,
      "Book": 8864,
      "U.": 8865,
      "ainaĠ": 8866,
      "bre": 8867,
      "hÃłnĠ": 8868,
      "páº¹Ìģ": 8869,
      "samaĠ": 8870,
      "uist": 8871,
      "Ġáĭ¨áįį": 8872,
      "áĬĵĠáĪĪ": 8873,
      "á»įÌģlÃ¡": 8874,
      "a,ĠS": 8875,
      "afir": 8876,
      "ukam": 8877,
      "ĠáĬĲáĭįĠáį¢": 8878,
      "áĪ®áĪŀ": 8879,
      "áįĪáĪ¨": 8880,
      "áĪ©áĬŃ": 8881,
      "Ġáĭ¨áī°áĭĪáĪ°": 8882,
      "leyinĠ": 8883,
      "Ġá¹£e": 8884,
      "áī²áīµ": 8885,
      "ĠbiĠ": 8886,
      "ebiĠ": 8887,
      "ender": 8888,
      "under": 8889,
      "1949": 8890,
      "TuzoĠyaĠPulitz": 8891,
      "ĠthatĠ": 8892,
      "possib": 8893,
      "ĠInternational": 8894,
      "áĪµáĪ«áĬ¤áĪį": 8895,
      "kujit": 8896,
      "JamhuriĠyaĠ": 8897,
      "agbÃ¡Ġtáº¹ÌģnÃ¬": 8898,
      "áĬ¨áī°áĪĽáĭį": 8899,
      "shahararr": 8900,
      "64": 8901,
      ":ĠD": 8902,
      "BahariĠ": 8903,
      "CB": 8904,
      "JanarĠ": 8905,
      "kÃłnĠ": 8906,
      "le.": 8907,
      "nipaĠ": 8908,
      "sanaĠ": 8909,
      "zarg": 8910,
      "atreĠ": 8911,
      "áº¹taĠ": 8912,
      "ision": 8913,
      "shi.": 8914,
      "áĭ°áĪŃáĮī": 8915,
      "áĮĪáĪįáĮį": 8916,
      "áĪĽáĭį": 8917,
      "waniĠm": 8918,
      "araĠtaĠ": 8919,
      "leĠc": 8920,
      "ĠKut": 8921,
      "iĠmwakaĠwaĠ": 8922,
      "wats": 8923,
      "áĬķáĭµáĪµáĬĵ": 8924,
      "áīĨáī¥": 8925,
      "ká»įÌģká»įÌģ": 8926,
      "áĬĽáĭįáĪĿ": 8927,
      "bayan": 8928,
      "1948": 8929,
      "Jama'": 8930,
      "Ã¬tÃ¬": 8931,
      "farkonĠ": 8932,
      "Institut": 8933,
      "ĠáĬ¨áĬłáĬķáĭµ": 8934,
      "ĠáĭŃáĮĪáĪĺ": 8935,
      "kulikoĠ": 8936,
      "sehemuĠzaĠ": 8937,
      "ĠJulyĠ": 8938,
      "ĠáĬłáĭįáĪ«": 8939,
      "áĮĬáĭľáĭį": 8940,
      "ĠáĪģáĪĪáī±": 8941,
      "olÃ³á¹£Ã¨lÃºĠ": 8942,
      "ĠáĪµáī¥áĪµáī¥": 8943,
      "ĠáĮ¥áĭ«áīĦ": 8944,
      "Iw": 8945,
      "bol": 8946,
      "damarĠ": 8947,
      "fanoĠ": 8948,
      "mesĠ": 8949,
      "Ð½": 8950,
      "Ġáĭ¨áĬŃ": 8951,
      "ĠáīłáĭļáĪģ": 8952,
      "Ã¬wÃ¡": 8953,
      "áĪĺáĬķáĮį": 8954,
      "áĭ«áĭįáĭ«áĬķ": 8955,
      ".ĠP": 8956,
      "áĪĽáĭįáĭ«áĬķ": 8957,
      "utarĠ": 8958,
      "Ġá»įgá»įÌģ": 8959,
      "ĠáĪµáĬķ": 8960,
      "ĠáĪµáī´": 8961,
      "áĭ¨áĬł": 8962,
      "Ġáĭ¨áī°áĬĲáĪ³": 8963,
      "iĠnaĠk": 8964,
      "shekarar,Ġ": 8965,
      "ĠáĪįáĬŃ": 8966,
      "ationĠ(": 8967,
      "ĠVi": 8968,
      "áī£áī¢áĪİáĬķ": 8969,
      "BeninĠ": 8970,
      "Ġlá»į.": 8971,
      "dÃŃjeĠ": 8972,
      "âĢ¢ĠMtoĠ": 8973,
      "ejeĠ": 8974,
      "feĠ": 8975,
      "lÃ²Ġ": 8976,
      "Ġáĭ¨áĬĸ": 8977,
      "onath": 8978,
      "gbÃ²Ġ": 8979,
      "áĪĽáĪįáį¢": 8980,
      "áº¹Ìģn": 8981,
      "áĪ«áĭįáĭ«áĬķ": 8982,
      "Ġ(M": 8983,
      "Ġáĭ¨áĪĲ": 8984,
      "ÆĻung": 8985,
      "i,ĠnaĠ": 8986,
      "ĠLá»įÌģ": 8987,
      "ĠáĮįáĪį": 8988,
      "ambazoĠ": 8989,
      "ĠPol": 8990,
      "izeĠ": 8991,
      "ance,Ġ": 8992,
      "essor": 8993,
      "ogbonĠ": 8994,
      "yakeĠniĠ": 8995,
      "áĭ°áī¥áĪ¨": 8996,
      "RomanĠ": 8997,
      "present": 8998,
      "kuzaliwaĠ": 8999,
      "jirginĠsamanĠ": 9000,
      "RaisĠwaĠMarekaniĠ": 9001,
      "html": 9002,
      "Obas": 9003,
      "fum": 9004,
      "public": 9005,
      "ris": 9006,
      ",ĠN": 9007,
      "inÃº": 9008,
      "erreĠ": 9009,
      "áĪµáĪĬ": 9010,
      "en-": 9011,
      "ikir": 9012,
      "ikonĠ": 9013,
      "ilaĠm": 9014,
      "oninĠ": 9015,
      "ayayy": 9016,
      "adioĠ": 9017,
      "re-": 9018,
      "ĠáĪµáī¥": 9019,
      "ĠloĠ": 9020,
      "ĠáĮįáĪªáĬŃ": 9021,
      "ĠOf": 9022,
      "1961": 9023,
      "reĠniĠ": 9024,
      "áĪ£áĭŃ": 9025,
      "ĠáĪĿáĬŃáĪŃ": 9026,
      "ficial": 9027,
      "Ġáī¡áĭµáĬķ": 9028,
      "ÃłÃ¡rÃŃnĠ": 9029,
      "BirninĠ": 9030,
      "ÃłkÃ³soĠ": 9031,
      "AmerikaĠyaĠK": 9032,
      "rÃŃláº¹ÌĢĠÃ¨dÃ¨": 9033,
      "unguzaĠ": 9034,
      "pá»įlá»į": 9035,
      "enryĠ": 9036,
      "MakarantarĠ": 9037,
      "Val": 9038,
      "Wap": 9039,
      "noĠ": 9040,
      "rot": 9041,
      "áĭ¢": 9042,
      "anĠS": 9043,
      "ĠtabiĠ": 9044,
      "elem": 9045,
      "imesĠ": 9046,
      "imaniĠ": 9047,
      "wanaj": 9048,
      "Ġáĭ¨áĪ©": 9049,
      "áĬ¨áĬĲáĭĵ": 9050,
      "araĠnyingiĠ": 9051,
      "áĬ«áĪª": 9052,
      "ĠKwaĠm": 9053,
      "ĠsÃ¡": 9054,
      "odoĠ": 9055,
      "iĠnaĠku": 9056,
      "aĠyaĠK": 9057,
      "formeĠ": 9058,
      "tainsĠ": 9059,
      "áĪķáĪį": 9060,
      "aĠlabar": 9061,
      "ĠáĪļáĪµáīµ": 9062,
      "zamantak": 9063,
      "Ãłwá»įnĠá»įÌĢ": 9064,
      "ĠáĬłáĪĪáį¢": 9065,
      "iliyop": 9066,
      "ulkinĠmall": 9067,
      "2006.": 9068,
      ",ĠmshindiĠwaĠTuzoĠyaĠNobelĠyaĠFasih": 9069,
      "2014,Ġ": 9070,
      "fiimuĠ": 9071,
      "baĠdaĠshaw": 9072,
      "sÃŃláº¹ÌĢĠ": 9073,
      "kaláº¹ÌĢ": 9074,
      "fiĠsaniĠdaĠ": 9075,
      "lilil": 9076,
      "ohammedĠ": 9077,
      "ĠAlitokeaĠ": 9078,
      "KamusiĠElezoĠyaĠKikatolikiĠ": 9079,
      "Bag": 9080,
      "babaĠ": 9081,
      "dabb": 9082,
      "e'sĠ": 9083,
      "gariĠ": 9084,
      "haj": 9085,
      "led": 9086,
      "ruw": 9087,
      "suneĠ": 9088,
      "yi": 9089,
      "aĠzuwaĠ": 9090,
      "aĠJami'arĠ": 9091,
      "amatsayinĠ": 9092,
      "áº¹ráº¹": 9093,
      "áĪµáī²": 9094,
      "shuleĠ": 9095,
      "adj": 9096,
      "áĪ«áĭŃ": 9097,
      "ĠStat": 9098,
      "áĮłáĪĭ": 9099,
      "ĠmaiĠ": 9100,
      "ĠáĪ°áĪĽ": 9101,
      "áĪĻáīµ": 9102,
      "ĠáĪĭáĭŃĠáīł": 9103,
      "Ã¬já»į": 9104,
      "Ġáīłáī°áĪĪáĭ«áĭ©": 9105,
      "ĠáīħáĬĿ": 9106,
      "170": 9107,
      "1946": 9108,
      "Ãłwá»įnĠá»įmá»įĠ": 9109,
      "Ġgáº¹Ìģgáº¹ÌģĠbÃŃĠ": 9110,
      "nambaĠ": 9111,
      ")ĠjeĠoloseluĠ": 9112,
      "Ġáī°áīĢáĪĿ": 9113,
      "aimak": 9114,
      "zaidiĠyaĠ": 9115,
      "Birtan": 9116,
      "lokaciĠ": 9117,
      "jumlaĠ": 9118,
      "ĠCharlesĠ": 9119,
      "ĠáĭľáĬĵĠáĪĺáĭĭáĭķáĪį": 9120,
      "AL": 9121,
      "Democratic": 9122,
      "KasaĠ": 9123,
      "VitaĠ": 9124,
      "dim": 9125,
      "follow": 9126,
      "lib": 9127,
      "pet": 9128,
      "uceĠ": 9129,
      "zang": 9130,
      "Ġ{": 9131,
      "Ġâ": 9132,
      "Ġáī¬": 9133,
      "ĠáĬłáĪ°": 9134,
      "itÃ©sĠ": 9135,
      "cha": 9136,
      "ĠAĠlokacinĠ": 9137,
      "áĭĪáĪµ": 9138,
      "therĠ": 9139,
      "Ġ--": 9140,
      "AliĠ": 9141,
      "áĭķáī¥áĪ«áĭŃáĪµáĮ¥": 9142,
      "ĠáīłáĪĺáĪĨáĬķ": 9143,
      "ĠáĬ¥áĪµáĭ«": 9144,
      "iwajuĠ": 9145,
      "takararĠ": 9146,
      "eriesĠ": 9147,
      "ĠáĬłáĬķáĭ°": 9148,
      "tÃłrÃŃĠ": 9149,
      "kusanĠ": 9150,
      "áįİáĪŃ": 9151,
      "ĠIlĠ": 9152,
      "Urus": 9153,
      "ĠáĬ¥áĬķáĮįáĭ²áĪħ": 9154,
      "Ã¬já»įbaĠÃ¬bÃŃláº¹ÌĢ": 9155,
      "DisambaĠ": 9156,
      "bornĠ": 9157,
      "tabbatarĠdaĠ": 9158,
      "emokras": 9159,
      "alikuwaĠPapaĠkuanziaĠ": 9160,
[...]
