{
  "version": "1.0",
  "truncation": null,
  "padding": null,
  "added_tokens": [],
  "normalizer": null,
  "pre_tokenizer": {
    "type": "Sequence",
    "pretokenizers": [
      {
        "type": "Split",
        "pattern": {
          "Regex": " ?\\S+|\\s+"
        },
        "behavior": "Isolated",
        "invert": false
      },
      {
        "type": "ByteLevel",
        "add_prefix_space": false,
        "trim_offsets": true,
        "use_regex": false
      }
    ]
  },
  "post_processor": null,
  "decoder": {
    "type": "ByteLevel",
    "add_prefix_space": true,
    "trim_offsets": true,
    "use_regex": true
  },
  "model": {
    "type": "BPE",
    "dropout": null,
    "unk_token": null,
    "continuing_subword_prefix": null,
    "end_of_word_suffix": null,
    "fuse_unk": false,
    "byte_fallback": false,
    "ignore_merges": false,
    "vocab": {
      "!": 0,
      "\"": 1,
      "#": 2,
      "$": 3,
      "%": 4,
      "&": 5,
      "'": 6,
      "(": 7,
      ")": 8,
      "*": 9,
      "+": 10,
      ",": 11,
      "-": 12,
      ".": 13,
      "/": 14,
      "0": 15,
      "1": 16,
      "2": 17,
      "3": 18,
      "4": 19,
      "5": 20,
      "6": 21,
      "7": 22,
      "8": 23,
      "9": 24,
      ":": 25,
      ";": 26,
      "<": 27,
      "=": 28,
      ">": 29,
      "?": 30,
      "@": 31,
      "A": 32,
      "B": 33,
      "C": 34,
      "D": 35,
      "E": 36,
      "F": 37,
      "G": 38,
      "H": 39,
      "I": 40,
      "J": 41,
      "K": 42,
      "L": 43,
      "M": 44,
      "N": 45,
      "O": 46,
      "P": 47,
      "Q": 48,
      "R": 49,
      "S": 50,
      "T": 51,
      "U": 52,
      "V": 53,
      "W": 54,
      "X": 55,
      "Y": 56,
      "Z": 57,
      "[": 58,
      "\\": 59,
      "]": 60,
      "^": 61,
      "_": 62,
      "`": 63,
      "a": 64,
      "b": 65,
      "c": 66,
      "d": 67,
      "e": 68,
      "f": 69,
      "g": 70,
      "h": 71,
      "i": 72,
      "j": 73,
      "k": 74,
      "l": 75,
      "m": 76,
      "n": 77,
      "o": 78,
      "p": 79,
      "q": 80,
      "r": 81,
      "s": 82,
      "t": 83,
      "u": 84,
      "v": 85,
      "w": 86,
      "x": 87,
      "y": 88,
      "z": 89,
      "{": 90,
      "|": 91,
      "}": 92,
      "~": 93,
      "¡": 94,
      "¢": 95,
      "£": 96,
      "¤": 97,
      "¥": 98,
      "¦": 99,
      "§": 100,
      "¨": 101,
      "©": 102,
      "ª": 103,
      "«": 104,
      "¬": 105,
      "®": 106,
      "¯": 107,
      "°": 108,
      "±": 109,
      "²": 110,
      "³": 111,
      "´": 112,
      "µ": 113,
      "¶": 114,
      "·": 115,
      "¸": 116,
      "¹": 117,
      "º": 118,
      "»": 119,
      "¼": 120,
      "½": 121,
      "¾": 122,
      "¿": 123,
      "À": 124,
      "Á": 125,
      "Â": 126,
      "Ã": 127,
      "Ä": 128,
      "Å": 129,
      "Æ": 130,
      "Ç": 131,
      "È": 132,
      "É": 133,
      "Ê": 134,
      "Ë": 135,
      "Ì": 136,
      "Í": 137,
      "Î": 138,
      "Ï": 139,
      "Ð": 140,
      "Ñ": 141,
      "Ò": 142,
      "Ó": 143,
      "Ô": 144,
      "Õ": 145,
      "Ö": 146,
      "×": 147,
      "Ø": 148,
      "Ù": 149,
      "Ú": 150,
      "Û": 151,
      "Ü": 152,
      "Ý": 153,
      "Þ": 154,
      "ß": 155,
      "à": 156,
      "á": 157,
      "â": 158,
      "ã": 159,
      "ä": 160,
      "å": 161,
      "æ": 162,
      "ç": 163,
      "è": 164,
      "é": 165,
      "ê": 166,
      "ë": 167,
      "ì": 168,
      "í": 169,
      "î": 170,
      "ï": 171,
      "ð": 172,
      "ñ": 173,
      "ò": 174,
      "ó": 175,
      "ô": 176,
      "õ": 177,
      "ö": 178,
      "÷": 179,
      "ø": 180,
      "ù": 181,
      "ú": 182,
      "û": 183,
      "ü": 184,
      "ý": 185,
      "þ": 186,
      "ÿ": 187,
      "Ā": 188,
      "ā": 189,
      "Ă": 190,
      "ă": 191,
      "Ą": 192,
      "ą": 193,
      "Ć": 194,
      "ć": 195,
      "Ĉ": 196,
      "ĉ": 197,
      "Ċ": 198,
      "ċ": 199,
      "Č": 200,
      "č": 201,
      "Ď": 202,
      "ď": 203,
      "Đ": 204,
      "đ": 205,
      "Ē": 206,
      "ē": 207,
      "Ĕ": 208,
      "ĕ": 209,
      "Ė": 210,
      "ė": 211,
      "Ę": 212,
      "ę": 213,
      "Ě": 214,
      "ě": 215,
      "Ĝ": 216,
      "ĝ": 217,
      "Ğ": 218,
      "ğ": 219,
      "Ġ": 220,
      "ġ": 221,
      "Ģ": 222,
      "ģ": 223,
      "Ĥ": 224,
      "ĥ": 225,
      "Ħ": 226,
      "ħ": 227,
      "Ĩ": 228,
      "ĩ": 229,
      "Ī": 230,
      "ī": 231,
      "Ĭ": 232,
      "ĭ": 233,
      "Į": 234,
      "į": 235,
      "İ": 236,
      "ı": 237,
      "Ĳ": 238,
      "ĳ": 239,
      "Ĵ": 240,
      "ĵ": 241,
      "Ķ": 242,
      "ķ": 243,
      "ĸ": 244,
      "Ĺ": 245,
      "ĺ": 246,
      "Ļ": 247,
      "ļ": 248,
      "Ľ": 249,
      "ľ": 250,
      "Ŀ": 251,
      "ŀ": 252,
      "Ł": 253,
      "ł": 254,
      "Ń": 255,
      "áĪ": 256,
      "Ġá": 257,
      "áī": 258,
      "áĬ": 259,
      "áĭ": 260,
      "an": 261,
      "ar": 262,
      "in": 263,
      "áĮ": 264,
      "Ġáĭ": 265,
      "ĠáĬ": 266,
      "ĠáĪ": 267,
      "wa": 268,
      "áį": 269,
      "Ġk": 270,
      "Ġt": 271,
      "Ġn": 272,
      "áĬķ": 273,
      "Ġa": 274,
      "Ġd": 275,
      "Ġáī": 276,
      "Ġm": 277,
      "Ġs": 278,
      "ya": 279,
      "»į": 280,
      "ÃŃ": 281,
      "ĠÃ": 282,
      "áīµ": 283,
      "á»į": 284,
      "on": 285,
      "er": 286,
      "áĪŃ": 287,
      "li": 288,
      "º¹": 289,
      "en": 290,
      "at": 291,
      "un": 292,
      "áº¹": 293,
      "Ġáĭ¨": 294,
      "ka": 295,
      "áĭį": 296,
      "Ġl": 297,
      "Ġya": 298,
      "Ġda": 299,
      "łáĪ": 300,
      "am": 301,
      "es": 302,
      "Ġwa": 303,
      "ĠA": 304,
      "áĪĿ": 305,
      "áĪį": 306,
      "is": 307,
      "as": 308,
      "áĪµ": 309,
      "áº¹Ì": 310,
      "Ã©": 311,
      "or": 312,
      "Ġb": 313,
      "he": 314,
      "Ãł": 315,
      "Ġ(": 316,
      "ĠM": 317,
      "Ġ1": 318,
      "Ġc": 319,
      "Ã¡": 320,
      "Ġo": 321,
      "it": 322,
      "Ġna": 323,
      "Ġp": 324,
      "ha": 325,
      "hi": 326,
      "Ġf": 327,
      "áį¢": 328,
      "á»įÌ": 329,
      "al": 330,
      "áĬĵ": 331,
      "Ġáīł": 332,
      "áī°": 333,
      "Ġg": 334,
      "áĭ«": 335,
      "áĪĪ": 336,
      "Ãº": 337,
      "ĠK": 338,
      "ur": 339,
      "il": 340,
      "ĠáĮ": 341,
      "Ġw": 342,
      "Ġku": 343,
      "áĭŃ": 344,
      "áĪĺ": 345,
      "Ã¬": 346,
      "ĠáĬ¥": 347,
      "ba": 348,
      "ir": 349,
      "ik": 350,
      "ĠS": 351,
      "áī½": 352,
      "Ġr": 353,
      "ti": 354,
      "Ġta": 355,
      "Ġj": 356,
      "ma": 357,
      "da": 358,
      "ĠáĬł": 359,
      "ĠN": 360,
      "us": 361,
      "ia": 362,
      "ĠÃł": 363,
      "áĭ°": 364,
      "áĬĲ": 365,
      "le": 366,
      "ta": 367,
      "ĠB": 368,
      "áī¥": 369,
      "ĠI": 370,
      "áĪ¨": 371,
      "áĮĪ": 372,
      "áĭµ": 373,
      "áº¹ÌĢ": 374,
      "ati": 375,
      "áº¹Ìģ": 376,
      "Ġ2": 377,
      "á»įÌģ": 378,
      "áĪĭ": 379,
      "ĠáĬĲ": 380,
      "áĮį": 381,
      "Ġni": 382,
      "Ġ19": 383,
      "ĠáĪĺ": 384,
      "ĠT": 385,
      "Ġma": 386,
      "Ã¨": 387,
      "to": 388,
      "ara": 389,
      "ana": 390,
      "áīł": 391,
      "za": 392,
      "¹£": 393,
      "áĪ«": 394,
      "Ã³": 395,
      "áī³": 396,
      "ĠáĬ¨": 397,
      "Ġi": 398,
      "gb": 399,
      "ĠC": 400,
      "om": 401,
      "la": 402,
      "ed": 403,
      "áĬŃ": 404,
      "ĠnÃŃ": 405,
      "á»įn": 406,
      "and": 407,
      "Ġy": 408,
      "Ġh": 409,
      "ga": 410,
      "el": 411,
      "ĠW": 412,
      "áĪĽ": 413,
      "Ġthe": 414,
      "áĪ³": 415,
      "áī£": 416,
      "ĠP": 417,
      "di": 418,
      "Ġin": 419,
      "um": 420,
      "Ġáį": 421,
      "ĠÃ¬": 422,
      "ani": 423,
      "Ġ20": 424,
      "wá»įn": 425,
      "em": 426,
      "Ġla": 427,
      "ĠO": 428,
      "Ã¹": 429,
      "sa": 430,
      "áĬĽ": 431,
      "Ġáī°": 432,
      "ĠD": 433,
      "ĠG": 434,
      "Ġá»į": 435,
      "ut": 436,
      "ic": 437,
      "áĪª": 438,
      "Ġof": 439,
      "ĠáĭŃ": 440,
      "ĠJ": 441,
      "ke": 442,
      "Ã²": 443,
      "ĠáīłáĪ": 444,
      "ing": 445,
      "ĠL": 446,
      "Ġáĭ¨áĪ": 447,
      "âĢ": 448,
      "et": 449,
      "á¹£": 450,
      "ĠF": 451,
      "ĠáĬłáĪ": 452,
      "ent": 453,
      "áĪħ": 454,
      "áĮ¥": 455,
      "áĬ¨": 456,
      "áį£": 457,
      "Ġde": 458,
      "ĠáĪĿ": 459,
      "ol": 460,
      "ab": 461,
      "ĠR": 462,
      "ĠH": 463,
      "Ġáĭ¨áĬ": 464,
      "si": 465,
      "Ġha": 466,
      "uk": 467,
      "ĠáĭĪ": 468,
      "áį¡": 469,
      "Ãºn": 470,
      "ari": 471,
      "Ġ-": 472,
      "ĠtÃŃ": 473,
      "áįį": 474,
      "á»įÌĢ": 475,
      "áĭ³": 476,
      "ĠáĬĲáĭį": 477,
      "áīĢ": 478,
      "ay": 479,
      "áĭ¨": 480,
      "ĠU": 481,
      "ch": 482,
      "ce": 483,
      "ro": 484,
      "ul": 485,
      "ĠáĬ¥áĬķ": 486,
      "áĭĪ": 487,
      "ra": 488,
      "ĠE": 489,
      "ri": 490,
      "ji": 491,
      "re": 492,
      "iya": 493,
      "áĪ°": 494,
      "áīħ": 495,
      "áĪĮ": 496,
      "áĬ«": 497,
      "Ġti": 498,
      "uwa": 499,
      "are": 500,
      "ama": 501,
      "ÆĻ": 502,
      "os": 503,
      "ĠáĪĪ": 504,
      "Ġz": 505,
      "Ġv": 506,
      "im": 507,
      "ko": 508,
      "áĬł": 509,
      "ye": 510,
      "bi": 511,
      "ci": 512,
      "qu": 513,
      "ĠáĬĲáĭįáį¢": 514,
      "de": 515,
      "Ġto": 516,
      "ĠáĪµ": 517,
      "áī¸": 518,
      "Ġáĭ«": 519,
      "Ġza": 520,
      "00": 521,
      "ĠÃ³": 522,
      "áĪī": 523,
      "Ġkuma": 524,
      "ata": 525,
      "Ġáĭĵ": 526,
      "Ġkwa": 527,
      "ini": 528,
      "if": 529,
      "hek": 530,
      "Ġba": 531,
      "yar": 532,
      "pa": 533,
      "áīłáĪ": 534,
      "áĭĬ": 535,
      "ina": 536,
      "áĭĭ": 537,
      "áĪ®": 538,
      "áī±": 539,
      "İáī½": 540,
      "Ġor": 541,
      "Ġshek": 542,
      "áī¸áĭį": 543,
      "iki": 544,
      "e,": 545,
      "Ġand": 546,
      "áįĪ": 547,
      "Ġáĭ¨áĪļ": 548,
      "19": 549,
      "ad": 550,
      "áĭĿ": 551,
      "ĠÆĻ": 552,
      "ig": 553,
      "ot": 554,
      "ali": 555,
      "áĮ£": 556,
      "áĪįáį¢": 557,
      "áĪĨ": 558,
      "ĠáĪĽ": 559,
      "ikin": 560,
      "rÃŃ": 561,
      "áĭļ": 562,
      "áī¶": 563,
      "wan": 564,
      "ation": 565,
      "áĪ³áĪĮ": 566,
      "áĮł": 567,
      "yo": 568,
      "ki": 569,
      "áĮī": 570,
      "zi": 571,
      "Ġne": 572,
      "ang": 573,
      "Ġil": 574,
      "ĠÃĢ": 575,
      "bu": 576,
      "ĠY": 577,
      "láº¹ÌĢ": 578,
      "áĮĭ": 579,
      "ant": 580,
      "ÌĢ": 581,
      "ĠáīłáĬ": 582,
      "áĭ®": 583,
      "toka": 584,
      "Ãłn": 585,
      "ann": 586,
      "Ġsu": 587,
      "Ġsa": 588,
      "Ġ201": 589,
      "Ġu": 590,
      "ĠáĪĿáĪ³áĪĮ": 591,
      "ĠÃłwá»įn": 592,
      "Ġe": 593,
      "hin": 594,
      "Ġkas": 595,
      "Ġ\"": 596,
      "Ġshi": 597,
      "bo": 598,
      "ĠáĪ²": 599,
      "fa": 600,
      "op": 601,
      "áĭ²": 602,
      "har": 603,
      "Ġal": 604,
      "Ġkati": 605,
      "ung": 606,
      "áĬķáĭµ": 607,
      "Ġáº¹": 608,
      "og": 609,
      "ĠáĮį": 610,
      "Ġáīµ": 611,
      "st": 612,
      "jer": 613,
      "ag": 614,
      "ec": 615,
      "áĭİáī½": 616,
      "est": 617,
      "Ġáĭĺ": 618,
      "war": 619,
      "Ġle": 620,
      ").": 621,
      "áĪ¥": 622,
      "áīĥ": 623,
      "una": 624,
      "áĬĸ": 625,
      "áĪŀ": 626,
      "áĭĺ": 627,
      "Ġcikin": 628,
      "ist": 629,
      "Ġá¹£": 630,
      "ug": 631,
      "waka": 632,
      "Ġáĭ¨áī°": 633,
      "ĠâĢ": 634,
      "ili": 635,
      "Ġka": 636,
      "ĠáĬ¥áĬĵ": 637,
      "ers": 638,
      "Ġwas": 639,
      "Ġali": 640,
      "áĬĲáīµ": 641,
      "ĠáĪ°": 642,
      "id": 643,
      "Ġam": 644,
      "anda": 645,
      "Ġáī¥": 646,
      "ja": 647,
      "áĬ¥": 648,
      "á»įÌģn": 649,
      "áĪĬ": 650,
      "Ġga": 651,
      "áĪ©": 652,
      "ĠNa": 653,
      "Ġen": 654,
      "Ġdaga": 655,
      "Ġáĭį": 656,
      "áĪĻ": 657,
      "ita": 658,
      "ĠMa": 659,
      "Ġhi": 660,
      "kan": 661,
      "yin": 662,
      "we": 663,
      "áĬķáĮį": 664,
      "ĠÃ¨": 665,
      "fu": 666,
      "me": 667,
      "asa": 668,
      "ĠÃłti": 669,
      "Ġ200": 670,
      "ĠáīĢ": 671,
      "ĠAf": 672,
      "Ġkatika": 673,
      "ban": 674,
      "kin": 675,
      "ni": 676,
      "áīłáĪŃ": 677,
      "),": 678,
      "ĭáĭŃ": 679,
      "ĠV": 680,
      "Ġáĭ°": 681,
      "Ġkan": 682,
      "ĠÃĮ": 683,
      "ere": 684,
      "hu": 685,
      "ĠáĬ¥áĬķáĭ°": 686,
      "Ġkar": 687,
      "rin": 688,
      "cin": 689,
      "dÃºn": 690,
      "áĭĽ": 691,
      "du": 692,
      "Ġáĭ¨áĬłáĪ": 693,
      "Ġjáº¹Ìģ": 694,
      "zo": 695,
      "jeriya": 696,
      "Ġko": 697,
      "áĪļ": 698,
      "lÃº": 699,
      "Ã¬n": 700,
      "ho": 701,
      "ĠÃĢwá»įn": 702,
      "Ġmwaka": 703,
      "ÉĹ": 704,
      "ĠáĬŃ": 705,
      "ĠsÃŃ": 706,
      "ÅĦ": 707,
      "ku": 708,
      "e.": 709,
      "chi": 710,
      "fi": 711,
      "áĪİ": 712,
      "Ġet": 713,
      "ans": 714,
      "Ġbi": 715,
      "ĠlÃ¡": 716,
      "po": 717,
      "áĮħ": 718,
      "áī²": 719,
      "Ġshekar": 720,
      "áī¢": 721,
      "ne": 722,
      "ĠAm": 723,
      "ĠÃ²": 724,
      "áĬĳ": 725,
      "Ã¹n": 726,
      "Ġun": 727,
      "ter": 728,
      "lo": 729,
      "Ġon": 730,
      "áįĭ": 731,
      "ĠáĪį": 732,
      "Ġce": 733,
      "ĠIn": 734,
      "ĠÂ": 735,
      "Ġ18": 736,
      "Ġan": 737,
      "Ġmat": 738,
      "áĬĿ": 739,
      "áĪ±": 740,
      "th": 741,
      "Ġje": 742,
      "je": 743,
      "kuwa": 744,
      "áį¤": 745,
      "te": 746,
      "áĪĨáĬķ": 747,
      "Ġmas": 748,
      "áĪ½": 749,
      "ob": 750,
      "ong": 751,
      "áĮİ": 752,
      "Ġ3": 753,
      "ĠáĪĭáĭŃ": 754,
      "ÃŃn": 755,
      "ila": 756,
      "Ġili": 757,
      "ov": 758,
      "áĭ«áĬķ": 759,
      "ĠÅĦ": 760,
      "ĠAl": 761,
      "Ġ.": 762,
      "áĪĪáĭį": 763,
      "ĠAn": 764,
      "Ġar": 765,
      "Ġáī³": 766,
      "Ġáĭµ": 767,
      "20": 768,
      "Ġráº¹ÌĢ": 769,
      "áĪŃáĬĽ": 770,
      "Ġá»įdÃºn": 771,
      "yan": 772,
      "áĭ±": 773,
      "áĪģ": 774,
      "Ġáī£": 775,
      "ine": 776,
      "wo": 777,
      "Ġis": 778,
      "Ġol": 779,
      "Ġli": 780,
      "alio": 781,
      "dÃ¨": 782,
      "ika": 783,
      "Ġke": 784,
      "Ġre": 785,
      "won": 786,
      "Ġwat": 787,
      "our": 788,
      "Ġas": 789,
      "áĭļáĪħ": 790,
      "¢áīµ": 791,
      "âĢĻ": 792,
      "amu": 793,
      "fin": 794,
      "Ġyi": 795,
      "ile": 796,
      "ĽáĪŃáĬĽ": 797,
      "¢áīµáĭ®": 798,
      "Ġ199": 799,
      "áĮµ": 800,
      "áĬĴ": 801,
      "áĭķ": 802,
      "Ġse": 803,
      "Ġati": 804,
      "gbÃł": 805,
      "ber": 806,
      "áīĨ": 807,
      "bÃŃ": 808,
      "áĮĢ": 809,
      "ami": 810,
      "ĠáīłáĪĺ": 811,
      "ud": 812,
      "¢áīµáĭ®áĮµ": 813,
      "od": 814,
      "ak": 815,
      "Ġshekara": 816,
      "Ġcha": 817,
      "rÃ©": 818,
      "Ġdes": 819,
      "Ġlo": 820,
      "ly": 821,
      "áĪĪáīµ": 822,
      "ge": 823,
      "lÃ©": 824,
      "Ġshekarar": 825,
      "áĮ½": 826,
      "áĮĪáĪŃ": 827,
      "ance": 828,
      "áĪ¬": 829,
      "anz": 830,
      "Ġaka": 831,
      "tion": 832,
      "ris": 833,
      "ĠbÃŃ": 834,
      "ada": 835,
      "Ġmai": 836,
      "iti": 837,
      "áī¡": 838,
      "tokasi": 839,
      "áĪµáĮ¥": 840,
      "jo": 841,
      "Ġwá»įÌģn": 842,
      "¢áīµáĭ®áĮµáĭ«": 843,
      "ĠWalio": 844,
      "Ġáĭ¨áĬłáĪĽáĪŃáĬĽ": 845,
      "ĠNajeriya": 846,
      "áĪ¨áīµ": 847,
      "Ġfor": 848,
      "asar": 849,
      "Ġl'": 850,
      "liwa": 851,
      "s,": 852,
      "Ġcon": 853,
      "Ġdu": 854,
      "res": 855,
      "áīłáīµ": 856,
      "ĠáĬĲáīłáĪŃ": 857,
      "áĭľ": 858,
      "yi": 859,
      "ĠáĮ¥": 860,
      "enye": 861,
      "Ã¡Ãł": 862,
      "ká»įÌģ": 863,
      "áĪĺáĬķ": 864,
      "Ġau": 865,
      "Ġth": 866,
      "ĠÂ«": 867,
      "Ġkutoka": 868,
      "áĪ»": 869,
      "Ġsi": 870,
      "Ġpar": 871,
      "Ġqu": 872,
      "ĠáĭĪáĭ°": 873,
      "ap": 874,
      "ĠáĪĨ": 875,
      "ĠItokasi": 876,
      "ĠáĮĪ": 877,
      "ve": 878,
      "áĪµáīµ": 879,
      "ĠáĬ¨áī°": 880,
      "so": 881,
      "arin": 882,
      "má»į": 883,
      "»Į": 884,
      "áī»": 885,
      "isi": 886,
      "ub": 887,
      "do": 888,
      "far": 889,
      "ĠáĬķ": 890,
      "oni": 891,
      "ah": 892,
      "áĭ©": 893,
      "18": 894,
      "gi": 895,
      "ĠfÃºn": 896,
      "ano": 897,
      "ihar": 898,
      "Ġfi": 899,
      "mu": 900,
      "Ġ:": 901,
      "Ġso": 902,
      "kar": 903,
      "mi": 904,
      "áĭĵ": 905,
      "anar": 906,
      "Ġ198": 907,
      "Ġ|": 908,
      "áįĬ": 909,
      "Ġki": 910,
      "áĭįáĬķ": 911,
      "Ġá¹£e": 912,
      "áī¶áī½": 913,
      "Ġwanda": 914,
      "ĠZ": 915,
      "ĠtÃ³": 916,
      "ĠnÃŃn": 917,
      "ĠáĬ¥áĪµ": 918,
      "ĠorÃŃ": 919,
      "Â»": 920,
      "Ã¡n": 921,
      "sÃŃ": 922,
      "Ġcom": 923,
      "ĠáĭįáĪµáĮ¥": 924,
      "pe": 925,
      "ĠáĬłáĭŃ": 926,
      "ayan": 927,
      "be": 928,
      "áĪŃáĮī": 929,
      "ric": 930,
      "já»įÌģ": 931,
      "mo": 932,
      "iri": 933,
      "já»į": 934,
      "se": 935,
      "Ġ'": 936,
      "Ġles": 937,
      "Ĭáĭľ": 938,
      "man": 939,
      "ate": 940,
      "Ġhu": 941,
      "áĮłáĪ": 942,
      "áĪªáĭ«": 943,
      "Ġ197": 944,
      "áĬĶ": 945,
      "Ġsun": 946,
      "Ġáº¹ÌĢ": 947,
      "amar": 948,
      "jÃº": 949,
      "u,": 950,
      "áīĭ": 951,
      "ĠáĪģ": 952,
      "áĭ¶": 953,
      "Ġ196": 954,
      "áĪ²": 955,
      "áĬĽáĭį": 956,
      "áĬłáĪ": 957,
      "Ġdi": 958,
      "ane": 959,
      "'a": 960,
      "ĠnÃ¡Ãł": 961,
      "Ġmw": 962,
      "áī¦": 963,
      "ala": 964,
      "áĭŃáĪĿ": 965,
      "Ġ4": 966,
      "Ġpro": 967,
      "ity": 968,
      "iyar": 969,
      "ham": 970,
      "áĪŃáĪµ": 971,
      "ĠWa": 972,
      "Ġwali": 973,
      "áĬ¤": 974,
      "asi": 975,
      "áĪľ": 976,
      "ct": 977,
      "isha": 978,
      "Ġáīłáī°": 979,
      "annan": 980,
      "áĪĲ": 981,
      "áĭĻ": 982,
      "s.": 983,
      "ĠThe": 984,
      "áĬ®": 985,
      "ou": 986,
      "ĠâĢĵ": 987,
      "Ma": 988,
      "á¹£áº¹Ìģ": 989,
      "áī¤": 990,
      "Ġáīħ": 991,
      "jÃŃ": 992,
      "ĠnÃŃnÃº": 993,
      "ÃĢ": 994,
      "ep": 995,
      "erÃ©": 996,
      "ĠáĬłáĪµ": 997,
      "Ġzuwa": 998,
      "ĠáĪ¥": 999,
      "An": 1000,
      "und": 1001,
      "Ġáī¤": 1002,
      "ĠáĬ«": 1003,
      "usu": 1004,
      "Ġtare": 1005,
      "ort": 1006,
      "ĠáīµáĪŃáĮī": 1007,
      "Ġáĭ¨áĪĺ": 1008,
      "ori": 1009,
      "áĬ©": 1010,
      "ania": 1011,
      "Ġfar": 1012,
      "sayin": 1013,
      "ĠáĮįáĬķ": 1014,
      "Ġgb": 1015,
      "áĪªáĬŃ": 1016,
      "Ġkama": 1017,
      "Ġá»įÌĢ": 1018,
      "Ġ5": 1019,
      "ĠáĬ¥áĬķáĭ²": 1020,
      "Ġá»įmá»į": 1021,
      "ĠKi": 1022,
      "oma": 1023,
      "ĠSt": 1024,
      "ĠÃ©": 1025,
      "obel": 1026,
      "zaliwa": 1027,
      "hen": 1028,
      "ĠáĮĭ": 1029,
      "ary": 1030,
      "Ġáĭ¨áĬł": 1031,
      "Ġdon": 1032,
      "ĠAr": 1033,
      "ĠNobel": 1034,
      "Ġá»Į": 1035,
      "áīģ": 1036,
      "áĮ¨": 1037,
      "200": 1038,
      "art": 1039,
      "ement": 1040,
      "ĠlÃ¡ti": 1041,
      "Ġmut": 1042,
      "áī¹": 1043,
      "uni": 1044,
      "u.": 1045,
      "rÃŃÃł": 1046,
      "ira": 1047,
      "áīłáĪ¨": 1048,
      "shin": 1049,
      "ĠáĪ²áĪĨáĬķ": 1050,
      "o,": 1051,
      "ll": 1052,
      "áį¡áį¡": 1053,
      "Ġd'": 1054,
      "ĭáĪĭ": 1055,
      "ÃłÃ¬": 1056,
      "Ġyan": 1057,
      "ire": 1058,
      "rika": 1059,
      "ru": 1060,
      "Ġgba": 1061,
      "áĮĥ": 1062,
      "ĠlÃ³": 1063,
      "áĬŃáĪį": 1064,
      "Ġ(19": 1065,
      "The": 1066,
      "áĪĥ": 1067,
      "»áį": 1068,
      "ment": 1069,
      "lis": 1070,
      "ĠÉĹ": 1071,
      "ust": 1072,
      "ĠáīµáĪŃáĮīáĪĻ": 1073,
      "ĠáĬĲáīłáĪŃáį¢": 1074,
      "les": 1075,
      "Ġmatsayin": 1076,
      "bar": 1077,
      "ver": 1078,
      "ĠáīłáĬł": 1079,
      "ĠáĬłáĬķ": 1080,
      "kwa": 1081,
      "Ã¬ÃŃ": 1082,
      "áĪ´": 1083,
      "au": 1084,
      "Ġhaif": 1085,
      ".áĪĿ": 1086,
      "que": 1087,
      "ĠdÃ©": 1088,
      "ká»į": 1089,
      "Ġnchi": 1090,
      "jÃŃrÃŃÃł": 1091,
      "ran": 1092,
      "ĠsÃ¬": 1093,
      "Ġkuwa": 1094,
      "ith": 1095,
      "amo": 1096,
      "ĠNÃłÃ¬": 1097,
      "ĠáĪ³": 1098,
      "²áį": 1099,
      "áī´": 1100,
      "'s": 1101,
      "lia": 1102,
      "áĮŃ": 1103,
      "ĠáĪĺáĬķáĮį": 1104,
      "gba": 1105,
      "Ġwatan": 1106,
      "ĠNÃłÃ¬jÃŃrÃŃÃł": 1107,
      "su": 1108,
      "uri": 1109,
      "ĠáĮĬáĭľ": 1110,
      "Ġbe": 1111,
      "ĠáīĢáĬķ": 1112,
      "ĠáĭĪáĭŃáĪĿ": 1113,
      "Ġáĭĭ": 1114,
      "Ġsuka": 1115,
      "Ġyake": 1116,
      "arta": 1117,
      "áī³áīµ": 1118,
      "Ġyana": 1119,
      "Ġmu": 1120,
      "uki": 1121,
      "Ġpe": 1122,
      "Ġáĭĵ.áĪĿ": 1123,
      "ĠLe": 1124,
      "Ġhar": 1125,
      "ĠPa": 1126,
      "risto": 1127,
      "ish": 1128,
      "Ġmo": 1129,
      "ure": 1130,
      "áĪªáĬ«": 1131,
      "kani": 1132,
      "uku": 1133,
      "Ġ6": 1134,
      "ĠMare": 1135,
      "iger": 1136,
      "ck": 1137,
      "ij": 1138,
      "gbe": 1139,
      "end": 1140,
      "ĠTu": 1141,
      "ew": 1142,
      "Ġest": 1143,
      "Ba": 1144,
      "Ġ195": 1145,
      "Ġbir": 1146,
      "rom": 1147,
      "Ġpl": 1148,
      "Ġsha": 1149,
      "ĠáĪµáĪĪ": 1150,
      "ĠáĬĵ": 1151,
      "kÃł": 1152,
      "ĠáĬłáĪĪ": 1153,
      "fan": 1154,
      "áĪ¨áīµáĬĵ": 1155,
      "ĠáĪĬ": 1156,
      "Ġra": 1157,
      "áĮ»": 1158,
      "ura": 1159,
      "ĠMat": 1160,
      "Ġáī¢": 1161,
      "ĠáįĪ": 1162,
      "Ġat": 1163,
      "ĠáĬ¥áĪµáĬ¨": 1164,
      "á¹£Ã¹": 1165,
      "Ã¨dÃ¨": 1166,
      "Ġwasan": 1167,
      "es,": 1168,
      "ida": 1169,
      "áĪĪáĪĿ": 1170,
      "yu": 1171,
      "o.": 1172,
      "fariki": 1173,
      "ĠHa": 1174,
      "ĠáīłáĬĭáĪĭ": 1175,
      "ĠáĬķáĮī": 1176,
      "ele": 1177,
      "ĠÆĻasar": 1178,
      "Ġvya": 1179,
      "angu": 1180,
      "Ġawon": 1181,
      "Ġá»įjá»įÌģ": 1182,
      "pin": 1183,
      "ond": 1184,
      "ĠorÃŃláº¹ÌĢ": 1185,
      "áĪ¥áīµ": 1186,
      "bin": 1187,
      "ale": 1188,
      "ow": 1189,
      "áį»áį": 1190,
      "na": 1191,
      "ĠáĭŃáĪħ": 1192,
      "ff": 1193,
      "Ġby": 1194,
      "iv": 1195,
      "ht": 1196,
      "lÃ¡": 1197,
      "i,": 1198,
      "yÃłn": 1199,
      "ĠáĭĺáĪĺáĬķ": 1200,
      "Ġmata": 1201,
      "ede": 1202,
      "áĪ¨áĪµ": 1203,
      "Ġ9": 1204,
      "rit": 1205,
      "ĠilÃ©": 1206,
      "áĬķáĪĿ": 1207,
      "-Ã¨dÃ¨": 1208,
      "á¹£Ã¨": 1209,
      "Ãĵ": 1210,
      "ia.": 1211,
      "gun": 1212,
      "tic": 1213,
      "ĠAd": 1214,
      "huga": 1215,
      "pÃŃn": 1216,
      "ene": 1217,
      "ĠáĬŃáįį": 1218,
      "áĪ®áī½": 1219,
      "Ġáī°áĪ¨áīµáĬĵ": 1220,
      "áĪķ": 1221,
      "pá»įÌĢ": 1222,
      "áĮ«": 1223,
      "Ġwá»įn": 1224,
      "ĠáĬ¨áī°áĪĽ": 1225,
      "Ġkw": 1226,
      "Ġst": 1227,
      "Ġch": 1228,
      "kati": 1229,
      "gu": 1230,
      "ĠMar": 1231,
      "Ta": 1232,
      "jÃ¬": 1233,
      "anaz": 1234,
      "ord": 1235,
      "ĠTuzo": 1236,
      "oh": 1237,
      "ju": 1238,
      "lu": 1239,
      "isa": 1240,
      "ishi": 1241,
      "Ġad": 1242,
      "Ġ17": 1243,
      "Ġit": 1244,
      "up": 1245,
      "áĮĪáĬ": 1246,
      "áĭİ": 1247,
      "ĠNiger": 1248,
      "inu": 1249,
      "anazarta": 1250,
      "ĠCh": 1251,
      "Ġjihar": 1252,
      "ĠáĭĵáĪĺ": 1253,
      "ugha": 1254,
      "Ġáĭĵ.áĪĿ.": 1255,
      "Ġ7": 1256,
      "ore": 1257,
      "ĠÃ¬lÃº": 1258,
      "y,": 1259,
      "dun": 1260,
      "oli": 1261,
      "wam": 1262,
      "eb": 1263,
      "ĠMarekani": 1264,
      "Ġloka": 1265,
      "áĪŃáĭ«": 1266,
      "ame": 1267,
      "ĠáĪĪáĪĺ": 1268,
      "bÃ¡": 1269,
      "cc": 1270,
      "Ġfa": 1271,
      "áįĵ": 1272,
      "kÃ³": 1273,
      "Ġáĭķ": 1274,
      "áĮĢáĪĺ": 1275,
      "uniya": 1276,
      "Ġamba": 1277,
      "áī°áĬĽ": 1278,
      "ĠWaliozaliwa": 1279,
      "ĠKar": 1280,
      "Ġkasance": 1281,
      "ĠAfrika": 1282,
      "Ġhii": 1283,
      "Ġara": 1284,
      "ont": 1285,
      "kun": 1286,
      "ast": 1287,
      "áĭ´": 1288,
      "má»įÌĢ": 1289,
      "lim": 1290,
      "nin": 1291,
      "iku": 1292,
      "Ġ8": 1293,
      "Ġfun": 1294,
      "kana": 1295,
      "ĠWaliofariki": 1296,
      "yÃ©": 1297,
      "ola": 1298,
      "Ġawá»įn": 1299,
      "áĮįáĪŀ": 1300,
      "eng": 1301,
      "pÃŃnláº¹ÌĢ": 1302,
      "che": 1303,
      "áį¦": 1304,
      "wÃ©": 1305,
      "Ġtsa": 1306,
      "Ġáĭ«áĪį": 1307,
      "nÃ¬": 1308,
      "ie": 1309,
      "000": 1310,
      "hari": 1311,
      "pp": 1312,
      "Ġex": 1313,
      "her": 1314,
      "áĭµáĪŃ": 1315,
      "ĠarÃ¡": 1316,
      "Ġ194": 1317,
      "ukum": 1318,
      "16": 1319,
      "i.": 1320,
      "ĠáĮĢ": 1321,
      "áĪ¶": 1322,
      "ĠáĬĲáĮĪ": 1323,
      "Ġpia": 1324,
      "Ġáįį": 1325,
      "yÃŃ": 1326,
      "..": 1327,
      "15": 1328,
      "gbo": 1329,
      "ĠáĬ¢": 1330,
      "ĠNi": 1331,
      "on,": 1332,
      "áī³áĭĪ": 1333,
      "a,": 1334,
      "Ġkam": 1335,
      "Baada": 1336,
      "Ġáīģ": 1337,
      "Ġfarko": 1338,
      "Ġts": 1339,
      "shindi": 1340,
      "ote": 1341,
      "áīµáĬķ": 1342,
      "ry": 1343,
      "ĠáĪķ": 1344,
      "Ġlati": 1345,
      "ĠáĮĭáĪŃ": 1346,
      "ok": 1347,
      "ĠáīłáĪĽ": 1348,
      "Ġwani": 1349,
      "emba": 1350,
      "Ġwith": 1351,
      "shi": 1352,
      "abban": 1353,
      "áĬŃáĪįáīł": 1354,
      "Ġáį¡": 1355,
      "Ġ,": 1356,
      "Ġci": 1357,
      "vers": 1358,
      "áĪīáį¢": 1359,
      "Ġlá»į": 1360,
      "Ġdan": 1361,
      "áīĤ": 1362,
      "ĠáĭĵáĬŃáĪįáīł": 1363,
      "áĪİáī½": 1364,
      "anu": 1365,
      "áĮ¡": 1366,
      "áĭ°áĪ¨": 1367,
      "rÃ¹n": 1368,
      "ard": 1369,
      "17": 1370,
      "gbÃ©": 1371,
      "Ġ15": 1372,
      "ĠáĪļ": 1373,
      "ĠManazarta": 1374,
      "bwa": 1375,
      "¦áĪŃ": 1376,
      "Ġáĭ°áĮįáĪŀ": 1377,
      "ern": 1378,
      "ĠerÃ©": 1379,
      "Ġhe": 1380,
      "Ġranar": 1381,
      "Ġtana": 1382,
      "ĠáĬłáĬķáĭµ": 1383,
      "ĠwÃł": 1384,
      "Ġfrom": 1385,
      "ÃĮ": 1386,
      "anan": 1387,
      "áĭ°áĪŃ": 1388,
      "ence": 1389,
      "Ġ16": 1390,
      "ĠáĬłáĪį": 1391,
      "ĠSo": 1392,
      "ĠáĭĵáĬŃáĪįáīł.": 1393,
      "mar": 1394,
      "Ġile": 1395,
      "áī°áĪ¨": 1396,
      "omin": 1397,
      "ect": 1398,
      "erika": 1399,
      "áĪĺáĬĲ": 1400,
      "Ġhaife": 1401,
      "emi": 1402,
      "ĠpÃ©": 1403,
      "áĮĪáĬĿ": 1404,
      "anzania": 1405,
      "yÃ¬n": 1406,
      "áĪŃáīµ": 1407,
      "llon": 1408,
      "iwa": 1409,
      "anta": 1410,
      "ia,": 1411,
      "ĠSa": 1412,
      "Ġare": 1413,
      "ĠRa": 1414,
      "Ġiláº¹ÌĢ": 1415,
      "a.": 1416,
      "Ġmshindi": 1417,
      "ito": 1418,
      "áĬķáīµ": 1419,
      "ungiyar": 1420,
      "all": 1421,
      "0,": 1422,
      "ĠTa": 1423,
      "Ġáĭ¨áĬ¢áīµáĭ®áĮµáĭ«": 1424,
      "ĠáĪĺáĬķáĮįáĪ¥áīµ": 1425,
      "idi": 1426,
      "áĬķáĪµ": 1427,
      "ukio": 1428,
      "áĪĶ": 1429,
      "Ġju": 1430,
      "ĠYor": 1431,
      "ass": 1432,
      "rÃ²": 1433,
      "ansa": 1434,
      "iko": 1435,
      "Ġlokacin": 1436,
      "wÃ²": 1437,
      "ĠáĪĪáĪĽ": 1438,
      "Ġ(200": 1439,
      "tÃł": 1440,
      "ces": 1441,
      "Ġtun": 1442,
      "Ġbayan": 1443,
      "áīłáĪ©": 1444,
      "áĬķáīĭ": 1445,
      "Ġita": 1446,
      "Ġmasu": 1447,
      "14": 1448,
      "áī½áĬķ": 1449,
      "ĠÃ¨dÃ¨": 1450,
      "int": 1451,
      "atu": 1452,
      "gbÃ¨": 1453,
      "áĬª": 1454,
      "yya": 1455,
      "ĠorÃŃláº¹ÌĢ-Ã¨dÃ¨": 1456,
      "áĪĭáĪįáį¢": 1457,
      "ĠáĪĨáĬĲ": 1458,
      "Ġáĭ¨áĬĲ": 1459,
      "rÃŃkÃł": 1460,
      "ĠAs": 1461,
      "Ġny": 1462,
      "áĬĵáīµ": 1463,
      "Ġsuna": 1464,
      "uru": 1465,
      "ĠEn": 1466,
      "ĠkÃŃ": 1467,
      "istor": 1468,
      "Ġkasar": 1469,
      "ĠMus": 1470,
      "cha": 1471,
      "ĠáĪįáĮħ": 1472,
      "kala": 1473,
      "mp": 1474,
      "land": 1475,
      "ĠbÃ¡": 1476,
      "ational": 1477,
      "ens": 1478,
      "ons": 1479,
      "gbÃ¡": 1480,
      "10": 1481,
      "ĠáĭµáĪ¨áĪµ": 1482,
      "ĠolÃ³": 1483,
      "Ġdans": 1484,
      "ĠáĭĿ": 1485,
      "âĢĵ": 1486,
      "ction": 1487,
      "ĠPapa": 1488,
      "olog": 1489,
      "Ġhan": 1490,
      "-ede": 1491,
      "Ġzama": 1492,
      "lá»į": 1493,
      "ĠMatukio": 1494,
      "áĭļáĭ«": 1495,
      "ult": 1496,
      "ĠTanzania": 1497,
      "âĢĿ": 1498,
      "áįī": 1499,
      "ĠAb": 1500,
      "Ġfil": 1501,
      "NÃŃ": 1502,
      "Ġus": 1503,
      "cho": 1504,
      "ande": 1505,
      "ongo": 1506,
      "Ġáĭ«áĪįáī°": 1507,
      "Ġfara": 1508,
      "Ġ=": 1509,
      "ĠmÃ¡": 1510,
      "yáº¹": 1511,
      "kuu": 1512,
      "Ġ193": 1513,
      "In": 1514,
      "ember": 1515,
      "1,": 1516,
      "Ġbirnin": 1517,
      "Ġ/": 1518,
      "tÃ¬": 1519,
      "ill": 1520,
      "Ġalikuwa": 1521,
      "ĠUni": 1522,
      "áĭ°áī¥": 1523,
      "áī°áĪ¨áĮİ": 1524,
      "ÃĢwá»įn": 1525,
      "Ġoá¹£Ã¹": 1526,
      "ue": 1527,
      "Ġthat": 1528,
      "ĠyÃ¬ÃŃ": 1529,
      "ĠáĪħ": 1530,
      "ĠÃĴ": 1531,
      "áĮĬ": 1532,
      "ĠkÃ³": 1533,
      "ifa": 1534,
      "ĠLa": 1535,
      "ell": 1536,
      "ĠáĬ¤": 1537,
      "áī£áĪį": 1538,
      "iz": 1539,
      "Ġune": 1540,
      "Ġ(20": 1541,
      "tá»įÌģ": 1542,
      "Ġáĭ¨áĬ¥": 1543,
      "Ġáīĭ": 1544,
      "ĠáĪµáĪĿ": 1545,
      "ĠáĪĮ": 1546,
      "Ã©e": 1547,
      "lÃ³": 1548,
      "áĪ£": 1549,
      "áĪĨáĬĳ": 1550,
      "yÃ¨": 1551,
      "er,": 1552,
      "Ġ10": 1553,
      "áĪ¸": 1554,
      "ĠMu": 1555,
      "ĠáĬłáĮĪ": 1556,
      "ĠáīłáĬ¥": 1557,
      "hun": 1558,
      "ĠáĪĢ": 1559,
      "nÃ¬yÃłn": 1560,
      "hugaban": 1561,
      "ĠrÃ©": 1562,
      "Ġhadi": 1563,
      "²áį±": 1564,
      "12": 1565,
      "ite": 1566,
      "ereza": 1567,
      "utar": 1568,
      "áī¸áĭįáį¢": 1569,
      "Ġyawan": 1570,
      "ib": 1571,
      "áĬķáĭ«": 1572,
      "es.": 1573,
      "tern": 1574,
      "antar": 1575,
      "Ġkáº¹": 1576,
      "ĠáĪĽáĪĪáīµ": 1577,
      "Ġiya": 1578,
      "ingereza": 1579,
      "irka": 1580,
      "ĠâĢľ": 1581,
      "min": 1582,
      "Ġmji": 1583,
      "áĪĬáĭĿ": 1584,
      "ĠAg": 1585,
      "ĠIs": 1586,
      "º¸": 1587,
      "tÃ©": 1588,
      "áĪłáĪ": 1589,
      "ile-ede": 1590,
      "ĠáĪĥ": 1591,
      "ward": 1592,
      "áī¸áĭįáĬķ": 1593,
      "ld": 1594,
      "Ġkwenye": 1595,
      "ĠÆĻwa": 1596,
      "kÃ²": 1597,
      "ĠtÃºn": 1598,
      "ĠáĬķáĮīáĪ¥": 1599,
      "sÃ¬": 1600,
      "ĠMas": 1601,
      "din": 1602,
      "áĬ¨áī°": 1603,
      "áī±áĬķ": 1604,
      "ux": 1605,
      "vi": 1606,
      "áĪµáī°": 1607,
      "1.": 1608,
      "áĭįáĭ«áĬķ": 1609,
      "ĠÃ¨nÃ¬yÃłn": 1610,
      "áįķ": 1611,
      "oc": 1612,
      "ungu": 1613,
      "áī°áĪ¨áĮİáĪĺ": 1614,
      "Ġáĭ¨áĪļáĭ«": 1615,
      "ĠNijeriya": 1616,
      "Ġwon": 1617,
      "Ġninu": 1618,
      "anin": 1619,
      "ĠKristo": 1620,
      "áĪĢ": 1621,
      "uko": 1622,
      "áī£áī¢": 1623,
      "ĠKu": 1624,
      "13": 1625,
      "ĠáĬłáĪĺ": 1626,
      "kon": 1627,
      "lin": 1628,
      "Ġáī³áĪªáĬŃ": 1629,
      "Ġlugha": 1630,
      "Ġinah": 1631,
      "2,": 1632,
      "áĬķáĮ": 1633,
      "uwan": 1634,
      "ĠáīłáĬłáĪ": 1635,
      "Ġáĭ«áĪįáī°áī°áĪ¨áĮİáĪĺ": 1636,
      "²áį±áį»áį": 1637,
      "ĠAfric": 1638,
      "Ġ14": 1639,
      "ĠDa": 1640,
      "lic": 1641,
      "áĪĦ": 1642,
      "ous": 1643,
      "alla": 1644,
      "dÃŃ": 1645,
      "ĠáĮī": 1646,
      "dÃ©": 1647,
      "ĠáĪ°áĭį": 1648,
      "Ġman": 1649,
      "ĠNew": 1650,
      "áĭĽáīµ": 1651,
      "ĠáīĭáĬķáīĭ": 1652,
      "ĠkÃ²": 1653,
      "une": 1654,
      "Ġaiki": 1655,
      "Ġwana": 1656,
      "Makala": 1657,
      "wamn": 1658,
      "Ġinahusu": 1659,
      "atar": 1660,
      "fe": 1661,
      "áĪŀáī½": 1662,
      "Ġbu": 1663,
      "Ġmag": 1664,
      "Ġgab": 1665,
      "áĮ¥áĪŃ": 1666,
      "usi": 1667,
      "him": 1668,
      "rÃ¨": 1669,
      "\".": 1670,
      "ph": 1671,
      "ká»įÌĢ": 1672,
      "áĪ«áīµ": 1673,
      "dan": 1674,
      "sar": 1675,
      "uwar": 1676,
      "Ġáĭ³": 1677,
      "ĠKa": 1678,
      "Ġina": 1679,
      "jin": 1680,
      "kazi": 1681,
      "Ġáį£": 1682,
      "Ġana": 1683,
      "oro": 1684,
      "áī£áīµ": 1685,
      "áī¥áĪŃ": 1686,
      "ĠáĬłáĬ«": 1687,
      "áĪł": 1688,
      "Ġmi": 1689,
      "áº¹Ìģg": 1690,
      "áĪįáĬŃ": 1691,
      "dÃ¡": 1692,
      "amba": 1693,
      "Ġáĭ¨áĪĽ": 1694,
      "jen": 1695,
      "Ġhis": 1696,
      "jÃ¡": 1697,
      "/áĪĿ": 1698,
      "áĭĭáĪįáį¢": 1699,
      "Ġáī¥áĭĻ": 1700,
      "tÃ²": 1701,
      "hemu": 1702,
      "wÃ¡": 1703,
      "Ġcomp": 1704,
      "Ġinda": 1705,
      "one": 1706,
      "Ġgbo": 1707,
      "ĠÃ¬gbÃł": 1708,
      "wa,": 1709,
      "era": 1710,
      "elle": 1711,
      "Ġir": 1712,
      "Ġwata": 1713,
      "áĪĭáīµ": 1714,
      "Ġbay": 1715,
      "ĠáĭŃáĮĪ": 1716,
      "áĬ¨áĪį": 1717,
      "ĠAfirka": 1718,
      "ĠJam": 1719,
      "áĪĿáĪ®": 1720,
      "eri": 1721,
      "ĠKristo).": 1722,
      "Ġ(Baada": 1723,
      "Ġup": 1724,
      "ĠÃ¡": 1725,
      "ĠUnivers": 1726,
      "Ġqui": 1727,
      "Ġáĭĵ/áĪĿ": 1728,
      "Ġsur": 1729,
      "Ġ(A": 1730,
      "ren": 1731,
      "ĠáĪŀ": 1732,
      "Ġmili": 1733,
      "ars": 1734,
      "áº¹ÌĢr": 1735,
      "Ġkafa": 1736,
      "áĪĭáĪį": 1737,
      "ĠáĮł": 1738,
      "ĠBa": 1739,
      "áĪ³áĭŃ": 1740,
      "bali": 1741,
      "anga": 1742,
      "ĠGu": 1743,
      "Ġorile-ede": 1744,
      "Ġbiyu": 1745,
      "0.": 1746,
      "á»įÌĢn": 1747,
      "áº¹Ìģgáº¹Ìģ": 1748,
      "Ġme": 1749,
      "5,": 1750,
      "tÃŃ": 1751,
      "Ġpour": 1752,
      "ĠMe": 1753,
      "Ġav": 1754,
      "ĠÃ²á¹£Ã¨": 1755,
      "ise": 1756,
      "dÃ¬": 1757,
      "ĠáĪĻ": 1758,
      "ĠVi": 1759,
      "ĠdÃ¡": 1760,
      "anci": 1761,
      "áī³áĭĬ": 1762,
      "ins": 1763,
      "age": 1764,
      "ingi": 1765,
      "ĠÆĻa": 1766,
      "ash": 1767,
      "ĠáĬłáĪµáī°": 1768,
      "áĪĿáĪħ": 1769,
      "áĮĤ": 1770,
      "ĠáĮ½": 1771,
      "att": 1772,
      "uti": 1773,
      "ĠÆĻwallon": 1774,
      "ĠáĮİ": 1775,
      "ze": 1776,
      "ima": 1777,
      "ua": 1778,
      "ĠCom": 1779,
      "ost": 1780,
      "ogo": 1781,
      "ĠmÃ©": 1782,
      "ľáĪªáĬ«": 1783,
      "áĪĺáĪŃ": 1784,
      "ĠáĪ³áĭŃ": 1785,
      "pÃ©": 1786,
      "2.": 1787,
      "Ġpáº¹ÌĢ": 1788,
      "ĠáĬ¥áĬķáĭ³": 1789,
      "Ġkim": 1790,
      "an,": 1791,
      "Ġkwan": 1792,
      "áĬķáĭ³": 1793,
      "umani": 1794,
      "ĠáĭĭáĬĵ": 1795,
      "ĠáĬ®": 1796,
      "Ġjáº¹": 1797,
      "áĮĨ": 1798,
      "ĠáīłáĪļ": 1799,
      "áĭ²áĪµ": 1800,
      "gin": 1801,
      "itu": 1802,
      "ĠUniversity": 1803,
      "6,": 1804,
      "ĠII": 1805,
      "3,": 1806,
      ".áĬł": 1807,
      "Ġab": 1808,
      "amoja": 1809,
      "jerumani": 1810,
      "ĠáĪĺáĬķ": 1811,
      "áĮįáĪŃ": 1812,
      "Ġduniya": 1813,
      "ĠáĪĺáĪµ": 1814,
      "oun": 1815,
      "Ġib": 1816,
      "eo": 1817,
      "áī·": 1818,
      "Ġdake": 1819,
      "fal": 1820,
      "Ġsab": 1821,
      "6.": 1822,
      "ess": 1823,
      "isiwa": 1824,
      "ya.": 1825,
      "7,": 1826,
      "ĠAp": 1827,
      "áĮłáĪŃ": 1828,
      "for": 1829,
      "Ġáī¤áī°": 1830,
      "ĠÃĮpÃŃnláº¹ÌĢ": 1831,
      "Ġmus": 1832,
      "Ġáį¢": 1833,
      "áĭĿáī¥": 1834,
      "ĠRe": 1835,
      "Ġuli": 1836,
      "Éĵ": 1837,
      "fic": 1838,
      "kini": 1839,
      "engi": 1840,
      "áĪĭáĭŃ": 1841,
      "áĮĪáĬĺ": 1842,
      "1-": 1843,
      "uli": 1844,
      "vel": 1845,
      "ĠÆ": 1846,
      "Ġkasa": 1847,
      "Ġcewa": 1848,
      "Ġmar": 1849,
      "Ġkus": 1850,
      "Ġdo": 1851,
      "ĠJihar": 1852,
      "Ġiá¹£áº¹Ìģ": 1853,
      "ĠOk": 1854,
      "8,": 1855,
      "'ar": 1856,
      "áįĸ": 1857,
      "Ġ192": 1858,
      "Ġgu": 1859,
      "Ġsan": 1860,
      "já»įba": 1861,
      "yÃł": 1862,
      "katifu": 1863,
      "elu": 1864,
      "ohn": 1865,
      "7.": 1866,
      "Ġbabban": 1867,
      "ona": 1868,
      "ĠIng": 1869,
      "ĠBK": 1870,
      "ĠáĪģáĪī": 1871,
      "Ġzam": 1872,
      "Ġake": 1873,
      "alin": 1874,
      "vyo": 1875,
      "Ġwannan": 1876,
      "wá»įÌģ": 1877,
      "ors": 1878,
      "Ġáĭ¨áĪĨ": 1879,
      "Ġmwan": 1880,
      "5.": 1881,
      "ome": 1882,
      "Ġ(an": 1883,
      "Ġ12": 1884,
      "Ġwad": 1885,
      "à¤": 1886,
      "áĭī": 1887,
      "Ġwake": 1888,
      "Ġgáº¹Ìģgáº¹Ìģ": 1889,
      "uth": 1890,
      "4,": 1891,
      "jÃł": 1892,
      "iaka": 1893,
      "Ġyar": 1894,
      "atun": 1895,
      "wala": 1896,
      "emp": 1897,
      "ĠáįĬ": 1898,
      "illi": 1899,
      "ese": 1900,
      "áĬŀ": 1901,
      "--": 1902,
      "Ġmul": 1903,
      "3.": 1904,
      "Ã³n": 1905,
      "ĠIb": 1906,
      "Ġhukum": 1907,
      "amb": 1908,
      "Ya": 1909,
      "ĠtÃł": 1910,
      "ĠÃĪ": 1911,
      "ĠKarne": 1912,
      "ya,": 1913,
      "ĠáĬłáĪĿ": 1914,
      "ated": 1915,
      "áĮĢáĪĺáĪªáĭ«": 1916,
      "yyar": 1917,
      "Ġáĭ¨áĪĿ": 1918,
      "áº¹Ìģr": 1919,
      "tá»įÌģka": 1920,
      "4.": 1921,
      "Ġpáº¹ÌĢlÃº": 1922,
      "ashin": 1923,
      "áĪŃáĪµáī²": 1924,
      "Ġyankin": 1925,
      "áĪĨáĬĲ": 1926,
      "Ġlá»įÌģ": 1927,
      "ziki": 1928,
      "gbáº¹Ìģ": 1929,
      "ition": 1930,
      "ĠCol": 1931,
      "Ġsehemu": 1932,
      "ĠáĪĺáĭ°áī¥": 1933,
      "á¹£e": 1934,
      "áĪ«áĭĬ": 1935,
      "y.": 1936,
      "Ġjama": 1937,
      "Ġkab": 1938,
      "ĠFar": 1939,
      "ĠáĪ°áĭİáī½": 1940,
      "ĠwÃ¡": 1941,
      "ĠlÃ³rÃŃ": 1942,
      "Ġplus": 1943,
      "ations": 1944,
      "Ġmaj": 1945,
      "Ġibi": 1946,
      "ende": 1947,
      "8.": 1948,
      "han": 1949,
      "áº¹ÌģrÃŃkÃł": 1950,
      "eshi": 1951,
      "áº¹ÌĢráº¹ÌĢ": 1952,
      "áī½áį¢": 1953,
      "ĠBen": 1954,
      "Ġvi": 1955,
      "ĠIta": 1956,
      "Ġáīłáĭĺ": 1957,
      "Ġwatu": 1958,
      "ble": 1959,
      "usa": 1960,
      "ĠØ": 1961,
      "Ġlakini": 1962,
      "ĠÆĻafa": 1963,
      "der": 1964,
      "Ġkamar": 1965,
      "Ġáī¦": 1966,
      "Ġpamoja": 1967,
      "ĠáĬĲáĮĪáĪŃ": 1968,
      "ĠAmáº¹ÌģrÃŃkÃł": 1969,
      "áįİ": 1970,
      "ĠRo": 1971,
      "sion": 1972,
      "ĠMata": 1973,
      "gÃºn": 1974,
      "Ġmiaka": 1975,
      "Ġque": 1976,
      "ian": 1977,
      "ept": 1978,
      "áĬķáĮįáĪĬáĭĿ": 1979,
      "ĠUn": 1980,
      "Ġsamu": 1981,
      "hine": 1982,
      "Ġap": 1983,
      "ĠáĭĵáĪĿ": 1984,
      "ts": 1985,
      "Le": 1986,
      "ĠMo": 1987,
      "wÃ³": 1988,
      "áī°áĭį": 1989,
      "Ġáī°áĪĺ": 1990,
      "áī¦áī½": 1991,
      "annin": 1992,
      "áĪĿáį¢": 1993,
      "falme": 1994,
      "rÃłn": 1995,
      "mba": 1996,
      "ille": 1997,
      "áĮ¸": 1998,
      "láº¹Ìģ": 1999,
      "ráº¹": 2000,
      "1)": 2001,
      "Ġ13": 2002,
      "in,": 2003,
      "-áº¹ÌĢ": 2004,
      "Ġik": 2005,
      "ĠáĭĵáĪĺáīµ": 2006,
      "lá»įÌģ": 2007,
      "ited": 2008,
      "áį¥": 2009,
      "urs": 2010,
      "áĮłáīĢ": 2011,
      "ron": 2012,
      "Ġmkuu": 2013,
      "ea": 2014,
      "ats": 2015,
      "Ġráº¹": 2016,
      "áĪĽáĪª": 2017,
      "wa.": 2018,
      "ĠJami": 2019,
      "abu": 2020,
      "ĠáīĨ": 2021,
      "ĠÃ²á¹£Ã¨rÃ©": 2022,
      "uka": 2023,
      "eric": 2024,
      "Ġáĭ¨áĪļáĮĪáĬĿ": 2025,
      "ĠmÃ¡a": 2026,
      "fani": 2027,
      "ĠIngila": 2028,
      "yy": 2029,
      "kÃ¬": 2030,
      "Ġdaya": 2031,
      "anen": 2032,
      "5)": 2033,
      "ign": 2034,
      "Ġduk": 2035,
      "Ġwasu": 2036,
      "kwai": 2037,
      "enti": 2038,
      "Ġson": 2039,
      "kea": 2040,
      "áĪ¨áĭį": 2041,
      "Ġ;": 2042,
      "rans": 2043,
      "ibi": 2044,
      "ĠkÃ©": 2045,
      "Ġcomm": 2046,
      "Ġwhi": 2047,
      "ĠyÃŃ": 2048,
      "ĠtÃłbÃŃ": 2049,
      "Ġsai": 2050,
      "Ġyin": 2051,
      "ose": 2052,
      "istoria": 2053,
      "áĮĵ": 2054,
      "Ġnje": 2055,
      "tá»įÌģkasÃŃ": 2056,
      "á¹£áº¹": 2057,
      "ĠalÃ¡": 2058,
      "Ġsam": 2059,
      "Ġasi": 2060,
      "áĭŀ": 2061,
      "ĠáĬª": 2062,
      "Ġsana": 2063,
      "áįĬáīµ": 2064,
      "Ġgir": 2065,
      "áĮįáī¥": 2066,
      "ĠÃ¨yÃŃ": 2067,
      "Ġkwanza": 2068,
      "ĠJanu": 2069,
      "ĠáĪĿáĬŃ": 2070,
      "hana": 2071,
      "áĬ¢": 2072,
      "áĭ±áĪµ": 2073,
      "ÃłÃ¡": 2074,
      "ĠáĬ¥áĭ¨": 2075,
      "Ġbaada": 2076,
      "ta,": 2077,
      "Ġzina": 2078,
      "áĪģáĪĿ": 2079,
      "ĠAmerika": 2080,
      ".áĬ¤": 2081,
      "lÃ¹": 2082,
      "áĪĭáĬķáĭµ": 2083,
      "áĭ³áĬķ": 2084,
      "áĬĸáī½": 2085,
      "Ġpa": 2086,
      "zini": 2087,
      "orn": 2088,
      "áįĴ": 2089,
      "per": 2090,
      "Ġtele": 2091,
      "Ġou": 2092,
      "Ġum": 2093,
      "ĠáĪĭ": 2094,
      "Ġká»į": 2095,
      "ĠPro": 2096,
      "rá»įÌĢ": 2097,
      "Ġ190": 2098,
      "andishi": 2099,
      "Ġáī¤áīµ": 2100,
      "áĮĮ": 2101,
      "ĠonÃŃ": 2102,
      "Ġmutane": 2103,
      "áĬ¥áĬķ": 2104,
      "áĮ¨áĪ¨": 2105,
      "Ġáīĥ": 2106,
      "Ġohun": 2107,
      "Ġgarin": 2108,
      "ĠRoma": 2109,
      "áī³áī¸áĭį": 2110,
      "áĬłáī¥": 2111,
      "tt": 2112,
      "ÙĦ": 2113,
      "ĠBo": 2114,
      "ike": 2115,
      "3)": 2116,
      "Ġshugaban": 2117,
      "Ġdin": 2118,
      "go": 2119,
      "áĭŃáĪħ": 2120,
      "Ã¨re": 2121,
      "ĠQ": 2122,
      "áĪ¨áĬķ": 2123,
      "ĠáĪĺáĬ«": 2124,
      "Ġzili": 2125,
      "ula": 2126,
      "Ġsiku": 2127,
      "Ġaikin": 2128,
      "enn": 2129,
      "ĠDe": 2130,
      "Da": 2131,
      "áĮ¦": 2132,
      "áĪ¨áĮĥ": 2133,
      "Ġmakar": 2134,
      "ww": 2135,
      "ĠáĪĲ": 2136,
      "Ġ(S": 2137,
      "chool": 2138,
      "áīħáĪĿ": 2139,
      "ogra": 2140,
      "tum": 2141,
      "4)": 2142,
      "ĠáĬłáī¥": 2143,
      "Ġeneo": 2144,
      "ical": 2145,
      "Ġhasa": 2146,
      "ungo": 2147,
      "ĠolÃ¹": 2148,
      "fo": 2149,
      "Ġwak": 2150,
      "Ġcont": 2151,
      "ĠÉĹan": 2152,
      "chini": 2153,
      "Ġomo": 2154,
      "ĠáĬ¨áĬł": 2155,
      "iss": 2156,
      "áĪĪáĭ«": 2157,
      "ven": 2158,
      "áī°áĪŃ": 2159,
      "Ġáī°áīĢ": 2160,
      ".áĬł.": 2161,
      "áĪĿáĬĵ": 2162,
      "ĠáĬĲáīłáĪ¨": 2163,
      "ato": 2164,
      "kazini": 2165,
      "itÃ©": 2166,
      "9,": 2167,
      "6)": 2168,
      "Ġmaha": 2169,
      "ĠAust": 2170,
      "Ġwakazi": 2171,
      "áĮĪáĭµ": 2172,
      "áīĨáĮ£": 2173,
      "Ġgwamn": 2174,
      "ĠáĪĨáĬĸ": 2175,
      "ĠJohn": 2176,
      "áĪ°áĭį": 2177,
      "áĪĺáĬĵ": 2178,
      "Ġro": 2179,
      "ĠMay": 2180,
      "ĠjÃ¹": 2181,
      "ĠáĬłáĮĪáĪŃ": 2182,
      "ĠNov": 2183,
      "ĠáīłáĪµ": 2184,
      "lÃł": 2185,
      "ĠÂ»": 2186,
      "Ġwengi": 2187,
      "Ġáº¸": 2188,
      "ĠáĬłáī£": 2189,
      "áĪ¨áĭ³": 2190,
      "áĪīáīµ": 2191,
      "hariki": 2192,
      "mÃ¹": 2193,
      "ĠlÃ¨": 2194,
      "ĠáīłáĬ¢áīµáĭ®áĮµáĭ«": 2195,
      "9.": 2196,
      "ques": 2197,
      "ora": 2198,
      "atin": 2199,
      "Ġkya": 2200,
      "Ġte": 2201,
      "olo": 2202,
      "áĬĲáĭļáĪħ": 2203,
      "áĭµáĬķ": 2204,
      "Ġgaba": 2205,
      "7)": 2206,
      "áĪĶáĪŃ": 2207,
      "Ġfir": 2208,
      "ĠSept": 2209,
      "áĪĺáĪµ": 2210,
      "áĪĽáĭĬ": 2211,
      "Ġ(C": 2212,
      "ĠNigeria": 2213,
      "ĠáĬĵáī¸áĭįáį¢": 2214,
      "áĪ°áī¥": 2215,
      "uba": 2216,
      "ĠáĪ´": 2217,
      "Ãª": 2218,
      "Ġáįķ": 2219,
      "ĠAbu": 2220,
      "áīª": 2221,
      "ashe": 2222,
      "ĠgbÃ©": 2223,
      "ĠáĭĺáĬķáĭµ": 2224,
      "áīµáĬĵ": 2225,
      "Ġjina": 2226,
      "áįħ": 2227,
      "Ġáĭ¨áĪ°": 2228,
      "áĮĪáĬĻ": 2229,
      "ĠáĮ¨": 2230,
      "yoyin": 2231,
      "ashi": 2232,
      "Ġáī£áĪĪ": 2233,
      "ka,": 2234,
      "Ġmáº¹Ìģ": 2235,
      "ĠnÃŃgbÃł": 2236,
      "ĠáĮĢáĪĿáĪ®": 2237,
      "bÃł": 2238,
      "Ġzaidi": 2239,
      "lÃ¨": 2240,
      "mÃŃ": 2241,
      "hili": 2242,
      "Ġaf": 2243,
      "ys": 2244,
      "Ġnot": 2245,
      "ebru": 2246,
      "áĭ¥": 2247,
      "ĠáĪ«": 2248,
      "Ġkubwa": 2249,
      "ĠOr": 2250,
      "áĮ½áĪĲ": 2251,
      "Ġnchini": 2252,
      "Ġáĭ«áĪĪ": 2253,
      "2)": 2254,
      "ikia": 2255,
      "ena": 2256,
      "zaji": 2257,
      "mad": 2258,
      "ubu": 2259,
      "ambo": 2260,
      "áĪŃáĪ±": 2261,
      "Ġgbogbo": 2262,
      "Ġes": 2263,
      "-19": 2264,
      "Ùİ": 2265,
      "Ġáįĵ": 2266,
      "ĠáĬ¢áīµáĭ®áĮµáĭ«": 2267,
      "Ġjama'a": 2268,
      "com": 2269,
      "cce": 2270,
      "an.": 2271,
      "oda": 2272,
      "Ġray": 2273,
      "Al": 2274,
      "ree": 2275,
      "Ġ2019": 2276,
      "Ġsaba": 2277,
      "ĠáĮ¦áĪŃ": 2278,
      "Ġshine": 2279,
      "Ġtra": 2280,
      "jáº¹Ìģ": 2281,
      "ope": 2282,
      "á»Į": 2283,
      "umi": 2284,
      "uran": 2285,
      "Ni": 2286,
      "eno": 2287,
      "ishwa": 2288,
      "áĭ¨áĪŃ": 2289,
      "Ġáĭ«áĪĪáĭį": 2290,
      "áī¡áī¥": 2291,
      "kÃłn": 2292,
      "ĠáĮ¸": 2293,
      "\",": 2294,
      "dar": 2295,
      "á¹£Ãł": 2296,
      "Ġáī¥áī»": 2297,
      "ĠHar": 2298,
      "enda": 2299,
      "ice": 2300,
      "dha": 2301,
      "son": 2302,
      "Ġnom": 2303,
      "áĬķáĬķ": 2304,
      "áī£áĪĪ": 2305,
      "Ġá»ĮÌĢ": 2306,
      "Ġkungiyar": 2307,
      "Ġob": 2308,
      "ĠAward": 2309,
      "ashen": 2310,
      "ĠGhana": 2311,
      "áĬ¤áĪį": 2312,
      "kÃ¹n": 2313,
      "Ġáī°áĭĪ": 2314,
      "-Ã¬": 2315,
      "kanin": 2316,
      "Ġgud": 2317,
      "Ġá»įdun": 2318,
      "ty": 2319,
      "Ġjir": 2320,
      "Ġsá»į": 2321,
      "áĪłáĪ¨": 2322,
      "ĠOn": 2323,
      "áĪįáĮ£": 2324,
      "Ġala": 2325,
      "ĥáĭŃ": 2326,
      "ĠáĬ¨áįį": 2327,
      "Ġwhich": 2328,
      "ĠáĪĺáĪį": 2329,
      "Ġamfani": 2330,
      "Ġnd": 2331,
      "Ġtara": 2332,
      "Ġáĭ¨áĭĪ": 2333,
      "áĭĭáĪį": 2334,
      "anza": 2335,
      "Ġlili": 2336,
      "pt": 2337,
      "ĠOkto": 2338,
      "uma": 2339,
      "va": 2340,
      "ute": 2341,
      "ĠáĬłáĭį": 2342,
      "áī³áĪįáį¢": 2343,
      "ijir": 2344,
      "ram": 2345,
      "ĠTh": 2346,
      "áĪĭáī¸áĭį": 2347,
      "orld": 2348,
      "Ġgasar": 2349,
      "ĠáĬ¥.áĬ¤": 2350,
      "Ġmafi": 2351,
      "cl": 2352,
      "ĠGe": 2353,
      "ani.": 2354,
      "ĠáĬ¦": 2355,
      "ĠfÃŃ": 2356,
      "Ġshiga": 2357,
      "Ġ'yan": 2358,
      "Ã¹bÃ¡": 2359,
      "Â«": 2360,
      "Ġfim": 2361,
      "Ã¬bÃŃ": 2362,
      "Ġji": 2363,
      "ĠChi": 2364,
      "Ġáī°áĬ¨": 2365,
      "yn": 2366,
      "ase": 2367,
      "ukan": 2368,
      "Ġorin": 2369,
      "endele": 2370,
      "idan": 2371,
      "isp": 2372,
      "ĠSe": 2373,
      "áĭµáĪĿ": 2374,
      "Ġhali": 2375,
      "Ã¬nrin": 2376,
      "Ã©r": 2377,
      "áį²áį±áį»áį": 2378,
      "Ġja": 2379,
      "ĠNaijir": 2380,
      "org": 2381,
      "ĠFr": 2382,
      "ĠAmur": 2383,
      "Mwaka": 2384,
      "alisar": 2385,
      "Ġmara": 2386,
      "áĬħ": 2387,
      "Ġsiya": 2388,
      "ĠFebru": 2389,
      "Ġáº¹ÌĢká»įÌģ": 2390,
      "Ġjami": 2391,
      "áĪļáĭ«": 2392,
      "tÃłn": 2393,
      "Ġkup": 2394,
      "ĠÃłká»įÌģ": 2395,
      "ĠÉĹa": 2396,
      "ĠáīģáĮ¥áĪŃ": 2397,
      "9)": 2398,
      "Ġkal": 2399,
      "ĠMuham": 2400,
      "Ġkir": 2401,
      "jáº¹": 2402,
      "ress": 2403,
      "iga": 2404,
      "Ġtarehe": 2405,
      "co": 2406,
      "tor": 2407,
      "ĠáĪ¥áĪŃ": 2408,
      "ĠáĪī": 2409,
      "joba": 2410,
      "mÃ¬": 2411,
      "Ġ(M": 2412,
      "ther": 2413,
      "ilaya": 2414,
      "Ġsannan": 2415,
      "ĠâĢĺ": 2416,
      "pinle": 2417,
      "Kati": 2418,
      "Ha": 2419,
      "Ġiliyo": 2420,
      "inc": 2421,
      "ĠPar": 2422,
      "abi": 2423,
      "Ġáĭ¨áīĢ": 2424,
      "Ġpr": 2425,
      "áĬĵáĪį": 2426,
      "low": 2427,
      "Ġal'": 2428,
      "Ġáĭ¨áĪĨáĬĲ": 2429,
      "ĠOktoba": 2430,
      "rÃ¬": 2431,
      "Ġcin": 2432,
      "Ġáĭ®": 2433,
      "ĠáĬłáīł": 2434,
      "tawala": 2435,
      "is,": 2436,
      "ĠSchool": 2437,
      "erv": 2438,
      "Ġmaka": 2439,
      "Ġkm": 2440,
      "sc": 2441,
      "áĪ¥áī³áīµ": 2442,
      "Ġwakati": 2443,
      "ĠKen": 2444,
      "Ġkuto": 2445,
      "//": 2446,
      "ally": 2447,
      "gar": 2448,
      "Ġhad": 2449,
      "8)": 2450,
      "áĪŃáĬŃ": 2451,
      "ĠáĭĪáĬķ": 2452,
      "ĠáĮ£": 2453,
      "Ġlangu": 2454,
      "La": 2455,
      "ĠáīłáĪĿ": 2456,
      "áī¢áĭ«": 2457,
      "isho": 2458,
      "ĠAla": 2459,
      "ĠWar": 2460,
      "Ali": 2461,
      "pÃ²": 2462,
      "áĬ¦": 2463,
      "Ġbo": 2464,
      "haribi": 2465,
      "lish": 2466,
      "://": 2467,
      "any": 2468,
      "ĠwÃŃ": 2469,
      "ĠAre": 2470,
      "Ġ[": 2471,
      "ĠRD": 2472,
      "Ãºká»į": 2473,
      "ikwa": 2474,
      "áĮ¨áĪ¨áĪ»": 2475,
      "Ġamma": 2476,
      "áĮłáĪ«": 2477,
      "ĠAt": 2478,
      "itwa": 2479,
      "Ġshir": 2480,
      "Ġkai": 2481,
      "áĮ¤": 2482,
      "kÃ¨": 2483,
      "Ġ)": 2484,
      "ĠáĪľ": 2485,
      "ĠáīłáĭļáĪħ": 2486,
      "ĠáĭµáĪŃ": 2487,
      "ĠnÃŃpa": 2488,
      "oloni": 2489,
      "ĠBir": 2490,
      "áĪ³áīµ": 2491,
      "áĪľáĬķ": 2492,
      "ĠLag": 2493,
      "Ġele": 2494,
      "ĠYa": 2495,
      "ĠYorÃ¹bÃ¡": 2496,
      "jia": 2497,
      "ril": 2498,
      "ĠÃłrÃ¹n": 2499,
      "tom": 2500,
      "ĠpÃ¨": 2501,
      "Ġavec": 2502,
      "Ġáī¡": 2503,
      "Ġsont": 2504,
      "Ġhiyo": 2505,
      "ĠáĪĺáĬ«áĬ¨áĪį": 2506,
      "Ìģ": 2507,
      "En": 2508,
      "old": 2509,
      "ĠáīłáĪĭáĭŃ": 2510,
      "ĠItalia": 2511,
      "zama": 2512,
      "Ġter": 2513,
      "Ġras": 2514,
      "áĭİáī¹": 2515,
      "ĠáīłáĭĺáĪĺáĬĲ": 2516,
      "erin": 2517,
      "áĮįáĭļ": 2518,
      "lah": 2519,
      "Ġá»įjá»įÌģÃ¬bÃŃ": 2520,
      "ert": 2521,
      "áĬķáĮī": 2522,
      "ĠáĬ¨áĪĺ": 2523,
      "ĠNajeriya.": 2524,
      "wá»įÌĢ": 2525,
      "áĬ³": 2526,
      "áº¹ÌģyÃ¬n": 2527,
      "eni": 2528,
      "yana": 2529,
      "ĠrÃŃ": 2530,
      "ĠáīłáĪ°": 2531,
      "ĠMut": 2532,
      "Ġ(m": 2533,
      "fun": 2534,
      "usini": 2535,
      "Ã§": 2536,
      "ĠjÃ¡": 2537,
      "áīħáĪŃ": 2538,
      "Ġkaratun": 2539,
      "ĠUjerumani": 2540,
      "ĠáĬŃáįįáĪĪ": 2541,
      "áī¥áĪ¨": 2542,
      "áĪĽáĭŃ": 2543,
      "áĪħáĪį": 2544,
      "Ã©s": 2545,
      "wi": 2546,
      "ĠNÃłÃ¬jÃŃrÃŃÃł.": 2547,
      "11": 2548,
      "ĠFran": 2549,
      "cy": 2550,
      "Ġodun": 2551,
      "ĠBar": 2552,
      "Ġhanyar": 2553,
      "ĠáĬłáĪŃ": 2554,
      "Ġapp": 2555,
      "áĪĺáĪĪ": 2556,
      "ĠUingereza": 2557,
      "Ġhada": 2558,
      "áĪĿáĪħáĪŃáīµ": 2559,
      "Ġmá»įÌģ": 2560,
      "áº¹Ìģáº¹ÌĢ": 2561,
      "iá¹£áº¹Ìģ": 2562,
      "0)": 2563,
      "Ġne,": 2564,
      "ĠJap": 2565,
      "Ġáīł19": 2566,
      "ĠKas": 2567,
      "Ġshekaru": 2568,
      "áĭŃáĭĪ": 2569,
      "Ġjuu": 2570,
      "urin": 2571,
      "áįĥ": 2572,
      "Ġbuga": 2573,
      "áīĦ": 2574,
      "Ġbaya": 2575,
      "92": 2576,
      "Ġabin": 2577,
      "ĠDes": 2578,
      "áĬķáĮįáĪĬáĭĿáĬĽ": 2579,
      "áīµáį¢": 2580,
      "fer": 2581,
      "Ġilikuwa": 2582,
      "gbÃ²": 2583,
      "áĬķáĬĵ": 2584,
      "ĠbÃŃi": 2585,
      "Ġak": 2586,
      "ony": 2587,
      "ĠáĬ¥áĬķáĭ²áĪģáĪĿ": 2588,
      "Ġkif": 2589,
      "Ġsama": 2590,
      "Ã©n": 2591,
      "Ġupande": 2592,
      "ĠáĪ½": 2593,
      "áīµáį£": 2594,
      "áīĨáĮ£áĮłáĪŃ": 2595,
      "Ġne.": 2596,
      "Ġwenye": 2597,
      "Sa": 2598,
      "Ġakan": 2599,
      "tar": 2600,
      "ĠKam": 2601,
      "dÃŃn": 2602,
      "Ġáĭ¨áĮį": 2603,
      "áĪµáī³": 2604,
      "Ġco": 2605,
      "Ġ(N": 2606,
      "ĠmÃº": 2607,
      "Ġáº¹gbáº¹Ìģ": 2608,
      "ĠBur": 2609,
      "ĠTe": 2610,
      "Ġmoja": 2611,
      "ĠkÃº": 2612,
      "Ġyali": 2613,
      "ĠÃ¬já»įba": 2614,
      "kubwa": 2615,
      "Kwa": 2616,
      "Ġáī¦áī³": 2617,
      "ĠBe": 2618,
      "gbá»įÌģn": 2619,
      "áĮįáĭļáĬłáī¥": 2620,
      "vid": 2621,
      "Ġdig": 2622,
      "ugh": 2623,
      "ĠÃ¨tÃ²": 2624,
      "gas": 2625,
      "ĠX": 2626,
      "Ġmba": 2627,
      "ÉĹa": 2628,
      "ĠJa": 2629,
      "áĮģ": 2630,
      "áĭįáį¢": 2631,
      "ĠÃĵ": 2632,
      "ĠNor": 2633,
      "med": 2634,
      "ates": 2635,
      "en,": 2636,
      "ĠKis": 2637,
      "Ġmaso": 2638,
      "kÃ¡": 2639,
      "le,": 2640,
      "áī¥áĪ«": 2641,
      "-A": 2642,
      "mma": 2643,
      "ĠKusini": 2644,
      "fuata": 2645,
      "ĠKing": 2646,
      "ĠáĬ¥.áĬ¤.áĬł.": 2647,
      "wani": 2648,
      "ĠCon": 2649,
      "Ġwere": 2650,
      "ĠayÃ©": 2651,
      "áĮĪáĬķ": 2652,
      "dio": 2653,
      "Ġ&": 2654,
      "ĠáīłáīĢ": 2655,
      "ĠIntern": 2656,
      "áĬŀáī½": 2657,
      "ĠáĬĲáīłáĪ©": 2658,
      "Ã©es": 2659,
      "áĪµáĬĵ": 2660,
      "Ġilu": 2661,
      "gn": 2662,
      "Ġkarne": 2663,
      "thi": 2664,
      "áĭ¬": 2665,
      "Ġtso": 2666,
      "áĮĨáī½": 2667,
      "wÃł": 2668,
      "zwa": 2669,
      "áĭ°áīµ": 2670,
      "Ġtsakanin": 2671,
      "k.": 2672,
      "Ġáī°áī¥": 2673,
      "áĪŃáĪµáī²áĭ«áĬķ": 2674,
      "wn": 2675,
      "lar": 2676,
      "omo": 2677,
      "Ġac": 2678,
      "ĠWak": 2679,
      "áĮ¥áĬķ": 2680,
      "ight": 2681,
      "koa": 2682,
      "Ġres": 2683,
      "uta": 2684,
      "ayo": 2685,
      "Ġáīħáĭ±áĪµ": 2686,
      "áĭķáĪ«": 2687,
      "port": 2688,
      "Ġkum": 2689,
      "ken": 2690,
      "ĠAmeric": 2691,
      "ugu": 2692,
      "Ġchini": 2693,
      "Ġcan": 2694,
      "Ġnan": 2695,
      "Ġyanz": 2696,
      "áĮįáĭļáĬłáī¥áĪĶáĪŃ": 2697,
      "ory": 2698,
      "áī¤áīµ": 2699,
      "ĠáĭŃáĮĪáĬĽ": 2700,
      "Ġsin": 2701,
      "ks": 2702,
      "Ġfo": 2703,
      "tu": 2704,
      "emb": 2705,
      "erikali": 2706,
      "wu": 2707,
      "ulo": 2708,
      "³áĪµ": 2709,
      "Ġáĭ¨áĪµ": 2710,
      "ular": 2711,
      "50": 2712,
      "fanin": 2713,
      "ĠAli": 2714,
      "mÃ¬n": 2715,
      "Ġkuna": 2716,
      "ĠKan": 2717,
      "ĠáĪ¨": 2718,
      "ĠáĪĿáĬŃáĬķáĭ«": 2719,
      "vent": 2720,
      "Ġms": 2721,
      "ĠKwa": 2722,
      "bili": 2723,
      "ĠÆĻar": 2724,
      "áĭ¶áī½": 2725,
      "ton": 2726,
      "tain": 2727,
      "áĭįáĪĿ": 2728,
      "30": 2729,
      "Ġlab": 2730,
      "áĪº": 2731,
      "áĬŃáīµ": 2732,
      "ĠHe": 2733,
      "áī£áĪĪáĭį": 2734,
      "atoli": 2735,
      "ĠLagos": 2736,
      "fiya": 2737,
      "Ġmaji": 2738,
      "ĠJami'ar": 2739,
      "ĠáĬłáĪī": 2740,
      "uis": 2741,
      "ĠáĪĿáĬķ": 2742,
      "áĮ£áĪį": 2743,
      "ĠkÃ©k": 2744,
      "Ġtari": 2745,
      "ĠOl": 2746,
      "pen": 2747,
      "unci": 2748,
      "lex": 2749,
      "faransa": 2750,
      "ĠViungo": 2751,
      "Ġim": 2752,
      "ĠTi": 2753,
      "yá»į": 2754,
      "limbali": 2755,
      "use": 2756,
      "Ġwato": 2757,
      "áĮĪáĬĵ": 2758,
      "run": 2759,
      "sÃłn": 2760,
      "vo": 2761,
      "Ġime": 2762,
      "Ġmbalimbali": 2763,
      "Th": 2764,
      "tun": 2765,
      "ĠÃ¬pÃŃnláº¹ÌĢ": 2766,
      "ĠáĭŃáī£": 2767,
      "ici": 2768,
      "Ġuna": 2769,
      "ingine": 2770,
      "aribu": 2771,
      "ĠMin": 2772,
      "áĪ«áĪį": 2773,
      "Ġent": 2774,
      "atta": 2775,
      "Ø§": 2776,
      "ĠprÃ©": 2777,
      "Ġuk": 2778,
      "ĠkÃ©kerÃ©": 2779,
      "Ġabo": 2780,
      "takatifu": 2781,
      "Ġmwandishi": 2782,
      "Ġ2020": 2783,
      "Ġpo": 2784,
      "áĭŃáĬķ": 2785,
      "áĮĪáī£": 2786,
      "iro": 2787,
      "ett": 2788,
      "dÃº": 2789,
      "ĠÃ¬wÃ©": 2790,
      "Ġhas": 2791,
      "dÃł": 2792,
      "Ġtu": 2793,
      "ĠlÃ©": 2794,
      "ĠMag": 2795,
      "ĠDuniya": 2796,
      "gbÃ¨gbÃ¨": 2797,
      "undi": 2798,
      "Ġáĭ¨áĬĲáīłáĪ¨": 2799,
      "us,": 2800,
      "Wa": 2801,
      "ero": 2802,
      "áĬĴáĭ«": 2803,
      "umb": 2804,
      "ĠáĬŃáįįáĪį": 2805,
      "áĬĸáĪŃ": 2806,
      "Ġye": 2807,
      "Ġ189": 2808,
      "Ġ11": 2809,
      "Ã³Ã²": 2810,
      "ambar": 2811,
      "ĠMal": 2812,
      "áī±áĪĿ": 2813,
      "ĠAng": 2814,
      ",000": 2815,
      "eneo": 2816,
      "Ġáĭ²": 2817,
      "rand": 2818,
      "ĠáĪŃ": 2819,
      "Ġsami": 2820,
      "ĠKano": 2821,
      "Ġguda": 2822,
      "Ġ(199": 2823,
      "He": 2824,
      "Ġwacce": 2825,
      "Ġsaboda": 2826,
      "own": 2827,
      "Ç¹": 2828,
      "ĠáĬłáĬ«áī£áī¢": 2829,
      "ft": 2830,
      "áĪĪáī°": 2831,
      "ĠáĬ¥áĬķáĮį": 2832,
      "áĮ½áĪĲáįį": 2833,
      "hon": 2834,
      "Ġsamar": 2835,
      "áĭ°áĪ¨áĮĪ": 2836,
      "rodha": 2837,
      "atic": 2838,
      "ĠCo": 2839,
      "bab": 2840,
      "Ġtele.": 2841,
      "isl": 2842,
      "Ġáįĸ": 2843,
      "Il": 2844,
      "ĠUs": 2845,
      "Ġkwamba": 2846,
      "gbegbe": 2847,
      "áīĢáīµ": 2848,
      "Ġform": 2849,
      "ĠáĬłáīĨáĮ£áĮłáĪŃ": 2850,
      "-áº¹ÌĢká»įÌģ": 2851,
      "Katika": 2852,
      "Ġalso": 2853,
      "kÃº": 2854,
      "áĭŃáĬĵ": 2855,
      "dda": 2856,
      "ople": 2857,
      "aren": 2858,
      "Ġmwana": 2859,
      "Ġnuna": 2860,
      "ublic": 2861,
      "ĠlâĢĻ": 2862,
      "p://": 2863,
      "Ġper": 2864,
      "jini": 2865,
      "áĪįáīħ": 2866,
      "áĭ®áĬķ": 2867,
      "Ġalif": 2868,
      "rÃ³": 2869,
      "eral": 2870,
      "Ã¬dÃ¬": 2871,
      "Ġnyingi": 2872,
      "omi": 2873,
      "ĠáīłáĮį": 2874,
      "áĪ¨áĮį": 2875,
      "ĠáĬłáĬķáĭ±": 2876,
      "Ġmin": 2877,
      "ĠkÃ³pa": 2878,
      "rÃ¡": 2879,
      "áĬķáĮĭ": 2880,
      "Ġmwa": 2881,
      "áĪŃáĭĿ": 2882,
      "áĮłáīĥ": 2883,
      "ĠáĮįáĭĽáīµ": 2884,
      "illiam": 2885,
      "ĠáĬ¥áĭ«": 2886,
      "áįĪáĪŃ": 2887,
      "Ġkafin": 2888,
      "ĠKe": 2889,
      "II": 2890,
      "hir": 2891,
      "nÃŃ": 2892,
      "ĠAug": 2893,
      "Ġsababu": 2894,
      "umba": 2895,
      "Ġuku": 2896,
      "Ġmf": 2897,
      "Ġpla": 2898,
      "áĭµáĪŀ": 2899,
      "áī³áĪį": 2900,
      "Ġáº¹láº¹Ìģ": 2901,
      "Ġ188": 2902,
      "form": 2903,
      "áĮĪáĪĪ": 2904,
      "iji": 2905,
      "ani,": 2906,
      "Ġhaka": 2907,
      "yen": 2908,
      "áĪĿáĬķ": 2909,
      "Ġáīłáī¥": 2910,
      "Ġkawa": 2911,
      "huri": 2912,
      "Ġáīłáĭ°": 2913,
      "áĮİáĪŃ": 2914,
      "ĠáĬ¨áī°áĪŀáī½": 2915,
      "Ġann": 2916,
      "Ġmto": 2917,
      "ĠáĬłáĪĭ": 2918,
      "unge": 2919,
      "áįĢ": 2920,
      "ĠáĬ¥áĬķáĭ°áĪļ": 2921,
      "uc": 2922,
      "irin": 2923,
      "ta.": 2924,
      "Ġmp": 2925,
      "ĠSha": 2926,
      "áĭ¨áīµ": 2927,
      "Ġgame": 2928,
      "urg": 2929,
      "ĠEng": 2930,
      "imo": 2931,
      "ĠáĬĥáĭŃ": 2932,
      "ĠáĪ¶": 2933,
      "á»įÌģÃ¬dÃ¬": 2934,
      "áº¹Ìģrá»įÌģÃ¬dÃ¬": 2935,
      "ĠÃģ": 2936,
      "tÃ³": 2937,
      "ps": 2938,
      "ĠAmurka": 2939,
      "ĠÃ¡st": 2940,
      "ĠUla": 2941,
      "ĠlÃ¡ra": 2942,
      "ĠÃ¡stáº¹Ìģrá»įÌģÃ¬dÃ¬": 2943,
      "lla": 2944,
      "ĠáīłáįĬáīµ": 2945,
      "ĠGo": 2946,
      "áĬĺ": 2947,
      "ĠáĭŃáī½": 2948,
      "Ġkusini": 2949,
      "ĠTara": 2950,
      "Ġpad": 2951,
      "Ġmulkin": 2952,
      "ĠpÃł": 2953,
      "ĠNe": 2954,
      "ĠAfrica": 2955,
      "áĪĽáĬĸ": 2956,
      "tiv": 2957,
      "Ġ(2": 2958,
      "ĠUnited": 2959,
      "bÃ¹n": 2960,
      "áīµáĪŃ": 2961,
      "Ġtake": 2962,
      "kokin": 2963,
      "Ġkoma": 2964,
      "engine": 2965,
      "Ġmakarantar": 2966,
      "olu": 2967,
      "pÃ¡": 2968,
      "ĠÆĻasa": 2969,
      "vu": 2970,
      "atur": 2971,
      "Ġtaka": 2972,
      "ĠáĪĽáĪŃ": 2973,
      "istan": 2974,
      "anzia": 2975,
      "ĠáĪģáĪĪáīµ": 2976,
      "áĪĪáĭ«áĭ©": 2977,
      "bun": 2978,
      "lan": 2979,
      "ĠArewa": 2980,
      "velop": 2981,
      "Ġjim": 2982,
      "ĠáĭŃáī³": 2983,
      "áĪı": 2984,
      "áĪĳ": 2985,
      "arabu": 2986,
      "áĪ°áĪ«": 2987,
      "áī¥áĪµ": 2988,
      "fanya": 2989,
      "Ġkil": 2990,
      "ĠMusul": 2991,
      "Ġfito": 2992,
      "áīĢáĭį": 2993,
      "moja": 2994,
      "ath": 2995,
      "ĠáĪ¸": 2996,
      "áĬ¬": 2997,
      "áĬŃáĪµ": 2998,
      "ĠáĭĺáĪĺ": 2999,
      "Ġipa": 3000,
      "Ġdara": 3001,
      "umo": 3002,
      "Ġwasa": 3003,
      "Ġgida": 3004,
      "áĮ£áĪĿ": 3005,
      "Ġhivyo": 3006,
      "Ġ(B": 3007,
      "ĠPe": 3008,
      "ĠáĪĿáĬķáĮ": 3009,
      "Ġsamun": 3010,
      "atoliki": 3011,
      "áĭĸ": 3012,
      "Ġáī´": 3013,
      "Ġfilamu": 3014,
      "igi": 3015,
      "Ġáĭ©": 3016,
      "Ġal-": 3017,
      "Wá»įÌģn": 3018,
      "sáº¹ÌĢ": 3019,
      "oso": 3020,
      "ĠÃĪkÃ³": 3021,
      "ĠáĬłáīłáī£": 3022,
      "Ùħ": 3023,
      "Ġkad": 3024,
      "ĠComm": 3025,
      "Bayan": 3026,
      "fáº¹Ìģ": 3027,
      "amin": 3028,
      "on.": 3029,
      "áĪĪáĭŃ": 3030,
      "Ġwo": 3031,
      "áĪ«áīħ": 3032,
      "Ġ30": 3033,
      "ĠáĪĮáĪĭ": 3034,
      "ĠSan": 3035,
      "ette": 3036,
      "áī£áĭŃ": 3037,
      "ten": 3038,
      "Ġsy": 3039,
      "Ġcent": 3040,
      "Ġtabi": 3041,
      "Ã´": 3042,
      "Ġyayin": 3043,
      "ĠáĭĪáīħ": 3044,
      "ĠáĭĺáĪĺáĬĲ": 3045,
      "Ġwalio": 3046,
      "Ġsh": 3047,
      "unan": 3048,
      "Ġbáº¹ÌĢráº¹ÌĢ": 3049,
      "Ġfirst": 3050,
      "warar": 3051,
      "atik": 3052,
      "osti": 3053,
      "Ġsay": 3054,
      "Ġtrans": 3055,
      "³áį": 3056,
      "áĪįáĮį": 3057,
      "ĠLi": 3058,
      "Ġ(18": 3059,
      "áĬķáį¡": 3060,
      "áĪĿáį£": 3061,
      "áĪ®áįĵ": 3062,
      "ĠáĭĵáĪĺáī³áīµ": 3063,
      "ĠUr": 3064,
      "bal": 3065,
      "áĪĿáĪŃ": 3066,
      "ĠáĮ¦áĪŃáĬĲáīµ": 3067,
      "anzi": 3068,
      "Wak": 3069,
      "áĪĺáĪ¨": 3070,
      "ĠáĪĥáĭŃ": 3071,
      "Ġmal": 3072,
      "Ġdomin": 3073,
      "ĠTur": 3074,
      "ume": 3075,
      "paka": 3076,
      "áĪŃáĪĺáĬķ": 3077,
      "Ġwajen": 3078,
      "áĮįáī£": 3079,
      "ĠNijeriya.": 3080,
      "Ġ25": 3081,
      "ĠáĪµáĪ«": 3082,
      "áĪªáĬ«áĭĬ": 3083,
      "Ġits": 3084,
      "Ġdif": 3085,
      "Ġáĭ¨áĭį": 3086,
      "Ġáĭ¨áĭĵ": 3087,
      "Ġ(K": 3088,
      "ĠKo": 3089,
      "ĠáĬ¨áĪļ": 3090,
      "ĠáĪµáĪŃ": 3091,
      "Ġáĭ¨áĪĺáĮĢáĪĺáĪªáĭ«": 3092,
      "ich": 3093,
      "Ġmon": 3094,
      "áĮįáĪ«": 3095,
      "ĠáĪ²áĭ«": 3096,
      "af": 3097,
      "ĠBel": 3098,
      "husu": 3099,
      "Ġuh": 3100,
      "asu": 3101,
      "ĠÃ¬dÃŃ": 3102,
      "joibi": 3103,
      "ĠáĬłáĭŃáĬĲáīµ": 3104,
      "ĠAfrican": 3105,
      "ĠáĬłáĪ¨": 3106,
      "áĪĲáĬķáĪµ": 3107,
      "ĠgbÃł": 3108,
      "bre": 3109,
      "Ġyanzu": 3110,
      "Ġkili": 3111,
      "mes": 3112,
      "ĠCha": 3113,
      "áĪĺáīµ": 3114,
      "áĪĭáĪĪ": 3115,
      "áĮłáĪ¨": 3116,
      "ĠColle": 3117,
      "Ġcl": 3118,
      "áĪįáĭµ": 3119,
      "weza": 3120,
      "Ġká»įÌģ": 3121,
      "ĠáĬĲáīłáĪ¨áį¢": 3122,
      "ĠjÃ¹lá»į": 3123,
      "bit": 3124,
      "Ġbar": 3125,
      "alle": 3126,
      "onn": 3127,
      "rÃ¨s": 3128,
      "Ġ(P": 3129,
      "lÃŃ": 3130,
      "dadi": 3131,
      "ĠáĭĽ": 3132,
      "áĪŃáĭµ": 3133,
      "ĠIpinle": 3134,
      "áº¹ÌģtÃ¬": 3135,
      "áīłáī¥": 3136,
      "icha": 3137,
      "ĠBan": 3138,
      "ĠHausa": 3139,
      "Ġrec": 3140,
      "Ġwan": 3141,
      "aye": 3142,
      "ount": 3143,
      "ĠplÃ¡n": 3144,
      "ananan": 3145,
      "endelea": 3146,
      "gal": 3147,
      "Ġjam": 3148,
      "anni": 3149,
      "ĠáĬ¨áĭļáĭ«": 3150,
      "ĠUfaransa": 3151,
      "Ġbayyana": 3152,
      "Ġche": 3153,
      "insi": 3154,
      "áĬĲáĮĪáĪŃ": 3155,
      "Ġáį²áį±áį»áį": 3156,
      "ĠÃ¬gbÃłjÃ¡": 3157,
      "áįįáĪ«": 3158,
      "ĠáĬ¨áįįáī°áĬĽ": 3159,
      "sÃ¹": 3160,
      "ukuma": 3161,
      "pi": 3162,
      "ĠKenya": 3163,
      "ĠKem": 3164,
      "ĠáĬ¥áĪŃ": 3165,
      "Ġmanyan": 3166,
      "Yan": 3167,
      "ĠInd": 3168,
      "ĠAnd": 3169,
      "ral": 3170,
      "ĠShe": 3171,
      "má»įÌģ": 3172,
      "ĠáĬłáĭ²áĪµ": 3173,
      "áĭ°áĪį": 3174,
      "ĠáĭĪáĪŃ": 3175,
      "san": 3176,
      "ĠGre": 3177,
      "ĠMaj": 3178,
      "fÃł": 3179,
      "Ġyenye": 3180,
      "ĠáĬĲáĮĪáĪ¥áī³áīµ": 3181,
      "phi": 3182,
      "ashara": 3183,
      "ĠáĪłáĪ": 3184,
      "Ġtáº¹Ìģ": 3185,
      "áĮĢáĪĺáĪŃáĭ«": 3186,
      "ĠáĪĮáĪİáī½": 3187,
      "ĠáĬ³áĪµ": 3188,
      "ĠáĬ¥áĮħ": 3189,
      "áĪĭáĪĿ": 3190,
      "ĠplÃ¡náº¹ÌģtÃ¬": 3191,
      "ĠJos": 3192,
      "Ġ100": 3193,
      "rie": 3194,
      "Ġ2000": 3195,
      "fuat": 3196,
      "red": 3197,
      "Ġel": 3198,
      "Ġsp": 3199,
      "Ġvita": 3200,
      "ĠJanuari": 3201,
      "Ġyawa": 3202,
      "á¹£áº¹ÌĢ": 3203,
      "ĠáĪĽáĪµ": 3204,
      "Ġambayo": 3205,
      "Ġwadanda": 3206,
      "ĠIngila.": 3207,
      "ĠLond": 3208,
      "ind": 3209,
      "ĠáĪĺáĮł": 3210,
      "ĠAc": 3211,
      "ÃĴ": 3212,
      "ĠáĬ©": 3213,
      "wahili": 3214,
      "Ġgina": 3215,
      "els": 3216,
      "áĭĮ": 3217,
      "Ġyadda": 3218,
      "2-": 3219,
      "shen": 3220,
      "Ġdama": 3221,
      "orin": 3222,
      "ĠáĬłáįį": 3223,
      "ĠÃ¡stáº¹Ìģrá»įÌģÃ¬dÃ¬.": 3224,
      "'i": 3225,
      "wood": 3226,
      "ĠYork": 3227,
      "pá»į": 3228,
      "ras": 3229,
      "ĠAgosti": 3230,
      "ule": 3231,
      "ĠdÃŃ": 3232,
      "®áī½": 3233,
      "ĠCar": 3234,
      "áĪ¬áīµ": 3235,
      "ative": 3236,
      "ĠáĪĺáĪ°": 3237,
      "ĠáĪĿáĭµáĪŃ": 3238,
      "ĠmÃ©jÃ¬": 3239,
      "esi": 3240,
      "Ġserikali": 3241,
      "áīłáĪĭ": 3242,
      "ĠáĪįáĭ©": 3243,
      "ukar": 3244,
      "Ġabu": 3245,
      "islamu": 3246,
      "ger": 3247,
      "ĠKad": 3248,
      "sa,": 3249,
      "áĪªáĭİáī½": 3250,
      "áįĪáĪ¨áĬķ": 3251,
      "Ġbut": 3252,
      "ogun": 3253,
      "'in": 3254,
      "Ġkira": 3255,
      "Ġimp": 3256,
      "Ġkaskazini": 3257,
      "ĠGab": 3258,
      "orun": 3259,
      "Ġtas": 3260,
      "Ġaá¹£": 3261,
      "ĠPart": 3262,
      "áī³áĭŃ": 3263,
      "ĠWorld": 3264,
      "áī¶áĪµ": 3265,
      "con": 3266,
      "áĬ¥áĪµ": 3267,
      "w.": 3268,
      "ĠBrit": 3269,
      "ĠEd": 3270,
      "Ġ24": 3271,
      "áĭĵáīµ": 3272,
      "ĠáĭķáĪĪáīµ": 3273,
      "áº¸": 3274,
      "Ġáĭľ": 3275,
      "áĪįáį£": 3276,
      "ĠJula": 3277,
      "ĠkejÃ¬": 3278,
      "25": 3279,
      "ĠáĭĻ": 3280,
      "unia": 3281,
      "áĬ¨áĭļáĪħ": 3282,
      "áĪµáĪĪ": 3283,
      "áī²áĬ«": 3284,
      "áĮ¨áĪĽáĪª": 3285,
      "Ġsar": 3286,
      "umu": 3287,
      "gÃ¹n": 3288,
      "ÙĬ": 3289,
      "Ġjag": 3290,
      "ba,": 3291,
      "ĠBah": 3292,
      "Ġcomme": 3293,
      "rÃł": 3294,
      "ĠUg": 3295,
      "inal": 3296,
      "áĭ°áĭį": 3297,
      "áĭİáĪµ": 3298,
      "bia": 3299,
      "Ġ23": 3300,
      "ĠAh": 3301,
      "21": 3302,
      "wá»į": 3303,
      "Ġakwai": 3304,
      "ĠorÃºká»į": 3305,
      "nÃł": 3306,
      "ĠáīłáĪŃ": 3307,
      "áįįáīµ": 3308,
      "Ġeni": 3309,
      "áĬķáį£": 3310,
      "Ġgar": 3311,
      "áĪĭáīħ": 3312,
      "Ġ(T": 3313,
      "áĮ¢": 3314,
      "ĠáĬłáĭµáĪŃ": 3315,
      "ĠIlÃ©": 3316,
      "ĠgbajÃº": 3317,
      "ĠAugust": 3318,
      "kali": 3319,
      "ision": 3320,
      "ced": 3321,
      "Ġpas": 3322,
      "ĠáĪĽáĭķ": 3323,
      "Ġgudanar": 3324,
      "Ġdis": 3325,
      "áĪ¹": 3326,
      "Ġbáº¹Ìģáº¹ÌĢ": 3327,
      "Ġmaeneo": 3328,
      "áįĭáīµ": 3329,
      "ĠAk": 3330,
      "rÃŃn": 3331,
      "Ġáĭ«áĪµ": 3332,
      "imu": 3333,
      "ip": 3334,
      "ĠÃ¬má»įÌĢ": 3335,
      "áĬ¨áĪĪ": 3336,
      "BC": 3337,
      "Ġtar": 3338,
      "ĠÃ¬tá»įÌģkasÃŃ": 3339,
      "Ġhave": 3340,
      "chagu": 3341,
      "ĠWest": 3342,
      "ispania": 3343,
      "ĠKim": 3344,
      "ĠWas": 3345,
      "Ġ21": 3346,
      "ĠDan": 3347,
      "baki": 3348,
      "Ġfam": 3349,
      "ĠOs": 3350,
      "áĭ²áĭ«": 3351,
      "ĠáīĥáĪį": 3352,
      "kiya": 3353,
      "Ġbara": 3354,
      "ģáĬķ": 3355,
      "áĪĭáĭĬ": 3356,
      "Ġáī¥áĪİ": 3357,
      "ĠInternational": 3358,
      "amp": 3359,
      "ĠFiz": 3360,
      "ĠáĬłáĪµáī°áĭ³": 3361,
      "igizaji": 3362,
      "ĠáĭĪáīħáīµ": 3363,
      "Ġdang": 3364,
      "Ġgidan": 3365,
      "áīłáĪį": 3366,
      "Daga": 3367,
      "Ġfina": 3368,
      "¹¢": 3369,
      "áĬ¢áīµáĭ®áĮµáĭ«": 3370,
      "áĪĭáĬŃ": 3371,
      "ĠnÃŃbi": 3372,
      "ĠNajeriya,": 3373,
      "lÃ³gÃºn": 3374,
      "ĠjÃ¡de": 3375,
      "ĠJulai": 3376,
      "ĠAllah": 3377,
      "gy": 3378,
      "60": 3379,
      "Les": 3380,
      "áī«": 3381,
      "áĪĿáį¡": 3382,
      "ĠáĬ¨áĬĲ": 3383,
      "ĠOá¹£Ã¹": 3384,
      "ĠJuni": 3385,
      "Ġ(áĭ¨": 3386,
      "ves": 3387,
      "ĠNational": 3388,
      "áī¨": 3389,
      "ĠáīµáĪĿáĪħáĪŃáīµ": 3390,
      "áĪĬáĭ«": 3391,
      "ĠMachi": 3392,
      "Ġlit": 3393,
      "Ġmutum": 3394,
      "ĠwÃŃpÃ©": 3395,
      "ria": 3396,
      "áīłáĭļáĪħ": 3397,
      "áįĪáĭį": 3398,
      "Ġmá»įÌĢ": 3399,
      "gaji": 3400,
      "ĠáĬłáĪ«": 3401,
      "gÃ©": 3402,
      "ĠBab": 3403,
      "mala": 3404,
      "Ġ(áĬ¨": 3405,
      "áīĢáĪĺ": 3406,
      "Ġáī£áĪħ": 3407,
      "Ġexp": 3408,
      "Ġirin": 3409,
      "Ġsanya": 3410,
      "Ġáĭ¨áī³": 3411,
      "ism": 3412,
      "Ġáį²áį": 3413,
      "Ġáī°áĪ«": 3414,
      "ĠAbd": 3415,
      "Ġlake": 3416,
      "ĠEur": 3417,
      "Ġ(I": 3418,
      "Ġgabatar": 3419,
      "its": 3420,
      "rili": 3421,
      "ĠMuhammad": 3422,
      "áī³áĭį": 3423,
      "udi": 3424,
      "áįĮ": 3425,
      "áĭ®áī½": 3426,
      "overn": 3427,
      "Ġrep": 3428,
      "asihi": 3429,
      "ĠáĬ¨áĭļáĪħ": 3430,
      "áīĢáĪŃ": 3431,
      "Ġmahaif": 3432,
      "ĠWilliam": 3433,
      "80": 3434,
      "Ġdai": 3435,
      "amman": 3436,
      "Ġ(o": 3437,
      "Ġmita": 3438,
      "22": 3439,
      "SB": 3440,
      "ĠáĪĦ": 3441,
      "Ġkasuwan": 3442,
      "áĪ½áĬķ": 3443,
      "Ġáĭ®áĪĲáĬķáĪµ": 3444,
      "ĠAde": 3445,
      "chn": 3446,
      "Ġsec": 3447,
      "rá»į": 3448,
      "Ġmfalme": 3449,
      "ork": 3450,
      "er.": 3451,
      "nu": 3452,
      "Ġri": 3453,
      "ĠBu": 3454,
      "ulu": 3455,
      "Ġcol": 3456,
      "ĠáĬ¨áĬłáĪ": 3457,
      "ĠFo": 3458,
      "ĠÃłká»įÌģká»įÌģ": 3459,
      "ĠAare": 3460,
      "Ġtangu": 3461,
      "áīłáĪ«": 3462,
      "áĭİáī½áĬķ": 3463,
      "ĠFil": 3464,
      "par": 3465,
      "ĠMtakatifu": 3466,
      "Ġ1,": 3467,
      "ĠáīłáĭĪ": 3468,
      "áĭŃáĭĪáīµ": 3469,
      "ĠKaduna": 3470,
      "bÃ²": 3471,
      "tre": 3472,
      "Ġid": 3473,
      "ĠáīłáĮ£áĪĿ": 3474,
      "áĪĽáīµ": 3475,
      "esha": 3476,
      "hy": 3477,
      "ÃĪ": 3478,
      "Ġ*": 3479,
      "ĠPet": 3480,
      "áĮĬáĭľ": 3481,
      "ĠáĭŃáī³áĭĪ": 3482,
      "kama": 3483,
      "ĠáĬłáĪĽ": 3484,
      "Ġáī¥áĪŃ": 3485,
      "ĠIle": 3486,
      "áĪ«áĬķ": 3487,
      "Ġzai": 3488,
      "Ġkammala": 3489,
      "Ġáį¡áį¡": 3490,
      "ĠMashariki": 3491,
      "23": 3492,
      "Ġ1.": 3493,
      "Ãłráº¹": 3494,
      "hali": 3495,
      "gion": 3496,
      "Ġpáº¹": 3497,
      "áīłáī°": 3498,
      "áĪ³áĭĬ": 3499,
      "Ġpeke": 3500,
      "ÙĨ": 3501,
      "ĠKir": 3502,
      "Ġmaza": 3503,
      "ros": 3504,
      "áĬĸáĪµ": 3505,
      "Ġaliye": 3506,
      "ĠDesemba": 3507,
      "Ġyayi": 3508,
      "Ġlori": 3509,
      "Ġkaribu": 3510,
      "áĭ°áĪĿ": 3511,
      "áĬĽáį¦": 3512,
      "ĠChar": 3513,
      "Ġkula": 3514,
      "áĪ«áĪ±": 3515,
      "ĠáĪĿáĬŃáĬķáĭ«áīµ": 3516,
      "lÃ²": 3517,
      "wara": 3518,
      "ĠáĬ£": 3519,
      "Ġkuanzia": 3520,
      "Ġrubu": 3521,
      "Ġtro": 3522,
      "fÃŃ": 3523,
      "sÃ¡": 3524,
      "áĪ³áī¥": 3525,
      "Ġaká»į": 3526,
      "ĠagbÃ¨gbÃ¨": 3527,
      "áĬĲáĭį": 3528,
      "áĮĪáĪ©": 3529,
      "ĠÂ«áĭ¨": 3530,
      "á¹£Ã¨lÃº": 3531,
      "Ġjirgin": 3532,
      "she": 3533,
      "gan": 3534,
      "áī£áī¸áĭį": 3535,
      "ĠáĪ¥áĪ«": 3536,
      "Ġge": 3537,
      "Ġact": 3538,
      "Ġyamma": 3539,
      "ĠDo": 3540,
      "áĭĪáĭ°": 3541,
      "ĠLegas": 3542,
      "Ġbirni": 3543,
      "ĠAprili": 3544,
      "Ġhukumar": 3545,
      "ĠIndi": 3546,
      "ĠNigerian": 3547,
      "Ġhann": 3548,
      "Ġ(F": 3549,
      "Ġgirma": 3550,
      "ĠSh": 3551,
      "atsina": 3552,
      "áĭŃáīµ": 3553,
      "ĠChina": 3554,
      "ĠDec": 3555,
      "cent": 3556,
      "Ġ(U": 3557,
      "ĠmÃŃ": 3558,
      "ĠEl": 3559,
      "ĠáĪ±": 3560,
      "áĬķáī²": 3561,
      "Ġdaban": 3562,
      "Ġchake": 3563,
      "ĠNaijiria": 3564,
      "esa": 3565,
      "Ġbec": 3566,
      "lima": 3567,
      "Ġpos": 3568,
      "sa.": 3569,
      "Ġsake": 3570,
      "Ġkwaikwa": 3571,
      "Ġkilom": 3572,
      "-M": 3573,
      "Ġáĭ¶": 3574,
      "amma": 3575,
      "ĠáĬłáīĢ": 3576,
      "ĠáĪĺáĪłáĪ¨": 3577,
      "ĠáĪĺáĮ½áĪĲáįį": 3578,
      "Ġáº¹ni": 3579,
      "Ġpremi": 3580,
      "-m": 3581,
      "asara": 3582,
      "ĠMed": 3583,
      "ĠÃłmÃ¬": 3584,
      "ĠSeptemba": 3585,
      "cto": 3586,
      "áĭĲ": 3587,
      "Ġsuke": 3588,
      "Ġ27": 3589,
      "ĠMei": 3590,
      "áĪįáĪµ": 3591,
      "ĠwaÉĹ": 3592,
      "ĠáĬłáīµ": 3593,
      "ĠáĬłáĪľáĪªáĬ«": 3594,
      "ĠáĭĪáĬķáĭµ": 3595,
      "ĠáĪĪáĬł": 3596,
      "kiwa": 3597,
      "áĬĸáĪ©": 3598,
      "ĠáĮ¥áīħáĪĿ": 3599,
      "áĮĪáĬĺáĭį": 3600,
      "dÃ³": 3601,
      "tá»įÌĢ": 3602,
      "ĠPres": 3603,
      "ĠPort": 3604,
      "ĠCity": 3605,
      "ĠRom": 3606,
      "ĠáĪª": 3607,
      "Ġako": 3608,
      "ĠUlaya": 3609,
      "ĠState": 3610,
      "ms": 3611,
      "Ġprodu": 3612,
      "Ġáī½": 3613,
      "Ġkudu": 3614,
      "Ġáĭ°áĪ¨áĮĥ": 3615,
      "ifu": 3616,
      "de,": 3617,
      "ĠagbÃ¡": 3618,
      "Ġáĭ¨áĪħ": 3619,
      "Ġpoli": 3620,
      "Ġn.": 3621,
      "ĠáĪĨáĬĲáį¢": 3622,
      "ĠÉĹaya": 3623,
      "SBN": 3624,
      "ĠSar": 3625,
      "yÃ¡": 3626,
      "adar": 3627,
      "ĠáĬłáĭ«": 3628,
      "ĠáīĭáĬķáīĭáĭİáī½": 3629,
      "Ġos": 3630,
      "Ġmad": 3631,
      "âĢİ": 3632,
      "t,": 3633,
      "madu": 3634,
      "ents": 3635,
      "Ġacc": 3636,
      "ĠOgun": 3637,
      "áĭĪáĪ°": 3638,
      "Ġmwigizaji": 3639,
      "ká»įÌĢá»įÌģ": 3640,
      "ĠÃŃ": 3641,
      "Ġut": 3642,
      "láº¹": 3643,
      "áįĲ": 3644,
      "Ã¬mÃ¹": 3645,
      "ĠáĬ¥áĮįáĪŃ": 3646,
      "áī¥áīµ": 3647,
      "Ġ22": 3648,
      "ĠáĪĿáĪµ": 3649,
      "Ġáĭ¨áĬ¤": 3650,
      "ĠáĪ¥áĬĲ": 3651,
      "ling": 3652,
      "score": 3653,
      "ĠáĪĽáĬķ": 3654,
      "áīĥáĪµ": 3655,
      "áĪĬáĬŃ": 3656,
      "ex": 3657,
      "eli": 3658,
      "Ġno": 3659,
      "Ġce,": 3660,
      "Ġtheir": 3661,
      "ĠÃĮtá»įÌģkasÃŃ": 3662,
      "Ġkutokana": 3663,
      "Ġtak": 3664,
      "Walio": 3665,
      "áĬĻ": 3666,
      "Ġfannin": 3667,
      "áĪŃáĪµáī¶áĪµ": 3668,
      "ĠáĭĪáĬķáĭĿ": 3669,
      "antu": 3670,
      "áĪĿáĬĲáīµ": 3671,
      "Ġáīłáī³": 3672,
      "ikuu": 3673,
      "40": 3674,
      "Ġall": 3675,
      "ca": 3676,
      "d.": 3677,
      "yon": 3678,
      "Ġayy": 3679,
      "áĮ£áīµ": 3680,
      "áĪįáĮ£áĬķ": 3681,
      "ĠFebruari": 3682,
      "ater": 3683,
      "ires": 3684,
      "ĠPol": 3685,
      "eme": 3686,
      "Ġáī°áī¥áĪİ": 3687,
      "fia": 3688,
      "Ġkik": 3689,
      "ĠOb": 3690,
      "unif": 3691,
      "ussi": 3692,
      "áĭĭáīĤ": 3693,
      "Ġndani": 3694,
      "hil": 3695,
      "roup": 3696,
      "Ġyao": 3697,
      "Ġ28": 3698,
      "ĠáĪįáĮĨáī½": 3699,
      "ĠTiba": 3700,
      "áĪĪáĬķ": 3701,
      "ĠáĬĲáīłáĪ©áį¢": 3702,
      "Ku": 3703,
      "ĠAmerican": 3704,
      "ĠÐ": 3705,
      "Ġmutanen": 3706,
      "ĠáĭĿáĪŃáĭĿ": 3707,
      "ĠNovemba": 3708,
      "Ġmutu": 3709,
      "Ġcar": 3710,
      "Ã²rÃ¹n": 3711,
      "Ġbiyar": 3712,
      "70": 3713,
      "ght": 3714,
      "ĠWan": 3715,
      "rÃº": 3716,
      "áĪįáĪĿ": 3717,
      "ĠáĮŃ": 3718,
      "ĠÃłwon": 3719,
      "ĠCent": 3720,
      "ĠnÃ¡Ãł.": 3721,
      "Ġpop": 3722,
      "pele": 3723,
      "Ġagba": 3724,
      "ĠMan": 3725,
      "ĠBabban": 3726,
      "ÉĹin": 3727,
      "Ġá»įÌĢpá»įÌĢ": 3728,
      "Ġaux": 3729,
      "áīŃ": 3730,
      "ĠáĬłáįĪ": 3731,
      "cip": 3732,
      "ĠSp": 3733,
      "thiop": 3734,
      "uld": 3735,
      "soci": 3736,
      "Ġsau": 3737,
      "78": 3738,
      "ĠFor": 3739,
      "ĠáĮįáī¥": 3740,
      "ĠRD1-": 3741,
      "tan": 3742,
      "uss": 3743,
      "en.": 3744,
      "Ġban": 3745,
      "ĠOrodha": 3746,
      "áĪ®áĪµ": 3747,
      "Ġkaramar": 3748,
      "ĠáĪĺáĬķáĮĪáĭµ": 3749,
      "ĠMis": 3750,
      "áĮĪáĪ«": 3751,
      "áĪĭáĭį": 3752,
      "ĠyÃ³Ã²": 3753,
      "asiasa": 3754,
      "ĠRais": 3755,
      "ka.": 3756,
      "áĪĪáī²áĬ«": 3757,
      "Ġáĭ¨áĬ¢": 3758,
      "Ġáī¥áĪĶ": 3759,
      "ĠSouth": 3760,
      "ĠDi": 3761,
      "ĠKáº¹": 3762,
      "Ġmawa": 3763,
      "Ġhuko": 3764,
      "ĠáĮ¥áĬĵáīµ": 3765,
      "Ġthis": 3766,
      "ĠDis": 3767,
      "ation,": 3768,
      "áĭĪáĪĪ": 3769,
      "áĭĪáī½": 3770,
      "ĠáĮ¥áĬķ": 3771,
      "da,": 3772,
      "ĠSec": 3773,
      "ĠPer": 3774,
      "ĠAnn": 3775,
      "ĠáĪĺáĪŃ": 3776,
      "áĭĬáīµ": 3777,
      "áĮłáīħ": 3778,
      "Ġpelu": 3779,
      "áĪµáįĭ": 3780,
      "áĬ¨áīµ": 3781,
      "ĠáĭŃáī£áĪĭáĪįáį¢": 3782,
      "orge": 3783,
      "www.": 3784,
      "cri": 3785,
      "Ġpart": 3786,
      "Ġnaa": 3787,
      "Ġruwa": 3788,
      "kiyar": 3789,
      "ĠsÃŃláº¹ÌĢ": 3790,
      "ĠÃ²á¹£": 3791,
      "áĬĶáī³": 3792,
      "Ġkilomita": 3793,
      "91": 3794,
      "ĠBro": 3795,
      "Ġher": 3796,
      "unin": 3797,
      "bÃº": 3798,
      "ĠáĪ®": 3799,
      "itabu": 3800,
      "ĠShugaban": 3801,
      "ĠáĪĪáĪĿ": 3802,
      "áĭĺáĮĭ": 3803,
      "ĠSal": 3804,
      "ants": 3805,
      "áĪŁ": 3806,
      "hidi": 3807,
      "ime": 3808,
      "pas": 3809,
      "ĠBra": 3810,
      "áĭĭáĬķ": 3811,
      "áĪĺáĬĵáĭĬ": 3812,
      "ĠáĪīáīĥáĪµ": 3813,
      "urn": 3814,
      "likana": 3815,
      "Ġáī°áĪ°": 3816,
      "ĠEle": 3817,
      "cial": 3818,
      "Ġsauran": 3819,
      "jeo": 3820,
      "áĪ¾": 3821,
      "Ġwaje": 3822,
      "áĪ¨áĪĿ": 3823,
      "Ġ(198": 3824,
      "Ġrayuwa": 3825,
      "Ġrasmi": 3826,
      "des": 3827,
      "Ġbin": 3828,
      "Ġwilaya": 3829,
      "badan": 3830,
      "oth": 3831,
      "hed": 3832,
      "inai": 3833,
      "ĠDar": 3834,
      "...": 3835,
      "Ġduni": 3836,
      "Ġáīłáĭ¨": 3837,
      "uro": 3838,
      "Ġáĭ¨áĪķ": 3839,
      "ĠJanuary": 3840,
      "-I": 3841,
      "-f": 3842,
      "áĪĽáĬķ": 3843,
      "imÃ¡": 3844,
      "Ġconst": 3845,
      "áĭķáĪ«áī¥": 3846,
      "Ġwh": 3847,
      "Ã®": 3848,
      "Ġada": 3849,
      "alab": 3850,
      "ĠJe": 3851,
      "wana": 3852,
      "ĠÃłgbÃ©": 3853,
      "áº¹ÌĢáº¹Ìģ": 3854,
      "r.": 3855,
      "Ġag": 3856,
      "Ġinter": 3857,
      "24": 3858,
      "áįĪáĪį": 3859,
      "Ġáĭ¨áĬłáĪľáĪªáĬ«": 3860,
      "Ġone": 3861,
      "illa": 3862,
      "Ġ26": 3863,
      "Ġ29": 3864,
      "Ã¢": 3865,
      "lam": 3866,
      "Ġáīłáĭĵ": 3867,
      "ĠáīħáĪŃ": 3868,
      "ĠShi": 3869,
      "eth": 3870,
      "FA": 3871,
      "áįİáī½": 3872,
      "ĠáĬ¥áĬķáĮĤ": 3873,
      "-o": 3874,
      "kawa": 3875,
      "ĠEm": 3876,
      "Ġbab": 3877,
      "ury": 3878,
      "Ġáĭ¨áĪļáĪĪáĭį": 3879,
      "Ġmusul": 3880,
      "Äģ": 3881,
      "âĢĻa": 3882,
      "ĠRi": 3883,
      "ĠAgba": 3884,
      "ĠáĬ¨áĬ¥": 3885,
      "Ġinayo": 3886,
      "asha": 3887,
      "báº¹ÌĢráº¹ÌĢ": 3888,
      "que,": 3889,
      "ĠáĮīáĭ³": 3890,
      "Ġhukumomin": 3891,
      "Ġ(ojoibi": 3892,
      "Ġiko": 3893,
      "Ã¹gbá»įÌģn": 3894,
      "ĠáĭĪáĭŃ": 3895,
      "ĠáĬŃáĪį": 3896,
      "ology": 3897,
      "Ġasili": 3898,
      "Ġbas": 3899,
      "Ġmis": 3900,
      "kashin": 3901,
      "Ġ(áīł": 3902,
      "ĠgÃŃ": 3903,
      "Ġwho": 3904,
      "áĬĲáĪ³": 3905,
      "Ġhak": 3906,
      "ĠilÃ©-áº¹ÌĢká»įÌģ": 3907,
      "Ġother": 3908,
      "ĠMad": 3909,
      "ki,": 3910,
      "men": 3911,
      "ĠáĬķáĮį": 3912,
      "Ġ2015": 3913,
      "risti": 3914,
      "Ġkarni": 3915,
      "ĠnÃŃnu": 3916,
      "pend": 3917,
      "Ġaji": 3918,
      "Ġáĭ¨áīµ": 3919,
      "ĠáĮĮ": 3920,
      "fauti": 3921,
      "ĠáĬ¥áĬķáĭ²áĪħ": 3922,
      "ĠáĭŃáī³áĭĪáīĥ": 3923,
      "28": 3924,
      "áĪİáīµ": 3925,
      "ÙĪ": 3926,
      "ĠáĭŃáīĢ": 3927,
      "ĠáīµáĬķ": 3928,
      "Ġilimi": 3929,
      "lor": 3930,
      "Ġs'": 3931,
      "Ġten": 3932,
      "ef": 3933,
      "lejin": 3934,
      "áī¥áĪ¨áīµ": 3935,
      "ĠÃ²un": 3936,
      "ĠáĪģáĪĪ": 3937,
      "Ġtsarin": 3938,
      "attalin": 3939,
      "ĠáįķáĪ¬": 3940,
      "erre": 3941,
      "90": 3942,
      "Ġlashe": 3943,
      "hel": 3944,
      "Ġogun": 3945,
      "ĠáĪķáĭĿáī¥": 3946,
      "in.": 3947,
      "wezi": 3948,
      "dÃ¹": 3949,
      "Ġmkubwa": 3950,
      "áĪµáĬķ": 3951,
      "Ġkuli": 3952,
      "ĠÃłkÃ³": 3953,
      "áĬŃáĪī": 3954,
      "áĭĪáĮ£": 3955,
      "Ġáī³áĪªáĬ«áĭĬ": 3956,
      "amuziki": 3957,
      "Ġdigiri": 3958,
      "Ġqu'": 3959,
      "umma": 3960,
      "k,": 3961,
      "Ġcour": 3962,
      "ĠKik": 3963,
      "ĠáĪĺáĮ¨áĪ¨áĪ»": 3964,
      "ben": 3965,
      "ĠâĢ¢": 3966,
      "sÃ¬n": 3967,
      "áĬĲáī±": 3968,
      "as,": 3969,
      "iláº¹": 3970,
      "áĪĺáĭį": 3971,
      "áĪ¨áĪ°": 3972,
      "cal": 3973,
      "áĪŃáī²": 3974,
      "ĠáīłáĬĲ": 3975,
      "gbÃ³": 3976,
      "ĠTazama": 3977,
      "Ġ2011": 3978,
      "Ġed": 3979,
      "Ġáº¹láº¹ÌģbÃ¹n": 3980,
      "ĠParty": 3981,
      "dom": 3982,
      "ĠáĬĲáĭįáį¡áį¡": 3983,
      "ĠáĬĵáī¸áĭį": 3984,
      "ge,": 3985,
      "ret": 3986,
      "utu": 3987,
      "áĭįáĪ®áįĵ": 3988,
      "ĠGa": 3989,
      "ĠáĭĿáĪŃáĭĿáĪŃ": 3990,
      "Ġ186": 3991,
      "áīłáĪ©áīµ": 3992,
      "kÃ¹nrin": 3993,
      "Pa": 3994,
      "¶áį": 3995,
      "áĪĺáĭµ": 3996,
      "ĠYar": 3997,
      "áĬ¨áī°áĪĽ": 3998,
      "ĠBal": 3999,
      "-O": 4000,
      "ĠRob": 4001,
      "áī°áĬķ": 4002,
      "Ġigba": 4003,
      "Ġba.": 4004,
      "ĠÆĺ": 4005,
      "Ġparti": 4006,
      "áĬĵáī¸áĭį": 4007,
      "ĠáīłáĬ©": 4008,
      "Ġmusamman": 4009,
      "Ġkwaikwayo": 4010,
      "Ġpri": 4011,
      "di,": 4012,
      "ĠBahari": 4013,
      "áĬĵáĪįáį¢": 4014,
      "ĠáĮĬ": 4015,
      "áĪĺáĪį": 4016,
      "Ġáįĭ": 4017,
      "olly": 4018,
      "ĠRep": 4019,
      "ĠáĪģáĬĶáī³": 4020,
      "rÃ²yÃ¬n": 4021,
      "Ġáº¸ÌĢ": 4022,
      "ily": 4023,
      "wanda": 4024,
      "áī¤áī°": 4025,
      "ĠsinimÃ¡": 4026,
      "ĠGer": 4027,
      "-i": 4028,
      "ĠKatsina": 4029,
      "áĪ«áĪ²": 4030,
      "ukuu": 4031,
      "Ġáĭ¨áĬ¥áĪµ": 4032,
      "-da": 4033,
      "ĠSeptember": 4034,
      "aru": 4035,
      "Ġvile": 4036,
      "koso": 4037,
      "áĮĦ": 4038,
      "Ġáī»": 4039,
      "Ġkila": 4040,
      "Ġtaima": 4041,
      "ĠáĬĲáĮ»": 4042,
      "ĠfÃŃÃ¬mÃ¹": 4043,
      "ĠpadÃł": 4044,
      "ĠBer": 4045,
      "Ġáī±": 4046,
      "ĠojÃº": 4047,
      "áĪħáĬķ": 4048,
      "amad": 4049,
      "ĠgbajÃºmá»įÌĢ": 4050,
      "als": 4051,
      "ĠTo": 4052,
      "Ġbila": 4053,
      "áĭ«áĭĬ": 4054,
      "áĪĪáī½": 4055,
      "áĪĪáĪĽ": 4056,
      "ĠáĪĺáĪįáĬŃ": 4057,
      "ĠYamma": 4058,
      "Ġkamfanin": 4059,
      "ĠMajalisar": 4060,
      "Ġpáº¹lu": 4061,
      "Ġ(p": 4062,
      "ango": 4063,
      "ing,": 4064,
      "ĠáĮįáĭµáĪĿ": 4065,
      "áĪ¶áī½": 4066,
      "ĠáĪļáĬĴ": 4067,
      "Ġuhuru": 4068,
      "Ġjagor": 4069,
      "itin": 4070,
      "ĠDecember": 4071,
      "able": 4072,
      "Tare": 4073,
      "ĠMto": 4074,
      "láº¹ÌĢ-Ã¨dÃ¨": 4075,
      "ĠáįĪáĪŃ": 4076,
      "wÃ¡jÃº": 4077,
      "Ġsiyasa": 4078,
      "ĠSte": 4079,
      "itt": 4080,
      "ĠPri": 4081,
      "áĭļáīĥ": 4082,
      "yoyi": 4083,
      "Ġutawala": 4084,
      "Ġarewa": 4085,
      "Ġ(D": 4086,
      "opo": 4087,
      "Ġijoba": 4088,
      "ĠáĬŃáĪŃáĪµáī²áĭ«áĬķ": 4089,
      "Ġzaman": 4090,
      "ĠNorth": 4091,
      "Ġkut": 4092,
      "áĬĵáĬķ": 4093,
      "ĠlÃ¡Ãł": 4094,
      "ĠFizikia": 4095,
      "rop": 4096,
      "Ġfran": 4097,
      "ijin": 4098,
      "26": 4099,
      "45": 4100,
      "áº¹ráº¹": 4101,
      "Ġidadi": 4102,
      "Ġhtt": 4103,
      "ĠÃ¬tÃłn": 4104,
      "ĠEthiop": 4105,
      "áĭĭáĬĵ": 4106,
      "ĠáĬłáĪĺáīµ": 4107,
      "ac": 4108,
      "ĠDem": 4109,
      "'ad": 4110,
      "Ġáĭ¨áī£": 4111,
      "Ġlambar": 4112,
      "ilar": 4113,
      "ĠáĬĲáĮĪáĪ®áī½": 4114,
      "ĠFaransa": 4115,
      "ĠwÃ³n": 4116,
      "Ġhukuma": 4117,
      "Ġráº¹ÌĢ.": 4118,
      "áĪģáĬķ": 4119,
      "ĠKiingereza": 4120,
      "áī´áĭİáĪµ": 4121,
      "ers,": 4122,
      "ĠSaint": 4123,
      "uf": 4124,
      "áĬ¸": 4125,
      "yayy": 4126,
      "Ġáīłáĭį": 4127,
      "Ġkarkashin": 4128,
      "Ġáī¢áĪĨáĬķ": 4129,
      "uring": 4130,
      "adem": 4131,
      "Ġl'Ã©": 4132,
      "Ø±": 4133,
      "aniya": 4134,
      "ÃłÃł": 4135,
      "ĠÃłÃ¬": 4136,
      "á¹£u": 4137,
      "ĠáĭĺáĪŃ": 4138,
      "3-": 4139,
      "Ġ(s": 4140,
      "ilu": 4141,
      "Ġdeux": 4142,
      "ancin": 4143,
      "ander": 4144,
      "ĠáĭŃáĪĺáĪµ": 4145,
      "Ġkazi": 4146,
      "áī»áī¸áĭį": 4147,
      "Ġáĭ¨áĪĽáĭŃ": 4148,
      "atikana": 4149,
      "d,": 4150,
      "zer": 4151,
      "eman": 4152,
      "ungi": 4153,
      "Ar": 4154,
      "Ġtáº¹": 4155,
      "ĠOlÃ³": 4156,
      "Am": 4157,
      "arch": 4158,
      "Ġmais": 4159,
      "ondo": 4160,
      "htt": 4161,
      "-C": 4162,
      "Ġbang": 4163,
      "ĠKati": 4164,
      "ures": 4165,
      "Ġjari": 4166,
      "áĮĪáĭ°": 4167,
      "Ġáĭ«áĪħáĪį": 4168,
      "ffun": 4169,
      "julikana": 4170,
      "ĠáĭŃáĮĪáĬĽáĪįáį¢": 4171,
      "ctober": 4172,
      "ient": 4173,
      "Ġsub": 4174,
      "por": 4175,
      "keo": 4176,
      "áĪĤ": 4177,
      "ĠsÃ¡": 4178,
      "gbá»įÌĢn": 4179,
      "ĠáĭŃáĪħáĪĿ": 4180,
      "bb": 4181,
      "Ã§a": 4182,
      "Ġsak": 4183,
      "29": 4184,
      "Ita": 4185,
      "rÃ¬n": 4186,
      "áīłáĬł": 4187,
      "Ġáįª": 4188,
      "á¹£i": 4189,
      "bÃŃláº¹ÌĢ": 4190,
      "27": 4191,
      "ĠáĪ¦": 4192,
      "ĠáĭŃáĪĨ": 4193,
      "ĠáīłáĪĻ": 4194,
      "ĠEx": 4195,
      "Ġbiy": 4196,
      "ĠáĭµáĪŃáĮħ": 4197,
      "Ġ2007": 4198,
      "Ġsani": 4199,
      "Ġbeen": 4200,
      "ongozi": 4201,
      "ely": 4202,
      "ler": 4203,
      "ino": 4204,
      "-s": 4205,
      "áįĶ": 4206,
      "adhi": 4207,
      "áĮłáĭį": 4208,
      "áī·áĪįáį¢": 4209,
      "ĠIII": 4210,
      "Ġdali": 4211,
      "ĠFasihi": 4212,
      "áĮĢáĪŃáĪĺáĬķ": 4213,
      "arab": 4214,
      "Ġ2006": 4215,
      "gbon": 4216,
      "ĠHot": 4217,
      "ĠáĬ¡": 4218,
      "Ġpá»įÌĢ": 4219,
      "áĪĺáĮ£": 4220,
      "ĠáĬ¥áĬĲ": 4221,
      "Ġiye": 4222,
      "Ġhai": 4223,
      "áĬ¥áĬķáĮįáĪĬáĭĿáĬĽ": 4224,
      "Ġsunan": 4225,
      "lá»įpá»įÌĢ": 4226,
      "ifaffun": 4227,
      "Ġ(G": 4228,
      "Ġkáº¹Ìģ": 4229,
      "Ġmalla": 4230,
      "ĠáĪĺáĮĢáĪĺáĪŃáĭ«": 4231,
      "ĠTura": 4232,
      "omen": 4233,
      "âĢĻar": 4234,
      "bert": 4235,
      "ĠRoma,": 4236,
      "anisha": 4237,
      "-áĬł": 4238,
      "Ãī": 4239,
      "Ġkayan": 4240,
      "Ġmn": 4241,
      "Ġmace": 4242,
      "ĠáĭŃáĭĺ": 4243,
      "áįĪáĮ¥": 4244,
      "Ġasalin": 4245,
      "Ġbisa": 4246,
      "Ã¡Ã¬": 4247,
      "ikukuu": 4248,
      "ĠáĪĿáĬķáĪĿ": 4249,
      "ĠáĪĿáĬķáĮ®áī½": 4250,
      "Ġpers": 4251,
      "rew": 4252,
      "Ġses": 4253,
      "ide": 4254,
      "ĠáīłáĪ½": 4255,
      "Ġkifo": 4256,
      "ĠTari": 4257,
      "lÃ¬": 4258,
      "p://www.": 4259,
      "burg": 4260,
      "ĠRay": 4261,
      "Ġkwallon": 4262,
      "áĪĽáĬĸáīµ": 4263,
      "Ġnau": 4264,
      "Af": 4265,
      "áĪ·": 4266,
      "áĬķáĭ±": 4267,
      "áĪĺáĪ°": 4268,
      "áĪĭáĪ´": 4269,
      "ĠáĪĿáĪŃ": 4270,
      "ove": 4271,
      "Ġáĭĭáī¢": 4272,
      "Ġwe": 4273,
      "ved": 4274,
      "áĬķáĭ°": 4275,
      "ĠKananan": 4276,
      "iter": 4277,
      "Ġnada": 4278,
      "ĠáĪł": 4279,
      "áĮĪáĪį": 4280,
      "Ġáĭ¨áĬ«": 4281,
      "Ġáĭ¨áī°áĪ°": 4282,
      "huwar": 4283,
      "Ġolos": 4284,
      "ayansi": 4285,
      "ĠáĭŃáĪħáĬķ": 4286,
      "áĬ¥áĬķáĭ°": 4287,
      "ĠdâĢĻ": 4288,
      "Ġsyst": 4289,
      "A.": 4290,
      "ĠAlex": 4291,
      "bÃ¬nrin": 4292,
      "Ġver": 4293,
      "Ġshirin": 4294,
      "Ġbiashara": 4295,
      "Ġáº¹ÌĢyÃł": 4296,
      "way": 4297,
      "vin": 4298,
      "ays": 4299,
      "rid": 4300,
      "Ġbaba": 4301,
      "·áį": 4302,
      "Ġere": 4303,
      "áĬŃáĪŃ": 4304,
      "ĠDola": 4305,
      "áīłáĪĪ": 4306,
      "Ġtsohon": 4307,
      "Ġ2012": 4308,
      "Ġkuhusu": 4309,
      "ĠáĪĺáĪĨáĬĳ": 4310,
      "ĠOrÃŃ": 4311,
      "Ġolu": 4312,
      "Ġambao": 4313,
      "Ġ2014": 4314,
      "Ġ2010": 4315,
      "-B": 4316,
      "ĠinÃº": 4317,
      "Ġyabo": 4318,
      "al,": 4319,
      "tokea": 4320,
      "áīłáĪĺ": 4321,
      "ĠKudu": 4322,
      "ject": 4323,
      "-S": 4324,
      "Ġhata": 4325,
      "ĠáĮ½áĪĳ": 4326,
      "ĠáĪĽáĪŃáīĨ": 4327,
      "Ġkara": 4328,
      "ĠFrance": 4329,
      "ach": 4330,
      "badi": 4331,
      "-K": 4332,
      "dÃ²": 4333,
      "rÃ¡n": 4334,
      "Ġnjia": 4335,
      "Ġciki": 4336,
      "gbáº¹": 4337,
      "ĠKanisa": 4338,
      "yayyun": 4339,
      "ste": 4340,
      "ĠAbdul": 4341,
      "Ġused": 4342,
      "hal": 4343,
      "lack": 4344,
      "himu": 4345,
      "ĠáĪ¥áĪŃáĭĪ": 4346,
      "Ġ187": 4347,
      "1892": 4348,
      "h,": 4349,
      "hem": 4350,
      "ĠIbadan": 4351,
      "unt": 4352,
      "Ġmam": 4353,
      "ĠáĪµáĪĻ": 4354,
      "atan": 4355,
      "pos": 4356,
      "Ġkn": 4357,
      "arai": 4358,
      "Ġdari": 4359,
      "Ġ(E": 4360,
      "ĠáĮłáĪ": 4361,
      "ĠáĪĺáĭµ": 4362,
      "áĭ³áĪŃ": 4363,
      "ĠKiswahili": 4364,
      "mÃ¬nÃł": 4365,
      "ĠáĪłáĪ«": 4366,
      "iru": 4367,
      "utt": 4368,
      "oto": 4369,
      "ĠáĬħ": 4370,
      "áĭ¨áĪ±": 4371,
      "Ġ'yar": 4372,
      "Ġ'Yan": 4373,
      "Ġlokaci": 4374,
      "anna": 4375,
      "áĭ¨áĪĿ": 4376,
      "ĠÃĢÃłráº¹": 4377,
      "Ġáĭ°áĪ´": 4378,
      "ĠQu": 4379,
      "ombe": 4380,
      "Ġinto": 4381,
      "huo": 4382,
      "0,000": 4383,
      "Ġasa": 4384,
      "dini": 4385,
      "ĠáĪĤ": 4386,
      "Ġjerin": 4387,
      "ĠáĬłáĪ³": 4388,
      "Ġoffic": 4389,
      "uly": 4390,
      "áĬĵáĭĬ": 4391,
      "áĪĭáĪĽ": 4392,
      "Ġáĭ¨áĪ¥": 4393,
      "ĠáĪĿáĪįáĬŃ": 4394,
      "Ġvisiwa": 4395,
      "Ġeniyan": 4396,
      "ges": 4397,
      "sÃ¨": 4398,
      "part": 4399,
      "sin": 4400,
      "ĠSun": 4401,
      "Ġ0": 4402,
      "Ġáį¤": 4403,
      "ics": 4404,
      "áĭļáĪģ": 4405,
      "Ġá¹£ÃŃ": 4406,
      "Ġá¹£iá¹£áº¹Ìģ": 4407,
      "asaha": 4408,
      "áįĪáĪ¨áĬķáĪ³áĭŃ": 4409,
      "ĠAir": 4410,
      "gen": 4411,
      "báº¹ÌĢ": 4412,
      "ĠÃłgbÃł": 4413,
      "ĠEbun": 4414,
      "Ġ(L": 4415,
      "pata": 4416,
      "áĪ¡": 4417,
      "Ġmod": 4418,
      "Ġ(O": 4419,
      "ilia": 4420,
      "Ġfin": 4421,
      "ĠáĪĺáĪª": 4422,
      "ĠáĭŃáĪ°": 4423,
      "ĠHistoria": 4424,
      "Ġmajalisar": 4425,
      "torÃŃ": 4426,
      "Ġdir": 4427,
      "ĠAsi": 4428,
      "alis": 4429,
      "Ġmasa": 4430,
      "ye-": 4431,
      "Ġ(J": 4432,
      "ĠCor": 4433,
      "áĪ¯": 4434,
      "ĠáĬĴ": 4435,
      "ĠáĬĸ": 4436,
      "ĠáĭĪáĪ¨áĭ³": 4437,
      "ĠáĭĪáĮĪáĬķ": 4438,
      "ĠáĬłáĪĪáīĥ": 4439,
      "Ġentre": 4440,
      "Ġsim": 4441,
      "ĠÃī": 4442,
      "Ġkusa": 4443,
      "Ġmasana": 4444,
      "áĭķáĪį": 4445,
      "áĪłáĪ«": 4446,
      "col": 4447,
      "Ġmot": 4448,
      "ĠKya": 4449,
      "ĠáĮħ": 4450,
      "sÃŃláº¹ÌĢ": 4451,
      "ĠMusulunci": 4452,
      "ĠrÃ¨": 4453,
      "ara,": 4454,
      "ulation": 4455,
      "Ã³mÃ¬nÃł": 4456,
      "ages": 4457,
      "ĠUganda": 4458,
      "ĠØ§": 4459,
      "Ġnam": 4460,
      "ature": 4461,
      "ley": 4462,
      "Ġd'un": 4463,
      "ĠáĬłáĪ¸": 4464,
      "Ġkawaida": 4465,
      "ari,": 4466,
      "indi": 4467,
      "ange": 4468,
      "áĪĪáī½áį¢": 4469,
      "ĠáĭķáĪĪ": 4470,
      "istory": 4471,
      "ĠFebruary": 4472,
      "As": 4473,
      "my": 4474,
      "áĭĳ": 4475,
      "Ġdini": 4476,
      "áī¶áī½áĬķ": 4477,
      "ĠáĪ´áīµ": 4478,
      "tique": 4479,
      "ĠNovember": 4480,
      "ĠCollege": 4481,
      "ĠPl": 4482,
      "hur": 4483,
      "Ġmbili": 4484,
      "Ġáĭ¨áĭĺ": 4485,
      "Ġlar": 4486,
      "ĠáĬłáĮ¥": 4487,
      "lÃ©wÃ²": 4488,
      "áĮįáī¥áĮ½": 4489,
      "ĠMutane": 4490,
      "199": 4491,
      "ollywood": 4492,
      "áĪĺáĪ«": 4493,
      "tab": 4494,
      "áĮĪáī¥": 4495,
      "Ġáī³áĭĭáīĤ": 4496,
      "Ġáīłáī°áĪĪáĭŃ": 4497,
      "dition": 4498,
      "Ã©,": 4499,
      "Ġ2.": 4500,
      "Ġ185": 4501,
      "kÃ¹": 4502,
      "ĠáĪº": 4503,
      "ĠáĬ¥áĭį": 4504,
      "áĮĪáīł": 4505,
      "áĭ²áĪħ": 4506,
      "áĬ®áī½": 4507,
      "yuka": 4508,
      "ĠMon": 4509,
      "ĠHer": 4510,
      "angi": 4511,
      ".,": 4512,
      "ĠDel": 4513,
      "áĮ¦áĪŃ": 4514,
      "Ġwá»į": 4515,
      "ĠáīłáĪĮ": 4516,
      "Ġbahari": 4517,
      "ĠHaifaffun": 4518,
      "ĠáĬŃáįįáĪĭ": 4519,
      "Ġn.k.": 4520,
      "Ġmap": 4521,
      "Ġ|-": 4522,
      "Ġpres": 4523,
      "ĠáīłáĮ¥": 4524,
      "áĪ°áĬķ": 4525,
      "ĠáĬłáĭŃáĭ°": 4526,
      "Ð°": 4527,
      "Ġ(R": 4528,
      "ubwa": 4529,
      "35": 4530,
      "endo": 4531,
      "198": 4532,
      "ĠBr": 4533,
      "áĬ¹": 4534,
      "ĠkÃ¡": 4535,
      "Ġláº¹ÌģyÃ¬n": 4536,
      "ĠáĬłáĭ°": 4537,
      "arautar": 4538,
      "áĪ³áī¸áĭį": 4539,
      "Ġilimin": 4540,
      "ĠKemia": 4541,
      "ĠgÃŃga": 4542,
      "xt": 4543,
      "ĠKil": 4544,
      "aux": 4545,
      "Ġrais": 4546,
      "Ġise": 4547,
      "Ġmwanamuziki": 4548,
      "overnment": 4549,
      "ĠwaÉĹanda": 4550,
      "arÃŃ": 4551,
      "Ġshuga": 4552,
      "ĠbÃł": 4553,
      "Ġwote": 4554,
      "ĠáīĢáĮ¥": 4555,
      "Ġrubuta": 4556,
      "Ġprin": 4557,
      "LÃ¡": 4558,
      "bakar": 4559,
      "ĠáīłáĪģ": 4560,
      "áįĪáĪµ": 4561,
      "áĪķáĪŃ": 4562,
      "Ġmagharibi": 4563,
      "ford": 4564,
      "Ġkis": 4565,
      "Ġ2,": 4566,
      "ando": 4567,
      "bila": 4568,
      "áįĳ": 4569,
      "asan": 4570,
      "áĪĺáī±": 4571,
      "áĪ¨áī¥": 4572,
      "áĮ¥áĪ¨": 4573,
      "Ġoloselu": 4574,
      "le.": 4575,
      "gÃ¡": 4576,
      "ĠÎ": 4577,
      "hes": 4578,
      "áĭµáĪ¨áĮį": 4579,
      "kata": 4580,
      "mÃº": 4581,
      "Ġchi": 4582,
      "-Ãł": 4583,
      "edi": 4584,
      "ĠáĪ»": 4585,
      "áįĪáīµ": 4586,
      "fika": 4587,
      "áĪĿáĪħáĪŃ": 4588,
      "ĠáĬ¥áĬķáĮįáĪĬáĭĿ": 4589,
      "Ġfilm": 4590,
      "mer": 4591,
      "Ġfit": 4592,
      "ģáĬĳ": 4593,
      "áĮłáĪ©": 4594,
      "ĠáĬłáĮĪáĪįáĮį": 4595,
      "ĠGir": 4596,
      "Ä«": 4597,
      "ayi": 4598,
      "Ġ2005": 4599,
      "AN": 4600,
      "dÃłn": 4601,
      "aria": 4602,
      "ĠmÃ¬ÃŃ": 4603,
      "áĪ¨áĮĭ": 4604,
      "Ġhudu": 4605,
      "ĠJamhuri": 4606,
      "ĠáĬ¥áĭ¨áī°": 4607,
      "ĠSy": 4608,
      "Ġ2003": 4609,
      "ĠFa": 4610,
      "áĮłáĬĵ": 4611,
      "Ġhaifi": 4612,
      "ĠolÃ³rin": 4613,
      "Ġmagana": 4614,
      "Ġafter": 4615,
      "haa": 4616,
      "aro": 4617,
      "ĠISBN": 4618,
      "á»įÌģá»įÌĢ": 4619,
      "Ġhalar": 4620,
      "Ġcons": 4621,
      "ĠOctober": 4622,
      "Ġreli": 4623,
      "ĠHukum": 4624,
      "áĬĹ": 4625,
      "rahim": 4626,
      "Ġá»įÌĢkan": 4627,
      "ĠRayayyun": 4628,
      "ista": 4629,
      "t.": 4630,
      "Ġfe": 4631,
      "ĠRic": 4632,
      "ĠZa": 4633,
      "/)": 4634,
      "báº¹Ìģ": 4635,
      "yama": 4636,
      "á»įÌĢrá»įÌĢ": 4637,
      "Ġhalarci": 4638,
      "mbo": 4639,
      "omb": 4640,
      "the": 4641,
      "âĢº": 4642,
      "hara": 4643,
      "onde": 4644,
      "ĠPas": 4645,
      "Ġfarkon": 4646,
      "kunan": 4647,
      "ĠKaskazini": 4648,
      "6-": 4649,
      "Ġ2013": 4650,
      "It": 4651,
      "Ġtena": 4652,
      "tim": 4653,
      "ĠAll": 4654,
      "clud": 4655,
      "ĠáĬ¥áĬĲáĭļáĪħ": 4656,
      "áĭ°áĮį": 4657,
      "Ġmwenye": 4658,
      "ĠmÃ¬ÃŃrÃłn": 4659,
      "ption": 4660,
      "áĬĥ": 4661,
      "ĠBBC": 4662,
      "hÃ¹n": 4663,
      "Ġtwo": 4664,
      "áī£áĭĬ": 4665,
      "ĠAcadem": 4666,
      "Ġmost": 4667,
      "áį²áį": 4668,
      "ences": 4669,
      "is.": 4670,
      "Ġtafi": 4671,
      "ĠáĪĽáī´áĭİáĪµ": 4672,
      "Ġharshen": 4673,
      "ĠilÃ©-": 4674,
      "Ġmulki": 4675,
      "row": 4676,
      "ĠTan": 4677,
      "ĠAustra": 4678,
      "sÃł": 4679,
      "´áį": 4680,
      "ĠáĬ¬": 4681,
      "áī½áĭį": 4682,
      "ĠOba": 4683,
      "ĠáĪµáīµ": 4684,
      "Ġáĭįáĭµ": 4685,
      "áĪ±áĪĿ": 4686,
      "ĠobÃ¬nrin": 4687,
      "ĠLondon": 4688,
      "zu": 4689,
      "ji.": 4690,
      "Tana": 4691,
      "oka": 4692,
      "ĪáĪĿ": 4693,
      "Ġáĭ´": 4694,
      "Ġpwani": 4695,
      "ĠNchi": 4696,
      "áĮĭáĪį": 4697,
      "Ġd'une": 4698,
      "Ġkun": 4699,
      "ÙĲ": 4700,
      "ĠAsia": 4701,
      "jáº¹ÌĢ": 4702,
      "Ġsome": 4703,
      "ĠáĪĺáĬĲ": 4704,
      "Ġwakil": 4705,
      "ĠáĭķáĪĪáī³áīµ": 4706,
      "'est": 4707,
      "Ġgo": 4708,
      "igh": 4709,
      "ation.": 4710,
      "S.": 4711,
      "c.": 4712,
      "el,": 4713,
      ")áį£": 4714,
      "Ġdist": 4715,
      "Ġcutar": 4716,
      "ĠáĪĺáĭĿ": 4717,
      "áĪ«áĪīáį¢": 4718,
      "áĪŃáĭ«áĪĿ": 4719,
      "ĠdÃ¡ra": 4720,
      "Ġtarihi": 4721,
      "ĠIt": 4722,
      "ĠMarch": 4723,
      "ĠMkoa": 4724,
      "áĭ¨áĬł": 4725,
      "Ġá¹£Ãł": 4726,
      "ĠKiarabu": 4727,
      "Ġgwamnatin": 4728,
      "ĠGeorge": 4729,
      "dÃºgbÃ²": 4730,
      "dhi": 4731,
      "iste": 4732,
      "sai": 4733,
      "ourn": 4734,
      "dá»įÌĢ": 4735,
      "kÃŃ": 4736,
      "Ġinc": 4737,
      "Ġáį³áį": 4738,
      "áįĵáĬķ": 4739,
      "Ã¼": 4740,
      "ky": 4741,
      "Ġ2018": 4742,
      "ĠipÃ²": 4743,
      "ĠPi": 4744,
      "ar,": 4745,
      "ĠEnglish": 4746,
      "Ġbinc": 4747,
      "Ġomi": 4748,
      "áĮĪáĭį": 4749,
      "ĠáĮ¥áĬķáī³áĭĬ": 4750,
      "Ġ(n": 4751,
      "ĠBi": 4752,
      "ĠSi": 4753,
      "Ġkisiwa": 4754,
      "ital": 4755,
      "Ġitace": 4756,
      "Ġkasuwanci": 4757,
      "Ġyo": 4758,
      "ĠWaz": 4759,
      "Ġyara": 4760,
      "ĠPr": 4761,
      "ĠáīĢáĬĵáīµ": 4762,
      "48": 4763,
      "kw": 4764,
      "ather": 4765,
      "ĠNij": 4766,
      "ĠHispania": 4767,
      "Ġtáº¹ÌĢ": 4768,
      "áĮĪáĪª": 4769,
      "Ġáĭ¨áĪĻ": 4770,
      "ĠáĬłáĪģáĬķ": 4771,
      "áĭ®áĪŃ": 4772,
      "ĠMarejeo": 4773,
      "sÃ¬kÃ²": 4774,
      "Ġzamani": 4775,
      "Ġlá»įÌģwá»įÌģ": 4776,
      "ĠAlakoso": 4777,
      "ĠAwards": 4778,
      "Ġmet": 4779,
      "isto": 4780,
      "ko,": 4781,
      "Ġáīł18": 4782,
      "áĪĽáī½": 4783,
      "Ġlafiya": 4784,
      "áĭ³áĪĿ": 4785,
      "áĪ©áīµ": 4786,
      "arly": 4787,
      "ĠYan": 4788,
      "ĠáĭĵáĪĪáĪĿ": 4789,
      "196": 4790,
      "ĠáīłáĬłáĬķáĭµ": 4791,
      "Ġlá»įÌģdÃºn": 4792,
      "75": 4793,
      "Na": 4794,
      "Ġder": 4795,
      "Ġsign": 4796,
      "ones": 4797,
      "ĠMart": 4798,
      "Ġpili": 4799,
      "ĠEs": 4800,
      "ÆĻa": 4801,
      "áĭ®áĪµ": 4802,
      "áĪ»áĭİáī½": 4803,
      "áī»áĭŃáĬĵ": 4804,
      "ĠáĪŀáīµ": 4805,
      "áĪŃáĪµáī²áĭ«": 4806,
      "ĠáįĵáĪŃáī²": 4807,
      "kur": 4808,
      "anada": 4809,
      "adin": 4810,
      "ĠBay": 4811,
      "ji,": 4812,
      "ĠMakar": 4813,
      "Tarehe": 4814,
      "áįĦ": 4815,
      "Ġneman": 4816,
      "áĪĽáĪŃ": 4817,
      "umia": 4818,
      "ĠáĭĪáĪ¨": 4819,
      "áĭĪáĪŃ": 4820,
      "áįĪáĪĪ": 4821,
      "ĠKwalejin": 4822,
      "Ġtáº¹Ìģláº¹ÌĢ": 4823,
      "pÃ¨": 4824,
      "Ġgen": 4825,
      "ĠFI": 4826,
      "Ġba,": 4827,
      "ĠJames": 4828,
      "Ġndi": 4829,
      "Ġlong": 4830,
      "Ġáīłáīµ": 4831,
      "áī³áī¸áĭįáĬķ": 4832,
      "ĠáĬłáĬķáĭ³": 4833,
      "Ġshirya": 4834,
      "Ġ2016": 4835,
      "áĪĵ": 4836,
      "Ġfáº¹Ìģ": 4837,
      "áĪĪáī¥": 4838,
      "ĠPaul": 4839,
      "ID": 4840,
      "yal": 4841,
      "ĠBib": 4842,
      "Ġmab": 4843,
      "riban": 4844,
      "ĠáĪĺáĬķáĮįáĪµáīµ": 4845,
      "ings": 4846,
      "ĠsÃ©": 4847,
      "Ġshe": 4848,
      "Ġrel": 4849,
      "ole": 4850,
      "ĠÃ¬gbÃ©": 4851,
      "Ġkwam": 4852,
      "hindi": 4853,
      "Ġmashariki": 4854,
      "tr": 4855,
      "ante": 4856,
      "ĠSud": 4857,
      "lie": 4858,
      "Ġnew": 4859,
      "ĠØ§ÙĦ": 4860,
      "jÃ²": 4861,
      "áĮ¹": 4862,
      "Ġdhidi": 4863,
      "áī£áĪŃ": 4864,
      "imbo": 4865,
      "tÃłkÃ¬": 4866,
      "dinin": 4867,
      "ĠÃģf": 4868,
      "áĭ¨áĪ±áĪµ": 4869,
      "Ġcor": 4870,
      "Ġcap": 4871,
      "us.": 4872,
      "ĠDu": 4873,
      "Tangu": 4874,
      "Ġagbegbe": 4875,
      "ĠNÃŃ": 4876,
      "chumi": 4877,
      "ĠáĬ¥áĬķáĪµ": 4878,
      "Ġáī¥áĪĪáĭį": 4879,
      "Ġáĭ°áī¡áī¥": 4880,
      "Ġif": 4881,
      "Ġca": 4882,
      "Ġ1999": 4883,
      "áĪįáĭ°": 4884,
      "ĠolÃº": 4885,
      "Ġrashin": 4886,
      "Ġzaben": 4887,
      "ĠÆĻungiyar": 4888,
      "tumia": 4889,
      "Ġpekee": 4890,
      "unifÃ¡": 4891,
      "amaduni": 4892,
      "On": 4893,
      "||": 4894,
      "Ġmore": 4895,
      "Ġbet": 4896,
      "Ġsasa": 4897,
      "áį¡áĭ¨": 4898,
      "ÆĻin": 4899,
      "bihi": 4900,
      "irefu": 4901,
      "Ãªme": 4902,
      "Ġá¹¢": 4903,
      "ĠGwamn": 4904,
      "Ġáĭ¨áĬĲáīłáĪ¨áĭį": 4905,
      "ĠHen": 4906,
      "ĠBritish": 4907,
      "áīº": 4908,
      "Ġtit": 4909,
      "áĪĮáĬŃáīµ": 4910,
      "ĠáĭµáĪĿ": 4911,
      "ĠáįĪáĪŃáĭĸ": 4912,
      "ĠÃģfrÃŃkÃł": 4913,
      "ines": 4914,
      "aj": 4915,
      "Ġover": 4916,
      "la,": 4917,
      "Ġvol": 4918,
      "ĠKib": 4919,
      "DP": 4920,
      "Ġay": 4921,
      "Ġmá»į": 4922,
      "Ġyote": 4923,
      "áĭĭáīµ": 4924,
      "Ġkaratu": 4925,
      "Ġnyingine": 4926,
      "score0": 4927,
      "ĠSw": 4928,
      "ĠfranÃ§a": 4929,
      "eph": 4930,
      "Ġhala": 4931,
      "Wannan": 4932,
      "áī¼": 4933,
      "ĠMov": 4934,
      "áĮįáĬķ": 4935,
      "áĮįáĪį": 4936,
      "ĠHan": 4937,
      "Ġzote": 4938,
      "Ġá»įÌĢrá»įÌĢ": 4939,
      "ĠáĬķáĮīáĪµ": 4940,
      "Ùı": 4941,
      "Un": 4942,
      "CO": 4943,
      "wiki": 4944,
      "yp": 4945,
      "zil": 4946,
      "iriki": 4947,
      "áĪĭáĪīáį¢": 4948,
      "binrin": 4949,
      "ĠáĬłáĬ«áĪį": 4950,
      "ĠAdam": 4951,
      "phy": 4952,
      "ĠArab": 4953,
      "Ġmjini": 4954,
      "Ġ(W": 4955,
      "áī¥áĭĻ": 4956,
      "ĠTs": 4957,
      "ĠWal": 4958,
      "Ġthey": 4959,
      "34": 4960,
      "Ġnum": 4961,
      "ĠCl": 4962,
      "hard": 4963,
      "Har": 4964,
      "Ġapa": 4965,
      "gawa": 4966,
      "áĬ¨áĪ«": 4967,
      "Ġáĭ¨áĪļáĪį": 4968,
      "Ġá¹£Ã¹gbá»įÌģn": 4969,
      "ĠáĪĨáĬĲáĭį": 4970,
      "áĮłáīĥáĪĭáĭŃ": 4971,
      "ĠÃ²á¹£erÃ©": 4972,
      "Â²": 4973,
      "Ġyaani": 4974,
      "áĬĲáīłáĪŃ": 4975,
      "Éĵa": 4976,
      "Ġnu": 4977,
      "Ġsc": 4978,
      "Ġcer": 4979,
      "36": 4980,
      "Itokasi": 4981,
      "pÃ¹": 4982,
      "ĠSara": 4983,
      "gbÃ¬": 4984,
      "ĠLugha": 4985,
      "Ġhuo": 4986,
      "Ġmiji": 4987,
      "Ġáĭ¨áĪĿáīµ": 4988,
      "ĠAmerika.": 4989,
      "bÃłdÃłn": 4990,
      "ĠPeople": 4991,
      "ifuata": 4992,
      "-R": 4993,
      "ar.": 4994,
      "ĠSer": 4995,
      "ĠBorn": 4996,
      "Ġsuch": 4997,
      "tomon": 4998,
      "dá»įÌģ": 4999,
      "ĠnÃ¬": 5000,
      "áī³áĭ°": 5001,
      "ÃŃnÃŃ": 5002,
      "áĬ©áĪį": 5003,
      "ĠÆ´": 5004,
      "áĮłáīĢáĪĿ": 5005,
      "anzibar": 5006,
      "iran": 5007,
      "elles": 5008,
      "ĠLes": 5009,
      "Ġkid": 5010,
      "unda": 5011,
      "Ġbai": 5012,
      "Ġaut": 5013,
      "hab": 5014,
      "áĪįáįį": 5015,
      "hairi": 5016,
      "Ġrik": 5017,
      "Ġáī°áĬĲ": 5018,
      "áĪ©áĬķ": 5019,
      "ĠáĪ³áĭŃáĪĨáĬķ": 5020,
      "ĠApril": 5021,
      "zing": 5022,
      "ife": 5023,
      "ĠPo": 5024,
      "Ġkina": 5025,
      "áĪįáį¡áį¡": 5026,
      "Ġpre": 5027,
      "áĭ«áĭį": 5028,
      "ĠáĪĺáĮ»": 5029,
      "Ġvo": 5030,
      "Ġ2017": 5031,
      "ĠÃłgbÃ©lÃ©wÃ²": 5032,
      "olution": 5033,
      "Ġer": 5034,
      "Ġsaur": 5035,
      "Kuna": 5036,
      "ĠMiji": 5037,
      "Ġnaf": 5038,
      "Ġáīłáīħ": 5039,
      "ÃºsÃ¹": 5040,
      "ĠáĬłáī£áĪį": 5041,
      "ĠNuwa": 5042,
      "Ġiá¹£": 5043,
      "37": 5044,
      "ĠFM": 5045,
      "Ġaussi": 5046,
      "Ġdubu": 5047,
      "ãĥ": 5048,
      "ĠáĪĪáĭį": 5049,
      "ĠáĪĽáĪħ": 5050,
      "áĮłáįĭ": 5051,
      "Ġprof": 5052,
      "áĪĦáĭµ": 5053,
      "Ġbayar": 5054,
      "Ġtarihin": 5055,
      "Ġlitta": 5056,
      "ĠáĬŃáĪįáĪį": 5057,
      "Ġph": 5058,
      "berg": 5059,
      "Ġ1960": 5060,
      "áī¬": 5061,
      "áĮ³": 5062,
      "Ġdunia": 5063,
      "ĠAba": 5064,
      "Ġtakar": 5065,
      "áĪ«áĪµ": 5066,
      "Ġáĭ¨áī°áĪĪáĭ«áĭ©": 5067,
      "ĠAlÃ¡": 5068,
      "Ġáī³áĪĭáīħ": 5069,
      "Ġtsawon": 5070,
      "ĠAbubakar": 5071,
      "ĠAnnabi": 5072,
      "ĠAtl": 5073,
      "ĠVol": 5074,
      "\")": 5075,
      "Manazarta": 5076,
      "ĠáĬĳ": 5077,
      "Ġáĭ¨áĭ°": 5078,
      "áĪįáīµ": 5079,
      "Ġgoma": 5080,
      "ĠnÃŃtorÃŃ": 5081,
      "ĠUmoja": 5082,
      "ĠNaijiria.": 5083,
      "ĠáĪĽáĪµáī³áĭĪ": 5084,
      "gent": 5085,
      "Ġtattalin": 5086,
      "Ġojo": 5087,
      "lem": 5088,
      "ĠJana": 5089,
      "Ġtofauti": 5090,
      "ĠalÃłÃł": 5091,
      "gbÃ¡yÃ©": 5092,
      "ĠáīłáĬ¥áĬķáĮįáĪĬáĭĿáĬĽ": 5093,
      "ĠalÃłÃłyÃ¨": 5094,
      "ĠáĭĲ": 5095,
      "ĠCap": 5096,
      "µáį": 5097,
      "Ġáĭ¨áĮĪ": 5098,
      "ĠáĬłáĭµ": 5099,
      "yÃłwÃ³": 5100,
      "Ġkabisa": 5101,
      "ĠpÃłtÃłkÃ¬": 5102,
      "Wakati": 5103,
      "gram": 5104,
      "anti": 5105,
      "hÃłn": 5106,
      "wá»įÌĢn": 5107,
      "limu": 5108,
      "áĪµáī±": 5109,
      "á»ĮÌĢ": 5110,
      "chaguzi": 5111,
      "Ġbabbar": 5112,
      "ĠLib": 5113,
      "Ġhawa": 5114,
      "stit": 5115,
      "ĠLab": 5116,
      "Ġmur": 5117,
      "Ġlu": 5118,
      "ĠSc": 5119,
      "ulani": 5120,
      "ĠJama": 5121,
      "Ġshida": 5122,
      "ouv": 5123,
      "Ã¨me": 5124,
      "bon": 5125,
      "vis": 5126,
      "ĠMusa": 5127,
      "Ġkumb": 5128,
      "mani": 5129,
      "ĠáĪ©": 5130,
      "Ġáīłáĭļáĭ«": 5131,
      "ĠShuga": 5132,
      "ĠÃ¬bÃŃláº¹ÌĢ": 5133,
      "Ġ2008": 5134,
      "áī²áĬķ": 5135,
      "anzishwa": 5136,
      "áĮłáĪį": 5137,
      "ukumbu": 5138,
      "ĠáĪĢáĮĪáĪŃ": 5139,
      "ensi": 5140,
      "ĠGuine": 5141,
      "vir": 5142,
      "ĠJi": 5143,
      "ĠkÃ¬": 5144,
      "ambu": 5145,
      "áīłáĪĮ": 5146,
      "ĠAbuja": 5147,
      "áĮ¥áĬķáī³áĭĬ": 5148,
      "ĠMaka": 5149,
      "ĠCa": 5150,
      "eries": 5151,
      "rent": 5152,
      "Ġrub": 5153,
      "ĠHo": 5154,
      "ĠEurope": 5155,
      "Ġshu": 5156,
      "ĠMungu": 5157,
      "Ġtayi": 5158,
      "Ġáĭ¨áī°áī£áĪĪáĭį": 5159,
      "akini": 5160,
      "ĠáĪ²áĪĨáĬķáį£": 5161,
      "Ġmuhimu": 5162,
      "Ġhankali": 5163,
      "Ġmwanasiasa": 5164,
      "ĠáĪĺáĪłáĪ¨áīµ": 5165,
      "ographi": 5166,
      "ped": 5167,
      "sent": 5168,
      "ine,": 5169,
      "ete": 5170,
      "ĠÃ©tÃ©": 5171,
      "káº¹Ìģ": 5172,
      "ĠdÃł": 5173,
      "áī°áĭĭáĪįáį¢": 5174,
      "Ġáĭ¨áĪĮ": 5175,
      "ĠáĭĻáĪªáĭ«": 5176,
      "AS": 5177,
      "log": 5178,
      "ĠTim": 5179,
      "gne": 5180,
      "Ġila": 5181,
      "Ã¶": 5182,
      "áĪŃáĪĭáĬķáĭµ": 5183,
      "ĠMw": 5184,
      "áĪĭáĪī": 5185,
      "áī¶áī¹": 5186,
      "Ġkasashen": 5187,
      "ĠáĬ¥áĮħáĮį": 5188,
      "Ġlanguage": 5189,
      "Ġsous": 5190,
      "ĠFir": 5191,
      "Mji": 5192,
      "Ġaina": 5193,
      "áĪŃáĮį": 5194,
      "ĠMic": 5195,
      "ĠáĮĨ": 5196,
      "áĭŃáĬĲáīµ": 5197,
      "áĪ«áī¸áĭį": 5198,
      "áĬŃáĪĪ": 5199,
      "Ġ\"S": 5200,
      "ĠnÃ¡Ãł,": 5201,
      "Ġá»ĮdÃºn": 5202,
      "-áº¹ÌĢyáº¹": 5203,
      "áī¨áĪŃ": 5204,
      "ĠUk": 5205,
      "Ġinf": 5206,
      "ĠAdÃ©": 5207,
      "ivers": 5208,
      "Ġede": 5209,
      "Ġláº¹Ìģ": 5210,
      "ĠáĬłáĬĲ": 5211,
      "ĠáįĢ": 5212,
      "áįįáĬĵ": 5213,
      "áĭĺáī¥": 5214,
      "ween": 5215,
      "áĪ±áĬķ": 5216,
      "olojia": 5217,
      "ĠWakristo": 5218,
      "cer": 5219,
      "Ġspe": 5220,
      "Ġinclud": 5221,
      "ing.": 5222,
      "Ġ2015,": 5223,
      "Ġ2009": 5224,
      "lisha": 5225,
      "Ġwurin": 5226,
      "áĬ¨áĪŃ": 5227,
      "áĬ«áī£áī¢": 5228,
      "ĠYe": 5229,
      "áĪİáĬķ": 5230,
      "áĪĥáĬķ": 5231,
      "Ġmuda": 5232,
      "Ġgwamnati": 5233,
      "Ġcommun": 5234,
      "day": 5235,
      "Ġing": 5236,
      "Ġabout": 5237,
      "jan": 5238,
      "upe": 5239,
      "Ġcika": 5240,
      "áĬĲáīłáĪ¨": 5241,
      "áĪªáī³": 5242,
      "ĠáĬ«áĪį": 5243,
      "Ġfait": 5244,
      "ĠolÃ³á¹£Ã¨lÃº": 5245,
      "ká»įÌĢwÃ©": 5246,
      "Ġmilima": 5247,
      "Ġkimanin": 5248,
      "Ġosere": 5249,
      "Ġá»įÌĢpá»įÌĢlá»įpá»įÌĢ": 5250,
      "gra": 5251,
      "Ġmak": 5252,
      "Ġ202": 5253,
      "31": 5254,
      "A)": 5255,
      "li,": 5256,
      "alth": 5257,
      "ingia": 5258,
      "ĠdÃº": 5259,
      "Ġmwisho": 5260,
      "ĠComp": 5261,
      "Ġmaa": 5262,
      "ĠGerman": 5263,
      "ĠTra": 5264,
      "uts": 5265,
      "Ġnasara": 5266,
      "Ġ(a": 5267,
      "áĬŃáĪŃáĪµáī²áĭ«áĬķ": 5268,
      "ĠWe": 5269,
      "áĪīáĪĿ": 5270,
      "ĠáĮį.": 5271,
      "himman": 5272,
      "Ġmilioni": 5273,
      "cience": 5274,
      "4-": 5275,
      "ĠCharles": 5276,
      "wÃ¹": 5277,
      "Ġkin": 5278,
      "ĠAwá»įn": 5279,
      "áī½áĪį": 5280,
      "áĮĪáĬĽ": 5281,
      "ĠáĪĺáĪ¨áĮĥ": 5282,
      "tokana": 5283,
      "áī£áĪįáį¢": 5284,
      "sib": 5285,
      "ĠáĪĽáĮ£": 5286,
      "áī²áĬŃ": 5287,
      "Ġnombre": 5288,
      "ĠáĭŃáī½áĪĭáĪįáį¢": 5289,
      "ed.": 5290,
      "Ġang": 5291,
      "Ġnon": 5292,
      "ce,": 5293,
      "Ġkirk": 5294,
      "umla": 5295,
      "imi": 5296,
      "ga,": 5297,
      "ĠJuly": 5298,
      "ĠAy": 5299,
      "39": 5300,
      "enne": 5301,
      "Ġwaka": 5302,
      "ĠSat": 5303,
      "âĢ¦": 5304,
      "ultur": 5305,
      "fáº¹ÌĢ": 5306,
      "wili": 5307,
      "entomon": 5308,
      "áĭ«áĪµ": 5309,
      "Ġidan": 5310,
      "ci,": 5311,
      "Ġayyukan": 5312,
      "ĠáĭŃáī³áĭĪáīĥáĪįáį¢": 5313,
      "nam": 5314,
      "áĪŃ-": 5315,
      "ĠowÃ³": 5316,
      "ĠTun": 5317,
      "áĪ³áī°": 5318,
      "Ġáī°áįĪ": 5319,
      "ĠGÃ³mÃ¬nÃł": 5320,
      "ĠáĭŃáĭĪ": 5321,
      "ĠáĭŃáī»": 5322,
      "ĠáīłáĪį": 5323,
      "Ġcibi": 5324,
      "áĪĪáī°áĬĽáĭį": 5325,
      "Ã¡Ã¬sÃŃ": 5326,
      "Ġknown": 5327,
      "Ġng": 5328,
      "ĠKal": 5329,
      "angany": 5330,
      "This": 5331,
      "limi": 5332,
      "áĬ½": 5333,
      "áĬĭáĪĭ": 5334,
      "iláº¹ÌĢ": 5335,
      "ĠáĬ¥áĭµ": 5336,
      "ĠáĪĺáĪĪ": 5337,
      "ĠáĬ¥áĬķáĭ°áĪĨáĬĲ": 5338,
      "pokeo": 5339,
      "áĪ²áĬķ": 5340,
      "ctions": 5341,
      "ĠÆ³": 5342,
      "ĠapÃ¡": 5343,
      "ibiyar": 5344,
      "dÃŃnlÃ³gÃºn": 5345,
      "fuatana": 5346,
      "reat": 5347,
      "liza": 5348,
      "gá»įÌģ": 5349,
      "áĬ¾": 5350,
      "Ġaki": 5351,
      "Ġd'a": 5352,
      "ĠgÃ©n": 5353,
      "ĠIjoba": 5354,
      "Ġmaana": 5355,
      "ĠYoh": 5356,
      "Ġáĭ¨áĪĨáĬĳ": 5357,
      "Ġáĭ©áĬĴ": 5358,
      "ye-shi": 5359,
      "ĠEast": 5360,
      "ĠDemoc": 5361,
      "usta": 5362,
      "Ġdawo": 5363,
      "ĠMil": 5364,
      "áī¥áĪĬáĬŃ": 5365,
      "Ġma'a": 5366,
      "ĠPrin": 5367,
      "Ġáĭ«áĪī": 5368,
      "Ġuti": 5369,
      "Ġhili": 5370,
      "Ġsakand": 5371,
      "Ġkumbukumbu": 5372,
      "ĠMor": 5373,
      "''": 5374,
      "Ã¤": 5375,
      "eld": 5376,
      "iyyar": 5377,
      "kiti": 5378,
      "áĬķáĮ«": 5379,
      "Ġáĭ¨áĪĭ": 5380,
      "áīłáĭį": 5381,
      "áīłáĬĽ": 5382,
      "Ġáī°áīĭ": 5383,
      "áīĥáĪį": 5384,
      "Ġonimo": 5385,
      "Ana": 5386,
      "áįĵáĬķáĭ«": 5387,
      "Ġáīłáĭ°áī¡áī¥": 5388,
      "ĠFilm": 5389,
      "ĠLu": 5390,
      "Ġ2004": 5391,
      "Ġunder": 5392,
      "orÃŃ": 5393,
      "onge": 5394,
      "alÃ¡Ã¬sÃŃ": 5395,
      "áĭ«áĭ«": 5396,
      "ĠWatu": 5397,
      "áĭ¨áĭį": 5398,
      "ĠMak": 5399,
      "ĠIbrahim": 5400,
      "Ġlilikuwa": 5401,
      "-daban": 5402,
      "Ø¨": 5403,
      "Ã¨res": 5404,
      "aman": 5405,
      "ictor": 5406,
      "Ka": 5407,
      "áĬ¡": 5408,
      "Ġ(kwa": 5409,
      "áĪĪáĭ°": 5410,
      "urch": 5411,
      "bawa": 5412,
      "ĠáĪĺáĭĭ": 5413,
      "Ġ2014,": 5414,
      "ĠáĬ«áĪĮ": 5415,
      "onekana": 5416,
      "Ġdaban-daban": 5417,
      "ii": 5418,
      "Ġ2016,": 5419,
      "ĠOpen": 5420,
      "Ġ1990": 5421,
      "Ð¸": 5422,
      "gbara": 5423,
      "-Ãºn": 5424,
      "Ġmirefu": 5425,
      "áĬ«áĪį": 5426,
      "adhim": 5427,
      "Ġ2011,": 5428,
      "áĭĽáĪ¬": 5429,
      "Ġwadda": 5430,
      "Ġnafasi": 5431,
      "Ki": 5432,
      "gh": 5433,
      "fs": 5434,
      "yd": 5435,
      "áĮ¼": 5436,
      "áĬĲáī¶áī½": 5437,
      "ĠáĪĺáī¶": 5438,
      "omas": 5439,
      "áĭĪáīħ": 5440,
      "Ġáĭ¨áī°áĬŃáĪī": 5441,
      "áīģáĪŃ": 5442,
      "com/": 5443,
      "darÃŃ": 5444,
      "Ġajili": 5445,
      "mai": 5446,
      "Ġeff": 5447,
      "ĠVer": 5448,
      "ĠAcademy": 5449,
      "Ġ2012,": 5450,
      "mama": 5451,
      "kad": 5452,
      "Ġjin": 5453,
      "ĠFab": 5454,
      "ection": 5455,
      "Ġ(ya": 5456,
      "ĠáīłáĬ¨": 5457,
      "Ġkuu": 5458,
      "Ġleo": 5459,
      "áĬĲáīµáĬķ": 5460,
      "ke,": 5461,
      "un,": 5462,
      "ross": 5463,
      "-n": 5464,
      "Ġcette": 5465,
      "Ġvari": 5466,
      "ĠIsland": 5467,
      "Awon": 5468,
      "Ġáĭ¨áįĸ": 5469,
      "Ġret": 5470,
      "ĠTV": 5471,
      "áĭ¨áĪĺ": 5472,
      "195": 5473,
      "Ġwalikuwa": 5474,
      "ĠTanbihi": 5475,
      "ÙĴ": 5476,
      "Ġ2017,": 5477,
      "uman": 5478,
      "sid": 5479,
      "áī³áī½áĬķ": 5480,
      "áĭĺáĬķ": 5481,
      "áĪĬáĭ®áĬķ": 5482,
      "Ġhizi": 5483,
      "áĭ°áĪ¨áĮī": 5484,
      "Ġrayuwar": 5485,
      "Ab": 5486,
      "pti": 5487,
      "ine.": 5488,
      "Ġindi": 5489,
      "ica": 5490,
      "jÃ³": 5491,
      "ojÃº": 5492,
      "Ã©ri": 5493,
      "irÃŃ": 5494,
      "Ġmapokeo": 5495,
      "ĠÃ¬á¹£": 5496,
      "ĠáĭŃáĮłáīĢ": 5497,
      "ĠáīłáĪ¨": 5498,
      "áįĪáĬķ": 5499,
      "áĪŀáīµ": 5500,
      "ĠáĮĪáī¥": 5501,
      "ĠáĭĵáĪĺáī±": 5502,
      "Ġmiliyan": 5503,
      "ĠTarayyar": 5504,
      "á¹£áº¹ÌĢláº¹ÌĢ": 5505,
      "yl": 5506,
      "tical": 5507,
      "Se": 5508,
      "cis": 5509,
      "Ġ3.": 5510,
      "áĭµáĪµáīµ": 5511,
      "Ġigb": 5512,
      "Ġhakan": 5513,
      "áįįáĪªáĬ«": 5514,
      "áĬĳáĪµ": 5515,
      "Ġ180": 5516,
      "áĮłáĪĭ": 5517,
      "Ġbaadaye": 5518,
      "orth": 5519,
      "ba.": 5520,
      "ĠGar": 5521,
      "cid": 5522,
      "ĠJapani": 5523,
      "Awá»įn": 5524,
      "áĭ£": 5525,
      "Ġáĭ±": 5526,
      "ĠkÃł": 5527,
      "Ġegbe": 5528,
      "áī¢áīµ": 5529,
      "sÃŃtÃ¬": 5530,
      "áĬłáĪĿ": 5531,
      "Ġ50": 5532,
      "Ġáĭ¨áĪ°áĭį": 5533,
      "ĠJune": 5534,
      "C)": 5535,
      "Â°": 5536,
      "bunge": 5537,
      "sÃ³": 5538,
      "uniyar": 5539,
      "ĠáĪĺáĮ¥": 5540,
      "Ġáį«": 5541,
      "ĠáĬłáĪ°": 5542,
      "ĠáīµáĪįáīħ": 5543,
      "áĬ¥áĮįáĭļáĬłáī¥áĪĶáĪŃ": 5544,
      "Ġ1980": 5545,
      "ĠNigeria.": 5546,
      "Ġmarubu": 5547,
      "ĠáĪľáīµáĪŃ": 5548,
      "Ġwork": 5549,
      "ĠSala": 5550,
      "cher": 5551,
      "ĠFIFA": 5552,
      "aso": 5553,
      "cen": 5554,
      "fara": 5555,
      "ĠKasa": 5556,
      "rench": 5557,
      "Ġtalla": 5558,
      "Ġlina": 5559,
      "asashen": 5560,
      "Ġjeshi": 5561,
      "áĮĪáĬĲ": 5562,
      "gain": 5563,
      "ĠÃ¬dÃ¡": 5564,
      "kofu": 5565,
      "áĬłáĪį": 5566,
      "ĠáĪķáĭĿ": 5567,
      "Ġmahaifin": 5568,
      "ĠáįķáĪ¬áĭļ": 5569,
      "Ġ()": 5570,
      "osop": 5571,
      "ott": 5572,
      "istr": 5573,
      "Ġwu": 5574,
      "Ġ2019,": 5575,
      "Ð¾": 5576,
      "Ġhilo": 5577,
      "isari": 5578,
      "Ġ(1": 5579,
      "Ġkuj": 5580,
      "ĠÃłÃł": 5581,
      "ĠIl": 5582,
      "ĠáĬ¨áĪĽ": 5583,
      "uther": 5584,
      "buwan": 5585,
      "ĠáĭįáĮ¤": 5586,
      "ĠÃĮbÃłdÃłn": 5587,
      "ĠáĪ¥áĪĭáĪ´": 5588,
      "Ġkáº¹rin": 5589,
      "ma,": 5590,
      "over": 5591,
      "chuku": 5592,
      "=\"": 5593,
      "Ġ(\"": 5594,
      "que.": 5595,
      "ansu": 5596,
      "Vi": 5597,
      "Ġáĭŀ": 5598,
      "ĠlÃ²": 5599,
      "áīħáĪµ": 5600,
      "Ġkofin": 5601,
      "Ġ31": 5602,
      "idayar": 5603,
      "ĠáīłáĬ©áĪį": 5604,
      "Ġout": 5605,
      "Ġwhen": 5606,
      "ĠSup": 5607,
      "Papa": 5608,
      "ware": 5609,
      "Ġhim": 5610,
      "Lakini": 5611,
      "Ġkundi": 5612,
      "Ġmch": 5613,
      "áĬķáĭ³áĪŃ": 5614,
      "ĠáĮįáī¥áĮ½": 5615,
      "ĠZanzibar": 5616,
      "áĭķáĭĿ": 5617,
      "áĪ«áĪĿ": 5618,
      "Ġiwe": 5619,
      "áĪªáīµ": 5620,
      "áīĢáĪį": 5621,
      "Ġkij": 5622,
      "Ġsune": 5623,
      "áĬ¨áī°áĪĪáĭį": 5624,
      "Ġkabila": 5625,
      "Ġzilizo": 5626,
      "ĠDavid": 5627,
      "Ġ2002": 5628,
      "Ġato": 5629,
      "áĪµáī°áĬĽ": 5630,
      "áĭ³áĮħ": 5631,
      "ataifa": 5632,
      "ĠáĭµáĬķ": 5633,
      "ĠáīģáĮ¥": 5634,
      "ĠáĮ½áĪĳáįį": 5635,
      "pindi": 5636,
      "Agbegbe": 5637,
      "val": 5638,
      "Ġmkoa": 5639,
      "áī£áĪī": 5640,
      "diyya": 5641,
      "ĠÃ¬l": 5642,
      "ĠáĪĪáī°": 5643,
      "Ġvili": 5644,
      "ĠáĬ¥áĬķáĭ°áī°": 5645,
      "Ġráº¹ÌĢ,": 5646,
      "ĠáīłáĪĺáĪĨáĬĳ": 5647,
      "ĠÆ³an": 5648,
      "Ġpub": 5649,
      "ĠLove": 5650,
      "Ġ--": 5651,
      "ments": 5652,
      "gon": 5653,
      "ĠkmÂ²": 5654,
      "kut": 5655,
      "Ġmik": 5656,
      "iyya": 5657,
      "anya": 5658,
      "áĪĪáĪģ": 5659,
      "Ġwrit": 5660,
      "ollow": 5661,
      "ĠhaÉĹa": 5662,
      "áĬłáĭŃ": 5663,
      "áĪ¥áī±": 5664,
      "ĠáĪħáĭĿáī¥": 5665,
      "áĮİáĪŃáĮİáĪŃ": 5666,
      "Ġakoko": 5667,
      "Ġbetween": 5668,
      "unga": 5669,
      "Ġint": 5670,
      "Ġconsi": 5671,
      "ĠYoruba": 5672,
      "Ġatt": 5673,
      "Ġnipa": 5674,
      "áĭ³áĬķáīµ": 5675,
      "Ġsupp": 5676,
      "ĠáĪµáĪĪáĭļáĪħ": 5677,
      "áº¹ÌĢáº¹ÌģsÃ¬": 5678,
      "ĠilÃ©-iá¹£áº¹Ìģ": 5679,
      "7-": 5680,
      "or,": 5681,
      "Ġ184": 5682,
      "ÃºÃºsÃ¹": 5683,
      "Ġtabb": 5684,
      "ĠáĬłáī£áīµ": 5685,
      "ĠáĭŃáĬĲ": 5686,
      "neo": 5687,
      "ĠArt": 5688,
      "áĬªáĭ«": 5689,
      "ĠIbile": 5690,
      "ĠáĪĿáĬķáĮŃ": 5691,
      "Ġmfano": 5692,
      "Ġáĭ¨áĪĺáĮĢáĪĺáĪªáĭ«áĭį": 5693,
      "-E": 5694,
      "38": 5695,
      "Ø¯": 5696,
      "Ġidi": 5697,
      "ra,": 5698,
      "Ġthan": 5699,
      "assi": 5700,
      "Ġorig": 5701,
      "wun": 5702,
      "áī§": 5703,
      "Ġmil": 5704,
      "Ġ(H": 5705,
      "ĠMari": 5706,
      "ĠáĬłáĭ¨áĪŃ": 5707,
      "tali": 5708,
      "Ġáĭ¨áĬĸ": 5709,
      "ĠUmar": 5710,
      "áĬłáĬķ": 5711,
      "ĠáĬŃáĪŃáĪµáī¶áĪµ": 5712,
      "Ġambako": 5713,
      "ĠáįĬáĭ°áĪį": 5714,
      "ĠáĪ«áĪµ": 5715,
      "ĠMagharibi": 5716,
      "ĠáĪĺáĮłáĬķ": 5717,
      "áįĪáĮ¥áĪ®": 5718,
      "Ġkit": 5719,
      "ĠDen": 5720,
      "Ġâ": 5721,
      "ed,": 5722,
      "ĠPak": 5723,
      "Ġ\"M": 5724,
      "áĮ¾": 5725,
      "Ġgbe": 5726,
      "ĠSch": 5727,
      "ĠWá»įÌģn": 5728,
      "áī£áī¥": 5729,
      "ĠáīłáĪĨ": 5730,
      "ĠáĬ¥áĬķáĬ³": 5731,
      "áĭĽáĭĿ": 5732,
      "ĠMoham": 5733,
      "Ġjimbo": 5734,
      "ĠáĬłáĭŃáĭ°áĪĪáĪĿ": 5735,
      "Ġsal": 5736,
      "ush": 5737,
      "ers.": 5738,
      "ĠMai": 5739,
      "ĠRepublic": 5740,
      "tÃ¡": 5741,
      "Ã¯": 5742,
      "ĠLou": 5743,
      "Ġaj": 5744,
      "Ġlin": 5745,
      "to,": 5746,
      "ĠáīłáĪ«": 5747,
      "abiwa": 5748,
      "Ġzin": 5749,
      "Ġont": 5750,
      "anzisha": 5751,
      "Ġáº¹ÌĢyáº¹": 5752,
      "Ġfound": 5753,
      "ĠáĬłáĬķáĭ³áĬķáĭµ": 5754,
      "ĠEmp": 5755,
      "Ġdont": 5756,
      "ateur": 5757,
      "ĠBello": 5758,
      "ĠAbi": 5759,
      "Ġ(;": 5760,
      "und)": 5761,
      "fen": 5762,
      "Ġkare": 5763,
      "papá»įÌĢ": 5764,
      "áĬĿáĬĲáīµ": 5765,
      "Ġmpya": 5766,
      "ĠBank": 5767,
      "futa": 5768,
      "vision": 5769,
      "Ġyau": 5770,
      "ĠSikukuu": 5771,
      "ĠáĪĺáĪ³": 5772,
      "áĪ«áĬ¤áĪį": 5773,
      "áīłáĪ¬": 5774,
      "áĭĿáĪĽáī½": 5775,
      "Ġ2016.": 5776,
      "ĠáĬłáĪĿáĪĭáĬŃ": 5777,
      "Ġshirye-shi": 5778,
      "ister": 5779,
      "Ġoffici": 5780,
      "hol": 5781,
      "bele": 5782,
      "76": 5783,
      "L'": 5784,
      "áĪµáī¶": 5785,
      "Ġgwa": 5786,
      "ĠIsa": 5787,
      "áĭ¨áī°": 5788,
      "Ġhuadhim": 5789,
      "ĠáĬ¨áī°áĪĽáĭį": 5790,
      "yáº¹yáº¹": 5791,
      "Ġgargaji": 5792,
      "ĠáīłáĪĻáĪī": 5793,
      "Ġmnamo": 5794,
      "ful": 5795,
      "ĠAct": 5796,
      "Ġserv": 5797,
      "ĠCong": 5798,
      "Ġwao": 5799,
      "ĠKif": 5800,
      "ĠáĬ¨áĪ°": 5801,
      "ĠtÃŃtÃŃ": 5802,
      "áĬ«áī³": 5803,
      "ĠáĬ¥áĬķáĭ°áĮĪáĬĵ": 5804,
      "ĠáĪĽáĪŃáīĨáĪµ": 5805,
      "ĠHukumar": 5806,
      "ĠMos": 5807,
      "Ġ3,": 5808,
      "irgin": 5809,
      "ĠLo": 5810,
      "ishe": 5811,
      "áĭ«áĭĿ": 5812,
      "ĠÆĻidayar": 5813,
      "ĠáīłáĬ¢": 5814,
      "ĠlÃ¡báº¹Ìģ": 5815,
      "ĠÃłká»įÌģlÃ©": 5816,
      "velopment": 5817,
      "Ġkadhaa": 5818,
      "ĠáĭµáĪŃáĮħáīµ": 5819,
      "ĠáĬ«áĪĮáĬķáĭ³áĪŃ": 5820,
      "de.": 5821,
      "Jina": 5822,
      "yer": 5823,
      "Ġkoloni": 5824,
      "Ġbikin": 5825,
      "áĪĭáĬķ": 5826,
      "ĠCibiyar": 5827,
      "umwa": 5828,
      "áĪ©áĪĿ": 5829,
      "áīĭáĬķáīĭ": 5830,
      "Ġá»įjá»įÌģalÃ¡Ã¬sÃŃ": 5831,
      "áĬķáĭ³áĬķáĭµ": 5832,
      "ografia": 5833,
      "Ġmahali": 5834,
      "Ġwengi,": 5835,
      "-finai": 5836,
      "Ġmasana'": 5837,
      "ĠYohane": 5838,
      "áĮİáĪŃáĮİáĪŃáĭ«áĬķ": 5839,
      "Or": 5840,
      "tics": 5841,
      "zarin": 5842,
      "Ġlik": 5843,
      "hilosop": 5844,
      "onal": 5845,
      "ĠMer": 5846,
      "ĠáĪĺáĮ£": 5847,
      "Ġá»įba": 5848,
      "áĪŀáĬŃ": 5849,
      "Ġwá»įn.": 5850,
      "ĠáįķáĪ®": 5851,
      "áĮ£áĪįáĭ«áĬķ": 5852,
      "Waliozaliwa": 5853,
      "ĠHotuna": 5854,
      "ĠáīłáĪ½áī³": 5855,
      "ĠMakarantar": 5856,
      "ĠNuwamba": 5857,
      "ĠáĪĽáĮ£áīĢ": 5858,
      "ball": 5859,
      "ĠUS": 5860,
      "ĠdÃ©part": 5861,
      "ĠMy": 5862,
      "Ġsara": 5863,
      "led": 5864,
      "ver,": 5865,
      "ged": 5866,
      "ĠáĬĹ": 5867,
      "áĪŃáĬķ": 5868,
      "áĪįáĮħ": 5869,
      "áī½áĪģ": 5870,
      "Ġáī°áĬĵ": 5871,
      "ĠhaÉĹin": 5872,
      "á»įÌģá»įÌĢlÃ¹": 5873,
      "Ġmilli": 5874,
      "lav": 5875,
      "bi,": 5876,
      "Ġ2018,": 5877,
      "ĠAustralia": 5878,
      "kam": 5879,
      "tive": 5880,
      "let": 5881,
      "ĠBenin": 5882,
      "ĠáĪİ": 5883,
      "áī°áĬĽáĭį": 5884,
      "áĪ«áĪ½": 5885,
      "Ġzake": 5886,
      "Ġamin": 5887,
      "ĠAfril": 5888,
      "áĪµáīµáĬĵ": 5889,
      "Ġ1970": 5890,
      "ĠgboyÃ¨": 5891,
      "32": 5892,
      "99": 5893,
      "Ġiki": 5894,
      "Ġ40": 5895,
      "ner": 5896,
      "lymp": 5897,
      "engo": 5898,
      "z,": 5899,
      "dai": 5900,
      "ĠyÃłn": 5901,
      "ĠMuhammadu": 5902,
      "Ġáĭ¨áĮ¥": 5903,
      "Ġáīłáįį": 5904,
      "ĠS.": 5905,
      "áĪ³áĪį": 5906,
      "ĠáĪĿáĬĵáĪį": 5907,
      "á»įÌĢkan": 5908,
      "Ġmatsa": 5909,
      "Ġá»Įjá»įÌģ": 5910,
      "áĭ³áĬķáĭ±": 5911,
      "áĭ®áĪŃáĮĬ": 5912,
      "ĠáĪĿáĬĵáĪįáī£áīµ": 5913,
      "ĠSin": 5914,
      "Ġpartic": 5915,
      "ye,": 5916,
      "ĠChristi": 5917,
      "ombo": 5918,
      "ĠJo": 5919,
      "ĠdÃ©c": 5920,
      "assan": 5921,
      "ĠtÃ¬": 5922,
      "áĪįáīģ": 5923,
      "áĪ¨áį¢": 5924,
      "áĬ¨áī¥": 5925,
      "re,": 5926,
      "áĭ´áīµ": 5927,
      "Ġzinazo": 5928,
      "Ġal'ad": 5929,
      "ichael": 5930,
      "emo": 5931,
      "cess": 5932,
      "tawa": 5933,
      "ĠGold": 5934,
      "ĠFed": 5935,
      "rÃ¹": 5936,
      "ºáį": 5937,
      "Ġawa": 5938,
      "Ġkowa": 5939,
      "ĠÃ©ta": 5940,
      "Ġáīłáī¥áĭĽáīµ": 5941,
      "sha": 5942,
      "ĠMali": 5943,
      "irc": 5944,
      "omina": 5945,
      "ĠOmo": 5946,
      "sociation": 5947,
      "ety": 5948,
      "sá»į": 5949,
      "áĪŃáį£": 5950,
      "Ġáīµáĭį": 5951,
      "áĮİáĬķ": 5952,
      "Ġsosai": 5953,
      "Ġgaban": 5954,
      "ĠwÃ¡yÃ©": 5955,
      "Ġáĭ¨áĭĵáĪĪáĪĿ": 5956,
      "sp": 5957,
      "Ġreg": 5958,
      "owe": 5959,
      "ĠKÃ¡": 5960,
      "lished": 5961,
      "Ðµ": 5962,
      "Láº¹ÌģyÃ¬n": 5963,
      "hÃ¬n": 5964,
      "mÃ²": 5965,
      "áī°áį¢": 5966,
      "Ġjinsi": 5967,
      "ĠÃłp": 5968,
      "ĠPat": 5969,
      "ĠÃ¬rÃ²yÃ¬n": 5970,
      "Ġáī°áĭĭ": 5971,
      "áīłáĪ°": 5972,
      "áĪ¥áĪ«áīħ": 5973,
      "Ġáī£áĪį": 5974,
      "ĠáįĪáĪ¨áĬķ": 5975,
      "Ġibile": 5976,
      "Ġáĭ¨áīĢáĬķ": 5977,
      "Ġká»įÌģká»įÌģ": 5978,
      "Ġgege": 5979,
      "Ġonly": 5980,
      "Ġl'a": 5981,
      "ĠKongo": 5982,
      "ĠâĢĶ": 5983,
      "ography": 5984,
      "-a": 5985,
      "¹áį": 5986,
      "Î¿": 5987,
      "ĠáĪ¹": 5988,
      "Ġkale": 5989,
      "Ġtiti": 5990,
      "assa": 5991,
      "Ġmay": 5992,
      "ĠáīłáĪķ": 5993,
      "áīłáĪī": 5994,
      "áĮ¡áīµ": 5995,
      "imakin": 5996,
      "kamakon": 5997,
      "Ġpata": 5998,
      "ella": 5999,
      "âĢľ": 6000,
      "rol": 6001,
      "Ġgr": 6002,
      "Ġgrand": 6003,
      "araka": 6004,
      "ĠáīłáĮİáĪŃáĮİáĪŃáĭ«áĬķ": 6005,
      "Ġmaisha": 6006,
      "ĠáĪįáĭ°áīµ": 6007,
      "ĠáĭµáĬķáĮĭ": 6008,
      "ĠáĬłáĪĪáĪĿ": 6009,
      "Ġlá»į.": 6010,
      "ĠáĬłáĮĪáĪ«áīµ": 6011,
      "áĪıáĪįáį¢": 6012,
      "kÃ©": 6013,
      "ĠStates": 6014,
      "ĠJapan": 6015,
      "ki.": 6016,
      "Ġemp": 6017,
      "ishin": 6018,
      "aransa": 6019,
      "Ġtura": 6020,
      "Ġáĭ¨áī¥": 6021,
      "Ġoko": 6022,
      "al.": 6023,
      "ĠáĬłáĭ³": 6024,
      "Ã¨s": 6025,
      "ĠyÃł": 6026,
      "Ġeyi": 6027,
      "ĠáĪįáī¥": 6028,
      "cÃ©": 6029,
      "agen": 6030,
      "ught": 6031,
      "Ġpeople": 6032,
      "Î±": 6033,
      "Ġ(197": 6034,
      "tÃºn": 6035,
      "ĠWomen": 6036,
      "Ġáĭ¨áĪŀ": 6037,
      "Ġalipo": 6038,
      "Ġaddinin": 6039,
      "ĠKaramar": 6040,
      "ĠáĪĽáĪµáī³áĭĪáĪ»áĭİáī½": 6041,
      "C.": 6042,
      "tÃº": 6043,
      "ving": 6044,
      "Ġtemp": 6045,
      "%)": 6046,
      "hudi": 6047,
      "Ġ<": 6048,
      "áĬĲáī±áĬķ": 6049,
      "Ġip": 6050,
      "Ġiá¹£áº¹": 6051,
      "Ġáĭ¨áĬ®": 6052,
      "yota": 6053,
      "hoto": 6054,
      "áĭ«áĬķáĭ³áĬķáĭ±": 6055,
      "ĠáĬŃáįįáĪİáī½": 6056,
      "Ġáĭ¨áĪļáĭ«áĪµ": 6057,
      "Ġwatakatifu": 6058,
      "33": 6059,
      "ĠOlymp": 6060,
      "et,": 6061,
      "ĠEthiopia": 6062,
      "Ad": 6063,
      "mÃ©": 6064,
      "ĠYo": 6065,
      "Ġ\"B": 6066,
      "Ġduring": 6067,
      "ire,": 6068,
      "ikan": 6069,
      "ĠSak": 6070,
      "ĠCham": 6071,
      "Ġáī¶": 6072,
      "amban": 6073,
      "áĪµáĪĽ": 6074,
      "ĠáĮ«": 6075,
      "rib": 6076,
      "Ġkawo": 6077,
      "ĠáĬ¥áĬķáĭ²áĭ«": 6078,
      "Ġrawar": 6079,
      "ĠAfrika.": 6080,
      "ĠRobert": 6081,
      "Ġasali": 6082,
      "Ġpi": 6083,
      "ĠSt.": 6084,
      "ratic": 6085,
      "Ġrap": 6086,
      "ets": 6087,
      "ruct": 6088,
      "ĠPop": 6089,
      "ements": 6090,
      "ĠA.": 6091,
      "ĠoyÃ¨": 6092,
      "Ġgra": 6093,
      "ĠáĮ³": 6094,
      "maji": 6095,
      "ĠáĬłáī¶": 6096,
      "áĮĪáīµ": 6097,
      "áĬłáīµ": 6098,
      "Ġbakwai": 6099,
      "Ġ~": 6100,
      "cia": 6101,
      "ĠSab": 6102,
      "Ġ(196": 6103,
      "¸áį": 6104,
      "áī¾": 6105,
      "Ġnasar": 6106,
      "yayya": 6107,
      "Ġáĭ¨áĪĪáĭį": 6108,
      "Ġ(áĬ¥áĬķáĮįáĪĬáĭĿáĬĽ": 6109,
      "ĠáĬ¨áĪģ": 6110,
      "ĠzaÉĵ": 6111,
      "Ġáī¥áĭĽáīµ": 6112,
      "áī¦áīµ": 6113,
      "Ġkusan": 6114,
      "áĮĪáĪªáī±": 6115,
      "unifÃ¡sÃŃtÃ¬": 6116,
      "Ġhistoria": 6117,
      "ĠWil": 6118,
      "Ġpeut": 6119,
      "view": 6120,
      "ĠId": 6121,
      "-z": 6122,
      "zung": 6123,
      "Ùĩ": 6124,
      "ĠjÃ©": 6125,
      "Ch": 6126,
      "ray": 6127,
      "áĬķáĪ³áĭĬ": 6128,
      "Ġmmoja": 6129,
      "taka": 6130,
      "ĠIlimi": 6131,
      "áĪ³áĪ³áĭŃ": 6132,
      "safa": 6133,
      "ye.": 6134,
      "Ġhuu": 6135,
      "Ġmuziki": 6136,
      "ĠáĭĿáĪŃáĭ«": 6137,
      "Ġáī¡áĭµáĬķ": 6138,
      "Ġcheo": 6139,
      "ĠáĪĪáĪĿáĪ³áĪĮ": 6140,
      "um,": 6141,
      "ouse": 6142,
      "estiv": 6143,
      "Ġ2091": 6144,
      "ĠOlÃº": 6145,
      "ĠRu": 6146,
      "ĠáĭĪáĪįáĭ°": 6147,
      "ulture": 6148,
      "Ġáĭ³áĪŃ": 6149,
      "Ġhannu": 6150,
      "Ġgas": 6151,
      "-G": 6152,
      "85": 6153,
      "ĠGuinea": 6154,
      "Ko": 6155,
      "kh": 6156,
      "Ġmengine": 6157,
      "ĠWata": 6158,
      "tÃłgÃ©": 6159,
      "Ġlabarai": 6160,
      "Ġ(áĬ¨1892": 6161,
      "ĠOff": 6162,
      "ket": 6163,
      "ĠFrench": 6164,
      "Ġtime": 6165,
      "-e": 6166,
      "ĠIV": 6167,
      "dis": 6168,
      "kn": 6169,
      "ráº¹Ìģ": 6170,
      "rÃºn": 6171,
      "áĬķáĭ¶": 6172,
      "ĠBest": 6173,
      "ĠJuli": 6174,
      "Ġáĭ¨áĬ¦": 6175,
      "áĭĵáĬķ": 6176,
      "ĠAj": 6177,
      "Ġconf": 6178,
      "ayÃ©": 6179,
      "Ġ2015.": 6180,
      "Ġáĭ¨áĭ«": 6181,
      "Ġfus": 6182,
      "chungu": 6183,
      "Ġáĭĺáĭ´": 6184,
      "áĪ©áį¢": 6185,
      "Ġduniya.": 6186,
      "Ġsystem": 6187,
      "----": 6188,
      "julo": 6189,
      "Ġnde": 6190,
      "Ġáĭ¨áīĨ": 6191,
      "Ãºpá»įÌĢ": 6192,
      "ikisho": 6193,
      "lewa": 6194,
      "áīłáīĥ": 6195,
      "Ġáī°áīĥ": 6196,
      "ĠáĮłáīħ": 6197,
      "jáº¹sÃ¡": 6198,
      "áī¥áĪ«áĭŃ": 6199,
      "ĠáĬĥáĭŃáĪį": 6200,
      "Ġáĭ¨áĭįáĮŃ": 6201,
      "áĪĮáĬŃáīµáĪªáĬŃ": 6202,
      "ES": 6203,
      "ĠOf": 6204,
      "ĠSoci": 6205,
      "hus": 6206,
      "eland": 6207,
      "kiri": 6208,
      "Ġname": 6209,
      "win": 6210,
      "Ġnahi": 6211,
      "áĪĪáĪĺ": 6212,
      "Ġru": 6213,
      "ĠÃłgbÃ¡yÃ©": 6214,
      "Ġipo": 6215,
      "ari.": 6216,
      "ĠáĪĽáĪŃáĭ«áĪĿ": 6217,
      "harar": 6218,
      "ĠáĮĪáĭ°": 6219,
      "Ġáīłáī°áĮ¨áĪĽáĪª": 6220,
      "áĪĲáįĬ": 6221,
      "Ġambapo": 6222,
      "Ġgwamnan": 6223,
      "olowo": 6224,
      "-Ã¬wÃ©": 6225,
      "cour": 6226,
      "ĠBas": 6227,
      "ĠMs": 6228,
      "ĠInstit": 6229,
      "ower": 6230,
      "ship": 6231,
      "gÃ³": 6232,
      "áĪŃáī±": 6233,
      "amia": 6234,
      "ĠAkin": 6235,
      "Ġ(áĬł": 6236,
      "Ġhuk": 6237,
      "Ġáĭ¨áĪĢ": 6238,
      "ĠáĪĪáĬ¥": 6239,
      "ĠáĬĥáĭŃáĪĪ": 6240,
      "ĠáĭľáĬĵ": 6241,
      "ĠMont": 6242,
      "str": 6243,
      "Ġleur": 6244,
      "ĠSpa": 6245,
      "Ġtatu": 6246,
      "Ġwaki": 6247,
      "ĠIsra": 6248,
      "Lugha": 6249,
      "Ġayáº¹yáº¹": 6250,
      "ĠAwon": 6251,
      "ĠáĬłáīħ": 6252,
      "áĪ«áĭį": 6253,
      "ĠáĬ¨áĪĮ": 6254,
      "ĠWilaya": 6255,
      "ĠáĭŃáĪĦ": 6256,
      "ko.": 6257,
      "Ġáĭ¨áĪļáī³áĭĪ": 6258,
      "ĠáĮįáĭĽ": 6259,
      "ĠáĮĪáĬķ": 6260,
      "ĠKijerumani": 6261,
      "lá»įÌģgbá»įÌĢn": 6262,
      "conom": 6263,
      "jáº¹sÃ¡ra": 6264,
      "Ġ2014.": 6265,
      "lect": 6266,
      "Ġwengine": 6267,
      "ĠáĬ¥áĬĶ": 6268,
      "ĠNollywood": 6269,
      "áĮ¥áĪĿ": 6270,
      "áĬ¨áĭļáĭ«": 6271,
      "ciyar": 6272,
      "pindu": 6273,
      "Ġká»įkÃłn": 6274,
      "hesabiwa": 6275,
      "ĠáĪĺáĮ»áĪķ": 6276,
      "uvent": 6277,
      "ĠJoseph": 6278,
      "tho": 6279,
      "Ġ1994": 6280,
      "jwa": 6281,
      "áĬķáī³": 6282,
      "Ġáĭ¨áĬŃ": 6283,
      "haif": 6284,
      "Ġta,": 6285,
      "Ġsucc": 6286,
      "áº¸ÌĢ": 6287,
      "ĠBrazil": 6288,
      "Ġgur": 6289,
      "ote.": 6290,
      "Ġbro": 6291,
      "ĠBau": 6292,
      "ĠBlack": 6293,
      "ĠHars": 6294,
      "ĠMpaka": 6295,
      "Ġosu": 6296,
      "áĭµáĬĵ": 6297,
      "áīłáīħ": 6298,
      "áĭĽáĬĽáĭį": 6299,
      "ĠáĪµáĪĪáĪļ": 6300,
      "limfuata": 6301,
      "Ġkyautar": 6302,
      "ĠBiranen": 6303,
      "ĠáĪĺáĪįáĬŃáĭĵ": 6304,
      "ating": 6305,
      "Ġimport": 6306,
      "Ġmambo": 6307,
      "ĠCO": 6308,
      "nes": 6309,
      "páº¹ÌĢ": 6310,
      "áĪŃáī£": 6311,
      "ĠfÃ¬": 6312,
      "áĭµáĪ¨áĪµ": 6313,
      "ana,": 6314,
      "ĠáĬłáĪħ": 6315,
      "ĠáīĢáĭ³": 6316,
      "engene": 6317,
      "dancin": 6318,
      "ĠáĪĻáĪī": 6319,
      "Ġwakifuata": 6320,
      "kÃ¡láº¹ÌĢ": 6321,
      "ĠSalaam": 6322,
      "ĠTr": 6323,
      "49": 6324,
      "Åį": 6325,
      "zz": 6326,
      "Ġshari": 6327,
      "áīµáĪĿ": 6328,
      "áĬĵáĭŃáīµ": 6329,
      "Ġkuf": 6330,
      "Ġuishe": 6331,
      "Ġarziki": 6332,
      "ĠáĬłáĪīáį¢": 6333,
      "ĠDisamba": 6334,
      "gbÃ¬má»įÌĢ": 6335,
      "Ġhuadhimisha": 6336,
      "ĠLÃ¡": 6337,
      "ĠBook": 6338,
      "-P": 6339,
      "zation": 6340,
      "ushe": 6341,
      "Ġgroup": 6342,
      "Ġ2013,": 6343,
      "cul": 6344,
      "ĠmÃªme": 6345,
      "ĠpÃłÃ¡": 6346,
      "áĮĪáĪ«áīµ": 6347,
      "áīłáĪ³": 6348,
      "kuta": 6349,
      "Ġá»įÌĢnÃł": 6350,
      "ĠSoko": 6351,
      "NÃŃgbÃł": 6352,
      "ĠáĬłáĮĪáĪ®áī½": 6353,
      "babisha": 6354,
      "Ġtakriban": 6355,
      "Ġáī¥áĪĶáĪ«áĭĬ": 6356,
      "Ġduniani": 6357,
      "Ġmirefu).": 6358,
      "ĠGree": 6359,
      "ident": 6360,
      "47": 6361,
      "Ġfili": 6362,
      "rica": 6363,
      "ĠTanzania.": 6364,
      "eu": 6365,
      "jÃ¹": 6366,
      "ames": 6367,
      "áĪµáĪĿ": 6368,
      "ĠáĬ¥áĮįáĭļáĬłáī¥áĪĶáĪŃ": 6369,
      "ĠÃłjá»į": 6370,
      "áĮĪáī¡": 6371,
      "ĠÃ¬f": 6372,
      "áīĢáĭµáĪŀ": 6373,
      "ried": 6374,
      "Ġkoyar": 6375,
      "Ġkowan": 6376,
      "Ġáī£áĭŃ": 6377,
      "Ġyanayin": 6378,
      "Ġzinabaki": 6379,
      "fofin": 6380,
      "Ġwenyewe": 6381,
      "ĠArewacin": 6382,
      "ÃĴun": 6383,
      "ĠáĭĪáĭŃáĬķáĪĿ": 6384,
      "ĠáīĢáĮ¥áĪİ": 6385,
      "kia": 6386,
      "inad": 6387,
      "arar": 6388,
      "Ġdaida": 6389,
      "Ġáī°áĮįáī£": 6390,
      "áīłáĪµ": 6391,
      "Ġáĭ¨áī°áĪĺ": 6392,
      "áĬłáĪĪ": 6393,
      "Ġkwenda": 6394,
      "izari": 6395,
      "ĠÃ²á¹£Ã¨lÃº": 6396,
      "Ġyammacin": 6397,
      "ungiyoyin": 6398,
      "Ġsho": 6399,
      "ago": 6400,
      "ĠMaria": 6401,
      "oss": 6402,
      "Ġalb": 6403,
      "Ġ%": 6404,
      "Ġrangi": 6405,
      "Ġjá»į": 6406,
      "ÆĻi": 6407,
      "áĪĪáĪĿáĪ³áĪĮ": 6408,
      "áĪ¸áĬĲ": 6409,
      "ĠJamiâĢĻar": 6410,
      "ĠGeorg": 6411,
      "'iyyar": 6412,
      "ĠáĪĽáĮ£áīĢáĪ»": 6413,
      "55": 6414,
      "gani": 6415,
      "met": 6416,
      "ĠÃª": 6417,
      "Ġ(b": 6418,
      "yam": 6419,
      "Ġ1993": 6420,
      "Ġdiff": 6421,
      ");": 6422,
      "-D": 6423,
      "huwa": 6424,
      "atini": 6425,
      "ĠRiver": 6426,
      "historia": 6427,
      "Ġtalab": 6428,
      "ĠcrÃ©": 6429,
      "Ġáīłáį": 6430,
      "Ġáįİ": 6431,
      "ĠáĭŃáĭ©": 6432,
      "Ġáĭ«áĭĺ": 6433,
      "96": 6434,
      "TA": 6435,
      "llo": 6436,
      "ington": 6437,
      "ĠUt": 6438,
      "ĠKingdom": 6439,
      "1=": 6440,
      "rist": 6441,
      "Ġainsi": 6442,
      "esu": 6443,
      "Ġ(t": 6444,
      "ots": 6445,
      ".S.": 6446,
      "ĠdÃ¬": 6447,
      "áī°áīµ": 6448,
      "áį¡áīł": 6449,
      "Ġkashe": 6450,
      "wÃ²rÃ¡n": 6451,
      "ĠKaisari": 6452,
      "Ġterrit": 6453,
      "ĠFabra": 6454,
      "Ray": 6455,
      "cil": 6456,
      "ĠAma": 6457,
      "ĠpÃ¡": 6458,
      "ĠJu": 6459,
      "Ġsecond": 6460,
      "van": 6461,
      "Ġocc": 6462,
      "Ġ2010,": 6463,
      "patikana": 6464,
      "Ġmpaka": 6465,
      "ĠÃłá¹£Ãł": 6466,
      "ĠáĬ¨áĭĪ": 6467,
      "ick": 6468,
      "áīħáĭ«": 6469,
      "rÃŃwÃ¡": 6470,
      "ĠáĮ¥áĪ©": 6471,
      "áĭįáĬķáīµ": 6472,
      "ĠNÃłÃ¬jÃŃrÃŃÃł,": 6473,
      "ĠRoyal": 6474,
      "Ġsamo": 6475,
      "yo,": 6476,
      "Ġami": 6477,
      "Ġanti": 6478,
      "Ġass": 6479,
      "-p": 6480,
      "ville": 6481,
      "Ġáĭ¨áįĪ": 6482,
      "Ġtakwa": 6483,
      "áĬŃáĬķ": 6484,
      "ĠáīłáĪħ": 6485,
      "fazi": 6486,
      "jÃ¡de": 6487,
      "á»įÌĢnÃ¹": 6488,
      "Ġkabla": 6489,
      "Ġabinci": 6490,
      "ĠáĬłáįįáĪªáĬ«": 6491,
      "ek": 6492,
      "aron": 6493,
      "ĠLim": 6494,
      "ector": 6495,
      "BÃŃ": 6496,
      "táº¹ÌĢ": 6497,
      "wiwa": 6498,
      "Ġmtu": 6499,
      "ĠáĪĺáĪ¬áīµ": 6500,
      "Ġkashi": 6501,
      "Ġkarshe": 6502,
      "hamia": 6503,
      "Ġá»Įba": 6504,
      "ĠáīłáĪĽáĪĪáīµ": 6505,
      "Ġmakabila": 6506,
      "Ġyaliyo": 6507,
      "ĠáĬ¥áĬķáĮįáĪĬáĭĿáĬĽ": 6508,
      "Ġ(in": 6509,
      "oman": 6510,
      "ĠLiber": 6511,
      "alled": 6512,
      "Ġwhere": 6513,
      "Mu": 6514,
      "volution": 6515,
      "ĠSu": 6516,
      "Ġhut": 6517,
      "bÃ©": 6518,
      "ĠZam": 6519,
      "Ġ4,": 6520,
      "Ġutilis": 6521,
      "já»įÌĢ": 6522,
      "Ġmemba": 6523,
      "áĪŃáī¶": 6524,
      "Ġdamar": 6525,
      "ĠMkuu": 6526,
      "Ġnigba": 6527,
      "ĠWam": 6528,
      "ĠWab": 6529,
      "áĬ¨áī³": 6530,
      "áĭ©áĪµ": 6531,
      "áĮ«áĭĪ": 6532,
      "Ġkáº¹ta": 6533,
      "ĠáĪ³áĭŃáĬķáĪ³áĭĬ": 6534,
      "ĠMayu": 6535,
      "ĠáįĸáĪĪáī²áĬ«": 6536,
      "Wakristo": 6537,
      "áī¥áĪ«áĭŃáĪµáĮ¥": 6538,
      "ple": 6539,
      "ĠKale": 6540,
      "org/": 6541,
      "ologie": 6542,
      "Ġelect": 6543,
      "46": 6544,
      "ayin": 6545,
      "ina,": 6546,
      "Ġsoci": 6547,
      "Ġmt": 6548,
      "Ġfollow": 6549,
      "Ġmakuu": 6550,
      "áĪ³áĬķ": 6551,
      "Ġeto": 6552,
      "Ġprot": 6553,
      "Ġacikin": 6554,
      "ĠáĮīáĭ³áĭŃ": 6555,
      "ĠTarihi": 6556,
      "Ġintern": 6557,
      "duc": 6558,
      "ĠQue": 6559,
      "ĠMusic": 6560,
      "Ge": 6561,
      "ĠKK": 6562,
      "irun": 6563,
      "ĠWat": 6564,
      "ogin": 6565,
      "yáº¹ÌĢ": 6566,
      "ĠáĪ¬": 6567,
      "elf": 6568,
      "ĠOá¹£u": 6569,
      "á¹£irÃŃ": 6570,
      "Ġhaka,": 6571,
      "Ġáĭ«áĪ³": 6572,
      "pewa": 6573,
      "ĠáĬ¥áĬķáĭ³áĭŃ": 6574,
      "ĠáĭĽáĪ¬": 6575,
      "áĭ®áĪŃáĮĬáĪµ": 6576,
      "wari": 6577,
      "ĠGirl": 6578,
      "s)": 6579,
      "2=": 6580,
      "Ġdem": 6581,
      "imba": 6582,
      "Ġwould": 6583,
      "Ġngu": 6584,
      "Ġneno": 6585,
      "áĮĪáĪ¨": 6586,
      "ĠáĬ¨áĪĨáĬĲ": 6587,
      "Ġáĭ¨áĪļáĪ°": 6588,
      "áīĤáīµ": 6589,
      "Ġtuntun": 6590,
      "ologi": 6591,
      "Ġaká»įrin": 6592,
      "ĠáĪļáĬĴáĪµáīµ": 6593,
      "ithi": 6594,
      "ĠPoland": 6595,
      "197": 6596,
      "Ġart": 6597,
      "ĠStat": 6598,
      "ĠÃ©gal": 6599,
      "58": 6600,
      "Ġop": 6601,
      "Ġanci": 6602,
      "Ġthro": 6603,
      "heria": 6604,
      "áĪŃáĬĵ": 6605,
      "Ġáĭ¨áįį": 6606,
      "Ġdab": 6607,
      "áĪįáĬķ": 6608,
      "asayansi": 6609,
      "áĪµáī´": 6610,
      "Ġáīłáī£": 6611,
      "Ġwur": 6612,
      "Ġtaken": 6613,
      "Ġhal": 6614,
      "áĬĳáĬķ": 6615,
      "ressi": 6616,
      "áĬ®áĬĸ": 6617,
      "Ġyake.": 6618,
      "ĠáĪļáĪĬáĭ®áĬķ": 6619,
      "ĠMex": 6620,
      "ĠáīłáĪµáī°": 6621,
      "áĬĺáīµ": 6622,
      "ĠNg": 6623,
      "icin": 6624,
      "ĠMac": 6625,
      "Ġ2001": 6626,
      "Ġjo": 6627,
      "dad": 6628,
      "ĠÃ¬p": 6629,
      "kejÃ¬": 6630,
      "áīĢáĪ¨": 6631,
      "ĠÆĻars": 6632,
      "ĠáīłáĬ®": 6633,
      "áĬłáĪµ": 6634,
      "áĬ®áīµ": 6635,
      "ĠáĬĵáīµáį¢": 6636,
      "Ġáī°áĬ¨áī³": 6637,
      "ĠBauchi": 6638,
      "Ġ1998": 6639,
      "ĠÃªtre": 6640,
      "°áį»áį": 6641,
      "Ġ(An": 6642,
      "áĭµáĪĺ": 6643,
      "elli": 6644,
      "Ġáį»áį": 6645,
      "ututt": 6646,
      "ĠáĭŃáĮł": 6647,
      "áĬ«áĪĿ": 6648,
      "ĠáĪµáī¥áĪµ": 6649,
      "Ġáĭ¨áĪļáĮĪáĬĻ": 6650,
      "Ġáĭ¨áī°áī£áĪĪ": 6651,
      "áĪĻáīµ": 6652,
      "Ġáĭ°áĪ«áĪ²": 6653,
      "Ġyanki": 6654,
      "ĠolÃ¹darÃŃ": 6655,
      "ÙİÙ": 6656,
      "ĠáĮ¸áī£áĭŃ": 6657,
      "Ġáī£áĪħáĪŃ": 6658,
      "ĠKin": 6659,
      "Ġ1987": 6660,
      "Ġbecame": 6661,
      "To": 6662,
      "ator": 6663,
      "42": 6664,
      "zon": 6665,
      "Ġlead": 6666,
      "BA": 6667,
      "áĭµáĪ®": 6668,
      "ĠáĪĺáīħ": 6669,
      "Ġmakubwa": 6670,
      "ĠCat": 6671,
      "Ġ2011.": 6672,
      "Ġwasannin": 6673,
      "áĪİáĮĤ": 6674,
      "ĠáīħáĪŃáĪµ": 6675,
      "Ġfilin": 6676,
      "Ġmshairi": 6677,
      "ĠbÃłbÃ¡": 6678,
      "ĠNews": 6679,
      "Ġwar": 6680,
      "Ġmany": 6681,
      "Ġpoint": 6682,
      "Mo": 6683,
      "Ġmama": 6684,
      "Ġ(17": 6685,
      "Ġcity": 6686,
      "Ġgi": 6687,
      "áĪ«áĪįáį¢": 6688,
      "ĠGra": 6689,
      "áĬ¨áĪĭ": 6690,
      "pakana": 6691,
      "áĪľáīµ": 6692,
      "ĠMaris": 6693,
      "ĠIbn": 6694,
      "Ġabubuwan": 6695,
      "áĬĵáĭŃáīµáĭµ": 6696,
      "Ġ(Â«": 6697,
      "ĠIr": 6698,
      "ĠCali": 6699,
      "-20": 6700,
      "Duk": 6701,
      "taniya": 6702,
      "ĠSah": 6703,
      "ĠGen": 6704,
      "Ġstr": 6705,
      "Ġ(tÃŃ": 6706,
      "Ġpublic": 6707,
      "ĠáĬ¥áĪĿáĬĲáīµ": 6708,
      "ĠáĬłáĮĭ": 6709,
      "áĪĭáīģ": 6710,
      "áĪĭáĮĬ": 6711,
      "ĠáĭŃáĪĭáĪįáį¢": 6712,
      "áĪ°áĪŃ": 6713,
      "ĠáĭįáĮŃ": 6714,
      "ÉĹu": 6715,
      "jenga": 6716,
      "Ġibn": 6717,
      "Ġdisp": 6718,
      "CM": 6719,
      "nia": 6720,
      "umm": 6721,
      "ĠGod": 6722,
      "mb": 6723,
      "ĠTer": 6724,
      "ĠUN": 6725,
      "Ġ1991": 6726,
      "-0": 6727,
      "Ġpu": 6728,
      "áī¥áĬķ": 6729,
      "áĪĭáĪµ": 6730,
      "ĠáĪ²áĪĨáĬĳ": 6731,
      "Ġshekarun": 6732,
      "áĬŀáī¹": 6733,
      "esse": 6734,
      "ales": 6735,
      "ĠMovie": 6736,
      "John": 6737,
      "haji": 6738,
      "Ġmuka": 6739,
      "áĬķáĬŃ": 6740,
      "Ġmwezi": 6741,
      "ĠÃº": 6742,
      "ĠMary": 6743,
      "Ã¡Ã¡": 6744,
      "ĠáĬ¥áĪŃáĪ±": 6745,
      "áīħáĬĵ": 6746,
      "ĠáīłáĬ¦": 6747,
      "kubali": 6748,
      "ovuti": 6749,
      "ĠáĬķáĮīáĪł": 6750,
      "ĠMarekani.": 6751,
      "ĠFarans": 6752,
      "ĠelÃ©": 6753,
      "arabci": 6754,
      "ĠáĪĺáĪĨáĬĳáĬķ": 6755,
      "Ġhalafu": 6756,
      "Ġsakandare": 6757,
      "Ġ(la": 6758,
      "ĠRoman": 6759,
      "ode": 6760,
      "Ã©tÃ©": 6761,
      "di.": 6762,
      "Ġ4.": 6763,
      "88": 6764,
      "Ġnit": 6765,
      "Ġband": 6766,
      "ĠKig": 6767,
      "Ġinay": 6768,
      "ĠáĭĪáī³áĭ°": 6769,
      "Ġsojo": 6770,
      "ĠáĪ¥áįįáĪ«": 6771,
      "ĠÉĹin": 6772,
      "ĠáĪµáĪĪáĪĨáĬĲ": 6773,
      "ĠkÃºrÃ²": 6774,
      "Ġtaron": 6775,
      "ĠáĪ¦áĪµáīµ": 6776,
      "ĠÃ©galement": 6777,
      "we,": 6778,
      "gem": 6779,
      "kta": 6780,
      "Ġjus": 6781,
      "Ġthere": 6782,
      "ĠdÃ©partement": 6783,
      "ament": 6784,
      "ayya": 6785,
      "Ġsu.": 6786,
      "yá»įÌģ": 6787,
      "áĬķáĭ²": 6788,
      "Ġmáº¹": 6789,
      "Ġáĭ¨áīħ": 6790,
      "Ġkuji": 6791,
      "áī£áī³": 6792,
      "Ã²fin": 6793,
      "ĠáĪ²áīĢ": 6794,
      "Ġhizo": 6795,
      "áĮħáĪĿ": 6796,
      "Ġ1995": 6797,
      "áĮŃáĪŃ": 6798,
      "ĠRD2-": 6799,
      "Ġtsohuwar": 6800,
      "ĠUsman": 6801,
      "hiri": 6802,
      "Ġjiki": 6803,
      "Ġcount": 6804,
      "ja,": 6805,
      "Ġlime": 6806,
      "ryen": 6807,
      "-g": 6808,
      "Hiv": 6809,
      "sh": 6810,
      "Ġ(Y": 6811,
      "áĭ«áĪį": 6812,
      "ilo": 6813,
      "lay": 6814,
      "Ġá»įÌģ": 6815,
      "Ã¡nÃ¬": 6816,
      "ĠáĮįáĬķáĬĻ": 6817,
      "Ġciga": 6818,
      "Ġhannun": 6819,
      "áī¨áĪŃáĪ²": 6820,
      "-b": 6821,
      "ouver": 6822,
      "ĠDemocratic": 6823,
      "Ø©": 6824,
      "ict": 6825,
      "Ġdep": 6826,
      "Ġ2006.": 6827,
      "ariya": 6828,
      "Ġmit": 6829,
      "ĠAw": 6830,
      "Ġipinle": 6831,
      "áĬ¨áĪ¨áĪĿ": 6832,
      "áĬ«áĬ¨áĪĪ": 6833,
      "áĪĨáĬĸ": 6834,
      "fawa": 6835,
      "ĠáĭµáĪį": 6836,
      "Ġ1997": 6837,
      "ĠáīµáĪŃáĮīáĪĿ": 6838,
      "htm": 6839,
      "ĠáĮİáĬķ": 6840,
      "Ġulio": 6841,
      "Ġpopulation": 6842,
      "56": 6843,
      "line": 6844,
      "áĮª": 6845,
      "áĪµáĭ«": 6846,
      "Ġ(áĭĪ": 6847,
      "ĠMichael": 6848,
      "Ġganin": 6849,
      "gbá»įÌģ": 6850,
      "áĬŃáĪ²": 6851,
      "áĪªáĪµ": 6852,
      "áĬłáĬķáĭµ": 6853,
      "Ġori": 6854,
      "Ġáĭĺáįĭ": 6855,
      "áīĥáĪ´": 6856,
      "Ġhaifar": 6857,
      "Ġharkokin": 6858,
      "kÃ³so": 6859,
      "Ġambazo": 6860,
      "Ġndogo": 6861,
      "Ġjamii": 6862,
      "ĠJean": 6863,
      "Ġkuliko": 6864,
      "ĠRichard": 6865,
      "ĠgÃ©nÃ©r": 6866,
      "ĠKab": 6867,
      "ĠCam": 6868,
      "umar": 6869,
      "ivil": 6870,
      "ara.": 6871,
      "AR": 6872,
      "Shi": 6873,
      "koki": 6874,
      "Ġ1996": 6875,
      "undin": 6876,
      "ĠsÃ¬n": 6877,
      "andika": 6878,
      "ĠHigh": 6879,
      "Ġhab": 6880,
      "áīĢáĮ¥": 6881,
      "Ġtout": 6882,
      "ĠáĪµáĪŀáī½": 6883,
      "áĪĻáĬķ": 6884,
      "Ġkanta": 6885,
      "ĠolÃ³rÃŃ": 6886,
      "à¤ķ": 6887,
      "ĠKamusi": 6888,
      "ĠOrÃŃláº¹ÌĢ-Ã¨dÃ¨": 6889,
      "ĠáĪĿáĪįáĬŃáīµ": 6890,
      "áīħáĪµáīĥáĪ´": 6891,
      "-T": 6892,
      "fore": 6893,
      "wer": 6894,
      "eter": 6895,
      "pha": 6896,
      "ĠCoun": 6897,
      "depend": 6898,
      "Ġpartie": 6899,
      "-áº¹": 6900,
      "Ġx": 6901,
      "áĬķáĮİ": 6902,
      "Ġoun": 6903,
      "ĠKur": 6904,
      "Ġkudancin": 6905,
      "Ġran": 6906,
      "Ġika": 6907,
      "áĪĽáĪ½": 6908,
      "áĭ³áĪį": 6909,
      "ĠáĭĺáĪĺáĬĵáĭĬ": 6910,
      "ĠAnamb": 6911,
      "Ġáīłáī°áĪĪ": 6912,
      "angaza": 6913,
      "ĠAmáº¹ÌģrÃŃkÃł.": 6914,
      "Ġimani": 6915,
      "ĠáĪĥáĭŃáĪĽáĬĸáīµ": 6916,
      "Ġnufin": 6917,
      "uke": 6918,
      "isan": 6919,
      "elon": 6920,
      "-N": 6921,
      "98": 6922,
      "yc": 6923,
      "ĠMk": 6924,
      "ĠTai": 6925,
      "ĠÉĵ": 6926,
      "áĪĿáī¥": 6927,
      "Ġkuta": 6928,
      "Ġkutumia": 6929,
      "ĠáĪĿáĭķáĪ«áī¥": 6930,
      "áį¡áĬ¥": 6931,
      "áĭ²áĭ®": 6932,
      "ĠáīµáĪŃ": 6933,
      "ĠáīµáĪĿáĪħáĪŃ": 6934,
      "Ġkok": 6935,
      "ĠWaislamu": 6936,
      "ĠáĪĺáĪ°áĪ¨áīµ": 6937,
      "áĪµáĪĪáĭļáĪħ": 6938,
      "ĠÃłÃ¬sÃłn": 6939,
      "ĠáĭŃáĪĨáĬĵáĪįáį¢": 6940,
      "ker": 6941,
      "Ġsta": 6942,
      "Ġrest": 6943,
      "rian": 6944,
      "dia": 6945,
      "ssa": 6946,
      "ĠMala": 6947,
      "iken": 6948,
      "usin": 6949,
      "Ġ2007.": 6950,
      "limia": 6951,
      "wÃłÃ¡": 6952,
      "zed": 6953,
      "Ġwame": 6954,
      "áĪĿáįĴ": 6955,
      "ĠMwaka": 6956,
      "áĪĽáĪį": 6957,
      "ĠGáº¹ÌĢáº¹ÌģsÃ¬": 6958,
      "Ġáĭ¨áĪ®": 6959,
      "Ġwatsa": 6960,
      "ĠáĬĲáĮĪáĪł": 6961,
      "Ġáĭ«áĪĪáĭįáĬķ": 6962,
      "fuatwa": 6963,
      "ĠáĭŃáīĢáĪ«áĪīáį¢": 6964,
      "arufu": 6965,
      "Ġfitar": 6966,
      "Ġpataki": 6967,
      "El": 6968,
      "oshi": 6969,
      "h.": 6970,
      "imbab": 6971,
      "angwa": 6972,
      "</": 6973,
      "ding": 6974,
      "uel": 6975,
      "papa": 6976,
      "Ġalors": 6977,
      "-H": 6978,
      "owo": 6979,
      "ĠAth": 6980,
      "Ġolo": 6981,
      "Ġni:": 6982,
      "Ġáĭ¨áĪ´": 6983,
      "áĮĭáīµ": 6984,
      "antiki": 6985,
      "ĠÃ²kÃ¨": 6986,
      "ominira": 6987,
      "ĠirÃº": 6988,
      "Ġáī°áĪ«áĪ«": 6989,
      "ĠáĭŃáĪĺáĪµáĪĭáĪįáį¢": 6990,
      "Ġnahiyar": 6991,
      "Ġlui": 6992,
      "De": 6993,
      "kuna": 6994,
      "bÃ³": 6995,
      "ĠIm": 6996,
      "Yana": 6997,
      "nÃº": 6998,
      "Ġmengi": 6999,
      "Ġfur": 7000,
      "irar": 7001,
      "áĭ°áĪµ": 7002,
      "ĠGasar": 7003,
      "oly": 7004,
      "ĠáĬŃáĪŃáĪµáī²áĭ«": 7005,
      "Ġaskofu": 7006,
      "áĮĢáīµ": 7007,
      "ĠáĮĭáĪ«": 7008,
      "ĠGreg": 7009,
      "Ġtaba": 7010,
      "olf": 7011,
      "ĠIndia": 7012,
      "Ġpays": 7013,
      "Ġinv": 7014,
      "sili": 7015,
      "ĠTsa": 7016,
      "âĢĶ": 7017,
      "Ġ||": 7018,
      "Ġprincip": 7019,
      "Ġáĭ¨áĪĪáĪĿ": 7020,
      "Ġwá»įÌĢn": 7021,
      "ĠIgb": 7022,
      "ĠPal": 7023,
      "Ġáį©": 7024,
      "Ġá»įjá»į": 7025,
      "ĠáĭŃáĭŀ": 7026,
      "áĮ£áĬķ": 7027,
      "ĠÃĮlÃº": 7028,
      "ĠáĮĪáĮ½": 7029,
      "ĠáĮ½áĪķ": 7030,
      "Ġsaman": 7031,
      "ĠáįĪáĪŃáĭĸáĬķ": 7032,
      "chukua": 7033,
      "Å«": 7034,
      "eren": 7035,
      "http://www.": 7036,
      "iction": 7037,
      "ĠáĬĽ": 7038,
      "ĠáīłáĬ«": 7039,
      "ĠÃłÃ¡": 7040,
      "áĭ³áĭµ": 7041,
      "ĠáĭįáĪĢ": 7042,
      "jejen": 7043,
      "áĪ²áĭ«": 7044,
      "ĠáĭķáĪĪáī°": 7045,
      "ĠáįįáĪ¬": 7046,
      "Ġiyaka": 7047,
      "Ġsabon": 7048,
      "áĬ¥áĬķáĭ²": 7049,
      "ĠMisri": 7050,
      "Ġ(The": 7051,
      "ĠSil": 7052,
      "ches": 7053,
      "Ġ2017.": 7054,
      "Â»)": 7055,
      "pande": 7056,
      "Ġáĭ¨áĬ¨": 7057,
      "Ġláº¹": 7058,
      "áĪĪáį¢": 7059,
      "Ġáĭ¨áĪ±": 7060,
      "ĠáĪµáĪĭ": 7061,
      "ansu.": 7062,
      "áĮłáĪĪ": 7063,
      "Ġ1975": 7064,
      "Ġ(2005)": 7065,
      "áĬķáĮĮ": 7066,
      "áī¥áĪŃáĪĥ": 7067,
      "onyesha": 7068,
      "ĠáĪĿáĬķáĮĬáĭľ": 7069,
      "ĠIk": 7070,
      "ĠJ.": 7071,
      "á¹¢": 7072,
      "Ġ(15": 7073,
      "Ġworld": 7074,
      "Ġcompos": 7075,
      "ĠAlexander": 7076,
      "ãĤ": 7077,
      "ĠÅ": 7078,
      "Ġ),": 7079,
      "áĬ£": 7080,
      "áī³áĬķ": 7081,
      "ĠOla": 7082,
      "ĠDay": 7083,
      "Ġá»įlá»įÌģ": 7084,
      "ra.": 7085,
      "áĬ«áĬ¤áĪį": 7086,
      "áĪİáī¹": 7087,
      "ĠáĪįáĮģ": 7088,
      "ĠÉĹari": 7089,
      "Ġáī¢áĭ«": 7090,
      "ĠKejÃ¬": 7091,
      "Ġcibiyar": 7092,
      "Ġtabbatar": 7093,
      "osp": 7094,
      "ant,": 7095,
      "Ġoni": 7096,
      "Ġ60": 7097,
      "Ġagain": 7098,
      "ĠBC": 7099,
      "abe": 7100,
      "Ġhuwa": 7101,
      "rodu": 7102,
      "Jihar": 7103,
      "Ġáĭ¨áīł": 7104,
      "Ġáĭ¨áĮĭ": 7105,
      "ĠÃłjáº¹sÃ¡ra": 7106,
      "ĠáĭįáĪĥ": 7107,
      "ney": 7108,
      "ĠáīłáĪĺáĪĨáĬķ": 7109,
      "Ġwit": 7110,
      "Ġ1989": 7111,
      "ĠFin": 7112,
      "ce.": 7113,
      "Ġaro": 7114,
      "Ġ2018.": 7115,
      "Nchi": 7116,
      "sÃ¡n": 7117,
      "áĬķáīĢ": 7118,
      "itÃ¬": 7119,
      "ĠKwam": 7120,
      "Ġren": 7121,
      "ĠáĪĺáĮį": 7122,
      "ĠáĬ¨áĪĿ": 7123,
      "ĠJon": 7124,
      "sim": 7125,
      "ĠáīłáĬ¤": 7126,
      "áĬ¥áĬĲáĭļáĪħ": 7127,
      "ÃŃnÃº": 7128,
      "Ġáī£áĪķáĪŃ": 7129,
      "áīłáīµáĬķ": 7130,
      "Ġáĭ¨áĬłáĭ¨áĪŃ": 7131,
      "áīĤáĭ«": 7132,
      "ĠolÃ³gun": 7133,
      "---": 7134,
      "Ġmáº¹Ìģta": 7135,
      "Ġgargajiya": 7136,
      "áī¨áĪŃáĪ²áī²": 7137,
      "ĠEr": 7138,
      "ĠÃ©c": 7139,
      "ohann": 7140,
      "ĠThomas": 7141,
      "las": 7142,
      "Ġaz": 7143,
      "team": 7144,
      "yr": 7145,
      "ĠoÃ¹": 7146,
      "ĠGrand": 7147,
      "Ġgari": 7148,
      "Ġjumla": 7149,
      "anai": 7150,
      "ĠáĪĪáĪļ": 7151,
      "áĬĽáĭįáĪĿ": 7152,
      "Ġyanayi": 7153,
      "Ġikan": 7154,
      "Ġal'umma": 7155,
      "ĠGood": 7156,
      "Ġlittafin": 7157,
      "rac": 7158,
      "other": 7159,
      "ĠVictor": 7160,
      "Ġyears": 7161,
      "Ġweb": 7162,
      "ministr": 7163,
      "Ġ×": 7164,
      "Ġáīª": 7165,
      "amment": 7166,
      "Ġv.": 7167,
      "Ġ''": 7168,
      "Ġfamilia": 7169,
      "wÃº": 7170,
      "áº¹n": 7171,
      "áĭ«áĪľ": 7172,
      "ĠáĬłáĭĭ": 7173,
      "Ġsakamakon": 7174,
      "ague": 7175,
      "Ġ1976": 7176,
      "Ġá»ĮÌĢyá»įÌģ": 7177,
      "Ġtáº¹li": 7178,
      "ĠÃºn": 7179,
      "ensa": 7180,
      "itali": 7181,
      "ĠChin": 7182,
      "onin": 7183,
      "âĢ¹": 7184,
      "ĠFestiv": 7185,
      "Ġkm2": 7186,
      "Ġresp": 7187,
      "xim": 7188,
      "arn": 7189,
      "áĬķáī¥": 7190,
      "Ġaye": 7191,
      "Ġchar": 7192,
      "Ġcalled": 7193,
      "ĠáĮĥ": 7194,
      "áĭŃáĪģ": 7195,
      "Ġáī°áĮ½": 7196,
      "ĠáīłáĪĭ": 7197,
      "áįįáĬķ": 7198,
      "áĪ°áīµ": 7199,
      "ĠYuni": 7200,
      "ĠbÃŃbÃŃ": 7201,
      "Ġáº¹ÌĢrá»į": 7202,
      "ĠáĬłáĪĪáĭį": 7203,
      "ĠáĬłáĪĪáĭįáį¢": 7204,
      "Ġmakao": 7205,
      "Ġsayensi": 7206,
      "ĠBiblia": 7207,
      "wÃ¹já»į": 7208,
      "ĠáĭŃáī»áĪĭáĪįáį¢": 7209,
      "Ġlat": 7210,
      "formation": 7211,
      "alu": 7212,
      "emia": 7213,
      "ulin": 7214,
      "otball": 7215,
      "voir": 7216,
      "68": 7217,
      "enza": 7218,
      "Orodha": 7219,
      "ual": 7220,
      "Ġuko": 7221,
      "ĠáīĦ": 7222,
      "Ġfut": 7223,
      "ĠáĬłáĭĺ": 7224,
      "ĠBak": 7225,
      "áĪ³áĪ°": 7226,
      "Ġjiho": 7227,
      "Ġkawai": 7228,
      "áĬ¨áī°áĪĽáĭį": 7229,
      "Ġáī¢áĪĨáĬķáĪĿ": 7230,
      "ĠáĪĿáĬķáĮĬáĭľáĪĿ": 7231,
      "Ġ(d.": 7232,
      "Ġfon": 7233,
      "odo": 7234,
      "bara": 7235,
      "un.": 7236,
      "ession": 7237,
      "ull": 7238,
      "ĠIslam": 7239,
      "itution": 7240,
      "VID": 7241,
      "inin": 7242,
      "Ġ(16": 7243,
      "ĠAssociation": 7244,
      "ĠAustria": 7245,
      "Ġtransl": 7246,
      "Babban": 7247,
      "yÃ¬ÃŃ": 7248,
      "amare": 7249,
      "ĠáĬĲáĮ¥": 7250,
      "ĠPÃ³": 7251,
      "Ġáī°áĬŃáĪį": 7252,
      "ĠAnt": 7253,
      "áī¡áĬķ": 7254,
      "Ġshafi": 7255,
      "ĠáĬłáĪįáī°": 7256,
      "Ġgirmama": 7257,
      "ĠáĪłáĪ«áĭĬáīµ": 7258,
      "je,": 7259,
      "Ġani": 7260,
      "Ġmats": 7261,
      "ĠParis": 7262,
      "Ġqu'il": 7263,
      "ĠLand": 7264,
      "fany": 7265,
      "enegal": 7266,
      "Ġhana": 7267,
      "97": 7268,
      "AC": 7269,
      "Ra": 7270,
      "Ġáĭ¨áįĬ": 7271,
      "Ġfadin": 7272,
      "Ġkufuatana": 7273,
      "áĪĺáĮ¥": 7274,
      "ĠÃłdÃºgbÃ²": 7275,
      "ĠPan": 7276,
      "ĠÃ¬á¹£áº¹ÌĢláº¹ÌĢ": 7277,
      "áĪªáīĥ": 7278,
      "ĠHistory": 7279,
      "ĠáĭĪáĮ¥": 7280,
      "áī¸áĭĭáĪįáį¢": 7281,
      "ĠáĪ°áĬĲ": 7282,
      "Ġloc": 7283,
      "Ġkiasi": 7284,
      "ĠáĪĬáīĥ": 7285,
      "ĠEnugu": 7286,
      "ĠáīĨáĭŃ": 7287,
      "áĬķáĮīáĪ¥": 7288,
      "ĠKasuwan": 7289,
      "Ġfina-finai": 7290,
      "ĠáĬłáĪ«áīµ": 7291,
      "áĪįáĪµáįįáĬĵ": 7292,
      "Ġáįªáį»áį": 7293,
      "Ġbiyu,": 7294,
      "Ġá¹£ÃŃá¹£e": 7295,
      "ĠdÃºrÃ³": 7296,
      "gemea": 7297,
      "PP": 7298,
      "kas": 7299,
      "ĠdÃ©velop": 7300,
      "ĠnÃ©": 7301,
      "ĠSir": 7302,
      "190": 7303,
      "Hasa": 7304,
      "vy": 7305,
      "li.": 7306,
      "Ã©t": 7307,
      "Ġbuk": 7308,
      "Ġpap": 7309,
      "ĠKong": 7310,
      "ists": 7311,
      "bá»įÌĢ": 7312,
      "Ġpin": 7313,
      "ĠáĬ¨áĮį": 7314,
      "omp": 7315,
      "Ġáī°áĮĪ": 7316,
      "áĪªáĬ®áī½": 7317,
      "ĠáĭŃáīĨ": 7318,
      "Ġvit": 7319,
      "ultani": 7320,
      "ituo": 7321,
      "ĠÃ¬dÃŃje": 7322,
      "ĠÃ¬dÃŃlÃ©": 7323,
      "ĠmÃŃrÃłn": 7324,
      "Waliofariki": 7325,
      "ĠáĮĮáī³": 7326,
      "ĠáĮĬáĭ®áĪŃáĮĬáĪµ": 7327,
      "ĠOt": 7328,
      "ĠEgy": 7329,
      "Ġ2006,": 7330,
      "Ġthree": 7331,
      "95": 7332,
      "ĠNd": 7333,
      "ĠWash": 7334,
      "Ġnumber": 7335,
      "::": 7336,
      "Ġ+": 7337,
      "ĠFÃ¡": 7338,
      "ado": 7339,
      "Ġ1988": 7340,
      "Ġ5,": 7341,
      "Ġyakin": 7342,
      "ĠMoro": 7343,
      "áĪĪáīĢ": 7344,
      "áĪĽáĭįáĭ«áĬķ": 7345,
      "ument": 7346,
      "ĠáįĮ": 7347,
      "áĪ°áĪĽ": 7348,
      "áī¸áĭī": 7349,
      "Ġzaune": 7350,
      "ĠáĪĬáīĢ": 7351,
      "....": 7352,
      "illar": 7353,
      "Ġyawancin": 7354,
      "ĠáĬłáĪĺáī³áīµ": 7355,
      "áī·áĬķ": 7356,
      "mÃ¬nira": 7357,
      "pasáº¹": 7358,
      "ĠAtlantiki": 7359,
      "ĠKifaransa": 7360,
      "Hivyo": 7361,
      "ĠKit": 7362,
      "ĠKid": 7363,
      "ĠWh": 7364,
      "ribu": 7365,
      "Ġhigh": 7366,
      "65": 7367,
      "ÑĢ": 7368,
      "amini": 7369,
      "da.": 7370,
      "ories": 7371,
      "Ġstate": 7372,
      "Tari": 7373,
      "lian": 7374,
      "lique": 7375,
      "Ġdashi": 7376,
      "áĪµáį£": 7377,
      "Ġrike": 7378,
      "ĠáīłáĪĢ": 7379,
      "ĠLatin": 7380,
      "áĬ«áĪĦ": 7381,
      "ĠáĮĪáĭ¥": 7382,
      "ĠáĪĺáĬķáĮįáĪ¥áī³áīµ": 7383,
      "Ġwadannan": 7384,
      "áĭŀáī½": 7385,
      "Ġáĭ¨áīĢáĭµáĪŀ": 7386,
      "áĪĨáĬĸáĪĿ": 7387,
      "zani": 7388,
      "ch,": 7389,
      "Ġsans": 7390,
      "Ġstat": 7391,
      "Ġ2019.": 7392,
      "ĠfranÃ§ais": 7393,
      "Ġakiwa": 7394,
      "Ġmd": 7395,
      "áĭ°áĬķ": 7396,
      "áĪ³áĪįáį¢": 7397,
      "Ġáº¹ran": 7398,
      "áĬĴáĪįáĬŃ": 7399,
      "áįĬáĭ«": 7400,
      "Ġáĭ¨áĪļáĮĪáĬĿáīłáīµ": 7401,
      "lit": 7402,
      "ĠMiss": 7403,
      "bai": 7404,
      "ĠWo": 7405,
      "site": 7406,
      "ws": 7407,
      "isti": 7408,
      "ĠMur": 7409,
      "ester": 7410,
      "upi": 7411,
      "Ġpremier": 7412,
      "Ø³": 7413,
      "ĠáĬĥ": 7414,
      "Ġmanu": 7415,
      "atsayin": 7416,
      "ĠáĬ¥áĬ©áĪį": 7417,
      "ĠáĬłáĬĵ": 7418,
      "lahi": 7419,
      "ĠáįĴ": 7420,
      "ĠÃ²bÃŃ": 7421,
      "ĠáĪĨáĬĳ": 7422,
      "Ġáĭķáĭµ": 7423,
      "ĠáīłáĬłáĪģáĬĳ": 7424,
      "Ġkimataifa": 7425,
      "ambia": 7426,
      "ĠáĭĺáĬķáĭµáį£": 7427,
      "lÃŃÃł": 7428,
      "Ġkur": 7429,
      "ĠIra": 7430,
      "imbabwe": 7431,
      "Ġ\"A": 7432,
      "-d": 7433,
      "bor": 7434,
      "ĠtrÃ¨s": 7435,
      "Ġ(,": 7436,
      "44": 7437,
      "áįı": 7438,
      "ĠáīĤ": 7439,
      "Ġ(He": 7440,
      "áĪĪáĭĭáĪįáį¢": 7441,
      "ĠáĬ¨áī£": 7442,
      "ĠÃ¬bÃ¡": 7443,
      "ĠÃ¬yÃ¡": 7444,
      "Ġáī°áĮ«": 7445,
      "ĠDunia": 7446,
      "Ġáĭ¨áĪģ": 7447,
      "aribi": 7448,
      "áĭĿáĪĿ": 7449,
      "ĠáĪ²áĪį": 7450,
      "ĠáĮįáĭµ": 7451,
      "ĠâĢ¹": 7452,
      "ĠAlf": 7453,
      "áĭ±áį¢": 7454,
      "Ġyanke": 7455,
      "ĠáĪĬáĭ«": 7456,
      "Ġchama": 7457,
      "Ġjiha": 7458,
      "Ġ2020,": 7459,
      "áĭ°áĪ¨áĮĪáĭį": 7460,
      "ĠWatakatifu": 7461,
      "ĠáĪĺáĮ»áĪķáįįáīµ": 7462,
      "ĠSol": 7463,
      "ĠGi": 7464,
      "ĠVal": 7465,
      "III": 7466,
      "Ġ1967": 7467,
      "Ġ5.": 7468,
      "anguage": 7469,
      "iaf": 7470,
      "Ġáĭ¨áĮĢáĪŃáĪĺáĬķ": 7471,
      "áī°áĬĵ": 7472,
      "ĠNo": 7473,
      "ĠIá¹£áº¹Ìģ": 7474,
      "áĪ¨áĪŃ": 7475,
      "ĠáīłáĪŀ": 7476,
      "ĠáĬ¥áĬķáīħáĪµáīĥáĪ´": 7477,
      "jiji": 7478,
      "Ġá¹£i": 7479,
      "Ġáī¥áĪĶáĪŃ": 7480,
      "ĠáĬŃáĪĪáī¥": 7481,
      "ĠáīłáĪĺáī£áĪį": 7482,
      "joko": 7483,
      "ĠáĮĪáī¥áĪ¨": 7484,
      "áĭ°áĪŃáĮį": 7485,
      "ĠáĬłáīĢáįį": 7486,
      "Ġoluilu": 7487,
      "ĠInstitute": 7488,
      "Ġmain": 7489,
      "ĠAngel": 7490,
      "uv": 7491,
      "kai": 7492,
      "ĠApp": 7493,
      "ĠHam": 7494,
      "stan": 7495,
      "do,": 7496,
      "ĠSchool,": 7497,
      "Kuma": 7498,
      "áĭ·": 7499,
      "Ġaure": 7500,
      "Ġsanar": 7501,
      "áĪŃáī³": 7502,
      "as.": 7503,
      "ĠáĬ¥áĪĿ": 7504,
      "dic": 7505,
      "Ġlau": 7506,
      "Ġáĭ¨áĪļáĪ°áĪ«": 7507,
      "otun": 7508,
      "ĠáĪĽáĬħ": 7509,
      "áĪ¥áĪ«": 7510,
      "Ġá¹£áº¹": 7511,
      "Ġ1982": 7512,
      "ĠgbÃ¡": 7513,
      "yá»įrÃŃ": 7514,
      "Ġáĭ¨áĭĵáĪĺáī±": 7515,
      "okacin": 7516,
      "Ġinganta": 7517,
      "man,": 7518,
      "Ġ1974": 7519,
      "ieurs": 7520,
      "ĠMet": 7521,
      "Ġzar": 7522,
      "ĠrÃ©gion": 7523,
      "mir": 7524,
      "Ġdest": 7525,
      "kaa": 7526,
      "Ġyasa": 7527,
      "Ġkuzaliwa": 7528,
      "Ġnipasáº¹": 7529,
      "ĠáĪĺáĬ®": 7530,
      "ĠáĪĺáĪ£": 7531,
      "ĠáĬ¨áĮ¥": 7532,
      "ĠJina": 7533,
      "áĬ¨áĬĵ": 7534,
      "Ġearly": 7535,
      "áĬķáĮįáĪį": 7536,
      "ĠáĬĲáĮĪáĪ¥áīµ": 7537,
      "Ġáĭ¨áĬĲáīłáĪ©áīµ": 7538,
      "áĮĬáĭ«": 7539,
      "Ġsiyasan": 7540,
      "Ġjami'ar": 7541,
      "ĠTechn": 7542,
      "Ġplay": 7543,
      "áĮĬáĭľáĭį": 7544,
      "ĠáīµáĬķáĪ½": 7545,
      "Ġbangaren": 7546,
      "huriyar": 7547,
      "ĠáĪºáĪħ": 7548,
      "ĠNijar": 7549,
      "html": 7550,
      "Ġdog": 7551,
      "Ġzo": 7552,
      "ogi": 7553,
      "Ġelle": 7554,
      "ĠWag": 7555,
      "app": 7556,
      "Î¹": 7557,
      "ĠMc": 7558,
      "Ġphilosop": 7559,
      "ĠKol": 7560,
      "ĠKanada": 7561,
      "Ġ2009,": 7562,
      "artar": 7563,
      "attle": 7564,
      "ĠKÃ²": 7565,
      "Ġtawa": 7566,
      "ĠáĬ¨áĪµ": 7567,
      "Ġhaya": 7568,
      "ĠUm": 7569,
      "ĠáĪµáĬķ": 7570,
      "Ġáĭ«áĪĭáī¸áĭį": 7571,
      "anne": 7572,
      "endera": 7573,
      "ĠáīĥáĪĭáīµ": 7574,
      "ĠUsw": 7575,
      "ĠáĬłáĮĪáĪįáĮįáĪİáīµ": 7576,
      "-c": 7577,
      "Ġces": 7578,
      "ana.": 7579,
      "ĠCup": 7580,
      "ĠRec": 7581,
      "rama": 7582,
      "ĠCal": 7583,
      "mah": 7584,
      "Ġ1992": 7585,
      "Ġ1984": 7586,
      "77": 7587,
      "áĪįáĮĭ": 7588,
      "ĠNet": 7589,
      "ĠhÃłn": 7590,
      "umiwa": 7591,
      "Ġáĭ¨áī°áī£": 7592,
      "ÉĹi": 7593,
      "ĠáĬłáĪµáįĪ": 7594,
      "ĠáĮĢáĪŃáĪĺáĬķ": 7595,
      "ĠAss": 7596,
      "Ġáī°áĪĺáĪ³áĪ³áĭŃ": 7597,
      "ĠáĬłáī£áĪĭáīµ": 7598,
      "ĠUrusi": 7599,
      "ĠSarkin": 7600,
      "ĠTurai": 7601,
      "chunguza": 7602,
      "áĬ®áĬĸáĪļ": 7603,
      "via": 7604,
      "unar": 7605,
      "abo": 7606,
      "ĠPeter": 7607,
      "-F": 7608,
      "ĠAcc": 7609,
      "Ġwell": 7610,
      "Ġ1979": 7611,
      "ĠAngola": 7612,
      "500": 7613,
      "Ġend": 7614,
      "ĠÂ»,": 7615,
      "ĠCongress": 7616,
      "ĠChristian": 7617,
      "ĠÙ": 7618,
      "Ġnatur": 7619,
      "ery": 7620,
      "Ġfada": 7621,
      "illes": 7622,
      "áĭŃáĪį": 7623,
      "Ġruk": 7624,
      "Ġjar": 7625,
      "ĠáĬłáĮį": 7626,
      "ĠáĬłáĮł": 7627,
      "Ġá»įwá»įÌģ": 7628,
      "áĭ¨áĪļ": 7629,
      "otes": 7630,
      "áĮłáīµ": 7631,
      "Ġleyin": 7632,
      "áĪĬáĬķ": 7633,
      "Ġtsakiyar": 7634,
      "ĠáĪĪáĪĽáĪµ": 7635,
      "pá»įlá»į": 7636,
      "Ġnasarar": 7637,
      "lob": 7638,
      "Ġ1986": 7639,
      "ĠCOVID": 7640,
      "Ġmade": 7641,
      "ĠDelta": 7642,
      "Ã©c": 7643,
      "kula": 7644,
      "ĠArgent": 7645,
      "Ġbeing": 7646,
      "Far": 7647,
      "áĮİáī½": 7648,
      "Ġnoma": 7649,
      "ĠáĬ¥áĪ«áĪ±": 7650,
      "Ġruwan": 7651,
      "Ġma'": 7652,
      "emu": 7653,
      "Ġáĭ¨áĬ¡": 7654,
      "áĪīáĬķ": 7655,
      "ĠáĭĵáĭŃáĬĲáīµ": 7656,
      "ini.": 7657,
      "Ġuwan": 7658,
      "Ġkananan": 7659,
      "Ġáĭ¨áĬłáĭįáĪ®áįĵ": 7660,
      "ĠáĬłáĪĪáį¢": 7661,
      "ĠadarÃŃ": 7662,
      "engwa": 7663,
      "ĠáĮĢáĪĺáĪ¨": 7664,
      "wÃ²sÃłn": 7665,
      "Ġwanao": 7666,
      "Ġulikuwa": 7667,
      "ĠáĬłáĪĿáī£": 7668,
      "ĠáĬŃáįįáĪĭáĮĪáĪŃ": 7669,
      "á¹£irÃŃá¹£i": 7670,
      "-t": 7671,
      "ma.": 7672,
      "itions": 7673,
      "orm": 7674,
      "ĠImo": 7675,
      "Ġ(2004)": 7676,
      "Ġhttp://www.": 7677,
      "ĠDara": 7678,
      "Ġká»įÌĢ": 7679,
      "Ġáĭ¨áĪ«áĪ±": 7680,
      "ĠMji": 7681,
      "Ġkuk": 7682,
      "ties": 7683,
      "Ġjul": 7684,
      "ĠWah": 7685,
      "umika": 7686,
      "Ġhalin": 7687,
      "áĪ°áĪį": 7688,
      "áĭĺáĭį": 7689,
      "ughu": 7690,
      "Ġkan.": 7691,
      "¢áīµáĭ®áĮµáĭ«áĬķ": 7692,
      "Ġkiongozi": 7693,
      "elekea": 7694,
      "wamna": 7695,
      "ĠáĪĺáĪįáĬ©": 7696,
      "Ġáī°áĬ¨áī³áĭŃ": 7697,
      "yá»įkÃł": 7698,
      "Ç¹kan": 7699,
      "Ġjam'iyyar": 7700,
      "ĠdÃŃáº¹ÌĢ": 7701,
      "ĠBorno": 7702,
      "OR": 7703,
      "Ġmed": 7704,
      "round": 7705,
      "Ġ70": 7706,
      "ĠAri": 7707,
      "ĠChuo": 7708,
      "NA": 7709,
      "ĠlÃŃ": 7710,
      "Ġ(13": 7711,
      "ĠKáº¹Ìģ": 7712,
      "ĠáĮĦ": 7713,
      "áĪĺáĬĳ": 7714,
      "áĬŃáĪŃáĪµáī¶áĪµ": 7715,
      "Ġáī°áĭ°áĪŃ": 7716,
      "ĠáĪĿáĪħ": 7717,
      "ĠáĪµáĭ«áĪľ": 7718,
      "ĠYunifÃ¡sÃŃtÃ¬": 7719,
      "ungano": 7720,
      "Ġkakar": 7721,
      "ĠÃ²fin": 7722,
      "Ġáĭ¨áĪĨáĬĲáĭį": 7723,
      "ĠTuranci": 7724,
      "badili": 7725,
      "hai": 7726,
      "embo": 7727,
      "rict": 7728,
      "waju": 7729,
      "ikata": 7730,
      "áĬĲáĬĽ": 7731,
      "áĪĭáĪĭ": 7732,
      "Ã¨rÃ¨": 7733,
      "ĠáĭŃáĪĺ": 7734,
      "Ġhayo": 7735,
      "áĭ³áĪª": 7736,
      "ĠáīĢáĭŃ": 7737,
      "áĪİáĪµ": 7738,
      "ans,": 7739,
      "seed": 7740,
      "Ġshawara": 7741,
      "Ġ(2015": 7742,
      "áī£áī¢áĪİáĬķ": 7743,
      "icial": 7744,
      "ĠKikatoliki": 7745,
      "ĠKÃ¡tÃ³": 7746,
      "mary": 7747,
      "71": 7748,
      "xi": 7749,
      "ites": 7750,
      "Ġprogram": 7751,
      "m.": 7752,
      "Ġ(3": 7753,
      "ĠFound": 7754,
      "Alimfuata": 7755,
      "kÃºn": 7756,
      "áĬķáĮ»": 7757,
      "Ġfasaha": 7758,
      "Ġkuv": 7759,
      "áĮįáĬĵ": 7760,
      "áīłáī³áĪįáį¢": 7761,
      "Ã²wÃ²": 7762,
      "áĭ¨áĪ©": 7763,
      "Ġzao": 7764,
      "ifiki": 7765,
      "ĠÆĻwarar": 7766,
      "Ġkasuwa": 7767,
      "ĠáĮ£áĪį": 7768,
      "áĪªáī³áĬķáĭ«": 7769,
      "Viungo": 7770,
      "Ġshirye-shiryen": 7771,
      "Ġamince": 7772,
      "41": 7773,
      "enta": 7774,
      "tains": 7775,
      "ovi": 7776,
      "Ġprop": 7777,
      "s:": 7778,
      "am,": 7779,
      "ĠIbi": 7780,
      "ĠPhili": 7781,
      "ĠDuba": 7782,
      "iya,": 7783,
      "ities": 7784,
      "son,": 7785,
      "light": 7786,
      "atia": 7787,
      "emble": 7788,
      "ĠChurch": 7789,
      "dÃ¡n": 7790,
      "zza": 7791,
      "Ġmv": 7792,
      "Ġáĭ¨áĪį": 7793,
      "ĠáīłáĭŃ": 7794,
      "áĪĪáī±": 7795,
      "ĠáĮ¤": 7796,
      "ĠáĪ°áĪŃ": 7797,
      "Ġáĭ°áī¥": 7798,
      "fihÃłn": 7799,
      "Ġmasarautar": 7800,
      "áīĭáīĭ": 7801,
      "áīģáīµ": 7802,
      "áº¹ÌģrÃ¬n": 7803,
      "áĭŃáĪħáĪĿ": 7804,
      "llaye": 7805,
      "Ġmahaifiyar": 7806,
      "Ġáĭ¨áĪħáĭĿáī¥": 7807,
      "áįĲáī¥áĪĬáĬŃ": 7808,
      "ĠKilatini": 7809,
      "ĠáĬĽáĭį": 7810,
      "Ġmen": 7811,
      "onia": 7812,
      "Ġ1966": 7813,
      "17)": 7814,
      "pita": 7815,
      "ĠGroup": 7816,
      "istry": 7817,
      "kua": 7818,
      "ĠLaw": 7819,
      "sta": 7820,
      "istori": 7821,
      "ano,": 7822,
      "Ġ1978": 7823,
      "ĠCalifor": 7824,
      "She": 7825,
      "ission": 7826,
      "ĠIf": 7827,
      "áĭµáĪ¨": 7828,
      "ĠáĪĿáĭķáĪ«": 7829,
      "ĠRÃ©": 7830,
      "Ġshi.": 7831,
      "ovu": 7832,
      "Ġwatumwa": 7833,
      "Ġáī¤áī¶áī½": 7834,
      "áĮ»áįĪ": 7835,
      "okras": 7836,
      "Ġáĭ¨áĬĲáĮĪ": 7837,
      "uthor": 7838,
      "ĠÃ²á¹£Ã¨rÃ©bÃ¬nrin": 7839,
      "balo": 7840,
      "Ġchake.": 7841,
      "Ġarewacin": 7842,
      "Ġáĭ¨áĪĻáĭļáīĥ": 7843,
      "ĠkÃłwÃ©": 7844,
      "Ġaur": 7845,
      "usha": 7846,
      "Ġ1918": 7847,
      "omm": 7848,
      "ĠTrans": 7849,
      "ĠDin": 7850,
      "Ġ(2016": 7851,
      "Ð½": 7852,
      "alamu": 7853,
      "ĠSho": 7854,
      "ĠUb": 7855,
      "Ġ1983": 7856,
      "ĠHenry": 7857,
      "43": 7858,
      "áĮįáĪĽáĭĬ": 7859,
      "áĮĭáĮĪáĪŃ": 7860,
      "áĬķáĮįáĪ¥áīµ": 7861,
      "ĠÃ¨rÃ²": 7862,
      "ĠÃĮjá»į": 7863,
      "áĭ±áīµ": 7864,
      "Ġfiimu": 7865,
      "ĠáĬ¥áĪµáĬ«": 7866,
      "Ġshaharar": 7867,
      "ĠFrank": 7868,
      "ĠannÃ©es": 7869,
      "ĠKibantu": 7870,
      "ĠHanyoyin": 7871,
      "Ġcikak": 7872,
      "Ġáĭ©áĬĴáī¨áĪŃáĪ²áī²": 7873,
      "Ġtakwas": 7874,
      "ĠáĮįáĬķáĬĻáĬĲáīµ": 7875,
      "Ġwá»įÌĢnyÃŃ": 7876,
      "Ġast": 7877,
      "ĠB.": 7878,
      "ĠMohammed": 7879,
      "ĠOm": 7880,
      "Ġlim": 7881,
      "ĠFrancis": 7882,
      "Ġdirect": 7883,
      "-J": 7884,
      "Kar": 7885,
      "SO": 7886,
      "Ġtur": 7887,
      "Ġauri": 7888,
      "umbe": 7889,
      "raba": 7890,
      "zi,": 7891,
      "stant": 7892,
      "issance": 7893,
      "3=": 7894,
      "Akwai": 7895,
      "]]": 7896,
      "Ġkisi": 7897,
      "áĬķáĮĢ": 7898,
      "Ġsame": 7899,
      "áĭµáīħ": 7900,
      "áĬŃáĪĿáĬĵ": 7901,
      "ĠFal": 7902,
      "ĠáĬ¥áĬķáĭ´áīµ": 7903,
      "Ġzane": 7904,
      "wanza": 7905,
      "áĮłáī¥": 7906,
      "lÃ©lÃ³gÃºn": 7907,
      "ĠáĭĭáĮĭ": 7908,
      "Ġ1950": 7909,
      "Ġile-i": 7910,
      "Ġáī°áĪĺáĪį": 7911,
      "ĠItalia.": 7912,
      "Ġmfumo": 7913,
      "ĠáĪģáĪĪáī°áĬĽ": 7914,
      "gÃŃ": 7915,
      "ÏĤ": 7916,
      "aly": 7917,
      "Ġham": 7918,
      "ĠVita": 7919,
      "Ġany": 7920,
      "Ġmajor": 7921,
      "Ġ$": 7922,
      "Ïģ": 7923,
      "Ġgano": 7924,
      "ĠHindi": 7925,
      "Iá¹£áº¹Ìģ": 7926,
      "ĠtÃº": 7927,
      "atre": 7928,
      "áĬĵáĮĪáĪŃ": 7929,
      "Ã¬yÃłn": 7930,
      "ĠáīłáĪ¥": 7931,
      "Ġzabe": 7932,
      "fai": 7933,
      "ĠVo": 7934,
      "ĠáĬŃáĪŃ": 7935,
      "áī¢áĭŃ": 7936,
      "Ġmatan": 7937,
      "áĪµáīµáĪª": 7938,
      "Ġfiye": 7939,
      "Ġáº¹ÌĢka": 7940,
      "shinda": 7941,
      "Ġtsara": 7942,
      "áĭ°áī¥áĪ¨": 7943,
      "ĠÃĴgÃ¹n": 7944,
      "áįĸáĪŃáīµ": 7945,
      "ĠáĬ¨áĭļáĭ«áĪĿ": 7946,
      "Mar": 7947,
      "Ġur": 7948,
      "ĠMul": 7949,
      "land,": 7950,
      "Ġincluding": 7951,
      "p.": 7952,
      "ison": 7953,
      "uter": 7954,
      "Ġ2007,": 7955,
      "gÃ¬": 7956,
      "zikin": 7957,
      "ined": 7958,
      "áĭ«áīĦ": 7959,
      "áĪĪáīłáīµ": 7960,
      "ĠKon": 7961,
      "ĠSenegal": 7962,
      "ĠáĬłáĬŃ": 7963,
      "ĠDon": 7964,
      "ĠGomina": 7965,
      "ĠFasaha": 7966,
      "ĠáĪĪáĭĪ": 7967,
      "Ġwase": 7968,
      "Ġkarshen": 7969,
      "ĠáĮ¥áīłáī¥": 7970,
      "áĪĲáĪ´": 7971,
      "ĠáĮ¨áĪĿáĪ®": 7972,
      "ĠfÃŃl": 7973,
      "Ġukoloni": 7974,
      "ĠáĬłáĪµáī°áĭ³áĭ°áĮį": 7975,
      "ĠYammacin": 7976,
      "Ġtalabijin": 7977,
      "áīħáĭ«áĬĸáĪµ": 7978,
      "86": 7979,
      "aract": 7980,
      "Ġ2010.": 7981,
      "ĠMartin": 7982,
      "-18": 7983,
      "Ã©.": 7984,
      "87": 7985,
      "teur": 7986,
      "59": 7987,
      "don": 7988,
      "itia": 7989,
      "ĠáīłáĮĭ": 7990,
      "Ġáīł16": 7991,
      "ĠáĬłáī¡": 7992,
      "ĠáĪĺáī¥": 7993,
      "áĪĽáī¸áĭį": 7994,
      "ĠPoli": 7995,
      "ĠDam": 7996,
      "Ġáĭĺáĭį": 7997,
      "ĠáĪįáĪĽ": 7998,
      "áĮ½áĭĭáīµ": 7999,
      "ĠáĮĪáĬĵ": 8000,
      "oni.": 8001,
      "Ġ1965": 8002,
      "ĠáĪ¥áĮĭ": 8003,
      "Ġgbá»įÌģ": 8004,
      "lishi": 8005,
      "Ġuse": 8006,
      "ĠáĬłáĭįáĪ«": 8007,
      "ĠShehu": 8008,
      "lÃ¬kÃ¬": 8009,
      "Ġáĭ°áĪ´áīµ": 8010,
      "ĠLouis": 8011,
      "ĠáįĪáĪ¨áĬķáĪ³áĭŃ": 8012,
      "rot": 8013,
      "'o": 8014,
      "Ġdim": 8015,
      "ifi": 8016,
      "ĠNairo": 8017,
      "-L": 8018,
      "ĠShek": 8019,
      "ĠLit": 8020,
      "Ġ1977": 8021,
      "Ġdiffer": 8022,
      "dá»į": 8023,
      "pÃłÃ¡": 8024,
      "ªáĭ«": 8025,
      "Ġdid": 8026,
      "Ġáī²": 8027,
      "yahudi": 8028,
      "Ġlenye": 8029,
      "Ġport": 8030,
      "ĠáĬĲáįĥ": 8031,
      "ĠáĪĺáĪĭ": 8032,
      "ĠáĪĺáĬĸ": 8033,
      "Ġhapo": 8034,
      "Ġsaka": 8035,
      "áįĬáĭİáī½": 8036,
      "ĠáĪļáĬ«áĬ¤áĪį": 8037,
      "ĠáĬªáĭ³áĬķ": 8038,
      "Ġáīłáī¥áĭĻ": 8039,
      "áīĢáĪĺáĮ«": 8040,
      "ĠáĮłáīħáĪĭáĭŃ": 8041,
      "ĠKÃ¡tÃ³lÃ¬kÃ¬": 8042,
      "ĠfÃŃlmÃ¹": 8043,
      "ÉĻ": 8044,
      "Ġlater": 8045,
      "embe": 8046,
      "B.": 8047,
      "ama,": 8048,
      "finan": 8049,
      "ulit": 8050,
      "Pope": 8051,
      "mÃł": 8052,
      "liya": 8053,
      "Ġ(10": 8054,
      "ini,": 8055,
      "gor": 8056,
      "ois": 8057,
      "áĪ¦": 8058,
      "Ġkufanya": 8059,
      "áĭ°áĪŃáĪµ": 8060,
      "ĠáĪĺáĮĢáĪĺáĪªáĭ«": 8061,
      "áĪ«áĭįáĭ«áĬķ": 8062,
      "gbá»įn": 8063,
      "ĠOyo": 8064,
      "ĠGovernment": 8065,
      "áĮ¥áĬĲáīµ": 8066,
      "ĠáĪĿáĬĴáĪįáĬŃ": 8067,
      "áĮĭáī¢áīµ": 8068,
      "Ġ2008,": 8069,
      "Ġrefer": 8070,
      "ĠZiwa": 8071,
      "áī¤áī±": 8072,
      "Ġá»Įmá»į": 8073,
      "ĠKuma": 8074,
      "Ġlililo": 8075,
      "Ġjimillar": 8076,
      "Ġwasemaji": 8077,
      "Ġdro": 8078,
      "ĠAbe": 8079,
      "ĠFe": 8080,
      "Ġlitt": 8081,
      "ĠStudi": 8082,
      "Historia": 8083,
      "Ġari": 8084,
      "andard": 8085,
      "ĠYou": 8086,
      "ĠAz": 8087,
      "ĠSoma": 8088,
      "ĠNic": 8089,
      "ĠIya": 8090,
      "-áĬ¢": 8091,
      "buwa": 8092,
      "xford": 8093,
      "ĠAle": 8094,
      "áĭ«áĪįáį¢": 8095,
      "áĭ«áĭįáĭ«áĬķ": 8096,
      "áĪ³áĭį": 8097,
      "Ġdeath": 8098,
      "ĠáĭĵáĪĭáĪĽ": 8099,
      "ÃłnÃł": 8100,
      "Ġáº¹bÃŃ": 8101,
      "Ġhivi": 8102,
      "Ġáĭ¨áĪĺáĮ£": 8103,
      "ĠáĪĬáĪĨáĬķ": 8104,
      "Ġáĭķáĭį": 8105,
      "Ġkamfan": 8106,
      "ĠolÃ³Ã²": 8107,
      "Ġdukkan": 8108,
      "Ġasilimia": 8109,
      "Ġcontinu": 8110,
      "rÃ¬á¹£Ãł": 8111,
      "ĠáĪľáĭ³": 8112,
      "ĠTarayya": 8113,
      "ix": 8114,
      "ton,": 8115,
      "Ġfal": 8116,
      "olin": 8117,
      "til": 8118,
      "Ġgiga": 8119,
      "ĠAnti": 8120,
      "52": 8121,
      "ĠPulit": 8122,
      "ĠDevelopment": 8123,
      "áº¹áº¹ráº¹": 8124,
      "áĪĿáīłáĪŃ": 8125,
      "ti,": 8126,
      "áī³áĪĿ": 8127,
      "gbáº¹ÌĢ": 8128,
      "si.": 8129,
      "ĠáĭĪáĭĺ": 8130,
      "Ġáĭ«áĭį": 8131,
      "áīłáĪ®": 8132,
      "áĬķáĭµáĪµáĬĵ": 8133,
      "áĬķáĮįáĪµáīµ": 8134,
      "ĠAlhaji": 8135,
      "amua": 8136,
      "rich": 8137,
      "áī¹áĬķ": 8138,
      "áĮĥáĭĿáĪĽáī½": 8139,
      "nÃ¬s": 8140,
      "ĠKuu": 8141,
      "ĠáĮ¸áĪĲáįĬ": 8142,
      "ĠBirnin": 8143,
      "ĠáīłáĪŃáĬ«áī³": 8144,
      "ĠáĬłáĪµáī°áĭ³áĭ°áĪŃ": 8145,
      "ĠSecond": 8146,
      "Ġshugabar": 8147,
      "ĠSatumba": 8148,
      "zungum": 8149,
      "ĠPÃ³pÃ¹": 8150,
      "Ã£": 8151,
      "ĠBern": 8152,
      "Ġ400": 8153,
      "gest": 8154,
      "ked": 8155,
      "Ġnational": 8156,
      "Ġcre": 8157,
      "Ġpuis": 8158,
      "ci.": 8159,
      "owever,": 8160,
      "lot": 8161,
      "resent": 8162,
      "ĠÃ©tait": 8163,
      "kara": 8164,
      "tani": 8165,
      "áĬ»": 8166,
      "Ġmbunge": 8167,
      "Ġdauke": 8168,
      "áĪįáĬĵ": 8169,
      "áĬĲáĮĪ": 8170,
      "áīłáĬłáĪ": 8171,
      "áį¡áĬł": 8172,
      "ÆĻo": 8173,
      "áĮ»áįį": 8174,
      "ĠáĬ¢áĬķ": 8175,
      "Ġsayari": 8176,
      "ĠlÃ¡Ãłrin": 8177,
      "ĠPasifiki": 8178,
      "ĠÆ´ar": 8179,
      "holanzi": 8180,
      "pinduzi": 8181,
      "Par": 8182,
      "Ġsour": 8183,
      "enga": 8184,
      "Ġ1920": 8185,
      "ata,": 8186,
      "ube": 8187,
      "ĠZimbabwe": 8188,
      "ĠÂ».": 8189,
      "Ġdisc": 8190,
      "anganyika": 8191,
      "Ġcas": 8192,
      "lement": 8193,
      "can": 8194,
      "Ġmemb": 8195,
      "Ġsci": 8196,
      "Ġvers": 8197,
      "ĠCentral": 8198,
      "áĮ©": 8199,
      "Ġnye": 8200,
      "áº¹áº¹": 8201,
      "áī¥áĬĽ": 8202,
      "áĪ¨áįĪ": 8203,
      "ĠJáº¹Ìģ": 8204,
      "Ġhaki": 8205,
      "osentomon": 8206,
      "áĭ²áĪ±": 8207,
      "Ġcewar": 8208,
      "áĪ¬áĬķ": 8209,
      "Ġthese": 8210,
      "Ġmatakin": 8211,
      "Ġgabashin": 8212,
      "ĠUniversity,": 8213,
      "ĠáĬªáĪİ": 8214,
      "ĠáĬłáĭµáĪŃáĮİ": 8215,
      "ĠáĪļáĬĴáĪµáīµáĪŃ": 8216,
      "Ġlors": 8217,
      "ĠBon": 8218,
      "ctor": 8219,
      "oja": 8220,
      "Ġmm": 8221,
      "isme": 8222,
      "ĠHab": 8223,
      "ours": 8224,
      "Ġ1973": 8225,
      "Ġ(2006)": 8226,
      "ĠCommun": 8227,
      "ĠEdward": 8228,
      "ĠGreek": 8229,
      "ĠAu": 8230,
      "ĠSim": 8231,
      "Ġinu": 8232,
      "Ġyear": 8233,
      "ĠáĬ¦áĪŃ": 8234,
      "Ġatom": 8235,
      "Ġpet": 8236,
      "ĠgÃ©": 8237,
      "áĬĲáĪ£": 8238,
      "ĠÃ¬gbÃ¬má»įÌĢ": 8239,
      "ĠOko": 8240,
      "ĠJari": 8241,
      "Ġáĭ¨áĪļáī£áĪį": 8242,
      "áĪĬáĭ«áĬķ": 8243,
      "Ġisi": 8244,
      "Ġakafuatwa": 8245,
      "Ġkipindi": 8246,
      "áĪµáī°áĪŃ": 8247,
      "ĠáĪŃáĭķ": 8248,
      "ĠáĬłáĪĽáĬ«": 8249,
      "ĠIndiya": 8250,
      "adarwa": 8251,
      "ĠElezo": 8252,
      "ĠáĬĹáĪª": 8253,
      "Ġáīłáī°áĪĪáĭŃáĪĿ": 8254,
      "ĠáĮ½áĪķáįĪáīµ": 8255,
      "At": 8256,
      "ĠRed": 8257,
      "Ġdesign": 8258,
      "Ġ\"C": 8259,
      "ËĪ": 8260,
      "ĠOlu": 8261,
      "ayen": 8262,
      "Ġ2013.": 8263,
      "Ġ1971": 8264,
      "áĪĲáĭŃ": 8265,
      "hird": 8266,
      "Ġlinal": 8267,
      "ĠGida": 8268,
      "ĠáĭĪáĮ£": 8269,
      "áĭ¨áĬłáĪ": 8270,
      "ĠáĬ¥áĬķáĭµ": 8271,
      "áĮ£áĪª": 8272,
      "bujoko": 8273,
      "pokea": 8274,
      "ĠáīłáĪĺáĪµ": 8275,
      "ĠáĪĻáĭļáīĥ": 8276,
      "Ġasilia": 8277,
      "tumÃ²": 8278,
      "ĠáĪĨáĬĸáĪĿ": 8279,
      "Ġwatoto": 8280,
      "Ġhttp://": 8281,
      "Ġtakarar": 8282,
      "ĠáĮĪáĬķáĭĺáī¥": 8283,
      "Ġthrough": 8284,
      "Ġtáº¹lifÃŃ": 8285,
      "79": 8286,
      "Pia": 8287,
      "Ġbata": 8288,
      "ilÃ©": 8289,
      "ĠGud": 8290,
      "ĠZe": 8291,
      "tal": 8292,
      "ĠBunge": 8293,
      "unawa": 8294,
      "Ġagainst": 8295,
      "Bi": 8296,
      "Bisa": 8297,
      "bá»įÌģá»įÌĢlÃ¹": 8298,
      "jumo": 8299,
      "Ġdauki": 8300,
      "Ġ(c": 8301,
      "ĠMara": 8302,
      "ĠMana": 8303,
      "Ġcal": 8304,
      "áĭ°áĮĪ": 8305,
      "ĠBÃŃ": 8306,
      "áĮįáĬĺáīµ": 8307,
      "Ġmaarufu": 8308,
      "ĠWin": 8309,
      "right": 8310,
      "Ġule": 8311,
      "we.": 8312,
      "Ġáĭ°áĮĭ": 8313,
      "Ġlissa": 8314,
      "Ġaddini": 8315,
      "ĠáĪģáĪīáĪĿ": 8316,
      "lá»įÌģwá»įÌģ": 8317,
      "áį²áį±áį»áį¶áį": 8318,
      "Ġkalenda": 8319,
      "áĪĽáĭŃáĪµáĮ¥": 8320,
      "ĠáĪļáĬĴáĪµáī´": 8321,
      "ĠáĭµáĬķáĮĭáĭŃ": 8322,
      "Rayuwar": 8323,
      "Ġcou": 8324,
      "ĠpremiÃ¨re": 8325,
      "64": 8326,
      "Kam": 8327,
      "gressi": 8328,
      "riki": 8329,
      "ĠAsa": 8330,
      "ĠBened": 8331,
      "ĠBuhari": 8332,
      "à¥": 8333,
      "anzo": 8334,
      "wahi": 8335,
      "ĠkÃ¡Ãł": 8336,
      "at,": 8337,
      "áĪĿáĪĮ": 8338,
      "áĪįáĪĿáĬĵ": 8339,
      "Ġowo": 8340,
      "ĠpÃŃn": 8341,
      "ĠÃ¬s": 8342,
      "áĮĭáĪª": 8343,
      "ĠÃĮjáº¹ÌĢ": 8344,
      "Ġáº¹ÌĢsÃ¬n": 8345,
      "áī¦áĪŃ": 8346,
      "kundu": 8347,
      "Ġplusieurs": 8348,
      "dÃŃnlá»įÌģgbá»įÌĢn": 8349,
      "Ġtáº¹ÌģnÃ¬s": 8350,
      "chaguliwa": 8351,
      "ughuli": 8352,
      "Ġdare": 8353,
      "Ġsing": 8354,
      "umbi": 8355,
      "ĠDist": 8356,
      "ĠSta": 8357,
      "Ġ1985": 8358,
      "Ġappe": 8359,
      "NN": 8360,
      "ire.": 8361,
      "ĠJohann": 8362,
      "ĠMaur": 8363,
      "ĠColumb": 8364,
      "Eneo": 8365,
      "bÃ¬": 8366,
      "Ġsitu": 8367,
      "á»įlÃ¡": 8368,
      "Ġyaki": 8369,
      "Ġ(áĬłáĪ": 8370,
      "áĪĪáĪ°": 8371,
      "áĭ°áĮĭ": 8372,
      "áĪ«áĪª": 8373,
      "áī³áĪªáĬŃ": 8374,
      "áī£áī±": 8375,
      "áĮ¥áĪ¨áīµ": 8376,
      "áĬ«áĬķ": 8377,
      "áĭĭáĪŃáĭ«": 8378,
      "áĭĿáĬĵ": 8379,
      "ĠYesu": 8380,
      "áī²áīµ": 8381,
      "iriwa": 8382,
      "ĠWaarabu": 8383,
      "ĠáĪķáĭŃáĭĪáīµ": 8384,
      "antake": 8385,
      "eriod": 8386,
      "jÃłkÃ¡láº¹ÌĢ": 8387,
      "Ġyarjejen": 8388,
      "Ġutamaduni": 8389,
      "Ġkowane": 8390,
      "Ġjulá»į": 8391,
      "Ġfond": 8392,
      "Ġmodern": 8393,
      "Ġinap": 8394,
      "rey": 8395,
      "Ġvy": 8396,
      "Ġ2012.": 8397,
      "Ġclass": 8398,
      "me,": 8399,
      "Ġ(k": 8400,
      "ĠRes": 8401,
      "Ġvon": 8402,
      "Ġvina": 8403,
      "hind": 8404,
      "ological": 8405,
      "ĠFederal": 8406,
      "Ce": 8407,
      "áĮĲ": 8408,
      "áĭįáĬĵ": 8409,
      "Ġoju": 8410,
      "áī½áĪī": 8411,
      "ĠáĬłáĭĪ": 8412,
      "áĭ°áī¡áī¥": 8413,
      "ĠáĪĺáī¥áīµ": 8414,
      "dian": 8415,
      "Ġá»įpá»įlá»į": 8416,
      "ĠLife": 8417,
      "ĠáĪµáī´": 8418,
      "áĭļáĭ«áĬķ": 8419,
      "ÉĹe": 8420,
      "ĠáĬĲáīłáĪŃáį¡áį¡": 8421,
      "áĮ¨áīµ": 8422,
      "attun": 8423,
      "ĠáįĬáĪį": 8424,
      "ÃĪyÃŃ": 8425,
      "Ġmamaye": 8426,
      "Ġ(lafazi": 8427,
      "Ġ(áĭĪáĭŃáĪĿ": 8428,
      "tary": 8429,
      "etnam": 8430,
      "idd": 8431,
      "ĠUnion": 8432,
      "Au": 8433,
      "Dans": 8434,
      "ĠTri": 8435,
      "ĠDenmar": 8436,
      "54": 8437,
      "ense": 8438,
      "ĠKore": 8439,
      "usal": 8440,
      "ellow": 8441,
      "Ġey": 8442,
      "haria": 8443,
      ")áį¢": 8444,
      "89": 8445,
      "dÃ¬ÃŃ": 8446,
      "ge.": 8447,
      "tá»į": 8448,
      "Ġnord": 8449,
      "ĠAkwa": 8450,
      "ĠáĮĵ": 8451,
      "áĪ«áĬĴ": 8452,
      "refu": 8453,
      "Ġuta": 8454,
      "ĠWaingereza": 8455,
      "Ġáīłáī°áĪĪáĭ«áĭ©": 8456,
      "ĠÃ©t": 8457,
      "ĠáīłáĬłáĭ²áĪµ": 8458,
      "ccen": 8459,
      "ĠáįįáīħáĪŃ": 8460,
      "ĠáĬłáĪįáįĭ": 8461,
      "Ġáĭ¨áĬĲáīłáĪ©": 8462,
      "Ġduniya,": 8463,
      "Ġáī¤áī°áĬŃáĪŃáĪµáī²áĭ«áĬķ": 8464,
      "Ġume": 8465,
      "Ġkiran": 8466,
      "Ġáĭ¨áįĸáĪĪáī²áĬ«": 8467,
      "by": 8468,
      "kt": 8469,
      "uve": 8470,
      "ĠÃį": 8471,
      "ĠInternet": 8472,
      "of": 8473,
      "ĠP.": 8474,
      "Ġhapa": 8475,
      "ard,": 8476,
      "ĠVirgin": 8477,
      "BÃ¡": 8478,
      "ĠáĬĶ": 8479,
      "Ġnamba": 8480,
      "ĠsÃ³": 8481,
      "Ġáĭ¨áĭķ": 8482,
      "áĭ«áīµ": 8483,
      "ĠáīłáĪ®": 8484,
      "áĬ«áĭµ": 8485,
      "áįĪáĪ«": 8486,
      "Ġkansa": 8487,
      "Ġmatasa": 8488,
      "ĠilÃ©-Ã¬wÃ©": 8489,
      "ĠáĪķáĮį": 8490,
      "áį²áį±áį»áį·áį": 8491,
      "ĠHausawa": 8492,
      "Ġrecord": 8493,
      "fÃŃrÃŃkÃł": 8494,
      "usiness": 8495,
      "okrasia": 8496,
      "arr": 8497,
      "Ġmov": 8498,
      "ĠKeb": 8499,
      "ur,": 8500,
      "irs": 8501,
      "Ġnotamment": 8502,
      "Ġmillion": 8503,
      "73": 8504,
      "kari": 8505,
      "Ġmito": 8506,
      "ter,": 8507,
      "les,": 8508,
      "ain": 8509,
      "ÏĦ": 8510,
      "Ġmer": 8511,
      "Ġsyn": 8512,
      "jÃ¨": 8513,
      "yá»įÌĢ": 8514,
      "ĠáīłáĭļáĪģ": 8515,
      "ĠKikuu": 8516,
      "Ġiba": 8517,
      "Ġá»įgá»įÌģ": 8518,
      "sible": 8519,
      "áĭĿáī¡": 8520,
      "ĠÆĻir": 8521,
      "Ġáº¹gbáº¹": 8522,
      "ĠVisiwa": 8523,
      "dua": 8524,
      "ĠáīłáĪĺáĮ¨áĪ¨áĪ»": 8525,
      "Ġdescri": 8526,
      "ĠáĬłáĬķáĭ°": 8527,
      "tÃłrÃŃ": 8528,
      "ĠAfirka.": 8529,
      "ĠáįĬáĭ°": 8530,
      "áĮĪáĪĪáĮį": 8531,
      "Ġwanyama": 8532,
      "ĠáĪªáįĲáī¥áĪĬáĬŃ": 8533,
      "ĠáīłáĭĵáĪĪáĪĿ": 8534,
      "ridge": 8535,
      "ĠáĮłáĪĭ": 8536,
      "ĠSudan": 8537,
      "Ġshule": 8538,
      "Ã¡Ã¡jÃº": 8539,
      "Ġmy": 8540,
      "Ġsm": 8541,
      "athan": 8542,
      "ĠM.": 8543,
      "ĠIran": 8544,
      "ĠChe": 8545,
      "Ġsoja": 8546,
      "kere": 8547,
      "áĪĿáĪµ": 8548,
      "Ġ(da": 8549,
      "ĠPh": 8550,
      "Ġref": 8551,
      "Ġ1981": 8552,
      "GB": 8553,
      "Ġure": 8554,
      "áī°áĬŀáī½": 8555,
      "áĪħáĪŃ": 8556,
      "ÆĻe": 8557,
      "Ġuwe": 8558,
      "ĠáĮįáĪ«": 8559,
      "Ġáĭ¨áī°áīĢ": 8560,
      "áĪĬáĪµ": 8561,
      "Ġkan,": 8562,
      "hout": 8563,
      "pokuwa": 8564,
      "Ġardhi": 8565,
      "áĭĵáĪĪáĪĿ": 8566,
      "ĠáĬ¢áĭ¨áĪ±áĪµ": 8567,
      "Ġmeji": 8568,
      "Ġkilimo": 8569,
      "ĠWanasayansi": 8570,
      "ikh": 8571,
      "rise": 8572,
      "ellement": 8573,
      "ronom": 8574,
      "66": 8575,
      "ĠGr": 8576,
      "ico": 8577,
      "Ġdun": 8578,
      "Ġ80": 8579,
      "-á»į": 8580,
      "dáº¹Ìģ": 8581,
      "mond": 8582,
      "Ġtashi": 8583,
      "Ġáĭ¨áĮ¦áĪŃ": 8584,
      "Ġ(f": 8585,
      "Ġcla": 8586,
      "ĠáīłáĬŃ": 8587,
      "áĪĪáĪį": 8588,
      "ĠJanar": 8589,
      "áįįáī°áĬĽ": 8590,
      "áĭ³áĭĬ": 8591,
      "ĠáĬĲáĭįáį¤": 8592,
      "Ġelimu": 8593,
      "ĠáĮįáĪį": 8594,
      "Ġáĭ°áĪŃ": 8595,
      "Ġáĭ°áī¥áĪ¨": 8596,
      "Ġshekarar,": 8597,
      "áĬĶáīµ": 8598,
      "Ġáĭ¨áĬłáĪŃ": 8599,
      "ĠáĪħáĮį": 8600,
      "ĠáīłáĬłáĪľáĪªáĬ«": 8601,
      "Ġbiyu.": 8602,
      "Ġkáº¹Ìģká»įÌĢá»įÌģ": 8603,
      "oni,": 8604,
      "Ġ6.": 8605,
      "ĠPress,": 8606,
      "kya": 8607,
      "astern": 8608,
      "ĠProf": 8609,
      "Ġland": 8610,
      "veau": 8611,
      "07": 8612,
      "jar": 8613,
      "wÃ¬": 8614,
      "Ġmche": 8615,
      "Ã©lÃ©": 8616,
      "ĠáĮ»": 8617,
      "ĠáĬ¥áĮ½áĭĭáīµ": 8618,
      "ĠSau": 8619,
      "Ġtaifa": 8620,
      "ĠáĬłáĭ°áĪ¨áĮĪ": 8621,
      "ĠÃłká»į": 8622,
      "áĬĲáĭĵáĬķ": 8623,
      "laka": 8624,
      "áĪ³áī¸áĭįáĬķ": 8625,
      "ĠáīłáĪ±": 8626,
      "Ġáĭ¨áĪ¶": 8627,
      "ĠHali": 8628,
      "áĪ®áĪŀ": 8629,
      "áĭ®áīµ": 8630,
      "Ġwasanni": 8631,
      "ĠáĬ¥áĬķáĭ°áĬĲáīłáĪŃ": 8632,
      "áĬĴáīµ": 8633,
      "ĠhuÉĹu": 8634,
      "ĠPaulo": 8635,
      "Ġnying": 8636,
      "ĠáĬłáĪµáī°áĭĭ": 8637,
      "ĠRound)": 8638,
      "áĪµáī³áĬķ": 8639,
      "Ġdigirin": 8640,
      "Ġmsingi": 8641,
      "Ġtashar": 8642,
      "Ġmusulunci": 8643,
      "Ġmallaka": 8644,
      "ĠáĬ¥áĬķáĬ³áĬķ": 8645,
      "ĠSokoto": 8646,
      "ĠáĭĪáĭĺáī°": 8647,
      "ey": 8648,
      "Ġnou": 8649,
      "ased": 8650,
      "ĠFer": 8651,
      "cific": 8652,
      "TV": 8653,
      "Ġword": 8654,
      "ĠDani": 8655,
      "Ġbado": 8656,
      "fa,": 8657,
      "Ġ1969": 8658,
      "Ġd'I": 8659,
      "br": 8660,
      "pÃ³": 8661,
      "kasa": 8662,
      "Ġ1914": 8663,
      "ĠTele": 8664,
      "Ġhor": 8665,
      "ĠGlo": 8666,
      "poli": 8667,
      "Ġthen": 8668,
      "Ġinflu": 8669,
      "jÃ¬n": 8670,
      "Ġtatta": 8671,
      "Ġnkan": 8672,
      "áĭįáĪµ": 8673,
      "ĠAD": 8674,
      "Ġrana": 8675,
      "ĠNje": 8676,
      "el.": 8677,
      "ĠáīłáĪ³": 8678,
      "abin": 8679,
      "ĠUchaguzi": 8680,
      "áĬ«áĪŃ": 8681,
      "qui": 8682,
      "Ġáĭ¨áī°áĬĲáĪ³": 8683,
      "Ġ2009.": 8684,
      "áīłáīµáį¢": 8685,
      "Ġyankunan": 8686,
      "ĠáĭŃáĮĪáĪĺ": 8687,
      "Ġjagoranci": 8688,
      "ĠlÃ¡ÃłrÃŃn": 8689,
      "Ġbincike": 8690,
      "pedia.": 8691,
      "inadamu": 8692,
      "Ġnitori": 8693,
      "pl": 8694,
      "pu": 8695,
      "Ġbefore": 8696,
      "Ø¹": 8697,
      "ĠDun": 8698,
      "oton": 8699,
      "Ġ0.": 8700,
      "Ġtir": 8701,
      "uses": 8702,
      "áĮ®": 8703,
      "Ġkita": 8704,
      "Ġmbali": 8705,
      "Ġáĭ¨áįĪáĪ¨áĬķáĪ³áĭŃ": 8706,
      "áĭįáĪį": 8707,
      "Ġrem": 8708,
      "Ġriga": 8709,
      "ĠáĪĺáī³": 8710,
      "áį¡áī°": 8711,
      "Ġbaki": 8712,
      "ĠâĢİ": 8713,
      "Ġambalo": 8714,
      "Ġsiasa": 8715,
      "ananchi": 8716,
      "ĠáĮīáĪį": 8717,
      "Ġmaneno": 8718,
      "áĪłáī¥": 8719,
      "Ġfiramare": 8720,
      "áĪĺáĪĪáĪµ": 8721,
      "ĠPremi": 8722,
      "org/wiki": 8723,
      "Ġind": 8724,
      "Ġ\"The": 8725,
      "Ġenc": 8726,
      "fari": 8727,
      "Ġ\"m": 8728,
      "Ġsupport": 8729,
      "utun": 8730,
      "hod": 8731,
      "ĠWaziri": 8732,
      "Ġmlima": 8733,
      "ÃŃÃł": 8734,
      "Ġáĭ¨áįĭ": 8735,
      "Ġwasi": 8736,
      "áĪµáī²": 8737,
      "Ġbun": 8738,
      "ĠMili": 8739,
      "Ġgani": 8740,
      "irika": 8741,
      "ĠSpe": 8742,
      "áĪĽáĪįáį¢": 8743,
      "áĭ¨áĬķ": 8744,
      "Ġkwallaye": 8745,
      "ungiya": 8746,
      "ston": 8747,
      "Ġalim": 8748,
      "áĪ´áīµ": 8749,
      "ĠyÃ¬ÃŃ.": 8750,
      "ĠJamhuriyar": 8751,
      "ĠáīłáĪ°áĪľáĬķ": 8752,
      "ĠáĭĺáĪĺáī»": 8753,
      "ĠáĪĺáĭĭáĭķáĪį": 8754,
      "ster": 8755,
      "Ġkata": 8756,
      "ĠL'": 8757,
      "si,": 8758,
      "add": 8759,
      "ĠMada": 8760,
      "ĠGhana.": 8761,
      "ĠCoast": 8762,
      "cs": 8763,
      "Ġsanda": 8764,
      "leta": 8765,
      "ĠTown": 8766,
      "ĠCross": 8767,
      "Ġmoto": 8768,
      "páº¹Ìģ": 8769,
      "ØŃ": 8770,
      "áĭ¢": 8771,
      "uruki": 8772,
      "ikatar": 8773,
      "ĠáĬłáĪ¥": 8774,
      "áĬ¨áĪ°": 8775,
      "ĠáĮ¥áĭ«áīĦ": 8776,
      "kÃ²rÃ²": 8777,
      "ĠâĢĺyan": 8778,
      "Ġdangin": 8779,
      "ĠáīłáĪĮáĪĭ": 8780,
      "ĠáĪµáī¥áĪµáī¥": 8781,
      "ĠáĪĬáīĥáĭįáĬķáīµ": 8782,
      "Ġlow": 8783,
      "AM": 8784,
      "iso": 8785,
      "alement": 8786,
      "ĠAlger": 8787,
      "Ġradi": 8788,
      "limin": 8789,
      "Ġ(2003)": 8790,
      "Ġcentury": 8791,
      "69": 8792,
      "Ġmana": 8793,
      "ices": 8794,
      "Ġlangue": 8795,
      "-Ã²": 8796,
      "83": 8797,
      "Mut": 8798,
      "je.": 8799,
      "inent": 8800,
      "wal": 8801,
      "Ġsashen": 8802,
      "Ġwala": 8803,
      "ĠwÃ²": 8804,
      "áĭŃáīħ": 8805,
      "áĭ°áĪŃáĮī": 8806,
      "ĠBara": 8807,
      "áĮĪáĭĽ": 8808,
      "Ġmach": 8809,
      "Ġáī°áĪĽáĪª": 8810,
      "ĠáĮįáĪªáĬŃ": 8811,
      "Ġáĭ¨áī°áĭĪáĪ°": 8812,
      "ido": 8813,
      "ĠMapapa": 8814,
      "ĠÅĦlÃ¡": 8815,
      "Ġra'": 8816,
      "áī³áĭĪáīħ": 8817,
      "Ġkalmar": 8818,
      "ĠáĪ¥áĪŃáĭĵáīµ": 8819,
      "ĠmÃºláº¹ÌĢ": 8820,
      "Ġplace": 8821,
      "zingira": 8822,
      "Ġsauransu.": 8823,
      "tumÃ²:": 8824,
      "PC": 8825,
      "Tun": 8826,
      "Ðº": 8827,
      "anc": 8828,
      "ĠDut": 8829,
      "ĠArts": 8830,
      "Ġbuil": 8831,
      "arth": 8832,
      "Ġdar": 8833,
      "gement": 8834,
      "Ġgovernment": 8835,
      "Ġbada": 8836,
      "nie": 8837,
      "sy": 8838,
      "sitÃ¬": 8839,
      "Ġáĭĳ": 8840,
      "áº¹g": 8841,
      "amani": 8842,
      "áĪµáĪĬ": 8843,
      "áĪµáī³áīµ": 8844,
      "Ġbabu": 8845,
      "aland": 8846,
      "ĠKatoliki": 8847,
      "ĠSing": 8848,
      "ĠScience": 8849,
      "ĠBras": 8850,
      "ĠTovuti": 8851,
      "Ġimo": 8852,
      "áĬ«áīµ": 8853,
      "ĠáĪµáī¥": 8854,
      "wango": 8855,
      "Ġamatsayin": 8856,
      "Ġáĭ¨áĬłáĪĪáĪĿ": 8857,
      "ĠparÃŃ": 8858,
      "Ġhuitwa": 8859,
      "Ġ1962": 8860,
      "undwa": 8861,
      "Ġambaye": 8862,
      "gbÃ©sÃŃ": 8863,
      "ikoa": 8864,
      "áįīáīµ": 8865,
      "Ġikon": 8866,
      "ransis": 8867,
      "Ġáī°áĭĪáĪĪáĭ°": 8868,
      "ĠáĬłáĭįáĪ®áįĵ": 8869,
      "pion": 8870,
      "ĠáĪĺáĬĲáĪ»": 8871,
      "Ġtáº¹Ìģláº¹ÌĢ.": 8872,
      "Ġndege": 8873,
      "Ġhabari": 8874,
      "72": 8875,
      "Ġq": 8876,
      "Ġtam": 8877,
      "ĠEdo": 8878,
      "Ġ1964": 8879,
      "urar": 8880,
      "zi.": 8881,
      "Ġ1952": 8882,
      "Ġ1945": 8883,
      "ĠJac": 8884,
      "Ġdepuis": 8885,
      "ga.": 8886,
      "Ġ1972": 8887,
      "Ġwhile": 8888,
      "100": 8889,
      "Ġnyota": 8890,
      "Ġboth": 8891,
      "ĠpÃºpá»įÌĢ": 8892,
      "áĭŃáĪŃáĪĭáĬķáĭµ": 8893,
      "ĠáĪĺáīĢáĪĺáĮ«": 8894,
      "Ġida": 8895,
      "Ġinst": 8896,
      "ÆĻar": 8897,
      "Ġoruko": 8898,
      "áĪŀáĬķ": 8899,
      "Ġhij": 8900,
      "ĠAmani": 8901,
      "Ġolud": 8902,
      "áī¡áĪŃ": 8903,
      "Ġforme": 8904,
      "Ġl'in": 8905,
      "ishaji": 8906,
      "ĠáīħáĬĿ": 8907,
      "ĠgbÃ³": 8908,
      "ĠLeo": 8909,
      "áĪ£áĭŃ": 8910,
      "áĪµáī°áĬĽáĭį": 8911,
      "Ġzamantake": 8912,
      "Ã³nÃł": 8913,
      "Ġcommon": 8914,
      "Ġtarayya": 8915,
      "ĠáĪ½áĪį": 8916,
      "rÃ¡lÃŃÃł": 8917,
      "Ġáĭ¶áĪ®": 8918,
      "Ġtenis": 8919,
      "ĠáĭŃáĪĨáĬĵáĪį": 8920,
      "yáº¹ÌĢwÃ²": 8921,
      "ĠáĪĺáĪ£áĪªáĭ«": 8922,
      "ĠBag": 8923,
      "qu'": 8924,
      "Ġ\"N": 8925,
      "ĠCouncil": 8926,
      "zim": 8927,
      "Ġpor": 8928,
      "utan": 8929,
      "ĠHu": 8930,
      "ulus": 8931,
      "pole": 8932,
      "Ġhars": 8933,
      "ĠSwed": 8934,
      "Ġdam": 8935,
      "ĠTour": 8936,
      "):": 8937,
      "Hata": 8938,
      "Äĵ": 8939,
      "ĠÙħ": 8940,
      "Ġkiya": 8941,
      "Ġsheria": 8942,
      "Ġdaular": 8943,
      "ĠAá¹£": 8944,
      "Ġfour": 8945,
      "áī°áį¡": 8946,
      "áī°áĭ³": 8947,
      "áĭ°áĬķáīµ": 8948,
      "áĪĭáĮħ": 8949,
      "áī£áī£": 8950,
      "ĠGal": 8951,
      "ĠGram": 8952,
      "ĠGÃºÃºsÃ¹": 8953,
      "ĠJer": 8954,
      "kele": 8955,
      "áīłáĪ»": 8956,
      "unganisha": 8957,
      "áĪ©áĬŃ": 8958,
      "áĭķáīĨ": 8959,
      "áĭ©áīµ": 8960,
      "Ġkida": 8961,
      "Ġmuhimman": 8962,
      "ĠáĬłáĪįáįİ": 8963,
      "Ġáĭ¨áĬ¥áĬķáĮįáĪĬáĭĿ": 8964,
      "Ġáī°áīĢáĪĿ": 8965,
      "ĠAustrÃ¡lÃŃÃł": 8966,
      "Ġkyau": 8967,
      "ĠáĮ¨áĭĭ": 8968,
      "ĠkÃºkur": 8969,
      "ussia": 8970,
      "Ġtaimaka": 8971,
      "Ġmvua": 8972,
      "ĠkÃºkurÃº": 8973,
      "wen": 8974,
      "Ġprom": 8975,
      "rea": 8976,
      "ĠAdama": 8977,
      "x,": 8978,
      "ĠRadio": 8979,
      "Ġpoliti": 8980,
      "Ġconstru": 8981,
      "ia:": 8982,
      "ĠRasha": 8983,
      "Ġ90": 8984,
      "74": 8985,
      "Ñģ": 8986,
      "Ġtsib": 8987,
      "áĬķáĪ°": 8988,
      "áĬķáĬ«": 8989,
      "áĪįáį¤": 8990,
      "áĬĲáĮį": 8991,
      "áīłáĭ«": 8992,
      "Ġingawa": 8993,
      "áįįáī°": 8994,
      "áīħáĪį": 8995,
      "Ġorile": 8996,
      "ĠYuli": 8997,
      "Ġshi,": 8998,
      "ĠkarÃ¹n": 8999,
      "Ġconc": 9000,
      "ĠáĬĲáīłáĪŃáį¤": 9001,
      "kunrin": 9002,
      "ĠáĪµáĪĿáĪĿáĬĲáīµ": 9003,
      "kÃ²Ã³": 9004,
      "Ġbude": 9005,
      "ĠáĪĺáĬķáĮĪ": 9006,
      "ĠáĬ¨áĬłáĬķáĭµ": 9007,
      "áĪŃáĪ±áĪĿ": 9008,
      "ps://": 9009,
      "ĠáĭŃáī³áĪĺáĬĵ": 9010,
      "Ġsarra": 9011,
      "ĠSociety": 9012,
      "ĠAnambra": 9013,
      "org/wiki/": 9014,
      "jet": 9015,
      "áĥ": 9016,
      "Ġwi": 9017,
      "um.": 9018,
      "ĠOxford": 9019,
      "ĠaprÃ¨s": 9020,
      "Ð»": 9021,
      "Ġame": 9022,
      "Ġtradition": 9023,
      "ĠSahara": 9024,
      "ĠCount": 9025,
      "ĠFas": 9026,
      "à¤ķà¤": 9027,
      "ĠGregori": 9028,
      "áī¿": 9029,
      "ĠáĭĬ": 9030,
      "Ġáĭ¨áĪ«": 9031,
      "Ġáĭ¨áĮİ": 9032,
      "Ġáĭ¨áĪĺáĬķ": 9033,
      "Ġce.": 9034,
      "ĠfÃ©": 9035,
      "ilway": 9036,
      "ĠIlu": 9037,
      "atibu": 9038,
      "ĠáĪĺáīĢ": 9039,
      "ĠWap": 9040,
      "ĠÃ¬wÃ¡": 9041,
      "Ġáī°áĮĪáĬĿ": 9042,
      "Ġá»įká»įÌĢ": 9043,
      "ĠáīłáĪ¶": 9044,
      "ĠáĭĪáĭ²áĭ«": 9045,
      "áīĢáĪĿ": 9046,
      "ĠUislamu": 9047,
      "Ġáĭ«áĭ°áĪŃ": 9048,
      "ĠáĪĽáĪ¨": 9049,
      "áī¶áĭ¶": 9050,
      "ĠÃĢyá»įkÃł": 9051,
      "antun": 9052,
      "Ġalichunguza": 9053,
      "ĠsÃŃnÃº": 9054,
      "âĢĻs": 9055,
      "ĠáĪ¥áĪįáĮ£áĬķ": 9056,
      "áĪķáĪį": 9057,
      "áĪ£áĪ¥": 9058,
      "áįİáĪŃ": 9059,
      "ĠonÃŃmá»įÌĢ": 9060,
      "áī¥áĪ¨áī°": 9061,
      "ĠÃģfÃŃrÃŃkÃł": 9062,
      "wikipedia.": 9063,
      "AL": 9064,
      "IN": 9065,
      "ente": 9066,
      "53": 9067,
      "63": 9068,
      "Fil": 9069,
      "mann": 9070,
      "Ġcat": 9071,
      "rick": 9072,
      "ensis": 9073,
      "but": 9074,
      "Ġamb": 9075,
      "istoire": 9076,
      "Ġsite": 9077,
      "Ġwenza": 9078,
      "ĠJiga": 9079,
      "Ġáī£áĪħáĪį": 9080,
      "wamba": 9081,
      "áĪŃáīµáĪ«": 9082,
      "ĠáĪĿáĬŃáĪŃ": 9083,
      "ĠÃīt": 9084,
      "áĪ¨áĮĭáĮĪ": 9085,
      "áĬ¥áĬķáĭ²áĪģáĪĿ": 9086,
      "Ġáī°áĮ«áĭĭ": 9087,
      "beth": 9088,
      "19)": 9089,
      "tes": 9090,
      "elo": 9091,
      "ĠOsu": 9092,
      "deo": 9093,
      "cter": 9094,
      "áī®": 9095,
      "Ġmic": 9096,
      "Ġdasu": 9097,
      "Ġgidi": 9098,
      "áĪĪáĪµ": 9099,
      "áī½áĬ¹": 9100,
      "áī¥áī»": 9101,
      "umin": 9102,
      "áĭ¨áĪµ": 9103,
      "áĭ¨áĬ¢áīµáĭ®áĮµáĭ«": 9104,
      "ĠÆĻasashen": 9105,
      "Ġáĭ¨áī°áĭĪáĪĪ": 9106,
      "weka": 9107,
      "ĠAna": 9108,
      "áĪģáįį": 9109,
      "rÃ©sent": 9110,
      "tions": 9111,
      "»áįī": 9112,
      "ĠAfirka,": 9113,
      "áĭ¥áĬķ": 9114,
      "Ġáī°áĪ«áĪ®áī½": 9115,
      "ĠÃłmÃ¬-áº¹ÌĢyáº¹": 9116,
      "Ġáīłáī³áĪªáĬŃ": 9117,
      "ĠHarsunan": 9118,
      "ĠdiffÃ©r": 9119,
      "Ġnguvu": 9120,
      "Ġcigaba": 9121,
      "ĠáĬłáĪµáįĪáĪĭáĮĬ": 9122,
      "ĠáĭŃáĮĪáĪĺáī³áĪįáį¢": 9123,
      "etu": 9124,
      "Ġatta": 9125,
      "essor": 9126,
      "esearch": 9127,
      "itÃ©s": 9128,
      "rik": 9129,
      "Ġ(wa": 9130,
      "ĠNik": 9131,
      "ce-": 9132,
      "Ġexemp": 9133,
      "ĠFM,": 9134,
      "57": 9135,
      "Ġpass": 9136,
      "atique": 9137,
      "elÃ©": 9138,
      "Ġ\"K": 9139,
      "Ġ1961": 9140,
      "Ġndio": 9141,
      "Ġkulob": 9142,
      "áĬŃáĬĸ": 9143,
      "diyo": 9144,
      "áīĢáĮ½": 9145,
      "áĭĪáĪ¨": 9146,
      "Ġshirika": 9147,
      "ĠáĪ°áĪĽ": 9148,
      "kuma": 9149,
      "ĠáĭµáĬķáĮįáĪį": 9150,
      "ĠáĬķáĮ¥áĪ¨": 9151,
      "Mahaif": 9152,
      "Ġkwana": 9153,
      "ongoza": 9154,
      "ĠJamus": 9155,
      "áĬķáĮīáĪł": 9156,
      "ĠáĭŃáĮĪáĬĽáĪīáį¢": 9157,
      "áĬĺáĭį": 9158,
      "Ġmalama": 9159,
      "kina": 9160,
      "ic,": 9161,
      "Ġvid": 9162,
      "Ġ1963": 9163,
      "ĠWilliams": 9164,
      "Ġmig": 9165,
      "Ġstruct": 9166,
      "ĠVietnam": 9167,
      "Ina": 9168,
      "ques,": 9169,
      "Ġuntil": 9170,
      "odun": 9171,
      "very": 9172,
      "ĠPortug": 9173,
      "gwa": 9174,
      "m,": 9175,
      "wos": 9176,
      "Ġáĭ¨áĭļáĪħ": 9177,
      "Ġáĭ¨áī´": 9178,
      "Ġwaya": 9179,
      "ĠáīłáĮ¥áĬķáī³áĭĬ": 9180,
      "Ġgan": 9181,
      "áĬĲáĪµ": 9182,
      "áī¥áĪĭ": 9183,
      "ĠáĬ¨áĭĺ": 9184,
      "ĠÃ¬dÃł": 9185,
      "Ġáī°áī£áĪĪ": 9186,
      "Ã²gÃ¹n": 9187,
      "Ġáĭ«áĪµáī°": 9188,
      "áī±áĪŃáĬŃ": 9189,
      "Ġáĭ¨áĪļáī£áĪĪáĭį": 9190,
      "Ġáĭ¨áĪļáĬĸáĪŃ": 9191,
      "á»įÌģnÃł": 9192,
      "Ġáĭįáīħáĭ«áĬĸáĪµ": 9193,
      "ĠVI": 9194,
      "pinzani": 9195,
      "áĪłáĪ©": 9196,
      "ĠKula": 9197,
      "Ġmwanzo": 9198,
      "ĠáĪµáĪŃáĭĵáīµ": 9199,
      "ĠGabas": 9200,
      "Ġduniani.": 9201,
      "ĠLibr": 9202,
      "áĪŀáĬŃáĪ«áĪ²": 9203,
      "ĠKor": 9204,
      "ĠD.": 9205,
      "utres": 9206,
      "ance,": 9207,
      "Ġava": 9208,
      "ĠInter": 9209,
      "Ġarea": 9210,
      "Ã´te": 9211,
      "Ġimportant": 9212,
      "ause": 9213,
      "rat": 9214,
      "yle": 9215,
      "Ġ{": 9216,
      "Ġtri": 9217,
      "Ġmor": 9218,
      "ambi": 9219,
      "issa": 9220,
      "ĠCour": 9221,
      "ĠPap": 9222,
      "Ġ...": 9223,
      "ĠBaba": 9224,
      "fÃº": 9225,
      "zungu": 9226,
      "Ġáī«": 9227,
      "Ġáĭ¨Â«": 9228,
      "isation": 9229,
      "Ġ(áĭĺ": 9230,
      "Ġta.": 9231,
      "áĪ«áĪŃ": 9232,
      "ĠOlÃ¹": 9233,
      "Ġá»įká»į": 9234,
      "ĠáīłáĪĪ": 9235,
      "Ġáĭ¨áĪ©": 9236,
      "ĠFl": 9237,
      "arekani": 9238,
      "áĭ²áīµ": 9239,
      "Ġá¹£áº¹ÌĢ": 9240,
      "ĠáĪ°áįĬ": 9241,
      "ĠÃĮjá»įba": 9242,
      "obe": 9243,
      "Ġkeje": 9244,
      "áĪ»áĪ»": 9245,
      "ĠáĭĭáĬķáĮ«": 9246,
      "ĠáĪļáĪµáīµ": 9247,
      "ĠáĭµáĪ¨áĪµáį£": 9248,
      "áįīáį¢": 9249,
      "ĠáīłáĬ¥áĪµ": 9250,
      "Ġnomba": 9251,
      "Ġjiragen": 9252,
      "áĬħáĪ£áĪ¥": 9253,
      "Ġkaláº¹ÌĢ": 9254,
      "Ġwenyeji": 9255,
      "ĠáĪĺáĪ°áĪ¨": 9256,
      "áĪĺáĪ°áĪ¨": 9257,
      "ĠdÃłgbÃł": 9258,
      "ĠÉĵang": 9259,
      "ĠHaus": 9260,
      "000.": 9261,
      "Ġpost": 9262,
      "ĠShir": 9263,
      "Ġvis": 9264,
      "viron": 9265,
      "5-": 9266,
      "pya": 9267,
      "pond": 9268,
      "inguis": 9269,
      "Ġáĭī": 9270,
      "Ġmrefu": 9271,
      "Ġredi": 9272,
      "ĠáĪĺáĪĨáĬķ": 9273,
      "ĠáĭŃáĬĸ": 9274,
      "ĠFulani": 9275,
      "ĠHel": 9276,
      "ĠHouse": 9277,
      "ĠáĭĪáĮĪ": 9278,
      "ĠáĬĲáĭįáį£": 9279,
      "ungwa": 9280,
      "áįĭáĬķ": 9281,
      "áĪģáĪĪáīµ": 9282,
      "ĠáĬ¥áĪµáĭ«": 9283,
      "rican": 9284,
      "Ġyanayo": 9285,
      "ĠMatan": 9286,
      "Ġkáº¹tÃł": 9287,
      "Ġkáº¹fÃł": 9288,
      "Ġyarda": 9289,
      "Ġ(mshindi": 9290,
      "ĠUingereza.": 9291,
      "ĠAhmadu": 9292,
      "asanjo": 9293,
      "Ġkijeshi": 9294,
      "Ġmasana'antar": 9295,
      "ĠâĢ¹âĢ¹": 9296,
      "-W": 9297,
      "Ġ(14": 9298,
      "ils": 9299,
      "are,": 9300,
      "ĠFred": 9301,
      "Ġpersonn": 9302,
      "ĠPakistan": 9303,
      "ĠSm": 9304,
      "Ġima": 9305,
      "ĠPra": 9306,
      "ĠAlbert": 9307,
      "F)": 9308,
      "Ġfas": 9309,
      "ĠWad": 9310,
      "Ġ2002,": 9311,
      "ĠLeague": 9312,
      "ck,": 9313,
      "ĠrÃ©f": 9314,
      "bÃ¹": 9315,
      "áĬķáī°": 9316,
      "Ġawo": 9317,
      "Ġáĭ¨áī»áĭŃáĬĵ": 9318,
      "áĭįáĪ®": 9319,
      "Ãłwá»įn": 9320,
      "Ġojoibi": 9321,
      "áĬĵáį£": 9322,
      "áĪĪáĭµ": 9323,
      "áĭµáĪį": 9324,
      "áĬĽáĭįáĬķ": 9325,
      "Ġáī°áĭĽ": 9326,
      "ĠáĪĿáĮįáī¥": 9327,
      "áįįáĪ¬": 9328,
      "áīħáĭ±áĪµ": 9329,
      "os,": 9330,
      "Ġeko": 9331,
      "ĠáĪ°áĭĵáīµ": 9332,
      "ĠáĪįáĬŃ": 9333,
      "ĠáĪĨáĭŃ": 9334,
      "Ġáĭ¨áĬłáĬķáĭµ": 9335,
      "Ġyake,": 9336,
      "endant": 9337,
      "Ġshawarar": 9338,
      "Ġhewa": 9339,
      "ĠÆĬ": 9340,
      "ĠJohnson": 9341,
      "áĮĪáĬĻáīµ": 9342,
      "áīłáī°áĮ¨áĪĽáĪª": 9343,
      "ĠáĭįáĮ¤áīµ": 9344,
      "áº¹gáº¹": 9345,
      "cus": 9346,
      "fik": 9347,
      "Ġcho": 9348,
      "agun": 9349,
      "Ġ1959": 9350,
      "ived": 9351,
      "Ġ2020.": 9352,
      "ĠCOVID-19": 9353,
      "ĠArgentina": 9354,
      "mÃ¡": 9355,
      "ĠMun": 9356,
      "um)": 9357,
      "ĠRos": 9358,
      "idar": 9359,
      "Maj": 9360,
      "Ġ500": 9361,
      "halifa": 9362,
      "Ġ(6": 9363,
      "Ġgre": 9364,
      "ĠTor": 9365,
      "ĠAgusta": 9366,
      "Ġestab": 9367,
      "ĠFestival": 9368,
      "cle": 9369,
      "dÃ¹n": 9370,
      "yÃ¬": 9371,
      "yáº¹Ìģ": 9372,
      "Ġtal": 9373,
      "Ġáī¬": 9374,
      "ĠAso": 9375,
      "áĪµáĮ¡": 9376,
      "Ġcham": 9377,
      "Ġfulani": 9378,
      "Ġáīł17": 9379,
      "ĠÃłsÃ¬kÃ²": 9380,
      "áīłáīł": 9381,
      "ĠÃ¬yÃłwÃ³": 9382,
      "ĠÃ¬tÃłgÃ©": 9383,
      "ĠáĭŃáĪĪ": 9384,
      "á¹£ep": 9385,
      "ĠáĭĪáĪ°": 9386,
      "bogbo": 9387,
      "Ġáĭ¨áī°áĮĪáĬĺ": 9388,
      "ĠáĬ¥áĬĵáīµ": 9389,
      "Ġáī¥áĪĭ": 9390,
      "áĬķáĮįáĭµ": 9391,
      "Ġarzikin": 9392,
      "áĭ©áĬĵáĭŃáīµáĭµ": 9393,
      "Ġ978": 9394,
      "usiano": 9395,
      "ĠII,": 9396,
      "Ġaá¹£ojÃº": 9397,
      "ĠÃłkÃ³kÃ²": 9398,
      "ĠRayuwar": 9399,
      "ĠáĭįáĭµáĭµáĪŃ": 9400,
[...]
