{
  "version": "1.0",
  "truncation": null,
  "padding": null,
  "added_tokens": [],
  "normalizer": null,
  "pre_tokenizer": {
    "type": "ByteLevel",
    "add_prefix_space": false,
    "trim_offsets": true,
    "use_regex": false
  },
  "post_processor": null,
  "decoder": {
    "type": "ByteLevel",
    "add_prefix_space": true,
    "trim_offsets": true,
    "use_regex": true
  },
  "model": {
    "type": "BPE",
    "dropout": null,
    "unk_token": null,
    "continuing_subword_prefix": null,
    "end_of_word_suffix": null,
    "fuse_unk": false,
    "byte_fallback": false,
    "ignore_merges": false,
    "vocab": {
      "!": 0,
      "\"": 1,
      "#": 2,
      "$": 3,
      "%": 4,
      "&": 5,
      "'": 6,
      "(": 7,
      ")": 8,
      "*": 9,
      "+": 10,
      ",": 11,
      "-": 12,
      ".": 13,
      "/": 14,
      "0": 15,
      "1": 16,
      "2": 17,
      "3": 18,
      "4": 19,
      "5": 20,
      "6": 21,
      "7": 22,
      "8": 23,
      "9": 24,
      ":": 25,
      ";": 26,
      "<": 27,
      "=": 28,
      ">": 29,
      "?": 30,
      "@": 31,
      "A": 32,
      "B": 33,
      "C": 34,
      "D": 35,
      "E": 36,
      "F": 37,
      "G": 38,
      "H": 39,
      "I": 40,
      "J": 41,
      "K": 42,
      "L": 43,
      "M": 44,
      "N": 45,
      "O": 46,
      "P": 47,
      "Q": 48,
      "R": 49,
      "S": 50,
      "T": 51,
      "U": 52,
      "V": 53,
      "W": 54,
      "X": 55,
      "Y": 56,
      "Z": 57,
      "[": 58,
      "\\": 59,
      "]": 60,
      "^": 61,
      "_": 62,
      "`": 63,
      "a": 64,
      "b": 65,
      "c": 66,
      "d": 67,
      "e": 68,
      "f": 69,
      "g": 70,
      "h": 71,
      "i": 72,
      "j": 73,
      "k": 74,
      "l": 75,
      "m": 76,
      "n": 77,
      "o": 78,
      "p": 79,
      "q": 80,
      "r": 81,
      "s": 82,
      "t": 83,
      "u": 84,
      "v": 85,
      "w": 86,
      "x": 87,
      "y": 88,
      "z": 89,
      "{": 90,
      "|": 91,
      "}": 92,
      "~": 93,
      "¡": 94,
      "¢": 95,
      "£": 96,
      "¤": 97,
      "¥": 98,
      "¦": 99,
      "§": 100,
      "¨": 101,
      "©": 102,
      "ª": 103,
      "«": 104,
      "¬": 105,
      "®": 106,
      "¯": 107,
      "°": 108,
      "±": 109,
      "²": 110,
      "³": 111,
      "´": 112,
      "µ": 113,
      "¶": 114,
      "·": 115,
      "¸": 116,
      "¹": 117,
      "º": 118,
      "»": 119,
      "¼": 120,
      "½": 121,
      "¾": 122,
      "¿": 123,
      "À": 124,
      "Á": 125,
      "Â": 126,
      "Ã": 127,
      "Ä": 128,
      "Å": 129,
      "Æ": 130,
      "Ç": 131,
      "È": 132,
      "É": 133,
      "Ê": 134,
      "Ë": 135,
      "Ì": 136,
      "Í": 137,
      "Î": 138,
      "Ï": 139,
      "Ð": 140,
      "Ñ": 141,
      "Ò": 142,
      "Ó": 143,
      "Ô": 144,
      "Õ": 145,
      "Ö": 146,
      "×": 147,
      "Ø": 148,
      "Ù": 149,
      "Ú": 150,
      "Û": 151,
      "Ü": 152,
      "Ý": 153,
      "Þ": 154,
      "ß": 155,
      "à": 156,
      "á": 157,
      "â": 158,
      "ã": 159,
      "ä": 160,
      "å": 161,
      "æ": 162,
      "ç": 163,
      "è": 164,
      "é": 165,
      "ê": 166,
      "ë": 167,
      "ì": 168,
      "í": 169,
      "î": 170,
      "ï": 171,
      "ð": 172,
      "ñ": 173,
      "ò": 174,
      "ó": 175,
      "ô": 176,
      "õ": 177,
      "ö": 178,
      "÷": 179,
      "ø": 180,
      "ù": 181,
      "ú": 182,
      "û": 183,
      "ü": 184,
      "ý": 185,
      "þ": 186,
      "ÿ": 187,
      "Ā": 188,
      "ā": 189,
      "Ă": 190,
      "ă": 191,
      "Ą": 192,
      "ą": 193,
      "Ć": 194,
      "ć": 195,
      "Ĉ": 196,
      "ĉ": 197,
      "Ċ": 198,
      "ċ": 199,
      "Č": 200,
      "č": 201,
      "Ď": 202,
      "ď": 203,
      "Đ": 204,
      "đ": 205,
      "Ē": 206,
      "ē": 207,
      "Ĕ": 208,
      "ĕ": 209,
      "Ė": 210,
      "ė": 211,
      "Ę": 212,
      "ę": 213,
      "Ě": 214,
      "ě": 215,
      "Ĝ": 216,
      "ĝ": 217,
      "Ğ": 218,
      "ğ": 219,
      "Ġ": 220,
      "ġ": 221,
      "Ģ": 222,
      "ģ": 223,
      "Ĥ": 224,
      "ĥ": 225,
      "Ħ": 226,
      "ħ": 227,
      "Ĩ": 228,
      "ĩ": 229,
      "Ī": 230,
      "ī": 231,
      "Ĭ": 232,
      "ĭ": 233,
      "Į": 234,
      "į": 235,
      "İ": 236,
      "ı": 237,
      "Ĳ": 238,
      "ĳ": 239,
      "Ĵ": 240,
      "ĵ": 241,
      "Ķ": 242,
      "ķ": 243,
      "ĸ": 244,
      "Ĺ": 245,
      "ĺ": 246,
      "Ļ": 247,
      "ļ": 248,
      "Ľ": 249,
      "ľ": 250,
      "Ŀ": 251,
      "ŀ": 252,
      "Ł": 253,
      "ł": 254,
      "Ń": 255,
      "áĪ": 256,
      "aĠ": 257,
      "Ġá": 258,
      "áī": 259,
      "áĬ": 260,
      "áĭ": 261,
      "iĠ": 262,
      "nĠ": 263,
      "eĠ": 264,
      "an": 265,
      "ar": 266,
      "áĮ": 267,
      "Ġáĭ": 268,
      "ĠáĬ": 269,
      "ĠáĪ": 270,
      "áį": 271,
      "áĬķ": 272,
      ",Ġ": 273,
      "Ġáī": 274,
      "oĠ": 275,
      "in": 276,
      "»į": 277,
      "ÃŃ": 278,
      "al": 279,
      "at": 280,
      "waĠ": 281,
      "áīµ": 282,
      "á»į": 283,
      "yaĠ": 284,
      "áĪŃ": 285,
      "sĠ": 286,
      "Ãł": 287,
      "er": 288,
      "º¹": 289,
      "uĠ": 290,
      "am": 291,
      "ak": 292,
      "áº¹": 293,
      "Ġáĭ¨": 294,
      "áĭį": 295,
      "as": 296,
      "ik": 297,
      "en": 298,
      "inĠ": 299,
      "il": 300,
      "łáĪ": 301,
      "áĪĿ": 302,
      "daĠ": 303,
      "ku": 304,
      "anĠ": 305,
      "áĪį": 306,
      "is": 307,
      "áĪµ": 308,
      "Ã©": 309,
      "áº¹Ì": 310,
      "Ã¬": 311,
      "naĠ": 312,
      "or": 313,
      "ÃŃĠ": 314,
      "on": 315,
      "Ã¡": 316,
      "it": 317,
      "arĠ": 318,
      "áį¢": 319,
      "á»įÌ": 320,
      "áĬĵ": 321,
      "Ġáīł": 322,
      "ab": 323,
      "un": 324,
      "áī°": 325,
      "ch": 326,
      "tĠ": 327,
      "áĪĪ": 328,
      "áĭ«": 329,
      "Ãº": 330,
      "ĠáĮ": 331,
      "19": 332,
      "ir": 333,
      "Ġt": 334,
      "áĭŃ": 335,
      "áĪĺ": 336,
      "ĠáĬ¥": 337,
      "Ã³": 338,
      "áī½": 339,
      "ur": 340,
      ".Ġ": 341,
      "gb": 342,
      "el": 343,
      "sh": 344,
      "ad": 345,
      "ay": 346,
      "ĠáĬł": 347,
      "Ã¨": 348,
      "im": 349,
      "onĠ": 350,
      "ol": 351,
      "áĭ°": 352,
      "áĬĲ": 353,
      "taĠ": 354,
      "om": 355,
      "niĠ": 356,
      "es": 357,
      "áī¥": 358,
      "áĪ¨": 359,
      "áĮĪ": 360,
      "dĠ": 361,
      "áº¹ÌĢ": 362,
      "áĭµ": 363,
      "iaĠ": 364,
      "áº¹Ìģ": 365,
      "á»įÌģ": 366,
      "áĪĭ": 367,
      "áĮį": 368,
      "ĠáĬĲ": 369,
      "esĠ": 370,
      "ĠáĪĺ": 371,
      "ali": 372,
      "20": 373,
      "em": 374,
      "Ġ(": 375,
      "áīł": 376,
      "ok": 377,
      "heĠ": 378,
      "¹£": 379,
      "áĪ«": 380,
      "áī³": 381,
      "of": 382,
      "ĠáĬ¨": 383,
      "us": 384,
      "Ã²": 385,
      "aĠm": 386,
      "ag": 387,
      "ul": 388,
      ")Ġ": 389,
      "wá»į": 390,
      "áĬŃ": 391,
      "a,Ġ": 392,
      "um": 393,
      "unĠ": 394,
      "deĠ": 395,
      "iy": 396,
      "áĪĽ": 397,
      "áĪ³": 398,
      "aĠk": 399,
      "ic": 400,
      "tiĠ": 401,
      "áī£": 402,
      "aj": 403,
      "Ġáį": 404,
      "yĠ": 405,
      "wan": 406,
      "af": 407,
      "ing": 408,
      "Ã©Ġ": 409,
      "ek": 410,
      "Ã¹": 411,
      "ÃłĠ": 412,
      "áĬĽ": 413,
      "Ġáī°": 414,
      "ut": 415,
      "ap": 416,
      "áĪª": 417,
      "ĠáĭŃ": 418,
      "á¹£": 419,
      "ĠáīłáĪ": 420,
      "a.": 421,
      "iĠyaĠ": 422,
      "Ġáĭ¨áĪ": 423,
      "wak": 424,
      "Ġá»į": 425,
      "ĠáĬłáĪ": 426,
      "ah": 427,
      "ib": 428,
      "âĢ": 429,
      "uk": 430,
      "id": 431,
      "if": 432,
      "wá»įnĠ": 433,
      "áĪħ": 434,
      "áĮ¥": 435,
      "áĬ¨": 436,
      "áį£": 437,
      "aw": 438,
      "ĠáĪĿ": 439,
      "az": 440,
      "laĠ": 441,
      "Ġáĭ¨áĬ": 442,
      "Ã³Ġ": 443,
      "enĠ": 444,
      "áį¡": 445,
      "ĠáĭĪ": 446,
      "á»įÌĢ": 447,
      "áįį": 448,
      "ig": 449,
      "ac": 450,
      "áĭ³": 451,
      "ĠáĬĲáĭį": 452,
      "ot": 453,
      "áīĢ": 454,
      "-Ġ": 455,
      "ish": 456,
      "áĭ¨": 457,
      "iĠwaĠ": 458,
      "ĠáĬ¥áĬķ": 459,
      "áº¹ÌĢĠ": 460,
      "áĭĪ": 461,
      "os": 462,
      "baĠ": 463,
      "e,Ġ": 464,
      "zaĠ": 465,
      "erĠ": 466,
      "áĪ°": 467,
      "áīħ": 468,
      "áĪĮ": 469,
      "áĬ«": 470,
      "ikaĠ": 471,
      "ĠáĪĪ": 472,
      "et": 473,
      "nÃŃĠ": 474,
      "i,Ġ": 475,
      "araĠ": 476,
      "kum": 477,
      "ÃºnĠ": 478,
      "Ã¡Ġ": 479,
      "ÃĢ": 480,
      ":Ġ": 481,
      "áº¹ÌģĠ": 482,
      "áĬł": 483,
      "ÃºĠ": 484,
      "anaĠ": 485,
      "iĠk": 486,
      "leĠ": 487,
      "ist": 488,
      "re": 489,
      "ĠáĬĲáĭįáį¢": 490,
      "ang": 491,
      "op": 492,
      "ĠáĪµ": 493,
      "áī¸": 494,
      "nÃŃ": 495,
      "Ġáĭ«": 496,
      "ati": 497,
      "tok": 498,
      "aiĠ": 499,
      "ug": 500,
      "ip": 501,
      "áĪī": 502,
      "ofĠ": 503,
      "Ġáĭĵ": 504,
      "á»įĠ": 505,
      "qu": 506,
      "hi": 507,
      "18": 508,
      "áīłáĪ": 509,
      "áĭĬ": 510,
      "neĠ": 511,
      "áĭĭ": 512,
      "áĪ®": 513,
      "uwaĠ": 514,
      "áī±": 515,
      "İáī½": 516,
      "tr": 517,
      "ob": 518,
      "i.": 519,
      "áī¸áĭį": 520,
      "iĠm": 521,
      "ij": 522,
      "áįĪ": 523,
      "og": 524,
      "Ġk": 525,
      "ÆĻ": 526,
      "Ġáĭ¨áĪļ": 527,
      "oj": 528,
      "áĭĿ": 529,
      "200": 530,
      "áĮ£": 531,
      "and": 532,
      "Ã¨Ġ": 533,
      "áĪįáį¢": 534,
      "Al": 535,
      "áĪĨ": 536,
      "ĠáĪĽ": 537,
      "edĠ": 538,
      "alĠ": 539,
      "wakaĠ": 540,
      "áĭļ": 541,
      "pr": 542,
      "áī¶": 543,
      "andĠ": 544,
      "áĪ³áĪĮ": 545,
      "ceĠ": 546,
      "áĮł": 547,
      "aniĠ": 548,
      "áĮī": 549,
      "amb": 550,
      "ed": 551,
      "od": 552,
      "ĠtheĠ": 553,
      "isĠ": 554,
      "áĮĭ": 555,
      "amaĠ": 556,
      "iv": 557,
      "201": 558,
      "ung": 559,
      "áĭ®": 560,
      "ĠáīłáĬ": 561,
      "ÌĢ": 562,
      "ent": 563,
      "aĠyaĠ": 564,
      "ĠáĪĿáĪ³áĪĮ": 565,
      "tÃŃĠ": 566,
      "ec": 567,
      "fr": 568,
      "ha": 569,
      "e.": 570,
      "ub": 571,
      "ÃĮ": 572,
      "ĠáĪ²": 573,
      "lÃ¡": 574,
      "shek": 575,
      "ud": 576,
      "ash": 577,
      "áĭ²": 578,
      "oĠyaĠ": 579,
      "atiĠ": 580,
      "entĠ": 581,
      "áĬķáĭµ": 582,
      "ow": 583,
      "ĠáĮį": 584,
      "th": 585,
      "Ġáīµ": 586,
      "00": 587,
      "iyaĠ": 588,
      "wat": 589,
      "ih": 590,
      "Mar": 591,
      "áĭİáī½": 592,
      "toĠ": 593,
      "all": 594,
      "Ġáĭĺ": 595,
      "akeĠ": 596,
      "Ã²Ġ": 597,
      "wa": 598,
      "iniĠ": 599,
      "áĪ¥": 600,
      "Ġáº¹": 601,
      "ikiĠ": 602,
      "áīĥ": 603,
      "jeĠ": 604,
      "ind": 605,
      "iz": 606,
      "áĬĸ": 607,
      "etĠ": 608,
      "áĪŀ": 609,
      "áĭĺ": 610,
      "rÃŃ": 611,
      "waĠm": 612,
      "kumaĠ": 613,
      "Ġáĭ¨áī°": 614,
      "waĠk": 615,
      "ĠA": 616,
      "wen": 617,
      "ĠáĬ¥áĬĵ": 618,
      "nd": 619,
      "ikinĠ": 620,
      "áĬĲáīµ": 621,
      "theĠ": 622,
      "ĠáĪ°": 623,
      "ov": 624,
      "uz": 625,
      "áĬ¥": 626,
      "Ġáī¥": 627,
      "Ã¬Ġ": 628,
      "le": 629,
      "anz": 630,
      "st": 631,
      "áĪĬ": 632,
      "áĪ©": 633,
      "Ãłwá»įnĠ": 634,
      "Ġá¹£": 635,
      "Ġáĭį": 636,
      "Wali": 637,
      "áĪĻ": 638,
      "atikaĠ": 639,
      "ti": 640,
      "áĬķáĮį": 641,
      "Ġ-Ġ": 642,
      "naĠm": 643,
      "o,Ġ": 644,
      "ĠtÃŃĠ": 645,
      "Ch": 646,
      "kutok": 647,
      "elĠ": 648,
      "ĠáīĢ": 649,
      "up": 650,
      "á»įÌĢĠ": 651,
      "akaĠ": 652,
      "usĠ": 653,
      "áīłáĪŃ": 654,
      "ĭáĭŃ": 655,
      "ew": 656,
      "ep": 657,
      "ant": 658,
      "Ġáĭ°": 659,
      "kas": 660,
      "Am": 661,
      "uĠm": 662,
      "á»įÌģĠ": 663,
      "ĠáĬ¥áĬķáĭ°": 664,
      "ans": 665,
      "áĭĽ": 666,
      "áº¹Ġ": 667,
      "av": 668,
      "Ġáĭ¨áĬłáĪ": 669,
      "199": 670,
      "yeĠ": 671,
      "inaĠ": 672,
      "adaĠ": 673,
      "ÃĢwá»įnĠ": 674,
      "áĪļ": 675,
      "ong": 676,
      "ĠáĬŃ": 677,
      "ÅĦ": 678,
      "ÃłtiĠ": 679,
      "áĪİ": 680,
      "ariĠ": 681,
      "á»įÌģnĠ": 682,
      "),Ġ": 683,
      "Ġá»įd": 684,
      "bÃŃĠ": 685,
      "áĮħ": 686,
      "áī²": 687,
      "AĠ": 688,
      "áī¢": 689,
      "agaĠ": 690,
      "áĬĳ": 691,
      "oh": 692,
      "oc": 693,
      "ez": 694,
      "cikinĠ": 695,
      ",Ġm": 696,
      "iwaĠ": 697,
      "for": 698,
      "jáº¹ÌģĠ": 699,
      "ĠáĪį": 700,
      "áįĭ": 701,
      "ÃłnĠ": 702,
      "ĠM": 703,
      "ng": 704,
      "ikuwaĠ": 705,
      "nch": 706,
      "eĠd": 707,
      "ej": 708,
      ".ĠM": 709,
      "au": 710,
      "aĠnaĠ": 711,
      "oz": 712,
      "áĬĿ": 713,
      "áĪ±": 714,
      "áį¤": 715,
      "ÃŃl": 716,
      "hu": 717,
      "0Ġ": 718,
      "áĪĨáĬķ": 719,
      "kutokaĠ": 720,
      "auĠ": 721,
      "áĪ½": 722,
      "areĠ": 723,
      "ataĠ": 724,
      "our": 725,
      "ingĠ": 726,
      "áĮİ": 727,
      "ann": 728,
      "anc": 729,
      "ĠáĪĭáĭŃ": 730,
      "áĭ«áĬķ": 731,
      "lesĠ": 732,
      "asĠ": 733,
      "áĪĪáĭį": 734,
      "was": 735,
      "Ġáī³": 736,
      "ĵĠ": 737,
      "ark": 738,
      "ter": 739,
      "Ġáĭµ": 740,
      "Â«": 741,
      "oĠk": 742,
      "oy": 743,
      "iĠnaĠ": 744,
      "ts": 745,
      "áĪŃáĬĽ": 746,
      "TheĠ": 747,
      "áĭ±": 748,
      "eg": 749,
      "e-": 750,
      "sÃŃĠ": 751,
      "Ġáī£": 752,
      "ia": 753,
      "áĪģ": 754,
      "198": 755,
      "eb": 756,
      "ayaĠ": 757,
      "ĠS": 758,
      ".ĠI": 759,
      "áĭļáĪħ": 760,
      "alaĠ": 761,
      "¢áīµ": 762,
      "asiĠ": 763,
      "Ġd": 764,
      "yaĠK": 765,
      "ĽáĪŃáĬĽ": 766,
      "¢áīµáĭ®": 767,
      "ineĠ": 768,
      "áĮµ": 769,
      "áĬĴ": 770,
      ").": 771,
      "áĭķ": 772,
      "shekar": 773,
      "siĠ": 774,
      "oĠm": 775,
      "asaĠ": 776,
      "end": 777,
      "ation": 778,
      "Afr": 779,
      "áīĨ": 780,
      "ÉĹ": 781,
      "Ġá»įdÃºnĠ": 782,
      "Â»": 783,
      "áĮĢ": 784,
      "gaĠ": 785,
      "ĠáīłáĪĺ": 786,
      "wá»įn": 787,
      "¢áīµáĭ®áĮµ": 788,
      "ta": 789,
      "197": 790,
      "áĪĪáīµ": 791,
      "ráº¹ÌĢĠ": 792,
      "Ã¨d": 793,
      "áĮ½": 794,
      "áĪ¬": 795,
      "196": 796,
      "dagaĠ": 797,
      "áĮĪáĪŃ": 798,
      "Ã¬j": 799,
      "con": 800,
      "kanĠ": 801,
      "ĠB": 802,
      "uĠyaĠ": 803,
      "Ġ1": 804,
      "amm": 805,
      "shiĠ": 806,
      "áī¡": 807,
      "áĪµáĮ¥": 808,
      "ÃŃn": 809,
      "Sh": 810,
      "Ġáĭ¨áĬłáĪĽáĪŃáĬĽ": 811,
      "¢áīµáĭ®áĮµáĭ«": 812,
      "ach": 813,
      "âĢĻ": 814,
      "iyarĠ": 815,
      "uw": 816,
      "ileĠ": 817,
      "áĪ¨áīµ": 818,
      "ion": 819,
      "estĠ": 820,
      "se": 821,
      "ĠáĪĿáĪ³áĪĮĠáĬĲáĭįáį¢": 822,
      "lÃºĠ": 823,
      ";Ġ": 824,
      "áīłáīµ": 825,
      "ugh": 826,
      "Ġáĭ¨áĬłáĪĽáĪŃáĬĽĠáĪĿáĪ³áĪĮĠáĬĲáĭįáį¢": 827,
      "ĠáĬĲáīłáĪŃ": 828,
      "áĭľ": 829,
      "o.": 830,
      "com": 831,
      "uh": 832,
      "ĠáĮ¥": 833,
      "áĪĺáĬķ": 834,
      "rist": 835,
      "ĠâĢ": 836,
      "ny": 837,
      "wá»įÌģnĠ": 838,
      "ioĠ": 839,
      "pl": 840,
      "ers": 841,
      "atik": 842,
      "áĪ»": 843,
      "l'": 844,
      "ev": 845,
      "ĠáĭĪáĭ°": 846,
      "ou": 847,
      "daĠk": 848,
      "ĠáĪĨ": 849,
      "und": 850,
      "ĠáĮĪ": 851,
      "awaĠ": 852,
      "áĪµáīµ": 853,
      "ĠáĬ¨áī°": 854,
      "ationĠ": 855,
      "ill": 856,
      "»Į": 857,
      "áī»": 858,
      "reĠ": 859,
      "ĠáĬķ": 860,
      "a'": 861,
      "ri": 862,
      "chaĠ": 863,
      "1Ġ": 864,
      "ank": 865,
      "aadaĠ": 866,
      "any": 867,
      "áĭ©": 868,
      "gbaĠ": 869,
      "Nob": 870,
      "Ã¨dÃ¨Ġ": 871,
      "ex": 872,
      "yÃ¬": 873,
      "lÃ³": 874,
      "nÃ¡": 875,
      "ats": 876,
      "aliwaĠ": 877,
      "Ab": 878,
      "áĭĵ": 879,
      "ani": 880,
      "su": 881,
      "áįĬ": 882,
      "ef": 883,
      "Ã¹Ġ": 884,
      "2Ġ": 885,
      "aliĠ": 886,
      "áī¶áī½": 887,
      "áĭįáĬķ": 888,
      "NobelĠ": 889,
      "itaĠ": 890,
      "17": 891,
      "ajer": 892,
      "nÃŃn": 893,
      "ĠáĬ¥áĪµ": 894,
      "5Ġ": 895,
      "ĠáĭįáĪµáĮ¥": 896,
      "Ã¹nĠ": 897,
      "ĠáĬłáĭŃ": 898,
      "eoĠ": 899,
      "iliĠ": 900,
      "áĪŃáĮī": 901,
      "Ar": 902,
      "meĠ": 903,
      "sam": 904,
      "rÃ©": 905,
      "imb": 906,
      "Ĭáĭľ": 907,
      "áĮłáĪ": 908,
      "ionĠ": 909,
      "áĪªáĭ«": 910,
      "tokasiĠ": 911,
      "ain": 912,
      "arĠdaĠ": 913,
      "áĬĶ": 914,
      "ÅĦĠ": 915,
      "16": 916,
      "uĠk": 917,
      "Mak": 918,
      "ĠtiĠ": 919,
      "áīĭ": 920,
      "ĠáĪģ": 921,
      "art": 922,
      "áĭ¶": 923,
      "emb": 924,
      "Pr": 925,
      "kuwaĠ": 926,
      "iá¹£": 927,
      "wakaĠwaĠ": 928,
      "apaĠ": 929,
      "Najer": 930,
      "áĪ²": 931,
      "áĬĽáĭį": 932,
      "shekaraĠ": 933,
      "eng": 934,
      "uf": 935,
      "had": 936,
      "áĬłáĪ": 937,
      "Walioz": 938,
      "áī¦": 939,
      "eaĠ": 940,
      "láº¹ÌĢĠ": 941,
      "195": 942,
      "áĭŃáĪĿ": 943,
      "u,Ġ": 944,
      "tar": 945,
      "oĠwaĠ": 946,
      "Ġáº¹ÌĢ": 947,
      "ofĠtheĠ": 948,
      "biĠ": 949,
      "asarĠ": 950,
      "ya": 951,
      "Kar": 952,
      "áĪŃáĪµ": 953,
      "uĠwaĠ": 954,
      "shekararĠ": 955,
      "áĬ¤": 956,
      "iw": 957,
      "yiĠ": 958,
      "fÃºnĠ": 959,
      "4Ġ": 960,
      "áĪľ": 961,
      "air": 962,
      "gbÃł": 963,
      "Ad": 964,
      "Ġáīłáī°": 965,
      "rinĠ": 966,
      "wali": 967,
      "áĪĲ": 968,
      "ofar": 969,
      "St": 970,
      "áĬ®": 971,
      "áĭĻ": 972,
      "wam": 973,
      "raĠ": 974,
      "3Ġ": 975,
      "uc": 976,
      "Waliofar": 977,
      "Ġáīħ": 978,
      "uzoĠyaĠ": 979,
      "har": 980,
      "áī¤": 981,
      "s,Ġ": 982,
      "ĠáĬłáĪµ": 983,
      "ni": 984,
      "agb": 985,
      "ĠáĪ¥": 986,
      "Ġáī¤": 987,
      "TuzoĠyaĠ": 988,
      "ĠáĬ«": 989,
      "Ġá¹£eĠ": 990,
      "Ġáĭ¨áĪĺ": 991,
      "ayinĠ": 992,
      "An": 993,
      "ĠáīµáĪŃáĮī": 994,
      "hĠ": 995,
      "ÃŃrÃŃ": 996,
      "áĬ©": 997,
      "Ġá»įm": 998,
      "ell": 999,
      "áĪªáĬŃ": 1000,
      "ĠáĮįáĬķ": 1001,
      "Marek": 1002,
      "ass": 1003,
      "ĠáĬ¥áĬķáĭ²": 1004,
      "u.": 1005,
      "ĠÂ«": 1006,
      "15": 1007,
      "queĠ": 1008,
      "In": 1009,
      "\"Ġ": 1010,
      "ĠáĮĭ": 1011,
      "wenyeĠ": 1012,
      "est": 1013,
      "Ġáĭ¨áĬł": 1014,
      "ran": 1015,
      "áĮ¨": 1016,
      "áīģ": 1017,
      "icĠ": 1018,
      "ro": 1019,
      "vyaĠ": 1020,
      "ukaĠ": 1021,
      "shind": 1022,
      "wandaĠ": 1023,
      "Ġá»įÌĢ": 1024,
      "abaĠ": 1025,
      "áī¹": 1026,
      "Jam": 1027,
      "áīłáĪ¨": 1028,
      "Ãłk": 1029,
      "Un": 1030,
      "áį¡áį¡": 1031,
      "ĠáĪ²áĪĨáĬķ": 1032,
      "ereĠ": 1033,
      "tak": 1034,
      "lÃ©": 1035,
      "ĭáĪĭ": 1036,
      "Ġá»Į": 1037,
      "áĮĥ": 1038,
      "áĪĥ": 1039,
      "alikuwaĠ": 1040,
      "áĬŃáĪį": 1041,
      "TuzoĠyaĠNobelĠ": 1042,
      "itĠ": 1043,
      "»áį": 1044,
      "ond": 1045,
      "ĠáīµáĪŃáĮīáĪĻ": 1046,
      "NÃł": 1047,
      "ĠáĬĲáīłáĪŃáį¢": 1048,
      "6Ġ": 1049,
      "awonĠ": 1050,
      "abb": 1051,
      "saĠ": 1052,
      "194": 1053,
      "ĠáĬłáĬķ": 1054,
      "ĠáīłáĬł": 1055,
      "arinĠ": 1056,
      "ĠtoĠ": 1057,
      "áĪ´": 1058,
      ".áĪĿ": 1059,
      "Ġá»įj": 1060,
      "nÃŃnÃºĠ": 1061,
      "a.Ġ": 1062,
      "NÃłÃ¬j": 1063,
      "Ã¬n": 1064,
      "daĠs": 1065,
      "ishaĠ": 1066,
      "anceĠ": 1067,
      "ich": 1068,
      "bay": 1069,
      "ĠáĪ³": 1070,
      "aĠcikinĠ": 1071,
      "ard": 1072,
      "Ġ-": 1073,
      "²áį": 1074,
      "áī´": 1075,
      "iharĠ": 1076,
      "iaĠm": 1077,
      "shindiĠwaĠ": 1078,
      "WaliozaliwaĠ": 1079,
      "NÃłÃ¬jÃŃrÃŃ": 1080,
      "II": 1081,
      "hiiĠ": 1082,
      "shekaraĠtaĠ": 1083,
      "uneĠ": 1084,
      "yakeĠ": 1085,
      "neĠyaĠ": 1086,
      "áĮŃ": 1087,
      "7Ġ": 1088,
      "rÃŃĠ": 1089,
      "atĠ": 1090,
      "ĠáĪĺáĬķáĮį": 1091,
      "Ã¬y": 1092,
      "Ġáĭ¨áĬłáĪĽáĪŃáĬĽĠáĪĿáĪ³áĪĮĠáĬĲáĭįáį¢ĠáīµáĪŃáĮīáĪĻ": 1093,
      "kub": 1094,
      "Ãłn": 1095,
      "ĠáĮĬáĭľ": 1096,
      "oĠniĠ": 1097,
      "orÃŃl": 1098,
      "he": 1099,
      "ĠáīĢáĬķ": 1100,
      "ĠáĭĪáĭŃáĪĿ": 1101,
      "inc": 1102,
      "áī³áīµ": 1103,
      "Ġáĭĭ": 1104,
      "Ãºn": 1105,
      "ayeĠ": 1106,
      "ess": 1107,
      "Ġáĭĵ.áĪĿ": 1108,
      "ezaĠ": 1109,
      "|Ġ": 1110,
      "BaadaĠ": 1111,
      "orĠ": 1112,
      "Or": 1113,
      "aur": 1114,
      "Br": 1115,
      "áĪªáĬ«": 1116,
      ".ĠItokasiĠ": 1117,
      "Ã¬d": 1118,
      "jam": 1119,
      "ian": 1120,
      "tÃŃĠÃ³Ġ": 1121,
      "PapaĠ": 1122,
      "Ol": 1123,
      "As": 1124,
      "wonĠ": 1125,
      "ibiĠ": 1126,
      "shindiĠwaĠTuzoĠyaĠNobelĠ": 1127,
      "ĠáĬłáĪĪ": 1128,
      "atuk": 1129,
      "ĠáĪµáĪĪ": 1130,
      "ĠáĬĵ": 1131,
      "kar": 1132,
      "WaliofarikiĠ": 1133,
      "erÃ©Ġ": 1134,
      "áĪ¨áīµáĬĵ": 1135,
      "ĠáĪĬ": 1136,
      "aid": 1137,
      "áĮ»": 1138,
      "anaĠnaĠ": 1139,
      "Ġáī¢": 1140,
      "ieĠ": 1141,
      "ementĠ": 1142,
      "Nig": 1143,
      "sÃ¬Ġ": 1144,
      "ĠáįĪ": 1145,
      "ĠáĬ¥áĪµáĬ¨": 1146,
      "áĪĪáĪĿ": 1147,
      "aĠwaĠ": 1148,
      "daĠm": 1149,
      "kut": 1150,
      "ĠáĬķáĮī": 1151,
      "áĪ¨áīµáĬĵĠáĪĿáĪ³áĪĮ": 1152,
      "ĠáīłáĬĭáĪĭ": 1153,
      "Wak": 1154,
      "fiĠ": 1155,
      "seĠ": 1156,
      "antĠ": 1157,
      "áį»áį": 1158,
      "14": 1159,
      "ansĠ": 1160,
      "áĪ¥áīµ": 1161,
      "aninĠ": 1162,
      "ĠáĭŃáĪħ": 1163,
      "lÃ¡tiĠ": 1164,
      "desĠ": 1165,
      "es,Ġ": 1166,
      "paĠ": 1167,
      "ĠáĭĺáĪĺáĬķ": 1168,
      "amuĠ": 1169,
      "ká»įÌģĠ": 1170,
      "áĬķáĪĿ": 1171,
      "zuwaĠ": 1172,
      "umb": 1173,
      "Tanz": 1174,
      "abuĠ": 1175,
      "sÃ¬": 1176,
      "kaĠ": 1177,
      "áĪ¨áĪµ": 1178,
      "10": 1179,
      "ilĠ": 1180,
      "8Ġ": 1181,
      "lá»įÌģ": 1182,
      "yaĠk": 1183,
      "hem": 1184,
      "áº¹ÌĢ-": 1185,
      "uĠmwakaĠ": 1186,
      "193": 1187,
      "9Ġ": 1188,
      "dÃ©": 1189,
      "xĠ": 1190,
      "eĠ(": 1191,
      "á¹£Ã¨": 1192,
      "aif": 1193,
      "áĪ®áī½": 1194,
      "ĠáĬŃáįį": 1195,
      "ilaĠ": 1196,
      "áĪķ": 1197,
      "yaĠm": 1198,
      ").ĠM": 1199,
      "ĠáĬ¨áī°áĪĽ": 1200,
      "Ġáī°áĪ¨áīµáĬĵĠáĪĿáĪ³áĪĮ": 1201,
      "ais": 1202,
      "áĮ«": 1203,
      "ewaĠ": 1204,
      "embaĠ": 1205,
      "suĠ": 1206,
      "pÃŃn": 1207,
      "aniaĠ": 1208,
      "istor": 1209,
      "Ki": 1210,
      "ityĠ": 1211,
      "funĠ": 1212,
      "ey": 1213,
      "bÃŃ": 1214,
      "inger": 1215,
      "ilim": 1216,
      "anĠm": 1217,
      "piaĠ": 1218,
      "áĮĪáĬ": 1219,
      "'sĠ": 1220,
      "par": 1221,
      "áĭİ": 1222,
      "Niger": 1223,
      "anĠk": 1224,
      "acinĠ": 1225,
      "afaĠ": 1226,
      "Il": 1227,
      "urĠ": 1228,
      "Ã¬t": 1229,
      "Ã©r": 1230,
      "chĠ": 1231,
      "atikaĠm": 1232,
      "ĠáĭĵáĪĺ": 1233,
      "edeĠ": 1234,
      "atiĠyaĠ": 1235,
      "ÃĴ": 1236,
      "unaĠ": 1237,
      "sÃŃ": 1238,
      "dun": 1239,
      "12": 1240,
      "aziĠ": 1241,
      "fir": 1242,
      "ĠáĪĪáĪĺ": 1243,
      "hal": 1244,
      "Kan": 1245,
      "áĪŃáĭ«": 1246,
      "eĠm": 1247,
      "Ġáĭķ": 1248,
      "áįĵ": 1249,
      "haif": 1250,
      "áĮĢáĪĺ": 1251,
      "atsayinĠ": 1252,
      "wasĠ": 1253,
      "áī°áĬĽ": 1254,
      "ersĠ": 1255,
      "aut": 1256,
      "Ãłr": 1257,
      "sab": 1258,
      "wal": 1259,
      "ahus": 1260,
      "áĭ´": 1261,
      "ĠtÃŃĠÃ³Ġ": 1262,
      "omaĠ": 1263,
      "lugh": 1264,
      "ask": 1265,
      "ciĠ": 1266,
      "oĠnaĠ": 1267,
      "Ġáĭĵ.áĪĿ.": 1268,
      "AfrikaĠ": 1269,
      "ajiĠ": 1270,
      "yan": 1271,
      "nÃ¡ÃłĠ": 1272,
      "uj": 1273,
      "áĮįáĪŀ": 1274,
      "hiiĠin": 1275,
      "bir": 1276,
      "s.": 1277,
      "ianĠ": 1278,
      "aisĠ": 1279,
      "áį¦": 1280,
      "Ġáĭ«áĪį": 1281,
      "nchiĠ": 1282,
      "fil": 1283,
      "bÃ¡Ġ": 1284,
      "far": 1285,
      "wit": 1286,
      "watanĠ": 1287,
      "wall": 1288,
      "13": 1289,
      "Ã¬lÃºĠ": 1290,
      "ai": 1291,
      "áĭµáĪŃ": 1292,
      "aĠkwaĠ": 1293,
      "a-": 1294,
      "shir": 1295,
      "Fr": 1296,
      "ĠáĬĲáĮĪ": 1297,
      "áĪ¶": 1298,
      "ĠáĮĢ": 1299,
      "MakalaĠ": 1300,
      "áº¹ÌĢ-Ã¨dÃ¨Ġ": 1301,
      "Ġáįį": 1302,
      "san": 1303,
      "ĠáĬ¢": 1304,
      "kwaĠ": 1305,
      "Ġá»įmá»įĠ": 1306,
      "risto": 1307,
      "kĠ": 1308,
      "mĠ": 1309,
      "áī³áĭĪ": 1310,
      "Ġá»įjá»įÌģ": 1311,
      "amarĠ": 1312,
      "Ġáīģ": 1313,
      "deĠlaĠ": 1314,
      "iĠ(": 1315,
      "aryĠ": 1316,
      "ĠâĢĵĠ": 1317,
      "y,Ġ": 1318,
      "ile-": 1319,
      "áīµáĬķ": 1320,
      "waĠnaĠ": 1321,
      "aneĠ": 1322,
      "ÃĵĠ": 1323,
      "d'": 1324,
      "ĠáĪķ": 1325,
      "ĠáĮĭáĪŃ": 1326,
      "Is": 1327,
      "MakalaĠhiiĠin": 1328,
      "lá»įĠ": 1329,
      "lak": 1330,
      "ĠáīłáĪĽ": 1331,
      "MakalaĠhiiĠinahus": 1332,
      "uku": 1333,
      "yÃŃĠ": 1334,
      "NajeriyaĠ": 1335,
      "MakalaĠhiiĠinahusuĠmwakaĠ": 1336,
      "arÃ¡Ġ": 1337,
      "war": 1338,
      "asi": 1339,
      "omb": 1340,
      "ser": 1341,
      "obaĠ": 1342,
      "gbÃłĠ": 1343,
      "shindiĠwaĠTuzoĠyaĠNobelĠyaĠ": 1344,
      "atukioĠ": 1345,
      "áĬŃáĪįáīł": 1346,
      "tur": 1347,
      "ia,Ġ": 1348,
      "por": 1349,
      "áĪīáį¢": 1350,
      "bÃ¡": 1351,
      "oá¹£": 1352,
      "nam": 1353,
      "Ġáį¡": 1354,
      "inuĠ": 1355,
      "áīĤ": 1356,
      "uaĠ": 1357,
      "ĠáĭĵáĬŃáĪįáīł": 1358,
      "áĪİáī½": 1359,
      "áĭ°áĪ¨": 1360,
      "yaĠKristo": 1361,
      "atif": 1362,
      "áĮ¡": 1363,
      "..": 1364,
      "kus": 1365,
      "Ã¬w": 1366,
      "daĠkumaĠ": 1367,
      "yaĠKristo).ĠM": 1368,
      "duĠ": 1369,
      "Ġ(BaadaĠ": 1370,
      "uat": 1371,
      "¦áĪŃ": 1372,
      "Ġ(BaadaĠyaĠKristo).ĠM": 1373,
      "ĠáĪļ": 1374,
      "olog": 1375,
      "att": 1376,
      "weng": 1377,
      "Ok": 1378,
      "nanĠ": 1379,
      "Yor": 1380,
      "sunĠ": 1381,
      "Amer": 1382,
      "Ġáĭ°áĮįáĪŀ": 1383,
      "Ã¹n": 1384,
      "Ãłwá»įn": 1385,
      "ĠáĬłáĬķáĭµ": 1386,
      "áĭ°áĪŃ": 1387,
      "oteĠ": 1388,
      "diĠ": 1389,
      "aleĠ": 1390,
      "áī°áĪ¨": 1391,
      "AnĠ": 1392,
      "ĠáĬłáĪį": 1393,
      "yanaĠ": 1394,
      "Ib": 1395,
      "It": 1396,
      "niĠm": 1397,
      "fark": 1398,
      "áĪĺáĬĲ": 1399,
      "azar": 1400,
      "Wa": 1401,
      "Jan": 1402,
      "áĮĪáĬĿ": 1403,
      "192": 1404,
      "jer": 1405,
      "iraĠ": 1406,
      "iláº¹ÌĢĠ": 1407,
      "láº¹Ìģ": 1408,
      "olaĠ": 1409,
      "ráº¹ÌĢ": 1410,
      "áĪŃáīµ": 1411,
      "arr": 1412,
      "olÃ³": 1413,
      "ari": 1414,
      "Vi": 1415,
      "áĬķáīµ": 1416,
      "wÃłĠ": 1417,
      "pÃ©Ġ": 1418,
      "ilikuwaĠ": 1419,
      "aaĠ": 1420,
      "Ã¨n": 1421,
      "aĠmatsayinĠ": 1422,
      "hisĠ": 1423,
      "ivers": 1424,
      "Ġ2": 1425,
      "áĪĶ": 1426,
      "waniĠ": 1427,
      "amoj": 1428,
      "Ġáĭ¨áĬ¢áīµáĭ®áĮµáĭ«": 1429,
      "ĠáĪĺáĬķáĮįáĪ¥áīµ": 1430,
      "ht": 1431,
      "áĬķáĪµ": 1432,
      "ÆĻasarĠ": 1433,
      "aceĠ": 1434,
      "ĠáĪĪáĪĽ": 1435,
      "Ã²r": 1436,
      "inĠm": 1437,
      "awá»įnĠ": 1438,
      "Ġ(BaadaĠyaĠKristo).ĠMatukioĠ": 1439,
      "áīłáĪ©": 1440,
      "áĬķáīĭ": 1441,
      "ye": 1442,
      "áī½áĬķ": 1443,
      "lok": 1444,
      "pÃŃnláº¹ÌĢĠ": 1445,
      "sik": 1446,
      "ateĠ": 1447,
      "áĬª": 1448,
      "ĠáĪĨáĬĲ": 1449,
      "áĬĵáīµ": 1450,
      "áĪĭáĪįáį¢": 1451,
      "ÃĪ": 1452,
      "org": 1453,
      "ogr": 1454,
      "sonĠ": 1455,
      "Ġáĭ¨áĬĲ": 1456,
      "yarĠ": 1457,
      "iliy": 1458,
      "ogb": 1459,
      "parĠ": 1460,
      "maĠ": 1461,
      "Ak": 1462,
      "Ãł.": 1463,
      "Ã¬m": 1464,
      "âĢĿ": 1465,
      "ĠáĪįáĮħ": 1466,
      "ili": 1467,
      "uĠnaĠ": 1468,
      "ph": 1469,
      "âĢĵ": 1470,
      "anazar": 1471,
      "ect": 1472,
      "biy": 1473,
      "lin": 1474,
      "oĠ(": 1475,
      "omĠ": 1476,
      "ath": 1477,
      ",00": 1478,
      "ĠáĭĿ": 1479,
      "ia.": 1480,
      "zin": 1481,
      "out": 1482,
      "ĠáĭµáĪ¨áĪµ": 1483,
      "asuĠ": 1484,
      "andeĠ": 1485,
      "amĠ": 1486,
      "áĭļáĭ«": 1487,
      "eheĠ": 1488,
      "New": 1489,
      "áįī": 1490,
      "an,Ġ": 1491,
      "daĠkeĠ": 1492,
      "aĠg": 1493,
      "iá¹£áº¹ÌģĠ": 1494,
      "ourĠ": 1495,
      "ĠáĭĵáĬŃáĪįáīł.": 1496,
      "ju": 1497,
      "ugab": 1498,
      "Ġáĭ«áĪįáī°": 1499,
      "oun": 1500,
      "akiĠ": 1501,
      "ru": 1502,
      "amf": 1503,
      "KarneĠyaĠ": 1504,
      "ens": 1505,
      "irĠ": 1506,
      "ontĠ": 1507,
      "Th": 1508,
      "eneoĠ": 1509,
      "daĠy": 1510,
      "sehem": 1511,
      "almeĠ": 1512,
      "áī°áĪ¨áĮİ": 1513,
      "áĭ°áī¥": 1514,
      "fin": 1515,
      "osĠ": 1516,
      "per": 1517,
      "áĮĬ": 1518,
      "Ã³Ġt": 1519,
      "latiĠ": 1520,
      "alis": 1521,
      "iki": 1522,
      "orÃŃláº¹ÌĢ-Ã¨dÃ¨Ġ": 1523,
      "ashar": 1524,
      "ĠáĬ¤": 1525,
      "ĠáĪħ": 1526,
      "rit": 1527,
      "áī£áĪį": 1528,
      "ageĠ": 1529,
      "Ã¹Ġk": 1530,
      "pamoj": 1531,
      "nying": 1532,
      "ĠáĪµáĪĿ": 1533,
      "oriĠ": 1534,
      "Ġáĭ¨áĬ¥": 1535,
      "koĠ": 1536,
      "El": 1537,
      "donĠ": 1538,
      "Ġáīĭ": 1539,
      "ká»įĠ": 1540,
      "Tar": 1541,
      "o-": 1542,
      "ĠáĪĮ": 1543,
      "ÃĢwá»įn": 1544,
      "áĪ£": 1545,
      "áĪĨáĬĳ": 1546,
      "áĪ¸": 1547,
      "lá»į": 1548,
      "oll": 1549,
      "190": 1550,
      "ishiĠ": 1551,
      "ninĠ": 1552,
      "ĠáĬłáĮĪ": 1553,
      "ĠáīłáĬ¥": 1554,
      "Joh": 1555,
      "²áį±": 1556,
      "zam": 1557,
      "189": 1558,
      "ĠáĪĢ": 1559,
      "MarekaniĠ": 1560,
      "ijer": 1561,
      "aul": 1562,
      "enc": 1563,
      "áĬķáĭ«": 1564,
      "áī¸áĭįáį¢": 1565,
      "jiharĠ": 1566,
      "kubwaĠ": 1567,
      "pe": 1568,
      "Jul": 1569,
      "bu": 1570,
      "dÃ¡": 1571,
      "ĠáĪĽáĪĪáīµ": 1572,
      "Ã¬yÃłnĠ": 1573,
      "byĠ": 1574,
      "áĪĬáĭĿ": 1575,
      "kuf": 1576,
      "gbÃ©": 1577,
      "mÃ¡": 1578,
      "º¸": 1579,
      "ept": 1580,
      "iriĠ": 1581,
      "áĪłáĪ": 1582,
      "ĠáĪĥ": 1583,
      "áī¸áĭįáĬķ": 1584,
      "alÃ¡": 1585,
      "ilÃ©": 1586,
      "kul": 1587,
      "ile-edeĠ": 1588,
      "tionĠ": 1589,
      "ĠáĬķáĮīáĪ¥": 1590,
      "vy": 1591,
      "isaĠ": 1592,
      "áī±áĬķ": 1593,
      "áĬ¨áī°": 1594,
      "áĪµáī°": 1595,
      "soĠ": 1596,
      "áĭįáĭ«áĬķ": 1597,
      "áįķ": 1598,
      "andaĠ": 1599,
      "uniĠ": 1600,
      "Ġáĭ¨áĪļáĭ«": 1601,
      "ko": 1602,
      "cl": 1603,
      "ayĠ": 1604,
      "áī°áĪ¨áĮİáĪĺ": 1605,
      "ra": 1606,
      "hak": 1607,
      "ĠBK": 1608,
      "áĪĢ": 1609,
      "=Ġ": 1610,
      "Rom": 1611,
      "Mus": 1612,
      "Wat": 1613,
      "áº¹Ìģg": 1614,
      "teĠ": 1615,
      "inĠtheĠ": 1616,
      "ĠáĬłáĪĺ": 1617,
      "aĠshekaraĠtaĠ": 1618,
      "tareĠ": 1619,
      "0.": 1620,
      "áī£áī¢": 1621,
      "Ã¬l": 1622,
      "oĠvyaĠ": 1623,
      "in,Ġ": 1624,
      "sc": 1625,
      "bi": 1626,
      "Ġáī³áĪªáĬŃ": 1627,
      "kup": 1628,
      "bal": 1629,
      "Ġáĭ«áĪįáī°áī°áĪ¨áĮİáĪĺ": 1630,
      "Ġáĭ«áĪįáī°áī°áĪ¨áĮİáĪĺĠáĪĿáĪ³áĪĮ": 1631,
      "ele": 1632,
      "²áį±áį»áį": 1633,
      "ĠáīłáĬłáĪ": 1634,
      "ma": 1635,
      "áĬķáĮ": 1636,
      "iĠkwaĠ": 1637,
      "aĠkar": 1638,
      "áĪĦ": 1639,
      "tÃ³Ġ": 1640,
      "ĠáĮī": 1641,
      "Univers": 1642,
      "ĠáĪ°áĭį": 1643,
      "kÃł": 1644,
      "er,Ġ": 1645,
      "Ġáĭ¨áĬłáĪĽáĪŃáĬĽĠáĪĿáĪ³áĪĮĠáĬĲáĭįáį¢ĠáīµáĪŃáĮīáĪĻĠáĭ«áĪįáī°áī°áĪ¨áĮİáĪĺĠáĪĿáĪ³áĪĮ": 1646,
      "áĭĽáīµ": 1647,
      "ĠáīĭáĬķáīĭ": 1648,
      "es.": 1649,
      "hur": 1650,
      "maiĠ": 1651,
      "Ã©t": 1652,
      "on,Ġ": 1653,
      "áĪŀáī½": 1654,
      "inĠk": 1655,
      "áĮ¥áĪŃ": 1656,
      "oĠlaĠ": 1657,
      "ajiĠwaĠ": 1658,
      "wakeĠ": 1659,
      "páº¹ÌĢ": 1660,
      "Ġáĭ³": 1661,
      "Gu": 1662,
      "áĪ«áīµ": 1663,
      "ouĠ": 1664,
      "aus": 1665,
      "ninuĠ": 1666,
      "NÃŃ": 1667,
      "áī£áīµ": 1668,
      "jáº¹Ìģ": 1669,
      "ĠáĬłáĬ«": 1670,
      "áī¥áĪŃ": 1671,
      "isiwaĠ": 1672,
      "áĪł": 1673,
      "ord": 1674,
      "lyĠ": 1675,
      "ern": 1676,
      "gbeĠ": 1677,
      "áĪįáĬŃ": 1678,
      "Ġáį£": 1679,
      "oniĠ": 1680,
      "kÃ³": 1681,
      "wasanĠ": 1682,
      "Ġáĭ¨áĪĽ": 1683,
      "ranarĠ": 1684,
      "/áĪĿ": 1685,
      "áĭĭáĪįáį¢": 1686,
      "En": 1687,
      "Ġáī¥áĭĻ": 1688,
      "forĠ": 1689,
      "pos": 1690,
      "Ã¨nÃ¬yÃłnĠ": 1691,
      "wÃ¡": 1692,
      "te": 1693,
      "1.": 1694,
      "yak": 1695,
      "aĠf": 1696,
      "ĠáĭŃáĮĪ": 1697,
      "abbanĠ": 1698,
      "áĪĭáīµ": 1699,
      "áĬ¨áĪį": 1700,
      "áĪĿáĪ®": 1701,
      "wand": 1702,
      "yÃ¬nĠ": 1703,
      "pá»įÌĢĠ": 1704,
      "ba": 1705,
      "man": 1706,
      "daĠd": 1707,
      "orile-edeĠ": 1708,
      "iya.": 1709,
      "hadiĠ": 1710,
      "Ã²á¹£Ã¨": 1711,
      "annanĠ": 1712,
      "katikaĠ": 1713,
      "yÃ¬ÃŃĠ": 1714,
      "Ġ(BaadaĠyaĠKristo).ĠMatukioĠWaliozaliwaĠ": 1715,
      "báº¹ÌĢ": 1716,
      "Ġáĭĵ/áĪĿ": 1717,
      "lÃ©Ġ": 1718,
      "haifeĠ": 1719,
      "áĪĭáĪį": 1720,
      "Com": 1721,
      "e.Ġ": 1722,
      "ĠáĮł": 1723,
      "ĠáĪŀ": 1724,
      "ahar": 1725,
      "áĪ³áĭŃ": 1726,
      "wallonĠ": 1727,
      "iaĠyaĠ": 1728,
      "tern": 1729,
      "sp": 1730,
      "ÃŃá¹£": 1731,
      "iqu": 1732,
      "Ind": 1733,
      "ustr": 1734,
      "oth": 1735,
      "1-": 1736,
      "aĠkatikaĠ": 1737,
      ")ĠjeĠ": 1738,
      "ĠáĪĻ": 1739,
      "Ã¨r": 1740,
      "ationalĠ": 1741,
      "áī³áĭĬ": 1742,
      "oĠl": 1743,
      "nÃŃĠá»įdÃºnĠ": 1744,
      "Ag": 1745,
      "amp": 1746,
      "áĮĤ": 1747,
      "indaĠ": 1748,
      "Ã¬á¹£": 1749,
      "áĪĿáĪħ": 1750,
      "afiĠ": 1751,
      "ĠáĬłáĪµáī°": 1752,
      "nj": 1753,
      "sunaĠ": 1754,
      "ĠáĮ½": 1755,
      "adh": 1756,
      "vi": 1757,
      "uwarĠ": 1758,
      "abiĠ": 1759,
      "iss": 1760,
      "áĪĺáĪŃ": 1761,
      "TanzaniaĠ": 1762,
      "atifuĠ": 1763,
      "enyeĠ": 1764,
      "ras": 1765,
      "ľáĪªáĬ«": 1766,
      "icanĠ": 1767,
      "ĠáĮİ": 1768,
      "ĠáĪ³áĭŃ": 1769,
      "zaid": 1770,
      "Janu": 1771,
      "umĠ": 1772,
      "eur": 1773,
      "áĮĨ": 1774,
      "we": 1775,
      "ĠáĬ¥áĬķáĭ³": 1776,
      "peĠ": 1777,
      "áĬķáĭ³": 1778,
      "jinaĠ": 1779,
      "aĠd": 1780,
      "lakiniĠ": 1781,
      "IĠ": 1782,
      "ouv": 1783,
      "ĠáĭĭáĬĵ": 1784,
      "be": 1785,
      "i.Ġ": 1786,
      "ĠáĬ®": 1787,
      "áĭ²áĪµ": 1788,
      "ubl": 1789,
      "ĠáīłáĪļ": 1790,
      "Mat": 1791,
      "ĠáĪĺáĪµ": 1792,
      "aĠs": 1793,
      "a,Ġm": 1794,
      ".áĬł": 1795,
      "áī·": 1796,
      "Ãłt": 1797,
      "esh": 1798,
      "aĠb": 1799,
      "áĮįáĪŃ": 1800,
      "wanzaĠ": 1801,
      "ĠáĪĺáĬķ": 1802,
      "lim": 1803,
      "quiĠ": 1804,
      "enceĠ": 1805,
      "jiĠm": 1806,
      "Ã©eĠ": 1807,
      "OĠ": 1808,
      "zil": 1809,
      "iniĠyaĠ": 1810,
      "ahĠ": 1811,
      "ool": 1812,
      "à¤": 1813,
      "áĮłáĪŃ": 1814,
      "Ġáį¢": 1815,
      "áĭĿáī¥": 1816,
      "i'": 1817,
      "Ġáī¤áī°": 1818,
      "way": 1819,
      "\".": 1820,
      "uv": 1821,
      "áĪĭáĭŃ": 1822,
      "tÃŃĠwá»įÌģnĠ": 1823,
      "omoĠ": 1824,
      "1,Ġ": 1825,
      "Um": 1826,
      "ten": 1827,
      "áĮĪáĬĺ": 1828,
      "form": 1829,
      "Ġth": 1830,
      "lang": 1831,
      "Ã¡n": 1832,
      "tor": 1833,
      "uli": 1834,
      "áĪĿĠáīł": 1835,
      "iĠniĠ": 1836,
      "áįĸ": 1837,
      "áº¹Ìģgáº¹ÌģĠ": 1838,
      "aĠ(": 1839,
      "int": 1840,
      "á»įbaĠ": 1841,
      "eleĠ": 1842,
      "arab": 1843,
      "waj": 1844,
      "Tr": 1845,
      "jÃ¡": 1846,
      "ungoĠvyaĠ": 1847,
      "Ġáĭ¨áĪĨ": 1848,
      "anazartaĠ": 1849,
      "ĠáĪģáĪī": 1850,
      "ber": 1851,
      "--": 1852,
      "Nov": 1853,
      "aĠy": 1854,
      "Ken": 1855,
      "jerum": 1856,
      "ViungoĠvyaĠ": 1857,
      "áº¹Ìģr": 1858,
      "aĠshekararĠ": 1859,
      "lokacinĠ": 1860,
      "antaĠ": 1861,
      "áĭī": 1862,
      "wad": 1863,
      "ĠáįĬ": 1864,
      "emberĠ": 1865,
      "Ġ:": 1866,
      "alikuwaĠm": 1867,
      "Afir": 1868,
      "sĠ(": 1869,
      "áº¹r": 1870,
      "áĬŀ": 1871,
      "oci": 1872,
      "tanaĠ": 1873,
      "Col": 1874,
      "iseĠ": 1875,
      "ĠáĬłáĪĿ": 1876,
      "Ġáĭ¨áĪĿ": 1877,
      "gbÃ©Ġ": 1878,
      "afinĠ": 1879,
      "Mal": 1880,
      "áĮĢáĪĺáĪªáĭ«": 1881,
      "deĠl'": 1882,
      "nchiniĠ": 1883,
      "yanĠ": 1884,
      "ww": 1885,
      "Ma": 1886,
      "Nijer": 1887,
      "danĠ": 1888,
      "birninĠ": 1889,
      "ingerezaĠ": 1890,
      "iesĠ": 1891,
      "Kis": 1892,
      "ardĠ": 1893,
      "kÃŃĠ": 1894,
      "ins": 1895,
      "adĠ": 1896,
      "watuĠ": 1897,
      "áĪŃáĪµáī²": 1898,
      "tÃł": 1899,
      "Le": 1900,
      "gab": 1901,
      "áĪĨáĬĲ": 1902,
      "awalaĠ": 1903,
      "kÃ²Ġ": 1904,
      "áĪ«áĭĬ": 1905,
      "CĠ": 1906,
      "ayy": 1907,
      "ĠáĪĺáĭ°áī¥": 1908,
      "mÃ©": 1909,
      "wh": 1910,
      "oá¹£Ã¹Ġk": 1911,
      "alif": 1912,
      "Ġáĭ¨áĬłáĪĽáĪŃáĬĽĠáĪĿáĪ³áĪĮĠáĬĲáĭįáį¢ĠáīµáĪŃáĮīáĪĻĠáĭ«áĪįáī°áī°áĪ¨áĮİáĪĺĠáĪĿáĪ³áĪĮĠáī°áĪ¨áīµáĬĵĠáĪĿáĪ³áĪĮ": 1913,
      "ast": 1914,
      "ĠáĪ°áĭİáī½": 1915,
      "Ed": 1916,
      "já»įĠ": 1917,
      "okoĠ": 1918,
      "arg": 1919,
      "áº¹ÌģrÃŃ": 1920,
      "iya,Ġ": 1921,
      "Histor": 1922,
      "a)Ġ": 1923,
      "ká»įÌģ": 1924,
      "ilayaĠ": 1925,
      "i-": 1926,
      "Ben": 1927,
      "falmeĠ": 1928,
      "itt": 1929,
      "2.": 1930,
      "áī½áį¢": 1931,
      "akar": 1932,
      "imuĠ": 1933,
      "All": 1934,
      "Ge": 1935,
      "yinĠ": 1936,
      "mat": 1937,
      "bayanĠ": 1938,
      "wah": 1939,
      "ÃĮpÃŃnláº¹ÌĢĠ": 1940,
      "áįİ": 1941,
      "Ġáī¦": 1942,
      "orinĠ": 1943,
      "ust": 1944,
      "ĠáĬĲáĮĪáĪŃ": 1945,
      "Feb": 1946,
      "Ujerum": 1947,
      "res": 1948,
      "comm": 1949,
      "ukoĠ": 1950,
      "po": 1951,
      "Ãłw": 1952,
      "Ãĵ": 1953,
      "Gr": 1954,
      "icalĠ": 1955,
      "an.": 1956,
      "ani.": 1957,
      "hiy": 1958,
      "Ãª": 1959,
      "ÃŃr": 1960,
      "Ġáī°áĪĺ": 1961,
      "fic": 1962,
      "ĠtÃ³Ġ": 1963,
      ".ĠItokasiĠÃĢwá»įnĠ": 1964,
      "aoĠ": 1965,
      "áĬķáĮįáĪĬáĭĿ": 1966,
      "iluĠ": 1967,
      "Ġáīłáĭĺ": 1968,
      "0,Ġ": 1969,
      "ueĠ": 1970,
      "áī°áĭį": 1971,
      "2,Ġ": 1972,
      "ashinĠ": 1973,
      "jiĠ": 1974,
      "Con": 1975,
      "Ãły": 1976,
      "áĪĿáį¢": 1977,
      "pamojaĠnaĠ": 1978,
      "JiharĠ": 1979,
      "Amáº¹ÌģrÃŃ": 1980,
      "awanĠ": 1981,
      "iĠkatikaĠ": 1982,
      "gáº¹Ìģgáº¹ÌģĠ": 1983,
      "áī¦áī½": 1984,
      "sun": 1985,
      "anoĠ": 1986,
      "i,Ġm": 1987,
      "áĮ¸": 1988,
      "ÃĮt": 1989,
      "ká»įÌĢ": 1990,
      "áīµĠáĭ¨": 1991,
      "Febru": 1992,
      "áĬķĠáĬł": 1993,
      "uch": 1994,
      "de": 1995,
      "áį¥": 1996,
      "jÃºĠ": 1997,
      "tion": 1998,
      "di": 1999,
      "stĠ": 2000,
      "Ul": 2001,
      "si": 2002,
      "gr": 2003,
      "itiĠ": 2004,
      "farkoĠ": 2005,
      "gu": 2006,
      "áĪĽáĪª": 2007,
      "áĮłáīĢ": 2008,
      "kuuĠwaĠ": 2009,
      "ayiĠ": 2010,
      "ĠáīĨ": 2011,
      "Ø§": 2012,
      "Ã¬gbÃł": 2013,
      "withĠ": 2014,
      "ikoĠ": 2015,
      "WaliofarikiĠKarneĠyaĠ": 2016,
      "asil": 2017,
      "ankinĠ": 2018,
      "ilÃ©-": 2019,
      "tunĠ": 2020,
      "njeĠ": 2021,
      "Ġáĭ¨áĪļáĮĪáĬĿ": 2022,
      "Ãłm": 2023,
      "Ã¬r": 2024,
      "odh": 2025,
      "fi": 2026,
      "tareĠdaĠ": 2027,
      "Ing": 2028,
      "asar": 2029,
      "Ãł,Ġ": 2030,
      "manĠ": 2031,
      "ĠáĭĵáĪĿ": 2032,
      "thĠ": 2033,
      "Ġ3": 2034,
      "aliaĠ": 2035,
      "mar": 2036,
      "áĪ¨áĭį": 2037,
      "ĠáĭĵáĪĺáīµ": 2038,
      "á»įÌģkas": 2039,
      "188": 2040,
      "anĠhaifeĠ": 2041,
      "entr": 2042,
      "shindiĠwaĠTuzoĠyaĠNobelĠyaĠF": 2043,
      "25": 2044,
      "dÃºnĠ": 2045,
      "naĠku": 2046,
      "jáº¹Ġ": 2047,
      "cr": 2048,
      "upandeĠ": 2049,
      "mentĠ": 2050,
      "iĠzaĠ": 2051,
      "áĮĵ": 2052,
      "vit": 2053,
      "otĠ": 2054,
      "aik": 2055,
      "dar": 2056,
      "Dun": 2057,
      "áĭŀ": 2058,
      "dansĠ": 2059,
      "gaĠwatanĠ": 2060,
      "ĠáĬª": 2061,
      "pourĠ": 2062,
      "áį£Ġáĭ¨": 2063,
      "ialĠ": 2064,
      "áĭ±áĪµ": 2065,
      "zaĠm": 2066,
      "Na": 2067,
      "âĢľ": 2068,
      "ĠáĪĿáĬŃ": 2069,
      "má»įÌĢĠ": 2070,
      "aĠdaĠ": 2071,
      "áĮįáī¥": 2072,
      "At": 2073,
      "áĬ¢": 2074,
      "imĠ": 2075,
      "dagaĠcikinĠ": 2076,
      "gbÃ¡": 2077,
      "6,Ġ": 2078,
      "áĬķĠáīł": 2079,
      "ne": 2080,
      "laĠm": 2081,
      "4.": 2082,
      "kasanceĠ": 2083,
      "a:Ġ": 2084,
      "ĠáĪĺáĭ°áī¥Ġ:": 2085,
      "ĠáĬ¥áĭ¨": 2086,
      "áĪĭáĬķáĭµ": 2087,
      "part": 2088,
      ".áĬ¤": 2089,
      "NewĠ": 2090,
      "ameĠ": 2091,
      "Ãºr": 2092,
      "áĬĸáī½": 2093,
      "shugab": 2094,
      "páº¹ÌĢlÃºĠ": 2095,
      "ireĠ": 2096,
      "tareheĠ": 2097,
      "Okt": 2098,
      "iteĠ": 2099,
      "atiĠwaĠ": 2100,
      "UniversityĠ": 2101,
      "áįĴ": 2102,
      "aliy": 2103,
      "nchiĠyaĠ": 2104,
      ")Ġ(": 2105,
      "ĠáĪĭ": 2106,
      "áĬ¥áĬķ": 2107,
      "Ur": 2108,
      "zaĠk": 2109,
      "gir": 2110,
      "áĮ¨áĪ¨": 2111,
      "iqueĠ": 2112,
      "pin": 2113,
      "áĭ³áĬķ": 2114,
      "áĮĮ": 2115,
      "6.": 2116,
      "land": 2117,
      "Ã¨t": 2118,
      "Austr": 2119,
      "add": 2120,
      "Em": 2121,
      "TaĠ": 2122,
      "áĬłáī¥": 2123,
      "Ac": 2124,
      "á»Į": 2125,
      "áī³áī¸áĭį": 2126,
      "áīµĠáīł": 2127,
      "ambaĠ": 2128,
      "niĠk": 2129,
      "Ġáīĥ": 2130,
      "7,Ġ": 2131,
      "ÆĻwallonĠ": 2132,
      "Marekani": 2133,
      "wakaziĠ": 2134,
      "Ãłd": 2135,
      "láº¹ÌĢ": 2136,
      "aĠM": 2137,
      "ult": 2138,
      "lÃ¨Ġ": 2139,
      "aghar": 2140,
      "áĭŃáĪħ": 2141,
      "oĠch": 2142,
      "embaĠ-Ġ": 2143,
      "5.": 2144,
      "7.": 2145,
      "áĪ¨áĮĥ": 2146,
      "Ġáº¹gb": 2147,
      "ÙĦ": 2148,
      "atol": 2149,
      "ĠáĪĺáĬ«": 2150,
      "shiĠneĠ": 2151,
      "Har": 2152,
      "sÃŃl": 2153,
      "uuĠ": 2154,
      "gbogb": 2155,
      ").Ġ": 2156,
      "Ġá»įmá»į": 2157,
      "áĮ¦": 2158,
      "wÃ¡Ġ": 2159,
      "olÃ¹": 2160,
      "áĪ¨áĬķ": 2161,
      "áĪĿáĬĵ": 2162,
      "kÃ²": 2163,
      "sÃ¡": 2164,
      "2019": 2165,
      "Des": 2166,
      "Gh": 2167,
      "Tur": 2168,
      "riĠ": 2169,
      "23": 2170,
      "tiĠoĠ": 2171,
      "iak": 2172,
      "utaĠ": 2173,
      "ousĠ": 2174,
      "11": 2175,
      "ĠáĪĲ": 2176,
      "ĠáĬ¨áĬł": 2177,
      "arans": 2178,
      "weĠ": 2179,
      "eluĠ": 2180,
      "4,Ġ": 2181,
      "Ġáī°áīĢ": 2182,
      "áĭįĠáĭ¨": 2183,
      "kÃ³Ġ": 2184,
      "ĠáĬĲáīłáĪ¨": 2185,
      "act": 2186,
      "naĠk": 2187,
      "izik": 2188,
      "veĠ": 2189,
      "áīĨáĮ£": 2190,
      "áĪĪáĭ«": 2191,
      "5,Ġ": 2192,
      "áīµáĬĵ": 2193,
      "mut": 2194,
      "áĮĪáĭµ": 2195,
      "áī°áĪŃ": 2196,
      "kuj": 2197,
      "auk": 2198,
      "lughaĠ": 2199,
      "lat": 2200,
      "áĪĺáĬĵ": 2201,
      "ĠáĪĨáĬĸ": 2202,
      "zamaĠ": 2203,
      "hukum": 2204,
      "askaz": 2205,
      "ĠáīłáĪµ": 2206,
      "beĠ": 2207,
      "ilÃ©Ġ": 2208,
      "sĠofĠ": 2209,
      "inĠdaĠ": 2210,
      "kun": 2211,
      "áĪ¨áĭ³": 2212,
      "Gre": 2213,
      "Kus": 2214,
      "amil": 2215,
      "NÃłÃ¬jÃŃrÃŃÃłĠ": 2216,
      "balimb": 2217,
      "aikiĠ": 2218,
      "waĠkwaĠ": 2219,
      ".áĬ¤.áĬł": 2220,
      "áĪĶáĪŃ": 2221,
      "baadaĠ": 2222,
      "sy": 2223,
      "ĠáīłáĬ¢áīµáĭ®áĮµáĭ«": 2224,
      "NĠ": 2225,
      "odhaĠyaĠ": 2226,
      "áīħáĪĿ": 2227,
      "adeĠ": 2228,
      "ous": 2229,
      "Par": 2230,
      "Éĵ": 2231,
      "ika": 2232,
      "áĪĺáĪµ": 2233,
      "áĪ°áī¥": 2234,
      "áĬĲáĭļáĪħ": 2235,
      "ign": 2236,
      "ulk": 2237,
      "str": 2238,
      "weny": 2239,
      "áĪĽáĭĬ": 2240,
      "ilit": 2241,
      "Ġáįķ": 2242,
      "ĠáĭĺáĬķáĭµ": 2243,
      "áĪ°áĭį": 2244,
      "igh": 2245,
      "ĠáĬĵáī¸áĭįáį¢": 2246,
      "usuĠ": 2247,
      "antarĠ": 2248,
      "ĠáĪ´": 2249,
      "arib": 2250,
      "miĠ": 2251,
      "áįħ": 2252,
      "áĮĪáĬĻ": 2253,
      "anciĠ": 2254,
      "Wan": 2255,
      "tÃ¬": 2256,
      "ayoĠ": 2257,
      "irg": 2258,
      "áīª": 2259,
      "kÃłĠ": 2260,
      "ĠáĬłáī¥": 2261,
      "ement": 2262,
      "ijiĠ": 2263,
      "Ġáī£áĪĪ": 2264,
      "ĠáĮ¨": 2265,
      "Sch": 2266,
      "kung": 2267,
      "ina": 2268,
      "Ġáĭ¨áĪ°": 2269,
      "dh": 2270,
      "ĠáĮĢáĪĿáĪ®": 2271,
      "iĠyaĠm": 2272,
      "inay": 2273,
      "alit": 2274,
      "ene": 2275,
      "Ġáī¤áīµ": 2276,
      "aka": 2277,
      "áĮ½áĪĲ": 2278,
      "oul": 2279,
      "iĠyaĠk": 2280,
      "iaĠmwakaĠwaĠ": 2281,
      "Ġáĭ«áĪĪ": 2282,
      "ĠáĪ«": 2283,
      "Ã¬b": 2284,
      "áĭ¥": 2285,
      "2018": 2286,
      "áĪŃáĪ±": 2287,
      "JohnĠ": 2288,
      "acc": 2289,
      "Ġáįĵ": 2290,
      "isp": 2291,
      "ric": 2292,
      "sin": 2293,
      "RD": 2294,
      "min": 2295,
      "Tang": 2296,
      "áĬķĠáĬ¨": 2297,
      "ingerez": 2298,
      "áįĬáīµ": 2299,
      "gbaj": 2300,
      "rel": 2301,
      ")ĠniĠ": 2302,
      "fromĠ": 2303,
      "Naij": 2304,
      "LeĠ": 2305,
      "lughaĠyaĠ": 2306,
      "wana": 2307,
      "hil": 2308,
      "wá»įÌģ": 2309,
      "ĠáĬ¢áīµáĭ®áĮµáĭ«": 2310,
      "tp": 2311,
      "Jap": 2312,
      "ĠáĮ¦áĪŃ": 2313,
      "ohunĠ": 2314,
      "ĠáĬłáī£": 2315,
      "ÃłÃ¡": 2316,
      "ayanĠ": 2317,
      "atur": 2318,
      "//": 2319,
      "Ġ\"": 2320,
      "yaĠM": 2321,
      "Nor": 2322,
      "áĭ¨áĪŃ": 2323,
      "ogoĠ": 2324,
      "odĠ": 2325,
      "enn": 2326,
      "ĠáĬłáĮĪáĪŃ": 2327,
      "ĠáĮ¸": 2328,
      "farans": 2329,
      "eh": 2330,
      "Ġáī¥áī»": 2331,
      "eĠofĠ": 2332,
      "áī¡áī¥": 2333,
      "áĪĿĠáĭ¨": 2334,
      "Ġáĭ«áĪĪáĭį": 2335,
      "ania": 2336,
      "áī£áĪĪ": 2337,
      "áĬ¤áĪį": 2338,
      "intaĠ": 2339,
      "Ã¬bÃŃĠ": 2340,
      "3.": 2341,
      "áĪįáĮ£": 2342,
      "dom": 2343,
      "Ġáº¸": 2344,
      "Ġáī°áĭĪ": 2345,
      "Kik": 2346,
      "egbeĠ": 2347,
      "Was": 2348,
      "Ã©k": 2349,
      "eth": 2350,
      "áĪłáĪ¨": 2351,
      "ihiĠ": 2352,
      "plusĠ": 2353,
      "http": 2354,
      "%Ġ": 2355,
      "y.": 2356,
      "ith": 2357,
      "ĠáĪĺáĪį": 2358,
      "anj": 2359,
      "áĭĭáĪį": 2360,
      "uĠ(": 2361,
      "mon": 2362,
      "Ang": 2363,
      "Ùİ": 2364,
      "ĥáĭŃ": 2365,
      "afaĠtaĠ": 2366,
      "áį£Ġáīł": 2367,
      "áī³áĪįáį¢": 2368,
      "Ġá»ĮÌĢ": 2369,
      "://": 2370,
      "Muh": 2371,
      "jáº¹": 2372,
      "OrodhaĠyaĠ": 2373,
      "e,Ġm": 2374,
      "áĪīáīµ": 2375,
      "Ã©sĠ": 2376,
      "azamaĠ": 2377,
      "áĪĭáī¸áĭį": 2378,
      "Oá¹£": 2379,
      "Cl": 2380,
      "lab": 2381,
      "odunĠ": 2382,
      "Ãłká»įÌģ": 2383,
      "áº¹l": 2384,
      "ĠtÃŃĠwá»įÌģnĠ": 2385,
      "ÆĻwallonĠÆĻ": 2386,
      "ĠáĬ¦": 2387,
      "alinĠ": 2388,
      "dakeĠ": 2389,
      "Naijir": 2390,
      "áĪĿĠáĬ¨": 2391,
      "ack": 2392,
      "Im": 2393,
      "wor": 2394,
      "igb": 2395,
      "Ġáī°áĬ¨": 2396,
      "00Ġ": 2397,
      "in.": 2398,
      "Sp": 2399,
      "bar": 2400,
      "ray": 2401,
      "apoĠ": 2402,
      "OktobaĠ": 2403,
      "Us": 2404,
      "áį²áį±áį»áį": 2405,
      "ĠáĬ¥áĬķáĭ²áĪģ": 2406,
      "loĠ": 2407,
      "ipaĠ": 2408,
      "port": 2409,
      "otoĠ": 2410,
      "itwaĠ": 2411,
      "endel": 2412,
      "pá»įÌĢ": 2413,
      "kur": 2414,
      "amaĠm": 2415,
      "áĬħ": 2416,
      "kuanz": 2417,
      "hivy": 2418,
      "taĠk": 2419,
      "dÃŃ": 2420,
      "áĭįáĪ®": 2421,
      "ar,Ġ": 2422,
      "20Ġ": 2423,
      "ĠáīģáĮ¥áĪŃ": 2424,
      "ĠáĬ¥.áĬ¤.áĬł": 2425,
      "áĭµáĬķ": 2426,
      "áĪļáĭ«": 2427,
      "âĢĵĠ": 2428,
      "faraĠ": 2429,
      "Sal": 2430,
      "YorÃ¹": 2431,
      "iveĠ": 2432,
      "tang": 2433,
      "elleĠ": 2434,
      "eke": 2435,
      "Aw": 2436,
      "Wá»įÌģnĠ": 2437,
      "pad": 2438,
      "ÃłrÃ¹nĠ": 2439,
      "ush": 2440,
      "prÃ©": 2441,
      "isi": 2442,
      "mÃ¡aĠ": 2443,
      "Om": 2444,
      "iĠyaĠK": 2445,
      "\",Ġ": 2446,
      "ishĠ": 2447,
      "fit": 2448,
      "ĠáĪ¥áĪŃ": 2449,
      "báº¹ÌĢráº¹ÌĢĠ": 2450,
      "n.": 2451,
      "wamn": 2452,
      "Bur": 2453,
      "Ã¨yÃŃĠ": 2454,
      "tsak": 2455,
      "li": 2456,
      "kuh": 2457,
      "ungeĠ": 2458,
      "ĠáĪī": 2459,
      "tokasi": 2460,
      "hasaĠ": 2461,
      "Will": 2462,
      "pol": 2463,
      "cewaĠ": 2464,
      "oke": 2465,
      "kud": 2466,
      "anaĠk": 2467,
      "Ġáĭ¨áĪĨáĬĲ": 2468,
      "sehemuĠ": 2469,
      "máº¹Ìģ": 2470,
      "daĠsukaĠ": 2471,
      "Ufarans": 2472,
      "áĪ¥áī³áīµ": 2473,
      "Pol": 2474,
      "uleĠ": 2475,
      "Tib": 2476,
      "lam": 2477,
      "áĬĵáĪį": 2478,
      "ĠSept": 2479,
      "Ġ(BaadaĠyaĠKristo).ĠMatukioĠWaliozaliwaĠWaliofarikiĠKarneĠyaĠ": 2480,
      "yĠ(": 2481,
      "ItokasiĠ": 2482,
      "Itali": 2483,
      "gunĠ": 2484,
      "pÃ©": 2485,
      "ĠáĭĪáĬķ": 2486,
      "ĠtaĠ": 2487,
      "Ġá»įdunĠ": 2488,
      "eiĠ": 2489,
      "Ġáĭ®": 2490,
      "ĠApr": 2491,
      "ĠáĬłáīł": 2492,
      "ongoz": 2493,
      "uwanĠ": 2494,
      "rÃ©Ġ": 2495,
      "uwan": 2496,
      "za": 2497,
      "itedĠ": 2498,
      "ĠáĮ£": 2499,
      "áī¢áĭ«": 2500,
      "3,Ġ": 2501,
      "ationsĠ": 2502,
      "áĬķĠáĭ«": 2503,
      "idiĠ": 2504,
      "áĮ¤": 2505,
      "ĠáīłáĪĿ": 2506,
      "sak": 2507,
      "áĪŃáĬŃ": 2508,
      "shig": 2509,
      "ĠáĭµáĪŃ": 2510,
      "e)Ġ": 2511,
      "ananĠ": 2512,
      "ĠáĪľ": 2513,
      "áĬ¦": 2514,
      "áĮ¨áĪ¨áĪ»": 2515,
      "yar": 2516,
      "ĠáĪĺáĭ°áī¥Ġ:Ġáī°áĪ¨áīµáĬĵĠáĪĿáĪ³áĪĮ": 2517,
      "áĮłáĪ«": 2518,
      "ook": 2519,
      "aĠranarĠ": 2520,
      "áĭµáĪĿ": 2521,
      "|ĠRD": 2522,
      "ĠáĬ¨áįį": 2523,
      "InĠ": 2524,
      "Intern": 2525,
      "bur": 2526,
      "yĠofĠ": 2527,
      "áīµĠáĪĺ": 2528,
      "áĬķĠáĪĺ": 2529,
      "iwaĠnaĠ": 2530,
      "ikeĠ": 2531,
      "o.Ġ": 2532,
      "waiĠ": 2533,
      "oneĠ": 2534,
      "koaĠwaĠ": 2535,
      "Ã¬k": 2536,
      "áĬķĠáĭ¨": 2537,
      "9.": 2538,
      "surĠ": 2539,
      "uhur": 2540,
      "ĠáĪĺáĬ«áĬ¨áĪį": 2541,
      "och": 2542,
      "Nch": 2543,
      "Ġáī¡": 2544,
      "áĮįáĭļ": 2545,
      "eseĠ": 2546,
      "30": 2547,
      "la": 2548,
      "áĭİáī¹": 2549,
      "áĬķáĬĵ": 2550,
      "ĠAg": 2551,
      "ĠáīłáĪĭáĭŃ": 2552,
      "Ob": 2553,
      "áĪĺáĪĪ": 2554,
      "utĠ": 2555,
      "áĬķáĮī": 2556,
      "áĬ³": 2557,
      "Ġá»įjá»įÌģÃ¬bÃŃĠ": 2558,
      "idanĠ": 2559,
      "wig": 2560,
      "kuwaĠm": 2561,
      "186": 2562,
      "Bar": 2563,
      "21": 2564,
      "ulik": 2565,
      "tun": 2566,
      "Kam": 2567,
      "ĠáīłáĪ°": 2568,
      "biyuĠ": 2569,
      "ĠáīłáĭĺáĪĺáĬĲ": 2570,
      "50": 2571,
      "áīħáĪŃ": 2572,
      "edĠtoĠ": 2573,
      "áī¥áĪ¨": 2574,
      "áĪĽáĭŃ": 2575,
      "Ìģ": 2576,
      "harĠ": 2577,
      "an-": 2578,
      "nÃŃpaĠ": 2579,
      "NÃłÃ¬jÃŃrÃŃÃł": 2580,
      "idĠ": 2581,
      "ÆĻar": 2582,
      "ĠáĬŃáįįáĪĪ": 2583,
      "kasarĠ": 2584,
      "áĪħáĪį": 2585,
      "wannanĠ": 2586,
      "avec": 2587,
      "hany": 2588,
      "eĠdesĠ": 2589,
      "langu": 2590,
      "yáº¹Ġ": 2591,
      "8,Ġ": 2592,
      "Ray": 2593,
      "takatifuĠ": 2594,
      "Lag": 2595,
      "aĠn": 2596,
      "ci": 2597,
      "jÃ¹": 2598,
      "ĠáĬ¥áĪµáĬ¨Ġ": 2599,
      "eĠd'": 2600,
      "iaĠk": 2601,
      "serik": 2602,
      "Bl": 2603,
      "fl": 2604,
      "áĪĿáĪħáĪŃáīµ": 2605,
      "187": 2606,
      "adar": 2607,
      "anenĠ": 2608,
      "osh": 2609,
      "5)Ġ": 2610,
      "iya": 2611,
      "Ã¬s": 2612,
      "gud": 2613,
      "babbanĠ": 2614,
      "Ãģ": 2615,
      "daĠakaĠ": 2616,
      "ound": 2617,
      "astĠ": 2618,
      "áīµáį¢": 2619,
      "áįĥ": 2620,
      "je": 2621,
      "Ay": 2622,
      "ĠâĢľ": 2623,
      "ear": 2624,
      "áĭŃáĭĪ": 2625,
      "Ã¨reĠ": 2626,
      "idaĠ": 2627,
      "finĠ": 2628,
      "sikuĠ": 2629,
      "áīĦ": 2630,
      "oyinĠ": 2631,
      "jama'": 2632,
      "áĬķáĮįáĪĬáĭĿáĬĽ": 2633,
      "Qu": 2634,
      "filamuĠ": 2635,
      "irinĠ": 2636,
      "gbogboĠ": 2637,
      "aá¹£": 2638,
      "ech": 2639,
      "outĠ": 2640,
      "dÃ¡Ġ": 2641,
      "áĬķĠáĭŃ": 2642,
      "adiĠ": 2643,
      "Ġá»įjá»įÌģĠk": 2644,
      "fer": 2645,
      "lÃ¡Ġ": 2646,
      "kund": 2647,
      "ne,Ġ": 2648,
      "ĠofĠ": 2649,
      "ett": 2650,
      ".ĠÃĢwá»įnĠ": 2651,
      "Lugh": 2652,
      "ort": 2653,
      "ostiĠ": 2654,
      "Ku": 2655,
      "onaĠ": 2656,
      "woĠ": 2657,
      "ajalis": 2658,
      "ĠáĪ½": 2659,
      "9,Ġ": 2660,
      "ail": 2661,
      "áīĨáĮ£áĮłáĪŃ": 2662,
      "essĠ": 2663,
      "ÉĹanĠ": 2664,
      "áĭįáį¢": 2665,
      "aĠt": 2666,
      "sá»įĠ": 2667,
      "fÃŃ": 2668,
      "emi": 2669,
      "Ã¡nĠ": 2670,
      "ancinĠ": 2671,
      "Ã¨gb": 2672,
      "áĮįáĭļáĬłáī¥": 2673,
      "NigeriaĠ": 2674,
      "Ġáī¦áī³": 2675,
      "8.": 2676,
      "áĪµáī³": 2677,
      "áĮģ": 2678,
      "Georg": 2679,
      "say": 2680,
      "lÃ³rÃŃĠ": 2681,
      "jin": 2682,
      "leg": 2683,
      "iusĠ": 2684,
      "rec": 2685,
      "iyeĠ": 2686,
      "ĠáĬłáĪŃ": 2687,
      "ownĠ": 2688,
      "Ã¨sĠ": 2689,
      "Ser": 2690,
      "áī¥áĪ«": 2691,
      "rub": 2692,
      "chiniĠyaĠ": 2693,
      "NiĠ": 2694,
      "Ãī": 2695,
      "sukaĠ": 2696,
      "isiĠ": 2697,
      "Ã§": 2698,
      "wambaĠ": 2699,
      "wanam": 2700,
      "itsĠ": 2701,
      "Et": 2702,
      "jÃ¡Ġ": 2703,
      "col": 2704,
      "já»į": 2705,
      "rib": 2706,
      "Wor": 2707,
      "dab": 2708,
      "sontĠ": 2709,
      "áĮĨáī½": 2710,
      "AmerikaĠ": 2711,
      "aĠkas": 2712,
      "from": 2713,
      "i'arĠ": 2714,
      "owoĠ": 2715,
      "áĪ³áīµ": 2716,
      "áĭ¬": 2717,
      "Ã©,Ġ": 2718,
      "ejiĠ": 2719,
      "áĬŀáī½": 2720,
      "Ġá»įjá»įÌģÃ¬bÃŃĠnÃŃĠ": 2721,
      "Ingil": 2722,
      "áĪµáĬĵ": 2723,
      "ĠáĬĲáīłáĪ©": 2724,
      "wasanĠÆĻwallonĠÆĻ": 2725,
      "jiĠwaĠ": 2726,
      "ore": 2727,
      "http://": 2728,
      "Bir": 2729,
      "ani,Ġ": 2730,
      "oreĠ": 2731,
      "Af": 2732,
      "eĠduĠ": 2733,
      "Eng": 2734,
      "itu": 2735,
      "emiĠ": 2736,
      "Ġáī°áī¥": 2737,
      "Ġáīħáĭ±áĪµ": 2738,
      "2-": 2739,
      "áĪŃáĪµáī²áĭ«áĬķ": 2740,
      "histor": 2741,
      "Ġáĭ¨áīĢ": 2742,
      "uataĠ": 2743,
      "War": 2744,
      "comp": 2745,
      "ograp": 2746,
      "27": 2747,
      "Ã¬wÃ©Ġ": 2748,
      "hut": 2749,
      "(200": 2750,
      "Agb": 2751,
      "oĠchaĠ": 2752,
      "LaĠ": 2753,
      "ayÃ©Ġ": 2754,
      "Car": 2755,
      "aĠtaĠ": 2756,
      "asharik": 2757,
      "Id": 2758,
      "24": 2759,
      "oroĠ": 2760,
      "áĭķáĪ«": 2761,
      "áĮįáĭļáĬłáī¥áĪĶáĪŃ": 2762,
      "báº¹Ìģ": 2763,
      "kutokaĠMarekani": 2764,
      "³áĪµ": 2765,
      "ĠáĭŃáĮĪáĬĽ": 2766,
      "akanĠ": 2767,
      "umeĠ": 2768,
      "iam": 2769,
      "JanuariĠ": 2770,
      "kunaĠ": 2771,
      "Jamhur": 2772,
      "TazamaĠ": 2773,
      "Â«Ġ": 2774,
      "Ik": 2775,
      "Ã©esĠ": 2776,
      "Paul": 2777,
      "6)Ġ": 2778,
      "ĠáĪĿáĬŃáĬķáĭ«": 2779,
      "asoĠ": 2780,
      "ká»į": 2781,
      "áĪµáĪ«": 2782,
      "mb": 2783,
      "ĠáĪ¨": 2784,
      "anninĠ": 2785,
      "ĠáĬłáĪī": 2786,
      "iakaĠ": 2787,
      "Ã©n": 2788,
      "Ġáĭĵ/áĪĿĠ-": 2789,
      "al-": 2790,
      "ver": 2791,
      "Ã©g": 2792,
      "áī£áĪĪáĭį": 2793,
      "fa": 2794,
      "hiz": 2795,
      "JulaiĠ": 2796,
      "Ġáº¹ÌĢká»įÌģĠ": 2797,
      "'Ġ": 2798,
      "auxĠ": 2799,
      "Ã¬nrinĠ": 2800,
      "áĭ¶áī½": 2801,
      "Fil": 2802,
      "ĠáĬ¨áĪĺ": 2803,
      "áĪº": 2804,
      "ráº¹Ġ": 2805,
      "ĠáīłáĭļáĪħ": 2806,
      "abil": 2807,
      "Muhamm": 2808,
      "áĮ¥áĬķ": 2809,
      "yÃŃ": 2810,
      "kuuĠ": 2811,
      "wo": 2812,
      "whi": 2813,
      "uxĠ": 2814,
      "áĮ£áĪį": 2815,
      "áĮįáĪ«": 2816,
      "atuĠ": 2817,
      "áī¤áīµ": 2818,
      "Ã¬já»įbaĠ": 2819,
      "eraĠ": 2820,
      "MwakaĠ": 2821,
      "umaĠ": 2822,
      "orn": 2823,
      "ime": 2824,
      "amfaniĠ": 2825,
      "áĬķáĬķ": 2826,
      "bin": 2827,
      "iĠwaĠm": 2828,
      "\"Ġ(": 2829,
      "Afric": 2830,
      "áĬŃáīµ": 2831,
      "is,Ġ": 2832,
      "áĮĪáĬĵ": 2833,
      "Mon": 2834,
      "okeaĠ": 2835,
      "ki": 2836,
      "omin": 2837,
      "Wakrist": 2838,
      "andĠtheĠ": 2839,
      "Ġáĭ¨áĭĪ": 2840,
      "ofinĠ": 2841,
      "wandishiĠ": 2842,
      ",000": 2843,
      "wÃ²": 2844,
      "kumaĠm": 2845,
      "tan": 2846,
      "ogunĠ": 2847,
      "MtakatifuĠ": 2848,
      "dig": 2849,
      "LesĠ": 2850,
      "ĠAgostiĠ": 2851,
      "áĮĪáī£": 2852,
      "7)Ġ": 2853,
      "achiĠ": 2854,
      "ĠáĬ¥.áĬ¤.áĬł.": 2855,
      "Pet": 2856,
      "áī³áĭŃ": 2857,
      "aisĠwaĠ": 2858,
      "wanz": 2859,
      "kunĠ": 2860,
      "iaĠnaĠ": 2861,
      "shineĠ": 2862,
      "áĬĸáĪŃ": 2863,
      "Ġáĭ¨áĬĲáīłáĪ¨": 2864,
      "nÃŃgbÃł": 2865,
      "áĬĴáĭ«": 2866,
      "ashenĠ": 2867,
      "with": 2868,
      "br": 2869,
      "Amur": 2870,
      "ĠáĬŃáįįáĪį": 2871,
      "bÃŃiĠ": 2872,
      "niĠÃ³Ġ": 2873,
      "agharib": 2874,
      "atunĠ": 2875,
      "gar": 2876,
      "Ãłp": 2877,
      "en,Ġ": 2878,
      "ĠtÃºnĠ": 2879,
      "26": 2880,
      "4)Ġ": 2881,
      "imat": 2882,
      "ukĠ": 2883,
      "Ãºká»įĠ": 2884,
      "ĠáĪŃ": 2885,
      "hiyoĠ": 2886,
      "Ġáĭ²": 2887,
      "áĪľáĬķ": 2888,
      "NÃŃĠá»įdÃºnĠ": 2889,
      "If": 2890,
      "cinĠ": 2891,
      "aĠkanĠ": 2892,
      "ĠáĭŃáī£": 2893,
      "Lib": 2894,
      "istĠ": 2895,
      "samuĠ": 2896,
      "áĭ°áĪ¨áĮĪ": 2897,
      "Mut": 2898,
      "Ij": 2899,
      "áĮ½áĪĲáįį": 2900,
      "elek": 2901,
      "áĪĪáī°": 2902,
      "has": 2903,
      "lor": 2904,
      "ĠáĬłáĬ«áī£áī¢": 2905,
      "gbá»įÌģnĠ": 2906,
      "And": 2907,
      "Ġ/": 2908,
      "áº¹ÌĢká»įÌģĠ": 2909,
      "áĬķáį¡": 2910,
      "iceĠ": 2911,
      "gáº¹Ìģgáº¹ÌģĠbÃŃĠ": 2912,
      "wÃŃ": 2913,
      "yoĠ": 2914,
      "áĪ«áĪį": 2915,
      "ĠáĬ¥áĬķáĮį": 2916,
      "âĢĺ": 2917,
      "LÃ¡": 2918,
      "jÃº": 2919,
      "ĠH": 2920,
      "10Ġ": 2921,
      "iniĠm": 2922,
      "Ç¹": 2923,
      "mp": 2924,
      "Ġáįĸ": 2925,
      "wigiz": 2926,
      "áī£áĭŃ": 2927,
      "ini.": 2928,
      "yp": 2929,
      "ViungoĠvyaĠnjeĠ": 2930,
      "alm": 2931,
      "alip": 2932,
      "28": 2933,
      "her": 2934,
      "alam": 2935,
      "ĠK": 2936,
      "áĪįáīħ": 2937,
      "cent": 2938,
      "dayaĠ": 2939,
      "Man": 2940,
      "rah": 2941,
      "shindiĠwaĠTuzoĠyaĠNobelĠyaĠTib": 2942,
      "Ã³nĠ": 2943,
      "siy": 2944,
      "atolikiĠ": 2945,
      "vil": 2946,
      "k.": 2947,
      "áĬķáĮĭ": 2948,
      "áĪŃáĭĿ": 2949,
      "anzaĠ": 2950,
      "Ã©kerÃ©Ġ": 2951,
      "áĮĪáĬķ": 2952,
      "eweĠ": 2953,
      "sehemuĠyaĠ": 2954,
      "onn": 2955,
      "ĠáĬłáīĨáĮ£áĮłáĪŃ": 2956,
      "umiaĠ": 2957,
      "For": 2958,
      "ini": 2959,
      "wá»įÌģĠ": 2960,
      "saiĠ": 2961,
      "als": 2962,
      "ĠáĮįáĭĽáīµ": 2963,
      "Jos": 2964,
      "juuĠyaĠ": 2965,
      "AfirkaĠ": 2966,
      ".ĠItokasi": 2967,
      "lil": 2968,
      "áīĢáĪŃ": 2969,
      "Amáº¹ÌģrÃŃkÃł": 2970,
      "al'": 2971,
      "aniĠyaĠ": 2972,
      "áĪ¨áĮį": 2973,
      "ĠáĬłáĬķáĭ±": 2974,
      "wá»įÌĢ": 2975,
      "Ã©l": 2976,
      "eĠdeĠ": 2977,
      "áĮłáīĥ": 2978,
      "itionĠ": 2979,
      "ĠáĬ¥áĭ«": 2980,
      "avecĠ": 2981,
      "akinĠ": 2982,
      "NÃłÃ¬jÃŃrÃŃÃł.": 2983,
      "uzikiĠ": 2984,
      "utarĠ": 2985,
      "KwaĠ": 2986,
      "áĭµáĪŀ": 2987,
      "lÃ³g": 2988,
      "19Ġ": 2989,
      "enoĠ": 2990,
      "áįĪáĪŃ": 2991,
      "ine": 2992,
      "áĮĪáĪĪ": 2993,
      "ĠáĬ¥áĬķáĭ°áĪļ": 2994,
      "ionsĠ": 2995,
      "ojaĠ": 2996,
      "áĮİáĪŃ": 2997,
      "wasanĠÆĻwallonĠÆĻafaĠtaĠ": 2998,
      "ĠáĬłáĪĭ": 2999,
      "usiĠ": 3000,
      "3)Ġ": 3001,
      "áī³áĪį": 3002,
      "Mas": 3003,
      "ĠáĬ¨áī°áĪŀáī½": 3004,
      "á»įÌģkasÃŃĠ": 3005,
      "tÃŃ": 3006,
      "vol": 3007,
      "keĠ": 3008,
      "áįĢ": 3009,
      "áĭŃáĬĵ": 3010,
      "iyanĠ": 3011,
      "lÃ¡n": 3012,
      "eyĠ": 3013,
      "shenĠ": 3014,
      "oisĠ": 3015,
      "Se": 3016,
      "Brit": 3017,
      "Ipin": 3018,
      "áīµáĪŃ": 3019,
      "waf": 3020,
      "á»įÌģÃ¬d": 3021,
      "áº¹Ìģrá»įÌģÃ¬d": 3022,
      "baadaĠyaĠ": 3023,
      "áĭ°áīµ": 3024,
      "áį£ĠáĬ¨": 3025,
      "rew": 3026,
      "Ã¡st": 3027,
      "us,Ġ": 3028,
      "IS": 3029,
      "wÃłĠnÃŃĠ": 3030,
      "Ã¡stáº¹Ìģrá»įÌģÃ¬d": 3031,
      "Ir": 3032,
      "JuniĠ": 3033,
      "Ġáº¹láº¹Ìģ": 3034,
      "ajalisarĠ": 3035,
      "lÃ³Ġ": 3036,
      "ĠáĬĥáĭŃ": 3037,
      "ojo": 3038,
      "asheĠ": 3039,
      "Eb": 3040,
      "ĠáĪ¶": 3041,
      "Kir": 3042,
      "wÃ²Ġ": 3043,
      "Uch": 3044,
      "ubaĠ": 3045,
      "ingĠtheĠ": 3046,
      "kutokaĠMarekaniĠ": 3047,
      "Eur": 3048,
      "áĬĺ": 3049,
      "Franc": 3050,
      "Ġáº¹gbáº¹ÌģĠ": 3051,
      "wasanĠÆĻwallonĠÆĻafaĠtaĠÆĻasarĠ": 3052,
      "hiop": 3053,
      "Kib": 3054,
      "soci": 3055,
      "ĠF": 3056,
      "LughaĠ": 3057,
      "áī¥áĪµ": 3058,
      "áĪĽáĬĸ": 3059,
      "sannanĠ": 3060,
      "daĠt": 3061,
      "Od": 3062,
      "peke": 3063,
      "áĭ¨áīµ": 3064,
      "endeleaĠ": 3065,
      "adil": 3066,
      "indiĠ": 3067,
      "ĠáĪģáĪĪáīµ": 3068,
      "ĠáĭĺáĪĺ": 3069,
      "áĪı": 3070,
      "áĪĳ": 3071,
      "tÃ¬Ġk": 3072,
      "eniĠ": 3073,
      "ĠáĭŃáī½": 3074,
      "40": 3075,
      "áĬŃáĪµ": 3076,
      "orÃŃláº¹ÌĢĠ": 3077,
      "Ã¹ĠK": 3078,
      "Mis": 3079,
      "áĪĪáĭ«áĭ©": 3080,
      "29": 3081,
      "lâĢĻ": 3082,
      "ungiyarĠ": 3083,
      "áĪ°áĪ«": 3084,
      "ĠáĪĽáĪŃ": 3085,
      "kungiyarĠ": 3086,
      "mÃ¬n": 3087,
      "aim": 3088,
      "wish": 3089,
      "Of": 3090,
      "Ġáĭ©": 3091,
      "lÃ¡raĠ": 3092,
      "wilayaĠ": 3093,
      "áĬ¬": 3094,
      "Ã²k": 3095,
      "uss": 3096,
      "UnitedĠ": 3097,
      "odeĠ": 3098,
      "pÃ¨Ġ": 3099,
      "udiĠ": 3100,
      "Haus": 3101,
      "185": 3102,
      "wasuĠ": 3103,
      "ĠáĪ¸": 3104,
      "Ġáī´": 3105,
      "lakeĠ": 3106,
      "shekararĠ201": 3107,
      "ĠáĪĿáĬķáĮ": 3108,
      "sĠandĠ": 3109,
      "Ã¡stáº¹Ìģrá»įÌģÃ¬dÃ¬": 3110,
      "mÃ©j": 3111,
      "áº¸": 3112,
      "emp": 3113,
      "yenyeĠ": 3114,
      "FebruariĠ": 3115,
      "ika.": 3116,
      "áĭĸ": 3117,
      "áīµĠáĬ¨": 3118,
      "áĪĪáĭŃ": 3119,
      "nÃŃĠibiĠ": 3120,
      "omiĠ": 3121,
      "Char": 3122,
      "ishaĠm": 3123,
      "ĠáĬłáīłáī£": 3124,
      "atedĠ": 3125,
      "oph": 3126,
      "shindiĠwaĠTuzoĠyaĠNobelĠyaĠFizik": 3127,
      "1)Ġ": 3128,
      "ÃłkÃ³": 3129,
      "aĠyaĠm": 3130,
      "rá»įÌĢĠ": 3131,
      "publ": 3132,
      "hab": 3133,
      "elop": 3134,
      "ĠáĪĮáĪĭ": 3135,
      "aĠkwaĠm": 3136,
      "áĪĺáĪ¨": 3137,
      "edĠtheĠ": 3138,
      ",000Ġ": 3139,
      "wÃ©Ġ": 3140,
      "ĠáĭĪáīħ": 3141,
      "ĠáĭĺáĪĺáĬĲ": 3142,
      "qu'": 3143,
      "anĠhaifeĠshiĠ": 3144,
      "yÃ©Ġ": 3145,
      "áīµĠáĬł": 3146,
      "bÃ¹nĠ": 3147,
      "asiasaĠ": 3148,
      "ĠáĮ¦áĪŃáĬĲáīµ": 3149,
      "erĠ(": 3150,
      "ĠáĭĵáĪĺáī³áīµ": 3151,
      "wa.": 3152,
      "iaĠ(": 3153,
      "³áį": 3154,
      "ĠnaĠ": 3155,
      "áĪŃáĪĺáĬķ": 3156,
      "ĠáĬ¥áĬĵĠáĭ¨": 3157,
      "ĠáĪĥáĭŃ": 3158,
      "na": 3159,
      "esĠdeĠ": 3160,
      "áī±áĪĿ": 3161,
      "asharaĠ": 3162,
      "áĪĿáĪŃ": 3163,
      "UlayaĠ": 3164,
      "áĮįáī£": 3165,
      "ashiĠ": 3166,
      "whichĠ": 3167,
      "Nd": 3168,
      "áĭ°áĪį": 3169,
      "áĪªáĬ«áĭĬ": 3170,
      "Ug": 3171,
      "áĪįáĮį": 3172,
      "Worl": 3173,
      "lá»įĠsÃŃĠ": 3174,
      "Pl": 3175,
      "ĠáĪµáĪ«": 3176,
      "ĠáĪµáĪŃ": 3177,
      "yaĠKem": 3178,
      "wandaĠyaĠ": 3179,
      "Ap": 3180,
      "Mad": 3181,
      "jáº¹ÌģĠp": 3182,
      "IpinleĠ": 3183,
      "Uk": 3184,
      "lÃº": 3185,
      "Ġáĭ¨áĪĺáĮĢáĪĺáĪªáĭ«": 3186,
      "áĮłáĪ¨": 3187,
      "Ùħ": 3188,
      "22": 3189,
      "dr": 3190,
      "onÃŃ": 3191,
      "ĠáĪ²áĭ«": 3192,
      "ĠáĬłáĭŃáĬĲáīµ": 3193,
      "Lond": 3194,
      "kiĠ": 3195,
      "AĠcikinĠ": 3196,
      "Mor": 3197,
      "kan": 3198,
      "áĪįáĭµ": 3199,
      "esĠ(": 3200,
      "Cr": 3201,
      "Rob": 3202,
      "w.": 3203,
      "Ãłá¹£": 3204,
      "terĠ": 3205,
      "aĠkamaĠ": 3206,
      "UjerumaniĠ": 3207,
      "akarĠ": 3208,
      "niĠwá»įÌģnĠ": 3209,
      "ojoibiĠ": 3210,
      "allyĠ": 3211,
      "autiĠ": 3212,
      "lÃ¡náº¹Ìģ": 3213,
      "áĪĭáĪĪ": 3214,
      "Waliozali": 3215,
      "tonĠ": 3216,
      "ubwaĠ": 3217,
      "ĠáĬłáĪ¨": 3218,
      "oĠkatikaĠ": 3219,
      "itÃ©Ġ": 3220,
      "aun": 3221,
      "ment": 3222,
      "já»įÌģ": 3223,
      "áĪŃáĭµ": 3224,
      "acceĠ": 3225,
      "ahaif": 3226,
      "áĪĲáĬķáĪµ": 3227,
      "Oc": 3228,
      "ĠáĬĲáīłáĪ¨áį¢": 3229,
      "eziĠ": 3230,
      "JinaĠ": 3231,
      "Dec": 3232,
      "Pe": 3233,
      "jÃ¡deĠ": 3234,
      "ishiĠwaĠ": 3235,
      "KatikaĠ": 3236,
      "áĭĵáĪĪáĪĿ": 3237,
      "ĠáĭŃáī³": 3238,
      "ĠáĭĽ": 3239,
      "ilom": 3240,
      "áĭ®áĬķ": 3241,
      "áĭįĠáīł": 3242,
      "kuz": 3243,
      "Ã¬gb": 3244,
      "Ġáį²áį±áį»áį": 3245,
      "áīłáī¥": 3246,
      "ĠMachiĠ": 3247,
      "ManazartaĠ": 3248,
      "áĬĲáĮĪáĪŃ": 3249,
      ",ĠÃ³Ġ": 3250,
      "aĠh": 3251,
      "iiĠ": 3252,
      "áĪĿáį¡": 3253,
      "umm": 3254,
      "áĭįáĪ®áįĵ": 3255,
      "ishwaĠ": 3256,
      "Ã¬gbÃłjÃ¡Ġ": 3257,
      "má»įÌģ": 3258,
      "UingerezaĠ": 3259,
      "tÃ¬ĠkÃ©kerÃ©Ġ": 3260,
      "fÃºn": 3261,
      "ukanĠ": 3262,
      "landĠ": 3263,
      "Tanzania": 3264,
      "awoĠ": 3265,
      "ĠáĭĪáĪŃ": 3266,
      "Per": 3267,
      "aliĠyaĠ": 3268,
      "ĠáĬĲáĮĪáĪ¥áī³áīµ": 3269,
      "sÃŃláº¹ÌĢĠ": 3270,
      "ar.": 3271,
      "adiĠyaĠ": 3272,
      "áįįáĪ«": 3273,
      "lÃ¡náº¹ÌģtÃ¬ĠkÃ©kerÃ©Ġ": 3274,
      "jinaĠlaĠ": 3275,
      "etaĠ": 3276,
      "ĠáĪĮáĪİáī½": 3277,
      "ĠMeiĠ": 3278,
      "shugabanĠ": 3279,
      "ĠáĬ³áĪµ": 3280,
      "ĠáĪłáĪ": 3281,
      "Jami'arĠ": 3282,
      "bug": 3283,
      "bas": 3284,
      "www.": 3285,
      "ĠApriliĠ": 3286,
      "iĠkamaĠ": 3287,
      "nÃŃĠibiĠÃ¬gbÃłjÃ¡Ġ": 3288,
      "sur": 3289,
      "áĮĢáĪĺáĪŃáĭ«": 3290,
      "ĠáĬ¥áĪŃ": 3291,
      "Ã¬pÃŃnláº¹ÌĢĠ": 3292,
      "á¹£eĠ": 3293,
      "Ã¨gbÃ¨Ġ": 3294,
      "duniyaĠ": 3295,
      "lÃ¡náº¹ÌģtÃ¬ĠkÃ©kerÃ©ĠnÃŃĠibiĠÃ¬gbÃłjÃ¡Ġ": 3296,
      "ainĠ": 3297,
      "kuk": 3298,
      "ĠáĬ¥áĮħ": 3299,
      "by": 3300,
      "kamaĠ": 3301,
      "aĠaĠ": 3302,
      "áĪĭáĪĿ": 3303,
      "lÃ¡náº¹ÌģtÃ¬ĠkÃ©kerÃ©ĠnÃŃĠibiĠÃ¬gbÃłjÃ¡ĠÃ¡stáº¹Ìģrá»įÌģÃ¬dÃ¬": 3304,
      "ĠáĪĽáĪµ": 3305,
      "Ã´": 3306,
      "aĠmwakaĠwaĠ": 3307,
      "áĭĮ": 3308,
      "akwaiĠ": 3309,
      "red": 3310,
      "cour": 3311,
      "Her": 3312,
      "ĠáĬ©": 3313,
      "60": 3314,
      "ĠtÃŃ": 3315,
      "áīµáį£": 3316,
      "jáº¹ÌģĠplÃ¡náº¹ÌģtÃ¬ĠkÃ©kerÃ©ĠnÃŃĠibiĠÃ¬gbÃłjÃ¡ĠÃ¡stáº¹Ìģrá»įÌģÃ¬dÃ¬": 3317,
      "cons": 3318,
      "car": 3319,
      "treĠ": 3320,
      "ĠáĪĽáĪĪáīµĠáĬĲáĭįáį¢": 3321,
      "bayaĠ": 3322,
      "2)Ġ": 3323,
      "Min": 3324,
      "iliĠyaĠ": 3325,
      "ustĠ": 3326,
      "áĬĵĠáĭ¨": 3327,
      "The": 3328,
      "fur": 3329,
      "®áī½": 3330,
      "zab": 3331,
      "ĠáĪįáĭ©": 3332,
      "áīłáĪĭ": 3333,
      "reg": 3334,
      "áį¦Ġ": 3335,
      "hanyarĠ": 3336,
      "inat": 3337,
      "odaĠ": 3338,
      "oleĠ": 3339,
      "áĪµáĪĪ": 3340,
      "áĭ°áī¡áī¥": 3341,
      "orÃŃláº¹ÌĢĠÃ¨dÃ¨Ġ": 3342,
      "orÃŃĠ": 3343,
      "áĮ£áĪĿ": 3344,
      "una": 3345,
      "gabaĠ": 3346,
      "áįĪáĪ¨áĬķ": 3347,
      "aikinĠ": 3348,
      "amad": 3349,
      "ĠáĪĿáĭµáĪŃ": 3350,
      "May": 3351,
      "haÉĹ": 3352,
      "anb": 3353,
      "ÃłbÃŃĠ": 3354,
      "áĬĵĠáīł": 3355,
      "pakaĠ": 3356,
      "atĠtheĠ": 3357,
      "Hu": 3358,
      "ostĠ": 3359,
      "áī¶áĪµ": 3360,
      "io": 3361,
      "iakaĠm": 3362,
      "ongoĠ": 3363,
      "gwamn": 3364,
      "i)Ġ": 3365,
      "aká»į": 3366,
      "shekaruĠ": 3367,
      "Gab": 3368,
      "áĪªáĭİáī½": 3369,
      "wakatiĠwaĠ": 3370,
      "Sout": 3371,
      "áĭĪáĭ°": 3372,
      "DolaĠ": 3373,
      "Marej": 3374,
      "Ã¬má»įÌĢĠ": 3375,
      "ifuat": 3376,
      "184": 3377,
      "sit": 3378,
      "ĠáĪĿáĬķ": 3379,
      "ini,Ġ": 3380,
      "2020": 3381,
      "VĠ": 3382,
      "Ġtr": 3383,
      "wereĠ": 3384,
      "ĠáĭķáĪĪáīµ": 3385,
      "ojÃºĠ": 3386,
      "ful": 3387,
      "omeĠ": 3388,
      "5Ġ-Ġ": 3389,
      "AfricanĠ": 3390,
      "áĮ¨áĪĽáĪª": 3391,
      "NationalĠ": 3392,
      "ĠáĭĻ": 3393,
      "Ġáĭľ": 3394,
      "zinaz": 3395,
      "3-": 3396,
      "endaĠ": 3397,
      "Ã¡t": 3398,
      "Ã²á¹£": 3399,
      "áīĢáīµ": 3400,
      "ungan": 3401,
      "School": 3402,
      "NewĠYor": 3403,
      "Stat": 3404,
      "áĭ«áĭį": 3405,
      "áĭ²áĪµĠáĬłáīłáī£": 3406,
      "i:Ġ": 3407,
      "okuwaĠ": 3408,
      "Yun": 3409,
      "pat": 3410,
      "áĭİáĪµ": 3411,
      "laĠk": 3412,
      "Shugab": 3413,
      "áĬ¨áĭļáĪħ": 3414,
      "áĮ¢": 3415,
      "ÃłĠlaĠ": 3416,
      "9)Ġ": 3417,
      "Ãłti": 3418,
      "áī²áĬ«": 3419,
      "wur": 3420,
      "mÃŃ": 3421,
      "anyaĠ": 3422,
      "Re": 3423,
      "Ger": 3424,
      "dÃ©Ġ": 3425,
      "áĪĭáīħ": 3426,
      "ĠáĬłáĭį": 3427,
      "áĪ¹": 3428,
      "ultur": 3429,
      "oir": 3430,
      "aĠK": 3431,
      "NÃŃĠ": 3432,
      "ÙĬ": 3433,
      "ener": 3434,
      "Farans": 3435,
      "Wah": 3436,
      "unguĠ": 3437,
      "Pop": 3438,
      "sababuĠ": 3439,
      "eneoĠlaĠ": 3440,
      "wengiĠ": 3441,
      "má»įÌĢ": 3442,
      "old": 3443,
      "Waliofariki": 3444,
      "Ã³ĠtiĠ": 3445,
      "thatĠ": 3446,
      "jag": 3447,
      "áĬ¨áĪĪ": 3448,
      "shindiĠwaĠTuzoĠyaĠNobelĠyaĠKem": 3449,
      "sikuĠyaĠ": 3450,
      "iny": 3451,
      "aduĠ": 3452,
      "Sik": 3453,
      "30Ġ": 3454,
      "ĠáĬ¨áįįáī°áĬĽ": 3455,
      "ĠáĪĽáĭķ": 3456,
      "Waliozaliwa": 3457,
      "Ã²á¹£Ã¨rÃ©": 3458,
      "HeĠ": 3459,
      "e:Ġ": 3460,
      ".ĠK": 3461,
      "hivyoĠ": 3462,
      "Leg": 3463,
      "ĠáīĥáĪį": 3464,
      "lÃ¡ti": 3465,
      "Ġáī¥áĪİ": 3466,
      "ensĠ": 3467,
      "áĪĭáĭĬ": 3468,
      "yáº¹": 3469,
      "Wh": 3470,
      "áĪĭáĬŃ": 3471,
      "áĭ°áĪĿ": 3472,
      "áīłáĪį": 3473,
      "Roma,Ġ": 3474,
      "áī«": 3475,
      "ziliz": 3476,
      "esab": 3477,
      "áĮįáĪŃĠáĬ³áĪµ": 3478,
      "Be": 3479,
      "100": 3480,
      "¹¢": 3481,
      "wacceĠ": 3482,
      "anaĠnaĠm": 3483,
      "gbajÃº": 3484,
      "iĠkar": 3485,
      "ĠáĬłáĪµáī°áĭ³": 3486,
      "utawalaĠ": 3487,
      "UniversityĠofĠ": 3488,
      "King": 3489,
      "Part": 3490,
      "arenĠ": 3491,
      "má»į": 3492,
      "ominĠ": 3493,
      "áīłáĭļáĪħ": 3494,
      "Ã¨tÃ²Ġ": 3495,
      "áĬĵĠáĪĺ": 3496,
      "oduc": 3497,
      "áĬ¢áīµáĭ®áĮµáĭ«": 3498,
      "atikaĠk": 3499,
      "Kit": 3500,
      "Ts": 3501,
      "ĠáīµáĪĿáĪħáĪŃáīµ": 3502,
      "egeĠ": 3503,
      "Mt": 3504,
      "awai": 3505,
      "ĠáĪĪáĪĿ": 3506,
      "hukoĠ": 3507,
      "Europ": 3508,
      "áīµĠáį": 3509,
      "allĠ": 3510,
      "lĠ": 3511,
      "wenyeĠm": 3512,
      "áī¨": 3513,
      "ĠáĬłáĪ«": 3514,
      "áīĢáĪĺ": 3515,
      "ham": 3516,
      "aĠS": 3517,
      "atinĠ": 3518,
      "roup": 3519,
      "tob": 3520,
      "Ã²á¹£Ã¨rÃ©Ġ": 3521,
      "ilion": 3522,
      "áĪĬáĭ«": 3523,
      "laf": 3524,
      "Ethiop": 3525,
      "Ġáīłáī¥": 3526,
      "ĠáĭĭáĬĵĠáĬ¨áī°áĪĽ": 3527,
      "Igb": 3528,
      "abilaĠ": 3529,
      "Ġáī°áĪ«": 3530,
      "kal": 3531,
      "Ã©c": 3532,
      "áīĢáĭį": 3533,
      "Di": 3534,
      "Ġáī£áĪħ": 3535,
      "MwakaĠwaĠ": 3536,
      "ariĠwaĠ": 3537,
      "nyingiĠ": 3538,
      "80": 3539,
      "ux": 3540,
      "ajiĠwaĠfilamuĠ": 3541,
      "pop": 3542,
      "Ġáĭ¨áĮį": 3543,
      "áĭ®áī½": 3544,
      "Kiswah": 3545,
      "nÃłĠ": 3546,
      "ÃłgbÃ©": 3547,
      "edĠinĠ": 3548,
      "nÃ¬": 3549,
      "Ãºgb": 3550,
      "kumaĠtaĠ": 3551,
      "Ã¡r": 3552,
      "utiĠ": 3553,
      "amfaninĠ": 3554,
      "dis": 3555,
      "ableĠ": 3556,
      "akos": 3557,
      "suk": 3558,
      "Op": 3559,
      "Waz": 3560,
      "Ã¬nĠ": 3561,
      "edĠbyĠ": 3562,
      "ĠáĪĦ": 3563,
      "áįĮ": 3564,
      "afr": 3565,
      "ys": 3566,
      "Ġ(áĬ¨": 3567,
      "fáº¹ÌģĠ": 3568,
      "ĠØ": 3569,
      "chang": 3570,
      "stit": 3571,
      "nÃŃbiĠ": 3572,
      "aguz": 3573,
      "ukuĠ": 3574,
      "TazamaĠpiaĠ": 3575,
      "Hisp": 3576,
      "daĠtaĠ": 3577,
      "áĭĪáĮ£": 3578,
      "utuĠ": 3579,
      "waĠkatikaĠ": 3580,
      "áįįáĪªáĬ«": 3581,
      "On": 3582,
      "serv": 3583,
      "Uingerez": 3584,
      "áī³áĭį": 3585,
      "atib": 3586,
      "umbaĠ": 3587,
      "oĠsiĠ": 3588,
      "sÃ¬nĠ": 3589,
      "Kad": 3590,
      "imaĠ": 3591,
      "Ġáĭ®áĪĲáĬķáĪµ": 3592,
      "eurĠ": 3593,
      "lik": 3594,
      "1Ġ-Ġ": 3595,
      "Ġáī¥áĪŃ": 3596,
      "1,": 3597,
      "ryĠ": 3598,
      "AwonĠ": 3599,
      "adayeĠ": 3600,
      "áīłáĪ«": 3601,
      "8)Ġ": 3602,
      "wanaf": 3603,
      "jáº¹ÌģĠplÃ¡náº¹ÌģtÃ¬ĠkÃ©kerÃ©ĠnÃŃĠibiĠÃ¬gbÃłjÃ¡ĠÃ¡stáº¹Ìģrá»įÌģÃ¬dÃ¬.ĠItokasiĠ": 3604,
      "ÃłĠl'": 3605,
      "Abd": 3606,
      "áĮĬáĭľ": 3607,
      "arĠm": 3608,
      "tain": 3609,
      ".ĠB": 3610,
      "imoĠ": 3611,
      "Ġ(áĬ¥": 3612,
      "IlĠ": 3613,
      "olon": 3614,
      "enz": 3615,
      "oaĠ": 3616,
      "WorldĠ": 3617,
      "esĠetĠ": 3618,
      "owĠ": 3619,
      "mÃºĠ": 3620,
      "al,Ġ": 3621,
      "ĠáĬłáĪĽ": 3622,
      "inter": 3623,
      "aĠyaĠk": 3624,
      "o:Ġ": 3625,
      "áĬĸáĪµ": 3626,
      "iyyarĠ": 3627,
      "áīłáī°": 3628,
      "ojaĠwaĠ": 3629,
      "áĪ³áĭĬ": 3630,
      "ĠáĬ¨áĪļ": 3631,
      "EnĠ": 3632,
      "cont": 3633,
      "uĠzaĠ": 3634,
      "eny": 3635,
      "akatifuĠ": 3636,
      "Ġáį¡áį¡": 3637,
      "áĮĪáĪ©": 3638,
      "ĠáĪ¥áĪ«": 3639,
      "ĠáĭŃáī³áĭĪ": 3640,
      "9Ġ-Ġ": 3641,
      "s'": 3642,
      "Dr": 3643,
      "jiniĠ": 3644,
      "yÃ³": 3645,
      "áĪ«áĪ±": 3646,
      ".ĠManazartaĠ": 3647,
      "Colleg": 3648,
      "AareĠ": 3649,
      "ier": 3650,
      "Musul": 3651,
      "butĠ": 3652,
      "RomaĠ": 3653,
      "IIĠ": 3654,
      "rat": 3655,
      "sĠdeĠ": 3656,
      "ĠkwaĠ": 3657,
      "toĠtheĠ": 3658,
      "Ġ(áĭ¨": 3659,
      "tit": 3660,
      "ĠáĬ£": 3661,
      "Dav": 3662,
      "sheĠ": 3663,
      "yad": 3664,
      "Og": 3665,
      ")Ġáĭ¨": 3666,
      "má»įÌģĠ": 3667,
      "áĬķáī²": 3668,
      "ĠáĬ¥áĬķáĭ²áĪģáĪĿ": 3669,
      "WilayaĠ": 3670,
      "nom": 3671,
      "áĪĿáį£": 3672,
      "áī£áī¸áĭį": 3673,
      "commeĠ": 3674,
      "Os": 3675,
      "awa,Ġ": 3676,
      "Kil": 3677,
      "wa,Ġ": 3678,
      "abl": 3679,
      "un,Ġ": 3680,
      "Kim": 3681,
      "pÃł": 3682,
      "tsakaninĠ": 3683,
      "áĪ³áī¥": 3684,
      "alik": 3685,
      "InternationalĠ": 3686,
      "uis": 3687,
      "Ng": 3688,
      "fas": 3689,
      "aĠma": 3690,
      "wakil": 3691,
      "kuanziaĠ": 3692,
      "ĠáīĭáĬķáīĭáĭİáī½": 3693,
      "Wam": 3694,
      "Ã®": 3695,
      "Ġ4": 3696,
      "Ã¡l": 3697,
      "atiĠyaĠm": 3698,
      "niĠnaĠ": 3699,
      "ahariĠ": 3700,
      "overn": 3701,
      "Kal": 3702,
      "áĭĪáĪ°": 3703,
      "KenyaĠ": 3704,
      "Atl": 3705,
      "nÃ¡Ãł": 3706,
      "ait": 3707,
      "ÙĨ": 3708,
      "yÃłĠ": 3709,
      "erÃ©": 3710,
      "ition": 3711,
      "angaz": 3712,
      "hat": 3713,
      "waĠniĠ": 3714,
      "Mag": 3715,
      "áĪ¬áīµ": 3716,
      "7Ġ-Ġ": 3717,
      "NigerianĠ": 3718,
      "12Ġ": 3719,
      "ĠáĪ±": 3720,
      "oloj": 3721,
      "gÃŃ": 3722,
      "ĠáĪĪáĬł": 3723,
      "70": 3724,
      "áĪįáĪµ": 3725,
      "kutokaĠnchiĠyaĠ": 3726,
      "Ġáĭ¶": 3727,
      "WakristoĠ": 3728,
      "eriaĠ": 3729,
      "akoĠ": 3730,
      "ĠáĬ¨áĭļáĭ«": 3731,
      "itaĠceĠ": 3732,
      "otherĠ": 3733,
      "anis": 3734,
      "ĠáĬłáĪľáĪªáĬ«": 3735,
      "MkoaĠwaĠ": 3736,
      "iĠdaĠ": 3737,
      "áĬĸáĪ©": 3738,
      "NijeriyaĠ": 3739,
      "ight": 3740,
      "shindiĠwaĠTuzoĠyaĠNobelĠyaĠTibaĠmwakaĠwaĠ": 3741,
      "Bab": 3742,
      "aĠc": 3743,
      "Ġáĭ°áĪ¨áĮĥ": 3744,
      "ĠáĭĪáĬķáĭµ": 3745,
      "Ġkm": 3746,
      "kir": 3747,
      "áĭĲ": 3748,
      "oĠkwaĠ": 3749,
      "Najeriya.": 3750,
      "âĢİ": 3751,
      "inĠs": 3752,
      "ĠáĪª": 3753,
      "Ġáī½": 3754,
      "áĭŃáĬķ": 3755,
      "áįĪáĭį": 3756,
      "ref": 3757,
      "istanĠ": 3758,
      "lo": 3759,
      "ĠáĪĺáĮł": 3760,
      "ĠáĪĨáĬĲáį¢": 3761,
      "ĠáĭĵáĬŃáĪįáīł.ĠáĮį": 3762,
      "8-": 3763,
      "hor": 3764,
      "áįĭáīµ": 3765,
      "BaadaĠyaĠ": 3766,
      "ĠáĬłáĭµáĪŃ": 3767,
      "eliĠ": 3768,
      "6-": 3769,
      "ÃĮj": 3770,
      "n,Ġ": 3771,
      "]Ġ": 3772,
      "Ġáĭ¨áĪħ": 3773,
      "Ph": 3774,
      "Lak": 3775,
      "ertĠ": 3776,
      "oloniĠ": 3777,
      "kutokanaĠnaĠ": 3778,
      "fromĠtheĠ": 3779,
      "famil": 3780,
      "áĪĪáĭ°": 3781,
      "ĠáĪĺáĪ°": 3782,
      "Ġáĭ«áĪµ": 3783,
      "Ex": 3784,
      "15Ġ": 3785,
      "orÃºká»įĠ": 3786,
      "iweĠ": 3787,
      "Ah": 3788,
      "Bal": 3789,
      "yanz": 3790,
      "áįĲ": 3791,
      "garinĠ": 3792,
      "sch": 3793,
      "Ber": 3794,
      "notĠ": 3795,
      "Ġáĭ¨áĬ¤": 3796,
      "Comm": 3797,
      "ilip": 3798,
      "áĪĬáĬŃ": 3799,
      "TareheĠ": 3800,
      "icsĠ": 3801,
      "kumb": 3802,
      "Wal": 3803,
      "ĠáĪ¥áĬĲ": 3804,
      "DagaĠ": 3805,
      "áĪŃáĪµáī¶áĪµ": 3806,
      "score": 3807,
      "Sain": 3808,
      "visiwaĠ": 3809,
      "áįįáīµ": 3810,
      "Ġm": 3811,
      "He": 3812,
      "...": 3813,
      "áĬķáį£": 3814,
      "lamb": 3815,
      "||": 3816,
      "aniĠm": 3817,
      "ĠáĭĪáĬķáĭĿ": 3818,
      "okinĠ": 3819,
      "resĠ": 3820,
      "áīĥáĪµ": 3821,
      "BNĠ": 3822,
      "ÃĮb": 3823,
      "tuĠ": 3824,
      "sim": 3825,
      "iter": 3826,
      "ĠáĪįáĮĨáī½": 3827,
      "kÃłn": 3828,
      "as,Ġ": 3829,
      "áĬĻ": 3830,
      "Ġáī°áī¥áĪİ": 3831,
      "YorÃ¹bÃ¡Ġ": 3832,
      "asharikiĠ": 3833,
      "yl": 3834,
      "ĠáĭĿáĪŃáĭĿ": 3835,
      "yankinĠ": 3836,
      "áĪĿáĬĲáīµ": 3837,
      "on.": 3838,
      "etteĠ": 3839,
      "báº¹Ìģáº¹ÌĢĠ": 3840,
      "samunĠ": 3841,
      "iwaĠkuwaĠ": 3842,
      "ÃłmÃ¬": 3843,
      "Med": 3844,
      "Go": 3845,
      "OrÃŃ": 3846,
      "u.Ġ": 3847,
      "ĠáĬĲáīłáĪ©áį¢": 3848,
      "Awá»įnĠ": 3849,
      "ĠáīłáīĢ": 3850,
      "imm": 3851,
      "áĭĭáīĤ": 3852,
      "alsoĠ": 3853,
      "wigizajiĠwaĠfilamuĠ": 3854,
      "otaĠ": 3855,
      "rin": 3856,
      "wardĠ": 3857,
      "wasanĠÆĻwallonĠÆĻafaĠtaĠÆĻasarĠIngil": 3858,
      "iĠwaĠk": 3859,
      "DolaĠlaĠ": 3860,
      "lÃ¹": 3861,
      "ĠáĮ¥áīħáĪĿ": 3862,
      "firstĠ": 3863,
      "áĪįáį£": 3864,
      "nuĠ": 3865,
      "ĠáĮŃ": 3866,
      "ĠáĬŃáįįáĪĪĠáĭĺáĪĺáĬķ": 3867,
      "Je": 3868,
      "áĪĪáĪĽ": 3869,
      "tsoh": 3870,
      "bilaĠ": 3871,
      "ĠáīłáĮį": 3872,
      "áĬĲáĭį": 3873,
      "Christ": 3874,
      "sÃ³": 3875,
      "áĭŃáīµ": 3876,
      "Ek": 3877,
      "Ba": 3878,
      "áīŃ": 3879,
      "uoĠ": 3880,
      "ĠtÃłbÃŃĠ": 3881,
      "Ġáĭ¨áĭį": 3882,
      "17Ġ": 3883,
      "Ġáĭ¨áĬ¢": 3884,
      "áĪ¥áĪ«": 3885,
      "lamuĠ": 3886,
      "premi": 3887,
      "RaisĠwaĠ": 3888,
      "áĮĪáĪ«": 3889,
      "2Ġ-Ġ": 3890,
      "artaĠ": 3891,
      "áĭĵáīµ": 3892,
      "ĠáĮįáī¥": 3893,
      "Ta": 3894,
      "ingineĠ": 3895,
      "alim": 3896,
      "|ĠRD1-": 3897,
      "not": 3898,
      "ambayoĠ": 3899,
      "ejÃ¬": 3900,
      "baĠdaĠ": 3901,
      "mÃ¬": 3902,
      "alab": 3903,
      "Ġáī¥áĪĶ": 3904,
      "ongĠ": 3905,
      "Kas": 3906,
      "ink": 3907,
      "ret": 3908,
      "http://www.": 3909,
      "oĠmak": 3910,
      "ĠÂ«áĭ¨": 3911,
      "ĠáĪĺáĬķáĮĪáĭµ": 3912,
      "occ": 3913,
      "áĪĺáīµ": 3914,
      "hadaĠ": 3915,
      "ĠáĮ¥áĬĵáīµ": 3916,
      "wajenĠ": 3917,
      "Mk": 3918,
      ".Ġ(": 3919,
      "áĮłáīħ": 3920,
      "auĠm": 3921,
      "litt": 3922,
      "ilis": 3923,
      "ert": 3924,
      "ĠáĬłáĪģ": 3925,
      "akarantarĠ": 3926,
      "áĪ½áĬķ": 3927,
      "jih": 3928,
      "ĠkatikaĠ": 3929,
      "KanisaĠ": 3930,
      "ta,Ġ": 3931,
      "L'": 3932,
      "áĪĪáī²áĬ«": 3933,
      "samiĠ": 3934,
      "vileĠ": 3935,
      "ĠáĬ¨áĬĲ": 3936,
      "4-": 3937,
      "Aj": 3938,
      "áĪ®áĪµ": 3939,
      "lokac": 3940,
      "AN": 3941,
      "uriĠ": 3942,
      "áĬĶáī³": 3943,
      "kumaĠyaĠ": 3944,
      "Ã©ri": 3945,
      "adha": 3946,
      "áĭŃáĭĪáīµ": 3947,
      "rad": 3948,
      "ĠáĪĺáĮ½áĪĲáįį": 3949,
      "áĭĺáĮĭ": 3950,
      "áĪĺáĬĵáĭĬ": 3951,
      "ÃłwonĠ": 3952,
      "onĠtheĠ": 3953,
      "gameĠ": 3954,
      "áĭĪáī½": 3955,
      "eursĠ": 3956,
      "11Ġ": 3957,
      "Aug": 3958,
      "áĪµáįĭ": 3959,
      "waz": 3960,
      "jÃ¹lá»įĠ": 3961,
      ",ĠandĠ": 3962,
      "peluĠ": 3963,
      "2Ġáĭĵ.áĪĿ.": 3964,
      "ĠáĮ¥áĬķ": 3965,
      "awa": 3966,
      "ayans": 3967,
      "kÃ¹n": 3968,
      "ammaĠ": 3969,
      "ÃŃrÃłnĠ": 3970,
      "183": 3971,
      "wÃŃpÃ©Ġ": 3972,
      "Â°": 3973,
      "áĪĭáĭį": 3974,
      "enez": 3975,
      "Ġáī°áĪ°": 3976,
      "oá¹£Ã¹Ġkáº¹": 3977,
      "Up": 3978,
      "kÃ¡": 3979,
      "sup": 3980,
      "ortĠ": 3981,
      "GhanaĠ": 3982,
      "14Ġ": 3983,
      "áĪŁ": 3984,
      "Ġáĭ¨áĪķ": 3985,
      "18Ġ": 3986,
      "tab": 3987,
      "aĠmap": 3988,
      "o,Ġm": 3989,
      "Mich": 3990,
      "áĪ¾": 3991,
      "ĠáĬłáįĪ": 3992,
      "Ġ(200": 3993,
      "ĠáĪ®": 3994,
      "áĪ¨áĪĿ": 3995,
      "/Ġ": 3996,
      "kaz": 3997,
      "Ã¢": 3998,
      "áĬĲáĪ³": 3999,
      "ull": 4000,
      "lÃ³rÃŃ": 4001,
      "atarĠdaĠ": 4002,
      "er,Ġm": 4003,
      "anazarta": 4004,
      "vitaĠ": 4005,
      "nÃŃĠÃ¬lÃºĠ": 4006,
      "fuataĠ": 4007,
      "sa": 4008,
      "áĪįáĪĿ": 4009,
      "ahariĠyaĠ": 4010,
      "shindiĠwaĠTuzoĠyaĠNobelĠyaĠFizikiaĠmwakaĠwaĠ": 4011,
      "YaĠ": 4012,
      "ĠáĪīáīĥáĪµ": 4013,
      "juĠ": 4014,
      "tÃłbÃŃĠ": 4015,
      "er.": 4016,
      "engineĠ": 4017,
      "áĪ«áĬķ": 4018,
      "ĠáĬ¥áĬķáĮĤ": 4019,
      "oyÃ¨Ġ": 4020,
      "Map": 4021,
      "San": 4022,
      "áįĪáĪį": 4023,
      "Ut": 4024,
      "Ãłráº¹Ġ": 4025,
      "co": 4026,
      "ĠáīłáįĬáīµ": 4027,
      "ograph": 4028,
      "áĭķáĪ«áī¥": 4029,
      "stitut": 4030,
      "Ġáĭ¨áĬłáĪľáĪªáĬ«": 4031,
      "sel": 4032,
      "Ġ5": 4033,
      "16Ġ": 4034,
      "ĠáĭŃáī£áĪĭáĪįáį¢": 4035,
      "á¹£áº¹ÌģĠ": 4036,
      "AfrikaĠKus": 4037,
      "NaijiriaĠ": 4038,
      "Award": 4039,
      "wanasiasaĠ": 4040,
      "rik": 4041,
      "u-": 4042,
      "agbÃ¡": 4043,
      "0)Ġ": 4044,
      "AS": 4045,
      "áįİáī½": 4046,
      "gbá»įÌĢ": 4047,
      "wang": 4048,
      "imataif": 4049,
      "jum": 4050,
      "ĠáĭĪáĭŃ": 4051,
      "Bib": 4052,
      "new": 4053,
      "ĠáīħáĪŃ": 4054,
      "ĠáĮīáĭ³": 4055,
      "daĠyawanĠ": 4056,
      "pres": 4057,
      "iref": 4058,
      "Ġáĭ¨áĪļáĪĪáĭį": 4059,
      "ĠáĪģáĪĪ": 4060,
      "ific": 4061,
      "ĠáĬłáīĢ": 4062,
      "n.k.": 4063,
      "iyyaĠ": 4064,
      "tof": 4065,
      "áī¥áĪ¨áīµ": 4066,
      "áī³áĪªáĬŃ": 4067,
      "ifoĠch": 4068,
      "ost": 4069,
      "Pres": 4070,
      "arabuĠ": 4071,
      "lav": 4072,
      "rang": 4073,
      "iaĠyaĠK": 4074,
      "amin": 4075,
      "Ã©d": 4076,
      "prÃ©s": 4077,
      "faĠ": 4078,
      "mas": 4079,
      "De": 4080,
      "CO": 4081,
      "6Ġ-Ġ": 4082,
      "iti": 4083,
      "ipoĠ": 4084,
      "&Ġ": 4085,
      "arch": 4086,
      "ĠáĪĽáĬķ": 4087,
      "Pas": 4088,
      "má»įĠ": 4089,
      "ĠáīłáĪŃ": 4090,
      "Alex": 4091,
      "ĠáĬķáĮį": 4092,
      "ightĠ": 4093,
      "ĠáĮĮ": 4094,
      "padÃłĠ": 4095,
      "Dis": 4096,
      "yr": 4097,
      "ĠáĬŃáĪį": 4098,
      "hum": 4099,
      "ÙĪ": 4100,
      "ĠáĪķáĭĿáī¥": 4101,
      "sinim": 4102,
      "shaĠ": 4103,
      "app": 4104,
      "Æĺ": 4105,
      "ráº¹": 4106,
      "páº¹l": 4107,
      "ĠáĬ¥áĬķáĭ²áĪħ": 4108,
      "âĢ¢": 4109,
      "fÃŃÃ¬m": 4110,
      "0-": 4111,
      "Ġáį²áį": 4112,
      "nunaĠ": 4113,
      "ĠáīµáĬķ": 4114,
      "áĬĲáī±": 4115,
      "ĠáįķáĪ¬": 4116,
      "Yoh": 4117,
      "97": 4118,
      "jirg": 4119,
      "wamb": 4120,
      "IlÃ©": 4121,
      "áĪĺáĭµ": 4122,
      "upandeĠwaĠ": 4123,
      "woteĠ": 4124,
      "entiĠ": 4125,
      "Dem": 4126,
      "Ġáī³áĪªáĬ«áĭĬ": 4127,
      "mus": 4128,
      "ablaĠ": 4129,
      "Ġthe": 4130,
      "Ã©.": 4131,
      "áĪĽáīµ": 4132,
      "áĪĪáĬķ": 4133,
      "bad": 4134,
      "ĠáĪĺáĪłáĪ¨": 4135,
      "rasm": 4136,
      "lÃ³gÃºnĠ": 4137,
      "BayanĠ": 4138,
      "ĠBKĠ(BaadaĠyaĠKristo).ĠMatukioĠWaliozaliwaĠWaliofarikiĠKarneĠyaĠ": 4139,
      "ali.": 4140,
      "áĬŃáĪī": 4141,
      "fan": 4142,
      "ĠáĭŃáī³áĭĪáīĥ": 4143,
      "Ø§ÙĦ": 4144,
      "Mb": 4145,
      "Ny": 4146,
      "ĠáĬ¨áĬ¥": 4147,
      "agesĠ": 4148,
      "aireĠ": 4149,
      "Uh": 4150,
      "iwaĠk": 4151,
      "ori": 4152,
      "13Ġ": 4153,
      "oryĠ": 4154,
      "ItaliaĠ": 4155,
      "UmojaĠwaĠ": 4156,
      "oĠtaĠ": 4157,
      "opoĠ": 4158,
      "áĪ¨áĪ°": 4159,
      "wasanĠk": 4160,
      "45": 4161,
      "ĠáĬĲáĭįáį¡áį¡": 4162,
      "ĠáĭĿáĪŃáĭĿáĪŃ": 4163,
      "ĠáĬ¨áĭļáĪħ": 4164,
      "unĠniĠ": 4165,
      "Az": 4166,
      "orsĠ": 4167,
      "8Ġ-Ġ": 4168,
      "anzib": 4169,
      "Yar": 4170,
      "Gir": 4171,
      "áĭļáĪģ": 4172,
      "dag": 4173,
      "sec": 4174,
      "ĠáĬĵáī¸áĭį": 4175,
      "atarĠ": 4176,
      "'yanĠ": 4177,
      "aĠmaiĠ": 4178,
      "180": 4179,
      "bec": 4180,
      "ideĠ": 4181,
      "¶áį": 4182,
      "hasĠ": 4183,
      "áĪĺáĪį": 4184,
      "áĪŃáī²": 4185,
      "daĠyaĠ": 4186,
      "balimbaliĠ": 4187,
      "Ã¬f": 4188,
      "áĬĵáī¸áĭį": 4189,
      "akosoĠ": 4190,
      "ĠáĪģáĬĶáī³": 4191,
      "so": 4192,
      "sesĠ": 4193,
      "da": 4194,
      "áĬĵáĪįáį¢": 4195,
      "aliye": 4196,
      "Ġáº¹láº¹ÌģbÃ¹nĠ": 4197,
      "Gb": 4198,
      "áīłáĬł": 4199,
      "DuniyaĠ": 4200,
      "áĭ«áĭĬ": 4201,
      "prop": 4202,
      "aniĠ(": 4203,
      "ana": 4204,
      "ĠáĬ¥áĬĵĠáīł": 4205,
      "imeĠ": 4206,
      "ock": 4207,
      "Ø±": 4208,
      "ĠáĮĬ": 4209,
      "olos": 4210,
      "JamesĠ": 4211,
      "takrib": 4212,
      ")Ġáīł": 4213,
      "Mart": 4214,
      "MataĠ": 4215,
      "bor": 4216,
      "William": 4217,
      "ywo": 4218,
      "ovutiĠ": 4219,
      "Fas": 4220,
      "Zanzib": 4221,
      "Ã¨dÃ¨": 4222,
      "shiry": 4223,
      "Ã¬gbÃłĠ": 4224,
      "ureĠ": 4225,
      "jama'aĠ": 4226,
      "ĠkanĠ": 4227,
      "Ha": 4228,
      "Sam": 4229,
      "Ã¬p": 4230,
      "wakatiĠ": 4231,
      "YanĠ": 4232,
      "cesĠ": 4233,
      "oseĠ": 4234,
      "Ã¹gbá»įÌģnĠ": 4235,
      "fĠ": 4236,
      "uduĠ": 4237,
      "LagosĠ": 4238,
      "áĬ¨áī°áĪĽ": 4239,
      "áĮĦ": 4240,
      "Ka": 4241,
      "Engl": 4242,
      "Ãłj": 4243,
      "ayarĠ": 4244,
      "Ann": 4245,
      "lu": 4246,
      "35": 4247,
      "áĬ¨áīµ": 4248,
      "21Ġ": 4249,
      "ĠáĭŃáīĢ": 4250,
      "askaziniĠ": 4251,
      "Fir": 4252,
      "ĠáīłáĬ©": 4253,
      "okeoĠyaĠ": 4254,
      "Mil": 4255,
      "S.": 4256,
      "Ġáī»": 4257,
      "Maj": 4258,
      "áī¤áī°": 4259,
      "BabbanĠ": 4260,
      "en.": 4261,
      "áī¥áīµ": 4262,
      "ĠáĬĲáĮ»": 4263,
      "gudan": 4264,
      "-áº¹ÌĢ": 4265,
      "áĪ«áĪ²": 4266,
      "unanĠ": 4267,
      "A.": 4268,
      "ott": 4269,
      "pekeeĠ": 4270,
      "awezaĠ": 4271,
      "áĬĲáīłáĪ¨": 4272,
      "Ant": 4273,
      "áĪ¶áī½": 4274,
      "Er": 4275,
      "Jum": 4276,
      "Ni": 4277,
      "Ġáī±": 4278,
      "atom": 4279,
      "idadiĠyaĠ": 4280,
      "Ġtáº¹Ìģ": 4281,
      "quesĠ": 4282,
      "contr": 4283,
      "yÃ¬ÃŃ": 4284,
      "kumbu": 4285,
      "ananĠhukum": 4286,
      "ĠáĬ¨áĬłáĪ": 4287,
      "áĪĪáī½": 4288,
      "(201": 4289,
      "Ġáĭ¨áĪµ": 4290,
      "aĠkasanceĠ": 4291,
      "Cor": 4292,
      "ĠáĪĺáĮ¨áĪ¨áĪ»": 4293,
      "áĭ°áĭį": 4294,
      "sabodaĠ": 4295,
      "áĭļáīĥ": 4296,
      "wanamuzikiĠ": 4297,
      "ĠáįĪáĪŃ": 4298,
      "aliz": 4299,
      "ĠAfr": 4300,
      "ikish": 4301,
      "ĠáĪļáĬĴ": 4302,
      "popul": 4303,
      "ĠáĬŃáĪŃáĪµáī²áĭ«áĬķ": 4304,
      "kamarĠ": 4305,
      "nyingineĠ": 4306,
      "kuhusuĠ": 4307,
      "dauk": 4308,
      "daĠakeĠ": 4309,
      "3Ġ-Ġ": 4310,
      "Sar": 4311,
      "áĬ¸": 4312,
      "icaĠ": 4313,
      "ĠMtoĠ": 4314,
      "75": 4315,
      "loriĠ": 4316,
      "yab": 4317,
      "áĪĿáĬķ": 4318,
      "Ġáįĭ": 4319,
      "wany": 4320,
      "awarĠ": 4321,
      "sabab": 4322,
      "áĮĪáĬĺáĭį": 4323,
      "sing": 4324,
      "ĠáĬĲáĮĪáĪ®áī½": 4325,
      "adem": 4326,
      "agbÃ¨gbÃ¨Ġ": 4327,
      "shindiĠwaĠTuzoĠyaĠNobelĠyaĠKemiaĠmwakaĠwaĠ": 4328,
      "Gl": 4329,
      "yÃłnĠ": 4330,
      "Ġáī¢áĪĨáĬķ": 4331,
      "hadiĠk": 4332,
      "ole": 4333,
      "áī´áĭİáĪµ": 4334,
      "ÃłgbÃłĠ": 4335,
      "áĪĺáĮ£": 4336,
      "prot": 4337,
      "Del": 4338,
      "ograf": 4339,
      "22Ġ": 4340,
      "Bi": 4341,
      "Ġáĭ¨áĪĽáĭŃ": 4342,
      "esiĠ": 4343,
      "OlÃ³": 4344,
      "Pat": 4345,
      "uguĠ": 4346,
      "ÆĻas": 4347,
      "Ãłwá»įnĠÃ¨nÃ¬yÃłnĠ": 4348,
      "jiĠmkuuĠwaĠ": 4349,
      "ijiĠyaĠ": 4350,
      "Rep": 4351,
      "aĠjiharĠ": 4352,
      "byĠtheĠ": 4353,
      "áī»áī¸áĭį": 4354,
      "ĠáĭŃáĮĪáĬĽáĪįáį¢": 4355,
      "ungu": 4356,
      "tat": 4357,
      "Láº¹Ìģ": 4358,
      "aud": 4359,
      "tÃºnĠ": 4360,
      "pá»įÌĢlá»į": 4361,
      "alementĠ": 4362,
      "adhim": 4363,
      "ĠáĭĺáĪŃ": 4364,
      "ÃĢwá»įnĠÃ¬t": 4365,
      "ĠáĪ¦": 4366,
      "áįĶ": 4367,
      "áĮĪáĭ°": 4368,
      "ident": 4369,
      "ĠáĭµáĪŃáĮħ": 4370,
      "ĠáīłáĪĻ": 4371,
      "áĪ±áĪµ": 4372,
      "ondĠ": 4373,
      "alib": 4374,
      "4Ġ-Ġ": 4375,
      "fun": 4376,
      "cor": 4377,
      "oot": 4378,
      "Afirk": 4379,
      "eauĠ": 4380,
      "áĮĢáĪŃáĪĺáĬķ": 4381,
      "uĠK": 4382,
      "áĭĭáĬĵ": 4383,
      "ox": 4384,
      "áº¹Ìģká»įÌĢ": 4385,
      "-áĬł": 4386,
      "jir": 4387,
      "áĪĤ": 4388,
      "áĪĺáĭį": 4389,
      "Sab": 4390,
      "áī·áĪįáį¢": 4391,
      "ĠáĬłáīµ": 4392,
      "ectionĠ": 4393,
      "jimb": 4394,
      "GeorgeĠ": 4395,
      "ĠáĬ¥áĬĲ": 4396,
      "Ã©tÃ©Ġ": 4397,
      "áĪĺáĪ°": 4398,
      "ilÃ©-áº¹ÌĢká»įÌģĠ": 4399,
      "age": 4400,
      "Peop": 4401,
      "Ã³ĠtÃ³Ġ": 4402,
      "tanguĠ": 4403,
      "ĠáĬ¡": 4404,
      "áĬķáĭ°": 4405,
      "áĬķáĭ±": 4406,
      "babaĠ": 4407,
      "wÃ³nĠ": 4408,
      "ararĠ": 4409,
      "kumbukumb": 4410,
      "inĠg": 4411,
      "anĠ(": 4412,
      "á»įÌģkasÃŃ": 4413,
      "ĠáĪĿáĬŃáĬķáĭ«áīµ": 4414,
      "erg": 4415,
      "akam": 4416,
      "okeĠ": 4417,
      "ectr": 4418,
      "nÃŃnÃº": 4419,
      "stat": 4420,
      "ectĠ": 4421,
      "oĠyaĠk": 4422,
      "entreĠ": 4423,
      "ĠáīłáĪ½": 4424,
      "idiĠyaĠ": 4425,
      "le-": 4426,
      "ÃĢwá»įnĠáº¹láº¹ÌģbÃ¹nĠ": 4427,
      "ĠáĪł": 4428,
      "ÃłrÃŃ": 4429,
      "JanuaryĠ": 4430,
      "ick": 4431,
      "ĠáĪĿáĬķáĪĿ": 4432,
      "Äģ": 4433,
      "ourn": 4434,
      "ÃłgbÃł": 4435,
      "Ġ(áīł": 4436,
      "ĠáĪĿáĬķáĮ®áī½": 4437,
      "arwaĠ": 4438,
      "dif": 4439,
      ")ĠnaĠ": 4440,
      "ĠdinĠ": 4441,
      "oor": 4442,
      "wanaĠ": 4443,
      "US": 4444,
      "ĠáĪĿáĪŃ": 4445,
      "Ãłb": 4446,
      "bayyanaĠ": 4447,
      "anĠhaifeĠshiĠaĠshekaraĠtaĠ": 4448,
      "90": 4449,
      "aitĠ": 4450,
      "offic": 4451,
      "cap": 4452,
      "wá»įĠ": 4453,
      "Bay": 4454,
      "Ġáĭ¨áĬ«": 4455,
      "áĪĭáĪ´": 4456,
      "afuĠ": 4457,
      "ijobaĠ": 4458,
      "nÃ¡Ãł.": 4459,
      "Octob": 4460,
      "Ġáĭĭáī¢": 4461,
      "Ã²rÃ¹nĠ": 4462,
      "Ã³Ġá¹£eĠ": 4463,
      "ship": 4464,
      "Ġáī°áįĪ": 4465,
      "uĠkwaĠ": 4466,
      "haveĠ": 4467,
      "tel": 4468,
      "áĪ·": 4469,
      "25Ġ": 4470,
      "ationĠofĠ": 4471,
      "nÃŃnuĠ": 4472,
      "naaĠ": 4473,
      "inz": 4474,
      "waik": 4475,
      "waÉĹ": 4476,
      "7-": 4477,
      "áĪµáĭ«": 4478,
      "Ġáĭ¨áī°áĪ°": 4479,
      "biasharaĠ": 4480,
      "eder": 4481,
      "3,": 4482,
      "ãĥ": 4483,
      "itz": 4484,
      "rá»įÌĢ": 4485,
      "forĠtheĠ": 4486,
      "Tanb": 4487,
      "TanbihiĠ": 4488,
      "Ãłg": 4489,
      "ativeĠ": 4490,
      "aĠmat": 4491,
      "ewarĠ": 4492,
      "Ð°": 4493,
      "burg": 4494,
      "áīłáĪĺ": 4495,
      "ĠáĪĺáĪįáĬŃ": 4496,
      "unt": 4497,
      "Najeriya,Ġ": 4498,
      "gbajÃºmá»įÌĢĠ": 4499,
      "Ġá»įjá»įÌģĠ": 4500,
      "tÃ¬Ġ": 4501,
      "·áį": 4502,
      "anch": 4503,
      "áĬŃáĪŃ": 4504,
      "34": 4505,
      "áĮĪáĪį": 4506,
      "ajaĠ": 4507,
      "waikway": 4508,
      "2,": 4509,
      "des": 4510,
      "ĠáĮ½áĪĳ": 4511,
      "ĠáĪĺáĪŃ": 4512,
      "áĭ²áĭ«": 4513,
      "istr": 4514,
      "áĬ¥áĬķáĭ°": 4515,
      "aĠkwenyeĠ": 4516,
      "áīłáĪĪ": 4517,
      "áīĨáĪµ": 4518,
      "ce,Ġ": 4519,
      "gudaĠ": 4520,
      "Far": 4521,
      "okanaĠnaĠ": 4522,
      "ejÃ¬Ġ": 4523,
      "Vol": 4524,
      "Ã³mÃ¬n": 4525,
      "Ã¬lÃº": 4526,
      "naf": 4527,
      "pia": 4528,
      "emaĠ": 4529,
      "ibiyarĠ": 4530,
      "áĭĪáĪŃ": 4531,
      "ojÃº": 4532,
      "''": 4533,
      "Co": 4534,
      "áĪĭáĪĽ": 4535,
      "rÃ©g": 4536,
      "sÃŃĠnÃŃĠ": 4537,
      "Atlant": 4538,
      "alÃ¡Ã¬": 4539,
      "ilioniĠ": 4540,
      "muĠ": 4541,
      "Ãłwá»įnĠá»įjá»įÌģÃ¬bÃŃĠnÃŃĠ": 4542,
      "zaidiĠ": 4543,
      "VI": 4544,
      "áĬĵáĭĬ": 4545,
      "ĠáĪµáĪĻ": 4546,
      "iá¹£áº¹Ġ": 4547,
      "ahaliĠ": 4548,
      "Sc": 4549,
      "ĠáĬħ": 4550,
      "áĭ³áĪŃ": 4551,
      "sunanĠ": 4552,
      "sar": 4553,
      "ĠáĬ¥áĮįáĪŃĠáĬ³áĪµ": 4554,
      "ahiĠ": 4555,
      "DecemberĠ": 4556,
      "áĪİáīµ": 4557,
      "ĠáĮłáĪ": 4558,
      "ĠáĪ¥áĪŃáĭĪ": 4559,
      "áĮłáĭį": 4560,
      "ĠáĪłáĪ«": 4561,
      "prof": 4562,
      "iá¹£áº¹Ìģ": 4563,
      "arÃ¡ĠAmáº¹ÌģrÃŃkÃł": 4564,
      "ĠáĪĿáĪįáĬŃ": 4565,
      "the": 4566,
      "dev": 4567,
      "Josep": 4568,
      "taf": 4569,
      "Ãłf": 4570,
      "áĭĪáīħ": 4571,
      "ÅĦĠá¹£": 4572,
      "Kh": 4573,
      "ĠR": 4574,
      "Ġáįª": 4575,
      "Ġáĭ°áĪ´": 4576,
      "ĠáĭŃáĪĨ": 4577,
      "ÉĹayaĠ": 4578,
      "jiĠmkuuĠ": 4579,
      "pasĠ": 4580,
      "Â²": 4581,
      "are": 4582,
      "ĠáĬłáĪ³": 4583,
      "yaaniĠ": 4584,
      "nÃŃĠÃĮpÃŃnláº¹ÌĢĠ": 4585,
      "samarĠdaĠ": 4586,
      "kÃ³paĠ": 4587,
      "ivy": 4588,
      "ilomitaĠ": 4589,
      "ĠáĪĤ": 4590,
      "taĠyiĠ": 4591,
      "Eg": 4592,
      "Mu": 4593,
      "cer": 4594,
      "áĪµáįĵ": 4595,
      "Coun": 4596,
      "ĠáĬłáĭ«": 4597,
      "áĭķáĪį": 4598,
      "ÃĴg": 4599,
      "91": 4600,
      ".ĠH": 4601,
      "KunaĠ": 4602,
      "ihinĠ": 4603,
      "ĠáĬłáĪĪáīĥ": 4604,
      "áº¹ÌĢáº¹Ìģ": 4605,
      "ĠAgostiĠ-Ġ": 4606,
      "áįĪáĪ¨áĬķáĪ³áĭŃ": 4607,
      "ĠkatikaĠm": 4608,
      "áĪ¡": 4609,
      "iĠneĠ": 4610,
      "wakaz": 4611,
      "Tanzani": 4612,
      "Bel": 4613,
      "ont": 4614,
      "AmericanĠ": 4615,
      "vis": 4616,
      "Ġáº¸ÌĢ": 4617,
      "atukio": 4618,
      "ym": 4619,
      "ĠáĬĸ": 4620,
      "oĠdaĠ": 4621,
      "á»įÌģá»įÌĢ": 4622,
      "ÃĢÃłráº¹Ġ": 4623,
      "EbunĠ": 4624,
      "mÃŃĠ": 4625,
      "Cap": 4626,
      "áĪ¯": 4627,
      "ginaĠ": 4628,
      "Ġáĭ¨áĪ¥": 4629,
      "áĭĭáĬķ": 4630,
      "BB": 4631,
      ".,Ġ": 4632,
      "yaliy": 4633,
      "ĠdesĠ": 4634,
      "ĠáĬĴ": 4635,
      "Ã²g": 4636,
      "ikanĠ": 4637,
      "aĠkatikaĠm": 4638,
      "yawanĠ": 4639,
      "áī¥áĭĻ": 4640,
      "ĠáĭĪáĪ¨áĭ³": 4641,
      "entom": 4642,
      "Ibad": 4643,
      "Ã¼": 4644,
      "uchum": 4645,
      "alum": 4646,
      "áĮ¥áĪ¨": 4647,
      "áĭ¨áĪĿ": 4648,
      "aĠnaĠm": 4649,
      "onc": 4650,
      "onek": 4651,
      "pÃ¨ĠnÃŃĠ": 4652,
      "abab": 4653,
      "nje": 4654,
      "wenyeweĠ": 4655,
      "inn": 4656,
      "Hen": 4657,
      "áĪĪáī½áį¢": 4658,
      "StateĠ": 4659,
      "III": 4660,
      "Wais": 4661,
      "bl": 4662,
      "sol": 4663,
      "alb": 4664,
      "ĠáĮħ": 4665,
      "áĪĽáĬķ": 4666,
      "ambay": 4667,
      "oĠyaĠm": 4668,
      "áĪłáĪ«": 4669,
      "36": 4670,
      "áĬķáī°": 4671,
      "áĪĺáĪ«": 4672,
      "usi": 4673,
      "Ġáį¤": 4674,
      "Alim": 4675,
      "egb": 4676,
      "mÃ¡aĠÅĦĠ": 4677,
      "rem": 4678,
      "áĭĳ": 4679,
      "ciĠgabaĠ": 4680,
      "ráº¹ÌĢ.": 4681,
      "áĭİáī½áĬķ": 4682,
      "anyanĠ": 4683,
      ")áį£": 4684,
      "kÃŃ": 4685,
      "tabiĠ": 4686,
      "wap": 4687,
      "áĭ²áĪħ": 4688,
      "ackĠ": 4689,
      "ĠáĭķáĪĪ": 4690,
      "Ã¬tÃłnĠ": 4691,
      "ĠáĪĺáĮĢáĪĺáĪŃáĭ«": 4692,
      "láº¹ÌĢ-Ã¨dÃ¨Ġ": 4693,
      "á»įnĠ": 4694,
      "áĭ¨áĬł": 4695,
      "28Ġ": 4696,
      "mod": 4697,
      "oin": 4698,
      "ĠáĬ¥áĭį": 4699,
      "aĠmwakaĠ": 4700,
      "Phil": 4701,
      "over": 4702,
      "ation,Ġ": 4703,
      "1892Ġáĭĵ.áĪĿ.": 4704,
      "yayinĠ": 4705,
      "ĠáĭŃáĪĺáĪµ": 4706,
      "ĠáĬłáĪ¸": 4707,
      "yoteĠ": 4708,
      "ĠáīłáĮ£áĪĿ": 4709,
      "Ã²yÃ¬nĠ": 4710,
      "ĠáĬŃáįįáĪĭ": 4711,
      "entsĠ": 4712,
      "Ã²unĠ": 4713,
      "lÃ²Ġ": 4714,
      "pÃ¨": 4715,
      "áĮĪáī¥": 4716,
      "auranĠ": 4717,
      "OktobaĠ-Ġ": 4718,
      "cel": 4719,
      "uisĠ": 4720,
      "páº¹luĠ": 4721,
      "ifÃ¡": 4722,
      "Ġáīłáī°áĪĪáĭŃ": 4723,
      "Bank": 4724,
      "áĬĵĠáĬ¨": 4725,
      "Chin": 4726,
      "áĭĺáĪŃ": 4727,
      "pers": 4728,
      "endele": 4729,
      "áĮįáī¥áĮ½": 4730,
      "Are": 4731,
      "fre": 4732,
      "áĮ¦áĪŃ": 4733,
      "áĬ®áī½": 4734,
      "ambaoĠ": 4735,
      "oku": 4736,
      "ubuĠ": 4737,
      "aseĠ": 4738,
      "Had": 4739,
      "áĮĪáīł": 4740,
      "Ġáī³áĭĭáīĤ": 4741,
      "ÃłÃły": 4742,
      "orÃŃ": 4743,
      "ĠáīłáĪĮ": 4744,
      "Â»Ġ": 4745,
      "ĠáĪº": 4746,
      "áĬ¹": 4747,
      "áĭ°áĮį": 4748,
      "yÃ³Ã²Ġ": 4749,
      "iranĠ": 4750,
      "huadhim": 4751,
      "centur": 4752,
      "day": 4753,
      "ĠáīłáĪģ": 4754,
      "ukeĠ": 4755,
      "áįĪáĪµ": 4756,
      "yank": 4757,
      "Riv": 4758,
      "áĪįáĮ£áĬķ": 4759,
      ":ĠTheĠ": 4760,
      "awal": 4761,
      "insaĠ": 4762,
      "abakiĠ": 4763,
      "áĪķáĪŃ": 4764,
      "JulaiĠ-Ġ": 4765,
      "áĮ£áīµ": 4766,
      "ĠáĬ¥áĭ¨áī°": 4767,
      "Lov": 4768,
      "nolog": 4769,
      "áĭĬáīµ": 4770,
      "Ġáº¹niĠ": 4771,
      "iki.": 4772,
      "24Ġ": 4773,
      "Sept": 4774,
      "walikuwaĠ": 4775,
      "ĠMachiĠ-Ġ": 4776,
      "Wab": 4777,
      "ambaz": 4778,
      "alifĠ": 4779,
      "ipin": 4780,
      "aniĠk": 4781,
      "áĮ¥áĪ®": 4782,
      "watoĠ": 4783,
      "ĠáĬłáĭŃáĭ°": 4784,
      "gid": 4785,
      "Nigeria": 4786,
      "alij": 4787,
      "VisiwaĠ": 4788,
      "rap": 4789,
      "ÃĢwá»įnĠáº¹láº¹ÌģbÃ¹nĠNobelĠ": 4790,
      "hakaĠ": 4791,
      "wengi,Ġ": 4792,
      "zakeĠ": 4793,
      "áĪ³áī¸áĭį": 4794,
      "AlÃ¡": 4795,
      "já»įÌģĠ": 4796,
      "oyeĠ": 4797,
      "áĭįáĪĿ": 4798,
      "ĠBKĠ(BaadaĠyaĠKristo).ĠMatukioĠWaliozaliwaĠ": 4799,
      "hukumarĠ": 4800,
      "Wom": 4801,
      "Ġ17": 4802,
      "9-": 4803,
      "nÃŃnÃºĠerÃ©Ġ": 4804,
      "tsĠ": 4805,
      "áĪĺáī±": 4806,
      "ÃŃláº¹ÌĢĠ": 4807,
      "labar": 4808,
      "vo": 4809,
      "MarejeoĠ": 4810,
      "taĠhanyarĠ": 4811,
      "áĮįáĪį": 4812,
      "áĪĿáĪħáĪŃ": 4813,
      "Ãºs": 4814,
      "ÃłgbÃ©lÃ©": 4815,
      "Waf": 4816,
      "ĠáīĢáĮ¥": 4817,
      ",ĠmshindiĠwaĠTuzoĠyaĠNobelĠyaĠTibaĠmwakaĠwaĠ": 4818,
      "áĮłáĪ©": 4819,
      "láº¹ÌģyÃ¬nĠ": 4820,
      "áīłáĪ©áīµ": 4821,
      "walej": 4822,
      "YorÃ¹bÃ¡": 4823,
      "oniĠm": 4824,
      "ĠáĬ¥áĬķáĮįáĪĬáĭĿ": 4825,
      "5-": 4826,
      "áįĳ": 4827,
      "UN": 4828,
      "Italia": 4829,
      "áĭµáĪ¨áĮį": 4830,
      "áĪ¨áī¥": 4831,
      "ĠáĬłáĮĪáĪįáĮį": 4832,
      "Ã³p": 4833,
      "torÃŃĠ": 4834,
      "Sec": 4835,
      "yaw": 4836,
      ".ĠÃĢ": 4837,
      "Thom": 4838,
      "ĠáĬłáĪĺáīµ": 4839,
      "tele": 4840,
      "agbaĠ": 4841,
      "sub": 4842,
      "áĭ®áĪµ": 4843,
      "ane": 4844,
      "ĠáĪ»": 4845,
      "andik": 4846,
      "âĢº": 4847,
      "ammanĠ": 4848,
      "áĭĪáĪ¨": 4849,
      "ellĠ": 4850,
      "Kais": 4851,
      "mag": 4852,
      "ough": 4853,
      "sanyaĠ": 4854,
      "ientĠ": 4855,
      "yaoĠ": 4856,
      "sá»į": 4857,
      "egem": 4858,
      "Shir": 4859,
      "shaw": 4860,
      "ĠáĪĺáĪĨáĬĳ": 4861,
      "jagor": 4862,
      "áĪ¨áĮĭ": 4863,
      "37": 4864,
      "áĬĹ": 4865,
      "waĠkwanzaĠ": 4866,
      "ly": 4867,
      "lilikuwaĠ": 4868,
      "ikuuĠ": 4869,
      "pap": 4870,
      "zaiĠ": 4871,
      "JuniĠ-Ġ": 4872,
      "elez": 4873,
      "awá»įn": 4874,
      "asih": 4875,
      "ity": 4876,
      "áĬĥ": 4877,
      "iya.Ġ": 4878,
      "dang": 4879,
      "oĠM": 4880,
      "neĠaĠ": 4881,
      "Kats": 4882,
      "áī£áĪŃ": 4883,
      "kn": 4884,
      "alil": 4885,
      "bÃł": 4886,
      "Braz": 4887,
      "YohaneĠ": 4888,
      "tiĠwonĠ": 4889,
      "prov": 4890,
      "kÃº": 4891,
      "fÃ©r": 4892,
      "ayyarĠ": 4893,
      "e)": 4894,
      "âĢĶ": 4895,
      "ĠáĭĪáīħáīµ": 4896,
      "nas": 4897,
      "oloseluĠ": 4898,
      "ĠáĬ¥áĬĲáĭļáĪħ": 4899,
      "ijerum": 4900,
      "áĮĭáĪį": 4901,
      "ĠáĪĥáĭŃáĪĽáĬĸ": 4902,
      "moj": 4903,
      "kwaĠm": 4904,
      "son": 4905,
      "ĠáĪµáīµ": 4906,
      "emĠ": 4907,
      "tÃŃĠaĠ": 4908,
      "ĠáĭŃáĭĺ": 4909,
      "ÆĻasaĠ": 4910,
      "ndaniĠyaĠ": 4911,
      "pÃłt": 4912,
      "´áį": 4913,
      "rá»įĠ": 4914,
      "engaĠ": 4915,
      "CharlesĠ": 4916,
      ",ĠM": 4917,
      "FebruaryĠ": 4918,
      "oldĠ": 4919,
      "Ġáĭįáĭµ": 4920,
      "ternĠ": 4921,
      "a-fin": 4922,
      "cc": 4923,
      "amaĠk": 4924,
      "taĠnaĠ": 4925,
      "áį²áį": 4926,
      "Rich": 4927,
      "áĪģáĬķ": 4928,
      "ģáĬĳ": 4929,
      ",ĠS": 4930,
      "áĭ¨áĪ±áĪµ": 4931,
      "vent": 4932,
      "ĠáĬ¬": 4933,
      "áī£áĭĬ": 4934,
      "DarĠ": 4935,
      "ĠáĪĽáī´áĭİáĪµ": 4936,
      "uĠniĠ": 4937,
      "akaĠk": 4938,
      "áĪ«áĪīáį¢": 4939,
      "2006": 4940,
      "ĠáĭķáĪĪáī³áīµ": 4941,
      "Jer": 4942,
      "ThisĠ": 4943,
      "Ġáĭ´": 4944,
      "babb": 4945,
      "ÃŃnĠ": 4946,
      ".ĠÃĮ": 4947,
      "agu": 4948,
      "Ġá»įÌĢkanĠ": 4949,
      "ary": 4950,
      "ĠthatĠ": 4951,
      "Sikuku": 4952,
      "Al-": 4953,
      "commun": 4954,
      "onom": 4955,
      "uatanaĠnaĠ": 4956,
      "aĠgasarĠ": 4957,
      "já»įÌģĠk": 4958,
      "ifaĠ": 4959,
      ",ĠmwandishiĠ": 4960,
      "FebruariĠ-Ġ": 4961,
      "undiĠ": 4962,
      "amfaniĠdaĠ": 4963,
      "fim": 4964,
      "Tim": 4965,
      "TazamaĠpiaĠOrodhaĠyaĠ": 4966,
      "ĠL": 4967,
      "wasanĠkwaikway": 4968,
      "AfrikaĠyaĠM": 4969,
      "Ġ'": 4970,
      "ekaĠ": 4971,
      "hadiĠkifoĠch": 4972,
      "wez": 4973,
      "ViungoĠvyaĠnje": 4974,
      "Dar": 4975,
      "kuch": 4976,
      "áĭ¨áī°": 4977,
      "áĮłáĬĵ": 4978,
      "áĭ®áĪŃ": 4979,
      "ĠAm": 4980,
      "Ã³mÃ¬nÃłĠ": 4981,
      "áĮįáĬķ": 4982,
      "27Ġ": 4983,
      "sinimÃ¡Ġ": 4984,
      "aruf": 4985,
      "ĠáīĢáĬĵáīµ": 4986,
      "ÃĢwá»įnĠÃ¨nÃ¬yÃłnĠ": 4987,
      "ĠáĭŃáĪħáĬķ": 4988,
      "t,Ġ": 4989,
      "toĠgbaĠ": 4990,
      "ai,Ġ": 4991,
      "áĪĽáī½": 4992,
      "shindiĠwaĠTuzoĠyaĠNobelĠyaĠFasih": 4993,
      "ShugabanĠ": 4994,
      "pá»įÌĢlá»įpá»įÌĢĠ": 4995,
      "dok": 4996,
      "ed.": 4997,
      "taraĠ": 4998,
      "Ele": 4999,
      "Kig": 5000,
      "upandeĠwaĠm": 5001,
      "aene": 5002,
      "Ġ10": 5003,
      "yanay": 5004,
      "ÃĢwá»įnĠá»įjá»įÌģÃ¬bÃŃĠnÃŃĠ": 5005,
      "olu": 5006,
      "áĪ«áĪµ": 5007,
      "web": 5008,
      "2003": 5009,
      "kasuwan": 5010,
      "Cong": 5011,
      "Te": 5012,
      "Ġáĭ¨áĪĻ": 5013,
      "mark": 5014,
      "ĠáĭŃáĪ°": 5015,
      "wakifuat": 5016,
      "áĪħáĬķ": 5017,
      "sal": 5018,
      "esĠofĠ": 5019,
      "trans": 5020,
      "23Ġ": 5021,
      "áī³áĭ°": 5022,
      "ĠáĪĿáĪµ": 5023,
      "lá»įÌģdÃºnĠ": 5024,
      "Ahm": 5025,
      "ĠáĮ¥áĬķáī³áĭĬ": 5026,
      "ndÃŃn": 5027,
      "Adam": 5028,
      "tofautiĠ": 5029,
      "elyĠ": 5030,
      "Es": 5031,
      "áĪįáĭ°": 5032,
      "ĠáĭĵáĪĪáĪĿ": 5033,
      "áĪ»áĭİáī½": 5034,
      "OnĠ": 5035,
      "áº¹s": 5036,
      "erĠofĠ": 5037,
      "iograf": 5038,
      "kaskaz": 5039,
      "ĠáīłáĬłáĬķáĭµ": 5040,
      "Den": 5041,
      "Ã©m": 5042,
      "Ġá»įmá»įĠorÃŃláº¹ÌĢ-Ã¨dÃ¨Ġ": 5043,
      "áĮĪáĪª": 5044,
      "á¹£Ã¨lÃºĠ": 5045,
      "polit": 5046,
      "Kif": 5047,
      "arsaĠ": 5048,
      "mak": 5049,
      "áī»áĭŃáĬĵ": 5050,
      "Comp": 5051,
      "ativ": 5052,
      "Arg": 5053,
      "endĠ": 5054,
      "Ġáĭ«áĪħáĪį": 5055,
      "syst": 5056,
      "uhuruĠ": 5057,
      "áī³áī¸áĭįáĬķ": 5058,
      "incip": 5059,
      "CC": 5060,
      "eĠnaĠ": 5061,
      "canĠ": 5062,
      "dayaĠdagaĠcikinĠ": 5063,
      "Ġ16": 5064,
      "ĠáĬłáĬķáĭ³": 5065,
      "áįĦ": 5066,
      "áįĪáĪĪ": 5067,
      "Ġá»įdÃºnĠ201": 5068,
      "JanuariĠ-Ġ": 5069,
      "ĪáĪĿ": 5070,
      "al.": 5071,
      "ChinaĠ": 5072,
      "Lou": 5073,
      "lasheĠ": 5074,
      "sasaĠ": 5075,
      "ron": 5076,
      "ĠáĪĺáĬķáĮįáĪµáīµ": 5077,
      "yaĠmwakaĠ": 5078,
      "ne.": 5079,
      "askof": 5080,
      "ĠáĪĺáĭµ": 5081,
      "ĠáĭĪáĪ¨": 5082,
      "usĠ(": 5083,
      "áĪłĠáĬĲáĮĪ": 5084,
      "nor": 5085,
      "iĠmaiĠ": 5086,
      "attalinĠ": 5087,
      "áĪŃáĪµáī²áĭ«": 5088,
      "Ãģfr": 5089,
      "amiĠ": 5090,
      "iniĠnaĠ": 5091,
      "Â»Ġ(": 5092,
      "Ã¹n-": 5093,
      "'y": 5094,
      "fáº¹Ìģ": 5095,
      "oĠtiĠ": 5096,
      "ali,Ġ": 5097,
      "áĪĽáĪŃ": 5098,
      "áĪĵ": 5099,
      "binĠ": 5100,
      "let": 5101,
      "ya.": 5102,
      "ĠáįĵáĪŃáī²": 5103,
      "hann": 5104,
      "orig": 5105,
      "Fran": 5106,
      "áĬķĠ(": 5107,
      "inap": 5108,
      "Arab": 5109,
      "iâĢĻ": 5110,
      "ity,Ġ": 5111,
      "ajir": 5112,
      "Ð¸": 5113,
      "ĠC": 5114,
      "Sala": 5115,
      "anÃ§": 5116,
      "ĠáĪĺáĪª": 5117,
      "kasaĠ": 5118,
      "watakatifuĠ": 5119,
      "rÃ¨Ġ": 5120,
      "inÃºĠ": 5121,
      "roĠ": 5122,
      "nÃŃnÃºĠÃłwá»įnĠ": 5123,
      "ollywo": 5124,
      "Alexand": 5125,
      "AlakosoĠ": 5126,
      "ĠáĪ´áīµ": 5127,
      "sign": 5128,
      "ÙĲ": 5129,
      "niĠaĠ": 5130,
      "utt": 5131,
      "irefu": 5132,
      "a;Ġ": 5133,
      "ba.": 5134,
      "ĠáīĢáĬķĠáīłáĬ¢áīµáĭ®áĮµáĭ«": 5135,
      "saf": 5136,
      "Ã³Ġá¹£": 5137,
      "elsĠ": 5138,
      "dur": 5139,
      "vid": 5140,
      "arz": 5141,
      "nÃŃĠá»įjá»įÌģĠk": 5142,
      "Ġáī¥áĪĪáĭį": 5143,
      "ÃĪkÃ³": 5144,
      "á»ĮÌĢ": 5145,
      "ĠáĪ¥áĪŃáĭĪĠáĪĺáĬķáĮįáĪ¥áīµ": 5146,
      "Kih": 5147,
      "áĮ¹": 5148,
      "etĠdeĠ": 5149,
      "dhidiĠyaĠ": 5150,
      "Lab": 5151,
      "doĠ": 5152,
      ".Ġ-": 5153,
      "taim": 5154,
      "uĠyaĠm": 5155,
      "anĠhaifeĠtaĠ": 5156,
      "ingiaĠ": 5157,
      "Ro": 5158,
      "epend": 5159,
      "masuĠ": 5160,
      "shair": 5161,
      "me": 5162,
      "aĠÆĻasarĠ": 5163,
      "aribuĠ": 5164,
      "nÃŃĠorÃŃláº¹ÌĢ-Ã¨dÃ¨Ġ": 5165,
      "vir": 5166,
      "score0": 5167,
      "aĠmapokeoĠyaĠ": 5168,
      "a.ĠM": 5169,
      "IF": 5170,
      "zoteĠ": 5171,
      "ika,Ġ": 5172,
      "ÃģfrÃŃ": 5173,
      "Ã¶": 5174,
      "aux": 5175,
      "DesembaĠ-Ġ": 5176,
      "Port": 5177,
      "bel": 5178,
      "á»įÌģn": 5179,
      "EneoĠ": 5180,
      "Fin": 5181,
      "ile": 5182,
      "OpenĠ": 5183,
      "ernĠ": 5184,
      "ling": 5185,
      "ĠáĬķáĮīáĪµ": 5186,
      "Ä«": 5187,
      "berg": 5188,
      "NovemberĠ": 5189,
      "babbanĠbirninĠ": 5190,
      "igbaĠ": 5191,
      "áīº": 5192,
      "akaf": 5193,
      "ibuĠ": 5194,
      "áĪĮáĬŃáīµ": 5195,
      "bertĠ": 5196,
      "yaĠkasanceĠ": 5197,
      "ikiĠwaĠ": 5198,
      "ĠáĭµáĪĿ": 5199,
      "ĠáĬłáĬ«áĪį": 5200,
      "jim": 5201,
      "Ġáĭ°áī¡áī¥": 5202,
      "áĬĲáīłáĪŃ": 5203,
      "DesembaĠ": 5204,
      "darÃŃĠ": 5205,
      "áĬĲáī¶áī½": 5206,
      "ammacinĠ": 5207,
      "jeshiĠ": 5208,
      "OctoberĠ": 5209,
      "mutaneĠ": 5210,
      "iakaĠmirefu": 5211,
      "ĠáįĪáĪŃáĭĸ": 5212,
      "abakiĠsikuĠ": 5213,
      "yá»į": 5214,
      "alich": 5215,
      "huadhimishaĠ": 5216,
      "sanaĠ": 5217,
      "áī¼": 5218,
      "Ġá¹¢": 5219,
      "baadayeĠ": 5220,
      "adir": 5221,
      "anzish": 5222,
      "North": 5223,
      "aĠwatanĠ": 5224,
      "Roma,ĠhuadhimishaĠ": 5225,
      "uisheĠ": 5226,
      "ĠkatikaĠmiakaĠmirefu": 5227,
      "wakifuataĠmapokeoĠyaĠ": 5228,
      "wakifuataĠmapokeoĠyaĠRoma,ĠhuadhimishaĠ": 5229,
      "áĪĪáī¥": 5230,
      "portĠ": 5231,
      "áĬķĠáĪĪ": 5232,
      "ouldĠ": 5233,
      "Ġáĭ¨áĪļáĪį": 5234,
      "produc": 5235,
      "ia.Ġ": 5236,
      "akonĠ": 5237,
      "Sen": 5238,
      "kush": 5239,
      "onye": 5240,
      "wendaĠ": 5241,
      "zinabakiĠsikuĠ": 5242,
      "Ġáĭ¨áĪĿáīµ": 5243,
      "WakristoĠwengi,Ġ": 5244,
      "uisheĠzinabakiĠsikuĠ": 5245,
      "WakristoĠwengi,ĠwakifuataĠmapokeoĠyaĠRoma,ĠhuadhimishaĠ": 5246,
      "Tun": 5247,
      "bÃ¬nrinĠ": 5248,
      "ĠAr": 5249,
      "KK": 5250,
      "atun": 5251,
      "Ãłl": 5252,
      "ĠMeiĠ-Ġ": 5253,
      "Ġ6": 5254,
      "áĪĭáĪīáį¢": 5255,
      "eĠdansĠ": 5256,
      "incl": 5257,
      "áĮłáīĥáĪĭáĭŃ": 5258,
      "áĪįáį¡áį¡": 5259,
      "áĬĽáį¦Ġ": 5260,
      "idg": 5261,
      "Oá¹£Ã¹ĠK": 5262,
      "Haif": 5263,
      "ĠáĪĺáĬĲ": 5264,
      "hadĠ": 5265,
      "TanaĠ": 5266,
      "neĠdagaĠ": 5267,
      "ed,Ġ": 5268,
      "Amáº¹ÌģrÃŃkÃłĠ": 5269,
      "oĠh": 5270,
      "arm": 5271,
      "sakeĠ": 5272,
      "0Ġ-Ġ": 5273,
      "mÃº": 5274,
      "amiaĠ": 5275,
      "áĬ¨áĪ«": 5276,
      "áĪŃáĭ«áĪĿ": 5277,
      "pakaĠuisheĠzinabakiĠsikuĠ": 5278,
      "itoĠ": 5279,
      "uelĠ": 5280,
      "watum": 5281,
      "ÃłtiĠÃłwá»įnĠ": 5282,
      "ablaĠyaĠ": 5283,
      "jul": 5284,
      "Vic": 5285,
      "piaĠm": 5286,
      "erc": 5287,
      "ism": 5288,
      "Sud": 5289,
      "tsarinĠ": 5290,
      "entomonĠ": 5291,
      "fum": 5292,
      "|-Ġ": 5293,
      "antsĠ": 5294,
      "LughaĠzaĠ": 5295,
      "n'": 5296,
      "onĠ(": 5297,
      "ĠáĬ¥áĬķáĪµ": 5298,
      "ĠáĬłáĮ¥": 5299,
      "ĠáĪ³áĭŃáĪĨáĬķ": 5300,
      "walejinĠ": 5301,
      "yanzuĠ": 5302,
      "rop": 5303,
      "áĬ©áĪį": 5304,
      "áĪĦáĭµ": 5305,
      "Apr": 5306,
      "astr": 5307,
      "áĮĪáĭį": 5308,
      "Ġáº¹ÌĢyÃłĠ": 5309,
      "reeĠ": 5310,
      "ĠBKĠ(BaadaĠyaĠKristo).ĠMatukioĠ": 5311,
      "EĠ": 5312,
      "Arm": 5313,
      "gÃŃgaĠ": 5314,
      "áĪįáįį": 5315,
      "ĠáĭĪáĮĪáĬķ": 5316,
      "Ã³l": 5317,
      "uĠkatikaĠ": 5318,
      "Way": 5319,
      "áĮ³": 5320,
      "iziĠ": 5321,
      "pay": 5322,
      "anniĠ": 5323,
      "áĪĪáĭ±": 5324,
      "Ã²finĠ": 5325,
      "áĮłáįĭ": 5326,
      "cin": 5327,
      "RobertĠ": 5328,
      "chez": 5329,
      "WestĠ": 5330,
      "tionsĠ": 5331,
      "Amurk": 5332,
      "Ġáī°áĬĲ": 5333,
      "DarĠesĠ": 5334,
      "arĠk": 5335,
      "igaĠ": 5336,
      "ĠApriliĠ-Ġ": 5337,
      "dir": 5338,
      "29Ġ": 5339,
      "BahariĠyaĠ": 5340,
      "ix": 5341,
      "áĪµáī±": 5342,
      "Ġáī³áĪĭáīħ": 5343,
      "Hukum": 5344,
      "AlimfuataĠ": 5345,
      "AgbegbeĠ": 5346,
      "nau": 5347,
      "aĠlokacinĠ": 5348,
      "ami": 5349,
      "ĠáĪĽáĪħ": 5350,
      "áĭ°áĮĭ": 5351,
      "Ġáĭ¨áī°áĪĪáĭ«áĭ©": 5352,
      "alÃłÃły": 5353,
      "jar": 5354,
      "ĠáĪĽáĪµáī³áĭĪ": 5355,
      "ana,Ġ": 5356,
      "ipindiĠ": 5357,
      "sil": 5358,
      "Ã¤": 5359,
      "Ġáĭ¨áīµ": 5360,
      "áĪ°áĬķ": 5361,
      "com/": 5362,
      "DP": 5363,
      "áī¬": 5364,
      "ifeĠ": 5365,
      "NovembaĠ-Ġ": 5366,
      "Ġáĭ¨áĬłáĪĽáĪŃáĬĽĠáĪĿáĪ³áĪĮĠáĬĲáĭįáį¢ĠáīµáĪŃáĮīáĪĻĠáĪĺáĭ°áī¥Ġ:Ġáī°áĪ¨áīµáĬĵĠáĪĿáĪ³áĪĮ": 5367,
      "ĠáĬŃáĪįáĪį": 5368,
      "pÃłtÃłk": 5369,
      "Pal": 5370,
      "mataĠ": 5371,
      "udaĠ": 5372,
      "ĠáĭĲ": 5373,
      "ĠáĬĳ": 5374,
      "naĠM": 5375,
      "ojuĠ": 5376,
      "IIIĠ": 5377,
      "cheoĠ": 5378,
      "ĠáĪ²áĪĨáĬķĠáĭŃáĪħ": 5379,
      "wengineĠ": 5380,
      "ĠáīłáĬ¥áĬķáĮįáĪĬáĭĿáĬĽ": 5381,
      "iniĠk": 5382,
      "aguziĠwaĠ": 5383,
      "Bibl": 5384,
      "26Ġ": 5385,
      "nit": 5386,
      "ananĠhukumominĠ": 5387,
      "µáį": 5388,
      "wararr": 5389,
      "ĠáĪĺáĭĿ": 5390,
      "affunĠ": 5391,
      "obÃ¬nrinĠ": 5392,
      "lambarĠ": 5393,
      "olÃ³rinĠ": 5394,
      "Wil": 5395,
      "pwan": 5396,
      "taĠkasanceĠ": 5397,
      "áįĪáīµ": 5398,
      "ext": 5399,
      "pÃŃnláº¹ÌĢ": 5400,
      "isaĠgaĠ": 5401,
      "un.": 5402,
      "ĠD": 5403,
      "Sah": 5404,
      "ce": 5405,
      "franÃ§": 5406,
      "partic": 5407,
      "áĪŃáĮį": 5408,
      "ayyaĠ": 5409,
      "agharibiĠ": 5410,
      "iamĠ": 5411,
      "isionĠ": 5412,
      "adinĠ": 5413,
      "o)Ġ": 5414,
      "ikip": 5415,
      "abis": 5416,
      "áº¹Ìģká»įÌĢá»įÌģĠ": 5417,
      "Ø¨": 5418,
      "ing,Ġ": 5419,
      "wÃł": 5420,
      "ikubwaĠ": 5421,
      "kumbukumbuĠzaĠ": 5422,
      "áĬĲáĮĪ": 5423,
      "áĭ³áĪĿ": 5424,
      "aĠshekararĠ201": 5425,
      "nomb": 5426,
      "sk": 5427,
      "ĠáĬĲáĭįáį¢Ġáĭ¨": 5428,
      "beenĠ": 5429,
      "gameĠdaĠ": 5430,
      "Ġáĭ¨áī°áī£áĪĪáĭį": 5431,
      "áĮłáĪį": 5432,
      "walip": 5433,
      "kumbukumbuĠzaĠwatakatifuĠ": 5434,
      "Offic": 5435,
      "atanĠ": 5436,
      "aĠkasarĠ": 5437,
      "kiraĠ": 5438,
      "Ùı": 5439,
      "inaĠm": 5440,
      "John": 5441,
      "kundiĠ": 5442,
      "áį¢Ġáīł": 5443,
      "ĠáĪĪáĭį": 5444,
      ",ĠmwigizajiĠwaĠfilamuĠ": 5445,
      "autarĠ": 5446,
      "ĠáĪĢáĮĪáĪŃ": 5447,
      "band": 5448,
      "asayans": 5449,
      "bak": 5450,
      "nem": 5451,
      "atikaĠkar": 5452,
      "Oy": 5453,
      "ĠáĪ©": 5454,
      "bang": 5455,
      "Ġáĭ¨áĪĮ": 5456,
      "áĮ¥áĬķáī³áĭĬ": 5457,
      "wag": 5458,
      "áĭ«áĪµ": 5459,
      "Ibrah": 5460,
      "etiĠ": 5461,
      "unz": 5462,
      "áī½áĭį": 5463,
      "nchiĠzaĠ": 5464,
      "encesĠ": 5465,
      "aan": 5466,
      "áĬķĠáĪµáĪĿ": 5467,
      "Ã©ta": 5468,
      "bo": 5469,
      "ĠáĪĨáĬĲáĭį": 5470,
      "ĠáĬ¥áĮħáĮį": 5471,
      "uth": 5472,
      "ĠáĭĻáĪªáĭ«": 5473,
      "Lat": 5474,
      "áĪĭáĪī": 5475,
      "ĠkatikaĠmiakaĠmirefu).ĠM": 5476,
      "a)": 5477,
      "aliwaĠnaĠ": 5478,
      "áĬĽáĭįĠáĬŃáįįáĪĪĠáĭĺáĪĺáĬķ": 5479,
      "IlÃ©-": 5480,
      "kÃ¹nrinĠ": 5481,
      "nip": 5482,
      "ÃłgbÃ¡": 5483,
      "áī¶áī¹": 5484,
      "âĢĿĠ": 5485,
      "á»įÌĢn": 5486,
      "avy": 5487,
      "isiwaĠchaĠ": 5488,
      "ĠSeptembaĠ-Ġ": 5489,
      "moĠ": 5490,
      "warĠ": 5491,
      "Ã³paĠ": 5492,
      "dog": 5493,
      "Ã¬gbÃ©": 5494,
      "áĭ°áĬķ": 5495,
      "áīłáĪĮ": 5496,
      "áĭŃáĬĲáīµ": 5497,
      "áī½áĪį": 5498,
      "zamaniĠ": 5499,
      "Ter": 5500,
      "áī°áĭĭáĪįáį¢": 5501,
      "olÃº": 5502,
      "hiv": 5503,
      "áī¨áĪŃ": 5504,
      "yn": 5505,
      "ĠáĮĨ": 5506,
      "antuĠ": 5507,
      "rom": 5508,
      "'YanĠ": 5509,
      "IjobaĠ": 5510,
      "Rh": 5511,
      "Wag": 5512,
      "enneĠ": 5513,
      "áį¤Ġáīł": 5514,
      "HaifaffunĠ": 5515,
      "Bo": 5516,
      "aff": 5517,
      "AĠwatanĠ": 5518,
      "DarĠesĠSala": 5519,
      "ana.": 5520,
      "iriĠnaĠ": 5521,
      "dominĠ": 5522,
      "eshiĠ": 5523,
      "elaĠ": 5524,
      "áĮĪáĬĽ": 5525,
      "apr": 5526,
      "LakiniĠ": 5527,
      "áĮĪáĬĲ": 5528,
      "JulyĠ": 5529,
      "pyaĠ": 5530,
      "áĬŃáĪĪ": 5531,
      "Abub": 5532,
      "fÃłĠ": 5533,
      "Soci": 5534,
      "ba,Ġ": 5535,
      "aâĢĻ": 5536,
      "áĬ¨áĪŃ": 5537,
      "Hak": 5538,
      "cik": 5539,
      "eniyanĠ": 5540,
      "siyas": 5541,
      "fÃł": 5542,
      "JamhuriĠyaĠ": 5543,
      "âĢ¦": 5544,
      "áĭĺáī¥": 5545,
      "ĠáĬ«áĪį": 5546,
      "ya,Ġ": 5547,
      "chaĠm": 5548,
      "áĬŃáĪŃáĪµáī²áĭ«áĬķ": 5549,
      "agbegbeĠ": 5550,
      "wandaĠakaĠ": 5551,
      "harĠzuwaĠ": 5552,
      "met": 5553,
      "coun": 5554,
      "dÃ¬": 5555,
      "áĪªáī³": 5556,
      "ItĠ": 5557,
      "ikiaĠ": 5558,
      "áī½áĪģ": 5559,
      "áĭ¨áĪĺ": 5560,
      "áĬ«áī£áī¢": 5561,
      "Alit": 5562,
      "dukĠ": 5563,
      "uĠmasoĠ": 5564,
      "1)": 5565,
      "áī°áĬķ": 5566,
      "idayarĠ": 5567,
      "kim": 5568,
      "Ġáĭ¨áī³": 5569,
      "áī£áĪįáį¢": 5570,
      "ĠduĠ": 5571,
      "parti": 5572,
      "AgbaĠ": 5573,
      "yÃ¬n": 5574,
      "ISBNĠ": 5575,
      "Sark": 5576,
      "2007": 5577,
      "hel": 5578,
      "kubwaĠyaĠ": 5579,
      "LeoĠ": 5580,
      "kulaĠ": 5581,
      "Ãłká»įÌģká»įÌģĠ": 5582,
      "NchiĠzaĠ": 5583,
      "lÃ¨": 5584,
      "ĠáĬłáįį": 5585,
      "whoĠ": 5586,
      "=\"": 5587,
      "fac": 5588,
      "Ġáĭ¨áĭĵ": 5589,
      "UfaransaĠ": 5590,
      "Yes": 5591,
      "ayyunĠ": 5592,
      "áī²áĬŃ": 5593,
      "lem": 5594,
      "áĬ½": 5595,
      "osereĠ": 5596,
      "iĠmwakaĠ": 5597,
      "Ġá¹£Ã¹gbá»įÌģnĠ": 5598,
      "sci": 5599,
      "wÃ¡jÃºĠ": 5600,
      "Ãłn.": 5601,
      "aĠfanninĠ": 5602,
      "ĠáīłáĪį": 5603,
      "osiĠ": 5604,
      "áī¥áĪŃáĪĥ": 5605,
      "oni": 5606,
      "áĪĪáī°áĬĽáĭį": 5607,
      "rĠ": 5608,
      "áĬĭáĪĭ": 5609,
      "ĠáĪĽáĮ£": 5610,
      "áĬ¾": 5611,
      "ĠáĬ¥áĭµ": 5612,
      "áĪ³áī°": 5613,
      "NovembaĠ": 5614,
      "ĠáĭŃáī½áĪĭáĪįáį¢": 5615,
      "ĠáĭĵáĬŃáĪįáīł.ĠáĮįáĭµáĪĿ": 5616,
      "áĪŃ-": 5617,
      "yautarĠ": 5618,
      "ida": 5619,
      "ĠáĭŃáī³áĭĪáīĥáĪįáį¢": 5620,
      "Ð¾": 5621,
      "sĠinĠ": 5622,
      "áĪ«áī¸áĭį": 5623,
      "Kud": 5624,
      "ÃĵĠk": 5625,
      "Musulun": 5626,
      "gbÃ³": 5627,
      "ĠáĬ¥áĬķáĭ°áĪĨáĬĲ": 5628,
      "Ġáĭ¨áĪĨáĬĳ": 5629,
      "Ġáĭ©áĬĴ": 5630,
      "Republ": 5631,
      "Nair": 5632,
      "áīĥáĪį": 5633,
      "áĬĳáĪµ": 5634,
      "Mit": 5635,
      "Ġáī°áīĭ": 5636,
      "tsohonĠ": 5637,
      "Pap": 5638,
      "samaĠ": 5639,
      "asĠtheĠ": 5640,
      "Ġd'": 5641,
      "sáº¹ÌĢĠ": 5642,
      "áĭ«áĭ«": 5643,
      "utaneĠ": 5644,
      "AmurkaĠ": 5645,
      "conc": 5646,
      "birniĠ": 5647,
      "NchiĠ": 5648,
      "bil": 5649,
      "iung": 5650,
      "Kin": 5651,
      "mill": 5652,
      "inĠ(": 5653,
      "ĠáĬłáĭ²áĪµ": 5654,
      "áī¥áĪĬáĬŃ": 5655,
      "duniaĠ": 5656,
      "áĬ«áĪį": 5657,
      "utilis": 5658,
      "daĠkar": 5659,
      "lughaĠzaĠ": 5660,
      "ÃĮbÃłd": 5661,
      "TovutiĠ": 5662,
      "ĠAb": 5663,
      "Democ": 5664,
      "Som": 5665,
      "láº¹": 5666,
      "etoĠ": 5667,
      "áī£áĪī": 5668,
      "Ġáĭ¨áĬĲáīłáĪ¨áĭį": 5669,
      "awaidaĠ": 5670,
      "ax": 5671,
      "alk": 5672,
      "áīłáĬĽ": 5673,
      "áĬ¡": 5674,
      "áī£áĪħ": 5675,
      "áĬłáĪĿ": 5676,
      ";Ġ(": 5677,
      "RayayyunĠ": 5678,
      "ItaĠ": 5679,
      "daĠg": 5680,
      "ĠáĭŃáĮłáīĢ": 5681,
      "auch": 5682,
      "Ġá»įÌĢd": 5683,
      "Can": 5684,
      ",ĠmshindiĠwaĠTuzoĠyaĠNobelĠyaĠFizikiaĠmwakaĠwaĠ": 5685,
      "ÃĢwá»įnĠÃ¨nÃ¬yÃłnĠalÃłÃły": 5686,
      "áĬķáĮ«": 5687,
      "ambul": 5688,
      "falmeĠm": 5689,
      "gbá»įÌĢnĠ": 5690,
      "ĠáĭŃáī»": 5691,
      "KiingerezaĠ": 5692,
      "96": 5693,
      "sos": 5694,
      "arkashinĠ": 5695,
      "utamad": 5696,
      "85": 5697,
      "JuneĠ": 5698,
      "áĪ±áĪĿ": 5699,
      "ĠáĬ«áĪĮ": 5700,
      "falmeĠwaĠ": 5701,
      "Ã²á¹£erÃ©Ġ": 5702,
      "hataĠ": 5703,
      "larg": 5704,
      "ere": 5705,
      "ĠáĪĪáĬ¥": 5706,
      "iyaĠtaĠ": 5707,
      "ininĠ": 5708,
      "Wad": 5709,
      "waoĠ": 5710,
      "hukumaĠ": 5711,
      "tĠofĠ": 5712,
      "AllahĠ": 5713,
      "ulaĠ": 5714,
      "Ġáĭ«áĪī": 5715,
      "ĠáĪ«áĪµ": 5716,
      "HispaniaĠ": 5717,
      "group": 5718,
      "t-": 5719,
      "AĠranarĠ": 5720,
      "áĭĽáĪ¬": 5721,
      "fÃºnĠÃłwá»įnĠ": 5722,
      "yau": 5723,
      "Wash": 5724,
      "ĠT": 5725,
      "binc": 5726,
      "áĮ¼": 5727,
      "rÃ¨": 5728,
      "annaĠ": 5729,
      "eyiĠ": 5730,
      "lÃ²": 5731,
      "nÃŃtorÃŃĠ": 5732,
      "jÃ¹Ġ": 5733,
      "in-": 5734,
      "ake.": 5735,
      "Ġti": 5736,
      "withĠtheĠ": 5737,
      "Nij": 5738,
      "áī³áī½áĬķ": 5739,
      "33": 5740,
      "dÃ¡raĠ": 5741,
      "áº¸ÌĢ": 5742,
      "Ġ7": 5743,
      "47": 5744,
      "siteĠ": 5745,
      "iĠaĠ": 5746,
      "iyoĠ": 5747,
      "Ġáīłáĭį": 5748,
      "ĠáĪŀáīµ": 5749,
      "uhim": 5750,
      "ĠáĭįáĪµáĮ¥Ġáĭ¨áĪļáĮĪáĬĿ": 5751,
      "WakatiĠwaĠ": 5752,
      "áĭ°áĪ¨áĮī": 5753,
      "Ulay": 5754,
      "girmaĠ": 5755,
      "áĮĪáĭĽ": 5756,
      "istoriaĠ": 5757,
      "Ã¬sÃłnĠ": 5758,
      "Ġáĭ¨áī°áĬŃáĪī": 5759,
      "ĠAug": 5760,
      "uck": 5761,
      "áīģáĪŃ": 5762,
      "niĠsikuĠyaĠ": 5763,
      "iĠkatikaĠm": 5764,
      "ilimaĠyaĠ": 5765,
      "4,": 5766,
      "wid": 5767,
      "el,Ġ": 5768,
      "ĠáīłáĪ¨": 5769,
      "Pak": 5770,
      "iĠkwenyeĠ": 5771,
      "ĠáĭĵáĪĺáī±": 5772,
      "Ã¨tÃ²": 5773,
      "Kor": 5774,
      "olanz": 5775,
      "fina-fin": 5776,
      "njiaĠ": 5777,
      "ZiwaĠ": 5778,
      "fus": 5779,
      "abi": 5780,
      "áĬĿáĬĲáīµ": 5781,
      "C.": 5782,
      "Ne": 5783,
      "namoĠ": 5784,
      "Ġáī¤áī°ĠáĬŃáĪŃáĪµáī²áĭ«áĬķ": 5785,
      "wá»įÌģn": 5786,
      "áĬłáĪį": 5787,
      "Kut": 5788,
      "haliĠ": 5789,
      "mulk": 5790,
      "áĭµáĪµáīµ": 5791,
      "KiswahiliĠ": 5792,
      "mÃ¹Ġ": 5793,
      "áĭ£": 5794,
      "wamnanĠ": 5795,
      "struc": 5796,
      "tim": 5797,
      "Ã¬rÃ²yÃ¬nĠ": 5798,
      "âĢ¢ĠMtoĠ": 5799,
      "ĠáīłáĬ©áĪį": 5800,
      "Mah": 5801,
      "nadaĠ": 5802,
      "ajiĠm": 5803,
      "awaĠnaĠ": 5804,
      "Ilim": 5805,
      "overnmentĠ": 5806,
      "Mac": 5807,
      "Lang": 5808,
      "wing": 5809,
      "áĬķáĭ²": 5810,
      "áĬķáĭ¶": 5811,
      "aussiĠ": 5812,
      "eff": 5813,
      "ĠáīµáĪįáīħ": 5814,
      "ste": 5815,
      "ĠáĪľáīµáĪŃ": 5816,
      "Ġáĭ±": 5817,
      "áĮłáĪĭ": 5818,
      "ES": 5819,
      "mwakaĠ": 5820,
      "iĠkwaĠm": 5821,
      "waĠki": 5822,
      "ĠáĬłáĪ°": 5823,
      "ĠáįķáĪ¬áĭļ": 5824,
      "áĪ©áīµ": 5825,
      "ĠáĭįáĮ¤": 5826,
      "'yarĠ": 5827,
      "jaĠ": 5828,
      "ĠáĮĪáī¥": 5829,
      ".ĠS": 5830,
      "nÃ¡Ãł,Ġ": 5831,
      "2005": 5832,
      "Makar": 5833,
      "rough": 5834,
      "áīħáĪµ": 5835,
      "ĠáĪ¥áĪĭáĪ´": 5836,
      "ĠáĪķáĭĿ": 5837,
      "iliyanĠ": 5838,
      "báº¹ÌģĠ": 5839,
      "ĠáįĢ": 5840,
      "dâĢĻ": 5841,
      "South": 5842,
      "ĠáĮįáī¥áĮ½": 5843,
      "ana'": 5844,
      "film": 5845,
      ".ĠÃĢwá»įnĠÃ¬t": 5846,
      "shairiĠ": 5847,
      "WakristoĠwengi,ĠwakifuataĠmapokeoĠyaĠRoma,ĠhuadhimishaĠkumbukumbuĠzaĠwatakatifuĠ": 5848,
      "onÃŃá¹£": 5849,
      "ĠáĮ½áĪĳáįį": 5850,
      "Born": 5851,
      "iĠkoĠ": 5852,
      "Najeriya": 5853,
      "(yaĠ": 5854,
      "áĭķáĭĿ": 5855,
      "Ø¯": 5856,
      "Ġáĭ¨áĪ°áĭį": 5857,
      "a\"Ġ": 5858,
      "ondeĠ": 5859,
      "aniĠnaĠ": 5860,
      ")ĠáĬ¨": 5861,
      "GÃ³mÃ¬nÃłĠ": 5862,
      "undĠ": 5863,
      "áĪĪáĪģ": 5864,
      "nÃŃgbÃłĠtÃŃĠ": 5865,
      "Ġáĭŀ": 5866,
      "ĠáĭŃáĪħáĪĿ": 5867,
      "Æ´": 5868,
      "ote.": 5869,
      "Ã¬á¹£áº¹ÌĢ": 5870,
      "48": 5871,
      "jÃ©Ġ": 5872,
      "ine,Ġ": 5873,
      "áĪįáīµ": 5874,
      "MariaĠ": 5875,
      "ÅĦĠá¹£eĠ": 5876,
      "gidanĠ": 5877,
      "t.": 5878,
      "Î±": 5879,
      ",ĠtheĠ": 5880,
      "ĠáĬłáĬĲ": 5881,
      "Ġ(201": 5882,
      "ilimiaĠ": 5883,
      "writ": 5884,
      "áĬ¨áī°áĪĪáĭį": 5885,
      "áĬķáĭ³áĪŃ": 5886,
      "2009": 5887,
      "includ": 5888,
      "áĬķĠáĪĪáĪĺ": 5889,
      "aniĠdaĠ": 5890,
      "Abuj": 5891,
      "tech": 5892,
      "DavidĠ": 5893,
      "ajiliĠyaĠ": 5894,
      "ĠSch": 5895,
      "uhimuĠ": 5896,
      "ĠáīłáĭĺáĪĺáĬĲĠáĭ®áĪĲáĬķáĪµ": 5897,
      "owaĠ": 5898,
      "áĬ¨áįį": 5899,
      "efuĠ": 5900,
      "Ã¬dÃŃĠ": 5901,
      "gÃ©n": 5902,
      "oireĠ": 5903,
      "obiĠ": 5904,
      "ÃĢwá»įnĠÃĮt": 5905,
      "ÅĦĠk": 5906,
      "ĠáĭµáĬķ": 5907,
      "ies": 5908,
      "waĠmwakaĠ": 5909,
      "hiliĠ": 5910,
      "Ãį": 5911,
      "áīĢáĪį": 5912,
      "ÃĪkÃ³Ġ": 5913,
      "resp": 5914,
      "áĪµáī°áĬĽ": 5915,
      "vers": 5916,
      "chaĠk": 5917,
      "áīĢáĭµáĪŀ": 5918,
      "walit": 5919,
      "NÃŃĠá»įdÃºnĠ201": 5920,
      "Dam": 5921,
      "áĬ¨áī¥": 5922,
      "lá»įÌģwá»įÌģĠ": 5923,
      "Turk": 5924,
      "ierĠ": 5925,
      "ĠáĪĺáĪ¨áĮĥ": 5926,
      "halar": 5927,
      "zoĠyaĠ": 5928,
      "atum": 5929,
      "rayuwaĠ": 5930,
      "ĠáĪĿáĬķáĮŃ": 5931,
      "anyĠ": 5932,
      "áĭ³áĮħ": 5933,
      "ĠáīłáĪĺáĪĨáĬĳ": 5934,
      "áº¹ráº¹Ġ": 5935,
      "TV": 5936,
      "ÃºÃºs": 5937,
      "Ġáīłáĭ¨": 5938,
      "áį¡áĭ¨": 5939,
      "igu": 5940,
      "lÃ©Ġráº¹ÌĢĠ": 5941,
      "ĠáĬłáĭµ": 5942,
      "ĠáĬŃáĪŃáĪµáī¶áĪµ": 5943,
      "Ã¬dÃŃ": 5944,
      "ine.": 5945,
      "ilich": 5946,
      "identĠ": 5947,
      "ĠáĪµáĪĪáĭļáĪħ": 5948,
      "IbileĠ": 5949,
      "áĮİáĪŃáĮİáĪŃ": 5950,
      "Greg": 5951,
      "ungeĠlaĠ": 5952,
      "Moh": 5953,
      "div": 5954,
      "ÙĴ": 5955,
      "imp": 5956,
      "áīłáĭį": 5957,
      "ĠáīłáĪĨ": 5958,
      "áĭ³áĬķáīµ": 5959,
      ")Ġt": 5960,
      "áĪ¥áī±": 5961,
      "ĠáĬłáī£áĪį": 5962,
      "wadan": 5963,
      "MarchĠ": 5964,
      "áĬªáĭ«": 5965,
      "shiĠneĠdanĠ": 5966,
      "FM": 5967,
      "Ver": 5968,
      "d,Ġ": 5969,
      "awa.": 5970,
      "Ġáĭ¨áĬĸ": 5971,
      "toĠgbaĠEbunĠ": 5972,
      "vij": 5973,
      "áĬķĠáī°": 5974,
      "ileĠniĠ": 5975,
      "Reg": 5976,
      "pil": 5977,
      ".ĠT": 5978,
      "et,Ġ": 5979,
      "ambakoĠ": 5980,
      "ĠáĬ¥áĬķáĭ°áī°": 5981,
      "Bell": 5982,
      "iedĠ": 5983,
      "rank": 5984,
      "eĠdaĠ": 5985,
      "onsĠ": 5986,
      "Alg": 5987,
      "ranĠ": 5988,
      "áī£áī¥": 5989,
      "iquesĠ": 5990,
      "ĠáįķáĪ®": 5991,
      "KamusiĠ": 5992,
      "pá»į": 5993,
      "Ðµ": 5994,
      "ones": 5995,
      "work": 5996,
      "yaĠmwakaĠ(yaĠ": 5997,
      "CityĠ": 5998,
      "jÃłĠ": 5999,
      "ÃŃnÃºĠ": 6000,
      "Gar": 6001,
      "isteĠ": 6002,
      "aiĠnaĠ": 6003,
      "izaĠ": 6004,
      "haifiĠ": 6005,
      "ĠáīłáĮ¥": 6006,
      "ulikuwaĠ": 6007,
      "ĠáĬ¥áĬķáĬ³": 6008,
      "áĭĭáīµ": 6009,
      "ĠáĪħáĭĿáī¥": 6010,
      "ĠáĬłáĬķáĭ³áĬķáĭµ": 6011,
      "biliĠ": 6012,
      "eyeĠ": 6013,
      "vari": 6014,
      "áĬķĠáīłáĪĺ": 6015,
      "DĠ": 6016,
      "Air": 6017,
      "du": 6018,
      "mi": 6019,
      "oundĠ": 6020,
      "áī§": 6021,
      "Roy": 6022,
      "ÃºrÃ²Ġ": 6023,
      "ĠáīłáĪĻáĪī": 6024,
      "ianoĠ": 6025,
      "baraĠ": 6026,
      "áĭĿáĪĽáī½": 6027,
      ",ĠmshindiĠwaĠTuzoĠyaĠNobelĠyaĠKemiaĠmwakaĠwaĠ": 6028,
      "ĠáįĬáĭ°áĪį": 6029,
      "áĪ³áĪį": 6030,
      "ĠáīłáĪ«": 6031,
      "ĠáīģáĮ¥": 6032,
      "ĠáĬłáĭŃáĭ°áĪĪáĪĿ": 6033,
      "hank": 6034,
      "yauĠ": 6035,
      "harshenĠ": 6036,
      "yam": 6037,
      "áĮ¾": 6038,
      "áĪµáī¶": 6039,
      "induz": 6040,
      "ĠáĬłáĪĿáĪĭáĬŃ": 6041,
      "fimĠ": 6042,
      "hiĠ": 6043,
      "Lagos": 6044,
      "Láº¹ÌģyÃ¬nĠ": 6045,
      "huoĠ": 6046,
      "áĮĬáĪµ": 6047,
      "áĪµáĪ«áīħ": 6048,
      "iyoy": 6049,
      "ivyoĠ": 6050,
      "ĠáĪĽáĪŃáīĨáĪµ": 6051,
      "áĭ¨áĭį": 6052,
      "Nam": 6053,
      "inrinĠ": 6054,
      "pÃłÃ¡Ġ": 6055,
      "ĠkatikaĠmiakaĠmirefu).ĠMpakaĠuisheĠzinabakiĠsikuĠ": 6056,
      "ĠáĪĺáĮ»": 6057,
      "olojiaĠ": 6058,
      "loc": 6059,
      "enĠ(": 6060,
      "áĬłáĭŃ": 6061,
      "áīłáĪ¬": 6062,
      "abub": 6063,
      "ĠáĬ¥áĬķáĭ°áĮĪáĬĵ": 6064,
      "ĠáĪļáĪĬ": 6065,
      "Chi": 6066,
      "Ġ15": 6067,
      "ĠÐ": 6068,
      "áĪ«áĪĿ": 6069,
      "iakaĠyaĠ": 6070,
      "ĠáĬ¥áĪµáĬ¨Ġ20": 6071,
      "ĠáīłáĪ½áī³": 6072,
      "sinimÃ¡ĠÃłgbÃ©lÃ©": 6073,
      "ina,Ġ": 6074,
      "IjobaĠIbileĠ": 6075,
      "ayáº¹": 6076,
      "áĬ«áī³": 6077,
      "kumaĠk": 6078,
      "ombeĠ": 6079,
      "BĠ": 6080,
      "bahar": 6081,
      "adhiĠyaĠ": 6082,
      "-d": 6083,
      "okaĠ": 6084,
      "Ãłwá»įnĠá»įmá»įĠ": 6085,
      "farkonĠ": 6086,
      "diniĠ": 6087,
      "alÃ¡Ã¬sÃŃĠnÃŃĠ": 6088,
      "ĠáīłáĬ¢": 6089,
      "class": 6090,
      "nÃŃgbÃłĠ": 6091,
      "Academ": 6092,
      "maj": 6093,
      "áĬķĠáĪĽ": 6094,
      "neĠnaĠ": 6095,
      "1999": 6096,
      "jÃ¬Ġ": 6097,
      "tas": 6098,
      "ĠáĪĪáī°": 6099,
      "iláº¹": 6100,
      "agul": 6101,
      "Alb": 6102,
      "isĠ(": 6103,
      "áĪŀáĬŃ": 6104,
      "ÉĹinĠ": 6105,
      "tanaĠdaĠ": 6106,
      "lilil": 6107,
      "ĠáĬ«áĪĮáĬķáĭ³áĪŃ": 6108,
      "ambapoĠ": 6109,
      "anci": 6110,
      "áĪµáīµáĬĵ": 6111,
      "aĠyankinĠ": 6112,
      "ThomasĠ": 6113,
      "ÃĢwá»įnĠá»įjá»įÌģ": 6114,
      "asayansiĠwaĠ": 6115,
      "WannanĠ": 6116,
      "umiĠ": 6117,
      "ekoĠ": 6118,
      "ãĤ": 6119,
      "odiĠ": 6120,
      "ers,Ġ": 6121,
      "áīĭáĬķáīĭ": 6122,
      "áĪģáĪī": 6123,
      "Ġá»ĮdÃºnĠ": 6124,
      "ZanzibarĠ": 6125,
      "áĮİáĪŃáĮİáĪŃáĭ«áĬķ": 6126,
      "áĮłáīĢáĪĿ": 6127,
      "Kur": 6128,
      "abinc": 6129,
      "áĬķáĭ³áĬķáĭµ": 6130,
      "ĠáĭŃáĭĪ": 6131,
      "Kiingerez": 6132,
      "38": 6133,
      "99": 6134,
      "aelĠ": 6135,
      "Î¿": 6136,
      "YunifÃ¡": 6137,
      "31Ġ": 6138,
      "takeĠ": 6139,
      "nÃŃĠá»įdÃºnĠ201": 6140,
      "jirginĠ": 6141,
      "Ros": 6142,
      "áĪµáĪĽ": 6143,
      "ĠtoĠtheĠ": 6144,
      "Ã¬dÃ¡": 6145,
      "WilliamĠ": 6146,
      "ai.": 6147,
      "áĭĽáĭĿ": 6148,
      "VitaĠ": 6149,
      "eneĠ": 6150,
      "Ã¨-": 6151,
      "ĠáĪĺáī¶": 6152,
      "UgandaĠ": 6153,
      "ÃĢwá»įnĠá»įjá»įÌģalÃ¡Ã¬sÃŃĠnÃŃĠ": 6154,
      "áĪįáĮħ": 6155,
      "HistoriaĠyaĠ": 6156,
      "Dev": 6157,
      "him": 6158,
      "ymp": 6159,
      "zur": 6160,
      "Mlim": 6161,
      "niĠá»įdunĠ": 6162,
      "ambayoĠniĠ": 6163,
      "ars": 6164,
      "arsĠ": 6165,
      "áĭ«áĭĿ": 6166,
      "umz": 6167,
      "amba": 6168,
      "izariĠwaĠ": 6169,
      "áĭ³áĬķáĭ±": 6170,
      "WanasayansiĠwaĠ": 6171,
      "áĮ£áĪįáĭ«áĬķ": 6172,
      "HasaĠ": 6173,
      "wá»įÌĢĠ": 6174,
      "Ġáį«": 6175,
      "áįįáĬĵ": 6176,
      "BritishĠ": 6177,
      "lá»į.": 6178,
      "MajalisarĠ": 6179,
      "eo": 6180,
      "ĠáĬĹ": 6181,
      "AgbegbeĠIjobaĠIbileĠ": 6182,
      "ation.": 6183,
      "Iv": 6184,
      "apÃ¡Ġ": 6185,
      "áĬ¥áĮįáĭļáĬłáī¥áĪĶáĪŃ": 6186,
      "ipeĠ": 6187,
      "imboĠ": 6188,
      "dÃ³": 6189,
      "asalinĠ": 6190,
      "maĠÅĦĠ": 6191,
      "long": 6192,
      "artĠ": 6193,
      "áī²áĬķ": 6194,
      "tÃłĠ": 6195,
      "azim": 6196,
      "uatwaĠnaĠ": 6197,
      "itinĠ": 6198,
      "utum": 6199,
      "ĠáĪĿáĬĵáĪį": 6200,
      "hiziĠ": 6201,
      "ĠáĪĽáĮ£áīĢ": 6202,
      "ĠáĪĿáĬĵáĪįáī£áīµ": 6203,
      "Ġáī£áĪį": 6204,
      "yake.": 6205,
      "áĪįáīģ": 6206,
      "áĭ®áĪŃáĮĬáĪµ": 6207,
      "46": 6208,
      "usul": 6209,
      "31": 6210,
      "ĠáĬłáī£áīµ": 6211,
      "Pi": 6212,
      "áĪ«áĪ½": 6213,
      "ajuĠ": 6214,
      "progr": 6215,
      "Ġáīµáĭį": 6216,
      "áĪİáĬķ": 6217,
      "áĬķáīĢ": 6218,
      "ĠáĬłáĪģáĬķ": 6219,
      "attalinĠarz": 6220,
      "hy": 6221,
      "áīµáĪĿ": 6222,
      "Ã©lÃ©": 6223,
      "Su": 6224,
      "dak": 6225,
      "kuw": 6226,
      "amarĠhukumarĠ": 6227,
      "91Ġáĭĵ.áĪĿ.": 6228,
      "on-": 6229,
      "shiĠneĠdanĠwasanĠÆĻwallonĠÆĻafaĠtaĠÆĻasarĠIngil": 6230,
      "Kong": 6231,
      "ÃªmeĠ": 6232,
      "áīłáĪ°": 6233,
      "áĪ¥áĪ«áīħ": 6234,
      "áĮİáĪŃáĮİáĪŃáĭ«áĬķĠáĬ«áĪĮáĬķáĭ³áĪŃ": 6235,
      "kÃ¬": 6236,
      "hay": 6237,
      "ĠáĪİ": 6238,
      "gá»įÌģ": 6239,
      "áĮĪáī¡": 6240,
      "OL": 6241,
      "ĠáĪ¹": 6242,
      "---": 6243,
      "Fark": 6244,
      "áº¹ÌĢ.": 6245,
      "ĠSt": 6246,
      "Institut": 6247,
      "MunguĠ": 6248,
      "duk": 6249,
      "¹áį": 6250,
      "ºáį": 6251,
      "áīłáĪī": 6252,
      "Ã¬má»įÌĢ": 6253,
      "hadaĠdaĠ": 6254,
      "Ful": 6255,
      "tÃ²": 6256,
      "áĪıáĪįáį¢": 6257,
      "2000": 6258,
      "fordĠ": 6259,
      "rubutaĠ": 6260,
      "Hot": 6261,
      "ellesĠ": 6262,
      "oĠmwakaĠ": 6263,
      "ĠáįĪáĪ¨áĬķ": 6264,
      "Ġáĭ³áĪŃ": 6265,
      "bet": 6266,
      "asiĠyaĠ": 6267,
      "Ã³n": 6268,
      "áĪªáīµ": 6269,
      "Kol": 6270,
      "We": 6271,
      "ta.": 6272,
      "ĠáīłáĪķ": 6273,
      "amarĠhukumaĠ": 6274,
      "peop": 6275,
      "2008": 6276,
      "press": 6277,
      "angaĠ": 6278,
      "DanĠ": 6279,
      "NewĠYorkĠ": 6280,
      "AF": 6281,
      "Gwamn": 6282,
      "ĠáĪįáī¥": 6283,
      "Ġáī°áĬĵ": 6284,
      "utionĠ": 6285,
      "39": 6286,
      "der": 6287,
      "aniĠwaĠ": 6288,
      "ĠáĭµáĬķáĮĭ": 6289,
      "ĠáĪĽáĪµáī³áĭĪáĪ»áĭİáī½": 6290,
      ",ĠB": 6291,
      "utanenĠ": 6292,
      "eanĠ": 6293,
      "ĠØ§ÙĦ": 6294,
      "AliĠ": 6295,
      "leoĠ": 6296,
      "leur": 6297,
      "áĭ«áĬķáĭ³áĬķáĭ±": 6298,
      "walik": 6299,
      "daiĠ": 6300,
      "oirĠ": 6301,
      "Ġáī¶": 6302,
      "ĠáĪĺáĮ¥": 6303,
      "Ãłgb": 6304,
      "bugaĠ": 6305,
      "ká»įÌĢĠ": 6306,
      "takaĠ": 6307,
      "2004": 6308,
      "ongez": 6309,
      "mam": 6310,
      "osp": 6311,
      "ansuĠ": 6312,
      "imbab": 6313,
      "pÃ²Ġ": 6314,
      "a,Ġk": 6315,
      "OlÃº": 6316,
      "Ot": 6317,
      "fitoĠ": 6318,
      "Pul": 6319,
      "áĪµáĪį": 6320,
      "ĠáĮ³": 6321,
      "huuĠ": 6322,
      "haliĠyaĠ": 6323,
      "Sil": 6324,
      "enaĠ": 6325,
      "Ġáĭ¨áĬ®": 6326,
      "NewĠYork": 6327,
      "Hind": 6328,
      "Mw": 6329,
      "akk": 6330,
      "leyĠ": 6331,
      "ammal": 6332,
      "prÃ©sent": 6333,
      "atikaĠkarneĠyaĠ": 6334,
      "OgunĠ": 6335,
      "Sing": 6336,
      "áĬķáĪ³áĭĬ": 6337,
      "tsar": 6338,
      "akanaĠnaĠ": 6339,
      "áĬĲáī±áĬķ": 6340,
      "afutaĠ": 6341,
      "Ġáī°áĭĭ": 6342,
      "Ġáĭ¨áĪļáĭ«áĪµ": 6343,
      "Str": 6344,
      "¸áį": 6345,
      "wataĠ": 6346,
      "Marekani.": 6347,
      "Frank": 6348,
      "AlakosoĠAgbaĠ": 6349,
      "low": 6350,
      "Ġá¹£ÃŃá¹£": 6351,
      "ĠáīĢáĬķĠáį²áį±áį»áį": 6352,
      "Æ³": 6353,
      "dagaĠbayaĠ": 6354,
      "u:Ġ": 6355,
      "aboutĠ": 6356,
      "Ġáĭ¨áĪŀ": 6357,
      "KanananĠhukumominĠ": 6358,
      "Law": 6359,
      "rÃº": 6360,
      "áĬķĠáĪĪáĪĽ": 6361,
      "ĠáĬłáĮĪáĪ«áīµ": 6362,
      "takribanĠ": 6363,
      "MjiĠ": 6364,
      "2010": 6365,
      "áĭĺáĬķ": 6366,
      "AĠshekararĠ": 6367,
      "jáº¹ÌģĠá»įmá»įĠ": 6368,
      "ooĠ": 6369,
      "pá»įĠ": 6370,
      "ĠáĪĺáĪ³": 6371,
      "leĠm": 6372,
      "princip": 6373,
      "ony": 6374,
      "a'aik": 6375,
      "Isra": 6376,
      "áīĢáĪ¨": 6377,
      "ĠáĪĪáĪĿáĪ³áĪĮ": 6378,
      "ĠáĮ«": 6379,
      "áį¤Ġáĭ¨": 6380,
      "ĠáĬŃáįįáĪİáī½": 6381,
      "kuwaĠnaĠ": 6382,
      "PiaĠ": 6383,
      "áī³áī½": 6384,
      "su.": 6385,
      "daĠnaĠ": 6386,
      "Ã©ĠparĠ": 6387,
      "iwonĠ": 6388,
      "lov": 6389,
      "anti": 6390,
      "uceĠ": 6391,
      "abr": 6392,
      "ĠáĭĿáĪŃáĭ«": 6393,
      "ninuĠawonĠ": 6394,
      "Ayy": 6395,
      "fÃŃÃ¬mÃ¹Ġ": 6396,
      "Ã¯": 6397,
      "áĪ³áĪ³áĭŃ": 6398,
      "Ġáī¥áĭĽáīµ": 6399,
      "gasarĠ": 6400,
      "Janair": 6401,
      "pass": 6402,
      "sir": 6403,
      "esp": 6404,
      "Ã²:Ġ": 6405,
      "edik": 6406,
      "Bak": 6407,
      "áº¹ÌĢ,Ġ": 6408,
      "indaĠtaĠ": 6409,
      "SaintĠ": 6410,
      "AR": 6411,
      "Ã¨yÃŃ": 6412,
      "azz": 6413,
      "2007Ġ": 6414,
      "oá¹£Ã¹ĠK": 6415,
      "LondonĠ": 6416,
      "Zimbab": 6417,
      "pÃ¡": 6418,
      "intoĠ": 6419,
      "conn": 6420,
      "lÃ¡raĠÃłwá»įnĠ": 6421,
      "áĮĪáĪªáī±": 6422,
      "Publ": 6423,
      "áī¾": 6424,
      "ulĠ": 6425,
      "wasem": 6426,
      "yst": 6427,
      "aĠJiharĠ": 6428,
      "kuv": 6429,
      "Stud": 6430,
      "150": 6431,
      "iâĢĻarĠ": 6432,
      "bÃº": 6433,
      "áĬķáĭ°áĪŃ": 6434,
      "Ã¬tÃłg": 6435,
      "urg": 6436,
      "ulikanaĠ": 6437,
      "ood": 6438,
      "rashinĠ": 6439,
      "ons": 6440,
      "dabanĠ": 6441,
      "Ig": 6442,
      "ĠáīłáĮİáĪŃáĮİáĪŃáĭ«áĬķĠáĬ«áĪĮáĬķáĭ³áĪŃ": 6443,
      "toĠjeĠ": 6444,
      "ÅĦĠjáº¹ÌģĠ": 6445,
      "áīħáĭ±áĪµ": 6446,
      "ĠáĮĢáĪĿáĪ®ĠáĬ¥áĪµáĬ¨Ġ20": 6447,
      "tÃŃĠÃ³Ġt": 6448,
      "Rad": 6449,
      "vik": 6450,
      "aĠkoĠ": 6451,
      "áĭ©áĪµ": 6452,
      "ÃªtreĠ": 6453,
      "flu": 6454,
      "re,Ġ": 6455,
      "yayiĠ": 6456,
      "ĠáĭĪáĪįáĭ°": 6457,
      "waĠkar": 6458,
      "áĪŃáī±": 6459,
      "ĠáĬłáīĨáĮ£áĮłáĪŃĠ(áĬ¨": 6460,
      "1892Ġáĭĵ.áĪĿ.ĠáĮĢáĪĿáĪ®ĠáĬ¥áĪµáĬ¨Ġ20": 6461,
      "ĠáīĢáĬķĠáīłáĬ¢áīµáĭ®áĮµáĭ«ĠáĬłáīĨáĮ£áĮłáĪŃĠ(áĬ¨": 6462,
      "1892Ġáĭĵ.áĪĿ.ĠáĮĢáĪĿáĪ®ĠáĬ¥áĪµáĬ¨Ġ2091Ġáĭĵ.áĪĿ.": 6463,
      "ĠáīĢáĬķĠáīłáĬ¢áīµáĭ®áĮµáĭ«ĠáĬłáīĨáĮ£áĮłáĪŃĠ(áĬ¨1892Ġáĭĵ.áĪĿ.ĠáĮĢáĪĿáĪ®ĠáĬ¥áĪµáĬ¨Ġ2091Ġáĭĵ.áĪĿ.": 6464,
      "Lim": 6465,
      "AdÃ©": 6466,
      "ĠáĪ²áĪĨáĬķáį£": 6467,
      "ĠáĮłáīħ": 6468,
      "ĠáĬĲáĮĪáĪŃĠáĮįáĬķ": 6469,
      "ayenĠ": 6470,
      "anyik": 6471,
      "ÃĢwá»įnĠÃ¬tá»įÌģkasÃŃĠ": 6472,
      "áĪĮáĬŃáīµáĪªáĬŃ": 6473,
      "(m": 6474,
      "cinĠk": 6475,
      "jáº¹sÃ¡": 6476,
      "ographi": 6477,
      "falmeĠmkuuĠwaĠ": 6478,
      "Nuw": 6479,
      "Oj": 6480,
      "les": 6481,
      "tÃ³": 6482,
      "ÃĢwá»įnĠarÃ¡Ġ": 6483,
      "Ġ(áĬ¥áĬķáĮįáĪĬáĭĿáĬĽ": 6484,
      "Ms": 6485,
      "Ġáĭ¨áĬ¦": 6486,
      "Ġáĭ¨áīĢáĬķĠáĪµáĪĿ": 6487,
      "ĠáĪ²áĪĨáĬķĠáĭŃáĪħĠáīĢáĬķĠáīłáĬ¢áīµáĭ®áĮµáĭ«ĠáĬłáīĨáĮ£áĮłáĪŃĠ(áĬ¨1892Ġáĭĵ.áĪĿ.ĠáĮĢáĪĿáĪ®ĠáĬ¥áĪµáĬ¨Ġ2091Ġáĭĵ.áĪĿ.": 6488,
      "ĠáīłáĬ¥áĬķáĮįáĪĬáĭĿáĬĽĠáĪ²áĪĨáĬķĠáĭŃáĪħĠáīĢáĬķĠáīłáĬ¢áīµáĭ®áĮµáĭ«ĠáĬłáīĨáĮ£áĮłáĪŃĠ(áĬ¨1892Ġáĭĵ.áĪĿ.ĠáĮĢáĪĿáĪ®ĠáĬ¥áĪµáĬ¨Ġ2091Ġáĭĵ.áĪĿ.": 6489,
      "ĠáīłáĮİáĪŃáĮİáĪŃáĭ«áĬķĠáĬ«áĪĮáĬķáĭ³áĪŃĠáĭ¨áīĢáĬķĠáĪµáĪĿ": 6490,
      "ĠáīłáĮİáĪŃáĮİáĪŃáĭ«áĬķĠáĬ«áĪĮáĬķáĭ³áĪŃĠáĭ¨áīĢáĬķĠáĪµáĪĿĠáīłáĬ¥áĬķáĮįáĪĬáĭĿáĬĽĠáĪ²áĪĨáĬķĠáĭŃáĪħĠáīĢáĬķĠáīłáĬ¢áīµáĭ®áĮµáĭ«ĠáĬłáīĨáĮ£áĮłáĪŃĠ(áĬ¨1892Ġáĭĵ.áĪĿ.ĠáĮĢáĪĿáĪ®ĠáĬ¥áĪµáĬ¨Ġ2091Ġáĭĵ.áĪĿ.": 6491,
      "anaĠm": 6492,
      "isc": 6493,
      "Ġáĭĺáĭ´": 6494,
      "Kifarans": 6495,
      "áº¹taĠ": 6496,
      "2012": 6497,
      "áĪ©áĪĿ": 6498,
      "SĠ": 6499,
      "ruwaĠ": 6500,
      "áī°áį¢": 6501,
      "áĪĪáĪĺ": 6502,
      "ipÃ²Ġ": 6503,
      "uwa": 6504,
      "onyĠ": 6505,
      "adam": 6506,
      "zaÉĵ": 6507,
      "Sok": 6508,
      "hus": 6509,
      "Fren": 6510,
      "88": 6511,
      "cy": 6512,
      "Ġáīłáī°áĮ¨áĪĽáĪª": 6513,
      "serikaliĠyaĠ": 6514,
      "áī¥áĪ«áĭŃ": 6515,
      "atak": 6516,
      "ision": 6517,
      "2011": 6518,
      "áĪĲáįĬ": 6519,
      "wallonĠk": 6520,
      "ĠáĬĥáĭŃáĪį": 6521,
      "á»įkÃłn": 6522,
      "shirinĠ": 6523,
      "ObaĠ": 6524,
      "ĠáīĢáĬķĠáĪĽáĪĪáīµĠáĬĲáĭįáį¢": 6525,
      "Pasif": 6526,
      "ini-": 6527,
      "deuxĠ": 6528,
      "kit": 6529,
      "asiliĠ": 6530,
      "gboyÃ¨Ġ": 6531,
      "ceĠtaĠ": 6532,
      "Ġáĭ¨áĪĺáĮĢáĪĺáĪªáĭ«áĭį": 6533,
      "OrÃŃláº¹ÌĢ-Ã¨dÃ¨Ġ": 6534,
      "áīłáīĥ": 6535,
      "araĠnyingiĠ": 6536,
      "ember": 6537,
      "engenez": 6538,
      "ookĠ": 6539,
      "anarĠ": 6540,
      "áĮįáĪªáĬŃ": 6541,
      "(199": 6542,
      "56": 6543,
      "Ùĩ": 6544,
      "Ã¨meĠ": 6545,
      "ĠáĮĪáĭ°": 6546,
      "Ã¬bÃŃláº¹ÌĢĠ": 6547,
      "pet": 6548,
      "áīĢáĮ¥": 6549,
      "ĠSeptembaĠ": 6550,
      "CCM": 6551,
      "stud": 6552,
      "aunaĠ": 6553,
      "wajeĠ": 6554,
      "Feder": 6555,
      "Sw": 6556,
      "aiĠdaĠ": 6557,
      "hap": 6558,
      "aĠNajeriyaĠ": 6559,
      "ĠáĬłáĭ¨áĪŃ": 6560,
      "ĠâĢĵ": 6561,
      "plac": 6562,
      "succ": 6563,
      "istaĠ": 6564,
      "islamuĠ": 6565,
      "ĠáĬ¥áĬĶ": 6566,
      "tiĠaĠ": 6567,
      "ĠtÃŃĠaĠ": 6568,
      "suchĠ": 6569,
      "siyasaĠ": 6570,
      "ĠáĬĥáĭŃáĪĪ": 6571,
      "500": 6572,
      "bá»įÌģá»įÌĢ": 6573,
      "ala": 6574,
      "esaĠ": 6575,
      "Ġá»įbaĠ": 6576,
      "ĠáĮįáĭĽ": 6577,
      "Bon": 6578,
      "Dur": 6579,
      "orÃŃá¹£": 6580,
      "áĭŃáĪŃ": 6581,
      "2015": 6582,
      "áĪ©áį¢": 6583,
      "view": 6584,
      "BahariĠ": 6585,
      "serikaliĠ": 6586,
      "PP": 6587,
      "Ġáĭ¨áĪĢ": 6588,
      "dam": 6589,
      "lÃł": 6590,
      "Ġ*": 6591,
      "ensiĠ": 6592,
      "Ġáĭ¨áĪļáī³áĭĪ": 6593,
      "áĭĺáĭį": 6594,
      "áīłáīµĠáĮĬáĭľ": 6595,
      "ĠáĮĪáĬķ": 6596,
      "jáº¹ÌģĠá»įÌĢkanĠ": 6597,
      "áĬłáĪĪ": 6598,
      "áĬ¨áĭļáĭ«": 6599,
      "áĪ°áĪŃ": 6600,
      "ĠáĬłáĪĪáĪĿ": 6601,
      "Zamb": 6602,
      "ariĠyaĠ": 6603,
      "ĠáīĢáĭ³": 6604,
      "ium": 6605,
      "sanĠ": 6606,
      "anaĠkwaĠ": 6607,
      "ial": 6608,
      "lÃ¹Ġ": 6609,
      "ementsĠ": 6610,
      "antiĠ": 6611,
      "own": 6612,
      "Afrika": 6613,
      "Sat": 6614,
      "2014": 6615,
      "áĪ²áĬķ": 6616,
      "Ġá»įÌĢpá»įÌĢlá»įpá»įÌĢĠ": 6617,
      "ÃłwÃ³Ġ": 6618,
      "nasar": 6619,
      "akat": 6620,
      "wandishiĠwaĠ": 6621,
      "ĠáĪĻáĪī": 6622,
      "KatikaĠm": 6623,
      "Tel": 6624,
      "uliĠ": 6625,
      "áĭ³áĪį": 6626,
      "áĭĽáĬĽáĭį": 6627,
      "illĠ": 6628,
      "ĠáĬłáĪħ": 6629,
      "IV": 6630,
      "ianiĠ": 6631,
      "Ġáīłáī¥áĭĽáīµ": 6632,
      "Jon": 6633,
      "cul": 6634,
      "eroĠ": 6635,
      "amoĠ": 6636,
      "itwaĠ\"": 6637,
      "consid": 6638,
      "Arew": 6639,
      "ĠáĬłáĭ²áĪµĠáĬłáīłáī£": 6640,
      ")ĠáĬ¥áĬĵ": 6641,
      "B.": 6642,
      "ĠáīĢáĬķĠ-": 6643,
      "Muhammad": 6644,
      "EastĠ": 6645,
      "TĠ": 6646,
      "zabenĠ": 6647,
      "a,": 6648,
      "áĬĵáĭŃáīµ": 6649,
      "ĠáĭŃáĪĦ": 6650,
      "Hung": 6651,
      "ambal": 6652,
      ",ĠmwanamuzikiĠ": 6653,
      "dat": 6654,
      "ĠáĪĺáĪĪ": 6655,
      "nÃŃĠÃ¬": 6656,
      "waĠmasoĠ": 6657,
      "Ãłká»įÌģlÃ©Ġráº¹ÌĢĠ": 6658,
      "áĮĪáĪ«áīµ": 6659,
      "uzikiĠwaĠ": 6660,
      "anth": 6661,
      "áĬ¥áĬķáĭ²": 6662,
      "contin": 6663,
      "Åį": 6664,
      "yÃ¨Ġ": 6665,
      "áīłáīħ": 6666,
      "aĠmas": 6667,
      "hesh": 6668,
      "áĭ´áīµ": 6669,
      "htm": 6670,
      "Ġáī¥áĪĶáĪ«áĭĬ": 6671,
      "haz": 6672,
      "áĪ°áĪĽ": 6673,
      "Ġáī£áĭŃ": 6674,
      "ĠáĬłáĮĪáĪ®áī½": 6675,
      "ĠáĪĺáĪįáĬŃáĭĵ": 6676,
      "Ġ~": 6677,
      "áī°áĬĽáĭį": 6678,
      "ĠáĬ¥áĮįáĭļáĬłáī¥áĪĶáĪŃ": 6679,
      "Ġáį³áį": 6680,
      "herĠ": 6681,
      "katiĠyaĠ": 6682,
      "oÃ²rÃ¹nĠ": 6683,
      "2013": 6684,
      "áĪŀáīµ": 6685,
      "awaĠdaĠ": 6686,
      "áĪĪáĪĿáĪ³áĪĮ": 6687,
      "Kiarab": 6688,
      "bÃłĠ": 6689,
      "ÃĵĠjáº¹ÌģĠ": 6690,
      "akaoĠmak": 6691,
      "PopeĠ": 6692,
      "áīłáĪ³": 6693,
      "Ġáĭ¨áī°áĪĺ": 6694,
      "ĠáīĢáĮ¥áĪİ": 6695,
      "soj": 6696,
      "nguv": 6697,
      ",000.": 6698,
      "UnitedĠStat": 6699,
      "oodĠ": 6700,
      "uraĠ": 6701,
      "áĭµáĪ¨áĪµ": 6702,
      "ĠáĪµáĪĪáĪļ": 6703,
      "ráº¹ÌĢ,Ġ": 6704,
      "Ġ20": 6705,
      "emok": 6706,
      "languageĠ": 6707,
      "euĠ": 6708,
      "aĠsh": 6709,
      "kunaĠm": 6710,
      "Ġáĭ¨áī°áįĪ": 6711,
      "play": 6712,
      "AnĠhaifeĠ": 6713,
      "ĠáĭĪáĭŃáĬķáĪĿ": 6714,
      "atsay": 6715,
      "poss": 6716,
      "banĠ": 6717,
      "is.": 6718,
      "Ã©rÃ©": 6719,
      "acheĠ": 6720,
      "zim": 6721,
      "Ãłn,Ġ": 6722,
      "Luc": 6723,
      "bid": 6724,
      "cultur": 6725,
      "áįįáĮ¥": 6726,
      "kufuatanaĠnaĠ": 6727,
      "áĬķáĬŃ": 6728,
      "áĪŃáī£": 6729,
      "NÃŃgbÃł": 6730,
      "alamaĠ": 6731,
      "TuzoĠyaĠNobelĠyaĠ": 6732,
      "ikiped": 6733,
      "Hel": 6734,
      "oliĠ": 6735,
      "azing": 6736,
      "iĠma": 6737,
      "weenĠ": 6738,
      "Bah": 6739,
      "ilik": 6740,
      "urr": 6741,
      "gbÃ²": 6742,
      "Ġáī°áīĥ": 6743,
      "yakeĠniĠ": 6744,
      "MuhammadĠ": 6745,
      "ji": 6746,
      "kÃ¨Ġ": 6747,
      "tall": 6748,
      "asilimiaĠ": 6749,
      "áĪªáĪµ": 6750,
      "áĭ³áĭµ": 6751,
      "KiarabuĠ": 6752,
      "TanguĠ": 6753,
      "áį¡áīł": 6754,
      "ĠáĮ¥áĪ©": 6755,
      "utawalaĠwaĠ": 6756,
      "100Ġ": 6757,
      "áīłáĪµ": 6758,
      ".ĠManazarta": 6759,
      "pamojaĠnaĠm": 6760,
      "jimboĠlaĠ": 6761,
      "dunian": 6762,
      "kujit": 6763,
      "JinaĠlakeĠ": 6764,
      "áĪ¸áĬĲ": 6765,
      "uatwaĠnaĠPapaĠ": 6766,
      "ipp": 6767,
      "Ġá¹£iá¹£áº¹ÌģĠ": 6768,
      "jam'": 6769,
      "ĠáĬłáĪīáį¢": 6770,
      "Tanzania.": 6771,
      "nipaĠ": 6772,
      "sá»įÌĢ": 6773,
      "áĬķĠáĭ¨áĪļ": 6774,
      "estiv": 6775,
      "WatuĠ": 6776,
      "ongoziĠwaĠ": 6777,
      "Oh": 6778,
      "ĠáīłáĪħ": 6779,
      "Argent": 6780,
      "noĠ": 6781,
      "Ġáī£áĪħáĪŃ": 6782,
      "KwaĠm": 6783,
      "hom": 6784,
      "proc": 6785,
      "nye": 6786,
      "HistoriaĠ": 6787,
      "Ġtrans": 6788,
      "HukumarĠ": 6789,
      "ĠáĪĺáĮ£": 6790,
      "jerinĠ": 6791,
      "etĠleĠ": 6792,
      ".ĠÃĢwá»įnĠÃĮt": 6793,
      "jinsiĠ": 6794,
      "49": 6795,
      "linal": 6796,
      "FIF": 6797,
      "oraĠ": 6798,
      "import": 6799,
      "Nijeriya.": 6800,
      "áĬłáĪµ": 6801,
      "intaĠnaĠ": 6802,
      "ĠáĪĽáĮ£áīĢáĪ»": 6803,
      "juuĠ": 6804,
      "hud": 6805,
      "jÃ¬": 6806,
      "Ġtele": 6807,
      "AfricaĠ": 6808,
      "ElezoĠyaĠ": 6809,
      "AlimfuataĠPapaĠ": 6810,
      "KamusiĠElezoĠyaĠ": 6811,
      "KamusiĠElezoĠyaĠKik": 6812,
      "Vit": 6813,
      "nen": 6814,
      "áĭµáĪĺ": 6815,
      "agn": 6816,
      "áīħáĭ«": 6817,
      "ÆĻungiyarĠ": 6818,
      "Sim": 6819,
      "áį¡áĬ¥": 6820,
      "yawan": 6821,
      "yanaĠdaĠ": 6822,
      "Ath": 6823,
      "Rev": 6824,
      "aĠkatiĠyaĠ": 6825,
      "areĠdaĠ": 6826,
      "sáº¹Ìģ": 6827,
      "eĠdÃ©": 6828,
      "áĮįáī£áĪŃ": 6829,
      "eteĠ": 6830,
      "Litt": 6831,
      "chamaĠ": 6832,
      "ĠáĪ³áĭŃáĬķáĪ³áĭĬ": 6833,
      "BBCĠ": 6834,
      "Centr": 6835,
      "Fre": 6836,
      "áĬķáī³": 6837,
      "2016": 6838,
      "ĠáīłáĪĽáĪĪáīµ": 6839,
      "JapaniĠ(": 6840,
      "Pulitz": 6841,
      "dontĠ": 6842,
      "gbÃ¡Ġ": 6843,
      "kulikoĠ": 6844,
      "gabatarĠdaĠ": 6845,
      "insuĠ": 6846,
      "taĠfarkoĠ": 6847,
      "ÃĮá¹£": 6848,
      "Mand": 6849,
      "inform": 6850,
      "iki,Ġ": 6851,
      "ibleĠ": 6852,
      "ĠáĪĽáĪŃáĭ«áĪĿ": 6853,
      "lá»įÌģwá»įÌģ": 6854,
      "áĬķĠáĬ¥áĬĵ": 6855,
      "VisiwaĠvyaĠ": 6856,
      "ĠáĬ¥áĬķáĮįáĪĬáĭĿáĬĽ": 6857,
      "Bas": 6858,
      "KanoĠ": 6859,
      "ilÃ©-iá¹£áº¹ÌģĠ": 6860,
      "KadunaĠ": 6861,
      "ĠáĮīáĭ³áĭŃ": 6862,
      "islam": 6863,
      "useĠ": 6864,
      "rÃŃnĠ": 6865,
      "conom": 6866,
      "áĮ«áĭĪ": 6867,
      "áī¥áĪ«áĭŃáĪµáĮ¥": 6868,
      "áĪŃáĮİ": 6869,
      "ĠáĬłáī¶": 6870,
      "iyoyinĠ": 6871,
      "ÃĮlÃºĠ": 6872,
      "uhus": 6873,
      "AM": 6874,
      "Kijerum": 6875,
      "Sol": 6876,
      "abinĠ": 6877,
      "re.": 6878,
      "pÃ¡Ġ": 6879,
      "áĬłáĬķáĭµ": 6880,
      "sÃ¬kÃ²Ġ": 6881,
      "CibiyarĠ": 6882,
      "á»įdÃºnĠ": 6883,
      "us.": 6884,
      "ahud": 6885,
      "alikuwaĠPapaĠ": 6886,
      "UpandeĠ": 6887,
      "raisĠ": 6888,
      "ĠáįĸáĪĪáī²áĬ«": 6889,
      "</": 6890,
      "Mov": 6891,
      "aĠmak": 6892,
      "ChuoĠ": 6893,
      "Trans": 6894,
      "ĠáĭĽáĪ¬": 6895,
      "halafuĠ": 6896,
      "shiryaĠ": 6897,
      "Ã²rÃ²Ġ": 6898,
      "kÃ¬Ġ": 6899,
      "pre": 6900,
      "saur": 6901,
      "ĠáĪ¬": 6902,
      "sehemuĠzaĠ": 6903,
      "KingĠ": 6904,
      "kafinĠ": 6905,
      "alish": 6906,
      "baĠtaĠ": 6907,
      "ĠAugustĠ": 6908,
      "wá»įn.": 6909,
      "faitĠ": 6910,
      "Ġáī³áĪªáĬ«áĭĬĠáĪĽáĪµáī³áĭĪáĪ»áĭİáī½": 6911,
      "ĠáĭµáĪŃáĮħáīµ": 6912,
      "toĠgbaĠEbunĠNobelĠ": 6913,
      "Æ³anĠ": 6914,
      "cetteĠ": 6915,
      "alabij": 6916,
      "Democrat": 6917,
      "isĠtheĠ": 6918,
      "yiĠaikiĠ": 6919,
      "ĠáĬ¥áĬķáĭ³áĭŃ": 6920,
      "haih": 6921,
      "ĠáĬĵáīµáį¢": 6922,
      "áº¹lif": 6923,
      "Nollywo": 6924,
      "crÃ©": 6925,
      "Ġáįİ": 6926,
      "ovuĠ": 6927,
      "e),Ġ": 6928,
      "áĬ®áĬĸ": 6929,
      "shigaĠ": 6930,
      "akafuatwaĠnaĠPapaĠ": 6931,
      "biyarĠ": 6932,
      "IleĠ": 6933,
      "kÃ¹": 6934,
      "áĮŃáĪŃ": 6935,
      "RichardĠ": 6936,
      "ĠáĪĺáĪįáĬŃáĭĵĠáĪĿáĭµáĪŃ": 6937,
      "How": 6938,
      "dÃºgb": 6939,
      "áĭ«áĪį": 6940,
      "áį£Ġ": 6941,
      "áĬ«áĪŃ": 6942,
      "gwamnatinĠ": 6943,
      "Ġáīłáīµ": 6944,
      "ĠáĪļáĬĴáĪµáīµ": 6945,
      "áĪµáī´": 6946,
      "áĮ¥áĪĿ": 6947,
      "edĠasĠ": 6948,
      "ĠáĮĬáĭ®áĪŃáĮĬáĪµ": 6949,
      "AnnabiĠ": 6950,
      "°áį»áį": 6951,
      "ari,Ġ": 6952,
      "áĬķáĮİ": 6953,
      "aki": 6954,
      "ĠáĬłáįĪĠáī³áĪªáĬŃ": 6955,
      "Cent": 6956,
      "amer": 6957,
      "áĬĵáĭŃáīµáĭµ": 6958,
      "som": 6959,
      "1980": 6960,
      "ĠáīłáĬĭáĪĭĠáĬ¥áĪµáĬ¨": 6961,
      "áįĸáĪĪáī²áĬ«": 6962,
      "ĠáīłáĪµáī°": 6963,
      "AmerikaĠyaĠK": 6964,
      "Wany": 6965,
      "huwaĠ": 6966,
      "ational": 6967,
      "oĠchaĠm": 6968,
      "Ãłká»įÌģká»įÌģ": 6969,
      "gÃ©nÃ©r": 6970,
      "amboĠ": 6971,
      "ĠáīłáĬ®": 6972,
      "1998": 6973,
      "oĠkwenyeĠ": 6974,
      "AsiaĠ": 6975,
      "tenaĠ": 6976,
      "ĠáĮ¸áī£áĭŃ": 6977,
      "Ġáĭĭáī¢ĠáĪĿáĬķáĮ®áī½": 6978,
      "ambayeĠ": 6979,
      "daĠdamaĠ": 6980,
      "gÃ¡": 6981,
      "alig": 6982,
      "ikaĠlaĠ": 6983,
      "ĠáīłáĭĺáĪĺáĬĲĠáĪīáīĥáĪµ": 6984,
      "ijobaĠib": 6985,
      "Ash": 6986,
      "arkokinĠ": 6987,
      "ion,Ġ": 6988,
      "ChuoĠKik": 6989,
      "daĠc": 6990,
      "áĪĭáīģ": 6991,
      "okanĠ": 6992,
      "org/": 6993,
      "Historia": 6994,
      "AP": 6995,
      "Sel": 6996,
      "tal": 6997,
      "ÃłÃ¬sÃłnĠ": 6998,
      "áº¹n": 6999,
      "2002": 7000,
      "tĠ(": 7001,
      "Ã©rÃ©Ġ": 7002,
      "Emp": 7003,
      "dÃºr": 7004,
      "ualĠ": 7005,
      "yĠandĠ": 7006,
      "enĠm": 7007,
      "ĠSh": 7008,
      "Sehem": 7009,
      "55": 7010,
      "Sci": 7011,
      "ton": 7012,
      "áĪŃáī¶": 7013,
      "ominaĠ": 7014,
      "áĪ«áĪįáį¢": 7015,
      "Ġáį»áį": 7016,
      "áĬ¨áī³": 7017,
      "à¤ķ": 7018,
      "Zam": 7019,
      "italĠ": 7020,
      "owÃ³Ġ": 7021,
      "Ġáĭ¨áī°áī£áĪĪ": 7022,
      "ĠAn": 7023,
      "ĠáīħáĪŃáĪµ": 7024,
      "mÃ©jÃ¬": 7025,
      "irÃŃá¹£": 7026,
      "áįĪáĪĭ": 7027,
      "Ġáĭ°áĪ«áĪ²": 7028,
      "a),Ġ": 7029,
      "log": 7030,
      "áĬ¨áĪĭ": 7031,
      "tureĠ": 7032,
      "peutĠ": 7033,
      "|ĠRD2-": 7034,
      "BÃŃĠ": 7035,
      "Nik": 7036,
      "natur": 7037,
      "áĭµáĪ®": 7038,
      "áĪİáĮĤ": 7039,
      "ariĠtaraĠ": 7040,
      "86": 7041,
      "Gáº¹ÌĢáº¹Ìģ": 7042,
      "Hab": 7043,
      "rÃłnĠ": 7044,
      "Ġáĭ¨áĪļáĮĪáĬĻ": 7045,
      "áĮĭáī¢": 7046,
      "etĠlaĠ": 7047,
      "áĭĪáĭŃáĪĿ": 7048,
      "kubwaĠwaĠ": 7049,
      "do": 7050,
      "wandaĠkeĠ": 7051,
      "wÃ¡yÃ©Ġ": 7052,
      "Jiograf": 7053,
      "Mex": 7054,
      "Maur": 7055,
      "iel": 7056,
      "kÃł.": 7057,
      "Ã²s": 7058,
      "ĠáīłáĬ¦": 7059,
      "epoĠ": 7060,
      "jami'": 7061,
      "argaj": 7062,
      "ga": 7063,
      "gl": 7064,
      "yth": 7065,
      "JosephĠ": 7066,
      "bat": 7067,
      ".ĠL": 7068,
      "ubuc": 7069,
      "ne,ĠdaĠkeĠ": 7070,
      "Ġáī°áĪ«áĪ«": 7071,
      "AD": 7072,
      "intern": 7073,
      "jami": 7074,
      "aĠgarinĠ": 7075,
      "gáº¹": 7076,
      "mostĠ": 7077,
      "auy": 7078,
      "nÃ¡ÃłĠniĠ": 7079,
      "Nk": 7080,
      "iláº¹ÌĢ": 7081,
      "angĠ": 7082,
      "ĠáĪµáī¥áĪµ": 7083,
      "afrikaĠ": 7084,
      "pÃłtÃłkÃ¬Ġ": 7085,
      "Ø©": 7086,
      "áĮĪáĪ¨": 7087,
      "ĠáĭįáĮŃ": 7088,
      "elopmentĠ": 7089,
      "abilaĠlaĠ": 7090,
      "ram": 7091,
      "áĪĮáĪİáī½": 7092,
      "ugu": 7093,
      "áĮłáī¥": 7094,
      "ocinĠ": 7095,
      "TarayyarĠ": 7096,
      "c.": 7097,
      "ifuĠ": 7098,
      "áĬłáīµ": 7099,
      "waĠkamaĠ": 7100,
      "aifaĠ": 7101,
      "áĪĪáĭµ": 7102,
      "1960": 7103,
      "pour": 7104,
      "Ġáī°áĬ¨áī³": 7105,
      "Sir": 7106,
      "sousĠ": 7107,
      "ĠáĬ¥áĪĿáĬĲáīµ": 7108,
      "ossĠ": 7109,
      "tsawonĠ": 7110,
      "ĠáĬ¥áĬķáĭ²áĭ«": 7111,
      "áĬŀáī¹": 7112,
      "apá»įÌĢĠ": 7113,
      "áĬ®áīµ": 7114,
      "iliyo": 7115,
      "ĠáĪ²áĪĨáĬĳ": 7116,
      "áĭĺáĪĺ": 7117,
      "jáº¹sÃ¡raĠ": 7118,
      "Ile-": 7119,
      "Ram": 7120,
      "eeĠ": 7121,
      "fanoĠ": 7122,
      "Que": 7123,
      "ĠáĪ¦áĪµáīµ": 7124,
      "ongo": 7125,
      "WatuĠwaĠ": 7126,
      "Res": 7127,
      "1918": 7128,
      "LegasĠ": 7129,
      "AlitokeaĠ": 7130,
      "300": 7131,
      "kejÃ¬Ġ": 7132,
      "ĠáĭŃáĪĭáĪįáį¢": 7133,
      "ĠáĭĪáī³áĭ°": 7134,
      "iĠmwakaĠwaĠ": 7135,
      "tÃŃĠÃ³ĠsÃ¬Ġ": 7136,
      "Ã¬kÃ¬": 7137,
      "fasah": 7138,
      "dÃ¨Ġ": 7139,
      "u)Ġ": 7140,
      "vin": 7141,
      "itaceĠ": 7142,
      ".ĠD": 7143,
      "lÃŃ": 7144,
      "aĠmar": 7145,
      "opĠ": 7146,
      "ijiĠm": 7147,
      "2000Ġ": 7148,
      "NÃłÃ¬jÃŃrÃŃÃł,Ġ": 7149,
      "ĠáĬ¨áī°áĪĽĠáĬĲáĭįáį¢": 7150,
      "WilayaĠyaĠ": 7151,
      "esabiwaĠkuwaĠ": 7152,
      "jumlaĠ": 7153,
      "Mab": 7154,
      "vic": 7155,
      "áĪĿĠáĪĪ": 7156,
      "ĠáĭįáĪĥ": 7157,
      "dansĠleĠ": 7158,
      "ominiraĠ": 7159,
      "Val": 7160,
      "gen": 7161,
      "tot": 7162,
      "ĠáĬłáįįáĪªáĬ«": 7163,
      "áĮįáĬĺ": 7164,
      "ĠáĭµáĪį": 7165,
      "askofuĠ": 7166,
      "nÃł": 7167,
      "temp": 7168,
      "atiĠm": 7169,
      "ĠáĬ¥áĪŃáĪ±": 7170,
      "ever": 7171,
      "autresĠ": 7172,
      "kuzaliwaĠ": 7173,
      "ward": 7174,
      "áīħáĭ°": 7175,
      "áĭ²áĭ®": 7176,
      "áīĥáĪ´": 7177,
      "áĪ²áī²": 7178,
      "TuzoĠyaĠPulitz": 7179,
      "ĠáĪµáĪĪáĪĨáĬĲ": 7180,
      "angl": 7181,
      "áĮ¡áīµ": 7182,
      "dist": 7183,
      "leurĠ": 7184,
      "kusiniĠ": 7185,
      "inayo": 7186,
      "elekeaĠ": 7187,
      "WaislamuĠ": 7188,
      "iaĠmwakaĠ": 7189,
      "yaĠmutuĠ": 7190,
      "Mo": 7191,
      "riv": 7192,
      "2017": 7193,
      "ĠáĪ¥áįįáĪ«": 7194,
      "Olymp": 7195,
      "ÃĪyÃŃĠ": 7196,
      "wÃŃĠ": 7197,
      "ĠâĢ¢": 7198,
      "95": 7199,
      "Kip": 7200,
      "anoĠyaĠ": 7201,
      "ajeĠ": 7202,
      "áĪĨáĬĸ": 7203,
      "ĠAd": 7204,
      ".ĠItokasiĠÃĢwá»įnĠarÃ¡Ġ": 7205,
      "áīħáĪµáīĥáĪ´": 7206,
      "gbá»įÌģĠ": 7207,
      "elim": 7208,
      "áĬ«áĪĿ": 7209,
      "Ly": 7210,
      "ordĠ": 7211,
      "áī£áī³": 7212,
      "sÃ¬ĠtÃºnĠ": 7213,
      "kuduĠmasoĠ": 7214,
      "BungeĠlaĠ": 7215,
      "ifĠ": 7216,
      "áĬ¨áĪ¨áĪĿ": 7217,
      "áĬ«áĬ¨áĪĪ": 7218,
      "ÆĻidayarĠ": 7219,
      "Ġá»įÌĢrá»įÌĢĠ": 7220,
      "BÃ¡": 7221,
      "azaĠ": 7222,
      "ÅĦĠd": 7223,
      "D-": 7224,
      "áĮª": 7225,
      "âĢ¹": 7226,
      "yaddaĠ": 7227,
      "mÃ¬ÃŃrÃłnĠ": 7228,
      "FirstĠ": 7229,
      "beg": 7230,
      "whenĠ": 7231,
      "RaisĠwaĠMarekaniĠ": 7232,
      "ĠáĪĺáĮ¨áĪ¨áĪ»ĠáĭµáĪ¨áĪµ": 7233,
      "gan": 7234,
      "katikaĠm": 7235,
      "áĪĿĠáĪĨáĬĲ": 7236,
      "ĠáĮįáĬķáĬĻ": 7237,
      "daĠyawanĠjama'aĠ": 7238,
      "áĪµáįĵáĬķáĭ«": 7239,
      "MakarantarĠ": 7240,
      "waĠnaĠm": 7241,
      "nÃŃĠÃ¬pÃŃnláº¹ÌĢĠ": 7242,
      "ĠáĪµáĪĭ": 7243,
      "ainsiĠ": 7244,
      "ĠáĬĲáĮĪáĪł": 7245,
      "a,ĠnaĠ": 7246,
      "iliyop": 7247,
      "Denmark": 7248,
      "Kwam": 7249,
      "tic": 7250,
      "ĠáĪĺáĪłáĪ¨áīµ": 7251,
      "áĭµáĬĵ": 7252,
      "áĬŃáĪ²": 7253,
      "ĠáĪ²áīĢ": 7254,
      "mit": 7255,
      "áĪ°áĪį": 7256,
      "Ġáĭĺáįĭ": 7257,
      "betweenĠ": 7258,
      "fad": 7259,
      "liv": 7260,
      "Ġáīłáī°áĪĪ": 7261,
      "ĠáīłáĬĭáĪĭĠáĬ¥áĪµáĬ¨ĠáĭĵáĪĺáī±": 7262,
      "áĮĪáīµ": 7263,
      "ukw": 7264,
      "nÃŃĠÃłwá»įnĠ": 7265,
      "áĪµáĪĪáĭļáĪħ": 7266,
      "Nic": 7267,
      "lit": 7268,
      "ĠáĬłáīħ": 7269,
      "2006Ġ": 7270,
      "unguzaĠ": 7271,
      "Ev": 7272,
      "din": 7273,
      "atiz": 7274,
      "ĠáīµáĪĿáĪħáĪŃ": 7275,
      ",ĠÃłtiĠ": 7276,
      "ĠáĬ¥áĪĿ": 7277,
      "wanaj": 7278,
      "ĠáĭĺáĪĺáĬĵáĭĬ": 7279,
      "áĪģáĪĪáīµ": 7280,
      "d'unĠ": 7281,
      "\"M": 7282,
      "reat": 7283,
      "Prof": 7284,
      "asiliĠyaĠ": 7285,
      "1=": 7286,
      "AwardĠ": 7287,
      "asarautarĠ": 7288,
      "AfirkaĠtaĠ": 7289,
      "itanĠ": 7290,
      "ignĠ": 7291,
      "kupit": 7292,
      "nemanĠ": 7293,
      "nouv": 7294,
      "yiĠm": 7295,
      "kam": 7296,
      "sark": 7297,
      "origin": 7298,
      "RoyalĠ": 7299,
      "ĠáīµáĪŃ": 7300,
      "ilÃ©Ġáº¹ÌĢká»įÌģĠ": 7301,
      "dec": 7302,
      "ĠáĪµáĪŀáī½": 7303,
      "IlÃ©Ġ": 7304,
      "daĠyawaĠ": 7305,
      "sens": 7306,
      "Ã¡Ã¡": 7307,
      "Ġ(m": 7308,
      "ammalaĠkar": 7309,
      "KamusiĠElezoĠyaĠKikatolikiĠ": 7310,
      "eĠtaĠ": 7311,
      "áĪİáĪµ": 7312,
      "ollow": 7313,
      "English": 7314,
      "áĪĽáĪį": 7315,
      "ving": 7316,
      "áĪĽáĪ½": 7317,
      "Alh": 7318,
      "Ġáī¡áĭµáĬķ": 7319,
      "mÃ©jÃ¬Ġ": 7320,
      "uuĠyaĠ": 7321,
      "akokoĠ": 7322,
      "ayyukanĠ": 7323,
      "UchaguziĠwaĠ": 7324,
      "Ġáī¥áĪŃáĪĥ": 7325,
      "ĠáĭŃáīĢáĪ«áĪīáį¢": 7326,
      "iĠkatiĠyaĠ": 7327,
      "Ġáĭ¨áī°áĭĪ": 7328,
      "nigb": 7329,
      "RĠ": 7330,
      "Sun": 7331,
      "tabb": 7332,
      "iaĠniĠ": 7333,
      "iĠkanĠ": 7334,
      "team": 7335,
      "zaidiĠyaĠ": 7336,
      "ÙİÙ": 7337,
      "á¹¢": 7338,
      "ĠáĪĿáĭķáĪ«áī¥": 7339,
      "spec": 7340,
      "Kon": 7341,
      "Ġáĭ¨áĭĵáĪĪáĪĿ": 7342,
      "uruĠ": 7343,
      "áĮħáĪĿ": 7344,
      "ĠáĮĪáĮ½": 7345,
      "gudanarĠdaĠ": 7346,
      "kwenyeĠ": 7347,
      "iaĠkutokaĠnchiĠyaĠ": 7348,
      "ĠáĮĭáĪ«": 7349,
      "DolaĠlaĠRomaĠ": 7350,
      "ipinleĠ": 7351,
      "lambarĠyab": 7352,
      "han": 7353,
      "pÃº": 7354,
      "iĠtaĠ": 7355,
      "Ġ(áĬł": 7356,
      "Ġáĭ¨áĪ®": 7357,
      "expl": 7358,
      "le,Ġ": 7359,
      "s)Ġ": 7360,
      "shuleĠ": 7361,
      "ansis": 7362,
      "áĪ²áĭ«": 7363,
      "adhaaĠ": 7364,
      "FranceĠ": 7365,
      "Do": 7366,
      "yali": 7367,
      "ulim": 7368,
      "ing.": 7369,
      "Ġáī¢áĭ«": 7370,
      "nambaĠ": 7371,
      "ĠSeptemberĠ": 7372,
      "shirye-": 7373,
      "Mung": 7374,
      "kinĠ": 7375,
      "ren": 7376,
      "ĠP": 7377,
      "ĠáĭŃáĭ©": 7378,
      "áįĪáĬķ": 7379,
      "ĠáĭįáĪĢ": 7380,
      "sÃŃwÃ¡jÃºĠ": 7381,
      "coll": 7382,
      "ĠáĭĪáĮĪ": 7383,
      "stant": 7384,
      "áĪľáīµ": 7385,
      "assanĠ": 7386,
      "link": 7387,
      "ijobaĠibileĠniĠ": 7388,
      "76": 7389,
      "A)Ġ": 7390,
      "Ġá»įÌģ": 7391,
      "alikuwaĠPapaĠkuanziaĠ": 7392,
      "kÃ¡Ġ": 7393,
      "rá»į": 7394,
      ".ĠMatukio": 7395,
      "Ã¬dÃŃl": 7396,
      "Amerika": 7397,
      "ĠáīłáĬĭáĪĭĠáĬ¥áĪµáĬ¨ĠáĭĵáĪĺáī±ĠáĪĺáĮ¨áĪ¨áĪ»ĠáĭµáĪ¨áĪµ": 7398,
      "já»įÌĢ": 7399,
      "val": 7400,
      "opol": 7401,
      "que,Ġ": 7402,
      "ijeĠ": 7403,
      "uist": 7404,
      "áĪĿáįĴ": 7405,
      "aularĠ": 7406,
      "bahariĠ": 7407,
      "gbáº¹Ìģ": 7408,
      "uliz": 7409,
      "prim": 7410,
      "ĠáĬ¥áĬķáĭ°Ġáī°": 7411,
      "Naijiria": 7412,
      "ĠáĭŃáĪĨáĬĵáĪįáį¢": 7413,
      "ijobaĠibileĠniĠIpinleĠ": 7414,
      "\"m": 7415,
      "to": 7416,
      "Ġ8": 7417,
      "ĠáĪįáĮģ": 7418,
      "pwaniĠ": 7419,
      "ĠáĬłáĮĭ": 7420,
      "imaninĠ": 7421,
      "Ø³": 7422,
      "anay": 7423,
      "indaĠyaĠ": 7424,
      "ChuoĠKikuuĠ": 7425,
      "AnaĠ": 7426,
      "gbáº¹ÌģĠ": 7427,
      "yaut": 7428,
      "Urus": 7429,
      "44": 7430,
      "Flor": 7431,
      "Ġáĭ¨áĪ´": 7432,
      "áĬ«áĬ¤áĪį": 7433,
      "ihÃłnĠ": 7434,
      "áĬ¥áĬĲáĭļáĪħ": 7435,
      "ĠáĭķáĪĪáī°": 7436,
      "Ujerumani": 7437,
      "estĠunĠ": 7438,
      "ĠáĮ½áĪķ": 7439,
      "PeterĠ": 7440,
      "ris": 7441,
      "ÆĻinĠ": 7442,
      "áĬķáĮįáĪį": 7443,
      "Ġáĭ¨áĬĲáīłáĪ©": 7444,
      "má»įÌĢĠsÃŃĠ": 7445,
      "Washing": 7446,
      "cikiĠ": 7447,
      "aminĠ": 7448,
      "KanananĠhukumominĠjiharĠ": 7449,
      "pend": 7450,
      "ÃłdÃºgb": 7451,
      "Ã¡lÃŃ": 7452,
      "Bag": 7453,
      "ball": 7454,
      "mesĠ": 7455,
      "ĠáĬŃáĪŃáĪµáī²áĭ«": 7456,
      "ItokasiĠÃĢwá»įnĠ": 7457,
      "ĠáĪļáĪĬáĭ®áĬķ": 7458,
      "ĠáĬĽ": 7459,
      "ĠáįįáĪ¬": 7460,
      "Ġáī£áĪķáĪŃ": 7461,
      "huk": 7462,
      "runĠ": 7463,
      "áī¨áĪŃáĪ²áī²": 7464,
      "Mos": 7465,
      "Ġá»ĮbaĠ": 7466,
      "ari'": 7467,
      "Ġáĭ¨áĭįáĮŃ": 7468,
      "AbubakarĠ": 7469,
      "Ġáĭ¨áĪ±": 7470,
      "áĮłáĪĪ": 7471,
      "áĮ»áįĪ": 7472,
      "Russ": 7473,
      "def": 7474,
      "ie,Ġ": 7475,
      "Ġáīłáīħ": 7476,
      "á¹£áº¹Ìģ": 7477,
      "ansaĠ": 7478,
      "aiss": 7479,
      "AlexanderĠ": 7480,
      "Ã©qu": 7481,
      "ĠáĪĿáĬķáĮĬáĭľ": 7482,
      "MkuuĠwaĠ": 7483,
      "yÃ©": 7484,
      "ĠthisĠ": 7485,
      "ashir": 7486,
      "áīĤáīµ": 7487,
      "Tech": 7488,
      "áĬ£": 7489,
      "lÃ¡báº¹ÌģĠ": 7490,
      "Island": 7491,
      "ique,Ġ": 7492,
      "illaĠ": 7493,
      "Sa": 7494,
      "ÑĢ": 7495,
      "esĠandĠ": 7496,
      "agenĠ": 7497,
      "áīĤáĭ«": 7498,
      "ector": 7499,
      "ĠaĠ": 7500,
      "áĪĿĠáĪĺ": 7501,
      "áĪİáī¹": 7502,
      ".ĠIS": 7503,
      "pÃŃnláº¹ÌĢĠá»ĮÌĢ": 7504,
      "Sult": 7505,
      "Zar": 7506,
      "lev": 7507,
      "Cali": 7508,
      "kÃºĠ": 7509,
      "lib": 7510,
      "ara.": 7511,
      "watuĠwaĠ": 7512,
      "ÉĹauk": 7513,
      "walio": 7514,
      "akabil": 7515,
      "onimoĠ": 7516,
      "cheĠ": 7517,
      "ĠáĭŃáĬĲ": 7518,
      "áĬ¨áĪ°": 7519,
      "áīĥáĭįáĬķ": 7520,
      "ĠáĭĺáĪĺáĬķĠáĬłáīĨáĮ£áĮłáĪŃ": 7521,
      "áĬķáĮĮ": 7522,
      "ĠáĪĺáĮ»áĪķ": 7523,
      "Ã³ĠsÃ¬Ġ": 7524,
      "Ġáĭ¨áĬłáĭ¨áĪŃ": 7525,
      "Fer": 7526,
      "orukoĠ": 7527,
      "Ġáī°áĮ½": 7528,
      "azam": 7529,
      "emokras": 7530,
      "AT": 7531,
      "Sup": 7532,
      "ty": 7533,
      "áĪĪáį¢": 7534,
      "waĠkwaĠm": 7535,
      "1996": 7536,
      "tÃŃĠwá»įÌģnĠbÃŃĠ": 7537,
      "ie": 7538,
      "egeĠbiĠ": 7539,
      "HivyoĠ": 7540,
      "bÃ³": 7541,
      "inceĠ": 7542,
      "aldĠ": 7543,
      "áĭįáĪµ": 7544,
      ",ĠmshindiĠwaĠTuzoĠyaĠNobelĠyaĠFasih": 7545,
      "olÃ¹darÃŃĠ": 7546,
      "hadiĠkifoĠchake.": 7547,
      "iko": 7548,
      "oĠkamaĠ": 7549,
      "tainĠ": 7550,
      "178": 7551,
      "ge": 7552,
      "ĠáīłáĪĺáĪĨáĬķ": 7553,
      "iniĠmwaĠ": 7554,
      "EnglishĠ": 7555,
      "3)": 7556,
      "Hous": 7557,
      "ise": 7558,
      "Ã²Ġk": 7559,
      "áĬŃáĪŃáĪµáī¶áĪµ": 7560,
      "iev": 7561,
      "Ġáīłáĭĵ": 7562,
      "umoĠ": 7563,
      "uĠkar": 7564,
      "Kilat": 7565,
      "LouisĠ": 7566,
      "gur": 7567,
      "Ġáīª": 7568,
      "wasaĠ": 7569,
      "Australi": 7570,
      "Wá»įÌģnĠbÃŃĠ": 7571,
      "YunifÃ¡sÃŃ": 7572,
      "La": 7573,
      "Ã©galementĠ": 7574,
      "ĠáĭŃáĪĺáĪµáĪĭáĪįáį¢": 7575,
      "bab": 7576,
      "áĭ«áĪľ": 7577,
      "77": 7578,
      "wÃ³Ġ": 7579,
      "Ã¹d": 7580,
      "fiĠs": 7581,
      "shirik": 7582,
      "Ã¬wÃ©": 7583,
      "\")Ġ": 7584,
      "velop": 7585,
      "áĭŃáĪģ": 7586,
      "kasaĠdaĠ": 7587,
      "ĠáĬłáĪĪáĭį": 7588,
      "fe": 7589,
      "tay": 7590,
      "orunĠ": 7591,
      "2019,Ġ": 7592,
      "BestĠ": 7593,
      "pas": 7594,
      "Columb": 7595,
      "rig": 7596,
      "tam": 7597,
      "áįĪáĪ«": 7598,
      "ianzaĠ": 7599,
      "áĪĭáĪµ": 7600,
      "ipl": 7601,
      "oweĠ": 7602,
      "ĠáĬłáĪĪáĭįáį¢": 7603,
      "kiĠyaĠ": 7604,
      "Ġáĭ¨áī£": 7605,
      "ild": 7606,
      "áīħáĬĵ": 7607,
      "Ġáĭ¨áĪļáĪ°": 7608,
      "1997": 7609,
      "Iy": 7610,
      "tattalinĠarz": 7611,
      "Ã©ĠdeĠ": 7612,
      "áĬ¥áĬĵ": 7613,
      "ĠáĭķáĪĪáīµĠáīłáĬĭáĪĭĠáĬ¥áĪµáĬ¨ĠáĭĵáĪĺáī±ĠáĪĺáĮ¨áĪ¨áĪ»ĠáĭµáĪ¨áĪµ": 7614,
      "ciĠgabaĠdaĠ": 7615,
      "ĠáĮĥ": 7616,
      "andikaĠ": 7617,
      "Marc": 7618,
      "CE": 7619,
      "call": 7620,
      "ĠáīĦ": 7621,
      "intĠ": 7622,
      "ĠáīłáĬ¤": 7623,
      "áĭ«áĭĺ": 7624,
      "ĠáīłáĪĭ": 7625,
      "otum": 7626,
      "2005Ġ": 7627,
      "ráº¹ÌĢĠnÃŃĠ": 7628,
      "YorubaĠ": 7629,
      "i,ĠmwakaĠwaĠ": 7630,
      "áĬķáĮīáĪ¥": 7631,
      "Ox": 7632,
      "onlyĠ": 7633,
      "compl": 7634,
      "RayuwarĠ": 7635,
      "ĠáĮĮáī³": 7636,
      "ungumz": 7637,
      "Ã¨rÃ¨Ġ": 7638,
      "lati": 7639,
      "Ġáĭ¨áīĨ": 7640,
      "ĠáĭĪáĮ¥": 7641,
      "Dut": 7642,
      "mÃŃrÃłnĠ": 7643,
      "uel": 7644,
      "anyaĠk": 7645,
      "olĠ": 7646,
      "áĪĽáĭįáĭ«áĬķ": 7647,
      "thod": 7648,
      "nyotaĠ": 7649,
      "Guin": 7650,
      "Tangany": 7651,
      "knownĠ": 7652,
      "ĠSchool": 7653,
      "2)": 7654,
      "arew": 7655,
      "Ã²n": 7656,
      "azarinĠ": 7657,
      "ng'": 7658,
      "centuryĠ": 7659,
      "alsĠ": 7660,
      "auriĠ": 7661,
      "ĠáĭŃáī»áĪĭáĪįáį¢": 7662,
      "Rec": 7663,
      "akatif": 7664,
      "awiĠ": 7665,
      "compos": 7666,
      "áĭĵáĬķ": 7667,
      "Arch": 7668,
      "ĠáīĢáĬķĠ": 7669,
      "....": 7670,
      "Ã¨resĠ": 7671,
      "baliĠ": 7672,
      "tarĠ": 7673,
      ",ĠaĠ": 7674,
      "usal": 7675,
      "ĠáĬłáĪįáī°": 7676,
      "MijiĠyaĠ": 7677,
      "Virg": 7678,
      "táº¹Ìģ": 7679,
      "iaĠkatikaĠ": 7680,
      "áĬŃáĬķ": 7681,
      "ĠáĮįáĭµ": 7682,
      "iliminĠ": 7683,
      "áī³áĭĪáīĢ": 7684,
      "JinaĠlakeĠlaĠ": 7685,
      "Po": 7686,
      "ĠáĬ¨áĪĽ": 7687,
      "apt": 7688,
      "ĠáĪ°áĬĲ": 7689,
      "ĠáĪįáĭ°áīµ": 7690,
      "ĠáīłáĬĲ": 7691,
      "ĠáĬĲáĭįáį¢ĠáĬ¨": 7692,
      "áī¸áĭĭáĪįáį¢": 7693,
      "ainaĠyaĠ": 7694,
      "Guine": 7695,
      "ĠáīĨáĭŃ": 7696,
      "áĬĵĠáĪĺáĭĭ": 7697,
      "Iá¹£áº¹ÌģĠ": 7698,
      "aish": 7699,
      "aÉĹ": 7700,
      "kin": 7701,
      "ĠG": 7702,
      "oĠjeĠ": 7703,
      "akh": 7704,
      "áĭµáĪ¨": 7705,
      "Ġáį©": 7706,
      "Ġáī°áĬŃáĪį": 7707,
      "áĪªáīĥ": 7708,
      "1920": 7709,
      "áĪªáĬ®áī½": 7710,
      "lead": 7711,
      "MichaelĠ": 7712,
      "utamadun": 7713,
      "Tab": 7714,
      "áĪ¨áĪŃ": 7715,
      "ĠáįĮ": 7716,
      "idd": 7717,
      "á»įÌĢĠsÃŃĠ": 7718,
      "Islam": 7719,
      "áĬ¨áĭļáĪħĠáĭķáĪĪáīµĠáīłáĬĭáĪĭĠáĬ¥áĪµáĬ¨ĠáĭĵáĪĺáī±ĠáĪĺáĮ¨áĪ¨áĪ»ĠáĭµáĪ¨áĪµ": 7720,
      "ĠâĢĺ": 7721,
      "MartinĠ": 7722,
      "ibnĠ": 7723,
      "áī¸áĭī": 7724,
      "UchaguziĠwaĠPapaĠ": 7725,
      "daraĠ": 7726,
      "1970": 7727,
      "ĠáĪĬáīĢ": 7728,
      "Ġáĭ¨áĪļáĮĪáĬĿáīłáīµ": 7729,
      "onj": 7730,
      "ugaĠ": 7731,
      "patakiĠ": 7732,
      "Domin": 7733,
      "ĠáĬłáĭ³": 7734,
      "olf": 7735,
      "ceĠdakeĠ": 7736,
      "AnĠginaĠ": 7737,
      "Ã´t": 7738,
      "hup": 7739,
      "ekeĠ": 7740,
      "Ġáĭ«áĪ³": 7741,
      "áįĬáĭ«": 7742,
      "bÃłbÃ¡Ġ": 7743,
      "Hany": 7744,
      "tum": 7745,
      "ĠáĬĲáĮ¥": 7746,
      "ingaĠ": 7747,
      "jamhur": 7748,
      "aĠG": 7749,
      "áĪµáĪĿ": 7750,
      "ekĠ": 7751,
      "azi": 7752,
      "ojoĠ": 7753,
      "áĬĴáĪįáĬŃ": 7754,
      "ĠáĪĺáĬķáĮįáĪ¥áī³áīµ": 7755,
      "ĠáĬķáĮīáĪłĠáĬĲáĮĪ": 7756,
      "inĠK": 7757,
      "ĠáīłáĪĢ": 7758,
      "1990": 7759,
      "Egyp": 7760,
      "Jar": 7761,
      "UK": 7762,
      "overĠ": 7763,
      "Dok": 7764,
      "aal": 7765,
      "áĪĪáīĢ": 7766,
      "áĪĺáĮ¥": 7767,
      "áĬ¨áĬĲ": 7768,
      "2015Ġ": 7769,
      "nameĠ": 7770,
      "ĠáĬłáĪĺáī³áīµ": 7771,
      "Jac": 7772,
      "MtoĠ": 7773,
      "aruĠ": 7774,
      "áĬ«áĪĦ": 7775,
      "bÃŃbÃŃĠ": 7776,
      "Ġáįªáį»áį": 7777,
      "hÃłnĠ": 7778,
      "áĭµáĪį": 7779,
      "áĭ°áĪŃáĮį": 7780,
      "Bos": 7781,
      "ĠáĬ¥áĪ±": 7782,
      "máº¹Ìģr": 7783,
      "vip": 7784,
      "ĠáĪĨáĬĳ": 7785,
      "njiaĠyaĠ": 7786,
      "onyesh": 7787,
      "Ã²p": 7788,
      "eje": 7789,
      "179": 7790,
      "áįĸáĪĬ": 7791,
      "jour": 7792,
      "mÃ¡Ġ": 7793,
      "Ġá»įlá»įÌģ": 7794,
      "ibit": 7795,
      "ni:Ġ": 7796,
      "WakaziĠ": 7797,
      "olÃ³á¹£Ã¨lÃºĠ": 7798,
      "ÃĢwá»įnĠáº¹láº¹ÌģbÃ¹nĠNobelĠnÃŃnÃºĠ": 7799,
      "HataĠ": 7800,
      "a).": 7801,
      "sen": 7802,
      "áĭ¨áĪļ": 7803,
      "ĠáĬ¥áĬķáīħáĪµáīĥáĪ´": 7804,
      "ĠáĪ²áĪį": 7805,
      "áĭŀáī½": 7806,
      "Ear": 7807,
      "oÃ¹Ġ": 7808,
      "áįı": 7809,
      "and,Ġ": 7810,
      "kuku": 7811,
      "áĭ°áĮĪ": 7812,
      "wake.": 7813,
      "uka": 7814,
      "Ġáī¤áī¶áī½": 7815,
      "Sur": 7816,
      "ĠniĠ": 7817,
      "usin": 7818,
      "WaingerezaĠ": 7819,
      "falmeĠmkuuĠwaĠJapaniĠ(": 7820,
      "Î¹": 7821,
      "olud": 7822,
      "áĬ¨áĬĵ": 7823,
      "Jo": 7824,
      "adu": 7825,
      "aziĠyaĠ": 7826,
      "ĠtÃŃĠÃ³Ġt": 7827,
      "ĠáĮĪáĭ¥": 7828,
      "ĠáĬ¥áĬ©áĪį": 7829,
      "ĠáĬ¨áĪĨáĬĲ": 7830,
      "iyaĠdaĠ": 7831,
      "ĠáĮĪáī¥áĪ¨": 7832,
      "ĠáĪĬáĭ«": 7833,
      "IbnĠ": 7834,
      "ĠáīłáĬłáĪģáĬĳ": 7835,
      "AwardsĠ": 7836,
      "Dani": 7837,
      "ukiĠ": 7838,
      "gidaĠ": 7839,
      "áĬķáĮĢ": 7840,
      "atikanaĠ": 7841,
      "ĠáĬĥ": 7842,
      "agoĠ": 7843,
      "lá»įÌģgbá»įÌĢnĠ": 7844,
      "wá»įÌĢny": 7845,
      "aanishaĠ": 7846,
      "tenĠ": 7847,
      "áĪµáĬķ": 7848,
      "ĠáīłáĪŀ": 7849,
      "Ġáī¥áĪĶáĪŃ": 7850,
      "Ġáº¹ÌĢyáº¹Ġ": 7851,
      "Angel": 7852,
      "ĠtheirĠ": 7853,
      "amfan": 7854,
      "COVI": 7855,
      "ĠáĪĿáĪįáĬŃáīµ": 7856,
      "zak": 7857,
      "ada": 7858,
      "kutumiaĠ": 7859,
      "Sikukuu": 7860,
      "shiĠneĠdanĠwasanĠÆĻwallonĠÆĻafaĠtaĠÆĻasarĠIngila.": 7861,
      "inoĠ": 7862,
      "Ġáī°áĬ¨áī³áĭŃ": 7863,
      "káº¹Ìģ": 7864,
      "nus": 7865,
      "ofaut": 7866,
      "ici": 7867,
      "ÆĻir": 7868,
      "upĠ": 7869,
      ",ĠleĠ": 7870,
      "ĠáīĤ": 7871,
      "alorsĠ": 7872,
      "áĪ³áĪįáį¢": 7873,
      "Afrika.": 7874,
      "round": 7875,
      "MutaneĠ": 7876,
      "Bauch": 7877,
      "Ju": 7878,
      "rest": 7879,
      "AlbertĠ": 7880,
      "áĭ²áĪ±": 7881,
      "olÃ³rÃŃĠ": 7882,
      "NÃŃĠá»įjá»įÌģĠk": 7883,
      "COVID-": 7884,
      "66": 7885,
      "KwalejinĠ": 7886,
      "s.Ġ": 7887,
      "Ġáĭ¨áĪģ": 7888,
      "perm": 7889,
      "ÃĮtum": 7890,
      "villeĠ": 7891,
      "AfrikaĠKusiniĠ": 7892,
      "YanaĠ": 7893,
      "áĪĿáī¥": 7894,
      "Ã¬bÃ¡": 7895,
      "Bol": 7896,
      "amuaĠ": 7897,
      "ilsĠ": 7898,
      "daĠsukeĠ": 7899,
      "aryĠSchool": 7900,
      "Libr": 7901,
      "Plat": 7902,
      "nuf": 7903,
      "vonĠ": 7904,
      "Ġ9": 7905,
      "ĠáĬŃáĪĪáī¥": 7906,
      "seed": 7907,
      "áĮĬáĭ«": 7908,
      "KatsinaĠ": 7909,
      "AL": 7910,
      "Lok": 7911,
      "ĠN": 7912,
      "arabaraĠ": 7913,
      "wishoĠ": 7914,
      "RaisĠ": 7915,
      "yat": 7916,
      "áĭ·": 7917,
      "wach": 7918,
      "leyinĠ": 7919,
      "Allah": 7920,
      "ĠáīµáĬķáĪ½": 7921,
      "ChuoĠKikuuĠchaĠ": 7922,
      "2=": 7923,
      "trav": 7924,
      "áĮĭáīµ": 7925,
      "jáº¹ÌģĠÃ²á¹£Ã¨rÃ©Ġ": 7926,
      "ĠáĪºáĪħ": 7927,
      "cit": 7928,
      "áĪĪáĭĭáĪįáį¢": 7929,
      "afir": 7930,
      "Ġ1.": 7931,
      "d'uneĠ": 7932,
      "KanisaĠK": 7933,
      "MaiĠ": 7934,
      "U.": 7935,
      "gaĠm": 7936,
      "áĪ©áĬķ": 7937,
      "Progr": 7938,
      "oluiluĠ": 7939,
      "iungaĠnaĠ": 7940,
      "Bad": 7941,
      "Ð½": 7942,
      "off": 7943,
      "idarĠ": 7944,
      "ĠáĪĺáĪ°áĪ¨áīµ": 7945,
      "áĮ¥áĪ¨ĠáĬĲáĮĪáĪ®áī½": 7946,
      "áĭŃáĪį": 7947,
      "2010Ġ": 7948,
      "Ġáī°áĪĺáĪ³áĪ³áĭŃ": 7949,
      "boĠ": 7950,
      "zaoĠ": 7951,
      "anal": 7952,
      "ilos": 7953,
      "ĠáĭŃáīĨ": 7954,
      "ĠáĪĪáĪļ": 7955,
      "Ali": 7956,
      "áĪįáĮĭ": 7957,
      "Ã³r": 7958,
      "Ã²t": 7959,
      "ambr": 7960,
      "2012Ġ": 7961,
      "Oá¹£Ã¹Ġk": 7962,
      "ĠkmÂ²": 7963,
      "Å«": 7964,
      "Ãłjáº¹sÃ¡raĠ": 7965,
      "unic": 7966,
      "DarĠesĠSalaam": 7967,
      "aya,Ġ": 7968,
      "2011Ġ": 7969,
      "ĠáĬłáĪĿáī£": 7970,
      "ungeĠniĠ": 7971,
      "FilmĠ": 7972,
      "MapapaĠ": 7973,
      "franÃ§ais": 7974,
      "takatif": 7975,
      "Brazil": 7976,
      "Hon": 7977,
      "ic,Ġ": 7978,
      "ĠáĭĺáĪĺáĬĲĠáĪĽáī´áĭİáĪµ": 7979,
      "DemocraticĠ": 7980,
      "Ġáĭ¨áĮ¥": 7981,
      "áĪįáĪµáįįáĬĵ": 7982,
      "ikuĠ": 7983,
      "áī°áīµ": 7984,
      "kumaĠanĠ": 7985,
      "olÃ³gunĠ": 7986,
      "áĬ®áĬĸáĪļ": 7987,
      "::": 7988,
      "fiel": 7989,
      "nÃŃgbÃłĠtÃŃĠÃ³Ġ": 7990,
      "ainaĠ": 7991,
      "ven": 7992,
      "esternĠ": 7993,
      "usammanĠ": 7994,
      "digiriĠnaĠ": 7995,
      "Don": 7996,
      "WarĠ": 7997,
      "kat": 7998,
      "ry": 7999,
      "Ġáĭ¨áĪĪáĭį": 8000,
      "elem": 8001,
      "áĪ³áĪ°": 8002,
      "ĠáĪµáĬķ": 8003,
      "ĠáĮĢáĪŃáĪĺáĬķ": 8004,
      "worl": 8005,
      "áĬ¨áī°áĪĽáĭį": 8006,
      "e\"Ġ": 8007,
      "v.": 8008,
      "chu": 8009,
      "ĠáįĴ": 8010,
      "Ġ12": 8011,
      "AnĠhaifiĠ": 8012,
      "----": 8013,
      "BiranenĠ": 8014,
      "uny": 8015,
      "apinduz": 8016,
      "ndegeĠ": 8017,
      "Champ": 8018,
      "ionalĠ": 8019,
      "rasmiĠ": 8020,
      "Ã©eĠparĠ": 8021,
      "ĠáīĥáĪĭáīµ": 8022,
      "sayensiĠ": 8023,
      "ĠáĬłáīĢáįį": 8024,
      "Ġáĭ¨áĬ¡": 8025,
      "uwez": 8026,
      "áī¦áĪŃ": 8027,
      "áįĵáĬķ": 8028,
      "EdwardĠ": 8029,
      "undaĠ": 8030,
      "1960Ġ": 8031,
      "peri": 8032,
      "JamhuriĠyaĠK": 8033,
      "nipas": 8034,
      "JinaĠlakeĠlaĠkuzaliwaĠ": 8035,
      "57": 8036,
      "lenyeĠ": 8037,
      "ĠáīłáĭĪ": 8038,
      "ikishoĠlaĠ": 8039,
      "Liv": 8040,
      "shindiĠwaĠTuzoĠyaĠNobelĠyaĠAm": 8041,
      "August": 8042,
      "FarkonĠ": 8043,
      "%),Ġ": 8044,
      "Mur": 8045,
      "ellaĠ": 8046,
      "Ġáĭ¨áĪļáĪ°áĪ«": 8047,
      "áī¦áīµ": 8048,
      "kutum": 8049,
      "PartyĠ(": 8050,
      "ĠáĬŃáįįáĪĭáĮĪáĪŃ": 8051,
      "Kat": 8052,
      "arunĠ": 8053,
      "ama,Ġ": 8054,
      "itaĠm": 8055,
      "ĠáĬ¨áĪ°": 8056,
      "ĠáĪĺáĪįáĬ©": 8057,
      "5,": 8058,
      "á»įÌģkaĠ": 8059,
      "andishiĠwaĠ": 8060,
      "dÃ©c": 8061,
      "áĪµáī°áĪŃ": 8062,
      "MuhammaduĠ": 8063,
      "dÃŃn": 8064,
      "pal": 8065,
      "ĠáĬ¥áĪ«áĪ±": 8066,
      "ĠáĪĽáĬħ": 8067,
      "bisaĠgaĠ": 8068,
      "jÃŃ": 8069,
      "nÃ¬Ġ": 8070,
      "áĮİáī½": 8071,
      "ts,Ġ": 8072,
      "ĠáīłáĪĺáī£áĪį": 8073,
      "áĪĭáĪĭ": 8074,
      "ĠáĪįáĪĽ": 8075,
      "¢áīµáĭ®áĮµáĭ«áĬķ": 8076,
      "UnionĠ": 8077,
      "html": 8078,
      "ĠáĮįáĬķáĬĻáĬĲáīµ": 8079,
      "DeĠ": 8080,
      "1914": 8081,
      "áĭ¨áĪ©": 8082,
      "karniĠnaĠ": 8083,
      "ĠáĮĢáĪĺáĪ¨": 8084,
      "Black": 8085,
      "aimakinĠ": 8086,
      "Kuf": 8087,
      "áī½áĪī": 8088,
      "imep": 8089,
      "unguz": 8090,
      "wayaĠ": 8091,
      "Ġáĭ¨áī°áī£": 8092,
      "uwa,Ġ": 8093,
      "Ġáĭ¨áĬłáĭįáĪ®áįĵ": 8094,
      "ÃĮjá»įbaĠ": 8095,
      "Cath": 8096,
      "awan": 8097,
      "aanaĠ": 8098,
      "ĠáĮĦ": 8099,
      "aĠmakarantarĠ": 8100,
      "wananch": 8101,
      "afterĠ": 8102,
      "ĠáĪµáĭ«áĪľ": 8103,
      "ĠáĭĵáĭŃáĬĲáīµ": 8104,
      "ĠáĪĽáĪŃáīĨáĪµĠáĭ°áĮįáĪŀ": 8105,
      "TVĠ": 8106,
      "oung": 8107,
      "asa.": 8108,
      "ashariki.": 8109,
      ":Ġmb": 8110,
      "u,Ġm": 8111,
      "aliĠm": 8112,
      "oluk": 8113,
      "empl": 8114,
      "áĭ³áĪª": 8115,
      "Ġáĭ«áĪĭáī¸áĭį": 8116,
      "000": 8117,
      "1994": 8118,
      "Maka": 8119,
      "Ġ~Ġ": 8120,
      "áĪĪáīłáīµ": 8121,
      "áįĸáĪŃáīµ": 8122,
      "sakand": 8123,
      "áĬķáĮ»": 8124,
      "2018,Ġ": 8125,
      "jeshiĠlaĠ": 8126,
      "Bill": 8127,
      "Li": 8128,
      "ÃłrinĠ": 8129,
      "asc": 8130,
      "áĪĪáī±": 8131,
      "Ã²bÃŃĠ": 8132,
      "áįĪáĪ¨": 8133,
      "tÃŃĠÃ³Ġjáº¹ÌģĠ": 8134,
      "HenryĠ": 8135,
      "Uaj": 8136,
      "Ġáī°áĮ«": 8137,
      "ĠáĪĿáĪħ": 8138,
      "aveĠ": 8139,
      "Kab": 8140,
      "dÃ©part": 8141,
      "ĠáĮ£áĪį": 8142,
      "Mer": 8143,
      "Ïģ": 8144,
      "á»įd": 8145,
      "ikaĠkwaĠ": 8146,
      "áĬĲáĬĽ": 8147,
      "isĠaĠ": 8148,
      "1987": 8149,
      "JamiâĢĻarĠ": 8150,
      "Ugand": 8151,
      "ĠáĬłáĪ«áīµ": 8152,
      "zik": 8153,
      "ÏĤ": 8154,
      "Ġáī°áĭ°áĪŃ": 8155,
      "leĠofĠ": 8156,
      "waÉĹan": 8157,
      "babbarĠ": 8158,
      "bend": 8159,
      "as.": 8160,
      "shah": 8161,
      "2001": 8162,
      "Ã¡tÃ³l": 8163,
      "ĠkatikaĠKamusiĠElezoĠyaĠKikatolikiĠ": 8164,
      "Maz": 8165,
      "ĠáĪĥáĭŃáĪĽáĬĸáīµ": 8166,
      ")áį¢": 8167,
      "68": 8168,
      "Cal": 8169,
      "yá»įĠ": 8170,
      "ÃĵĠtÃºnĠ": 8171,
      "abrair": 8172,
      ")ĠjeĠosereĠ": 8173,
      "baadaĠyaĠm": 8174,
      "ĠBKĠ(BaadaĠyaĠKristo).ĠMatukioĠWaliozaliwa": 8175,
      "Ġáĭ¨áĭĵáĪĺáī±": 8176,
      "alesĠ": 8177,
      "ishwaĠnaĠ": 8178,
      "lokacinĠdaĠ": 8179,
      "ĠáĭľáĬĵĠáĪĺáĭĭ": 8180,
      "áĪŃáī³": 8181,
      "Chur": 8182,
      "ĠáĬłáĪĪáį¢": 8183,
      "habariĠ": 8184,
      "áįĲáī¥áĪĬáĬŃ": 8185,
      "Victor": 8186,
      "Festiv": 8187,
      "KÃ¡tÃ³l": 8188,
      "ĠáĬłáĭĭ": 8189,
      "EthiopiaĠ": 8190,
      "-áº¹ÌĢyáº¹Ġ": 8191,
      "Ġáĭ©áĬĴáī¨áĪŃáĪ²áī²": 8192,
      "Mohamm": 8193,
      "Wap": 8194,
      "mÃ¹": 8195,
      "Ġáīłáĭļáĭ«": 8196,
      "áīłáī³áĪįáį¢": 8197,
      "ajiĠyaĠ": 8198,
      "karneĠyaĠ": 8199,
      "umbeĠ": 8200,
      "FIFAĠ": 8201,
      "Kul": 8202,
      "geĠ": 8203,
      "gam": 8204,
      "lineĠ": 8205,
      "ÃĢĠ": 8206,
      "áĮĭáĪ«": 8207,
      "atiĠawá»įnĠ": 8208,
      "Ãīt": 8209,
      "áĪªáī³áĬķáĭ«": 8210,
      "IN": 8211,
      "aineĠ": 8212,
      "mor": 8213,
      "nchiĠm": 8214,
      "1988": 8215,
      "uhusuĠ": 8216,
      "TazamaĠpia": 8217,
      "OfficialĠ": 8218,
      "Ach": 8219,
      "atic": 8220,
      "wanak": 8221,
      "BirninĠ": 8222,
      "áīĭáīĭ": 8223,
      "áĬłáĪģ": 8224,
      "nigbaĠ": 8225,
      "Ġáĭ¨áĬĲáĮĪ": 8226,
      "áĬĲáĮĪáĪŃĠáĮįáĬķ": 8227,
      "oorunĠ": 8228,
      "ĠáĪ³áĭŃáĬķáĪ³áĭĬĠáĮ¸áī£áĭŃ": 8229,
      "PÃ³p": 8230,
      "numb": 8231,
      "erĠandĠ": 8232,
      "airesĠ": 8233,
      "Usw": 8234,
      "illeĠ": 8235,
      "áĭµáīħ": 8236,
      "daban-": 8237,
      "Ġáĭ¨áĪħáĭĿáī¥": 8238,
      "Ze": 8239,
      "gwamnanĠ": 8240,
      "niĠodunĠ": 8241,
      "edĠbyĠtheĠ": 8242,
      "ArewacinĠ": 8243,
      "98": 8244,
      "faf": 8245,
      "kÃ¹nĠ": 8246,
      "2012,Ġ": 8247,
      "ĠáīĢáĭŃ": 8248,
      "achĠ": 8249,
      "BeninĠ": 8250,
      "CollegeĠ": 8251,
      "CN": 8252,
      "Gener": 8253,
      "ĠáĬ¥áĬķáĭ°ĠáĬĲáīłáĪŃ": 8254,
      "partĠ": 8255,
      "ViungoĠvyaĠN": 8256,
      "ĠáĬłáī£áĪĭáīµ": 8257,
      "Oá¹£uĠK": 8258,
      "Ġáĭ¨áĪĻáĭļáīĥ": 8259,
      "GB": 8260,
      "ilaĠm": 8261,
      "ĠáĮ¤": 8262,
      "ĠáĪĿáĭķáĪ«": 8263,
      "ots": 8264,
      "Ã¬dÃŃjeĠ": 8265,
      "67": 8266,
      "hÃ¬nĠ": 8267,
      "piliĠ": 8268,
      "Åĵ": 8269,
      "áĬķáĮįáĪ¥áīµ": 8270,
      "ion.": 8271,
      "yake,Ġ": 8272,
      "\"TheĠ": 8273,
      "5)": 8274,
      "Kog": 8275,
      "rabaĠ": 8276,
      "áĬĵáĮĪáĪŃ": 8277,
      "áĬĽáį¦": 8278,
      "uĠyaĠk": 8279,
      "tunz": 8280,
      "barĠ": 8281,
      "dep": 8282,
      "ĠáĬłáĬĵ": 8283,
      "áº¹ráº¹": 8284,
      "Ġáī°áĪĺáĪį": 8285,
      "GuineaĠ": 8286,
      "Laf": 8287,
      "SanĠ": 8288,
      "ara,Ġ": 8289,
      "áĭĿáĪĿ": 8290,
      "ÃĮjá»įĠ": 8291,
      "tarihinĠ": 8292,
      "cinĠkofinĠ": 8293,
      "áįĪáĪĭáĮĬ": 8294,
      "AnĠginaĠbirninĠ": 8295,
      "PortĠ": 8296,
      "gin": 8297,
      "á»įrÃŃĠ": 8298,
      "Ġáĭ°áī¥": 8299,
      "uiyaĠ": 8300,
      "yaĠyiĠ": 8301,
      "áĭįáĪį": 8302,
      "áĮįáĪĪ": 8303,
      "áĭĿáī¡": 8304,
      "áĪµáīµáĪª": 8305,
      "rubut": 8306,
      "Ukrist": 8307,
      "Eos": 8308,
      "Fabrair": 8309,
      "Mir": 8310,
      "d.Ġ": 8311,
      "ata,Ġ": 8312,
      "Ġáī°áĮĪ": 8313,
      "áĮĭáĮĪáĪŃ": 8314,
      "ĠâĢ¹": 8315,
      "ĠáĬ¥áĪµáĬ«": 8316,
      "halarciĠ": 8317,
      "Dir": 8318,
      "Gold": 8319,
      "GovernmentĠ": 8320,
      "Jun": 8321,
      "shidaĠ": 8322,
      "áĮįáĪĽáĭĬ": 8323,
      "jeĠijobaĠibileĠniĠIpinleĠ": 8324,
      "áĮĢáīµ": 8325,
      "Ã¬wá»įÌĢ": 8326,
      "Ow": 8327,
      "Ã¨Ã¨": 8328,
      "áĬĲáĪ£": 8329,
      "(N": 8330,
      "iniĠkwaĠ": 8331,
      "áĬŃáĪĿáĬĵ": 8332,
      "wigizajiĠ": 8333,
      ":ĠmbungeĠniĠ": 8334,
      "Larab": 8335,
      "ĠáīłáĪ¥": 8336,
      "awarĠdaĠ": 8337,
      "Ãłwá»įnĠáº¹": 8338,
      "áº¹rin": 8339,
      "paysĠ": 8340,
      "Califor": 8341,
      "nÃŃb": 8342,
      "Serik": 8343,
      "kumaĠmaiĠ": 8344,
      "alikuwaĠPapaĠkuanziaĠtareheĠ": 8345,
      "400": 8346,
      "Gi": 8347,
      "ati,Ġ": 8348,
      "Ã©s": 8349,
      "2002Ġ": 8350,
      "al'umm": 8351,
      "IVĠ": 8352,
      "Tom": 8353,
      "ress": 8354,
      "oĠaĠ": 8355,
      "ĠáĪ°áĪŃ": 8356,
      "áī¢áĭŃ": 8357,
      "undum": 8358,
      "ĠáĪĬáīĥáĭįáĬķ": 8359,
      "áĭ°áī¥áĪ¨": 8360,
      "áīħáĭ«áĬĸáĪµ": 8361,
      "2ĠâĢĵĠ": 8362,
      "vitabuĠ": 8363,
      "áĭ°áĪ¨áĮĪáĭį": 8364,
      "anim": 8365,
      "imam": 8366,
      "1966": 8367,
      "áį£ĠáĪĪ": 8368,
      "ediaĠ": 8369,
      "akaĠdaĠ": 8370,
      "road": 8371,
      "namoĠmwakaĠ": 8372,
      "Philip": 8373,
      "nasaraĠ": 8374,
      "kundiĠlaĠ": 8375,
      "wayĠ": 8376,
      "yas": 8377,
      "age,Ġ": 8378,
      "1999Ġ": 8379,
      "e).": 8380,
      "fÃŃl": 8381,
      "aswaĠ": 8382,
      "áĪĽáī¸áĭį": 8383,
      "ĠáĭĪáĮ£": 8384,
      "á»įÌĢkanĠ": 8385,
      "angwaĠ": 8386,
      "ndog": 8387,
      "áįĬáĭİáī½": 8388,
      "ĠáīµáĪŃáĮīáĪĿ": 8389,
      "ĠáĪļáĬĴáĪµáīµáĪŃ": 8390,
      "Itokasi": 8391,
      "ĠáĪĺáĬ®": 8392,
      "ĠáĬŃáĪŃ": 8393,
      "ammentĠ": 8394,
      "ĠáĮ¥áīłáī¥": 8395,
      "ĠáĭĭáĮĭ": 8396,
      "Abdull": 8397,
      "ÃĮjáº¹ÌĢ": 8398,
      "ĠáĪģáĪĪáī°áĬĽ": 8399,
      "\".Ġ": 8400,
      "áĭµáĪľ": 8401,
      "watumwaĠ": 8402,
      "gener": 8403,
      "moreĠ": 8404,
      "1989": 8405,
      "oĠniĠm": 8406,
      "ogboĠ": 8407,
      "wishoĠwaĠ": 8408,
      "AB": 8409,
      "Fl": 8410,
      "Ġáĭ¨áĪĭ": 8411,
      "ukolon": 8412,
      "áĮĭáĪª": 8413,
      "Ġáĭĺáĭį": 8414,
      "Ãºn,Ġ": 8415,
      "hul": 8416,
      "áį¡áĬł": 8417,
      "177": 8418,
      "ĠáĪļáĬ«áĬ¤áĪį": 8419,
      "MusulunciĠ": 8420,
      "Est": 8421,
      "rÃ¹nĠ": 8422,
      "ĠáĪĺáĪ¬áīµ": 8423,
      "amboĠyaĠ": 8424,
      "áī¤áī±": 8425,
      "AfrikaĠyaĠK": 8426,
      "DansĠ": 8427,
      "2014Ġ": 8428,
      "reĠdeĠ": 8429,
      "áĬĽáĭįáĪĿ": 8430,
      "Ġá»Įjá»įÌģĠk": 8431,
      "filmĠ": 8432,
      "akarant": 8433,
      "ahaifiy": 8434,
      "gbá»įÌģ": 8435,
      "High": 8436,
      "tatuĠ": 8437,
      "Ã£": 8438,
      "sĠofĠtheĠ": 8439,
      "ĠáĪĿáĬĴáĪįáĬŃ": 8440,
      "yanayinĠ": 8441,
      "ĠáĬ¢áĭ¨áĪ±áĪµ": 8442,
      "wanasiasaĠwaĠ": 8443,
      "fumoĠwaĠ": 8444,
      "ĠáĮłáīħáĪĭáĭŃ": 8445,
      "J.": 8446,
      "onneĠ": 8447,
      "Ġáīłáĭ°áī¡áī¥": 8448,
      "abisaĠ": 8449,
      "áĭ«áīĦ": 8450,
      "ĠáĬłáĭĺ": 8451,
      "iaĠwaĠ": 8452,
      "ĠkoĠ": 8453,
      "ĠáĮ¨áĪĿáĪ®": 8454,
      "istĠofĠ": 8455,
      "BaadayeĠ": 8456,
      "hannuĠ": 8457,
      "aprÃ¨sĠ": 8458,
      "Kem": 8459,
      "ra'": 8460,
      "yÃ¨": 8461,
      "ikaĠm": 8462,
      "taĠzamaĠ": 8463,
      "ers.": 8464,
      "ĠáĪ¥áĮĭ": 8465,
      "attaf": 8466,
      "áīĢáĪĺáĮ«": 8467,
      "nomĠ": 8468,
      "áĭ°áĪŃáĪµ": 8469,
      "ahiyarĠ": 8470,
      "2008Ġ": 8471,
      "áĮ»áįį": 8472,
      "AareĠorile-edeĠ": 8473,
      "Ġáĭ¨áĪļáĮĪáĬĿáīłáīµĠáĪĺáĪįáĬŃáĭĵĠáĪĿáĭµáĪŃ": 8474,
      ".ĠÃĵĠ": 8475,
      "annÃ©esĠ": 8476,
      "áĪĲáĪ´": 8477,
      "Ãłká»į": 8478,
      "ĠáĬłáĪµáī°áĭ³áĭ°áĮį": 8479,
      "Uholanz": 8480,
      "ĠáįĪáĪ¨áĬķáĪ³áĭŃ": 8481,
      "Ham": 8482,
      "Round": 8483,
      "yÃ¡Ġ": 8484,
      "áĮįáĬĵ": 8485,
      "ĠáĬĲáįĥ": 8486,
      "umuĠ": 8487,
      "áĪĲáĭŃ": 8488,
      "asihi": 8489,
      "nchiniĠTanzaniaĠ": 8490,
      "ĠáĪľáĭ³": 8491,
      "MfalmeĠ": 8492,
      "ator": 8493,
      "á¹£áº¹Ġ": 8494,
      "tÃŃĠÃłwá»įnĠ": 8495,
      "IbadanĠ": 8496,
      "dÃŃĠ": 8497,
      "kasashenĠ": 8498,
      "ufalmeĠ": 8499,
      "pi": 8500,
      "2020Ġ": 8501,
      "ifup": 8502,
      "aweĠ": 8503,
      "Ġáĭķáĭį": 8504,
      "Mediter": 8505,
      "yaraĠ": 8506,
      "áĪĿáīłáĪŃ": 8507,
      "1917": 8508,
      "ĠáĪĬáĪĨáĬķ": 8509,
      "aientĠ": 8510,
      "atureĠ": 8511,
      "SouthĠ": 8512,
      "inj": 8513,
      "áĪ«áĪª": 8514,
      "wann": 8515,
      "acikinĠ": 8516,
      "imboĠyaĠ": 8517,
      "áĮĥáĭĿáĪĽáī½": 8518,
      "Associ": 8519,
      "áĪ£áĪªáĭ«": 8520,
      "Ã²á¹£Ã¨lÃºĠ": 8521,
      "jÃ¡d": 8522,
      "ton,Ġ": 8523,
      "202": 8524,
      "áĪ«áĭįáĭ«áĬķ": 8525,
      "Ġáĭ¨áĪĺáĮ£": 8526,
      "Indones": 8527,
      "dÃŃjeĠ": 8528,
      "present": 8529,
      "ĠáĬĽáĭį": 8530,
      "-áĬ¢": 8531,
      "áĭ«áĭįáĭ«áĬķ": 8532,
      "engiĠ": 8533,
      "Press,Ġ": 8534,
      "Hor": 8535,
      "follow": 8536,
      "uluĠ": 8537,
      "ĠáĬªáĪİ": 8538,
      "ayáº¹yáº¹Ġ": 8539,
      "ĠáĭķáĪĪáī°ĠáĪŀáīµ": 8540,
      ",Ġá»įdÃºnĠ": 8541,
      "Me": 8542,
      "sand": 8543,
      "áĪ¦": 8544,
      "Ġáī²": 8545,
      "ĠáĭŃáĪĺ": 8546,
      "áī°áĬĵ": 8547,
      "aye.": 8548,
      "ĠáĭĪáĭĺ": 8549,
      "2013Ġ": 8550,
      "ÃĮgbÃ©": 8551,
      ",Ġmwan": 8552,
      "ĠáĬłáĪµáī°áĭ³áĭ°áĪŃ": 8553,
      "usieursĠ": 8554,
      "87": 8555,
      "uy": 8556,
      "afiĠk": 8557,
      "awap": 8558,
      "OlÃ¹": 8559,
      "wadandaĠ": 8560,
      "ĠáĮ¸áĪĲáįĬ": 8561,
      "Langu": 8562,
      "EosentomonĠ": 8563,
      "ªáĭ«": 8564,
      "áī£áī±": 8565,
      "i,ĠnaĠ": 8566,
      "etĠlesĠ": 8567,
      "manyĠ": 8568,
      "al'ad": 8569,
      "ÃĢwá»įnĠÃ¨nÃ¬yÃłnĠalÃłÃłyÃ¨Ġ": 8570,
      "áº¹tÃł": 8571,
      "ĠáĬ¨áĭĪ": 8572,
      "áĭ«áĪįáį¢": 8573,
      "taĠfaraĠ": 8574,
      "oss": 8575,
      "ĠáĭĵáĪĭáĪĽ": 8576,
      "Ġ14": 8577,
      "máº¹ÌģtaĠ": 8578,
      "oniĠmwaĠ": 8579,
      "dinĠ": 8580,
      "prob": 8581,
      "bornĠ": 8582,
      ");Ġ": 8583,
      "Pier": 8584,
      "mÂ²": 8585,
      "à¥": 8586,
      "Ãł-": 8587,
      "2006,Ġ": 8588,
      "ĠdagaĠ": 8589,
      "hadiĠm": 8590,
      "daĠsaur": 8591,
      "dá»įÌģ": 8592,
      "oĠs": 8593,
      "ikiĠk": 8594,
      "áĪĬáĭ«áĬķ": 8595,
      ",ĠmshairiĠ": 8596,
      "LoveĠ": 8597,
      "fÃŃrÃŃ": 8598,
      "pup": 8599,
      "áīłáĪ®": 8600,
      "ezĠ": 8601,
      "angazaĠ": 8602,
      "ÃĢÃłráº¹Ġiláº¹ÌĢĠ": 8603,
      "sosaiĠ": 8604,
      "ĠáĭĺáĪĺáĬķĠáĬłáīĨáĮ£áĮłáĪŃĠáĭ¨áĭĵáĪĺáī±": 8605,
      "jah": 8606,
      "áįįáĪ¬": 8607,
      "etnam": 8608,
      "áĬķáĭµáĪµáĬĵ": 8609,
      "Bern": 8610,
      "dáº¹Ìģ": 8611,
      "pemb": 8612,
      "ĠtunĠ": 8613,
      "ĠtiĠk": 8614,
      "walim": 8615,
      "Ã²rÃ¡nĠ": 8616,
      "KÃ¡tÃ³lÃ¬kÃ¬": 8617,
      "(Ġ": 8618,
      "kÃ©": 8619,
      "ounĠ": 8620,
      "ojinĠ": 8621,
      "RomanĠ": 8622,
      "cal": 8623,
      "ies,Ġ": 8624,
      "adin": 8625,
      "ĠáĭŃáĮł": 8626,
      "áĮĬáĭľáĭį": 8627,
      "50Ġ": 8628,
      "Ø¹": 8629,
      "ekanaĠ": 8630,
      "1986": 8631,
      "mafiĠ": 8632,
      "PĠ": 8633,
      "ikĠ": 8634,
      "áīłáĬłáĪ": 8635,
      "1993": 8636,
      "ĠáĬłáĪĽáĬ«": 8637,
      "a:": 8638,
      "torĠ": 8639,
      "ari.": 8640,
      "eph": 8641,
      "anteĠ": 8642,
      "ÃĴunĠ": 8643,
      "Group": 8644,
      "qĠ": 8645,
      "viv": 8646,
      "áĮ£áĪª": 8647,
      "huÉĹ": 8648,
      "Ã¬dÃŃn": 8649,
      "Ġáī¥áĭĻĠáĮĬáĭľ": 8650,
      "GrandĠ": 8651,
      "DeltaĠ": 8652,
      "Ġáīłáī°áĪĪáĭŃáĪĿ": 8653,
      "áĮ©": 8654,
      "áĪ³áĭį": 8655,
      "AbuĠ": 8656,
      "áĭįáĬķĠáĭ¨": 8657,
      "ĠáĪŃáĭķ": 8658,
      "Tak": 8659,
      "erv": 8660,
      "opaĠ": 8661,
      "ĠáįĬáĪį": 8662,
      "FrenchĠ": 8663,
      "CentralĠ": 8664,
      "fÃŃlmÃ¹Ġ": 8665,
      "Mc": 8666,
      "áĪµĠ(": 8667,
      "ĠáĬ¥áĮ½": 8668,
      "aham": 8669,
      "egemeaĠ": 8670,
      "Seneg": 8671,
      "Hungar": 8672,
      "ĠáĬ¦áĪŃ": 8673,
      "daĠsuk": 8674,
      "Ã¬yÃłn": 8675,
      "ĠáĬªáĭ³áĬķ": 8676,
      "KaisariĠ": 8677,
      "nipasáº¹Ġ": 8678,
      "Hum": 8679,
      "cas": 8680,
      "ĠáĬłáī¡": 8681,
      "MarisĠ": 8682,
      "áĬķáĮįáĪµáīµ": 8683,
      "ujokoĠ": 8684,
      "fiimuĠ": 8685,
      "adarÃŃĠ": 8686,
      "ĠtÃŃtÃŃĠ": 8687,
      "ĠáĬłáĮĪáĪįáĮįáĪİáīµ": 8688,
      "Lá»įÌģ": 8689,
      "raj": 8690,
      "áĬķáĬ«": 8691,
      "áĪŃáį£": 8692,
      "ati.": 8693,
      "ataĠuhuruĠ": 8694,
      "pÃ©ri": 8695,
      "birniĠne,ĠdaĠkeĠ": 8696,
      "):Ġ": 8697,
      "Chil": 8698,
      "1979": 8699,
      "Shek": 8700,
      "166": 8701,
      "Aut": 8702,
      "Mod": 8703,
      "perĠ": 8704,
      "wÃ©": 8705,
      "ilif": 8706,
      "ĠáĬłáĮł": 8707,
      "deĠm": 8708,
      "áĭ¨áĬłáĪ": 8709,
      "Ġáĭ°áĮĭ": 8710,
      "Â»,Ġ": 8711,
      "áº¹ÌĢ-Ã¨dÃ¨": 8712,
      "ologieĠ": 8713,
      "ectiv": 8714,
      "ĠáĪĻáĭļáīĥ": 8715,
      "KitabuĠ": 8716,
      "UpandeĠwaĠ": 8717,
      ".ĠISBNĠ": 8718,
      "son,Ġ": 8719,
      "áĬ»": 8720,
      "ikaĠk": 8721,
      "áī¥áĬĽ": 8722,
      "2003Ġ": 8723,
      "ovi": 8724,
      "ilikuwaĠm": 8725,
      "PauloĠ": 8726,
      "Girl": 8727,
      "AlhajiĠ": 8728,
      "luĠ": 8729,
      "Ġáīłáį": 8730,
      "adhar": 8731,
      "watotoĠ": 8732,
      "agbaraĠ": 8733,
      "alsaf": 8734,
      "BK": 8735,
      "fup": 8736,
      "ĠtabiĠ": 8737,
      "AkwaiĠ": 8738,
      "áį²áį±áį»áį¶áį": 8739,
      "ĠáĭĺáĪĺáĬĲĠáĪĽáĪŃáīĨáĪµĠáĭ°áĮįáĪŀ": 8740,
      "ĠáįĪáĪŃáĭĸáĬķ": 8741,
      "|-Ġ|": 8742,
      "40Ġ": 8743,
      "daĠsh": 8744,
      "aganaĠ": 8745,
      "ĠáĬ¥áĬķáĭµ": 8746,
      "áĪĮáĪĭ": 8747,
      "AustraliaĠ": 8748,
      "áĪĽáĭŃáĪµáĮ¥": 8749,
      "Book": 8750,
      "Hal": 8751,
      "KaleĠ": 8752,
      "Web": 8753,
      "ixĠ": 8754,
      "Ã¡aĠ": 8755,
      "hawak": 8756,
      "though": 8757,
      "Ã¨yÃŃĠtÃŃĠ": 8758,
      "Ġáī¡áĭµ": 8759,
      "Uingereza.": 8760,
      "ĠáĬĹáĪª": 8761,
      "jus": 8762,
      "someĠ": 8763,
      "tanĠ": 8764,
      "influ": 8765,
      "áĪĺáĪĪáĪµ": 8766,
      "Kum": 8767,
      "law": 8768,
      "sÃ©": 8769,
      "1990Ġ": 8770,
      "issionĠ": 8771,
      "daĠtakeĠ": 8772,
      "Kiswahil": 8773,
      "AugustĠ": 8774,
      "ambazoĠ": 8775,
      "ÃĮjá»įĠKÃ¡tÃ³lÃ¬kÃ¬": 8776,
      "gegeĠbiĠ": 8777,
      "pÃŃnĠ": 8778,
      "rÃ¹": 8779,
      "áĬ¥áĪµ": 8780,
      "oĠkatiĠyaĠ": 8781,
      "WaarabuĠ": 8782,
      "aká»įrinĠ": 8783,
      "cheoĠchaĠ": 8784,
      "R.": 8785,
      "Utur": 8786,
      "jÃł": 8787,
      "aliĠnaĠ": 8788,
      "obj": 8789,
      "(M": 8790,
      "áĬ«áĭµ": 8791,
      "ĠáĭµáĬķáĮĭáĭŃ": 8792,
      "gomaĠ": 8793,
      "Ġ[": 8794,
      "áĭĭáĪŃáĭ«": 8795,
      "Â»)": 8796,
      "ĠáĪļáĬĴáĪµáī´": 8797,
      "Ã©taitĠ": 8798,
      "foisĠ": 8799,
      "maaĠ": 8800,
      "áĬķĠáĭĪáĭ°": 8801,
      "Ye": 8802,
      "asaliĠ": 8803,
      "chakeĠ": 8804,
      "áĪĪáĪ°": 8805,
      "idemokras": 8806,
      "2004Ġ": 8807,
      "aĠB": 8808,
      "sher": 8809,
      "anzishaĠ": 8810,
      "Ġáĭ«áĪĪáĭįáĬķ": 8811,
      "ĠáĮĪáĬķáĭĺáī¥": 8812,
      "RÃ©": 8813,
      "wouldĠ": 8814,
      "aroĠ": 8815,
      "imaniĠ": 8816,
      "áĪĻáīµ": 8817,
      "ÃĮtÃłnĠ": 8818,
      "Marejeo": 8819,
      "fimĠdinĠ": 8820,
      "er'sĠ": 8821,
      "ame": 8822,
      "yÃ¬ÃŃĠniĠ": 8823,
      "Tor": 8824,
      "es)Ġ": 8825,
      "stand": 8826,
      "ÃĮbÃłdÃłnĠ": 8827,
      "Ġá¹£ÃŃá¹£eĠ": 8828,
      "ini-m": 8829,
      "FederalĠ": 8830,
      "usalem": 8831,
      "áĮĲ": 8832,
      "asis": 8833,
      "ĠáĪĪáĭĪ": 8834,
      "AĠshekaraĠtaĠ": 8835,
      "jej": 8836,
      "sáº¹ÌĢ": 8837,
      "irikiĠ": 8838,
      "Ã©ĠenĠ": 8839,
      "áĭ³áĭĬ": 8840,
      "aribuĠnaĠ": 8841,
      "ministr": 8842,
      "wá»įÌģnĠá¹£eĠ": 8843,
      "Jack": 8844,
      "ne.Ġ": 8845,
      "akiwaĠ": 8846,
      "wanach": 8847,
      "AĠk": 8848,
      "cat": 8849,
      "iumĠ": 8850,
      "rac": 8851,
      "áĪĿáĪĮ": 8852,
      "a,ĠM": 8853,
      "ikaĠnaĠ": 8854,
      "áĮłáīµ": 8855,
      "ebiĠ": 8856,
      "ĠáĪķáĮį": 8857,
      "PÃ³pÃ¹": 8858,
      "'estĠ": 8859,
      "ayÃ©": 8860,
      "appl": 8861,
      "Ġáĭ¨áĪļáī£áĪį": 8862,
      "ĠáĬ¥áĬķáĭ°ĠáĪĨáĬĲ": 8863,
      "duniya.": 8864,
      "ÃłyÃłnĠ": 8865,
      "Ã¬yÃ¡Ġ": 8866,
      "whereĠ": 8867,
      "HanyoyinĠ": 8868,
      "Ġáĭ¨áĪĪáĪĿ": 8869,
      "mÃ¬niraĠ": 8870,
      "becameĠ": 8871,
      "PeopleĠ": 8872,
      "Journ": 8873,
      "Yer": 8874,
      "ĠáĮĵ": 8875,
      "imet": 8876,
      "áĪ«áĬĴ": 8877,
      "edic": 8878,
      "aĠyaĠmwakaĠ": 8879,
      ",ĠK": 8880,
      "arĠg": 8881,
      "trad": 8882,
      "Sheh": 8883,
      "undish": 8884,
      "bayarĠdaĠ": 8885,
      "inĠaĠ": 8886,
      "ĠAs": 8887,
      "WakatiĠ": 8888,
      "ĠáĪħáĮį": 8889,
      "ĠáīµáĪĿáĪħáĪŃáīµĠáī¤áīµ": 8890,
      "Ġáĭ°áĪ´áīµ": 8891,
      "BabaĠ": 8892,
      "Red": 8893,
      ",ĠÃłwá»įnĠ": 8894,
      "iyaĠnaĠ": 8895,
      "1984": 8896,
      "ĠáĬĲáīłáĪŃáį¡áį¡": 8897,
      "exist": 8898,
      "ulikanaĠk": 8899,
      "MasharikiĠ": 8900,
      "e;Ġ": 8901,
      "araĠm": 8902,
      "kuwaĠk": 8903,
      "áĬĲáĪµ": 8904,
      "ĠáīłáĪ®": 8905,
      "áĭĿáĬĵ": 8906,
      "foreĠ": 8907,
      "territ": 8908,
      "ÅĦĠpÃ¨ĠnÃŃĠ": 8909,
      "OmoĠ": 8910,
      "Fasah": 8911,
      "udaĠm": 8912,
      "ilih": 8913,
      "ĠáĬłáĭ°": 8914,
      "repr": 8915,
      "ĠáĪµáī´": 8916,
      "Ġáĭ°áĪŃ": 8917,
      "Abdul": 8918,
      "SeptemberĠ": 8919,
      "ĠáĬĥáĭŃáĪĪĠáĪ¥áĪĭáĪ´": 8920,
      "God": 8921,
      "O.": 8922,
      "kÃłnĠ": 8923,
      "wingineĠ": 8924,
      "Îµ": 8925,
      "inach": 8926,
      ".ĠTazamaĠpiaĠOrodhaĠyaĠ": 8927,
      "nÃŃĠÃĮ": 8928,
      "arÃ¡ĠNÃłÃ¬jÃŃrÃŃÃł": 8929,
      "net": 8930,
      "rag": 8931,
      "Ðº": 8932,
      "áĪ«áĭį": 8933,
      "actor": 8934,
      "2009,Ġ": 8935,
      "Alek": 8936,
      "haoĠ": 8937,
      "Ġáī¤áī°áĬŃáĪŃáĪµáī²áĭ«áĬķ": 8938,
      "ĠáĪªáįĲáī¥áĪĬáĬŃ": 8939,
      "countr": 8940,
      "Gen": 8941,
      "rab": 8942,
      "yammacinĠ": 8943,
      "en'sĠ": 8944,
      "ĠáĭĪáĪ°": 8945,
      "edĠt": 8946,
      "kanĠtÃŃĠ": 8947,
      "ĠáĬłáĪįáįĭ": 8948,
      "ement,Ġ": 8949,
      "áĮĪáĪĪáĮį": 8950,
      "Magharib": 8951,
      "sau": 8952,
      "isit": 8953,
      "aciĠ": 8954,
      "erĠofĠtheĠ": 8955,
      "áī¡áĪŃ": 8956,
      "hakanĠ": 8957,
      "surĠleĠ": 8958,
      "hizoĠ": 8959,
      "ĠáīĢáĬĵáīµĠáĭŃáīĢáĪ«áĪīáį¢": 8960,
      "Yul": 8961,
      "Ġáĭ¨áī¥": 8962,
      "irdĠ": 8963,
      "áĭļáĭ«áĬķ": 8964,
      "lex": 8965,
      "áī£áī¢áĪİáĬķ": 8966,
      "Bul": 8967,
      "many": 8968,
      "ziwaĠ": 8969,
      "ÏĦ": 8970,
      "áĬĵáĬķ": 8971,
      "una,Ġ": 8972,
      "ĠáįįáīħáĪŃ": 8973,
      "Americ": 8974,
      "inĠmall": 8975,
      "GÃºÃºs": 8976,
      "KumaĠ": 8977,
      "Nap": 8978,
      "nin": 8979,
      "dansĠlesĠ": 8980,
      "áĬ¥áĬķáĭ²áĪģ": 8981,
      "Wajer": 8982,
      "dÃ¹": 8983,
      "wikiped": 8984,
      "ahudiĠ": 8985,
      "Ġáīłáī°áĪĪáĭ«áĭ©": 8986,
      "áĪµáĪ«áĬ¤áĪį": 8987,
      "Wajerum": 8988,
      "Pers": 8989,
      "pp": 8990,
      "áĪ«áĪŃ": 8991,
      "uĠkamaĠ": 8992,
      "ciĠgab": 8993,
      "philos": 8994,
      "kudancinĠ": 8995,
      "Tour": 8996,
      "Ġ18": 8997,
      "ĠandĠ": 8998,
      "ĠáĬĶ": 8999,
      "áĪĪáĪį": 9000,
      "1919": 9001,
      "Ã¨s": 9002,
      "aji.": 9003,
      "anzuĠ": 9004,
      "Ġáĭ°áī¥áĪ¨": 9005,
      "Burtan": 9006,
      "historiaĠ": 9007,
      "nombre": 9008,
      "fung": 9009,
      "walaĠ": 9010,
      "áī¥áĪĭ": 9011,
      "ingĠtoĠ": 9012,
      "ĠáĮįáĪį": 9013,
      "wanzaĠyaĠ": 9014,
      "DevelopmentĠ": 9015,
      "Civ": 9016,
      "Pan": 9017,
      "buk": 9018,
      "daid": 9019,
      "kÃ¹Ġ": 9020,
      "Ð»": 9021,
      "Add": 9022,
      "Nijeriya.Ġ": 9023,
      "Ujerumani.": 9024,
      "ĠáĮłáĪĭ": 9025,
      "vest": 9026,
      "wiki": 9027,
      "áĪĿĠáĭŃ": 9028,
      "trÃ¨sĠ": 9029,
      ".ĠItokasiĠÃĢwá»įnĠPÃ³pÃ¹": 9030,
      "Ġáĭ¨áīĢáĭµáĪŀ": 9031,
      "Found": 9032,
      "Hol": 9033,
      "cut": 9034,
      "nes": 9035,
      "abadil": 9036,
      "ĠáĬķáĮīáĪ¥ĠáĬĲáīłáĪŃáį¢": 9037,
      "ĠáĮīáĪį": 9038,
      "sinimÃ¡ĠÃłgbÃ©lÃ©wÃ²": 9039,
      "jejen": 9040,
      "taw": 9041,
      "althĠ": 9042,
      "alipo": 9043,
      "ojiĠ": 9044,
      "therĠ": 9045,
      "aureĠ": 9046,
      "dansĠlaĠ": 9047,
      "áį²áį±áį»áį·áį": 9048,
      "ĠáĪĿáĬķáĮĬáĭľáĪĿ": 9049,
      "Day": 9050,
      "baiĠ": 9051,
      "áĮįáĬĿ": 9052,
      "waÆĻ": 9053,
      "ĠáĬ¥áĬķáĭ°áĬĲáīłáĪŃ": 9054,
      "ĠáīłáĪĺáĮ¨áĪ¨áĪ»": 9055,
      "MkatolikiĠ": 9056,
      "rikic": 9057,
      "agbÃ¡Ġtáº¹Ìģ": 9058,
      "Nairob": 9059,
      "lerĠ": 9060,
      "suneĠ": 9061,
      "Ġ=Ġ": 9062,
      "unc": 9063,
      "eneoĠyaĠ": 9064,
      "Misr": 9065,
      "Dist": 9066,
      "cutarĠ": 9067,
      "adamuĠ": 9068,
      "áĪ®áĪŀ": 9069,
      "Ġáĭ¨áī°áīĢ": 9070,
      "ĠáĬłáĬķáĭ°": 9071,
      "outh": 9072,
      "ĠáīłáĬłáĪľáĪªáĬ«": 9073,
      "ĠáĬłáĭįáĪ«": 9074,
      "tsohuwarĠ": 9075,
      "wakaziĠwaĠ": 9076,
      "Jáº¹Ìģ": 9077,
      "anĠNajeriyaĠ": 9078,
      "ingawaĠ": 9079,
      "ĠáĬ¢áĬķ": 9080,
      "WaandishiĠwaĠ": 9081,
      "wurinĠ": 9082,
      "familiaĠ": 9083,
      "Nj": 9084,
      "Ugir": 9085,
      "ere,Ġ": 9086,
      "lÃ¡ÃłrÃŃ": 9087,
      "University,Ġ": 9088,
      "ongoziĠ": 9089,
      "qu'ilĠ": 9090,
      "fond": 9091,
      "etsĠ": 9092,
      "izeĠ": 9093,
      "ĠáīĢáĬķĠáĬĲáĭįáį¢": 9094,
      "Vietnam": 9095,
      "ĠáįĬáĭ°": 9096,
      "áī£áĪħáĪŃ": 9097,
      "Ġáīłáī¥áĭĽáīµĠáĭ¨áĪļáĮĪáĬĿáīłáīµĠáĪĺáĪįáĬŃáĭĵĠáĪĿáĭµáĪŃ": 9098,
      "Doc": 9099,
      "áĬĵĠáĪĪ": 9100,
      "ĠáīłáĪ±": 9101,
      "Ãłn-": 9102,
      "minist": 9103,
      "aaruf": 9104,
      "ØŃ": 9105,
      "1975": 9106,
      "ationĠdeĠ": 9107,
      "aeneoĠyaĠ": 9108,
      "ET": 9109,
      "bungeĠ": 9110,
      "áĪ³áī¸áĭįáĬķ": 9111,
      "aĠki": 9112,
      "Chad": 9113,
      "1983": 9114,
      "efĠ": 9115,
      "activ": 9116,
      "ĠáĭĪáĭĺáī°": 9117,
      "nkanĠ": 9118,
      "tek": 9119,
      "thisĠ": 9120,
      "isip": 9121,
      "áĪµáī²": 9122,
      "electr": 9123,
      "ide": 9124,
      "ĠáĬĲáĭįĠáį¢": 9125,
      "i,Ġk": 9126,
      "samoĠ": 9127,
      "báº¹ÌĢráº¹ÌĢ": 9128,
      "ĠáĬ¥áĬķáĪµáĪ³": 9129,
      "Dang": 9130,
      "ger": 9131,
      "gÃ©": 9132,
      "ĠáĬłáĬŃ": 9133,
      "áĪ¨áįĪ": 9134,
      "áĪ©áĬŃ": 9135,
      "filinĠ": 9136,
      "RepublicĠ": 9137,
      "C)Ġ": 9138,
      "o'": 9139,
      "áīµáĪµ": 9140,
      "envir": 9141,
      "agueĠ": 9142,
      "áīħáĪį": 9143,
      "2008,Ġ": 9144,
      "haka,Ġ": 9145,
      "Kenya": 9146,
      "pwaniĠyaĠ": 9147,
      "cycl": 9148,
      "Ñģ": 9149,
      "áĬķáĪ°": 9150,
      "uĠdaĠ": 9151,
      "ĠáĮ»": 9152,
      "Ġáĭ¨áĪ¶": 9153,
      "ĠáĬ¥áĬķáĭ´áīµ": 9154,
      "odoĠ": 9155,
      "ÃłkÃ¡": 9156,
      "kÃŃĠÃ³Ġ": 9157,
      "nau'": 9158,
      "RaisĠwaĠMarekaniĠ(": 9159,
      "sm": 9160,
      "nÃŃĠiláº¹ÌĢĠ": 9161,
      "Ġáĭ«áĭĺ": 9162,
      "Ġáĭ¨áī°áĬĲáĪ³": 9163,
      "TarihinĠ": 9164,
      "kinaĠ": 9165,
      "egunĠ": 9166,
      "ĠdonĠ": 9167,
      "yaĠKi": 9168,
      "Â».": 9169,
      "áĪłáī¥": 9170,
      "ĠáĪµáī¥áĪµáī¥": 9171,
      "Buk": 9172,
      "ilarĠ": 9173,
      "áĪĽáĪ¨": 9174,
      ":Ġ\"": 9175,
      "ĠáĪĺáĮĢáĪĺáĪªáĭ«": 9176,
      "aĠkarkashinĠ": 9177,
      "ickĠ": 9178,
      "NollywoodĠ": 9179,
      "Uz": 9180,
      "rin,Ġ": 9181,
      "enseĠ": 9182,
      "áī°áĬŀáī½": 9183,
      "ndaniĠ": 9184,
      "ĠáīłáĬĭáĪĭĠáīł": 9185,
      "ĠáĭŃáĮĪáĪĺ": 9186,
      "ĠáĬłáĪµáī°áĭĭ": 9187,
[...]
