{
  "version": "1.0",
  "truncation": null,
  "padding": null,
  "added_tokens": [],
  "normalizer": null,
  "pre_tokenizer": {
    "type": "Sequence",
    "pretokenizers": [
      {
        "type": "Split",
        "pattern": {
          "Regex": " ?\\S+|\\s+"
        },
        "behavior": "Isolated",
        "invert": false
      },
      {
        "type": "ByteLevel",
        "add_prefix_space": false,
        "trim_offsets": true,
        "use_regex": false
      }
    ]
  },
  "post_processor": null,
  "decoder": {
    "type": "ByteLevel",
    "add_prefix_space": true,
    "trim_offsets": true,
    "use_regex": true
  },
  "model": {
    "type": "BPE",
    "dropout": null,
    "unk_token": null,
    "continuing_subword_prefix": null,
    "end_of_word_suffix": null,
    "fuse_unk": false,
    "byte_fallback": false,
    "ignore_merges": false,
    "vocab": {
      "!": 0,
      "\"": 1,
      "#": 2,
      "$": 3,
      "%": 4,
      "&": 5,
      "'": 6,
      "(": 7,
      ")": 8,
      "*": 9,
      "+": 10,
      ",": 11,
      "-": 12,
      ".": 13,
      "/": 14,
      "0": 15,
      "1": 16,
      "2": 17,
      "3": 18,
      "4": 19,
      "5": 20,
      "6": 21,
      "7": 22,
      "8": 23,
      "9": 24,
      ":": 25,
      ";": 26,
      "<": 27,
      "=": 28,
      ">": 29,
      "?": 30,
      "@": 31,
      "A": 32,
      "B": 33,
      "C": 34,
      "D": 35,
      "E": 36,
      "F": 37,
      "G": 38,
      "H": 39,
      "I": 40,
      "J": 41,
      "K": 42,
      "L": 43,
      "M": 44,
      "N": 45,
      "O": 46,
      "P": 47,
      "Q": 48,
      "R": 49,
      "S": 50,
      "T": 51,
      "U": 52,
      "V": 53,
      "W": 54,
      "X": 55,
      "Y": 56,
      "Z": 57,
      "[": 58,
      "\\": 59,
      "]": 60,
      "^": 61,
      "_": 62,
      "`": 63,
      "a": 64,
      "b": 65,
      "c": 66,
      "d": 67,
      "e": 68,
      "f": 69,
      "g": 70,
      "h": 71,
      "i": 72,
      "j": 73,
      "k": 74,
      "l": 75,
      "m": 76,
      "n": 77,
      "o": 78,
      "p": 79,
      "q": 80,
      "r": 81,
      "s": 82,
      "t": 83,
      "u": 84,
      "v": 85,
      "w": 86,
      "x": 87,
      "y": 88,
      "z": 89,
      "{": 90,
      "|": 91,
      "}": 92,
      "~": 93,
      "¡": 94,
      "¢": 95,
      "£": 96,
      "¤": 97,
      "¥": 98,
      "¦": 99,
      "§": 100,
      "¨": 101,
      "©": 102,
      "ª": 103,
      "«": 104,
      "¬": 105,
      "®": 106,
      "¯": 107,
      "°": 108,
      "±": 109,
      "²": 110,
      "³": 111,
      "´": 112,
      "µ": 113,
      "¶": 114,
      "·": 115,
      "¸": 116,
      "¹": 117,
      "º": 118,
      "»": 119,
      "¼": 120,
      "½": 121,
      "¾": 122,
      "¿": 123,
      "À": 124,
      "Á": 125,
      "Â": 126,
      "Ã": 127,
      "Ä": 128,
      "Å": 129,
      "Æ": 130,
      "Ç": 131,
      "È": 132,
      "É": 133,
      "Ê": 134,
      "Ë": 135,
      "Ì": 136,
      "Í": 137,
      "Î": 138,
      "Ï": 139,
      "Ð": 140,
      "Ñ": 141,
      "Ò": 142,
      "Ó": 143,
      "Ô": 144,
      "Õ": 145,
      "Ö": 146,
      "×": 147,
      "Ø": 148,
      "Ù": 149,
      "Ú": 150,
      "Û": 151,
      "Ü": 152,
      "Ý": 153,
      "Þ": 154,
      "ß": 155,
      "à": 156,
      "á": 157,
      "â": 158,
      "ã": 159,
      "ä": 160,
      "å": 161,
      "æ": 162,
      "ç": 163,
      "è": 164,
      "é": 165,
      "ê": 166,
      "ë": 167,
      "ì": 168,
      "í": 169,
      "î": 170,
      "ï": 171,
      "ð": 172,
      "ñ": 173,
      "ò": 174,
      "ó": 175,
      "ô": 176,
      "õ": 177,
      "ö": 178,
      "÷": 179,
      "ø": 180,
      "ù": 181,
      "ú": 182,
      "û": 183,
      "ü": 184,
      "ý": 185,
      "þ": 186,
      "ÿ": 187,
      "Ā": 188,
      "ā": 189,
      "Ă": 190,
      "ă": 191,
      "Ą": 192,
      "ą": 193,
      "Ć": 194,
      "ć": 195,
      "Ĉ": 196,
      "ĉ": 197,
      "Ċ": 198,
      "ċ": 199,
      "Č": 200,
      "č": 201,
      "Ď": 202,
      "ď": 203,
      "Đ": 204,
      "đ": 205,
      "Ē": 206,
      "ē": 207,
      "Ĕ": 208,
      "ĕ": 209,
      "Ė": 210,
      "ė": 211,
      "Ę": 212,
      "ę": 213,
      "Ě": 214,
      "ě": 215,
      "Ĝ": 216,
      "ĝ": 217,
      "Ğ": 218,
      "ğ": 219,
      "Ġ": 220,
      "ġ": 221,
      "Ģ": 222,
      "ģ": 223,
      "Ĥ": 224,
      "ĥ": 225,
      "Ħ": 226,
      "ħ": 227,
      "Ĩ": 228,
      "ĩ": 229,
      "Ī": 230,
      "ī": 231,
      "Ĭ": 232,
      "ĭ": 233,
      "Į": 234,
      "į": 235,
      "İ": 236,
      "ı": 237,
      "Ĳ": 238,
      "ĳ": 239,
      "Ĵ": 240,
      "ĵ": 241,
      "Ķ": 242,
      "ķ": 243,
      "ĸ": 244,
      "Ĺ": 245,
      "ĺ": 246,
      "Ļ": 247,
      "ļ": 248,
      "Ľ": 249,
      "ľ": 250,
      "Ŀ": 251,
      "ŀ": 252,
      "Ł": 253,
      "ł": 254,
      "Ń": 255,
      "áĪ": 256,
      "Ġá": 257,
      "áī": 258,
      "áĬ": 259,
      "áĭ": 260,
      "an": 261,
      "ar": 262,
      "áĮ": 263,
      "Ġáĭ": 264,
      "ĠáĬ": 265,
      "in": 266,
      "ĠáĪ": 267,
      "áį": 268,
      "áĬķ": 269,
      "Ġáī": 270,
      "Ġt": 271,
      "Ġk": 272,
      "Ġn": 273,
      "wa": 274,
      "Ġa": 275,
      "Ġd": 276,
      "»į": 277,
      "ÃŃ": 278,
      "ĠÃ": 279,
      "Ġm": 280,
      "áīµ": 281,
      "Ġs": 282,
      "á»į": 283,
      "ya": 284,
      "áĪŃ": 285,
      "º¹": 286,
      "on": 287,
      "er": 288,
      "áº¹": 289,
      "Ġáĭ¨": 290,
      "áĭį": 291,
      "en": 292,
      "li": 293,
      "at": 294,
      "un": 295,
      "łáĪ": 296,
      "Ġl": 297,
      "áĪĿ": 298,
      "ka": 299,
      "áĪį": 300,
      "áĪµ": 301,
      "áº¹Ì": 302,
      "es": 303,
      "Ġya": 304,
      "Ã©": 305,
      "Ġda": 306,
      "ĠA": 307,
      "Ãł": 308,
      "Ġo": 309,
      "am": 310,
      "is": 311,
      "Ġwa": 312,
      "Ã¡": 313,
      "as": 314,
      "Ġb": 315,
      "Ġ(": 316,
      "he": 317,
      "Ġ1": 318,
      "ĠM": 319,
      "áį¢": 320,
      "á»įÌ": 321,
      "áĬĵ": 322,
      "Ġc": 323,
      "Ġáīł": 324,
      "áī°": 325,
      "Ġp": 326,
      "or": 327,
      "áĭ«": 328,
      "áĪĪ": 329,
      "ti": 330,
      "Ãº": 331,
      "ĠáĮ": 332,
      "Ġf": 333,
      "al": 334,
      "Ġi": 335,
      "áĭŃ": 336,
      "áĪĺ": 337,
      "hi": 338,
      "Ã¬": 339,
      "ĠáĬ¥": 340,
      "Ġna": 341,
      "áī½": 342,
      "Ġg": 343,
      "ha": 344,
      "Ġw": 345,
      "ur": 346,
      "le": 347,
      "ĠK": 348,
      "ĠáĬł": 349,
      "ba": 350,
      "ta": 351,
      "ĠS": 352,
      "ĠÃł": 353,
      "Ġr": 354,
      "áĭ°": 355,
      "Ġj": 356,
      "áĬĲ": 357,
      "Ġku": 358,
      "áī¥": 359,
      "áĪ¨": 360,
      "áĮĪ": 361,
      "áĭµ": 362,
      "ir": 363,
      "áº¹ÌĢ": 364,
      "áº¹Ìģ": 365,
      "ĠN": 366,
      "Ġta": 367,
      "á»įÌģ": 368,
      "áĪĭ": 369,
      "ĠáĬĲ": 370,
      "áĮį": 371,
      "ik": 372,
      "ma": 373,
      "ĠáĪĺ": 374,
      "us": 375,
      "ĠI": 376,
      "da": 377,
      "ia": 378,
      "Ġni": 379,
      "ĠB": 380,
      "Ã¨": 381,
      "áīł": 382,
      "Ġ2": 383,
      "¹£": 384,
      "áĪ«": 385,
      "Ã³": 386,
      "áī³": 387,
      "ati": 388,
      "ĠáĬ¨": 389,
      "to": 390,
      "la": 391,
      "Ġ19": 392,
      "gb": 393,
      "áĬŃ": 394,
      "ĠnÃŃ": 395,
      "ĠT": 396,
      "á»įn": 397,
      "it": 398,
      "ara": 399,
      "áĪĽ": 400,
      "Ġma": 401,
      "áĪ³": 402,
      "áī£": 403,
      "ana": 404,
      "ĠC": 405,
      "om": 406,
      "za": 407,
      "Ġáį": 408,
      "ed": 409,
      "ĠÃ¬": 410,
      "wá»įn": 411,
      "Ġy": 412,
      "and": 413,
      "ri": 414,
      "Ã¹": 415,
      "el": 416,
      "Ġh": 417,
      "áĬĽ": 418,
      "Ġáī°": 419,
      "Ġá»į": 420,
      "áĪª": 421,
      "ĠáĭŃ": 422,
      "Ã²": 423,
      "ĠáīłáĪ": 424,
      "ĠW": 425,
      "ĠP": 426,
      "ga": 427,
      "Ġáĭ¨áĪ": 428,
      "di": 429,
      "Ġthe": 430,
      "á¹£": 431,
      "ĠáĬłáĪ": 432,
      "ĠO": 433,
      "Ġ20": 434,
      "áĪħ": 435,
      "áĮ¥": 436,
      "áĬ¨": 437,
      "Ġin": 438,
      "áį£": 439,
      "um": 440,
      "em": 441,
      "ĠáĪĿ": 442,
      "ani": 443,
      "âĢ": 444,
      "Ġla": 445,
      "Ġáĭ¨áĬ": 446,
      "ĠG": 447,
      "ĠD": 448,
      "Ġof": 449,
      "ĠL": 450,
      "et": 451,
      "si": 452,
      "ĠáĭĪ": 453,
      "áį¡": 454,
      "ĠJ": 455,
      "Ãºn": 456,
      "sa": 457,
      "ut": 458,
      "ĠF": 459,
      "ing": 460,
      "ent": 461,
      "ĠtÃŃ": 462,
      "áįį": 463,
      "á»įÌĢ": 464,
      "áĭ³": 465,
      "Ġde": 466,
      "ĠáĬĲáĭį": 467,
      "bi": 468,
      "áīĢ": 469,
      "ke": 470,
      "áĭ¨": 471,
      "ol": 472,
      "ĠR": 473,
      "il": 474,
      "ĠáĬ¥áĬķ": 475,
      "áĭĪ": 476,
      "ĠH": 477,
      "Ġti": 478,
      "ra": 479,
      "Ġ-": 480,
      "áĪ°": 481,
      "áīħ": 482,
      "rÃŃ": 483,
      "ch": 484,
      "ce": 485,
      "ko": 486,
      "áĪĮ": 487,
      "áĬ«": 488,
      "Ġba": 489,
      "ĠáĪĪ": 490,
      "ro": 491,
      "ari": 492,
      "ĠE": 493,
      "ki": 494,
      "áĬł": 495,
      "ul": 496,
      "ĠU": 497,
      "re": 498,
      "ĠáĬĲáĭįáį¢": 499,
      "ku": 500,
      "ji": 501,
      "Ġha": 502,
      "ci": 503,
      "ĠáĪµ": 504,
      "áī¸": 505,
      "Ġáĭ«": 506,
      "ĠÃ³": 507,
      "áĪī": 508,
      "Ġáĭĵ": 509,
      "ye": 510,
      "láº¹ÌĢ": 511,
      "ama": 512,
      "are": 513,
      "áīłáĪ": 514,
      "qu": 515,
      "áĭĬ": 516,
      "áĭĭ": 517,
      "de": 518,
      "áĪ®": 519,
      "Ġv": 520,
      "áī±": 521,
      "İáī½": 522,
      "ÆĻ": 523,
      "áī¸áĭį": 524,
      "os": 525,
      "eri": 526,
      "áįĪ": 527,
      "Ġto": 528,
      "Ġz": 529,
      "00": 530,
      "Ġáĭ¨áĪļ": 531,
      "áĭĿ": 532,
      "ini": 533,
      "áĮ£": 534,
      "áĪįáį¢": 535,
      "áĪĨ": 536,
      "ĠáĪĽ": 537,
      "pa": 538,
      "áĭļ": 539,
      "áī¶": 540,
      "áĪ³áĪĮ": 541,
      "áĮł": 542,
      "im": 543,
      "áĮī": 544,
      "ata": 545,
      "bu": 546,
      "Ġza": 547,
      "gi": 548,
      "ĠÃĢ": 549,
      "yar": 550,
      "19": 551,
      "áĮĭ": 552,
      "Ġkuma": 553,
      "Ġsa": 554,
      "ÌĢ": 555,
      "ina": 556,
      "Ġkwa": 557,
      "ĠáīłáĬ": 558,
      "áĭ®": 559,
      "Ġand": 560,
      "Ãłn": 561,
      "yo": 562,
      "kar": 563,
      "te": 564,
      "Ġshe": 565,
      "ĠáĪĿáĪ³áĪĮ": 566,
      "ĠÃłwá»įn": 567,
      "if": 568,
      "Ġu": 569,
      "bo": 570,
      "ation": 571,
      "e,": 572,
      "iki": 573,
      "ad": 574,
      "ĠáĪ²": 575,
      "áĭ²": 576,
      "áĬķáĭµ": 577,
      "toka": 578,
      "Ġáº¹": 579,
      "ĠÆĻ": 580,
      "ĠáĮį": 581,
      "Ġáīµ": 582,
      "ali": 583,
      "ĠY": 584,
      "ikin": 585,
      "áĭİáī½": 586,
      "Ġe": 587,
      "zi": 588,
      "Ġáĭĺ": 589,
      "wan": 590,
      "áĪ¥": 591,
      "Ġ201": 592,
      "ig": 593,
      "áīĥ": 594,
      "yan": 595,
      "Ġne": 596,
      "fi": 597,
      "áĬĸ": 598,
      "áĪŀ": 599,
      "kan": 600,
      "áĭĺ": 601,
      "gu": 602,
      "Ġá¹£": 603,
      "rin": 604,
      "Ġáĭ¨áī°": 605,
      "Ġsu": 606,
      "Ġka": 607,
      "ĠMa": 608,
      "ĠáĬ¥áĬĵ": 609,
      "Ġ\"": 610,
      "op": 611,
      "áĬĲáīµ": 612,
      "ĠáĪ°": 613,
      "ni": 614,
      "Ġal": 615,
      "Ġáī¥": 616,
      "áĬ¥": 617,
      "ge": 618,
      "hin": 619,
      "Ġle": 620,
      "áĪĬ": 621,
      "lÃ©": 622,
      "Ġga": 623,
      "áĪ©": 624,
      "á»įÌģn": 625,
      "go": 626,
      "ant": 627,
      "Ġáĭį": 628,
      "áĪĻ": 629,
      "fa": 630,
      "asa": 631,
      "est": 632,
      "áĬķáĮį": 633,
      "Ġshi": 634,
      "ĠÃ¨": 635,
      "ĠâĢ": 636,
      "ĠÃłti": 637,
      "ĠáīĢ": 638,
      "Ġkati": 639,
      ").": 640,
      "ec": 641,
      "ers": 642,
      "áīłáĪŃ": 643,
      "har": 644,
      "ann": 645,
      "ĭáĭŃ": 646,
      "Ġáĭ°": 647,
      "ja": 648,
      "war": 649,
      "ĠÃĮ": 650,
      "ĠáĬ¥áĬķáĭ°": 651,
      "dÃºn": 652,
      "una": 653,
      "áĭĽ": 654,
      "Ġen": 655,
      "Ġáĭ¨áĬłáĪ": 656,
      "Ġjáº¹Ìģ": 657,
      "lÃº": 658,
      "áĪļ": 659,
      "Ã¬n": 660,
      "ĠÃĢwá»įn": 661,
      "ic": 662,
      "ĠáĬŃ": 663,
      "ĠsÃŃ": 664,
      "ban": 665,
      "ot": 666,
      "ÅĦ": 667,
      "Ġcikin": 668,
      "uwa": 669,
      "ist": 670,
      "áĪİ": 671,
      "ĠNa": 672,
      "Ġwas": 673,
      "ĠlÃ¡": 674,
      "waka": 675,
      "Ġam": 676,
      "fu": 677,
      "Ġkan": 678,
      "id": 679,
      "áĮħ": 680,
      "áī²": 681,
      "áī¢": 682,
      "st": 683,
      "yin": 684,
      "Ġ200": 685,
      "ĠÃ²": 686,
      "Ġali": 687,
      "áĬĳ": 688,
      "Ã¹n": 689,
      "we": 690,
      "Ġbi": 691,
      "me": 692,
      "lo": 693,
      "áįĭ": 694,
      "ĠáĪį": 695,
      "),": 696,
      "ere": 697,
      "ili": 698,
      "Ġkas": 699,
      "Ġhi": 700,
      "ĠAf": 701,
      "Ġdaga": 702,
      "du": 703,
      "po": 704,
      "hu": 705,
      "ĠV": 706,
      "anda": 707,
      "áĬĿ": 708,
      "áĪ±": 709,
      "Ġko": 710,
      "áį¤": 711,
      "Ġet": 712,
      "Ġje": 713,
      "áĪĨáĬķ": 714,
      "tion": 715,
      "kin": 716,
      "áĪ½": 717,
      "ĠÂ": 718,
      "áĮİ": 719,
      "Ġkatika": 720,
      "ĠAm": 721,
      "ho": 722,
      "Ġun": 723,
      "ĠáĪĭáĭŃ": 724,
      "ÃŃn": 725,
      "Ġon": 726,
      "lu": 727,
      "áĭ«áĬķ": 728,
      "ĠÅĦ": 729,
      "cin": 730,
      "áĪĪáĭį": 731,
      "chi": 732,
      "Ġkar": 733,
      "Ġáī³": 734,
      "ne": 735,
      "Ġáĭµ": 736,
      "Ġráº¹ÌĢ": 737,
      "áĪŃáĬĽ": 738,
      "Ġá»įdÃºn": 739,
      "Ġan": 740,
      "áĭ±": 741,
      "Ġhu": 742,
      "zo": 743,
      "Ġsi": 744,
      "eriya": 745,
      "áĪģ": 746,
      "Ġáī£": 747,
      "dÃ¨": 748,
      "jeriya": 749,
      "Ġmwaka": 750,
      "ÉĹ": 751,
      "ans": 752,
      "áĭļáĪħ": 753,
      "¢áīµ": 754,
      "je": 755,
      "ter": 756,
      "ug": 757,
      "Ġ18": 758,
      "ĽáĪŃáĬĽ": 759,
      "Ġati": 760,
      "¢áīµáĭ®": 761,
      "won": 762,
      "áĮµ": 763,
      "áĬĴ": 764,
      "áĭķ": 765,
      "Ġdu": 766,
      "do": 767,
      "gbÃł": 768,
      "bÃŃ": 769,
      "th": 770,
      "uni": 771,
      "áīĨ": 772,
      "ĠIn": 773,
      "yi": 774,
      "Ġshekar": 775,
      "Ġar": 776,
      "áĮĢ": 777,
      "Ġce": 778,
      "ĠáīłáĪĺ": 779,
      "¢áīµáĭ®áĮµ": 780,
      "wo": 781,
      "ab": 782,
      "Ġ3": 783,
      "áĪĪáīµ": 784,
      "ine": 785,
      "20": 786,
      "áĮ½": 787,
      "Ġfi": 788,
      "áĮĪáĪŃ": 789,
      "áĪ¬": 790,
      "tokasi": 791,
      "ber": 792,
      "ĠbÃŃ": 793,
      "Ġre": 794,
      "áī¡": 795,
      "áĪµáĮ¥": 796,
      "jo": 797,
      "Ġwá»įÌģn": 798,
      "¢áīµáĭ®áĮµáĭ«": 799,
      "Ġáĭ¨áĬłáĪĽáĪŃáĬĽ": 800,
      "áĪ¨áīµ": 801,
      "Ġlo": 802,
      "so": 803,
      "rÃ©": 804,
      "Ġ.": 805,
      "Ġmat": 806,
      "ká»įÌģ": 807,
      "Ġis": 808,
      "kuwa": 809,
      "áīłáīµ": 810,
      "ĠAl": 811,
      "ĠáĬĲáīłáĪŃ": 812,
      "áĭľ": 813,
      "ĠAn": 814,
      "ĠáĮ¥": 815,
      "Ã¡Ãł": 816,
      "Ġmas": 817,
      "áĪĺáĬķ": 818,
      "Ġki": 819,
      "âĢĻ": 820,
      "Ġke": 821,
      "Ġse": 822,
      "kara": 823,
      "Ġ199": 824,
      "áĪ»": 825,
      "Ġli": 826,
      "ĠáĭĪáĭ°": 827,
      "Ġili": 828,
      "ĠáĪĨ": 829,
      "ĠÂ«": 830,
      "ĠItokasi": 831,
      "ĠáĮĪ": 832,
      "Ġdes": 833,
      "áĪµáīµ": 834,
      "ĠáĬ¨áī°": 835,
      "ve": 836,
      "ĠNo": 837,
      "má»į": 838,
      "»Į": 839,
      "áī»": 840,
      "Ġyi": 841,
      "Ġas": 842,
      "ĠáĬķ": 843,
      "our": 844,
      "tan": 845,
      "alio": 846,
      "ami": 847,
      "ĠWa": 848,
      "fin": 849,
      "áĭ©": 850,
      "ly": 851,
      "Ġl'": 852,
      "amu": 853,
      "res": 854,
      "ĠfÃºn": 855,
      "que": 856,
      "ris": 857,
      "yu": 858,
      "Ġá¹£e": 859,
      "Ġol": 860,
      "ala": 861,
      "áĭĵ": 862,
      "áįĬ": 863,
      "áĭįáĬķ": 864,
      "Ġcon": 865,
      "áī¶áī½": 866,
      "Ġfor": 867,
      "ĠtÃ³": 868,
      "be": 869,
      "tu": 870,
      "ĠnÃŃn": 871,
      "s,": 872,
      "ĠáĬ¥áĪµ": 873,
      "ĠorÃŃ": 874,
      "ance": 875,
      "sÃŃ": 876,
      "Â»": 877,
      "Ġpar": 878,
      "ĠáĭįáĪµáĮ¥": 879,
      "ĠáĬłáĭŃ": 880,
      "Ġshekara": 881,
      "Ã¡n": 882,
      "áĪŃáĮī": 883,
      "ang": 884,
      "Ġcha": 885,
      "pe": 886,
      "já»įÌģ": 887,
      "Ġau": 888,
      "Ġshekarar": 889,
      "mi": 890,
      "já»į": 891,
      "Ġ|": 892,
      "Ġmai": 893,
      "mo": 894,
      "Ġaka": 895,
      "Ĭáĭľ": 896,
      "Ġra": 897,
      "ada": 898,
      "áĮłáĪ": 899,
      "Ġ:": 900,
      "áĪªáĭ«": 901,
      "áĬĶ": 902,
      "anz": 903,
      "Ġáº¹ÌĢ": 904,
      "18": 905,
      "jÃº": 906,
      "ĠWalio": 907,
      "áīĭ": 908,
      "Ġth": 909,
      "ĠNajeriya": 910,
      "ĠáĪģ": 911,
      "áĭ¶": 912,
      "asar": 913,
      "ĠAfri": 914,
      "isi": 915,
      "liwa": 916,
      "gun": 917,
      "áĪ²": 918,
      "áĬĽáĭį": 919,
      "áĬłáĪ": 920,
      "ou": 921,
      "od": 922,
      "ĠnÃ¡Ãł": 923,
      "enye": 924,
      "áī¦": 925,
      "áĭŃáĪĿ": 926,
      "Ġ198": 927,
      "oni": 928,
      "se": 929,
      "áĪŃáĪµ": 930,
      "Ġkutoka": 931,
      "áĬ¤": 932,
      "áĪľ": 933,
      "ita": 934,
      "ate": 935,
      "mu": 936,
      "Ġdi": 937,
      "Ġáīłáī°": 938,
      "áĪĲ": 939,
      "áĭĻ": 940,
      "ru": 941,
      "áĬ®": 942,
      "na": 943,
      "ver": 944,
      "á¹£áº¹Ìģ": 945,
      "áī¤": 946,
      "Ġáīħ": 947,
      "jÃŃ": 948,
      "ĠnÃŃnÃº": 949,
      "far": 950,
      "erÃ©": 951,
      "ĠáĬłáĪµ": 952,
      "Ġles": 953,
      "Ġina": 954,
      "ĠáĪ¥": 955,
      "'a": 956,
      "ÃĢ": 957,
      "Ġcom": 958,
      "ano": 959,
      "Ġáī¤": 960,
      "ĠáĬ«": 961,
      "arin": 962,
      "ĠáīµáĪŃáĮī": 963,
      "Ġáĭ¨áĪĺ": 964,
      "ĠZ": 965,
      "áĬ©": 966,
      "ĠáĮįáĬķ": 967,
      "áĪªáĬŃ": 968,
      "Ġá»įÌĢ": 969,
      "Ġ197": 970,
      "iri": 971,
      "ĠáĬ¥áĬķáĭ²": 972,
      "Ġá»įmá»į": 973,
      "ct": 974,
      "Ġso": 975,
      "ihar": 976,
      "ĠáĮĭ": 977,
      "Ġ196": 978,
      "Ġáĭ¨áĬł": 979,
      "Ġá»Į": 980,
      "áīģ": 981,
      "áĮ¨": 982,
      "Ma": 983,
      "bel": 984,
      "Ġgb": 985,
      "ĠlÃ¡ti": 986,
      "anar": 987,
      "Ġ'": 988,
      "man": 989,
      "ká»į": 990,
      "ori": 991,
      "asi": 992,
      "atu": 993,
      "Ġwanda": 994,
      "áī¹": 995,
      "rÃŃÃł": 996,
      "gba": 997,
      "áīłáĪ¨": 998,
      "ĠáĪ²áĪĨáĬķ": 999,
      "Ġ4": 1000,
      "ity": 1001,
      "áį¡áį¡": 1002,
      "ĭáĪĭ": 1003,
      "ÃłÃ¬": 1004,
      "Ġpro": 1005,
      "ran": 1006,
      "Ġgba": 1007,
      "áĮĥ": 1008,
      "ĠThe": 1009,
      "ĠlÃ³": 1010,
      "áĬŃáĪį": 1011,
      "ag": 1012,
      "áĪĥ": 1013,
      "»áį": 1014,
      "su": 1015,
      "ĠáīµáĪŃáĮīáĪĻ": 1016,
      "ĠâĢĵ": 1017,
      "ĠáĬĲáīłáĪŃáį¢": 1018,
      "Ba": 1019,
      "s.": 1020,
      "au": 1021,
      "ĠáīłáĬł": 1022,
      "og": 1023,
      "ĠáĬłáĬķ": 1024,
      "Ã¬ÃŃ": 1025,
      "áĪ´": 1026,
      "amar": 1027,
      ".áĪĿ": 1028,
      "jÃŃrÃŃÃł": 1029,
      "ep": 1030,
      "ĠsÃ¬": 1031,
      "ĠNÃłÃ¬": 1032,
      "ham": 1033,
      "ĠÃ©": 1034,
      "ĠáĪ³": 1035,
      "²áį": 1036,
      "áī´": 1037,
      "Ġsun": 1038,
      "ane": 1039,
      "200": 1040,
      "ary": 1041,
      "Ġ5": 1042,
      "áĮŃ": 1043,
      "ĠáĪĺáĬķáĮį": 1044,
      "ĠNÃłÃ¬jÃŃrÃŃÃł": 1045,
      "ĠáĮĬáĭľ": 1046,
      "ĠáīĢáĬķ": 1047,
      "ĠáĭĪáĭŃáĪĿ": 1048,
      "Ġáĭĭ": 1049,
      "uri": 1050,
      "lis": 1051,
      "und": 1052,
      "áī³áīµ": 1053,
      "ĠKi": 1054,
      "ement": 1055,
      "vi": 1056,
      "Ġáĭĵ.áĪĿ": 1057,
      "usu": 1058,
      "ire": 1059,
      "Ġmw": 1060,
      "ĠPa": 1061,
      "les": 1062,
      "áĪªáĬ«": 1063,
      "ira": 1064,
      "isha": 1065,
      "Ġqu": 1066,
      "ck": 1067,
      "gbe": 1068,
      "annan": 1069,
      "Ġ(19": 1070,
      "art": 1071,
      "ĠNobel": 1072,
      "ĠdÃ©": 1073,
      "ment": 1074,
      "ĠáĪµáĪĪ": 1075,
      "kÃł": 1076,
      "Ġwali": 1077,
      "ĠáĬĵ": 1078,
      "Ġd'": 1079,
      "ĠáĬłáĪĪ": 1080,
      "Ġpe": 1081,
      "áĪ¨áīµáĬĵ": 1082,
      "Ġzuwa": 1083,
      "ĠáĪĬ": 1084,
      "áĮ»": 1085,
      "ort": 1086,
      "Ġmo": 1087,
      "Ġáī¢": 1088,
      "ĠáįĪ": 1089,
      "le-": 1090,
      "Ġtare": 1091,
      "ĠáĬ¥áĪµáĬ¨": 1092,
      "hen": 1093,
      "á¹£Ã¹": 1094,
      "ub": 1095,
      "Ã¨dÃ¨": 1096,
      "Ġfar": 1097,
      "áĪĪáĪĿ": 1098,
      "ca": 1099,
      "Ġdon": 1100,
      "sayin": 1101,
      "Ġor": 1102,
      "ĠáīłáĬĭáĪĭ": 1103,
      "ĠáĬķáĮī": 1104,
      "Ġkama": 1105,
      "ĠBa": 1106,
      "ia.": 1107,
      "Ġawon": 1108,
      "Ġá»įjá»įÌģ": 1109,
      "ll": 1110,
      "ud": 1111,
      "The": 1112,
      "ĠorÃŃláº¹ÌĢ": 1113,
      "áĪ¥áīµ": 1114,
      "ede": 1115,
      "áį»áį": 1116,
      "zaliwa": 1117,
      "ĠáĭŃáĪħ": 1118,
      "ure": 1119,
      "lÃ¡": 1120,
      "ust": 1121,
      "yÃłn": 1122,
      "ĠáĭĺáĪĺáĬķ": 1123,
      "yÃ©": 1124,
      "kwa": 1125,
      "áĪ¨áĪµ": 1126,
      "Ġyan": 1127,
      "ĠilÃ©": 1128,
      "áĬķáĪĿ": 1129,
      "á¹£Ã¨": 1130,
      "kun": 1131,
      "Ġmut": 1132,
      "Ãĵ": 1133,
      "pá»įÌĢ": 1134,
      "lia": 1135,
      "-Ã¨dÃ¨": 1136,
      "ĠRo": 1137,
      "bar": 1138,
      "ale": 1139,
      "ju": 1140,
      "pÃŃn": 1141,
      "'s": 1142,
      "ĠáĬŃáįį": 1143,
      "áĪ®áī½": 1144,
      "Ġáī°áĪ¨áīµáĬĵ": 1145,
      "áĪķ": 1146,
      "áĮ«": 1147,
      "Ġwá»įn": 1148,
      "ĠáĬ¨áī°áĪĽ": 1149,
      "ith": 1150,
      "jÃ¬": 1151,
      "An": 1152,
      "Ġbe": 1153,
      "ew": 1154,
      "shin": 1155,
      "pp": 1156,
      "Ġest": 1157,
      "inu": 1158,
      "Ġ6": 1159,
      "amo": 1160,
      "ĠSt": 1161,
      "ĠÉĹ": 1162,
      "gbo": 1163,
      "dun": 1164,
      "áĮĪáĬ": 1165,
      "áĭİ": 1166,
      "Ġwatan": 1167,
      "Ġmu": 1168,
      "Ġpl": 1169,
      "Ġ195": 1170,
      "Ġmatsayin": 1171,
      "ĠáĭĵáĪĺ": 1172,
      "ĠAr": 1173,
      "ĠHa": 1174,
      "Ġáĭĵ.áĪĿ.": 1175,
      "Ġori": 1176,
      "ĠÃ¬lÃº": 1177,
      "Ġhaif": 1178,
      "Ġnchi": 1179,
      "end": 1180,
      "ura": 1181,
      "Ġkuwa": 1182,
      "bÃ¡": 1183,
      "pin": 1184,
      "áĪŃáĭ«": 1185,
      "kÃ³": 1186,
      "ĠáĪĪáĪĺ": 1187,
      "áįĵ": 1188,
      "ĠLe": 1189,
      "kati": 1190,
      "Ġáĭķ": 1191,
      "áĮĢáĪĺ": 1192,
      "ĠNig": 1193,
      "Ġfun": 1194,
      "áī°áĬĽ": 1195,
      "rom": 1196,
      "ĠSa": 1197,
      "ong": 1198,
      "Ġci": 1199,
      "áĭ´": 1200,
      "ish": 1201,
      "ele": 1202,
      "má»įÌĢ": 1203,
      "es,": 1204,
      "tic": 1205,
      "Ġwasan": 1206,
      "Ġara": 1207,
      "Ġsuka": 1208,
      "Ġyake": 1209,
      "Ġyana": 1210,
      "hari": 1211,
      "ond": 1212,
      "ĠNi": 1213,
      "Ġawá»įn": 1214,
      "áĮįáĪŀ": 1215,
      "Ġat": 1216,
      "bin": 1217,
      "arta": 1218,
      "risto": 1219,
      "ĠTu": 1220,
      "Ġhar": 1221,
      "vers": 1222,
      "kani": 1223,
      "ĠAd": 1224,
      "pÃŃnláº¹ÌĢ": 1225,
      "ts": 1226,
      "Ġ9": 1227,
      "áį¦": 1228,
      "ania": 1229,
      "wÃ©": 1230,
      "Ġáĭ«áĪį": 1231,
      "nÃ¬": 1232,
      "ĠMare": 1233,
      "áĭµáĪŃ": 1234,
      "y,": 1235,
      "ĠarÃ¡": 1236,
      "Ġmi": 1237,
      "fan": 1238,
      "Ġbir": 1239,
      "ĠRa": 1240,
      "ĠáĮĢ": 1241,
      "áĪ¶": 1242,
      "ĠSo": 1243,
      "ĠáĬĲáĮĪ": 1244,
      "yÃŃ": 1245,
      "Ġáįį": 1246,
      "ore": 1247,
      "ĠáĬ¢": 1248,
      "Ġlati": 1249,
      "áī³áĭĪ": 1250,
      "Ġby": 1251,
      "Ġáīģ": 1252,
      "Ġ17": 1253,
      "Ġsha": 1254,
      "iku": 1255,
      "áīµáĬķ": 1256,
      "ĠáĪķ": 1257,
      "angu": 1258,
      "ĠáĮĭáĪŃ": 1259,
      "ĠáīłáĪĽ": 1260,
      "Ġfa": 1261,
      "..": 1262,
      "ĠMar": 1263,
      "ene": 1264,
      "emi": 1265,
      "fariki": 1266,
      "Ġad": 1267,
      "áĬŃáĪįáīł": 1268,
      "Ġáį¡": 1269,
      "ord": 1270,
      "ĠÆĻasar": 1271,
      "Ġvya": 1272,
      "Ġ7": 1273,
      "Ta": 1274,
      "áĪīáį¢": 1275,
      "Ġlá»į": 1276,
      "ow": 1277,
      "áīĤ": 1278,
      "Ġch": 1279,
      "ĠáĭĵáĬŃáĪįáīł": 1280,
      "isa": 1281,
      "áĪİáī½": 1282,
      "áĮ¡": 1283,
      "áĭ°áĪ¨": 1284,
      "rÃ¹n": 1285,
      "ungi": 1286,
      "Ġmata": 1287,
      "gbÃ©": 1288,
      "ĠáĪļ": 1289,
      "¦áĪŃ": 1290,
      "Ġáĭ°áĮįáĪŀ": 1291,
      "ĠerÃ©": 1292,
      "ĠCh": 1293,
      "uru": 1294,
      "ĠáĬłáĬķáĭµ": 1295,
      "ĠwÃł": 1296,
      "ÃĮ": 1297,
      "huga": 1298,
      "ida": 1299,
      "ard": 1300,
      "che": 1301,
      "áĭ°áĪŃ": 1302,
      "ĠáĬłáĪį": 1303,
      "ap": 1304,
      "ĠáĭĵáĬŃáĪįáīł.": 1305,
      "áī°áĪ¨": 1306,
      "o,": 1307,
      "eb": 1308,
      "ame": 1309,
      "áĪĺáĬĲ": 1310,
      "ht": 1311,
      "ces": 1312,
      "Ġkw": 1313,
      "oh": 1314,
      "kum": 1315,
      "16": 1316,
      "Ġ8": 1317,
      "áĮĪáĬĿ": 1318,
      "ont": 1319,
      "yÃ¬n": 1320,
      "áĪŃáīµ": 1321,
      "15": 1322,
      "anaz": 1323,
      "Ġiláº¹ÌĢ": 1324,
      "ĠTuzo": 1325,
      "ĠpÃ©": 1326,
      "ishi": 1327,
      "áĬķáīµ": 1328,
      "Ġ194": 1329,
      "rit": 1330,
      "usi": 1331,
      "000": 1332,
      "Ġáĭ¨áĬ¢áīµáĭ®áĮµáĭ«": 1333,
      "ĠáĪĺáĬķáĮįáĪ¥áīµ": 1334,
      "áĬķáĪµ": 1335,
      "áĪĶ": 1336,
      "anazarta": 1337,
      "Ġjihar": 1338,
      "kuu": 1339,
      "rÃ²": 1340,
      "wÃ²": 1341,
      "ĠAfrika": 1342,
      "ĠáĪĪáĪĽ": 1343,
      "tÃł": 1344,
      "oli": 1345,
      "áīłáĪ©": 1346,
      "áĬķáīĭ": 1347,
      "Ġex": 1348,
      "Ġvi": 1349,
      "ĠKar": 1350,
      "Ġ,": 1351,
      "áī½áĬķ": 1352,
      "ĠÃ¨dÃ¨": 1353,
      "gbÃ¨": 1354,
      "ĠMarekani": 1355,
      "áĬª": 1356,
      "wam": 1357,
      "ĠorÃŃláº¹ÌĢ-Ã¨dÃ¨": 1358,
      "Ġloka": 1359,
      "áĪĭáĪįáį¢": 1360,
      "ĠáĪĨáĬĲ": 1361,
      "Ġáĭ¨áĬĲ": 1362,
      "rÃŃkÃł": 1363,
      "uniya": 1364,
      "nin": 1365,
      "áĬĵáīµ": 1366,
      "can": 1367,
      "ast": 1368,
      "lim": 1369,
      "ĠkÃŃ": 1370,
      "Ġhii": 1371,
      "ĠTa": 1372,
      "Ġamba": 1373,
      "ĠáĪįáĮħ": 1374,
      "ĠWaliozaliwa": 1375,
      "lá»į": 1376,
      "Ġkasance": 1377,
      "17": 1378,
      "anu": 1379,
      "ry": 1380,
      "ĠbÃ¡": 1381,
      "all": 1382,
      "ĠYor": 1383,
      "kana": 1384,
      "gbÃ¡": 1385,
      "ĠáĭµáĪ¨áĪµ": 1386,
      "ĠolÃ³": 1387,
      "ĠáĭĿ": 1388,
      "ugha": 1389,
      "áĭļáĭ«": 1390,
      "ĠWaliofariki": 1391,
      "áįī": 1392,
      "up": 1393,
      "olo": 1394,
      "NÃŃ": 1395,
      "husu": 1396,
      "yáº¹": 1397,
      "Ġáĭ«áĪįáī°": 1398,
      "ĠAmeri": 1399,
      "Ġst": 1400,
      "ff": 1401,
      "ĠmÃ¡": 1402,
      "her": 1403,
      "tá»įÌģ": 1404,
      "Ġwith": 1405,
      "Ġtsa": 1406,
      "tÃ¬": 1407,
      "ĠDa": 1408,
      "áĭ°áī¥": 1409,
      "e.": 1410,
      "áī°áĪ¨áĮİ": 1411,
      "on,": 1412,
      "ÃĢwá»įn": 1413,
      "ence": 1414,
      "Ġ15": 1415,
      "Ġ16": 1416,
      "Ġoá¹£Ã¹": 1417,
      "ĠyÃ¬ÃŃ": 1418,
      "ĠáĪħ": 1419,
      "ĠÃĴ": 1420,
      "usa": 1421,
      "áĮĬ": 1422,
      "ĠkÃ³": 1423,
      "Ġdan": 1424,
      "10": 1425,
      "hun": 1426,
      "Ġpia": 1427,
      "áī£áĪį": 1428,
      "ĠáĬ¤": 1429,
      "Ġáĭ¨áĬ¥": 1430,
      "tÃ©": 1431,
      "Ġáīĭ": 1432,
      "ĠáĪµáĪĿ": 1433,
      "lÃ³": 1434,
      "âĢĿ": 1435,
      "ĠáĪĮ": 1436,
      "ĠLa": 1437,
      "Ġhe": 1438,
      "yÃ¨": 1439,
      "áĪ£": 1440,
      "áĪĨáĬĳ": 1441,
      "Ġkam": 1442,
      "Baada": 1443,
      "Ġ(200": 1444,
      "áĪ¸": 1445,
      "Ġfarko": 1446,
      "ĠáĬłáĮĪ": 1447,
      "ĠáīłáĬ¥": 1448,
      "le-ede": 1449,
      "shindi": 1450,
      "yya": 1451,
      "ĠáĪĢ": 1452,
      "nÃ¬yÃłn": 1453,
      "Ġfrom": 1454,
      "²áį±": 1455,
      "áī¸áĭįáį¢": 1456,
      "Ġts": 1457,
      "ongo": 1458,
      "14": 1459,
      "Ġtun": 1460,
      "áĬķáĭ«": 1461,
      "ember": 1462,
      "Ġkáº¹": 1463,
      "ĠáĪĽáĪĪáīµ": 1464,
      "bwa": 1465,
      "ction": 1466,
      "emba": 1467,
      "ia,": 1468,
      "Ġwani": 1469,
      "Ġ=": 1470,
      "áĪĬáĭĿ": 1471,
      "Ġju": 1472,
      "cho": 1473,
      "º¸": 1474,
      "áĪłáĪ": 1475,
      "ĠáĪĥ": 1476,
      "mar": 1477,
      "áī¸áĭįáĬķ": 1478,
      "kÃ²": 1479,
      "shi": 1480,
      "sÃ¬": 1481,
      "ĠtÃºn": 1482,
      "Ġ10": 1483,
      "ĠáĬķáĮīáĪ¥": 1484,
      "áĬ¨áī°": 1485,
      "ĠNiger": 1486,
      "ĠUni": 1487,
      "ká»įÌĢ": 1488,
      "áī±áĬķ": 1489,
      "áĪµáī°": 1490,
      "áĭįáĭ«áĬķ": 1491,
      "ĠÃ¨nÃ¬yÃłn": 1492,
      "Ġ/": 1493,
      "áįķ": 1494,
      "Ġninu": 1495,
      "âĢĵ": 1496,
      "áī°áĪ¨áĮİáĪĺ": 1497,
      "Ġáĭ¨áĪļáĭ«": 1498,
      "ĠMo": 1499,
      "Ġdans": 1500,
      "u,": 1501,
      "áĪĢ": 1502,
      "ĠEn": 1503,
      "ĠManazarta": 1504,
      "Ġwon": 1505,
      "áī£áī¢": 1506,
      "Ġare": 1507,
      "Ġranar": 1508,
      "Ġtana": 1509,
      "co": 1510,
      "ok": 1511,
      "ĠáĬłáĪĺ": 1512,
      "Ġita": 1513,
      "Ġile": 1514,
      "anan": 1515,
      "Ġáī³áĪªáĬŃ": 1516,
      "omin": 1517,
      "i,": 1518,
      "áĬķáĮ": 1519,
      "ĠáīłáĬłáĪ": 1520,
      "mp": 1521,
      "dÃŃ": 1522,
      "land": 1523,
      "Ġáĭ«áĪįáī°áī°áĪ¨áĮİáĪĺ": 1524,
      "ational": 1525,
      "²áį±áį»áį": 1526,
      "Ġibi": 1527,
      "ĠâĢľ": 1528,
      "jin": 1529,
      "ĠAs": 1530,
      "llon": 1531,
      "áĪĦ": 1532,
      "Ġhaife": 1533,
      "ifa": 1534,
      "ĠáĮī": 1535,
      "ens": 1536,
      "ĠáĪ°áĭį": 1537,
      "dÃ©": 1538,
      "áĭĽáīµ": 1539,
      "ĠáīĭáĬķáīĭ": 1540,
      "Ġ193": 1541,
      "ĠkÃ²": 1542,
      "Ġsuna": 1543,
      "1,": 1544,
      "gin": 1545,
      "áĪŀáī½": 1546,
      "Ġmshindi": 1547,
      "Ġil": 1548,
      "ola": 1549,
      "ble": 1550,
      "Ġune": 1551,
      "áĮ¥áĪŃ": 1552,
      "dÃ¡": 1553,
      "kio": 1554,
      "áĪ«áīµ": 1555,
      "Ġ(20": 1556,
      "Ġáĭ³": 1557,
      "ĠrÃ©": 1558,
      "Ġpa": 1559,
      "Ġáį£": 1560,
      "áī£áīµ": 1561,
      "áī¥áĪŃ": 1562,
      "ĠáĬłáĬ«": 1563,
      "áĪł": 1564,
      "idi": 1565,
      "áº¹Ìģg": 1566,
      "vu": 1567,
      "áĪįáĬŃ": 1568,
      "ungiyar": 1569,
      "Ġáĭ¨áĪĽ": 1570,
      "Ġbu": 1571,
      "era": 1572,
      "jÃ¡": 1573,
      "Ġlokacin": 1574,
      "/áĪĿ": 1575,
      "áĭĭáĪįáį¢": 1576,
      "eng": 1577,
      "Ġáī¥áĭĻ": 1578,
      "tÃ²": 1579,
      "istor": 1580,
      "Ġbayan": 1581,
      "wÃ¡": 1582,
      "12": 1583,
      "Ġmasu": 1584,
      "Ġgbo": 1585,
      "ĠÃ¬gbÃł": 1586,
      "cha": 1587,
      "áĪĭáīµ": 1588,
      "ĠáĭŃáĮĪ": 1589,
      "áĬ¨áĪį": 1590,
      "Ġorile-ede": 1591,
      "áĪĿáĪ®": 1592,
      "ĠKa": 1593,
      "ward": 1594,
      "ung": 1595,
      "Ã©e": 1596,
      "Ġbiyu": 1597,
      "ij": 1598,
      "áº¹ÌĢr": 1599,
      "ĠÃ¡": 1600,
      "oro": 1601,
      "va": 1602,
      "tern": 1603,
      "ux": 1604,
      "Ġáĭĵ/áĪĿ": 1605,
      "Ġhan": 1606,
      "ande": 1607,
      "kon": 1608,
      "Ġkasar": 1609,
      "ansa": 1610,
      "ĠáĪŀ": 1611,
      "ass": 1612,
      "In": 1613,
      "áĪĭáĪį": 1614,
      "ĠáĮł": 1615,
      "min": 1616,
      "ĠTanz": 1617,
      "áĪ³áĭŃ": 1618,
      "Ġfil": 1619,
      "kala": 1620,
      "dÃ¬": 1621,
      "á»įÌĢn": 1622,
      "áº¹Ìģgáº¹Ìģ": 1623,
      "atukio": 1624,
      "tÃŃ": 1625,
      "rÃ¨": 1626,
      "ĠÃ²á¹£Ã¨": 1627,
      "ĠáĪĻ": 1628,
      "ons": 1629,
      "es.": 1630,
      "Ġfara": 1631,
      "ĠAb": 1632,
      "ĠdÃ¡": 1633,
      "áī³áĭĬ": 1634,
      "er,": 1635,
      "ĠPapa": 1636,
      "13": 1637,
      "Ġzama": 1638,
      "1.": 1639,
      "ĠMatukio": 1640,
      "ĠMu": 1641,
      "Ġthat": 1642,
      "ĠáĬłáĪµáī°": 1643,
      "ell": 1644,
      "áĪĿáĪħ": 1645,
      "áĮĤ": 1646,
      "ĠáĮ½": 1647,
      "0,": 1648,
      "ĠáĮİ": 1649,
      "ila": 1650,
      "ĠIs": 1651,
      "anta": 1652,
      "Ġbab": 1653,
      "ľáĪªáĬ«": 1654,
      "áĪĺáĪŃ": 1655,
      "Ġbirnin": 1656,
      "ĠáĪ³áĭŃ": 1657,
      "ph": 1658,
      "cc": 1659,
      "Ġalikuwa": 1660,
      "versity": 1661,
      "fe": 1662,
      "Ġpáº¹ÌĢ": 1663,
      "ĠáĬ¥áĬķáĭ³": 1664,
      "ld": 1665,
      "áĬķáĭ³": 1666,
      "ĠáĭĭáĬĵ": 1667,
      "ĠáĬ®": 1668,
      "Ġjáº¹": 1669,
      "une": 1670,
      "áĮĨ": 1671,
      "ĠáīłáĪļ": 1672,
      "áĭ²áĪµ": 1673,
      "kini": 1674,
      "2,": 1675,
      "Ġny": 1676,
      ".áĬł": 1677,
      "din": 1678,
      "ĠáĪĺáĬķ": 1679,
      "áĮįáĪŃ": 1680,
      "o.": 1681,
      "ĠáĪĺáĪµ": 1682,
      "áī·": 1683,
      "pÃ©": 1684,
      "Ġiya": 1685,
      "jer": 1686,
      "Ġ14": 1687,
      "hugaban": 1688,
      "ote": 1689,
      "i.": 1690,
      "vel": 1691,
      "áĮłáĪŃ": 1692,
      "ĠmÃ©": 1693,
      "Ġáī¤áī°": 1694,
      "ĠNew": 1695,
      "ĠÃĮpÃŃnláº¹ÌĢ": 1696,
      "Ġáį¢": 1697,
      "áĭĿáī¥": 1698,
      "Ġhadi": 1699,
      "int": 1700,
      "utar": 1701,
      "ereza": 1702,
      "áĪĭáĭŃ": 1703,
      "Ġyawan": 1704,
      "áĮĪáĬĺ": 1705,
      "Ġdo": 1706,
      "elu": 1707,
      "ise": 1708,
      "ĠKu": 1709,
      "ĠAg": 1710,
      "Ġiá¹£áº¹Ìģ": 1711,
      "ingereza": 1712,
      "yÃł": 1713,
      "ĠMas": 1714,
      "irka": 1715,
      "áįĸ": 1716,
      "Ġmji": 1717,
      "ĠVi": 1718,
      "já»įba": 1719,
      "ungu": 1720,
      "ya,": 1721,
      "Ġqui": 1722,
      "dan": 1723,
      "ya.": 1724,
      "ĠáĪģáĪī": 1725,
      "ĠGu": 1726,
      "Ġkwenye": 1727,
      "wá»įÌģ": 1728,
      "Ġáĭ¨áĪĨ": 1729,
      "ĠÆĻwa": 1730,
      "áĭī": 1731,
      "Ġgáº¹Ìģgáº¹Ìģ": 1732,
      "jen": 1733,
      "Ġme": 1734,
      "ĠáįĬ": 1735,
      "tá»įÌģka": 1736,
      "jÃł": 1737,
      "à¤": 1738,
      "áĬŀ": 1739,
      "ĠUniversity": 1740,
      "Ġpour": 1741,
      "\".": 1742,
      "ona": 1743,
      "one": 1744,
      "Ġ(A": 1745,
      "ĠNijeriya": 1746,
      "ĠKristo": 1747,
      "alla": 1748,
      "Ġman": 1749,
      "ĠtÃł": 1750,
      "antar": 1751,
      "ĠÃĪ": 1752,
      "ĠáĬłáĪĿ": 1753,
      "áĮĢáĪĺáĪªáĭ«": 1754,
      "Ġáĭ¨áĪĿ": 1755,
      "áº¹Ìģr": 1756,
      "Ġus": 1757,
      "--": 1758,
      "Ġsur": 1759,
      "Ġpáº¹ÌĢlÃº": 1760,
      "áĪŃáĪµáī²": 1761,
      "tum": 1762,
      "ill": 1763,
      "Ġlugha": 1764,
      "vyo": 1765,
      "áĪĨáĬĲ": 1766,
      "Ġlá»įÌģ": 1767,
      "5,": 1768,
      "gbáº¹Ìģ": 1769,
      "iwa": 1770,
      "0.": 1771,
      "ren": 1772,
      "ĠáĪĺáĭ°áī¥": 1773,
      "á¹£e": 1774,
      "uwan": 1775,
      "ib": 1776,
      "1-": 1777,
      "áĪ«áĭĬ": 1778,
      "ect": 1779,
      "Ã³n": 1780,
      "him": 1781,
      "ze": 1782,
      "ĠCom": 1783,
      "ĠáĪ°áĭİáī½": 1784,
      "ĠwÃ¡": 1785,
      "alin": 1786,
      "atar": 1787,
      "ite": 1788,
      "Ġhis": 1789,
      "ĠlÃ³rÃŃ": 1790,
      "u.": 1791,
      "Ġwana": 1792,
      "Ġaiki": 1793,
      "Makala": 1794,
      "ĠÆĻa": 1795,
      "han": 1796,
      "Ġkasa": 1797,
      "Ġinahusu": 1798,
      "wamn": 1799,
      "áº¹ÌģrÃŃkÃł": 1800,
      "wa,": 1801,
      "anin": 1802,
      "áº¹ÌĢráº¹ÌĢ": 1803,
      "áī½áį¢": 1804,
      "ult": 1805,
      "Ġáīłáĭĺ": 1806,
      "ĠTanzania": 1807,
      "kazi": 1808,
      "gÃºn": 1809,
      "Ġana": 1810,
      "Ġáī¦": 1811,
      "ĠMe": 1812,
      "ĠáĬĲáĮĪáĪŃ": 1813,
      "ars": 1814,
      "ĠAmáº¹ÌģrÃŃkÃł": 1815,
      "áįİ": 1816,
      "ĠRe": 1817,
      "3,": 1818,
      "2.": 1819,
      "amba": 1820,
      "Ġab": 1821,
      "tawa": 1822,
      "6,": 1823,
      "sar": 1824,
      "ĠJam": 1825,
      "wÃ³": 1826,
      "ous": 1827,
      "áĬķáĮįáĪĬáĭĿ": 1828,
      "ins": 1829,
      "Ġmili": 1830,
      "láº¹Ìģ": 1831,
      "ern": 1832,
      "ĠáĭĵáĪĿ": 1833,
      "hemu": 1834,
      "ĠMus": 1835,
      "áī°áĭį": 1836,
      "Ġáī°áĪĺ": 1837,
      "áī¦áī½": 1838,
      "ráº¹": 1839,
      "Ġup": 1840,
      "kali": 1841,
      "Ġinda": 1842,
      "rÃłn": 1843,
      "áĪĿáį¢": 1844,
      "ingi": 1845,
      "áĮ¸": 1846,
      "Ya": 1847,
      "lic": 1848,
      "for": 1849,
      "Wa": 1850,
      "7,": 1851,
      "lá»įÌģ": 1852,
      "ĠAfirka": 1853,
      "ĠKristo).": 1854,
      "ĠáĭĵáĪĺáīµ": 1855,
      "-áº¹ÌĢ": 1856,
      "Ġ(Baada": 1857,
      "uth": 1858,
      "6.": 1859,
      "áį¥": 1860,
      "ĠAp": 1861,
      "áĮłáīĢ": 1862,
      "Ġráº¹": 1863,
      "bÃł": 1864,
      "áĪĽáĪª": 1865,
      "oma": 1866,
      "ĠáīĨ": 1867,
      "Ġkafa": 1868,
      "ĠmÃ¡a": 1869,
      "ĠÃ²á¹£Ã¨rÃ©": 1870,
      "Ġáĭ¨áĪļáĮĪáĬĿ": 1871,
      "bali": 1872,
      "kÃ¬": 1873,
      "ĠCo": 1874,
      "Ġcomp": 1875,
      "Ġ192": 1876,
      "ors": 1877,
      "8,": 1878,
      "eo": 1879,
      "elle": 1880,
      "ese": 1881,
      "y.": 1882,
      "7.": 1883,
      "áĪ¨áĭį": 1884,
      "Ġav": 1885,
      "ĠII": 1886,
      "ĠJu": 1887,
      "illi": 1888,
      "iko": 1889,
      "emp": 1890,
      "ĠkÃ©": 1891,
      "ash": 1892,
      "ĠyÃŃ": 1893,
      "tá»įÌģkasÃŃ": 1894,
      "ĠtÃłbÃŃ": 1895,
      "ohn": 1896,
      "áĮĵ": 1897,
      "ĠCol": 1898,
      "á¹£áº¹": 1899,
      "ĠalÃ¡": 1900,
      "att": 1901,
      "4,": 1902,
      "5.": 1903,
      "áĭŀ": 1904,
      "ĠáĬª": 1905,
      "ka.": 1906,
      "áįĬáīµ": 1907,
      "áĮįáī¥": 1908,
      "ĠÃ¨yÃŃ": 1909,
      "ĠÆĻwallon": 1910,
      "iz": 1911,
      "Ġ12": 1912,
      "Ġgu": 1913,
      "ĠáĪĿáĬŃ": 1914,
      "umani": 1915,
      "áĬ¢": 1916,
      "áĭ±áĪµ": 1917,
      "3.": 1918,
      "ĠáĬ¥áĭ¨": 1919,
      "ima": 1920,
      "áĪģáĪĿ": 1921,
      "lÃ¹": 1922,
      ".áĬ¤": 1923,
      "áĪĭáĬķáĭµ": 1924,
      "áĭ³áĬķ": 1925,
      "áĬĸáī½": 1926,
      "Ġwata": 1927,
      "Ġmag": 1928,
      "urs": 1929,
      "Ġkim": 1930,
      "Ġap": 1931,
      "4.": 1932,
      "Ġkwan": 1933,
      "yen": 1934,
      "Ġmar": 1935,
      "áįĴ": 1936,
      "rá»įÌĢ": 1937,
      "ĠáĪĭ": 1938,
      "Ġká»į": 1939,
      "ome": 1940,
      "Ġáī¤áīµ": 1941,
      "áĮĮ": 1942,
      "ĠonÃŃ": 1943,
      "áĬ¥áĬķ": 1944,
      "amoja": 1945,
      "áĮ¨áĪ¨": 1946,
      "anci": 1947,
      "ys": 1948,
      "Ġáīĥ": 1949,
      "Ġduniya": 1950,
      "Ġohun": 1951,
      "fal": 1952,
      "La": 1953,
      "áī³áī¸áĭį": 1954,
      "áĬłáī¥": 1955,
      "Ġdake": 1956,
      "ations": 1957,
      "isiwa": 1958,
      "ost": 1959,
      "jerumani": 1960,
      "áĭŃáĪħ": 1961,
      "katifu": 1962,
      "ibi": 1963,
      "ena": 1964,
      "áĪ¨áĬķ": 1965,
      "ĠáĪĺáĬ«": 1966,
      "ĠØ": 1967,
      "Ġque": 1968,
      "Ġomo": 1969,
      "an,": 1970,
      "Le": 1971,
      "áĮ¦": 1972,
      "áĪ¨áĮĥ": 1973,
      "Ġtele": 1974,
      "8.": 1975,
      "Éĵ": 1976,
      "ĠáĪĲ": 1977,
      "ĠOk": 1978,
      "ĠÆ": 1979,
      "engi": 1980,
      "lÃł": 1981,
      "áīħáĪĿ": 1982,
      "lin": 1983,
      "Ġco": 1984,
      "ĠBo": 1985,
      "ated": 1986,
      "Ġuli": 1987,
      "Ġcewa": 1988,
      "ĠáĬłáī¥": 1989,
      "ron": 1990,
      "ĠolÃ¹": 1991,
      "ĠJihar": 1992,
      "'ar": 1993,
      "1)": 1994,
      "Ġ(an": 1995,
      "ĠáĬ¨áĬł": 1996,
      "iv": 1997,
      "Ġsan": 1998,
      "atun": 1999,
      "Ġmul": 2000,
      "áĪĪáĭ«": 2001,
      "enti": 2002,
      "áī°áĪŃ": 2003,
      "Ġáī°áīĢ": 2004,
      ".áĬł.": 2005,
      "áĪĿáĬĵ": 2006,
      "sion": 2007,
      "ĠáĬĲáīłáĪ¨": 2008,
      "Ġake": 2009,
      "ue": 2010,
      "ka,": 2011,
      "ĠBen": 2012,
      "Ġbabban": 2013,
      "áĮĪáĭµ": 2014,
      "áīĨáĮ£": 2015,
      "ĠBK": 2016,
      "yyar": 2017,
      "cal": 2018,
      "Ġzam": 2019,
      "ĠáĪĨáĬĸ": 2020,
      "Ġwannan": 2021,
      "Ġmwan": 2022,
      "áĪ°áĭį": 2023,
      "áĪĺáĬĵ": 2024,
      "ĠFar": 2025,
      "ora": 2026,
      "Ġit": 2027,
      "Ġwake": 2028,
      "ept": 2029,
      "ĠáĬłáĮĪáĪŃ": 2030,
      "ĠáīłáĪµ": 2031,
      "ĠjÃ¹": 2032,
      "Ġkus": 2033,
      "Ġwatu": 2034,
      "Ġgbogbo": 2035,
      "ĠáĬłáī£": 2036,
      "áĪ¨áĭ³": 2037,
      "iaka": 2038,
      "Ġyar": 2039,
      "áĪīáīµ": 2040,
      "Ġáº¸": 2041,
      "mÃ¹": 2042,
      "ĠáīłáĬ¢áīµáĭ®áĮµáĭ«": 2043,
      "Ġ;": 2044,
      "ĠlÃ¨": 2045,
      "dar": 2046,
      "yy": 2047,
      "áĬĲáĭļáĪħ": 2048,
      "áĭµáĬķ": 2049,
      "Ġmus": 2050,
      "áĪĶáĪŃ": 2051,
      "ited": 2052,
      "áĪĺáĪµ": 2053,
      "áĪĽáĭĬ": 2054,
      "ĠáĬĵáī¸áĭįáį¢": 2055,
      "5)": 2056,
      "áĪ°áī¥": 2057,
      "ĠáĪ´": 2058,
      "ÃłÃ¡": 2059,
      "Ġáįķ": 2060,
      "áīª": 2061,
      "rÃº": 2062,
      "ĠgbÃ©": 2063,
      "Ġhukum": 2064,
      "ĠUn": 2065,
      "ĠáĭĺáĬķáĭµ": 2066,
      "ĠKarne": 2067,
      "áīµáĬĵ": 2068,
      "ua": 2069,
      "áįħ": 2070,
      "Ġáĭ¨áĪ°": 2071,
      "áĮĪáĬĻ": 2072,
      "ĠáĮ¨": 2073,
      "ziki": 2074,
      "Ġáī£áĪĪ": 2075,
      "Ġmáº¹Ìģ": 2076,
      "ashin": 2077,
      "ĠnÃŃgbÃł": 2078,
      "ĠáĮĢáĪĿáĪ®": 2079,
      "Ġyankin": 2080,
      "mÃŃ": 2081,
      "Ġ13": 2082,
      "ta,": 2083,
      "áĭ¥": 2084,
      "ĠáĪ«": 2085,
      "áĮ½áĪĲ": 2086,
      "Ġwad": 2087,
      "Ġson": 2088,
      "Ġsehemu": 2089,
      "Ġjama": 2090,
      "Ġáĭ«áĪĪ": 2091,
      "Ġou": 2092,
      "áĪŃáĪ±": 2093,
      "ĠIta": 2094,
      "Ġáįĵ": 2095,
      "lÃ¨": 2096,
      "der": 2097,
      "Ġro": 2098,
      "ĠáĬ¢áīµáĭ®áĮµáĭ«": 2099,
      "unt": 2100,
      "ats": 2101,
      "eshi": 2102,
      "ĠIngi": 2103,
      "ende": 2104,
      "ĠáĮ¦áĪŃ": 2105,
      "Ġmkuu": 2106,
      "amb": 2107,
      "ille": 2108,
      "jáº¹Ìģ": 2109,
      "kÃ¹n": 2110,
      "á»Į": 2111,
      "ĠMata": 2112,
      "áĭ¨áĪŃ": 2113,
      "Ġáĭ«áĪĪáĭį": 2114,
      "áī¡áī¥": 2115,
      "ĠáĮ¸": 2116,
      "kÃłn": 2117,
      "Ġcomm": 2118,
      "ĠJanu": 2119,
      "á¹£Ãł": 2120,
      "ika": 2121,
      "Ġáī¥áī»": 2122,
      "Ġwhi": 2123,
      "oc": 2124,
      "Ġlakini": 2125,
      "ĠÆĻafa": 2126,
      "jáº¹": 2127,
      "ea": 2128,
      "Ġkamar": 2129,
      "áĬķáĬķ": 2130,
      "áī£áĪĪ": 2131,
      "Ġá»ĮÌĢ": 2132,
      "Ġpamoja": 2133,
      "3)": 2134,
      "ÙĦ": 2135,
      "áĬ¤áĪį": 2136,
      "Ġáī°áĭĪ": 2137,
      "ign": 2138,
      "Ġac": 2139,
      "Ã¨re": 2140,
      "ĠPro": 2141,
      "-Ã¬": 2142,
      "hine": 2143,
      "Ġá»įdun": 2144,
      "Ġsá»į": 2145,
      "áĪłáĪ¨": 2146,
      "in,": 2147,
      "mba": 2148,
      "áĪįáĮ£": 2149,
      "ose": 2150,
      "bun": 2151,
      "ĠGo": 2152,
      "Ġorin": 2153,
      "Ġmiaka": 2154,
      "ĠáĬ¨áįį": 2155,
      "ĥáĭŃ": 2156,
      "ĠáĪĺáĪį": 2157,
      "Ġsamu": 2158,
      "ess": 2159,
      "Ġáĭ¨áĭĪ": 2160,
      "áĭĭáĪį": 2161,
      "pi": 2162,
      "Ni": 2163,
      "fo": 2164,
      "Ùİ": 2165,
      "4)": 2166,
      "kwai": 2167,
      "ww": 2168,
      "ĠáĬłáĭį": 2169,
      "falme": 2170,
      "áī³áĪįáį¢": 2171,
      "orn": 2172,
      "chool": 2173,
      "áĪĭáī¸áĭį": 2174,
      "Ġnje": 2175,
      "ijir": 2176,
      "ma,": 2177,
      "ĠáĬ¥.áĬ¤": 2178,
      "ĠDe": 2179,
      "Ġ(S": 2180,
      "ĠJami": 2181,
      "ĠáĬ¦": 2182,
      "ĠfÃŃ": 2183,
      "Da": 2184,
      "Ġplus": 2185,
      "Ġsiku": 2186,
      "Ã¹bÃ¡": 2187,
      "Ã¬bÃŃ": 2188,
      "Ġáī°áĬ¨": 2189,
      "kea": 2190,
      "ĠQ": 2191,
      "rans": 2192,
      "ĠÂ»": 2193,
      "fani": 2194,
      "Ġ190": 2195,
      "áĭµáĪĿ": 2196,
      "6)": 2197,
      "wa.": 2198,
      "Ã¬nrin": 2199,
      "ĠNigeria": 2200,
      "áį²áį±áį»áį": 2201,
      "ĠNaijir": 2202,
      "Â«": 2203,
      "ven": 2204,
      "Ġmaj": 2205,
      "áĬħ": 2206,
      "ques": 2207,
      "ato": 2208,
      "ĠIngila": 2209,
      "Ġáº¹ÌĢká»įÌģ": 2210,
      "áĪļáĭ«": 2211,
      "tÃłn": 2212,
      "Ġdaya": 2213,
      "7)": 2214,
      "lan": 2215,
      "Ġgir": 2216,
      "ĠÃłká»įÌģ": 2217,
      "Ġyin": 2218,
      "ĠáīģáĮ¥áĪŃ": 2219,
      "9,": 2220,
      "anen": 2221,
      "ĠAust": 2222,
      "Ġwasu": 2223,
      "Ġru": 2224,
      "Ġaf": 2225,
      "Ãª": 2226,
      "Ġsai": 2227,
      "Ġasi": 2228,
      "Ġja": 2229,
      "Ġala": 2230,
      "Ġcont": 2231,
      "ĠáĪ¥áĪŃ": 2232,
      "annin": 2233,
      "ĠáĪī": 2234,
      "Ġolu": 2235,
      "joba": 2236,
      "Ġmutane": 2237,
      "mÃ¬": 2238,
      "-19": 2239,
      "9.": 2240,
      "istoria": 2241,
      "rÃ¬": 2242,
      "Ġsam": 2243,
      "Ġte": 2244,
      "esa": 2245,
      "tor": 2246,
      "ĠRi": 2247,
      "pinle": 2248,
      "anga": 2249,
      "Ġsana": 2250,
      "ĠJohn": 2251,
      "Ġáĭ¨áīĢ": 2252,
      "áĬĵáĪį": 2253,
      "2)": 2254,
      "Ġáĭ¨áĪĨáĬĲ": 2255,
      "Ġgab": 2256,
      "Ġkwanza": 2257,
      "per": 2258,
      "bÃ¬nrin": 2259,
      "Ġáĭ®": 2260,
      "ĠáĬłáīł": 2261,
      "hana": 2262,
      "son": 2263,
      "Ġ(C": 2264,
      "ĠAward": 2265,
      "áĪ¥áī³áīµ": 2266,
      "Ġbaada": 2267,
      "áĪŃáĬŃ": 2268,
      "ĠáĭĪáĬķ": 2269,
      "ĠáĮ£": 2270,
      "Ġzina": 2271,
      "Ġib": 2272,
      "ike": 2273,
      "ĠáīłáĪĿ": 2274,
      "áī¢áĭ«": 2275,
      "itÃ©": 2276,
      "zini": 2277,
      "com": 2278,
      "Ġnom": 2279,
      "ĠSept": 2280,
      "ebru": 2281,
      "pÃ²": 2282,
      "áĬ¦": 2283,
      "fuata": 2284,
      "ĠwÃŃ": 2285,
      "áĮ¨áĪ¨áĪ»": 2286,
      "ĠRD": 2287,
      "enn": 2288,
      "kÃ¨": 2289,
      "áĮłáĪ«": 2290,
      "Ġum": 2291,
      "áĮ¤": 2292,
      "ĠáĪľ": 2293,
      "ĠáīłáĭļáĪħ": 2294,
      "ĠáĭµáĪŃ": 2295,
      "ĠnÃŃpa": 2296,
      "Ġdin": 2297,
      "andishi": 2298,
      "áĪ³áīµ": 2299,
      "ope": 2300,
      "Ġshugaban": 2301,
      "áĪľáĬķ": 2302,
      "Ġes": 2303,
      "eni": 2304,
      "ĠYorÃ¹bÃ¡": 2305,
      "nÃŃ": 2306,
      "ĠÃłrÃ¹n": 2307,
      "Ġgarin": 2308,
      "tawala": 2309,
      "ĠpÃ¨": 2310,
      "Ġáī¡": 2311,
      "ĠáĪĺáĬ«áĬ¨áĪį": 2312,
      "cial": 2313,
      "kÃº": 2314,
      "iss": 2315,
      "ĠáīłáĪĭáĭŃ": 2316,
      "áĭİáī¹": 2317,
      "Ìģ": 2318,
      "ĠáīłáĭĺáĪĺáĬĲ": 2319,
      "áĮįáĭļ": 2320,
      "Ġá»įjá»įÌģÃ¬bÃŃ": 2321,
      "uba": 2322,
      "áĬķáĮī": 2323,
      "ĠáĬ¨áĪĺ": 2324,
      "Ġzili": 2325,
      "Ġnot": 2326,
      "wá»įÌĢ": 2327,
      "áĬ³": 2328,
      "áº¹ÌģyÃ¬n": 2329,
      "wi": 2330,
      "yn": 2331,
      "Ġaikin": 2332,
      "Ġduk": 2333,
      "ĠrÃŃ": 2334,
      "ĠAbu": 2335,
      "Ġmakar": 2336,
      "Sa": 2337,
      "ĠáīłáĪ°": 2338,
      "Ġtra": 2339,
      "Ġbo": 2340,
      "ĠNov": 2341,
      "Ġ2019": 2342,
      "ĠjÃ¡": 2343,
      "áīħáĪŃ": 2344,
      "ĠáĬŃáįįáĪĪ": 2345,
      "atin": 2346,
      "ĠAla": 2347,
      "ĠChi": 2348,
      "ungo": 2349,
      "áī¥áĪ¨": 2350,
      "áĪĽáĭŃ": 2351,
      "áĪħáĪį": 2352,
      "Ġeneo": 2353,
      "chini": 2354,
      "Ġhasa": 2355,
      "ĠÉĹan": 2356,
      "ree": 2357,
      "ĠNÃłÃ¬jÃŃrÃŃÃł.": 2358,
      "ĠTh": 2359,
      "Ġodun": 2360,
      "ĠáĬłáĪŃ": 2361,
      "uti": 2362,
      "ute": 2363,
      "áĪĺáĪĪ": 2364,
      "áĪĿáĪħáĪŃáīµ": 2365,
      "Ġmá»įÌģ": 2366,
      "ĠFr": 2367,
      "iá¹£áº¹Ìģ": 2368,
      "kazini": 2369,
      "Ġwakazi": 2370,
      "pt": 2371,
      "Ġáīł19": 2372,
      "tt": 2373,
      "dha": 2374,
      "áĭŃáĭĪ": 2375,
      "ĠHar": 2376,
      "yoyin": 2377,
      "Ġgwamn": 2378,
      "áįĥ": 2379,
      "áº¹Ìģáº¹ÌĢ": 2380,
      "áīĦ": 2381,
      "ram": 2382,
      "\",": 2383,
      "áĬķáĮįáĪĬáĭĿáĬĽ": 2384,
      "eno": 2385,
      "áīµáį¢": 2386,
      "kÃ¡": 2387,
      "Ġwengi": 2388,
      "uli": 2389,
      "ase": 2390,
      "hariki": 2391,
      "gbÃ²": 2392,
      "Ġfir": 2393,
      "gar": 2394,
      "áĬķáĬĵ": 2395,
      "ĠbÃŃi": 2396,
      "ashi": 2397,
      "Ġkya": 2398,
      "Ġgaba": 2399,
      "ashe": 2400,
      "ĠáĬ¥áĬķáĭ²áĪģáĪĿ": 2401,
      "//": 2402,
      "Ġpo": 2403,
      "ĠâĢĺ": 2404,
      "ĠáĪ½": 2405,
      "áīµáį£": 2406,
      "áīĨáĮ£áĮłáĪŃ": 2407,
      "dÃŃn": 2408,
      "mad": 2409,
      "uran": 2410,
      "Ġáĭ¨áĮį": 2411,
      "áĪµáī³": 2412,
      "hili": 2413,
      "9)": 2414,
      "Ġáº¹gbáº¹Ìģ": 2415,
      "ogra": 2416,
      "ĠmÃº": 2417,
      "orld": 2418,
      "://": 2419,
      "ĠÃ¬já»įba": 2420,
      "ĠkÃº": 2421,
      "Ġilu": 2422,
      "Ġjina": 2423,
      "Ġáī¦áī³": 2424,
      "ĠIb": 2425,
      "gbá»įÌģn": 2426,
      "áĮįáĭļáĬłáī¥": 2427,
      "Ġmaha": 2428,
      "org": 2429,
      "ĠÃ¨tÃ²": 2430,
      "Ġji": 2431,
      "ress": 2432,
      "Al": 2433,
      "áĮģ": 2434,
      "áĭįáį¢": 2435,
      "ĠFebru": 2436,
      "ty": 2437,
      "ĠBab": 2438,
      "Ġmafi": 2439,
      "umi": 2440,
      "Ġzaidi": 2441,
      "ĠÃĵ": 2442,
      "Ġ[": 2443,
      "ĠGe": 2444,
      "sc": 2445,
      "Ġlangu": 2446,
      "áī¥áĪ«": 2447,
      "ambo": 2448,
      "Ġkubwa": 2449,
      "ĠJa": 2450,
      "uk": 2451,
      "Ġnchini": 2452,
      "ĠGhana": 2453,
      "Ġ)": 2454,
      "ĠáĬ¥.áĬ¤.áĬł.": 2455,
      "ĠAfrica": 2456,
      "láº¹": 2457,
      "ĠayÃ©": 2458,
      "ĠSchool": 2459,
      "áĮĪáĬķ": 2460,
      "zaji": 2461,
      "pen": 2462,
      "ĠáīłáīĢ": 2463,
      "áĬŀáī½": 2464,
      "asu": 2465,
      "ĠáĬĲáīłáĪ©": 2466,
      "8)": 2467,
      "áĪµáĬĵ": 2468,
      "Ġjama'a": 2469,
      "Ġpr": 2470,
      "Ġwhich": 2471,
      "ĠYa": 2472,
      "áĭ¬": 2473,
      "Ġsaba": 2474,
      "vid": 2475,
      "Ha": 2476,
      "Ġri": 2477,
      "áĮĨáī½": 2478,
      "wÃł": 2479,
      "ikia": 2480,
      "áĭ°áīµ": 2481,
      "ĠSe": 2482,
      "Ġáī°áī¥": 2483,
      "áĪŃáĪµáī²áĭ«áĬķ": 2484,
      "an.": 2485,
      "Ã©r": 2486,
      "ĠPar": 2487,
      "áĮ¥áĬķ": 2488,
      "Ġshine": 2489,
      "Ġáīħáĭ±áĪµ": 2490,
      "huri": 2491,
      "Ġsont": 2492,
      "wu": 2493,
      "áĭķáĪ«": 2494,
      "ishwa": 2495,
      "92": 2496,
      "Ġavec": 2497,
      "Ġkm": 2498,
      "le,": 2499,
      "áĮįáĭļáĬłáī¥áĪĶáĪŃ": 2500,
      "áī¤áīµ": 2501,
      "ĠáĭŃáĮĪáĬĽ": 2502,
      "kanin": 2503,
      "En": 2504,
      "Ġkungiyar": 2505,
      "ashen": 2506,
      "³áĪµ": 2507,
      "Ġáĭ¨áĪµ": 2508,
      "is,": 2509,
      "mÃ¬n": 2510,
      "ĠáĪ¨": 2511,
      "ĠáĪĿáĬŃáĬķáĭ«": 2512,
      "itu": 2513,
      "áĭ¶áī½": 2514,
      "ĠApri": 2515,
      "tom": 2516,
      "inc": 2517,
      "áĭįáĪĿ": 2518,
      "Ġgud": 2519,
      "Ġtara": 2520,
      "Ġres": 2521,
      "áĪº": 2522,
      "áĬŃáīµ": 2523,
      "Ġamfani": 2524,
      "olog": 2525,
      "áī£áĪĪáĭį": 2526,
      "ani.": 2527,
      "ther": 2528,
      "Ã§": 2529,
      "ĠáĬłáĪī": 2530,
      "Ġ'yan": 2531,
      "ĠOkto": 2532,
      "ĠáĪĿáĬķ": 2533,
      "áĮ£áĪį": 2534,
      "low": 2535,
      "ĠkÃ©k": 2536,
      "anza": 2537,
      "sÃłn": 2538,
      "lish": 2539,
      "yá»į": 2540,
      "Ġiliyo": 2541,
      "Ġele": 2542,
      "ĠlÃ©": 2543,
      "50": 2544,
      "11": 2545,
      "ĠWar": 2546,
      "Ġgasar": 2547,
      "áĮĪáĬĵ": 2548,
      "a.": 2549,
      "yyu": 2550,
      "Ġjir": 2551,
      "Ġlili": 2552,
      "Ġshiga": 2553,
      "a,": 2554,
      "ĠÃ¬pÃŃnláº¹ÌĢ": 2555,
      "ĠáĭŃáī£": 2556,
      "Ġter": 2557,
      "Ġfim": 2558,
      "erin": 2559,
      "áĪ«áĪį": 2560,
      "ĠMuham": 2561,
      "ĠkÃ©kerÃ©": 2562,
      "dÃł": 2563,
      "endele": 2564,
      "áĭŃáĬķ": 2565,
      "áĮĪáī£": 2566,
      "Ġuku": 2567,
      "ĠÃ¬wÃ©": 2568,
      "dÃº": 2569,
      "Ġhali": 2570,
      "Ġkal": 2571,
      "Ġmara": 2572,
      "gbÃ¨gbÃ¨": 2573,
      "Mwaka": 2574,
      "rÃ³": 2575,
      "alisar": 2576,
      "agos": 2577,
      "Ġáĭ¨áĬĲáīłáĪ¨": 2578,
      "Ġtu": 2579,
      "isp": 2580,
      "ĠFran": 2581,
      "Ġ(M": 2582,
      "áĬĴáĭ«": 2583,
      "Ġsiya": 2584,
      "ĠáĬŃáįįáĪį": 2585,
      "áĬĸáĪŃ": 2586,
      "Ġjami": 2587,
      "ĠKen": 2588,
      "áī±áĪĿ": 2589,
      "Ã©s": 2590,
      "ton": 2591,
      "ulo": 2592,
      "Ġapp": 2593,
      "Ġáĭ²": 2594,
      "gn": 2595,
      "run": 2596,
      "ĠáĪŃ": 2597,
      "Ġtarehe": 2598,
      "30": 2599,
      "gbegbe": 2600,
      "Ġcin": 2601,
      "cy": 2602,
      "tar": 2603,
      "ĠLo": 2604,
      "Ç¹": 2605,
      "ĠáĬłáĬ«áī£áī¢": 2606,
      "mÃ¡": 2607,
      "áĪĪáī°": 2608,
      "ĠáĬ¥áĬķáĮį": 2609,
      "áĮ½áĪĲáįį": 2610,
      "fun": 2611,
      "Ġhad": 2612,
      "ilaya": 2613,
      "áĭ°áĪ¨áĮĪ": 2614,
      "Ġkir": 2615,
      "vo": 2616,
      "Ġsannan": 2617,
      "Ġ(N": 2618,
      "Ġtele.": 2619,
      "Ġáįĸ": 2620,
      "old": 2621,
      "Kati": 2622,
      "tain": 2623,
      "áīĢáīµ": 2624,
      "cce": 2625,
      "ĠáĬłáīĨáĮ£áĮłáĪŃ": 2626,
      "ates": 2627,
      "áĭŃáĬĵ": 2628,
      "ĠBar": 2629,
      "Ġal'": 2630,
      "ĠOktoba": 2631,
      "-áº¹ÌĢká»įÌģ": 2632,
      "ĠAre": 2633,
      "Ã³Ã²": 2634,
      "ĠBe": 2635,
      "áĪįáīħ": 2636,
      "áĭ®áĬķ": 2637,
      "Ġwakati": 2638,
      "ĠJap": 2639,
      "Ġ&": 2640,
      "ĠIntern": 2641,
      "fer": 2642,
      "ĠBir": 2643,
      "Ã¬dÃ¬": 2644,
      "Ali": 2645,
      "ĠáīłáĮį": 2646,
      "áĪ¨áĮį": 2647,
      "ĠáĬłáĬķáĭ±": 2648,
      "Ġkuto": 2649,
      "ĠkÃ³pa": 2650,
      "isho": 2651,
      "Ã©es": 2652,
      "ĠNor": 2653,
      "ĠKing": 2654,
      "áĬķáĮĭ": 2655,
      "áĪŃáĭĿ": 2656,
      "áĮłáīĥ": 2657,
      "ĠáĮįáĭĽáīµ": 2658,
      "ugh": 2659,
      "ĠáĬ¥áĭ«": 2660,
      "bili": 2661,
      "oloni": 2662,
      "haribi": 2663,
      "áįĪáĪŃ": 2664,
      "ĠTe": 2665,
      "rÃ¡": 2666,
      "bert": 2667,
      "itwa": 2668,
      "ĠAt": 2669,
      "áĭµáĪŀ": 2670,
      "ikwa": 2671,
      "áī³áĪį": 2672,
      "Ġáº¹láº¹Ìģ": 2673,
      "Ġkai": 2674,
      "ĠTi": 2675,
      "lah": 2676,
      "áĮĪáĪĪ": 2677,
      "vent": 2678,
      "ta.": 2679,
      "Ġshir": 2680,
      "áĪĿáĬķ": 2681,
      "Ġáīłáī¥": 2682,
      "omi": 2683,
      "Ġmaka": 2684,
      "ĠÉĹa": 2685,
      "Ġáīłáĭ°": 2686,
      "áĮİáĪŃ": 2687,
      "ĠáĬ¨áī°áĪŀáī½": 2688,
      "ĠItalia": 2689,
      "jia": 2690,
      "k.": 2691,
      "ĠáĬłáĪĭ": 2692,
      "áįĢ": 2693,
      "idan": 2694,
      "ĠáĬ¥áĬķáĭ°áĪļ": 2695,
      "áĭ¨áīµ": 2696,
      "ĠX": 2697,
      "Ġamma": 2698,
      ",000": 2699,
      "ken": 2700,
      "ks": 2701,
      "tÃ³": 2702,
      "ĠáĪ¶": 2703,
      "á»įÌģÃ¬dÃ¬": 2704,
      "áº¹Ìģrá»įÌģÃ¬dÃ¬": 2705,
      "ĠáĬĥáĭŃ": 2706,
      "med": 2707,
      "Ġhiyo": 2708,
      "ĠÃ¡st": 2709,
      "ĠLi": 2710,
      "ĠlÃ¡ra": 2711,
      "ĠÃ¡stáº¹Ìģrá»įÌģÃ¬dÃ¬": 2712,
      "zama": 2713,
      "ĠShe": 2714,
      "-A": 2715,
      "ĠáīłáįĬáīµ": 2716,
      "ĠBur": 2717,
      "dio": 2718,
      "ĠÃģ": 2719,
      "bre": 2720,
      "áĬĺ": 2721,
      "ĠáĭŃáī½": 2722,
      "ĠOn": 2723,
      "ĠDes": 2724,
      "eral": 2725,
      "ĠpÃł": 2726,
      "ĠAmur": 2727,
      "ero": 2728,
      "áĪĽáĬĸ": 2729,
      "ĠTo": 2730,
      "gas": 2731,
      "lai": 2732,
      "bÃ¹n": 2733,
      "áīµáĪŃ": 2734,
      "ĠNajeriya.": 2735,
      "pÃ¡": 2736,
      "enda": 2737,
      "Ġfo": 2738,
      "ĠMut": 2739,
      "ĠáĪĽáĪŃ": 2740,
      "ĠáĪģáĪĪáīµ": 2741,
      "áĪĪáĭ«áĭ©": 2742,
      "uis": 2743,
      "Ġseri": 2744,
      "ony": 2745,
      "ĠáĭŃáī³": 2746,
      "usini": 2747,
      "ĠKo": 2748,
      "áĪı": 2749,
      "áĪĳ": 2750,
      "áĪ°áĪ«": 2751,
      "ĠprÃ©": 2752,
      "ingine": 2753,
      "ĠHe": 2754,
      "hy": 2755,
      "áī¥áĪµ": 2756,
      "Ġ2020": 2757,
      "thi": 2758,
      "áīĢáĭį": 2759,
      "Ġkaratun": 2760,
      "ĠáĪ¸": 2761,
      "ĠUjerumani": 2762,
      "áĬ¬": 2763,
      "áĬŃáĪµ": 2764,
      "ĠáĭĺáĪĺ": 2765,
      "omo": 2766,
      "ÉĹa": 2767,
      "Ġipa": 2768,
      "áĮ£áĪĿ": 2769,
      "jini": 2770,
      "ĠáĪĿáĬķáĮ": 2771,
      "erian": 2772,
      "wn": 2773,
      "Ġhanyar": 2774,
      "áĭĸ": 2775,
      "Ġáī´": 2776,
      "boda": 2777,
      "Ġáĭ©": 2778,
      "esi": 2779,
      "ĠUingereza": 2780,
      "Wá»įÌģn": 2781,
      "sáº¹ÌĢ": 2782,
      "ory": 2783,
      "ĠKe": 2784,
      "ĠÃĪkÃ³": 2785,
      "sti": 2786,
      "Ġhada": 2787,
      "ĠáĬłáīłáī£": 2788,
      "Ø§": 2789,
      "ĠLagos": 2790,
      "urin": 2791,
      "Ġne,": 2792,
      "fáº¹Ìģ": 2793,
      "zwa": 2794,
      "áĪĪáĭŃ": 2795,
      "ĠorÃº": 2796,
      "Ġshekaru": 2797,
      "Ġjuu": 2798,
      "Ġ(m": 2799,
      "Ġbuga": 2800,
      "áĪ«áīħ": 2801,
      "ĠáĪĮáĪĭ": 2802,
      "Ġbaya": 2803,
      "áī£áĭŃ": 2804,
      "tun": 2805,
      "Ġ(199": 2806,
      "Ġabin": 2807,
      "Ġwere": 2808,
      "ĠáĭĪáīħ": 2809,
      "ĠáĭĺáĪĺáĬĲ": 2810,
      "imo": 2811,
      "Ġilikuwa": 2812,
      "Ġbáº¹ÌĢráº¹ÌĢ": 2813,
      "use": 2814,
      "p://": 2815,
      "Ġtabi": 2816,
      "ĠKam": 2817,
      "Ġakan": 2818,
      "³áį": 2819,
      "áĪįáĮį": 2820,
      "Ġsama": 2821,
      "ĠlâĢĻ": 2822,
      "áĬķáį¡": 2823,
      "áĪĿáį£": 2824,
      "ett": 2825,
      "áĪ®áįĵ": 2826,
      "ĠáĭĵáĪĺáī³áīµ": 2827,
      "Ġupande": 2828,
      "áĪĿáĪŃ": 2829,
      "ĠáĮ¦áĪŃáĬĲáīµ": 2830,
      "áĪĺáĪ¨": 2831,
      "Ġne.": 2832,
      "ĠáĪĥáĭŃ": 2833,
      "bia": 2834,
      "Ġwenye": 2835,
      "rand": 2836,
      "áĪŃáĪĺáĬķ": 2837,
      "áĮįáī£": 2838,
      "Kwa": 2839,
      "iro": 2840,
      "ĠáĪµáĪ«": 2841,
      "áĪªáĬ«áĭĬ": 2842,
      "wani": 2843,
      "alo": 2844,
      "Ġká»įÌģ": 2845,
      "Ġáĭ¨áĭį": 2846,
      "Ġáĭ¨áĭĵ": 2847,
      "ĠáĬ¨áĪļ": 2848,
      "ĠáĪµáĪŃ": 2849,
      "Ġáĭ¨áĪĺáĮĢáĪĺáĪªáĭ«": 2850,
      "ĠKan": 2851,
      "Ġmoja": 2852,
      "Ġwaki": 2853,
      "0)": 2854,
      "kubwa": 2855,
      "He": 2856,
      "Ġpad": 2857,
      "áĮįáĪ«": 2858,
      "ĠáĪ²áĭ«": 2859,
      "lex": 2860,
      "Ġdig": 2861,
      "fri": 2862,
      "Ġkif": 2863,
      "Ġmba": 2864,
      "ĠÃ¬dÃŃ": 2865,
      "joibi": 2866,
      "ĠáĬłáĭŃáĬĲáīµ": 2867,
      "Il": 2868,
      "ople": 2869,
      "Ġyali": 2870,
      "ĠKas": 2871,
      "ĠáĬłáĪ¨": 2872,
      "áĪĲáĬķáĪµ": 2873,
      "ĠgbÃł": 2874,
      "en,": 2875,
      "ĠAli": 2876,
      "Ġper": 2877,
      "lÃŃ": 2878,
      "áĪĺáīµ": 2879,
      "áĪĭáĪĪ": 2880,
      "áĮłáĪ¨": 2881,
      "ĠKis": 2882,
      "Ku": 2883,
      "Th": 2884,
      "Ġmaso": 2885,
      "áĪįáĭµ": 2886,
      "rodha": 2887,
      "ĠMin": 2888,
      "ĠáĬĲáīłáĪ¨áį¢": 2889,
      "ĠjÃ¹lá»į": 2890,
      "ĠKusini": 2891,
      "Ġcan": 2892,
      "ĠHausa": 2893,
      "yÃ¡": 2894,
      "ĠáĭĽ": 2895,
      "áĪŃáĭµ": 2896,
      "áº¹ÌģtÃ¬": 2897,
      "ĠIpinle": 2898,
      "áīłáī¥": 2899,
      "Ġ189": 2900,
      "Ġ11": 2901,
      "ular": 2902,
      "ĠAmerika": 2903,
      "ĠCon": 2904,
      "Ġye": 2905,
      "ĠplÃ¡n": 2906,
      "ĠáĬ¨áĭļáĭ«": 2907,
      "bila": 2908,
      "age": 2909,
      "mes": 2910,
      "Ġabo": 2911,
      "má»įÌģ": 2912,
      "Ġwo": 2913,
      "áĬĲáĮĪáĪŃ": 2914,
      "Ġáį²áį±áį»áį": 2915,
      "olu": 2916,
      "Ġkarne": 2917,
      "Ġtsakanin": 2918,
      "ĠÃ¬gbÃłjÃ¡": 2919,
      "ĠDi": 2920,
      "áįįáĪ«": 2921,
      "ĠáĬ¨áįįáī°áĬĽ": 2922,
      "sÃ¹": 2923,
      "ĠAug": 2924,
      "ĠáĬ¥áĪŃ": 2925,
      "Ġtso": 2926,
      "Ġvita": 2927,
      "áĭ°áĪį": 2928,
      "ĠáĭĪáĪŃ": 2929,
      "ĠáĬłáĭ²áĪµ": 2930,
      "ologi": 2931,
      "ĠáĬĲáĮĪáĪ¥áī³áīµ": 2932,
      "fÃł": 2933,
      "koa": 2934,
      "led": 2935,
      "ĠáĪłáĪ": 2936,
      "Ġtáº¹Ìģ": 2937,
      "áĮĢáĪĺáĪŃáĭ«": 2938,
      "ĠáĪĮáĪİáī½": 2939,
      "ĠáĬ³áĪµ": 2940,
      "Ã©n": 2941,
      "ĠáĬ¥áĮħ": 2942,
      "illiam": 2943,
      "ĠplÃ¡náº¹ÌģtÃ¬": 2944,
      "áĪĭáĪĿ": 2945,
      "Ġkum": 2946,
      "Ġdara": 2947,
      "ĠKwa": 2948,
      "ĠáĪĽáĪµ": 2949,
      "Ġchini": 2950,
      "tiv": 2951,
      "ĠáĪĺáĮł": 2952,
      "kuma": 2953,
      "ette": 2954,
      "Ġyanz": 2955,
      "ÃĴ": 2956,
      "ĠáĬ©": 2957,
      "us,": 2958,
      "own": 2959,
      "Ġuna": 2960,
      "áĭĮ": 2961,
      "edi": 2962,
      "ĠMi": 2963,
      "á¹£áº¹ÌĢ": 2964,
      "Ġinc": 2965,
      "entre": 2966,
      "Ġhas": 2967,
      "ved": 2968,
      "bara": 2969,
      "pá»į": 2970,
      "ĠáĬłáįį": 2971,
      "ĠÃ¡stáº¹Ìģrá»įÌģÃ¬dÃ¬.": 2972,
      "Ġkuna": 2973,
      "fanin": 2974,
      "ps": 2975,
      "ĠBu": 2976,
      "ĠdÃŃ": 2977,
      "®áī½": 2978,
      "Ġnan": 2979,
      "Ġpla": 2980,
      "áĪ¬áīµ": 2981,
      "ĠáĪĺáĪ°": 2982,
      "ĠáĪĿáĭµáĪŃ": 2983,
      "ĠmÃ©jÃ¬": 2984,
      "ĠÆĻar": 2985,
      "áīłáĪĭ": 2986,
      "ĠáĪįáĭ©": 2987,
      "atoli": 2988,
      "nu": 2989,
      "ĠEng": 2990,
      "Ġ(2": 2991,
      "áĪªáĭİáī½": 2992,
      "áįĪáĪ¨áĬķ": 2993,
      "Ġmaji": 2994,
      "kristo": 2995,
      "ĠJami'ar": 2996,
      "faransa": 2997,
      "vern": 2998,
      "dani": 2999,
      "Ġtari": 3000,
      "Ġno": 3001,
      "ĠSan": 3002,
      "ĠUnited": 3003,
      "Ġaá¹£": 3004,
      "áī³áĭŃ": 3005,
      "ĠPe": 3006,
      "áī¶áĪµ": 3007,
      "ĠViungo": 3008,
      "ĠHu": 3009,
      "áĬ¥áĪµ": 3010,
      "Ġ188": 3011,
      "limbali": 3012,
      "Ġgo": 3013,
      "áĭĵáīµ": 3014,
      "ĠáĭķáĪĪáīµ": 3015,
      "ĠAc": 3016,
      "áº¸": 3017,
      "áĪįáį£": 3018,
      "Ġwato": 3019,
      "ĠkejÃ¬": 3020,
      "Ġáĭľ": 3021,
      "Ġime": 3022,
      "orun": 3023,
      "Ġmbalimbali": 3024,
      "gÃ¹n": 3025,
      "ĠáĭĻ": 3026,
      "áĬ¨áĭļáĪħ": 3027,
      "ĠKano": 3028,
      "aribu": 3029,
      "áĪµáĪĪ": 3030,
      "ally": 3031,
      "Ġim": 3032,
      "Ġalso": 3033,
      "Ġeni": 3034,
      "áī²áĬ«": 3035,
      "áĮ¨áĪĽáĪª": 3036,
      "Ġel": 3037,
      "bur": 3038,
      "rÃł": 3039,
      "takatifu": 3040,
      "engine": 3041,
      "form": 3042,
      "áĭ°áĭį": 3043,
      "áĭİáĪµ": 3044,
      "hir": 3045,
      "Ġmwandishi": 3046,
      "Ġms": 3047,
      "wá»į": 3048,
      "ĠorÃºká»į": 3049,
      "ft": 3050,
      "Ġsini": 3051,
      "ĠáīłáĪŃ": 3052,
      "áįįáīµ": 3053,
      "nÃł": 3054,
      "hon": 3055,
      "Ùħ": 3056,
      "fic": 3057,
      "ĠDuniya": 3058,
      "áĬķáį£": 3059,
      "áĪĭáīħ": 3060,
      "undi": 3061,
      "iyar": 3062,
      "áĮ¢": 3063,
      "Ã©ri": 3064,
      "ĠáĬłáĭµáĪŃ": 3065,
      "ĠIlÃ©": 3066,
      "rÃŃn": 3067,
      "ĠgbajÃº": 3068,
      "osti": 3069,
      "ĠáĪĽáĭķ": 3070,
      "Ã´": 3071,
      "áĪ¹": 3072,
      "Ġbáº¹Ìģáº¹ÌĢ": 3073,
      "áįĭáīµ": 3074,
      "eneo": 3075,
      "Ġdau": 3076,
      "Ġáĭ«áĪµ": 3077,
      "mma": 3078,
      "ambar": 3079,
      "yyana": 3080,
      "ĠÃ¬má»įÌĢ": 3081,
      "áĬ¨áĪĪ": 3082,
      "Ġrep": 3083,
      "2-": 3084,
      "ĠÃ¬tá»įÌģkasÃŃ": 3085,
      "ĠOl": 3086,
      "des": 3087,
      "Ġsami": 3088,
      "aren": 3089,
      "ĠUs": 3090,
      "velop": 3091,
      "Ġguda": 3092,
      "áĭ²áĭ«": 3093,
      "ĠáīĥáĪį": 3094,
      "ĠAfrican": 3095,
      "lla": 3096,
      "Ġann": 3097,
      "ģáĬķ": 3098,
      "áĪĭáĭĬ": 3099,
      "Ġáī¥áĪİ": 3100,
      "II": 3101,
      "isl": 3102,
      "Ġwacce": 3103,
      "Ġsaboda": 3104,
      "bab": 3105,
      "ĠColle": 3106,
      "lÃ³gÃºn": 3107,
      "ĠáĬłáĪµáī°áĭ³": 3108,
      "ĠáĭĪáīħáīµ": 3109,
      "Ġ(18": 3110,
      "Ġform": 3111,
      "áīłáĪį": 3112,
      "ĠNe": 3113,
      "áĬ¢áīµáĭ®áĮµáĭ«": 3114,
      "áĪĭáĬŃ": 3115,
      "ĠnÃŃbi": 3116,
      "ĠjÃ¡de": 3117,
      "¹¢": 3118,
      "áī«": 3119,
      "Ġmon": 3120,
      "áĪĿáį¡": 3121,
      "ĠáĬ¨áĬĲ": 3122,
      "ĠOá¹£Ã¹": 3123,
      "Ġsamar": 3124,
      "Ġ(áĭ¨": 3125,
      "Ġ30": 3126,
      "rÃ¨s": 3127,
      "ba,": 3128,
      "ublic": 3129,
      "áī¨": 3130,
      "ĠáīµáĪĿáĪħáĪŃáīµ": 3131,
      "áĪĬáĭ«": 3132,
      "ĠwÃŃpÃ©": 3133,
      "dda": 3134,
      "áīłáĭļáĪħ": 3135,
      "áįĪáĭį": 3136,
      "Ġkwamba": 3137,
      "irin": 3138,
      "Ġmá»įÌĢ": 3139,
      "ĠáĬłáĪ«": 3140,
      "ĠComm": 3141,
      "Katika": 3142,
      "Ġ(B": 3143,
      "phi": 3144,
      "Ġ(áĬ¨": 3145,
      "áīĢáĪĺ": 3146,
      "Ġáī£áĪħ": 3147,
      "Ġsy": 3148,
      "Ġmwana": 3149,
      "Ġáĭ¨áī³": 3150,
      "Ġáį²áį": 3151,
      "Ġáī°áĪ«": 3152,
      "Ġnuna": 3153,
      "Ġ(o": 3154,
      "ric": 3155,
      "Ġak": 3156,
      "ath": 3157,
      "ĠSha": 3158,
      "áī³áĭį": 3159,
      "áįĮ": 3160,
      "ĠBan": 3161,
      "áĭ®áī½": 3162,
      "umo": 3163,
      "Ġ25": 3164,
      "Ġnyingi": 3165,
      "Ġ(P": 3166,
      "Ġalif": 3167,
      "rá»į": 3168,
      "ĠáĬ¨áĭļáĪħ": 3169,
      "áīĢáĪŃ": 3170,
      "Ġako": 3171,
      "unci": 3172,
      "yuwa": 3173,
      "Ġwalio": 3174,
      "on.": 3175,
      "Ġmwa": 3176,
      "Ġmin": 3177,
      "istan": 3178,
      "ral": 3179,
      "Ġgame": 3180,
      "ĠáĪĦ": 3181,
      "áĪ½áĬķ": 3182,
      "Ġáĭ®áĪĲáĬķáĪµ": 3183,
      "Ġkafin": 3184,
      "orin": 3185,
      "Ġaki": 3186,
      "ĠTara": 3187,
      "Ġrec": 3188,
      "Ġsababu": 3189,
      "ĠáĬ¨áĬłáĪ": 3190,
      "Ġsau": 3191,
      "ĠÃłká»įÌģká»įÌģ": 3192,
      "pan": 3193,
      "ani,": 3194,
      "ĠInd": 3195,
      "áīłáĪ«": 3196,
      "áĭİáī½áĬķ": 3197,
      "Ġkawa": 3198,
      "atta": 3199,
      "ĠAare": 3200,
      "ĠáīłáĭĪ": 3201,
      "áĭŃáĭĪáīµ": 3202,
      "fanya": 3203,
      "bÃ²": 3204,
      "k,": 3205,
      "Ġmto": 3206,
      "Ġlori": 3207,
      "ĠáīłáĮ£áĪĿ": 3208,
      "áĪĽáīµ": 3209,
      "con": 3210,
      "Ġáº¹ni": 3211,
      "ĠBel": 3212,
      "ÃĪ": 3213,
      "Ġmf": 3214,
      "hara": 3215,
      "ves": 3216,
      "áĮĬáĭľ": 3217,
      "ĠáĭŃáī³áĭĪ": 3218,
      "she": 3219,
      "Ġdif": 3220,
      "ĠáĬłáĪĽ": 3221,
      "Ġáī¥áĪŃ": 3222,
      "gal": 3223,
      "áĪ«áĬķ": 3224,
      "Ġáį¡áį¡": 3225,
      "Ãłráº¹": 3226,
      "ĠUla": 3227,
      "ĠDo": 3228,
      "gÃ©": 3229,
      "Ġpáº¹": 3230,
      "Ġtake": 3231,
      "áīłáī°": 3232,
      "áĪ³áĭĬ": 3233,
      "Ġfirst": 3234,
      "ĠPart": 3235,
      "Ġkusini": 3236,
      "Ġkab": 3237,
      "ten": 3238,
      "kokin": 3239,
      "áĬĸáĪµ": 3240,
      "Ġmulkin": 3241,
      "Ġfito": 3242,
      "pat": 3243,
      "Ġkoma": 3244,
      "áĭ°áĪĿ": 3245,
      "áĬĽáį¦": 3246,
      "Ġparti": 3247,
      "Ġmakarantar": 3248,
      "ĠLond": 3249,
      "áĪ«áĪ±": 3250,
      "ĠáĪĿáĬŃáĬķáĭ«áīµ": 3251,
      "ĠOr": 3252,
      "ĠÆĻasa": 3253,
      "ĠMay": 3254,
      "lÃ²": 3255,
      "ĠáĬ£": 3256,
      "Ġ2000": 3257,
      "bon": 3258,
      "ĠMusul": 3259,
      "ĠArewa": 3260,
      "fÃŃ": 3261,
      "áĪ³áī¥": 3262,
      "anzia": 3263,
      "Ġaká»į": 3264,
      "ĠagbÃ¨gbÃ¨": 3265,
      "áĬĲáĭį": 3266,
      "áĮĪáĪ©": 3267,
      "ĠJos": 3268,
      "ĠÂ«áĭ¨": 3269,
      "á¹£Ã¨lÃº": 3270,
      "ĠMat": 3271,
      "bit": 3272,
      "wood": 3273,
      "ras": 3274,
      "Ġsp": 3275,
      "Ġal-": 3276,
      "áī£áī¸áĭį": 3277,
      "ĠáĪ¥áĪ«": 3278,
      "Ġjim": 3279,
      "ĠTur": 3280,
      "áĭĪáĭ°": 3281,
      "sÃ¡": 3282,
      "arabu": 3283,
      "moja": 3284,
      "amin": 3285,
      "25": 3286,
      "Ġtaka": 3287,
      "ume": 3288,
      "áĭŃáīµ": 3289,
      "ĠDan": 3290,
      "ative": 3291,
      "Ġits": 3292,
      "ĠGre": 3293,
      "atoliki": 3294,
      "ĠmÃŃ": 3295,
      "dÃ³": 3296,
      "ĠáĪ±": 3297,
      "áĬķáī²": 3298,
      "ĠCar": 3299,
      "ĠNaijiria": 3300,
      "Ġwasa": 3301,
      "Ġgida": 3302,
      "Ġhivyo": 3303,
      "w.": 3304,
      "Ġsamun": 3305,
      "Ġkil": 3306,
      "san": 3307,
      "Ġfilamu": 3308,
      "insi": 3309,
      "Ġhaka": 3310,
      "Ġáĭ¶": 3311,
      "ĠáĬłáīĢ": 3312,
      "ĠáĪĺáĪłáĪ¨": 3313,
      "ĠáĪĺáĮ½áĪĲáįį": 3314,
      "Ġhal": 3315,
      "Ġinayo": 3316,
      "ĠÃłmÃ¬": 3317,
      "Ġkad": 3318,
      "utu": 3319,
      "ger": 3320,
      "Ġ100": 3321,
      "Ġcomme": 3322,
      "áĭĲ": 3323,
      "21": 3324,
      "Ġche": 3325,
      "áĪįáĪµ": 3326,
      "Bayan": 3327,
      "ĠáĬłáīµ": 3328,
      "ĠáĬłáĪľáĪªáĬ«": 3329,
      "ĠáĭĪáĬķáĭµ": 3330,
      "ĠáĪĪáĬł": 3331,
      "áĬĸáĪ©": 3332,
      "ĠáĮ¥áīħáĪĿ": 3333,
      "áĮĪáĬĺáĭį": 3334,
      "ĠState": 3335,
      "ĠAugust": 3336,
      "tá»įÌĢ": 3337,
      "koso": 3338,
      "gy": 3339,
      "Ġ(T": 3340,
      "ĠáĪª": 3341,
      "ef": 3342,
      "Ġáī½": 3343,
      "Ġpas": 3344,
      "Ġáĭ°áĪ¨áĮĥ": 3345,
      "Ġwan": 3346,
      "Ġ(K": 3347,
      "Ġtrans": 3348,
      "ĠagbÃ¡": 3349,
      "Ġida": 3350,
      "Ġáĭ¨áĪħ": 3351,
      "Les": 3352,
      "igi": 3353,
      "atic": 3354,
      "ĠáĪĨáĬĲáį¢": 3355,
      "ĠSu": 3356,
      "Ġyayin": 3357,
      "warar": 3358,
      "ind": 3359,
      "ĠáĬłáĭ«": 3360,
      "ĠáīĭáĬķáīĭáĭİáī½": 3361,
      "pata": 3362,
      "Ġos": 3363,
      "emb": 3364,
      "yuwar": 3365,
      "anzi": 3366,
      "áĭĪáĪ°": 3367,
      "ká»įÌĢá»įÌģ": 3368,
      "ĠÃŃ": 3369,
      "Ġbar": 3370,
      "ĠBrit": 3371,
      "áįĲ": 3372,
      "Ġdomin": 3373,
      "Ã¬mÃ¹": 3374,
      "ĠáĬ¥áĮįáĪŃ": 3375,
      "áī¥áīµ": 3376,
      "ĠáĪĿáĪµ": 3377,
      "Ġáĭ¨áĬ¤": 3378,
      "ĠáĪ¥áĬĲ": 3379,
      "lar": 3380,
      "ÙĬ": 3381,
      "ision": 3382,
      "Ġmal": 3383,
      "Ġ24": 3384,
      "iya": 3385,
      "ĠáĪĽáĬķ": 3386,
      "áīĥáĪµ": 3387,
      "áĪĬáĬŃ": 3388,
      "Ġwajen": 3389,
      "60": 3390,
      "Ġimp": 3391,
      "gan": 3392,
      "ĠWorld": 3393,
      "las": 3394,
      "ĠNijeriya.": 3395,
      "Ġ23": 3396,
      "ĠÃĮtá»įÌģkasÃŃ": 3397,
      "ĠKem": 3398,
      "áĬĻ": 3399,
      "áĪŃáĪµáī¶áĪµ": 3400,
      "ĠRoma": 3401,
      "ĠáĭĪáĬķáĭĿ": 3402,
      "ĠWest": 3403,
      "score": 3404,
      "ĠKenya": 3405,
      "áĪĿáĬĲáīµ": 3406,
      "Ġáīłáī³": 3407,
      "Ġras": 3408,
      "ĠNigerian": 3409,
      "els": 3410,
      "paka": 3411,
      "áĮ£áīµ": 3412,
      "Ġuh": 3413,
      "ĠCa": 3414,
      "áĪįáĮ£áĬķ": 3415,
      "âĢİ": 3416,
      "ĠAde": 3417,
      "Ġáī°áī¥áĪİ": 3418,
      "ĠEur": 3419,
      "ced": 3420,
      "áĭĭáīĤ": 3421,
      "Ġ21": 3422,
      "Ġkili": 3423,
      "Ġ(I": 3424,
      "ĠáĪįáĮĨáī½": 3425,
      "Ġyanzu": 3426,
      "Ra": 3427,
      "áĪĪáĬķ": 3428,
      "ĠáĬĲáīłáĪ©áį¢": 3429,
      "Ġmutu": 3430,
      "ĠMal": 3431,
      "ĠDec": 3432,
      "weza": 3433,
      "ĠáĭĿáĪŃáĭĿ": 3434,
      "unif": 3435,
      "Ã²rÃ¹n": 3436,
      "ĠInternational": 3437,
      "cto": 3438,
      "áĪįáĪĿ": 3439,
      "ĠáĮŃ": 3440,
      "ĠÃłwon": 3441,
      "ĠnÃ¡Ãł.": 3442,
      "'in": 3443,
      "par": 3444,
      "dition": 3445,
      "Ġ*": 3446,
      "ulu": 3447,
      "80": 3448,
      "Ġagba": 3449,
      "Ġbut": 3450,
      "ĠAnd": 3451,
      "Ġá»įÌĢpá»įÌĢ": 3452,
      "icha": 3453,
      "Ġdis": 3454,
      "áīŃ": 3455,
      "ĠáĬłáįĪ": 3456,
      "Ġjam": 3457,
      "ananan": 3458,
      "endelea": 3459,
      "Ġbayyana": 3460,
      "ĠUfaransa": 3461,
      "ĠNational": 3462,
      "ĠKad": 3463,
      "ĠáĮįáī¥": 3464,
      "ĠRD1-": 3465,
      "tre": 3466,
      "red": 3467,
      "Ġmanyan": 3468,
      "atur": 3469,
      "Yan": 3470,
      "ĠFo": 3471,
      "cip": 3472,
      "áĪ®áĪµ": 3473,
      "ĠáĪĺáĬķáĮĪáĭµ": 3474,
      "23": 3475,
      "áĮĪáĪ«": 3476,
      "áĪĭáĭį": 3477,
      "ĠyÃ³Ã²": 3478,
      "ĠMaj": 3479,
      "Ġabu": 3480,
      "Ġpelu": 3481,
      "bÃº": 3482,
      "áĪĪáī²áĬ«": 3483,
      "Ġáĭ¨áĬ¢": 3484,
      "Ġáī¥áĪĶ": 3485,
      "ĠOs": 3486,
      "sa,": 3487,
      "Ġyenye": 3488,
      "jar": 3489,
      "ĠKáº¹": 3490,
      "ĠáĮ¥áĬĵáīµ": 3491,
      "ashara": 3492,
      "'i": 3493,
      "áĭĪáĪĪ": 3494,
      "áĭĪáī½": 3495,
      "ĠáĮ¥áĬķ": 3496,
      "-o": 3497,
      "wahili": 3498,
      "ĠáĪĺáĪŃ": 3499,
      "áĭĬáīµ": 3500,
      "áĮłáīħ": 3501,
      "ĠWilliam": 3502,
      "Ġkira": 3503,
      "áĬ¨áīµ": 3504,
      "ĠáĭŃáī£áĪĭáĪįáį¢": 3505,
      "uta": 3506,
      "áĪµáįĭ": 3507,
      "Ġnaa": 3508,
      "ĠJanuari": 3509,
      "Ġyawa": 3510,
      "Ġambayo": 3511,
      "Ġwadanda": 3512,
      "ĠIngila.": 3513,
      "ĠsÃŃláº¹ÌĢ": 3514,
      "ĠÃ²á¹£": 3515,
      "áĬĶáī³": 3516,
      "Ġ1.": 3517,
      "ĠUg": 3518,
      "Ġgina": 3519,
      "Ġirin": 3520,
      "dogo": 3521,
      "ĠAh": 3522,
      "ĠáĪ®": 3523,
      "ĠáĪĪáĪĿ": 3524,
      "áĭĺáĮĭ": 3525,
      "Ġyadda": 3526,
      "BC": 3527,
      "shen": 3528,
      "áĪŁ": 3529,
      "fuat": 3530,
      "ĠIbi": 3531,
      "áĭĭáĬķ": 3532,
      "áĪĺáĬĵáĭĬ": 3533,
      "ĠáĪīáīĥáĪµ": 3534,
      "ĠÐ": 3535,
      "22": 3536,
      "ĠAgosti": 3537,
      "Ġáī°áĪ°": 3538,
      "ĠJi": 3539,
      "Ġtas": 3540,
      "áĪ¾": 3541,
      "Ġob": 3542,
      "áĪ¨áĪĿ": 3543,
      "pas": 3544,
      "Ġ(F": 3545,
      "gion": 3546,
      "ÙĨ": 3547,
      "Ġáīłáĭ¨": 3548,
      "Ġáĭ¨áĪķ": 3549,
      "Ġ1,": 3550,
      "ĠCha": 3551,
      "er.": 3552,
      "Ġserikali": 3553,
      "áĪĽáĬķ": 3554,
      "áĭķáĪ«áī¥": 3555,
      "islamu": 3556,
      "Ġfam": 3557,
      "ĠÃłgbÃ©": 3558,
      "áº¹ÌĢáº¹Ìģ": 3559,
      "BN": 3560,
      "áįĪáĪį": 3561,
      "Ġáĭ¨áĬłáĪľáĪªáĬ«": 3562,
      "Ġhave": 3563,
      "Ġexp": 3564,
      "Ġáīłáĭĵ": 3565,
      "ĠáīħáĪŃ": 3566,
      "-a": 3567,
      "umu": 3568,
      "Ġtro": 3569,
      "Ġkaskazini": 3570,
      "áįİáī½": 3571,
      "Ġcent": 3572,
      "ĠáĬ¥áĬķáĮĤ": 3573,
      "...": 3574,
      "Ġsec": 3575,
      "Ġpremi": 3576,
      "ley": 3577,
      "umba": 3578,
      "Ġáĭ¨áĪļáĪĪáĭį": 3579,
      "Ġcol": 3580,
      "ria": 3581,
      "ĠáĬ¨áĬ¥": 3582,
      "imu": 3583,
      "báº¹ÌĢráº¹ÌĢ": 3584,
      "ĠáĮīáĭ³": 3585,
      "Ġ(ojoibi": 3586,
      "ak": 3587,
      "ms": 3588,
      "de,": 3589,
      "Ġsar": 3590,
      "ĠAgba": 3591,
      "Ã¹gbá»įÌģn": 3592,
      "ĠáĭĪáĭŃ": 3593,
      "ĠáĬŃáĪį": 3594,
      "Ġgar": 3595,
      "Ġ(áīł": 3596,
      "ĠgÃŃ": 3597,
      "áĬĲáĪ³": 3598,
      "ĠilÃ©-áº¹ÌĢká»įÌģ": 3599,
      "Ġlit": 3600,
      "ĠáĬķáĮį": 3601,
      "ĠMan": 3602,
      "ĠnÃŃnu": 3603,
      "ĠOgun": 3604,
      "ĠGab": 3605,
      "unia": 3606,
      "ros": 3607,
      "Ġáĭ¨áīµ": 3608,
      "ĠáĮĮ": 3609,
      "ĠáĬ¥áĬķáĭ²áĪħ": 3610,
      "ĠáĭŃáī³áĭĪáīĥ": 3611,
      "ĠFil": 3612,
      "áĪİáīµ": 3613,
      "ĠAbd": 3614,
      "ĠáĭŃáīĢ": 3615,
      "ĠáīµáĬķ": 3616,
      "Ġakwai": 3617,
      "chagu": 3618,
      "áī¥áĪ¨áīµ": 3619,
      "ĠÃ²un": 3620,
      "ĠáĪģáĪĪ": 3621,
      "ĠáįķáĪ¬": 3622,
      "Ġran": 3623,
      "Ġtar": 3624,
      "70": 3625,
      "unan": 3626,
      "ĠKim": 3627,
      "Ġogun": 3628,
      "ĠáĪķáĭĿáī¥": 3629,
      "dÃ¹": 3630,
      "pele": 3631,
      "ĠJamhuri": 3632,
      "áĪµáĬķ": 3633,
      "ĠÃłkÃ³": 3634,
      "ĠIS": 3635,
      "áĬŃáĪī": 3636,
      "áĭĪáĮ£": 3637,
      "Ġáī³áĪªáĬ«áĭĬ": 3638,
      "Ġmp": 3639,
      "Ġgudanar": 3640,
      "ĠJanuary": 3641,
      "40": 3642,
      "Ġmaeneo": 3643,
      "91": 3644,
      "ĠáĪĺáĮ¨áĪ¨áĪ»": 3645,
      "Ġ(U": 3646,
      "amp": 3647,
      "igh": 3648,
      "ding": 3649,
      "sÃ¬n": 3650,
      "áĬĲáī±": 3651,
      "tique": 3652,
      "ĠPres": 3653,
      "ffi": 3654,
      "ĠChar": 3655,
      "áĪĺáĭį": 3656,
      "áĪ¨áĪ°": 3657,
      "ĠEl": 3658,
      "áĪŃáī²": 3659,
      "ĠáīłáĬĲ": 3660,
      "baki": 3661,
      "gbÃ³": 3662,
      "le.": 3663,
      "onn": 3664,
      "Ġbara": 3665,
      "gaji": 3666,
      "Ġáº¹láº¹ÌģbÃ¹n": 3667,
      "ĠSouth": 3668,
      "los": 3669,
      "ĠAra": 3670,
      "fiya": 3671,
      "cent": 3672,
      "ĠJuni": 3673,
      "ĠáĬĲáĭįáį¡áį¡": 3674,
      "ĠáĬĵáī¸áĭį": 3675,
      "Ġge": 3676,
      "ĠFiz": 3677,
      "ex": 3678,
      "áĭįáĪ®áįĵ": 3679,
      "ĠAllah": 3680,
      "ĠáĭĿáĪŃáĭĿáĪŃ": 3681,
      "Ġfina": 3682,
      "ĠCity": 3683,
      "ĠEd": 3684,
      "Ġgidan": 3685,
      "Daga": 3686,
      "igizaji": 3687,
      "ussi": 3688,
      "ĠLu": 3689,
      "áīłáĪ©áīµ": 3690,
      "kÃ¹nrin": 3691,
      "Ġpoli": 3692,
      "ĠFa": 3693,
      "ĠNajeriya,": 3694,
      "ĠChina": 3695,
      "ĠJulai": 3696,
      "ĠKaduna": 3697,
      "bb": 3698,
      "¶áį": 3699,
      "áĬ¨áī°áĪĽ": 3700,
      "áĪĺáĭµ": 3701,
      "áī°áĬķ": 3702,
      "Ġigba": 3703,
      "ĠMachi": 3704,
      "Ġmutum": 3705,
      "áĬĵáī¸áĭį": 3706,
      "Ġ22": 3707,
      "ĠáīłáĬ©": 3708,
      "ĠUr": 3709,
      "wara": 3710,
      "ĠAmerican": 3711,
      "áĬĵáĪįáį¢": 3712,
      "ĠáĮĬ": 3713,
      "Ġfin": 3714,
      "áĪĺáĪį": 3715,
      "Ġáįĭ": 3716,
      "ĠáĪģáĬĶáī³": 3717,
      "rÃ²yÃ¬n": 3718,
      "ĠMuhammad": 3719,
      "Ġáº¸ÌĢ": 3720,
      "yyukan": 3721,
      "ĠSh": 3722,
      "mala": 3723,
      "áī¤áī°": 3724,
      "ĠsinimÃ¡": 3725,
      "da,": 3726,
      "Ġprodu": 3727,
      "Ġsanya": 3728,
      "áĪ«áĪ²": 3729,
      "láº¹ÌĢ-Ã¨dÃ¨": 3730,
      "Ġáĭ¨áĬ¥áĪµ": 3731,
      "ling": 3732,
      "ĠSec": 3733,
      "ki,": 3734,
      "Ġwak": 3735,
      "Ġlake": 3736,
      "áĮĦ": 3737,
      "Ġáī»": 3738,
      "Ġmita": 3739,
      "Ġpáº¹lu": 3740,
      "ĠAk": 3741,
      "Ġgabatar": 3742,
      "78": 3743,
      "uro": 3744,
      "ism": 3745,
      "ĠáĬĲáĮ»": 3746,
      "ĠfÃŃÃ¬mÃ¹": 3747,
      "ĠpadÃł": 3748,
      "en.": 3749,
      "its": 3750,
      "ĠRom": 3751,
      "Ġáī±": 3752,
      "ĠojÃº": 3753,
      "áĪħáĬķ": 3754,
      "ĠgbajÃºmá»įÌĢ": 3755,
      "ĠPet": 3756,
      "áĭ«áĭĬ": 3757,
      "áĪĪáī½": 3758,
      "áĪĪáĪĽ": 3759,
      "ĠáĪĺáĪįáĬŃ": 3760,
      "ight": 3761,
      "asihi": 3762,
      "Ġdai": 3763,
      "ĠYork": 3764,
      "amman": 3765,
      "ĠáĮįáĭµáĪĿ": 3766,
      "Ġaux": 3767,
      "áĪ¶áī½": 3768,
      "ĠáĪļáĬĴ": 3769,
      "als": 3770,
      "ĠMis": 3771,
      "ĠáįĪáĪŃ": 3772,
      "wÃ¡jÃº": 3773,
      "lam": 3774,
      "ge,": 3775,
      "áĭļáīĥ": 3776,
      "Ġkasuwan": 3777,
      "Ġmfalme": 3778,
      "ents": 3779,
      "Ġmahaif": 3780,
      "Ġijoba": 3781,
      "Ġ28": 3782,
      "ĠáĬŃáĪŃáĪµáī²áĭ«áĬķ": 3783,
      "yl": 3784,
      "Ġbec": 3785,
      "ĠIndi": 3786,
      "ork": 3787,
      "ĠlÃ¡Ãł": 3788,
      "fia": 3789,
      "áĬĵáĬķ": 3790,
      "Ã®": 3791,
      "ĠÃ¬tÃłn": 3792,
      "áĭĭáĬĵ": 3793,
      "soci": 3794,
      "ĠáĬłáĪĺáīµ": 3795,
      "Ġtangu": 3796,
      "Ġpop": 3797,
      "ĠBro": 3798,
      "ince": 3799,
      "hali": 3800,
      "ĠKir": 3801,
      "Ġáĭ¨áī£": 3802,
      "ĠMtakatifu": 3803,
      "ĠáĬĲáĮĪáĪ®áī½": 3804,
      "aru": 3805,
      "Ġsh": 3806,
      "ĠwÃ³n": 3807,
      "Ġráº¹ÌĢ.": 3808,
      "áĪģáĬķ": 3809,
      "áī´áĭİáĪµ": 3810,
      "Ġn.": 3811,
      "áº¹ráº¹": 3812,
      "ĠGa": 3813,
      "roup": 3814,
      "yon": 3815,
      "áĬ¸": 3816,
      "Ġáīłáĭį": 3817,
      "Ġáī¢áĪĨáĬķ": 3818,
      "Ġzai": 3819,
      "ĠÃłÃ¬": 3820,
      "á¹£u": 3821,
      "ĠáĭĺáĪŃ": 3822,
      "atsina": 3823,
      "d.": 3824,
      "ĠPol": 3825,
      "ĠAng": 3826,
      "ĠáĭŃáĪĺáĪµ": 3827,
      "áī»áī¸áĭį": 3828,
      "Ġkammala": 3829,
      "Ġáĭ¨áĪĽáĭŃ": 3830,
      "ĠMashariki": 3831,
      "www.": 3832,
      "Ġcar": 3833,
      "ÃłÃł": 3834,
      "badan": 3835,
      "gh": 3836,
      "Ġ27": 3837,
      "ĠSeptember": 3838,
      "Ġtáº¹": 3839,
      "ĠOlÃ³": 3840,
      "thiop": 3841,
      "orge": 3842,
      "Ġpeke": 3843,
      "áĮĪáĭ°": 3844,
      "Ġáĭ«áĪħáĪį": 3845,
      "ĠáĭŃáĮĪáĬĽáĪįáį¢": 3846,
      "cri": 3847,
      "Ġkaribu": 3848,
      "ĠFor": 3849,
      "ĠWan": 3850,
      "rÃ¬n": 3851,
      "áĪĤ": 3852,
      "ĠsÃ¡": 3853,
      "esha": 3854,
      "gbá»įÌĢn": 3855,
      "á¹£i": 3856,
      "ĠáĭŃáĪħáĪĿ": 3857,
      "Ġduni": 3858,
      "Ġyayi": 3859,
      "Ġmaza": 3860,
      "Ġaliye": 3861,
      "ĠDesemba": 3862,
      "Ã¢": 3863,
      "áīłáĬł": 3864,
      "Ġáįª": 3865,
      "bÃŃláº¹ÌĢ": 3866,
      "bal": 3867,
      "90": 3868,
      "Ġall": 3869,
      "Ġhuko": 3870,
      "ĠáĪ¦": 3871,
      "ĠáĭŃáĪĨ": 3872,
      "ĠáīłáĪĻ": 3873,
      "ĠáĭµáĪŃáĮħ": 3874,
      "ĠDecember": 3875,
      "r.": 3876,
      "kama": 3877,
      "uss": 3878,
      "Ġkula": 3879,
      "sa.": 3880,
      "asan": 3881,
      "ation,": 3882,
      "ater": 3883,
      "Ġkuanzia": 3884,
      "Ġrubu": 3885,
      "Ġjirgin": 3886,
      "áįĶ": 3887,
      "madu": 3888,
      "oselu": 3889,
      "áĮłáĭį": 3890,
      "áī·áĪįáį¢": 3891,
      "ĠMei": 3892,
      "24": 3893,
      "áĮĢáĪŃáĪĺáĬķ": 3894,
      "Ġ(198": 3895,
      "Ġbirni": 3896,
      "ĠBer": 3897,
      "antu": 3898,
      "ĠBra": 3899,
      "ĠJe": 3900,
      "ĠLegas": 3901,
      "Ġhukumar": 3902,
      "ĠAprili": 3903,
      "ĠáĬ¡": 3904,
      "Ġpá»įÌĢ": 3905,
      "Ġiye": 3906,
      "áĪĺáĮ£": 3907,
      "ĠáĬ¥áĬĲ": 3908,
      "áĬ¥áĬķáĮįáĪĬáĭĿáĬĽ": 3909,
      "lá»įpá»įÌĢ": 3910,
      "Ġhann": 3911,
      "asara": 3912,
      "Ġkáº¹Ìģ": 3913,
      "ĠáĪĺáĮĢáĪĺáĪŃáĭ«": 3914,
      "ĠSar": 3915,
      "Ġdama": 3916,
      "gue": 3917,
      "-áĬł": 3918,
      "ĠáĭŃáĭĺ": 3919,
      "áįĪáĮ¥": 3920,
      "Ġdaban": 3921,
      "que,": 3922,
      "ants": 3923,
      "ÙĪ": 3924,
      "Ġtheir": 3925,
      "ĠáĪĿáĬķáĪĿ": 3926,
      "Ġchake": 3927,
      "ĠAmurka": 3928,
      "ĠáĪĿáĬķáĮ®áī½": 3929,
      "eth": 3930,
      "Ã¡Ã¬": 3931,
      "ĠáīłáĪ½": 3932,
      "Ġsake": 3933,
      "Ġkwaikwa": 3934,
      "Ġkilom": 3935,
      "lÃ¬": 3936,
      "Ġada": 3937,
      "áĪĽáĬĸáīµ": 3938,
      "ĠdâĢĻ": 3939,
      "áĪ·": 3940,
      "áĬķáĭ±": 3941,
      "áĪĺáĪ°": 3942,
      "ĠáĪĿáĪŃ": 3943,
      "Ġáĭĭáī¢": 3944,
      "áĪĭáĪ´": 3945,
      "ĠSeptemba": 3946,
      "áĬķáĭ°": 3947,
      "Ġsuke": 3948,
      "ĠParty": 3949,
      "gbon": 3950,
      "ĠwaÉĹ": 3951,
      "kiyar": 3952,
      "ĠáĪł": 3953,
      "áĮĪáĪį": 3954,
      "Ġáĭ¨áĬ«": 3955,
      "Ġáĭ¨áī°áĪ°": 3956,
      "ĠáĭŃáĪħáĬķ": 3957,
      "áĬ¥áĬķáĭ°": 3958,
      "28": 3959,
      "lima": 3960,
      "ĠEm": 3961,
      "pend": 3962,
      "Ġ26": 3963,
      "Ġáº¹ÌĢyÃł": 3964,
      "ĠUlaya": 3965,
      "ctober": 3966,
      "dom": 3967,
      "dÃ²": 3968,
      "·áį": 3969,
      "Ġere": 3970,
      "áĬŃáĪŃ": 3971,
      "áīłáĪĪ": 3972,
      "iti": 3973,
      "Ġkudu": 3974,
      "ĠPri": 3975,
      "ĠáĪĺáĪĨáĬĳ": 3976,
      "ĠPer": 3977,
      "ĠOrÃŃ": 3978,
      "ĠSer": 3979,
      "Ġpri": 3980,
      "ĠinÃº": 3981,
      "ĠÉĹaya": 3982,
      "kÃ¹": 3983,
      "áīłáĪĺ": 3984,
      "ology": 3985,
      "Ġiko": 3986,
      "binrin": 3987,
      "Ġhtt": 3988,
      "ĠáĮ½áĪĳ": 3989,
      "ĠáĪĽáĪŃáīĨ": 3990,
      "rÃ¡n": 3991,
      "Ġkik": 3992,
      "Ġlin": 3993,
      "Ġqu'": 3994,
      "gbáº¹": 3995,
      "Ġmwigizaji": 3996,
      "ĠEle": 3997,
      "opo": 3998,
      "uld": 3999,
      "Ġndani": 4000,
      "Ġid": 4001,
      "ĠáĪ¥áĪŃáĭĪ": 4002,
      "Ġuhuru": 4003,
      "ĠMed": 4004,
      "Ġthis": 4005,
      "Ġwaje": 4006,
      "ĠáĪµáĪĻ": 4007,
      "Walio": 4008,
      "ght": 4009,
      "Ġban": 4010,
      "1892": 4011,
      "Ġcour": 4012,
      "ĠáĮłáĪ": 4013,
      "ĠáĪĺáĭµ": 4014,
      "áĭ³áĪŃ": 4015,
      "cess": 4016,
      "ĠáĪłáĪ«": 4017,
      "Ġce,": 4018,
      "eme": 4019,
      "mÃ¬nÃł": 4020,
      "Ġkutokana": 4021,
      "istri": 4022,
      "ĠáĬħ": 4023,
      "áĭ¨áĪ±": 4024,
      "Äģ": 4025,
      "ĠZa": 4026,
      "ĠShi": 4027,
      "Ġfannin": 4028,
      "áĭ¨áĪĿ": 4029,
      "ĠÃĢÃłráº¹": 4030,
      "Ġáĭ°áĪ´": 4031,
      "la,": 4032,
      "ĠRep": 4033,
      "Ġser": 4034,
      "Ġ29": 4035,
      "ĠSal": 4036,
      "ikuu": 4037,
      "ĠáĪĤ": 4038,
      "ĠSp": 4039,
      "ĠáĬłáĪ³": 4040,
      "torÃŃ": 4041,
      "t,": 4042,
      "Ġher": 4043,
      "hed": 4044,
      "Ġ2011": 4045,
      "ĠFebruari": 4046,
      "áĪĭáĪĽ": 4047,
      "Ġáĭ¨áĪ¥": 4048,
      "ĠáĪĿáĪįáĬŃ": 4049,
      "Ġeniyan": 4050,
      "FA": 4051,
      "áĬĵáĭĬ": 4052,
      "ĠDis": 4053,
      "oth": 4054,
      "ĠTiba": 4055,
      "Ġáį¤": 4056,
      "áĭļáĪģ": 4057,
      "Ġá¹£ÃŃ": 4058,
      "Ġá¹£iá¹£áº¹Ìģ": 4059,
      "áįĪáĪ¨áĬķáĪ³áĭŃ": 4060,
      "eli": 4061,
      "olly": 4062,
      "Ġyao": 4063,
      "ĠÃłgbÃł": 4064,
      "chu": 4065,
      "áĪ¡": 4066,
      "ĠEbun": 4067,
      "sÃ¨": 4068,
      "asha": 4069,
      "Ġmutanen": 4070,
      "Ġgirma": 4071,
      "ĠáĪĺáĪª": 4072,
      "ĠáĭŃáĪ°": 4073,
      "part": 4074,
      "ires": 4075,
      "ĠNovemba": 4076,
      "áĪ¯": 4077,
      "ĠáĬĴ": 4078,
      "ĠáĬĸ": 4079,
      "ĠáĭĪáĪ¨áĭ³": 4080,
      "ĠáĭĪáĮĪáĬķ": 4081,
      "sÃŃláº¹ÌĢ": 4082,
      "ĠáĬłáĪĪáīĥ": 4083,
      "ĠGer": 4084,
      "ĠMad": 4085,
      "urn": 4086,
      "Ġbiyar": 4087,
      "ges": 4088,
      "Ġinter": 4089,
      "3-": 4090,
      "ret": 4091,
      "áĭķáĪį": 4092,
      "Ġoloselu": 4093,
      "agor": 4094,
      "áĪłáĪ«": 4095,
      "Ġone": 4096,
      "Ġ2015": 4097,
      "ĠBabban": 4098,
      "báº¹ÌĢ": 4099,
      "ĠáĮħ": 4100,
      "Ġbas": 4101,
      "Ã³mÃ¬nÃł": 4102,
      "erre": 4103,
      "ben": 4104,
      "Ġfran": 4105,
      "ĠSi": 4106,
      "ĠáĬłáĪ¸": 4107,
      "ĠNorth": 4108,
      "kawa": 4109,
      "ĠâĢ¢": 4110,
      "di,": 4111,
      "ser": 4112,
      "Ġbin": 4113,
      "áĪĪáī½áį¢": 4114,
      "ĠáĭķáĪĪ": 4115,
      "risti": 4116,
      "-I": 4117,
      "Ġl'Ã©": 4118,
      "áĭĳ": 4119,
      "ĠOrodha": 4120,
      "Ġkaramar": 4121,
      "ÉĹin": 4122,
      "áī¶áī½áĬķ": 4123,
      "ĠáĪ´áīµ": 4124,
      "ispania": 4125,
      "ĠShugaban": 4126,
      "asiasa": 4127,
      "ĠRais": 4128,
      "Ġáĭ¨áĭĺ": 4129,
      "ĠáĬłáĮ¥": 4130,
      "lÃ©wÃ²": 4131,
      "áĮįáī¥áĮ½": 4132,
      "ĠDem": 4133,
      "-M": 4134,
      "ĠBi": 4135,
      "tani": 4136,
      "adem": 4137,
      "ĠMag": 4138,
      "Ġother": 4139,
      "Ġ(D": 4140,
      "áĪĺáĪ«": 4141,
      "áĮĪáī¥": 4142,
      "Ġáī³áĭĭáīĤ": 4143,
      "Ġáīłáī°áĪĪáĭŃ": 4144,
      "Ġwho": 4145,
      "Ġmawa": 4146,
      "Ġmis": 4147,
      "Ġut": 4148,
      "Ġ186": 4149,
      "ĠáĪº": 4150,
      "ĠáĬ¥áĭį": 4151,
      "áĮĪáīł": 4152,
      "ĠDar": 4153,
      "áĭ²áĪħ": 4154,
      "áĬ®áī½": 4155,
      "Pa": 4156,
      "26": 4157,
      "gra": 4158,
      "Ġdeux": 4159,
      "Ã§a": 4160,
      "áĮ¦áĪŃ": 4161,
      "Ġwá»į": 4162,
      "ĠáīłáĪĮ": 4163,
      "rop": 4164,
      "ĠáĬŃáįįáĪĭ": 4165,
      "htt": 4166,
      "ĠáīłáĮ¥": 4167,
      "áĪ°áĬķ": 4168,
      "ĠáĬłáĭŃáĭ°": 4169,
      "Ġdang": 4170,
      "Ġkilomita": 4171,
      "kand": 4172,
      "ĠrÃ¨": 4173,
      "Ġruwa": 4174,
      "inai": 4175,
      "fauti": 4176,
      "wana": 4177,
      "ĠYam": 4178,
      "Ãī": 4179,
      "áĬ¹": 4180,
      "Ġláº¹ÌģyÃ¬n": 4181,
      "ĠáĬłáĭ°": 4182,
      "áĪ³áī¸áĭį": 4183,
      "ĠgÃŃga": 4184,
      "-f": 4185,
      "likana": 4186,
      "ĠkÃ¡": 4187,
      "Ġca": 4188,
      "Ø±": 4189,
      "zu": 4190,
      "gawa": 4191,
      "45": 4192,
      "29": 4193,
      "LÃ¡": 4194,
      "mÃº": 4195,
      "ido": 4196,
      "dini": 4197,
      "Ġsauran": 4198,
      "gÃ¡": 4199,
      "por": 4200,
      "ĠbÃł": 4201,
      "ĠáīĢáĮ¥": 4202,
      "gen": 4203,
      "uly": 4204,
      "jeo": 4205,
      "ature": 4206,
      "ĠáīłáĪģ": 4207,
      "áįĪáĪµ": 4208,
      "áĪķáĪŃ": 4209,
      "Ġmais": 4210,
      "Ġnu": 4211,
      "Ġwilaya": 4212,
      "Ġrayuwa": 4213,
      "Ġrasmi": 4214,
      "áįĳ": 4215,
      "áĪĺáī±": 4216,
      "áĪ¨áī¥": 4217,
      "áĮ¥áĪ¨": 4218,
      "Ġise": 4219,
      "-C": 4220,
      "Ġwote": 4221,
      "27": 4222,
      "ce,": 4223,
      "hÃ¹n": 4224,
      "áĭµáĪ¨áĮį": 4225,
      "Ġgi": 4226,
      "Ġtena": 4227,
      "hel": 4228,
      "al,": 4229,
      "Ġmusul": 4230,
      "ĠFebruary": 4231,
      "ĠáĪ»": 4232,
      "áįĪáīµ": 4233,
      "áĪĿáĪħáĪŃ": 4234,
      "ĠáĬ¥áĬķáĮįáĪĬáĭĿ": 4235,
      "ĠCollege": 4236,
      "'est": 4237,
      "arÃŃ": 4238,
      "ģáĬĳ": 4239,
      "ĠPort": 4240,
      "áĮłáĪ©": 4241,
      "ĠáĬłáĮĪáĪįáĮį": 4242,
      "ĠNovember": 4243,
      "ĠEx": 4244,
      "kÃŃ": 4245,
      "ĠmÃ¬ÃŃ": 4246,
      "áĪ¨áĮĭ": 4247,
      "ĠáĬ¥áĭ¨áī°": 4248,
      "dÃłn": 4249,
      "Ġbaba": 4250,
      "ĠSte": 4251,
      "c.": 4252,
      "áĮłáĬĵ": 4253,
      "ĠolÃ³rin": 4254,
      "ĠEthiop": 4255,
      "Ġact": 4256,
      "Ġjo": 4257,
      "ino": 4258,
      "á»įÌģá»įÌĢ": 4259,
      "mbo": 4260,
      "Ġ2006": 4261,
      "d,": 4262,
      "Ġses": 4263,
      "hidi": 4264,
      "áĬĹ": 4265,
      "Ġá»įÌĢkan": 4266,
      "ander": 4267,
      "Ġhai": 4268,
      "Ġhukumomin": 4269,
      "omen": 4270,
      "Ġ2007": 4271,
      "báº¹Ìģ": 4272,
      "á»įÌĢrá»įÌĢ": 4273,
      "Ġasili": 4274,
      "Ġ(G": 4275,
      "âĢº": 4276,
      "-Ãł": 4277,
      "kashin": 4278,
      "Ġaji": 4279,
      "Am": 4280,
      "yoyi": 4281,
      "ĠáĬ¥áĬĲáĭļáĪħ": 4282,
      "áĭ°áĮį": 4283,
      "ĠmÃ¬ÃŃrÃłn": 4284,
      "ikana": 4285,
      "ĠAnna": 4286,
      "sÃł": 4287,
      "áĬĥ": 4288,
      "Ġkarni": 4289,
      "Ð°": 4290,
      "áī£áĭĬ": 4291,
      "kw": 4292,
      "as,": 4293,
      "Ġshu": 4294,
      "áį²áį": 4295,
      "ĠáĪĽáī´áĭİáĪµ": 4296,
      "lejin": 4297,
      "Ġilimi": 4298,
      "attalin": 4299,
      "ĠTim": 4300,
      "Ġ(O": 4301,
      "day": 4302,
      "âĢĻa": 4303,
      "´áį": 4304,
      "ĠáĬ¬": 4305,
      "ĠobÃ¬nrin": 4306,
      "áī½áĭį": 4307,
      "ĠáĪµáīµ": 4308,
      "Ġáĭįáĭµ": 4309,
      "áĪ±áĪĿ": 4310,
      "Ġtsarin": 4311,
      "Ġyamma": 4312,
      "ĠCor": 4313,
      "way": 4314,
      "Ġlashe": 4315,
      "ĠFrance": 4316,
      "jáº¹ÌĢ": 4317,
      "ĪáĪĿ": 4318,
      "Ġáĭ´": 4319,
      "ures": 4320,
      "áĮĭáĪį": 4321,
      "wezi": 4322,
      "ĠdÃ¡ra": 4323,
      "p://www.": 4324,
      "Ġver": 4325,
      "Ġinclu": 4326,
      "Ġdigiri": 4327,
      "zer": 4328,
      "Ġmkubwa": 4329,
      "ĠKik": 4330,
      "Ġkuli": 4331,
      "amuziki": 4332,
      ")áį£": 4333,
      "Ġwh": 4334,
      "ĠáĪĺáĬĲ": 4335,
      "Ġ2010": 4336,
      "ĠilÃ©-": 4337,
      "ĠáĭķáĪĪáī³áīµ": 4338,
      "Ġpers": 4339,
      "ĠKatsina": 4340,
      "ĠáĪĺáĭĿ": 4341,
      "áĪ«áĪīáį¢": 4342,
      "ily": 4343,
      "áĪŃáĭ«áĪĿ": 4344,
      "'ad": 4345,
      "uring": 4346,
      "rie": 4347,
      "ĠIbadan": 4348,
      "áĭ¨áĬł": 4349,
      "Ġeyi": 4350,
      "Ġá¹£Ãł": 4351,
      "dÃºgbÃ²": 4352,
      "Ġtit": 4353,
      "dá»įÌĢ": 4354,
      "in.": 4355,
      "Ġomi": 4356,
      "lack": 4357,
      "Ġáį³áį": 4358,
      "áįĵáĬķ": 4359,
      "kata": 4360,
      "ury": 4361,
      "ĠTazama": 4362,
      "ĠipÃ²": 4363,
      "ical": 4364,
      "ombe": 4365,
      "tions": 4366,
      "-O": 4367,
      "áĮĪáĭį": 4368,
      "ĠAlakoso": 4369,
      "ĠáĮ¥áĬķáī³áĭĬ": 4370,
      "umb": 4371,
      "A.": 4372,
      "Ġ(J": 4373,
      "Ġolo": 4374,
      "t.": 4375,
      "ĠáīĢáĬĵáīµ": 4376,
      "ĠÎ": 4377,
      "ĠOctober": 4378,
      "men": 4379,
      "Ġtáº¹ÌĢ": 4380,
      "Ġ(p": 4381,
      "áĮĪáĪª": 4382,
      "Ġáĭ¨áĪĻ": 4383,
      "ĠáĬłáĪģáĬķ": 4384,
      "áĭ®áĪŃ": 4385,
      "sÃ¬kÃ²": 4386,
      "Ġlá»įÌģwá»įÌģ": 4387,
      "Ġba.": 4388,
      "wanda": 4389,
      "Ġ2012": 4390,
      "ĠÆĺ": 4391,
      "Ġ(E": 4392,
      "Ġáīł18": 4393,
      "Ġile-": 4394,
      "áĪĽáī½": 4395,
      "áĭ³áĪĿ": 4396,
      "áĪ©áīµ": 4397,
      "Ġ0": 4398,
      "Ġmusamman": 4399,
      "Ġkwaikwayo": 4400,
      "vement": 4401,
      "ĠBahari": 4402,
      "Ġagbegbe": 4403,
      "ĠáĭĵáĪĪáĪĿ": 4404,
      "Ġ2014": 4405,
      "ĠáīłáĬłáĬķáĭµ": 4406,
      "Ġlá»įÌģdÃºn": 4407,
      "Ġsyst": 4408,
      "iter": 4409,
      "ĠYar": 4410,
      "ĠMon": 4411,
      "áĭ®áĪµ": 4412,
      "áĪ»áĭİáī½": 4413,
      "áī»áĭŃáĬĵ": 4414,
      "ĠáĪŀáīµ": 4415,
      "áĪŃáĪµáī²áĭ«": 4416,
      "ĠáįĵáĪŃáī²": 4417,
      "ing,": 4418,
      "-m": 4419,
      "Ġkila": 4420,
      "Ã©,": 4421,
      "kiya": 4422,
      "Ġsub": 4423,
      "col": 4424,
      "angan": 4425,
      "Ġd'un": 4426,
      "rid": 4427,
      "áįĦ": 4428,
      "iru": 4429,
      "áĪĽáĪŃ": 4430,
      "ĠáĭĪáĪ¨": 4431,
      "áĭĪáĪŃ": 4432,
      "áįĪáĪĪ": 4433,
      "Ġvile": 4434,
      "Ġtáº¹Ìģláº¹ÌĢ": 4435,
      "ugu": 4436,
      "Ġtaima": 4437,
      "tokea": 4438,
      "iste": 4439,
      "ĠPo": 4440,
      "rew": 4441,
      "Ġáīłáīµ": 4442,
      "áī³áī¸áĭįáĬķ": 4443,
      "Ġmaa": 4444,
      "ĠáĬłáĬķáĭ³": 4445,
      "Ġentre": 4446,
      "ĠÃī": 4447,
      "Ġbila": 4448,
      "illa": 4449,
      "Ġkamfanin": 4450,
      "ĠMajalisar": 4451,
      "áĪĵ": 4452,
      "áĪĪáī¥": 4453,
      "Ġfáº¹Ìģ": 4454,
      "itt": 4455,
      "Ġbeen": 4456,
      "tim": 4457,
      "ĠIII": 4458,
      "alu": 4459,
      "ĠOb": 4460,
      "Ġ187": 4461,
      "Ġ|-": 4462,
      "ĠáĪĺáĬķáĮįáĪµáīµ": 4463,
      "Tare": 4464,
      "ÙĲ": 4465,
      "ĠMto": 4466,
      "kua": 4467,
      "Ġarewa": 4468,
      "Ġsiyasa": 4469,
      "199": 4470,
      "tive": 4471,
      "arch": 4472,
      "Ġmama": 4473,
      "ĠÃ¬gbÃ©": 4474,
      "ollywood": 4475,
      "ov": 4476,
      "Ġutawala": 4477,
      "kur": 4478,
      "ĠAlex": 4479,
      "jÃ²": 4480,
      "áĮ¹": 4481,
      "áī£áĪŃ": 4482,
      "ĠOba": 4483,
      "tÃłkÃ¬": 4484,
      "ĠÃģf": 4485,
      "áĭ¨áĪ±áĪµ": 4486,
      "eman": 4487,
      "ki.": 4488,
      "ers,": 4489,
      "Ġzaman": 4490,
      "ĠFizikia": 4491,
      "ĠNÃŃ": 4492,
      "ĠáĬ¥áĬķáĪµ": 4493,
      "Ġáī¥áĪĪáĭį": 4494,
      "Ġáĭ°áī¡áī¥": 4495,
      "ĠQu": 4496,
      "ĠDu": 4497,
      "áĪįáĭ°": 4498,
      "ĠolÃº": 4499,
      "ed.": 4500,
      "unifÃ¡": 4501,
      "Ġlambar": 4502,
      "Ġjagor": 4503,
      "ĠMarch": 4504,
      "ĠFaransa": 4505,
      "Ġidadi": 4506,
      "ĠHot": 4507,
      "ĠAdÃ©": 4508,
      "Ġ2.": 4509,
      "áį¡áĭ¨": 4510,
      "ĠKiingereza": 4511,
      "ĠCent": 4512,
      "h,": 4513,
      "Ġá¹¢": 4514,
      "Ġayyukan": 4515,
      "Ġsani": 4516,
      "ulation": 4517,
      "Ġkarkashin": 4518,
      "Ġáĭ¨áĬĲáīłáĪ¨áĭį": 4519,
      "35": 4520,
      "amad": 4521,
      "wiki": 4522,
      "||": 4523,
      "julikana": 4524,
      "Ita": 4525,
      "áīº": 4526,
      "Ġsim": 4527,
      "áĪĮáĬŃáīµ": 4528,
      "ĠáĭµáĪĿ": 4529,
      "ĠáįĪáĪŃáĭĸ": 4530,
      "ĠÃģfrÃŃkÃł": 4531,
      "Ġ(L": 4532,
      "keo": 4533,
      "Ġ2003": 4534,
      "Ka": 4535,
      "Ġkazi": 4536,
      "dá»įÌģ": 4537,
      "Ġmá»į": 4538,
      "áĭĭáīµ": 4539,
      "score0": 4540,
      "Ġdir": 4541,
      "ely": 4542,
      "198": 4543,
      "/)": 4544,
      "my": 4545,
      "ĠYo": 4546,
      "áī¼": 4547,
      "ancin": 4548,
      "ĠKati": 4549,
      "Ġjari": 4550,
      "áĮįáĬķ": 4551,
      "áĮįáĪį": 4552,
      "Ġá»įÌĢrá»įÌĢ": 4553,
      "ĠáĬķáĮīáĪµ": 4554,
      "yansi": 4555,
      "ffun": 4556,
      "Ġasa": 4557,
      "tab": 4558,
      "pÃ¨": 4559,
      "Ġkn": 4560,
      "ĠAir": 4561,
      "áĪĭáĪīáį¢": 4562,
      "ye-": 4563,
      "ĠáĬłáĬ«áĪį": 4564,
      "lor": 4565,
      "ĠØ§": 4566,
      "ĠAbdul": 4567,
      "Ġapa": 4568,
      "Ġ(s": 4569,
      "Ġhukuma": 4570,
      "áī¥áĭĻ": 4571,
      "Ġinto": 4572,
      "bÃłdÃłn": 4573,
      "atan": 4574,
      "Ġidi": 4575,
      "Ġmod": 4576,
      "Ġbang": 4577,
      "Ki": 4578,
      "áĬ¨áĪ«": 4579,
      "Ġáĭ¨áĪļáĪį": 4580,
      "Ġá¹£Ã¹gbá»įÌģn": 4581,
      "ĠáĪĨáĬĲáĭį": 4582,
      "áĮłáīĥáĪĭáĭŃ": 4583,
      "ĠÃ²á¹£erÃ©": 4584,
      "yyun": 4585,
      "umma": 4586,
      "áĬĲáīłáĪŃ": 4587,
      "ĠTura": 4588,
      "Ġkayan": 4589,
      "Ġasalin": 4590,
      "ongozi": 4591,
      "Vi": 4592,
      "Ġten": 4593,
      "Ġdali": 4594,
      "kiwa": 4595,
      "ci,": 4596,
      "Ġcal": 4597,
      "adhi": 4598,
      "Ġfilm": 4599,
      "Itokasi": 4600,
      "pÃ¹": 4601,
      "gbÃ¬": 4602,
      "ĠFasihi": 4603,
      "Ġáĭ¨áĪĿáīµ": 4604,
      "ete": 4605,
      "ondo": 4606,
      "ĠDel": 4607,
      "Ġsunan": 4608,
      "ifaffun": 4609,
      "tomon": 4610,
      "ĠnÃ¬": 4611,
      "Ġfe": 4612,
      "áī³áĭ°": 4613,
      "ÃŃnÃŃ": 4614,
      "áĬ©áĪį": 4615,
      "áĮłáīĢáĪĿ": 4616,
      "istory": 4617,
      "Na": 4618,
      "Ġmalla": 4619,
      "ĠAcadem": 4620,
      "Ä«": 4621,
      "áĪįáįį": 4622,
      "is.": 4623,
      "Ġáī°áĬĲ": 4624,
      "ko,": 4625,
      "áĪ©áĬķ": 4626,
      "yika": 4627,
      "ĠRoma,": 4628,
      "ĠáĪ³áĭŃáĪĨáĬķ": 4629,
      "Ġwat": 4630,
      "ĠPi": 4631,
      "-S": 4632,
      "6-": 4633,
      "Ġhak": 4634,
      "Ġprin": 4635,
      "Ġmn": 4636,
      "áĪįáį¡áį¡": 4637,
      "áĭ«áĭį": 4638,
      "ĠáĪĺáĮ»": 4639,
      "ĠTari": 4640,
      "ĠPl": 4641,
      "ĠUganda": 4642,
      "ĠÃłgbÃ©lÃ©wÃ²": 4643,
      "Ġbisa": 4644,
      "Ġd'a": 4645,
      "Ġ2,": 4646,
      "Ġnau": 4647,
      "S.": 4648,
      "anisha": 4649,
      "Ġmot": 4650,
      "Ġáīłáīħ": 4651,
      "ÃºsÃ¹": 4652,
      "Ġiá¹£": 4653,
      "ĠáĬłáī£áĪį": 4654,
      "Ġkifo": 4655,
      "arci": 4656,
      "Ġpres": 4657,
      "ĠSun": 4658,
      "aux": 4659,
      "Ġkwallon": 4660,
      "ĠAbi": 4661,
      "Ġwe": 4662,
      "ĠáĪĪáĭį": 4663,
      "ĠáĪĽáĪħ": 4664,
      "áĮłáįĭ": 4665,
      "âĢĻar": 4666,
      "áĪĦáĭµ": 4667,
      "ĠáĬŃáĪįáĪį": 4668,
      "sin": 4669,
      "ĠIt": 4670,
      "gne": 4671,
      "ĠAmerika.": 4672,
      "ĠGir": 4673,
      "áī¬": 4674,
      "áĮ³": 4675,
      "Ġlar": 4676,
      "áĪ«áĪµ": 4677,
      "ĠHo": 4678,
      "Ġáĭ¨áī°áĪĪáĭ«áĭ©": 4679,
      "Ġáī³áĪĭáīħ": 4680,
      "ĠAlÃ¡": 4681,
      "ĠKananan": 4682,
      "Ġkup": 4683,
      "Ġ2005": 4684,
      "Ġ185": 4685,
      "Ar": 4686,
      "ID": 4687,
      "ĠSaint": 4688,
      "ĠáĬĳ": 4689,
      "Ġáĭ¨áĭ°": 4690,
      "áĪįáīµ": 4691,
      "Ġnada": 4692,
      "ĠnÃŃtorÃŃ": 4693,
      "Ġ2013": 4694,
      "ĠNaijiria.": 4695,
      "ĠáĪĽáĪµáī³áĭĪ": 4696,
      "ĠOri": 4697,
      "ilu": 4698,
      "huwar": 4699,
      "Ġused": 4700,
      "ĠáĭĲ": 4701,
      "ĠAwards": 4702,
      "Ġojo": 4703,
      "alis": 4704,
      "ĠalÃłÃł": 4705,
      "Ġshirin": 4706,
      "Ġbiashara": 4707,
      "gbÃ¡yÃ©": 4708,
      "ĠáīłáĬ¥áĬķáĮįáĪĬáĭĿáĬĽ": 4709,
      "ĠalÃłÃłyÃ¨": 4710,
      "sÃ³": 4711,
      "Ġdari": 4712,
      "hem": 4713,
      "ĠDola": 4714,
      "Ġd'une": 4715,
      "ĠKudu": 4716,
      "Ġtsohon": 4717,
      "µáį": 4718,
      "ania.": 4719,
      "Ġáĭ¨áĮĪ": 4720,
      "ĠáĬłáĭµ": 4721,
      "yÃłwÃ³": 4722,
      "ĠpÃłtÃłkÃ¬": 4723,
      "ler": 4724,
      "Ġkuhusu": 4725,
      "Ġambao": 4726,
      "Ġkara": 4727,
      "vernment": 4728,
      "hÃłn": 4729,
      "wá»įÌĢn": 4730,
      "áĪµáī±": 4731,
      "Ġyabo": 4732,
      "á»ĮÌĢ": 4733,
      "ages": 4734,
      "ĠLondon": 4735,
      "Ġvo": 4736,
      "As": 4737,
      "káº¹Ìģ": 4738,
      "Ġyo": 4739,
      "Ġyote": 4740,
      "Ġhata": 4741,
      "cer": 4742,
      "badi": 4743,
      "ford": 4744,
      "Ùı": 4745,
      "Ġchi": 4746,
      "ĠISBN": 4747,
      "Ġede": 4748,
      "ĠáĪ©": 4749,
      "Ġnjia": 4750,
      "yayyun": 4751,
      "Ġciki": 4752,
      "Ġáīłáĭļáĭ«": 4753,
      "ĠÃ¬bÃŃláº¹ÌĢ": 4754,
      "áī²áĬķ": 4755,
      "áĮłáĪį": 4756,
      "ĠáĪĢáĮĪáĪŃ": 4757,
      "ĠKanisa": 4758,
      "ĠRu": 4759,
      "lie": 4760,
      "indi": 4761,
      "himu": 4762,
      "chni": 4763,
      "ĠkÃ¬": 4764,
      "áīłáĪĮ": 4765,
      "áĮ¥áĬķáī³áĭĬ": 4766,
      "ĠAsi": 4767,
      "phy": 4768,
      "Ġáĭ¨áī°áī£áĪĪáĭį": 4769,
      "ĠáĪ²áĪĨáĬķáį£": 4770,
      "ĠáĪĺáĪłáĪ¨áīµ": 4771,
      "AN": 4772,
      "ĠKiswahili": 4773,
      "ences": 4774,
      "ĠdÃł": 4775,
      "áī°áĭĭáĪįáį¢": 4776,
      "Ġáĭ¨áĪĮ": 4777,
      "ari,": 4778,
      "ĠáĭĻáĪªáĭ«": 4779,
      "Ġ'yar": 4780,
      "Ġ'Yan": 4781,
      "kri": 4782,
      "endo": 4783,
      "48": 4784,
      "Ġ(n": 4785,
      "ĠAll": 4786,
      "áĪŃáĪĭáĬķáĭµ": 4787,
      "áĪĭáĪī": 4788,
      "ji,": 4789,
      "áī¶áī¹": 4790,
      "ĠáĬ¥áĮħáĮį": 4791,
      "Ġmasa": 4792,
      "huo": 4793,
      "ach": 4794,
      "gent": 4795,
      "Ġjerin": 4796,
      "áĪŃáĮį": 4797,
      "ĠáĮĨ": 4798,
      "áĭŃáĬĲáīµ": 4799,
      "áĪ«áī¸áĭį": 4800,
      "áĬŃáĪĪ": 4801,
      "ation.": 4802,
      "ĠnÃ¡Ãł,": 4803,
      "Ġá»ĮdÃºn": 4804,
      "-áº¹ÌĢyáº¹": 4805,
      "áī¨áĪŃ": 4806,
      "vie": 4807,
      "Ġpos": 4808,
      "ji.": 4809,
      "Ġvisiwa": 4810,
      "mer": 4811,
      "onge": 4812,
      "Ġláº¹Ìģ": 4813,
      "ĠáĬłáĬĲ": 4814,
      "ĠIle": 4815,
      "ĠáįĢ": 4816,
      "áįįáĬĵ": 4817,
      "áĭĺáī¥": 4818,
      "áĪ±áĬķ": 4819,
      "hal": 4820,
      "-B": 4821,
      "áĬ¨áĪŃ": 4822,
      "áĬ«áī£áī¢": 4823,
      "áĪİáĬķ": 4824,
      "áĪĥáĬķ": 4825,
      "ká»įÌĢwÃ©": 4826,
      "Ġmace": 4827,
      "asaha": 4828,
      "Ġlanguage": 4829,
      "iran": 4830,
      "tudi": 4831,
      "tr": 4832,
      "fáº¹ÌĢ": 4833,
      "Ġlu": 4834,
      "bakar": 4835,
      "áĬĲáīłáĪ¨": 4836,
      "áĪªáī³": 4837,
      "ĠHistoria": 4838,
      "row": 4839,
      "ĠáĬ«áĪį": 4840,
      "ĠolÃ³á¹£Ã¨lÃº": 4841,
      "Ġmajalisar": 4842,
      "Ġosere": 4843,
      "Ġá»įÌĢpá»įÌĢlá»įpá»įÌĢ": 4844,
      "ĠGeorge": 4845,
      "75": 4846,
      "anti": 4847,
      "ĠdÃº": 4848,
      "enne": 4849,
      "ĠdÃ©c": 4850,
      "Ġ(a": 4851,
      "Ġkusa": 4852,
      "ĠMungu": 4853,
      "Ġmasana": 4854,
      "ĠYamma": 4855,
      "-da": 4856,
      "ĠKya": 4857,
      "áĬŃáĪŃáĪµáī²áĭ«áĬķ": 4858,
      "áĪīáĪĿ": 4859,
      "ĠáĮį.": 4860,
      "Ġafter": 4861,
      "yana": 4862,
      "Ġyara": 4863,
      "ĠMusulunci": 4864,
      "Ġpi": 4865,
      "wÃ¹": 4866,
      "ĠAwá»įn": 4867,
      "áī½áĪį": 4868,
      "áĮĪáĬĽ": 4869,
      "ĠáĪĺáĪ¨áĮĥ": 4870,
      "áī£áĪįáį¢": 4871,
      "ĠáĪĽáĮ£": 4872,
      "áī²áĬŃ": 4873,
      "ĠáĭŃáī½áĪĭáĪįáį¢": 4874,
      "Ġnam": 4875,
      "rahim": 4876,
      "196": 4877,
      "Ġnyingine": 4878,
      "yd": 4879,
      "ĠApril": 4880,
      "vuti": 4881,
      "atum": 4882,
      "Ġkaratu": 4883,
      "Ġkawaida": 4884,
      "unge": 4885,
      "ĠAustra": 4886,
      "gbara": 4887,
      "entomon": 4888,
      "áĭ«áĪµ": 4889,
      "ĠÃ¬l": 4890,
      "ĠEnglish": 4891,
      "ĠáĭŃáī³áĭĪáīĥáĪįáį¢": 4892,
      "sai": 4893,
      "Hi": 4894,
      "Ġdini": 4895,
      "Ġcor": 4896,
      "ĠMutane": 4897,
      "ĠPeople": 4898,
      "áĪŃ-": 4899,
      "ĠowÃ³": 4900,
      "áĪ³áī°": 4901,
      "Ġáī°áįĪ": 4902,
      "ĠáĭŃáĭĪ": 4903,
      "ĠáĭŃáī»": 4904,
      "ĠáīłáĪį": 4905,
      "áĪĪáī°áĬĽáĭį": 4906,
      "Ã¡Ã¬sÃŃ": 4907,
      "Ġmbili": 4908,
      "ĠKongo": 4909,
      "ĠGÃ³mÃ¬nÃł": 4910,
      "kunan": 4911,
      "Ġl'a": 4912,
      "gá»įÌģ": 4913,
      "áĬ½": 4914,
      "áĬĭáĪĭ": 4915,
      "ĠáĬ¥áĭµ": 4916,
      "ĠWas": 4917,
      "ĠáĬ¥áĬķáĭ°áĪĨáĬĲ": 4918,
      "áĪ²áĬķ": 4919,
      "ĠapÃ¡": 4920,
      "dÃŃnlÃ³gÃºn": 4921,
      "ĠáĪĺáĪĪ": 4922,
      "arly": 4923,
      "ista": 4924,
      "Ġacc": 4925,
      "fika": 4926,
      "It": 4927,
      "ĠEs": 4928,
      "Ãªme": 4929,
      "áĬ¾": 4930,
      "Ġif": 4931,
      "ĠIjoba": 4932,
      "Ġzote": 4933,
      "Ġáĭ¨áĪĨáĬĳ": 4934,
      "Ġáĭ©áĬĴ": 4935,
      "ĠfranÃ§a": 4936,
      "da.": 4937,
      "Ã¼": 4938,
      "Ġbahari": 4939,
      "ĠHaifaffun": 4940,
      "Ġn.k.": 4941,
      "áī¥áĪĬáĬŃ": 4942,
      "ĠTan": 4943,
      "Ġáĭ«áĪī": 4944,
      "ĠKil": 4945,
      "Ġ2018": 4946,
      "cle": 4947,
      "Ġmost": 4948,
      "ÆĻa": 4949,
      "Ġ1999": 4950,
      "yal": 4951,
      "áĬķáĮ«": 4952,
      "Ġáĭ¨áĪĭ": 4953,
      "áīłáĭį": 4954,
      "áīłáĬĽ": 4955,
      "Ġáī°áīĭ": 4956,
      "áīĥáĪį": 4957,
      "Ġonimo": 4958,
      "áįĵáĬķáĭ«": 4959,
      "Ġáīłáĭ°áī¡áī¥": 4960,
      "ourn": 4961,
      "kumbu": 4962,
      "isto": 4963,
      "ĠBBC": 4964,
      "áĭ«áĭ«": 4965,
      "alÃ¡Ã¬sÃŃ": 4966,
      "ando": 4967,
      "áĭ¨áĭį": 4968,
      "Ġilimin": 4969,
      "ĠMart": 4970,
      "arautar": 4971,
      "burg": 4972,
      "ĠKemia": 4973,
      "ĠPas": 4974,
      "Ġtwo": 4975,
      "ky": 4976,
      "36": 4977,
      "áĬ¡": 4978,
      "áĪĪáĭ°": 4979,
      "ĠáĪĺáĭĭ": 4980,
      "ĠáĬ«áĪĮ": 4981,
      "Ġmwanamuziki": 4982,
      "ĠwaÉĹanda": 4983,
      "ubu": 4984,
      "ties": 4985,
      "ital": 4986,
      "the": 4987,
      "Ġ(R": 4988,
      "ye.": 4989,
      "-Ãºn": 4990,
      "áĬ«áĪį": 4991,
      "áĭĽáĪ¬": 4992,
      "darÃŃ": 4993,
      "ĠHer": 4994,
      "CO": 4995,
      "Ġmagharibi": 4996,
      "áĮ¼": 4997,
      "áĬĲáī¶áī½": 4998,
      "ĠáĪĺáī¶": 4999,
      "áĭĪáīħ": 5000,
      "Ġáĭ¨áī°áĬŃáĪī": 5001,
      "Ġrais": 5002,
      "áīģáĪŃ": 5003,
      "ĠBal": 5004,
      "Ġoffi": 5005,
      ".,": 5006,
      "orÃŃ": 5007,
      "Ġ2016": 5008,
      "Ġcer": 5009,
      "ĠáīłáĬ¨": 5010,
      "áĬĲáīµáĬķ": 5011,
      "Ġreli": 5012,
      "Ġtafi": 5013,
      "34": 5014,
      "ĠOpen": 5015,
      "ving": 5016,
      "to,": 5017,
      "Ġer": 5018,
      "Ġaut": 5019,
      "Ġáĭ¨áįĸ": 5020,
      "áĭ¨áĪĺ": 5021,
      "Awon": 5022,
      "Ġkun": 5023,
      "Ġsome": 5024,
      "âĢ¦": 5025,
      "áī³áī½áĬķ": 5026,
      "áĭĺáĬķ": 5027,
      "áĪĬáĭ®áĬķ": 5028,
      "áĭ°áĪ¨áĮī": 5029,
      "ĠJames": 5030,
      "ilia": 5031,
      "vir": 5032,
      "ĠSw": 5033,
      "Ġhudu": 5034,
      "tumia": 5035,
      "ĠØ§ÙĦ": 5036,
      "ide": 5037,
      "irÃŃ": 5038,
      "ĠÃ¬á¹£": 5039,
      "ĠáĭŃáĮłáīĢ": 5040,
      "ĠáīłáĪ¨": 5041,
      "áįĪáĬķ": 5042,
      "áĪŀáīµ": 5043,
      "ĠáĮĪáī¥": 5044,
      "ĠáĭĵáĪĺáī±": 5045,
      "ĠAsia": 5046,
      "á¹£áº¹ÌĢláº¹ÌĢ": 5047,
      "haa": 5048,
      "ather": 5049,
      "ĠLes": 5050,
      "Ġhaifi": 5051,
      "Ġmagana": 5052,
      "Ġlab": 5053,
      "jÃ³": 5054,
      "áĭµáĪµáīµ": 5055,
      "áįįáĪªáĬ«": 5056,
      "áĬĳáĪµ": 5057,
      "áĮłáĪĭ": 5058,
      "ĠSud": 5059,
      "Ġrel": 5060,
      "el,": 5061,
      "ines": 5062,
      "rent": 5063,
      "ĠHukum": 5064,
      "Awá»įn": 5065,
      "ject": 5066,
      "áĭ£": 5067,
      "Ġáĭ±": 5068,
      "ĠkÃł": 5069,
      "Ġegbe": 5070,
      "áī¢áīµ": 5071,
      "sÃŃtÃ¬": 5072,
      "áĬłáĪĿ": 5073,
      "ĠRayayyun": 5074,
      "Ġáĭ¨áĪ°áĭį": 5075,
      "lem": 5076,
      "Ġsign": 5077,
      "ĠBritish": 5078,
      "ĠFI": 5079,
      "ĠPaul": 5080,
      "ĠáĪĺáĮ¥": 5081,
      "Ġáį«": 5082,
      "ĠáĬłáĪ°": 5083,
      "ĠáīµáĪįáīħ": 5084,
      "áĬ¥áĮįáĭļáĬłáī¥áĪĶáĪŃ": 5085,
      "eph": 5086,
      "ĠáĪľáīµáĪŃ": 5087,
      "DP": 5088,
      "elles": 5089,
      "Â²": 5090,
      "ĠJuly": 5091,
      "Ġfarkon": 5092,
      "ĠKaskazini": 5093,
      "Ġhalarci": 5094,
      "áĮĪáĬĲ": 5095,
      "ĠÃ¬dÃ¡": 5096,
      "áĬłáĪį": 5097,
      "ĠáĪķáĭĿ": 5098,
      "ĠáįķáĪ¬áĭļ": 5099,
      "kiti": 5100,
      "anna": 5101,
      "Ġmwenye": 5102,
      "To": 5103,
      "kiri": 5104,
      "kia": 5105,
      "yama": 5106,
      "ĠÃłÃł": 5107,
      "ĠáĬ¨áĪĽ": 5108,
      "ĠáĭįáĮ¤": 5109,
      "Ġkáº¹rin": 5110,
      "stit": 5111,
      "sent": 5112,
      "ĠLib": 5113,
      "Ġnew": 5114,
      "ĠÃĮbÃłdÃłn": 5115,
      "ĠáĪ¥áĪĭáĪ´": 5116,
      "Ġ(W": 5117,
      "37": 5118,
      "tÃ¡": 5119,
      "vis": 5120,
      "Ġáĭŀ": 5121,
      "Ġshuga": 5122,
      "ĠlÃ²": 5123,
      "sition": 5124,
      "áīħáĪµ": 5125,
      "Ġharshen": 5126,
      "ĠáīłáĬ©áĪį": 5127,
      "Ġgen": 5128,
      "ĠHen": 5129,
      "ĠEurope": 5130,
      "itin": 5131,
      "Ġaussi": 5132,
      "Tana": 5133,
      "Un": 5134,
      "áĬķáĭ³áĪŃ": 5135,
      "ĠáĮįáī¥áĮ½": 5136,
      "aria": 5137,
      "ĠNchi": 5138,
      "Ġpwani": 5139,
      "áĭķáĭĿ": 5140,
      "Ã¨me": 5141,
      "áĪ«áĪĿ": 5142,
      "áĪªáīµ": 5143,
      "áīĢáĪį": 5144,
      "áĬ¨áī°áĪĪáĭį": 5145,
      "dent": 5146,
      "gon": 5147,
      "ĠYan": 5148,
      "Ġndi": 5149,
      "Ġcutar": 5150,
      "chn": 5151,
      "Ġwakil": 5152,
      "Ġrubuta": 5153,
      "yer": 5154,
      "pport": 5155,
      "ambu": 5156,
      "ga,": 5157,
      "dhi": 5158,
      "áĪµáī°áĬĽ": 5159,
      "Ġgbe": 5160,
      "us.": 5161,
      "áĭ³áĮħ": 5162,
      "ĠáĭµáĬķ": 5163,
      "ĠáīģáĮ¥": 5164,
      "ĠáĮ½áĪĳáįį": 5165,
      "ption": 5166,
      "Ġlokaci": 5167,
      "Ġtarihi": 5168,
      "Ġmore": 5169,
      "Agbegbe": 5170,
      "Ð¸": 5171,
      "ĠMusa": 5172,
      "ĠMkoa": 5173,
      "áī£áĪī": 5174,
      "ĠáĪĪáī°": 5175,
      "ĠáĬ¥áĬķáĭ°áī°": 5176,
      "Ġráº¹ÌĢ,": 5177,
      "ĠáīłáĪĺáĪĨáĬĳ": 5178,
      "ĠKiarabu": 5179,
      "Ġgwamnatin": 5180,
      "''": 5181,
      "Ġfit": 5182,
      "Ġvol": 5183,
      "gram": 5184,
      "Ġ1960": 5185,
      "Ġ2008": 5186,
      "áĪĪáĪģ": 5187,
      "Ġigb": 5188,
      "Ġá»įba": 5189,
      "áĬłáĭŃ": 5190,
      "áĪ¥áī±": 5191,
      "ĠáĪħáĭĿáī¥": 5192,
      "áĮİáĪŃáĮİáĪŃ": 5193,
      "Ġakoko": 5194,
      "ÙĴ": 5195,
      "ye,": 5196,
      "ĠFM": 5197,
      "ĠÃ©tÃ©": 5198,
      "Ġnipa": 5199,
      "áĭ³áĬķáīµ": 5200,
      "ĠáĪµáĪĪáĭļáĪħ": 5201,
      "áº¹ÌĢáº¹ÌģsÃ¬": 5202,
      "ĠilÃ©-iá¹£áº¹Ìģ": 5203,
      "yari": 5204,
      "Ġsc": 5205,
      "Ġbinc": 5206,
      "ataifa": 5207,
      "Ġnum": 5208,
      "Ġ--": 5209,
      "ĠVol": 5210,
      "ie": 5211,
      "ÃºÃºsÃ¹": 5212,
      "ĠáĬłáī£áīµ": 5213,
      "ĠáĭŃáĬĲ": 5214,
      "áĬªáĭ«": 5215,
      "ĠáĪĿáĬķáĮŃ": 5216,
      "Ġáĭ¨áĪĺáĮĢáĪĺáĪªáĭ«áĭį": 5217,
      "Ġkisiwa": 5218,
      "Ġbet": 5219,
      "arab": 5220,
      "tical": 5221,
      "Éĵa": 5222,
      "ĠIbile": 5223,
      "áī§": 5224,
      "Ġover": 5225,
      "ĠáĬłáĭ¨áĪŃ": 5226,
      "Ġmad": 5227,
      "Ġáĭ¨áĬĸ": 5228,
      "áĬłáĬķ": 5229,
      "ĠáĬŃáĪŃáĪµáī¶áĪµ": 5230,
      "Ġsous": 5231,
      "yáº¹yáº¹": 5232,
      "ĠáįĬáĭ°áĪį": 5233,
      "ĠáĪ«áĪµ": 5234,
      "ĠáĪĺáĮłáĬķ": 5235,
      "áįĪáĮ¥áĪ®": 5236,
      "yp": 5237,
      "kÃ©": 5238,
      "Ġuti": 5239,
      "ĠLove": 5240,
      "Ġ2017": 5241,
      "ĠMarejeo": 5242,
      "Ġfait": 5243,
      "Ġzamani": 5244,
      "Ġabubu": 5245,
      "áĮ¾": 5246,
      "áī£áī¥": 5247,
      "ĠáīłáĪĨ": 5248,
      "ĠWá»įÌģn": 5249,
      "ĠPr": 5250,
      "ĠáĬ¥áĬķáĬ³": 5251,
      "áĭĽáĭĿ": 5252,
      "berg": 5253,
      "ĠáĬłáĭŃáĭ°áĪĪáĪĿ": 5254,
      "zil": 5255,
      "ãĥ": 5256,
      "ped": 5257,
      "On": 5258,
      "port": 5259,
      "ĠAba": 5260,
      "ĠáīłáĪ«": 5261,
      "Ġ2009": 5262,
      "Ġáº¹ÌĢyáº¹": 5263,
      "ĠáĬłáĬķáĭ³áĬķáĭµ": 5264,
      "Ġiwe": 5265,
      "Ġpili": 5266,
      "Ã¤": 5267,
      "0,000": 5268,
      "-K": 5269,
      "ĠTra": 5270,
      "papá»įÌĢ": 5271,
      "ĠMakar": 5272,
      "áĬĿáĬĲáīµ": 5273,
      "xt": 5274,
      "Ð¾": 5275,
      "ĠYoruba": 5276,
      "aso": 5277,
      "stitu": 5278,
      "4-": 5279,
      "ĠAdam": 5280,
      "ĠáĪĺáĪ³": 5281,
      "áĪ«áĬ¤áĪį": 5282,
      "áīłáĪ¬": 5283,
      "áĭĿáĪĽáī½": 5284,
      "ĠáĬłáĪĿáĪĭáĬŃ": 5285,
      "Ġshirya": 5286,
      "Tarehe": 5287,
      "Ġnombre": 5288,
      "cience": 5289,
      "ĠYe": 5290,
      "ker": 5291,
      "alth": 5292,
      "Ġneman": 5293,
      "Ġthey": 5294,
      "Ġba,": 5295,
      "ĠKwalejin": 5296,
      "ojÃº": 5297,
      "áĪµáī¶": 5298,
      "ĠSc": 5299,
      "áĭ¨áī°": 5300,
      "und)": 5301,
      "ĠáĬ¨áī°áĪĽáĭį": 5302,
      "ĠáīłáĪĻáĪī": 5303,
      "ĠSara": 5304,
      "ubli": 5305,
      "\")": 5306,
      "ĠJune": 5307,
      "adin": 5308,
      "dinin": 5309,
      "Ġmet": 5310,
      "ĠáĬ¨áĪ°": 5311,
      "ĠtÃŃtÃŃ": 5312,
      "áĬ«áī³": 5313,
      "ĠáĬ¥áĬķáĭ°áĮĪáĬĵ": 5314,
      "ĠáĪĽáĪŃáīĨáĪµ": 5315,
      "Har": 5316,
      "omb": 5317,
      "ĠDemoc": 5318,
      "AS": 5319,
      "ime": 5320,
      "Ã¶": 5321,
      "áĭ«áĭĿ": 5322,
      "ĠáīłáĬ¢": 5323,
      "ĠlÃ¡báº¹Ìģ": 5324,
      "ĠÃłká»įÌģlÃ©": 5325,
      "ĠáĭµáĪŃáĮħáīµ": 5326,
      "ĠáĬ«áĪĮáĬķáĭ³áĪŃ": 5327,
      "ĠNijar": 5328,
      "ctions": 5329,
      "ĠNigeria.": 5330,
      "gani": 5331,
      "hindi": 5332,
      "ient": 5333,
      "Ġ202": 5334,
      "áĪĭáĬķ": 5335,
      "ĠCal": 5336,
      "ĠÃ¬f": 5337,
      "Ġtofauti": 5338,
      "áĪ©áĪĿ": 5339,
      "Ġmashariki": 5340,
      "áīĭáĬķáīĭ": 5341,
      "Ġá»įjá»įÌģalÃ¡Ã¬sÃŃ": 5342,
      "áĬķáĭ³áĬķáĭµ": 5343,
      "kriban": 5344,
      "áĮİáĪŃáĮİáĪŃáĭ«áĬķ": 5345,
      "Ġ(;": 5346,
      "Ġila": 5347,
      "stru": 5348,
      "Ġpart": 5349,
      "ĠGuine": 5350,
      "ĠAbuja": 5351,
      "Ġdhidi": 5352,
      "ĠáĪĺáĮ£": 5353,
      "ĠBorn": 5354,
      "áĪŀáĬŃ": 5355,
      "Ġwá»įn.": 5356,
      "ĠáįķáĪ®": 5357,
      "áĮ£áĪįáĭ«áĬķ": 5358,
      "ĠáīłáĪ½áī³": 5359,
      "ĠáĪĽáĮ£áīĢ": 5360,
      "Ġ()": 5361,
      "Ġpre": 5362,
      "ĠAcademy": 5363,
      "39": 5364,
      "ĠMic": 5365,
      "Tangu": 5366,
      "zing": 5367,
      "chumi": 5368,
      "Ġzaben": 5369,
      "ĠáĬĹ": 5370,
      "áĪŃáĬķ": 5371,
      "áĪįáĮħ": 5372,
      "áī½áĪģ": 5373,
      "Ġáī°áĬĵ": 5374,
      "á»įÌģá»įÌĢlÃ¹": 5375,
      "Ġsasa": 5376,
      "ĠJo": 5377,
      "Ġsuch": 5378,
      "Ġrashin": 5379,
      "bihi": 5380,
      "ÆĻin": 5381,
      "ife": 5382,
      "ĠÆĻungiyar": 5383,
      "ĠWaz": 5384,
      "Ġitace": 5385,
      "Ġpekee": 5386,
      "amaduni": 5387,
      "ĠWal": 5388,
      "31": 5389,
      "upe": 5390,
      "sá»į": 5391,
      "ĠáĪİ": 5392,
      "áī°áĬĽáĭį": 5393,
      "Ã¨res": 5394,
      "áĪ«áĪ½": 5395,
      "áĪµáīµáĬĵ": 5396,
      "ĠgboyÃ¨": 5397,
      "irefu": 5398,
      "com/": 5399,
      "ĠAbubakar": 5400,
      "ĠAnnabi": 5401,
      "ante": 5402,
      "ings": 5403,
      "Ġ2015,": 5404,
      "ĠyÃłn": 5405,
      "Ġinf": 5406,
      "ctor": 5407,
      "Ġáĭ¨áĮ¥": 5408,
      "Ġáīłáįį": 5409,
      "áĪ³áĪį": 5410,
      "ĠáĪĿáĬĵáĪį": 5411,
      "ĠGwamn": 5412,
      "á»įÌĢkan": 5413,
      "bijin": 5414,
      "Ġá»Įjá»įÌģ": 5415,
      "áĭ³áĬķáĭ±": 5416,
      "ĠGerman": 5417,
      "áĭ®áĪŃáĮĬ": 5418,
      "ĠáĪĿáĬĵáĪįáī£áīµ": 5419,
      "kam": 5420,
      "A)": 5421,
      "ĠtÃ¬": 5422,
      "áĪįáīģ": 5423,
      "áĪ¨áį¢": 5424,
      "áĬ¨áī¥": 5425,
      "áĭ´áīµ": 5426,
      "Ġtala": 5427,
      "Ġspe": 5428,
      "ikukuu": 5429,
      "rÃ¹": 5430,
      "ule": 5431,
      "ºáį": 5432,
      "yensi": 5433,
      "Ġáīłáī¥áĭĽáīµ": 5434,
      "anzibar": 5435,
      "Wannan": 5436,
      "ĠWe": 5437,
      "ĠJama": 5438,
      "Ġbayar": 5439,
      "li,": 5440,
      "Ġkina": 5441,
      "áĪŃáį£": 5442,
      "Ġáīµáĭį": 5443,
      "áĮİáĬķ": 5444,
      "ĠwÃ¡yÃ©": 5445,
      "Ġáĭ¨áĭĵáĪĪáĪĿ": 5446,
      "mÃ²": 5447,
      "Ġ2004": 5448,
      "ĠHan": 5449,
      "gua": 5450,
      "Ana": 5451,
      "ĠKÃ¡": 5452,
      "iriki": 5453,
      "omina": 5454,
      "ĠEast": 5455,
      "Láº¹ÌģyÃ¬n": 5456,
      "hÃ¬n": 5457,
      "Ġmjini": 5458,
      "áī°áį¢": 5459,
      "ĠÃłp": 5460,
      "usta": 5461,
      "ĠÃ¬rÃ²yÃ¬n": 5462,
      "Ġáī°áĭĭ": 5463,
      "Ġbai": 5464,
      "áīłáĪ°": 5465,
      "áĪ¥áĪ«áīħ": 5466,
      "Ġáī£áĪį": 5467,
      "ĠáįĪáĪ¨áĬķ": 5468,
      "Ġibile": 5469,
      "Ġáĭ¨áīĢáĬķ": 5470,
      "Ġká»įÌģká»įÌģ": 5471,
      "Ġgege": 5472,
      "Ġnon": 5473,
      "ĠMala": 5474,
      "Ġâ": 5475,
      "Ġag": 5476,
      "kad": 5477,
      "patikana": 5478,
      "¹áį": 5479,
      "ĠáĪ¹": 5480,
      "ĠáīłáĪķ": 5481,
      "áīłáĪī": 5482,
      "áĮ¡áīµ": 5483,
      "Ġcette": 5484,
      "rika": 5485,
      "Ġyaani": 5486,
      "Ġkuji": 5487,
      "Ġmulki": 5488,
      "Ġsou": 5489,
      "ĠáīłáĮİáĪŃáĮİáĪŃáĭ«áĬķ": 5490,
      "ĠáĪįáĭ°áīµ": 5491,
      "ĠáĭµáĬķáĮĭ": 5492,
      "ĠáĬłáĪĪáĪĿ": 5493,
      "Ġlá»į.": 5494,
      "ĠáĬłáĮĪáĪ«áīµ": 5495,
      "áĪıáĪįáį¢": 5496,
      "tit": 5497,
      "ĠLugha": 5498,
      "Ġhuo": 5499,
      "Ġmiji": 5500,
      "ĠCharles": 5501,
      "jan": 5502,
      "Ġáĭ¨áī¥": 5503,
      "ĠáĬłáĭ³": 5504,
      "ĠyÃł": 5505,
      "ĠáĪįáī¥": 5506,
      "hesa": 5507,
      "ĠÆ´": 5508,
      "nam": 5509,
      "Ġoko": 5510,
      "ĠVer": 5511,
      "Ġpata": 5512,
      "ĠPrin": 5513,
      "emo": 5514,
      "195": 5515,
      "ile": 5516,
      "Ġáĭ¨áĪŀ": 5517,
      "istr": 5518,
      "ĠáĪĽáĪµáī³áĭĪáĪ»áĭİáī½": 5519,
      "tÃºn": 5520,
      "ĠTV": 5521,
      "Ġtiti": 5522,
      "ulani": 5523,
      "lymp": 5524,
      "Kuna": 5525,
      "ictor": 5526,
      "tÃº": 5527,
      "tics": 5528,
      "onde": 5529,
      "Ġiá¹£áº¹": 5530,
      "áĬĲáī±áĬķ": 5531,
      "Ġáĭ¨áĬ®": 5532,
      "áĭ«áĬķáĭ³áĬķáĭ±": 5533,
      "Ġdubu": 5534,
      "Ġ1990": 5535,
      "ĠáĬŃáįįáĪİáī½": 5536,
      "Ġáĭ¨áĪļáĭ«áĪµ": 5537,
      "fs": 5538,
      "ĠgÃ©n": 5539,
      "Ko": 5540,
      "ĠNuwa": 5541,
      "karar": 5542,
      "cl": 5543,
      "cis": 5544,
      "Ø¨": 5545,
      "ween": 5546,
      "ĠFilm": 5547,
      "rÃºn": 5548,
      "Ġáī¶": 5549,
      "áĪµáĪĽ": 5550,
      "ĠáĮ«": 5551,
      "ĠOmo": 5552,
      "ĠáĬ¥áĬķáĭ²áĭ«": 5553,
      "Ġ50": 5554,
      "Ġtarihin": 5555,
      "Ġlitta": 5556,
      "Ġdunia": 5557,
      "Ġs'": 5558,
      "ĠoyÃ¨": 5559,
      "ĠáĮ³": 5560,
      "ĠáĬłáī¶": 5561,
      "áĮĪáīµ": 5562,
      "áĬłáīµ": 5563,
      "Ġato": 5564,
      "ones": 5565,
      "Ġtsawon": 5566,
      "ĠIsland": 5567,
      "ĠMiji": 5568,
      "kut": 5569,
      "urch": 5570,
      "cher": 5571,
      "ĠIl": 5572,
      "kh": 5573,
      "Ġmur": 5574,
      "Ġ180": 5575,
      "38": 5576,
      "Manazarta": 5577,
      "¸áį": 5578,
      "áī¾": 5579,
      "Ġtattalin": 5580,
      "Ġáĭ¨áĪĪáĭį": 5581,
      "Ġ(áĬ¥áĬķáĮįáĪĬáĭĿáĬĽ": 5582,
      "Ġgoma": 5583,
      "let": 5584,
      "ĠáĬ¨áĪģ": 5585,
      "ĠUmoja": 5586,
      "Ġ2016,": 5587,
      "Ġáī¥áĭĽáīµ": 5588,
      "Ġgaban": 5589,
      "áī¦áīµ": 5590,
      "Ġcibi": 5591,
      "áĮĪáĪªáī±": 5592,
      "unifÃ¡sÃŃtÃ¬": 5593,
      "Ġ2014,": 5594,
      "Ġhala": 5595,
      "Ġ2012,": 5596,
      "This": 5597,
      "ĠMari": 5598,
      "ĠJana": 5599,
      "7-": 5600,
      "ĠjÃ©": 5601,
      "Ġlabara": 5602,
      "hol": 5603,
      "áĬķáĪ³áĭĬ": 5604,
      "áĪ³áĪ³áĭŃ": 5605,
      "Ġ2017,": 5606,
      "ments": 5607,
      "ĠáĭĿáĪŃáĭ«": 5608,
      "Ġáī¡áĭµáĬķ": 5609,
      "olution": 5610,
      "ĠáĪĪáĪĿáĪ³áĪĮ": 5611,
      "ac": 5612,
      "dia": 5613,
      "sib": 5614,
      "fasi": 5615,
      "Ġ3.": 5616,
      "Ġabout": 5617,
      "unin": 5618,
      "omas": 5619,
      "Wakati": 5620,
      "Ġkabisa": 5621,
      "mani": 5622,
      "isan": 5623,
      "Ġ2011,": 5624,
      "Ġ~": 5625,
      "ĠOlÃº": 5626,
      "Ġ2091": 5627,
      "ĠáĭĪáĪįáĭ°": 5628,
      "Ġáĭ³áĪŃ": 5629,
      "rench": 5630,
      "Ġhawa": 5631,
      "limu": 5632,
      "mai": 5633,
      "Ġindi": 5634,
      "Ġbabbar": 5635,
      "chaguzi": 5636,
      "Ġknown": 5637,
      "pti": 5638,
      "Ġcommun": 5639,
      "ĠAtlan": 5640,
      "Ðµ": 5641,
      "dy": 5642,
      "ráº¹Ìģ": 5643,
      "ĠLou": 5644,
      "reat": 5645,
      "tÃłgÃ©": 5646,
      "Ġ(áĬ¨1892": 5647,
      "liza": 5648,
      "ĠsÃ©": 5649,
      "Ġ1980": 5650,
      "C)": 5651,
      "ĠUS": 5652,
      "áĬķáĭ¶": 5653,
      "Ġáĭ¨áĬ¦": 5654,
      "áĭĵáĬķ": 5655,
      "anzishwa": 5656,
      "sÃ¡ra": 5657,
      "-n": 5658,
      "cia": 5659,
      "ĠShuga": 5660,
      "julo": 5661,
      "Ġáĭ¨áĭ«": 5662,
      "Ġáĭĺáĭ´": 5663,
      "áĪ©áį¢": 5664,
      "=\"": 5665,
      "jÃ¹": 5666,
      "vision": 5667,
      "but": 5668,
      "ball": 5669,
      "Ġtayi": 5670,
      "tokana": 5671,
      "bukumbu": 5672,
      "Ġmuhimu": 5673,
      "ĠDavid": 5674,
      "Ġhankali": 5675,
      "Ġmwanasiasa": 5676,
      "Ġ2019,": 5677,
      "Î¿": 5678,
      "Ġáĭ¨áīĨ": 5679,
      "áīłáīĥ": 5680,
      "Ġáī°áīĥ": 5681,
      "ĠáĮłáīħ": 5682,
      "jáº¹sÃ¡ra": 5683,
      "áī¥áĪ«áĭŃ": 5684,
      "ĠáĬĥáĭŃáĪį": 5685,
      "Ġáĭ¨áĭįáĮŃ": 5686,
      "áĪĮáĬŃáīµáĪªáĬŃ": 5687,
      "Ãºpá»įÌĢ": 5688,
      "Ġwu": 5689,
      "ross": 5690,
      "Ġkin": 5691,
      "-R": 5692,
      "aro": 5693,
      "Ġip": 5694,
      "lisha": 5695,
      "ĠkmÂ²": 5696,
      "gÃ³": 5697,
      "mÃ©": 5698,
      "áĪĪáĪĺ": 5699,
      "ĠÃłgbÃ¡yÃ©": 5700,
      "ĠáĪĽáĪŃáĭ«áĪĿ": 5701,
      "Ġ\"S": 5702,
      "ĠáĮĪáĭ°": 5703,
      "Ġáīłáī°áĮ¨áĪĽáĪª": 5704,
      "áĪĲáįĬ": 5705,
      "-Ã¬wÃ©": 5706,
      "hairi": 5707,
      "ing.": 5708,
      "Ġkasashen": 5709,
      "Ġ(1": 5710,
      "Ġrub": 5711,
      "Ġconsi": 5712,
      "ĠIbrahim": 5713,
      "ĠBri": 5714,
      "Ġvari": 5715,
      "Ġaina": 5716,
      "Ġuk": 5717,
      "Mji": 5718,
      "áĪŃáī±": 5719,
      "Ġ(áĬł": 5720,
      "Ġma'a": 5721,
      "Ġáĭ¨áĪĢ": 5722,
      "ĠáĪĪáĬ¥": 5723,
      "ĠáĭľáĬĵ": 5724,
      "Ġmilli": 5725,
      "Ġmap": 5726,
      "ĠáĬĥáĭŃáĪĪ": 5727,
      "atri": 5728,
      "ĠTs": 5729,
      "Ġprop": 5730,
      "Ġdont": 5731,
      "ulture": 5732,
      "Ġwurin": 5733,
      "ĠWakristo": 5734,
      "olojia": 5735,
      "Î±": 5736,
      "Ġayáº¹yáº¹": 5737,
      "ĠáĬłáīħ": 5738,
      "áĪ«áĭį": 5739,
      "ĠáĬ¨áĪĮ": 5740,
      "ĠáĭŃáĪĦ": 5741,
      "Ġáĭ¨áĪļáī³áĭĪ": 5742,
      "ĠáĮįáĭĽ": 5743,
      "ĠáĮĪáĬķ": 5744,
      "lá»įÌģgbá»įÌĢn": 5745,
      "ubwa": 5746,
      "de.": 5747,
      "Ġont": 5748,
      "ĠAwon": 5749,
      "ĠMor": 5750,
      "ĠMayu": 5751,
      "Ġgwamnati": 5752,
      "vin": 5753,
      "chard": 5754,
      "ateur": 5755,
      "ĠáĬ¥áĬĶ": 5756,
      "áĮ¥áĪĿ": 5757,
      "áĬ¨áĭļáĭ«": 5758,
      "ke,": 5759,
      "Ġ2002": 5760,
      "Ġká»įkÃłn": 5761,
      "ĠáĪĺáĮ»áĪķ": 5762,
      "irst": 5763,
      "gain": 5764,
      "pita": 5765,
      "or,": 5766,
      "tia": 5767,
      "Ġkimanin": 5768,
      "Ġkasuwanci": 5769,
      "Ġkut": 5770,
      "----": 5771,
      "pha": 5772,
      "al.": 5773,
      "ĠâĢĶ": 5774,
      "Â°": 5775,
      "Ã¯": 5776,
      "áĬķáī³": 5777,
      "Ġáĭ¨áĬŃ": 5778,
      "áº¸ÌĢ": 5779,
      "Ġcap": 5780,
      "Ġmwisho": 5781,
      "kta": 5782,
      "ĠdÃ©part": 5783,
      "ĠBank": 5784,
      "ingia": 5785,
      "49": 5786,
      "cs": 5787,
      "Ġnasara": 5788,
      "Ġosu": 5789,
      "Ġ(\"": 5790,
      "áĭµáĬĵ": 5791,
      "áīłáīħ": 5792,
      "áĭĽáĬĽáĭį": 5793,
      "ĠáĪµáĪĪáĪļ": 5794,
      "himman": 5795,
      "Ġmilioni": 5796,
      "kÃ¡láº¹ÌĢ": 5797,
      "ĠáĪĺáĪįáĬŃáĭĵ": 5798,
      "wili": 5799,
      "ĠMy": 5800,
      "eld": 5801,
      "Ġá»Įba": 5802,
      "pu": 5803,
      "Ġ<": 5804,
      "ĠTun": 5805,
      "imi": 5806,
      "Ġ31": 5807,
      "páº¹ÌĢ": 5808,
      "áĪŃáī£": 5809,
      "ĠfÃ¬": 5810,
      "áĭµáĪ¨áĪµ": 5811,
      "ĠáĪĻáĪī": 5812,
      "76": 5813,
      "Ġipo": 5814,
      "ĠáĬłáĪħ": 5815,
      "ĠMaka": 5816,
      "ĠáīĢáĭ³": 5817,
      "Se": 5818,
      "Ġkale": 5819,
      "ĠGar": 5820,
      "Ø¯": 5821,
      "Ġjin": 5822,
      "umla": 5823,
      "Ġamb": 5824,
      "Ġhim": 5825,
      "ĠEmp": 5826,
      "ister": 5827,
      "áīµáĪĿ": 5828,
      "áĬĵáĭŃáīµ": 5829,
      "bi,": 5830,
      "iláº¹ÌĢ": 5831,
      "ra,": 5832,
      "ĠáĬłáĪīáį¢": 5833,
      "gbÃ¬má»įÌĢ": 5834,
      "ÙİÙ": 5835,
      "biwa": 5836,
      "Ġcika": 5837,
      "fuatana": 5838,
      "ĠFIFA": 5839,
      "ĠZam": 5840,
      "limi": 5841,
      "un,": 5842,
      "ĠLÃ¡": 5843,
      "ver,": 5844,
      "ĠpÃłÃ¡": 5845,
      "áĮĪáĪ«áīµ": 5846,
      "áīłáĪ³": 5847,
      "Ġá»įÌĢnÃł": 5848,
      "NÃŃgbÃł": 5849,
      "ĠáĬłáĮĪáĪ®áī½": 5850,
      "Ġáī¥áĪĶáĪ«áĭĬ": 5851,
      "bÃ©": 5852,
      "lub": 5853,
      "bele": 5854,
      "ĠÃ©ta": 5855,
      "sociation": 5856,
      "ĠMil": 5857,
      "ographi": 5858,
      "ĠMw": 5859,
      "et,": 5860,
      "iá¹£áº¹": 5861,
      "áĪµáĪĿ": 5862,
      "ĠáĬ¥áĮįáĭļáĬłáī¥áĪĶáĪŃ": 5863,
      "ĠÃłjá»į": 5864,
      "áĮĪáī¡": 5865,
      "áīĢáĭµáĪŀ": 5866,
      "pokeo": 5867,
      "Ġáī£áĭŃ": 5868,
      "Ġmilima": 5869,
      "ibiyar": 5870,
      "ĠÆ³": 5871,
      "ÃĴun": 5872,
      "ĠáĭĪáĭŃáĬķáĪĿ": 5873,
      "ĠáīĢáĮ¥áĪİ": 5874,
      "olowo": 5875,
      "ar,": 5876,
      "Ġwhen": 5877,
      "ĠYoh": 5878,
      "Ġdawo": 5879,
      "Ġmaana": 5880,
      "uman": 5881,
      "ultur": 5882,
      "Ġal'ad": 5883,
      "losop": 5884,
      "ye-shi": 5885,
      "yáº¹ÌĢ": 5886,
      "Ġáī°áĮįáī£": 5887,
      "áīłáĪµ": 5888,
      "Ġáĭ¨áī°áĪĺ": 5889,
      "áĬłáĪĪ": 5890,
      "ĠÃ²á¹£Ã¨lÃº": 5891,
      "Ġ(H": 5892,
      "Ġwrit": 5893,
      "bawa": 5894,
      "amawa": 5895,
      "ĠArt": 5896,
      "âĢľ": 5897,
      "Ġhili": 5898,
      "Ġkuu": 5899,
      "ĠWatu": 5900,
      "Ġsakand": 5901,
      "ado": 5902,
      "Ġkumbukumbu": 5903,
      "fara": 5904,
      "unda": 5905,
      "orth": 5906,
      "Ġjá»į": 5907,
      "áĪĪáĪĿáĪ³áĪĮ": 5908,
      "áĪ¸áĬĲ": 5909,
      "ĠáĪĽáĮ£áīĢáĪ»": 5910,
      "32": 5911,
      "cul": 5912,
      "iyyar": 5913,
      "val": 5914,
      "inta": 5915,
      "ĠSala": 5916,
      "ollow": 5917,
      "Ġop": 5918,
      "Ġsaur": 5919,
      "ful": 5920,
      "tali": 5921,
      "Ġáīłáį": 5922,
      "Ġáįİ": 5923,
      "ĠáĭŃáĭ©": 5924,
      "Ġáĭ«áĭĺ": 5925,
      "ĠFed": 5926,
      "Ġlilikuwa": 5927,
      "-daban": 5928,
      "99": 5929,
      "cÃ©": 5930,
      "ĠBenin": 5931,
      "tro": 5932,
      "ĠSy": 5933,
      "-E": 5934,
      "ĠdÃ¬": 5935,
      "Ġ(kwa": 5936,
      "áī°áīµ": 5937,
      "áį¡áīł": 5938,
      "adhim": 5939,
      "wÃ²rÃ¡n": 5940,
      "onekana": 5941,
      "Ġdaban-daban": 5942,
      "-s": 5943,
      "ĠEnugu": 5944,
      "Ġidan": 5945,
      "ets": 5946,
      "Ġ2016.": 5947,
      "hilosop": 5948,
      "ĠBib": 5949,
      "ine,": 5950,
      "Ġmirefu": 5951,
      "Ġnafasi": 5952,
      "Ġwadda": 5953,
      "ĠÃłá¹£Ãł": 5954,
      "ĠáĬ¨áĭĪ": 5955,
      "áīħáĭ«": 5956,
      "rÃŃwÃ¡": 5957,
      "ĠáĮ¥áĪ©": 5958,
      "áĭįáĬķáīµ": 5959,
      "ĠNÃłÃ¬jÃŃrÃŃÃł,": 5960,
      "Ġder": 5961,
      "ĠMos": 5962,
      "ĠpÃ¡": 5963,
      "ĠMer": 5964,
      "ifu": 5965,
      "ged": 5966,
      "Ġkungi": 5967,
      "es)": 5968,
      "Ġik": 5969,
      "ĠKasa": 5970,
      "Ġmuda": 5971,
      "frika": 5972,
      "Ġajili": 5973,
      "Ġ(ya": 5974,
      "BÃŃ": 5975,
      "Mo": 5976,
      "wun": 5977,
      "Ġáĭ¨áįĪ": 5978,
      "áĬŃáĬķ": 5979,
      "ĠáīłáĪħ": 5980,
      "Ġleo": 5981,
      "ers.": 5982,
      "jÃ¡de": 5983,
      "á»įÌĢnÃ¹": 5984,
      "ĠáĬłáįįáĪªáĬ«": 5985,
      "ishin": 5986,
      "ĠS.": 5987,
      "1=": 5988,
      "ĠPop": 5989,
      "Ġeff": 5990,
      "ĠJapan": 5991,
      "ĠGold": 5992,
      "ĠFab": 5993,
      "Ġami": 5994,
      "já»įÌĢ": 5995,
      "táº¹ÌĢ": 5996,
      "ĠáĪĺáĪ¬áīµ": 5997,
      "te,": 5998,
      "ĠáīłáĪĽáĪĪáīµ": 5999,
      "ĠáĬ¥áĬķáĮįáĪĬáĭĿáĬĽ": 6000,
      "Ġwalikuwa": 6001,
      "ĠMoham": 6002,
      "bunge": 6003,
      "ĠTanbihi": 6004,
      "ware": 6005,
      "ĠStates": 6006,
      "ĠBello": 6007,
      "áĪŃáī¶": 6008,
      "Ġnigba": 6009,
      "áĬ¨áī³": 6010,
      "ĠDen": 6011,
      "Ġhizi": 6012,
      "ĠVal": 6013,
      "áĭ©áĪµ": 6014,
      "Ġrayuwar": 6015,
      "Ġ40": 6016,
      "áĮ«áĭĪ": 6017,
      "Ġkáº¹ta": 6018,
      "ĠáĪ³áĭŃáĬķáĪ³áĭĬ": 6019,
      "ĠáįĸáĪĪáī²áĬ«": 6020,
      "áī¥áĪ«áĭŃáĪµáĮ¥": 6021,
      "Ġ3,": 6022,
      "estiv": 6023,
      "Ġmapokeo": 6024,
      "ĠCO": 6025,
      "kofu": 6026,
      "Ġcons": 6027,
      "Ġmiliyan": 6028,
      "ĠTarayyar": 6029,
      "áĪ³áĬķ": 6030,
      "Ġeto": 6031,
      "ĠáĮīáĭ³áĭŃ": 6032,
      "Ġbetween": 6033,
      "L'": 6034,
      "kari": 6035,
      "ratic": 6036,
      "ĠWomen": 6037,
      "Ġpartic": 6038,
      "Ġthan": 6039,
      "eu": 6040,
      "Ġ1970": 6041,
      "ichael": 6042,
      "ĠOlu": 6043,
      "Ġhakan": 6044,
      "ire,": 6045,
      "ĠJapani": 6046,
      "ĠáĪ¬": 6047,
      "Ġout": 6048,
      "á¹£irÃŃ": 6049,
      "ĠOá¹£u": 6050,
      "Ġáĭ«áĪ³": 6051,
      "Ġ2018,": 6052,
      "ĠáĬ¥áĬķáĭ³áĭŃ": 6053,
      "ĠáĭĽáĪ¬": 6054,
      "áĭ®áĪŃáĮĬáĪµ": 6055,
      "jÃ©": 6056,
      "Ġlina": 6057,
      "ĠAkin": 6058,
      "irgin": 6059,
      "ĠhaÉĹa": 6060,
      "Ġshida": 6061,
      "47": 6062,
      "áĮĪáĪ¨": 6063,
      "ikan": 6064,
      "ĠáĬ¨áĪĨáĬĲ": 6065,
      "ce-": 6066,
      "Ġáĭ¨áĪļáĪ°": 6067,
      "áīĤáīµ": 6068,
      "Ġaká»įrin": 6069,
      "ĠáĪļáĬĴáĪµáīµ": 6070,
      "cen": 6071,
      "Ġtuntun": 6072,
      "Ġmarubu": 6073,
      "46": 6074,
      "ĠA.": 6075,
      "ĠBr": 6076,
      "ĠMai": 6077,
      "ĠZanzibar": 6078,
      "Ġwork": 6079,
      "Ġtalla": 6080,
      "yayya": 6081,
      "áĪŃáĬĵ": 6082,
      "Ġáĭ¨áįį": 6083,
      "áĪįáĬķ": 6084,
      "áĪµáī´": 6085,
      "asashen": 6086,
      "Ġáīłáī£": 6087,
      "Ġjeshi": 6088,
      "ĠÃ¬p": 6089,
      "ĠOf": 6090,
      "kejÃ¬": 6091,
      "áĬĳáĬķ": 6092,
      "áĬ®áĬĸ": 6093,
      "ĠáĪļáĪĬáĭ®áĬķ": 6094,
      "ĠáīłáĪµáī°": 6095,
      "Ġzilizo": 6096,
      "áĬĺáīµ": 6097,
      "Papa": 6098,
      "rol": 6099,
      "onal": 6100,
      "ety": 6101,
      "Ġhilo": 6102,
      "lished": 6103,
      "anada": 6104,
      "diyya": 6105,
      "Ġkita": 6106,
      "ĠdÃ©partement": 6107,
      "33": 6108,
      "isari": 6109,
      "Ġpeut": 6110,
      "yá»įÌģ": 6111,
      "Ã¨s": 6112,
      "áīĢáĪ¨": 6113,
      "ĠáīłáĬ®": 6114,
      "áĬłáĪµ": 6115,
      "áĬ®áīµ": 6116,
      "ĠáĬĵáīµáį¢": 6117,
      "Ġáī°áĬ¨áī³": 6118,
      "velopment": 6119,
      "2=": 6120,
      "Ġoru": 6121,
      "Ġgrand": 6122,
      "ĠIsa": 6123,
      "Ġfound": 6124,
      "ob": 6125,
      "Ġgr": 6126,
      "ĠCham": 6127,
      "biya": 6128,
      "Ġkofin": 6129,
      "idayar": 6130,
      "ula": 6131,
      "ce.": 6132,
      "view": 6133,
      "Ab": 6134,
      "°áį»áį": 6135,
      "áĭµáĪĺ": 6136,
      "Ġáį»áį": 6137,
      "ĠáĭŃáĮł": 6138,
      "áĬ«áĪĿ": 6139,
      "ĠáĪµáī¥áĪµ": 6140,
      "Ġáĭ¨áĪļáĮĪáĬĻ": 6141,
      "Ġáĭ¨áī°áī£áĪĪ": 6142,
      "áĪĻáīµ": 6143,
      "Ġáĭ°áĪ«áĪ²": 6144,
      "ĠolÃ¹darÃŃ": 6145,
      "ĠáĮ¸áī£áĭŃ": 6146,
      "Ġáī£áĪħáĪŃ": 6147,
      "ĠAustralia": 6148,
      "Ġkundi": 6149,
      "Ġ(197": 6150,
      "Lakini": 6151,
      "dai": 6152,
      "ĠUmar": 6153,
      "Ġ%": 6154,
      "Ġtemp": 6155,
      "áĭµáĪ®": 6156,
      "ĠáĪĺáīħ": 6157,
      "áĪİáĮĤ": 6158,
      "ĠáīħáĪŃáĪµ": 6159,
      "ĠAfrika.": 6160,
      "rÃºká»į": 6161,
      "ĠbÃłbÃ¡": 6162,
      "Ġkwam": 6163,
      "Ġsune": 6164,
      "ner": 6165,
      "ko.": 6166,
      "Ġreg": 6167,
      "ĠGra": 6168,
      "Ġpeople": 6169,
      "Ġmengine": 6170,
      "ĠSch": 6171,
      "áĪ«áĪįáį¢": 6172,
      "áĬ¨áĪĭ": 6173,
      "Ġkabila": 6174,
      "áĪľáīµ": 6175,
      "áĬĵáĭŃáīµáĭµ": 6176,
      "org/": 6177,
      "dis": 6178,
      "ĠHispania": 6179,
      "pindi": 6180,
      "Ġmkoa": 6181,
      "Ġvili": 6182,
      "Ġ(196": 6183,
      "ĠÆ³an": 6184,
      "Ġemp": 6185,
      "Ġ(tÃŃ": 6186,
      "ĠMali": 6187,
      "ĠáĬ¥áĪĿáĬĲáīµ": 6188,
      "ĠáĬłáĮĭ": 6189,
      "áĪĭáīģ": 6190,
      "áĪĭáĮĬ": 6191,
      "ĠáĭŃáĪĭáĪįáį¢": 6192,
      "Ġing": 6193,
      "áĪ°áĪŃ": 6194,
      "ĠáĭįáĮŃ": 6195,
      "ĠelÃ©": 6196,
      "ip": 6197,
      "ics": 6198,
      "C.": 6199,
      "iyya": 6200,
      "Ġtatu": 6201,
      "Ġgra": 6202,
      "neo": 6203,
      "ĠUrusi": 6204,
      "áī¥áĬķ": 6205,
      "áĪĭáĪµ": 6206,
      "ĠBest": 6207,
      "ĠáĪ²áĪĨáĬĳ": 6208,
      "ĠChristi": 6209,
      "áĬŀáī¹": 6210,
      "Ġwaka": 6211,
      "cour": 6212,
      "Ġoni": 6213,
      "ĠÉĹau": 6214,
      "yyuka": 6215,
      "Ġunder": 6216,
      "z,": 6217,
      "áĬķáĬŃ": 6218,
      "ĠáĬ¥áĪŃáĪ±": 6219,
      "áīħáĬĵ": 6220,
      "Ġzin": 6221,
      "ĠáīłáĬ¦": 6222,
      "ĠáĬķáĮīáĪł": 6223,
      "ĠáĪĺáĪĨáĬĳáĬķ": 6224,
      "uwar": 6225,
      "ĠÃº": 6226,
      "Ġmch": 6227,
      "unga": 6228,
      "Ġtabb": 6229,
      "Ġmfano": 6230,
      "rel": 6231,
      "uther": 6232,
      "tho": 6233,
      "Ġawa": 6234,
      "Ġ(Â«": 6235,
      "ĠNollywood": 6236,
      "ĠBlack": 6237,
      "ĠáĭĪáī³áĭ°": 6238,
      "Ġuni": 6239,
      "ĠáĪ¥áįįáĪ«": 6240,
      "ĠáĪµáĪĪáĪĨáĬĲ": 6241,
      "Ġambako": 6242,
      "ĠkÃºrÃ²": 6243,
      "ĠáĪ¦áĪµáīµ": 6244,
      "ĠMagharibi": 6245,
      "Ġlong": 6246,
      "ĠFrench": 6247,
      "58": 6248,
      "Ã¡Ã¡": 6249,
      "uts": 6250,
      "ĠSt.": 6251,
      "ĠMkuu": 6252,
      "Ġjimbo": 6253,
      "áĬķáĭ²": 6254,
      "Ġmáº¹": 6255,
      "Ġáĭ¨áīħ": 6256,
      "lewa": 6257,
      "áī£áī³": 6258,
      "Ã²fin": 6259,
      "ĠáĪ²áīĢ": 6260,
      "Ġleur": 6261,
      "áĮħáĪĿ": 6262,
      "ĠInstit": 6263,
      "áĮŃáĪŃ": 6264,
      "ĠRD2-": 6265,
      "5-": 6266,
      "ĠWat": 6267,
      "ĠMuhammadu": 6268,
      "van": 6269,
      "anzisha": 6270,
      "zation": 6271,
      "Ġkare": 6272,
      "áĭ«áĪį": 6273,
      "ush": 6274,
      "ĠBas": 6275,
      "Ġá»įÌģ": 6276,
      "Ã¡nÃ¬": 6277,
      "ĠáĮįáĬķáĬĻ": 6278,
      "kÃ³so": 6279,
      "Ġatt": 6280,
      "áī¨áĪŃáĪ²": 6281,
      "Bab": 6282,
      "iso": 6283,
      "taka": 6284,
      "Ġkij": 6285,
      "ĠSoci": 6286,
      "ĠEthiopia": 6287,
      "Ġgwa": 6288,
      "Ġmpya": 6289,
      "ĠHukumar": 6290,
      "ĠYohane": 6291,
      "ott": 6292,
      ".S.": 6293,
      "ĠSpa": 6294,
      "ed,": 6295,
      "ito": 6296,
      "Ġret": 6297,
      "áĬ¨áĪ¨áĪĿ": 6298,
      "áĬ«áĬ¨áĪĪ": 6299,
      "áĪĨáĬĸ": 6300,
      "futa": 6301,
      "ĠáĭµáĪį": 6302,
      "ĠáīµáĪŃáĮīáĪĿ": 6303,
      "ĠáĮİáĬķ": 6304,
      "42": 6305,
      "Ad": 6306,
      "Ġyau": 6307,
      "ĠSikukuu": 6308,
      "go,": 6309,
      "assan": 6310,
      "Ġshirye-shi": 6311,
      "Ġmil": 6312,
      "ĠRepublic": 6313,
      "edu": 6314,
      "cci": 6315,
      "mb": 6316,
      "ĠRobert": 6317,
      "áĮª": 6318,
      "áĪµáĭ«": 6319,
      "ishe": 6320,
      "Ġ(áĭĪ": 6321,
      "Ġipinle": 6322,
      "gbá»įÌģ": 6323,
      "áĬŃáĪ²": 6324,
      "áĪªáĪµ": 6325,
      "áĬłáĬķáĭµ": 6326,
      "Ġáĭĺáįĭ": 6327,
      "áīĥáĪ´": 6328,
      "Ġhuadhim": 6329,
      "Ġgargaji": 6330,
      "Ġmnamo": 6331,
      "Ch": 6332,
      "Ġcl": 6333,
      "Ġonly": 6334,
      "Ġwao": 6335,
      "ba.": 6336,
      "ĠOlymp": 6337,
      "sive": 6338,
      "imbo": 6339,
      "ĠKib": 6340,
      "ĠmÃªme": 6341,
      "ĠsÃ¬n": 6342,
      "áīĢáĮ¥": 6343,
      "ĠáĪµáĪŀáī½": 6344,
      "áĪĻáĬķ": 6345,
      "ĠPak": 6346,
      "ĠolÃ³rÃŃ": 6347,
      "ouse": 6348,
      "ĠOrÃŃláº¹ÌĢ-Ã¨dÃ¨": 6349,
      "ĠáĪĿáĪįáĬŃáīµ": 6350,
      "áīħáĪµáīĥáĪ´": 6351,
      "fÃ©r": 6352,
      "Ġname": 6353,
      "Ġ2014.": 6354,
      ");": 6355,
      "ES": 6356,
      "Ġwengine": 6357,
      "ĠÆĻidayar": 6358,
      "Ġkadhaa": 6359,
      "king": 6360,
      "Ġduring": 6361,
      "à¤ķ": 6362,
      "ĠGuinea": 6363,
      "áĬķáĮİ": 6364,
      "áĪĽáĪ½": 6365,
      "áĭ³áĪį": 6366,
      "re,": 6367,
      "ĠáĭĺáĪĺáĬĵáĭĬ": 6368,
      "Ġ2015.": 6369,
      "Ġáīłáī°áĪĪ": 6370,
      "ĠAmáº¹ÌģrÃŃkÃł.": 6371,
      "ĠáĪĥáĭŃáĪĽáĬĸáīµ": 6372,
      "kn": 6373,
      "Ġoun": 6374,
      "Jina": 6375,
      "Ġkoloni": 6376,
      "ĠÃª": 6377,
      "Ġsara": 6378,
      "Ġbikin": 6379,
      "ĠKif": 6380,
      "ĠCibiyar": 6381,
      "Ġzinazo": 6382,
      "Ġwengi,": 6383,
      "-finai": 6384,
      "Ġmasana'": 6385,
      "ombo": 6386,
      "ĠWil": 6387,
      "zarin": 6388,
      "Ġmik": 6389,
      "Ġ\"M": 6390,
      "áĪĿáī¥": 6391,
      "ĠáĪĿáĭķáĪ«áī¥": 6392,
      "áį¡áĬ¥": 6393,
      "áĭ²áĭ®": 6394,
      "ĠáīµáĪŃ": 6395,
      "ĠáīµáĪĿáĪħáĪŃ": 6396,
      "ĠáĪĺáĪ°áĪ¨áīµ": 6397,
      "áĪµáĪĪáĭļáĪħ": 6398,
      "ĠÃłÃ¬sÃłn": 6399,
      "ĠáĭŃáĪĨáĬĵáĪįáį¢": 6400,
      "Åį": 6401,
      "ĠFin": 6402,
      "Ġmahali": 6403,
      "ĠKingdom": 6404,
      "Waliozaliwa": 6405,
      "ĠHotuna": 6406,
      "ĠMakarantar": 6407,
      "ĠNuwamba": 6408,
      "hoto": 6409,
      "Ġ1994": 6410,
      "tori": 6411,
      "bÃ³": 6412,
      "wÃłÃ¡": 6413,
      "áĪĿáįĴ": 6414,
      "ĠKale": 6415,
      "áĪĽáĪį": 6416,
      "Ġáĭ¨áĪ®": 6417,
      "ĠGáº¹ÌĢáº¹ÌģsÃ¬": 6418,
      "ĠhaÉĹin": 6419,
      "ĠáĬĲáĮĪáĪł": 6420,
      "Ġáĭ«áĪĪáĭįáĬķ": 6421,
      "ĠáĭŃáīĢáĪ«áĪīáį¢": 6422,
      "Ġpataki": 6423,
      "ĠMul": 6424,
      "ografia": 6425,
      "lassi": 6426,
      "line": 6427,
      "Ġmay": 6428,
      "Ġtri": 6429,
      "Ġainsi": 6430,
      "ĠcrÃ©": 6431,
      "Ġzake": 6432,
      "ught": 6433,
      "ĠirÃº": 6434,
      "Ġáĭ¨áĪ´": 6435,
      "áĮĭáīµ": 6436,
      "ĠÃ²kÃ¨": 6437,
      "ominira": 6438,
      "Ġáī°áĪ«áĪ«": 6439,
      "ĠáĭŃáĪĺáĪµáĪĭáĪįáį¢": 6440,
      "ense": 6441,
      "Ġtime": 6442,
      "Ġpu": 6443,
      "Ġdep": 6444,
      "kuna": 6445,
      "katoliki": 6446,
      "Ġmatsa": 6447,
      "lishi": 6448,
      "96": 6449,
      "ĠBau": 6450,
      "Ġsoci": 6451,
      "áĭ°áĪµ": 6452,
      "ĠáĬŃáĪŃáĪµáī²áĭ«": 6453,
      "áĮĢáīµ": 6454,
      "ĠáĮĭáĪ«": 6455,
      "ames": 6456,
      "til": 6457,
      "Ġalipo": 6458,
      "ship": 6459,
      "Ġutilis": 6460,
      "Ġsho": 6461,
      "Ġnou": 6462,
      "Ġáĭ¨áĪĪáĪĿ": 6463,
      "Ġwá»įÌĢn": 6464,
      "ĠCong": 6465,
      "Ġáį©": 6466,
      "Ġá»įjá»į": 6467,
      "ĠáĭŃáĭŀ": 6468,
      "áĮ£áĬķ": 6469,
      "Ġ2013,": 6470,
      "ĠÃĮlÃº": 6471,
      "Ġkowa": 6472,
      "ĠáĮĪáĮ½": 6473,
      "ower": 6474,
      "ĠáĮ½áĪķ": 6475,
      "ĠáįĪáĪŃáĭĸáĬķ": 6476,
      "we,": 6477,
      "Ġikan": 6478,
      "Ġyaliyo": 6479,
      "nÃº": 6480,
      "ple": 6481,
      "Ġperm": 6482,
      "IS": 6483,
      "ĠJoseph": 6484,
      "di.": 6485,
      "ĠáĬĽ": 6486,
      "ĠáīłáĬ«": 6487,
      "ĠÃłÃ¡": 6488,
      "ĠÃłjáº¹sÃ¡ra": 6489,
      "áĭ³áĭµ": 6490,
      "ĠáĭįáĪĢ": 6491,
      "áĪ²áĭ«": 6492,
      "Ġsosai": 6493,
      "ĠáĭķáĪĪáī°": 6494,
      "ĠáįįáĪ¬": 6495,
      "áĬ¥áĬķáĭ²": 6496,
      "hesabiwa": 6497,
      "-G": 6498,
      "ĠSoko": 6499,
      "owe": 6500,
      "ĠLab": 6501,
      "ĠMovie": 6502,
      "wari": 6503,
      "assa": 6504,
      "ĠBook": 6505,
      "rist": 6506,
      "Ġjinsi": 6507,
      "oman": 6508,
      "hysi": 6509,
      "kamakon": 6510,
      "Ġáĭ¨áĬ¨": 6511,
      "Ġláº¹": 6512,
      "áĪĪáį¢": 6513,
      "Ġáĭ¨áĪ±": 6514,
      "ĠáĪµáĪĭ": 6515,
      "Â»)": 6516,
      "áĮłáĪĪ": 6517,
      "áĬķáĮĮ": 6518,
      "áī¥áĪŃáĪĥ": 6519,
      "ĠáĪĿáĬķáĮĬáĭľ": 6520,
      "ĠIV": 6521,
      "ĠRiver": 6522,
      "Ġaddinin": 6523,
      "imakin": 6524,
      "win": 6525,
      "Ġ1993": 6526,
      "ĠMusic": 6527,
      "ĠGirl": 6528,
      "yÃ¬ÃŃ": 6529,
      "áĬ£": 6530,
      "áī³áĬķ": 6531,
      "Ġá»įlá»įÌģ": 6532,
      "áĬ«áĬ¤áĪį": 6533,
      "áĪİáī¹": 6534,
      "ĠáĪįáĮģ": 6535,
      "Ġáī¢áĭ«": 6536,
      "ĠKejÃ¬": 6537,
      "Ġsystem": 6538,
      "wÃº": 6539,
      "lian": 6540,
      "via": 6541,
      "Ġmaisha": 6542,
      "TA": 6543,
      "á¹¢": 6544,
      "ĠKig": 6545,
      "araka": 6546,
      "Ġprof": 6547,
      "Ġáĭ¨áīł": 6548,
      "Ġáĭ¨áĮĭ": 6549,
      "ĠáĭįáĪĥ": 6550,
      "ident": 6551,
      "ĠáīłáĪĺáĪĨáĬķ": 6552,
      "nes": 6553,
      "Ġtura": 6554,
      "idogo": 6555,
      "Ùĩ": 6556,
      "Ġbro": 6557,
      "ĠRoyal": 6558,
      "ĠQue": 6559,
      "kuta": 6560,
      "-P": 6561,
      "Ġng": 6562,
      "Ġ2010,": 6563,
      "pindu": 6564,
      "Ġkirk": 6565,
      "ologie": 6566,
      "BA": 6567,
      "sÃ¡n": 6568,
      "áĬķáīĢ": 6569,
      "maji": 6570,
      "ĠáĪĺáĮį": 6571,
      "ĠáĬ¨áĪĿ": 6572,
      "ĠáīłáĬ¤": 6573,
      "áĬ¥áĬĲáĭļáĪħ": 6574,
      "ÃŃnÃº": 6575,
      "Ġáī£áĪķáĪŃ": 6576,
      "áīłáīµáĬķ": 6577,
      "Ġáĭ¨áĬłáĭ¨áĪŃ": 6578,
      "áīĤáĭ«": 6579,
      "ĠKaramar": 6580,
      "ĠolÃ³gun": 6581,
      "---": 6582,
      "Ġmáº¹Ìģta": 6583,
      "áī¨áĪŃáĪ²áī²": 6584,
      "sh": 6585,
      "tiki": 6586,
      "ella": 6587,
      "ĠÃªtre": 6588,
      "El": 6589,
      "Mu": 6590,
      "yá»įÌĢ": 6591,
      "amban": 6592,
      "yahu": 6593,
      "aman": 6594,
      "Ġwatakatifu": 6595,
      "Ġkimataifa": 6596,
      "71": 6597,
      "itÃ¬": 6598,
      "ĠáĪĪáĪļ": 6599,
      "yota": 6600,
      "Ġlis": 6601,
      "áĬĽáĭįáĪĿ": 6602,
      "ĠBrazil": 6603,
      "ch,": 6604,
      "ĠÃ©gal": 6605,
      "Ġkawo": 6606,
      "Ġrawar": 6607,
      "Ġasali": 6608,
      "Ġáīª": 6609,
      "áĭ«áĪľ": 6610,
      "ĠáĬłáĭĭ": 6611,
      "Ġ4,": 6612,
      "Ġá»ĮÌĢyá»įÌģ": 6613,
      "Ġtáº¹li": 6614,
      "Ġbakwai": 6615,
      "team": 6616,
      "adar": 6617,
      "aransa": 6618,
      "ĠFarans": 6619,
      "Ġkusan": 6620,
      "âĢ¹": 6621,
      "ĠBay": 6622,
      "Ġ(17": 6623,
      "gáº¹": 6624,
      "áĬķáī¥": 6625,
      "ĠáĮĥ": 6626,
      "ales": 6627,
      "áĭŃáĪģ": 6628,
      "Ġáī°áĮ½": 6629,
      "ĠáīłáĪĭ": 6630,
      "Ġintern": 6631,
      "áįįáĬķ": 6632,
      "áĪ°áīµ": 6633,
      "Ġsayensi": 6634,
      "ĠbÃŃbÃŃ": 6635,
      "Ġáº¹ÌĢrá»į": 6636,
      "agen": 6637,
      "ĠáĬłáĪĪáĭį": 6638,
      "ĠáĬłáĪĪáĭįáį¢": 6639,
      "wÃ¹já»į": 6640,
      "ĠáĭŃáī»áĪĭáĪįáį¢": 6641,
      "Ġnasar": 6642,
      "waju": 6643,
      "Ġlafiya": 6644,
      "ĠzaÉĵ": 6645,
      "Ġ2001": 6646,
      "Ġhistoria": 6647,
      "88": 6648,
      "lay": 6649,
      "ĠLim": 6650,
      "safa": 6651,
      "Ġmmoja": 6652,
      "-z": 6653,
      "ĠáīĦ": 6654,
      "Ġmtu": 6655,
      "ĠáĬłáĭĺ": 6656,
      "ĠIlimi": 6657,
      "áĪ³áĪ°": 6658,
      "chungu": 6659,
      "Ġhuu": 6660,
      "Ġmuziki": 6661,
      "Ġcheo": 6662,
      "áĬ¨áī°áĪĽáĭį": 6663,
      "Ġáī¢áĪĨáĬķáĪĿ": 6664,
      "ĠáĪĿáĬķáĮĬáĭľáĪĿ": 6665,
      "llo": 6666,
      "Ġaye": 6667,
      "Ġ(The": 6668,
      "ches": 6669,
      "eurs": 6670,
      "ĠSin": 6671,
      "ville": 6672,
      "Ġocc": 6673,
      "duc": 6674,
      "ĠMaria": 6675,
      "Ġhannu": 6676,
      "Ġlabarai": 6677,
      "gine": 6678,
      "ĠáĬĲáĮ¥": 6679,
      "Ġáī°áĬŃáĪį": 6680,
      "ĠWata": 6681,
      "ĠPÃ³": 6682,
      "ĠGree": 6683,
      "Ġv.": 6684,
      "Ġanti": 6685,
      "áī¡áĬķ": 6686,
      "ĠáĬłáĪįáī°": 6687,
      "ĠáĪłáĪ«áĭĬáīµ": 6688,
      "ĠÃºn": 6689,
      "De": 6690,
      "xi": 6691,
      "um,": 6692,
      "Ã©tÃ©": 6693,
      "ĠOyo": 6694,
      "Ġáĭ¨áįĬ": 6695,
      "áĪĺáĮ¥": 6696,
      "ĠÃłdÃºgbÃ²": 6697,
      "ĠÃ¬á¹£áº¹ÌĢláº¹ÌĢ": 6698,
      "áĪªáīĥ": 6699,
      "ĠáĭĪáĮ¥": 6700,
      "áī¸áĭĭáĪįáį¢": 6701,
      "ĠáĪ°áĬĲ": 6702,
      "Ġ1987": 6703,
      "ĠáĪĬáīĥ": 6704,
      "ĠáīĨáĭŃ": 6705,
      "áĬķáĮīáĪ¥": 6706,
      "ĠáĬłáĪ«áīµ": 6707,
      "áĪįáĪµáįįáĬĵ": 6708,
      "Ġáįªáį»áį": 6709,
      "Ġá¹£ÃŃá¹£e": 6710,
      "ĠdÃºrÃ³": 6711,
      "fÃ©": 6712,
      "Ġgas": 6713,
      "Ġgroup": 6714,
      "56": 6715,
      "ating": 6716,
      "Ġfus": 6717,
      "uttu": 6718,
      "Ġrangi": 6719,
      "%)": 6720,
      "Ġ2011.": 6721,
      "Ġ1998": 6722,
      "ĠIsra": 6723,
      "lect": 6724,
      "Ġ\"A": 6725,
      "77": 6726,
      "bá»įÌĢ": 6727,
      "ĠáĬ¨áĮį": 6728,
      "Ġáī°áĮĪ": 6729,
      "áĪªáĬ®áī½": 6730,
      "ĠáĭŃáīĨ": 6731,
      "ĠÃ¬dÃŃlÃ©": 6732,
      "ĠÃ¬dÃŃje": 6733,
      "ĠmÃŃrÃłn": 6734,
      "Ġsecond": 6735,
      "ĠáĮĮáī³": 6736,
      "ĠáĮĬáĭ®áĪŃáĮĬáĪµ": 6737,
      "ĠDemocratic": 6738,
      "Lo": 6739,
      "str": 6740,
      "Ġduniya.": 6741,
      "::": 6742,
      "unc": 6743,
      "zed": 6744,
      "amia": 6745,
      "ĠTr": 6746,
      "Ġnde": 6747,
      "ĠAri": 6748,
      "áĪĪáīĢ": 6749,
      "ikisho": 6750,
      "áĪĽáĭįáĭ«áĬķ": 6751,
      "ĠáįĮ": 6752,
      "ĠWo": 6753,
      "ĠFÃ¡": 6754,
      "iláº¹": 6755,
      "áĪ°áĪĽ": 6756,
      "áī¸áĭī": 6757,
      "ĠáĪĬáīĢ": 6758,
      "Ġorigin": 6759,
      "ĠáĬłáĪĺáī³áīµ": 6760,
      "áī·áĬķ": 6761,
      "mÃ¬nira": 6762,
      "pasáº¹": 6763,
      "Ge": 6764,
      "Ġanci": 6765,
      "Ġ||": 6766,
      "Ġcount": 6767,
      "fini": 6768,
      "gres": 6769,
      "ator": 6770,
      "ĠMont": 6771,
      "ĠAma": 6772,
      "ĠÃ©galement": 6773,
      "Ġ×": 6774,
      "Ġnahi": 6775,
      "harar": 6776,
      "que.": 6777,
      "Ġambapo": 6778,
      "Ġgwamnan": 6779,
      "áĪµáį£": 6780,
      "ana,": 6781,
      "ĠáīłáĪĢ": 6782,
      "áĬ«áĪĦ": 6783,
      "ĠáĮĪáĭ¥": 6784,
      "ĠáĪĺáĬķáĮįáĪ¥áī³áīµ": 6785,
      "áĭŀáī½": 6786,
      "Ġáĭ¨áīĢáĭµáĪŀ": 6787,
      "áĪĨáĬĸáĪĿ": 6788,
      "98": 6789,
      "....": 6790,
      "ĠCam": 6791,
      "jwa": 6792,
      "uf": 6793,
      "Ġx": 6794,
      "Ġalb": 6795,
      "ĠGeorg": 6796,
      "ĠCali": 6797,
      "Ġwar": 6798,
      "áĭ°áĬķ": 6799,
      "Ġjus": 6800,
      "áĪ³áĪįáį¢": 6801,
      "Ġáº¹ran": 6802,
      "áĬĴáĪįáĬŃ": 6803,
      "áįĬáĭ«": 6804,
      "Ġáĭ¨áĪļáĮĪáĬĿáīłáīµ": 6805,
      "ĠMary": 6806,
      "ĠCat": 6807,
      "ĠWilaya": 6808,
      "ĠFi": 6809,
      "55": 6810,
      "Lugha": 6811,
      "Ġent": 6812,
      "yam": 6813,
      "ĠKijerumani": 6814,
      "Ġ1991": 6815,
      "Ġfollow": 6816,
      "VID": 6817,
      "ĠáĬĥ": 6818,
      "ĠáĬ¥áĬ©áĪį": 6819,
      "ĠáĬłáĬĵ": 6820,
      "ma.": 6821,
      "ĠáįĴ": 6822,
      "ĠÃ¬bÃ¡": 6823,
      "sim": 6824,
      "ĠÃ²bÃŃ": 6825,
      "ĠáĪĨáĬĳ": 6826,
      "Ġáĭķáĭµ": 6827,
      "ĠáīłáĬłáĪģáĬĳ": 6828,
      "ĠáĭĺáĬķáĭµáį£": 6829,
      "lÃŃÃł": 6830,
      "ĠIndia": 6831,
      "She": 6832,
      "Ġ''": 6833,
      "Ġ4.": 6834,
      "Ġbaadaye": 6835,
      "gem": 6836,
      "zz": 6837,
      "ots": 6838,
      "Ġpartie": 6839,
      "elf": 6840,
      "Ġ\"B": 6841,
      "Ġlead": 6842,
      "áįı": 6843,
      "ĠáīĤ": 6844,
      "áĪĪáĭĭáĪįáį¢": 6845,
      "Ġta,": 6846,
      "ĠáĬ¨áī£": 6847,
      "ĠÃ¬yÃ¡": 6848,
      "Ġáī°áĮ«": 6849,
      "Ġáĭ¨áĪģ": 6850,
      "ĠHars": 6851,
      "ÆĻi": 6852,
      "áĭĿáĪĿ": 6853,
      "ĠáĪ²áĪį": 6854,
      "ĠáĮįáĭµ": 6855,
      "ĠâĢ¹": 6856,
      "áĭ±áį¢": 6857,
      "ĠáĪĬáĭ«": 6858,
      "áĭ°áĪ¨áĮĪáĭį": 6859,
      "ĠáĪĺáĮ»áĪķáįįáīµ": 6860,
      "xic": 6861,
      "atini": 6862,
      "ĠIle-": 6863,
      "Ġtout": 6864,
      "am,": 6865,
      "ĠgÃ©nÃ©r": 6866,
      "rough": 6867,
      "fikia": 6868,
      "pro": 6869,
      "Ġdem": 6870,
      "ĠMpaka": 6871,
      "haif": 6872,
      "kubali": 6873,
      "limfuata": 6874,
      "Ġkyautar": 6875,
      "ĠBiranen": 6876,
      "43": 6877,
      "Ġáĭ¨áĮĢáĪŃáĪĺáĬķ": 6878,
      "áī°áĬĵ": 6879,
      "Ġfili": 6880,
      "áĪ¨áĪŃ": 6881,
      "ĠIá¹£áº¹Ìģ": 6882,
      "ĠáīłáĪŀ": 6883,
      "ĠáĬ¥áĬķáīħáĪµáīĥáĪ´": 6884,
      "Ġáī¥áĪĶáĪŃ": 6885,
      "ĠáĬŃáĪĪáī¥": 6886,
      "ĠáīłáĪĺáī£áĪį": 6887,
      "ĠáĮĪáī¥áĪ¨": 6888,
      "áĭ°áĪŃáĮį": 6889,
      "Ġoluilu": 6890,
      "ĠáĬłáīĢáįį": 6891,
      "Ġmambo": 6892,
      "ĠPoland": 6893,
      "John": 6894,
      "nia": 6895,
      "volution": 6896,
      "ĠÅ": 6897,
      "engene": 6898,
      "dancin": 6899,
      "Ġwakifuata": 6900,
      "ina,": 6901,
      "ĠLea": 6902,
      "ĠBauchi": 6903,
      "áĭ·": 6904,
      "áĪŃáī³": 6905,
      "ĠMs": 6906,
      "ĠáĬ¥áĪĿ": 6907,
      "á¹£o": 6908,
      "Ġáĭ¨áĪļáĪ°áĪ«": 6909,
      "ĠáĪĽáĬħ": 6910,
      "áĪ¥áĪ«": 6911,
      "Ġá¹£áº¹": 6912,
      "joko": 6913,
      "Ġ1996": 6914,
      "ĠgbÃ¡": 6915,
      "Ġstate": 6916,
      "ography": 6917,
      "yá»įrÃŃ": 6918,
      "Ġáĭ¨áĭĵáĪĺáī±": 6919,
      "Ġgur": 6920,
      "ĠGod": 6921,
      "ĠTai": 6922,
      "ĠTanzania.": 6923,
      "ĠNews": 6924,
      "Ġshari": 6925,
      "Ġ(He": 6926,
      "Ġni:": 6927,
      "Ġuishe": 6928,
      "Ġarziki": 6929,
      "izari": 6930,
      "ĠDisamba": 6931,
      "Ġhuadhimisha": 6932,
      "ĠKal": 6933,
      "ushe": 6934,
      "ĠTer": 6935,
      "ĠHigh": 6936,
      "Ġpopulation": 6937,
      "Ġ(in": 6938,
      "usin": 6939,
      "ington": 6940,
      "h.": 6941,
      "ĠáĪĺáĬ®": 6942,
      "ĠáĪĺáĪ£": 6943,
      "Ġnipasáº¹": 6944,
      "ĠáĬ¨áĮ¥": 6945,
      "áĬ¨áĬĵ": 6946,
      "áĬķáĮįáĪį": 6947,
      "ĠáĬĲáĮĪáĪ¥áīµ": 6948,
      "Ġáĭ¨áĬĲáīłáĪ©áīµ": 6949,
      "áĮĬáĭ«": 6950,
      "ĠRichard": 6951,
      "áĮĬáĭľáĭį": 6952,
      "ĠáīµáĬķáĪ½": 6953,
      "ĠáĪºáĪħ": 6954,
      "Ġwhere": 6955,
      "Ġtakriban": 6956,
      "ĠUN": 6957,
      "hamia": 6958,
      "babisha": 6959,
      "Ġduniani": 6960,
      "Ġmirefu).": 6961,
      "fofin": 6962,
      "AR": 6963,
      "aron": 6964,
      "we.": 6965,
      "Ġsal": 6966,
      "ĠAw": 6967,
      "ĠKÃ²": 6968,
      "ĠáĬ¨áĪµ": 6969,
      "ilar": 6970,
      "ĠáĪµáĬķ": 6971,
      "Ġáĭ«áĪĭáī¸áĭį": 6972,
      "ick": 6973,
      "Ġ2007.": 6974,
      "Ġkoyar": 6975,
      "Ġkowan": 6976,
      "Ġyanayin": 6977,
      "ĠáīĥáĪĭáīµ": 6978,
      "Ġzinabaki": 6979,
      "ĠArewacin": 6980,
      "fuatwa": 6981,
      "ĠJean": 6982,
      "ĠáĬłáĮĪáĪįáĮįáĪİáīµ": 6983,
      "ĠAct": 6984,
      "haji": 6985,
      "la.": 6986,
      "Ġ1997": 6987,
      "huwa": 6988,
      "uka": 6989,
      "esu": 6990,
      "ti,": 6991,
      "inad": 6992,
      "Ġdaida": 6993,
      "ĠSeri": 6994,
      "Ġalors": 6995,
      "Ġkwenda": 6996,
      "Ġyammacin": 6997,
      "</": 6998,
      "áĪįáĮĭ": 6999,
      "ĠhÃłn": 7000,
      "ĠGi": 7001,
      "ĠGrand": 7002,
      "Ġáĭ¨áī°áī£": 7003,
      "ĠAnamb": 7004,
      "ĠáĬłáĪµáįĪ": 7005,
      "ĠáĮĢáĪŃáĪĺáĬķ": 7006,
      "Ġáī°áĪĺáĪ³áĪ³áĭŃ": 7007,
      "ĠáĬłáī£áĪĭáīµ": 7008,
      "áĬ®áĬĸáĪļ": 7009,
      "73": 7010,
      "Ġ(15": 7011,
      "htm": 7012,
      "c,": 7013,
      "Ġ1995": 7014,
      "Ġstr": 7015,
      "Ġpays": 7016,
      "gÃŃ": 7017,
      "anni": 7018,
      "Ġndogo": 7019,
      "ĠJamiâĢĻar": 7020,
      "'iyyar": 7021,
      "Ġbecame": 7022,
      "je,": 7023,
      "ĠKin": 7024,
      "do,": 7025,
      "Ø©": 7026,
      "ĠoÃ¹": 7027,
      "Ġpin": 7028,
      "áĭŃáĪį": 7029,
      "ĠáĬłáĮį": 7030,
      "ĠáĬłáĮł": 7031,
      "Ġá»įwá»įÌģ": 7032,
      "áĭ¨áĪļ": 7033,
      "ge.": 7034,
      "Ġleyin": 7035,
      "áĪĬáĬķ": 7036,
      "ĠáĪĪáĪĽáĪµ": 7037,
      "pá»įlá»į": 7038,
      "ĠId": 7039,
      "depend": 7040,
      "áĮłáīµ": 7041,
      "Ġ(2005)": 7042,
      "historia": 7043,
      "Ġmakuu": 7044,
      "Ġulio": 7045,
      "ĠFestiv": 7046,
      "Ġart": 7047,
      "Ġ(b": 7048,
      "ĠMak": 7049,
      "ja,": 7050,
      "ÑĢ": 7051,
      "áĮİáī½": 7052,
      "ĠáĬ¥áĪ«áĪ±": 7053,
      "ĠSau": 7054,
      "Ġtaken": 7055,
      "dad": 7056,
      "umia": 7057,
      "Ġáĭ¨áĬ¡": 7058,
      "áĪīáĬķ": 7059,
      "ĠáĭĵáĭŃáĬĲáīµ": 7060,
      "Ġáĭ¨áĬłáĭįáĪ®áįĵ": 7061,
      "ĠáĬłáĪĪáį¢": 7062,
      "ĠáĮĢáĪĺáĪ¨": 7063,
      "ĠadarÃŃ": 7064,
      "wÃ²sÃłn": 7065,
      "ĠáĬłáĪĿáī£": 7066,
      "ĠáĬŃáįįáĪĭáĮĪáĪŃ": 7067,
      "á¹£irÃŃá¹£i": 7068,
      "Ġkashe": 7069,
      "ĠKaisari": 7070,
      "ĠFabra": 7071,
      "Ġwould": 7072,
      "Ġ(,": 7073,
      "wer": 7074,
      "Ġdist": 7075,
      "Ġsamo": 7076,
      "irc": 7077,
      "otball": 7078,
      "Ġká»įÌĢ": 7079,
      "Ġáĭ¨áĪ«áĪ±": 7080,
      "ament": 7081,
      "áĪ°áĪį": 7082,
      "áĭĺáĭį": 7083,
      "Ġkan.": 7084,
      "¢áīµáĭ®áĮµáĭ«áĬķ": 7085,
      "ĠáĪĺáĪįáĬ©": 7086,
      "Ġáī°áĬ¨áī³áĭŃ": 7087,
      "yá»įkÃł": 7088,
      "Ç¹kan": 7089,
      "ĠdÃŃáº¹ÌĢ": 7090,
      "Ġtalabijin": 7091,
      "kÃºn": 7092,
      "vant": 7093,
      "Ġ2006.": 7094,
      "Ġlui": 7095,
      "ĠMichael": 7096,
      "Ġjul": 7097,
      "wiwa": 7098,
      "Ġ(An": 7099,
      "Ġmpaka": 7100,
      "Ġpublic": 7101,
      "Ġtakwa": 7102,
      "fazi": 7103,
      "Ġkm2": 7104,
      "Ġelect": 7105,
      "Ġabinci": 7106,
      "Ġkabla": 7107,
      "vic": 7108,
      "ĠáĮĦ": 7109,
      "áĪĺáĬĳ": 7110,
      "ĠKáº¹Ìģ": 7111,
      "áĬŃáĪŃáĪµáī¶áĪµ": 7112,
      "Ġáī°áĭ°áĪŃ": 7113,
      "ĠáĪĿáĪħ": 7114,
      "ĠáĪµáĭ«áĪľ": 7115,
      "ĠYunifÃ¡sÃŃtÃ¬": 7116,
      "ĠÃ²fin": 7117,
      "Ġáĭ¨áĪĨáĬĲáĭį": 7118,
      "Ġsta": 7119,
      "ĠlÃŃ": 7120,
      "ĠSup": 7121,
      "ĠGen": 7122,
      "ra.": 7123,
      "amment": 7124,
      "irun": 7125,
      "ĠMac": 7126,
      "Ġkashi": 7127,
      "Ġkarshe": 7128,
      "pewa": 7129,
      "Ġmakabila": 7130,
      "conom": 7131,
      "Ġcou": 7132,
      "ĠJ.": 7133,
      "Ġass": 7134,
      "Ġconf": 7135,
      "áĬĲáĬĽ": 7136,
      "áĪĭáĪĭ": 7137,
      "Ġnibi": 7138,
      "ĠáĭŃáĪĺ": 7139,
      "áĭ³áĪª": 7140,
      "áĪİáĪµ": 7141,
      "áī£áī¢áĪİáĬķ": 7142,
      "Ġmeji": 7143,
      "ĠKÃ¡tÃ³": 7144,
      "Nig": 7145,
      "aj": 7146,
      "Ã¨rÃ¨": 7147,
      "eter": 7148,
      "ĠáīĢáĭŃ": 7149,
      "Ġmemba": 7150,
      "kai": 7151,
      "Ġdamar": 7152,
      "Ġwatum": 7153,
      "Ġ1975": 7154,
      "ĠAssociation": 7155,
      "Wakristo": 7156,
      "mary": 7157,
      "zon": 7158,
      "ĠÃ©c": 7159,
      "Ġprincip": 7160,
      "áĬķáĮ»": 7161,
      "áĮįáĬĵ": 7162,
      "áīłáī³áĪįáį¢": 7163,
      "áĭ¨áĪ©": 7164,
      "ĠáĮ£áĪį": 7165,
      "áĪªáī³áĬķáĭ«": 7166,
      "kacin": 7167,
      "uniyar": 7168,
      "Ġacikin": 7169,
      "ĠTarihi": 7170,
      "gor": 7171,
      "esse": 7172,
      "Ġcity": 7173,
      "lement": 7174,
      "ĠOla": 7175,
      "âĢĶ": 7176,
      "seed": 7177,
      "cture": 7178,
      "ĠAu": 7179,
      "ĠKK": 7180,
      "ithi": 7181,
      "ĠCOVID": 7182,
      "fore": 7183,
      "Ġgari": 7184,
      "Ġáĭ¨áĪį": 7185,
      "ĠáīłáĭŃ": 7186,
      "áĪĪáī±": 7187,
      "ĠáĮ¤": 7188,
      "Ġhut": 7189,
      "Ã²wÃ²": 7190,
      "ĠWam": 7191,
      "Ġhaka,": 7192,
      "fihÃłn": 7193,
      "ĠáĪ°áĪŃ": 7194,
      "Ġáĭ°áī¥": 7195,
      "áīĭáīĭ": 7196,
      "áīģáīµ": 7197,
      "áº¹ÌģrÃ¬n": 7198,
      "áĭŃáĪħáĪĿ": 7199,
      "Ġáĭ¨áĪħáĭĿáī¥": 7200,
      "áįĲáī¥áĪĬáĬŃ": 7201,
      "ĠáĬĽáĭį": 7202,
      "79": 7203,
      "sha": 7204,
      "-e": 7205,
      "oly": 7206,
      "ministr": 7207,
      "Ġmany": 7208,
      "CM": 7209,
      "Î¹": 7210,
      "Ġngu": 7211,
      "Ġneno": 7212,
      "Ġsaurans": 7213,
      "áĭµáĪ¨": 7214,
      "ĠáĪĿáĭķáĪ«": 7215,
      "Ġáī¤áī¶áī½": 7216,
      "áĮ»áįĪ": 7217,
      "Ġáĭ¨áĬĲáĮĪ": 7218,
      "ĠÃ²á¹£Ã¨rÃ©bÃ¬nrin": 7219,
      "Ġáĭ¨áĪĻáĭļáīĥ": 7220,
      "ĠkÃłwÃ©": 7221,
      "-20": 7222,
      "68": 7223,
      "Ġfut": 7224,
      "lahi": 7225,
      "Ġ60": 7226,
      "heria": 7227,
      "ĠRoman": 7228,
      "http://www.": 7229,
      "-D": 7230,
      "41": 7231,
      "asayansi": 7232,
      "Ġ1989": 7233,
      "Ġyake.": 7234,
      "Ġ(16": 7235,
      "ĠSil": 7236,
      "umar": 7237,
      "tal": 7238,
      "áĮįáĪĽáĭĬ": 7239,
      "ĠUt": 7240,
      "imba": 7241,
      "áĮĭáĮĪáĪŃ": 7242,
      "áĬķáĮįáĪ¥áīµ": 7243,
      "ĠÃ¨rÃ²": 7244,
      "ĠÃĮjá»į": 7245,
      "áĭ±áīµ": 7246,
      "Ġfiimu": 7247,
      "ĠáĬ¥áĪµáĬ«": 7248,
      "Ġáĭ©áĬĴáī¨áĪŃáĪ²áī²": 7249,
      "ĠáĮįáĬķáĬĻáĬĲáīµ": 7250,
      "Ġwá»įÌĢnyÃŃ": 7251,
      "Ġ),": 7252,
      "ĠChin": 7253,
      "ĠEgy": 7254,
      "ĠÆĻars": 7255,
      "ĠLiber": 7256,
      "ĠUsman": 7257,
      "zuri": 7258,
      "mÃł": 7259,
      "Ġ+": 7260,
      "áĬķáĮĢ": 7261,
      "áĭµáīħ": 7262,
      "áĬŃáĪĿáĬĵ": 7263,
      "ĠáĬ¥áĬķáĭ´áīµ": 7264,
      "áĮłáī¥": 7265,
      "lÃ©lÃ³gÃºn": 7266,
      "ĠáĭĭáĮĭ": 7267,
      "Ġáī°áĪĺáĪį": 7268,
      "ĠIbn": 7269,
      "ĠáĪģáĪĪáī°áĬĽ": 7270,
      "ket": 7271,
      "ĠAth": 7272,
      "Ġwur": 7273,
      "ututtu": 7274,
      "ĠdÃ©velop": 7275,
      "Ġyanki": 7276,
      "Ġthere": 7277,
      "Ġ(la": 7278,
      "ĠOffi": 7279,
      "ney": 7280,
      "ĠGood": 7281,
      "Iá¹£áº¹Ìģ": 7282,
      "kat": 7283,
      "áĬĵáĮĪáĪŃ": 7284,
      "Ã¬yÃłn": 7285,
      "Ġmakubwa": 7286,
      "ĠáīłáĪ¥": 7287,
      "ĠáĬŃáĪŃ": 7288,
      "áĪµáīµáĪª": 7289,
      "Ġáº¹ÌĢka": 7290,
      "áĭ°áī¥áĪ¨": 7291,
      "ĠÃĴgÃ¹n": 7292,
      "Ġfilin": 7293,
      "áįĸáĪŃáīµ": 7294,
      "ĠáĬ¨áĭļáĭ«áĪĿ": 7295,
      "Ġmshairi": 7296,
      "ĠtÃº": 7297,
      "main": 7298,
      "ĠTri": 7299,
      "áī¢áĭŃ": 7300,
      "ĠVictor": 7301,
      "Ġqu'il": 7302,
      "-0": 7303,
      "PP": 7304,
      "ists": 7305,
      "3=": 7306,
      "ĠnÃ©": 7307,
      "ĠMaris": 7308,
      "ĠThomas": 7309,
      "pakana": 7310,
      "Ġ2017.": 7311,
      "Ġwasannin": 7312,
      "stant": 7313,
      "Ġabubuwan": 7314,
      "OR": 7315,
      "kaa": 7316,
      "Ġband": 7317,
      "áĭ«áīĦ": 7318,
      "áĪĪáīłáīµ": 7319,
      "ĠáĬłáĬŃ": 7320,
      "ĠGomina": 7321,
      "ĠáĪĪáĭĪ": 7322,
      "ĠVo": 7323,
      "ĠáĮ¥áīłáī¥": 7324,
      "áĪĲáĪ´": 7325,
      "ĠáĮ¨áĪĿáĪ®": 7326,
      "ĠfÃŃl": 7327,
      "Ġibn": 7328,
      "ĠáĬłáĪµáī°áĭ³áĭ°áĮį": 7329,
      "áīħáĭ«áĬĸáĪµ": 7330,
      "gÃ¬": 7331,
      "44": 7332,
      "ÉĹu": 7333,
      "ĠAmerica": 7334,
      "jenga": 7335,
      "taniya": 7336,
      "riki": 7337,
      "ws": 7338,
      "rac": 7339,
      "imbab": 7340,
      "ĠáīłáĮĭ": 7341,
      "Ġáīł16": 7342,
      "ĠáĬłáī¡": 7343,
      "ĠáĪĺáī¥": 7344,
      "to.": 7345,
      "áĪĽáī¸áĭį": 7346,
      "Ġáĭĺáĭį": 7347,
      "ĠáĪįáĪĽ": 7348,
      "áĮ½áĭĭáīµ": 7349,
      "ĠáĮĪáĬĵ": 7350,
      "ĠáĪ¥áĮĭ": 7351,
      "Ġgbá»įÌģ": 7352,
      "ĠáĬłáĭįáĪ«": 7353,
      "lÃ¬kÃ¬": 7354,
      "Ġáĭ°áĪ´áīµ": 7355,
      "ĠáįĪáĪ¨áĬķáĪ³áĭŃ": 7356,
      "hab": 7357,
      "Ġdirect": 7358,
      "Ġshekarun": 7359,
      "ĠfranÃ§ais": 7360,
      "kere": 7361,
      "Ġani": 7362,
      "hiri": 7363,
      "Ġweb": 7364,
      "Ġ1976": 7365,
      "Ġ1988": 7366,
      "Ġmuka": 7367,
      "dá»į": 7368,
      "pÃłÃ¡": 7369,
      "ªáĭ«": 7370,
      "Ġáī²": 7371,
      "ĠáĬĲáįĥ": 7372,
      "ĠáĪĺáĪĭ": 7373,
      "ĠáĪĺáĬĸ": 7374,
      "áįĬáĭİáī½": 7375,
      "Ġ5,": 7376,
      "ĠáĪļáĬ«áĬ¤áĪį": 7377,
      "ĠáĬªáĭ³áĬķ": 7378,
      "Ġáīłáī¥áĭĻ": 7379,
      "áīĢáĪĺáĮ«": 7380,
      "ĠáĮłáīħáĪĭáĭŃ": 7381,
      "ĠKÃ¡tÃ³lÃ¬kÃ¬": 7382,
      "ĠfÃŃlmÃ¹": 7383,
      "ĠtrÃ¨s": 7384,
      "Ġagain": 7385,
      "Ġmwezi": 7386,
      "ĠMarekani.": 7387,
      "Ġtaron": 7388,
      "chukua": 7389,
      "arabci": 7390,
      "Ġhalafu": 7391,
      "Ġsakandare": 7392,
      "dÃ¡n": 7393,
      "vre": 7394,
      "les,": 7395,
      "ĠIm": 7396,
      "fawa": 7397,
      "Ġsojo": 7398,
      "formation": 7399,
      "áĪ¦": 7400,
      "áĭ°áĪŃáĪµ": 7401,
      "ĠáĪĺáĮĢáĪĺáĪªáĭ«": 7402,
      "ĠIgb": 7403,
      "áĪ«áĭįáĭ«áĬķ": 7404,
      "gbá»įn": 7405,
      "áĮ¥áĬĲáīµ": 7406,
      "ĠáĪĿáĬĴáĪįáĬŃ": 7407,
      "áĮĭáī¢áīµ": 7408,
      "Ġ2018.": 7409,
      "áī¤áī±": 7410,
      "Ġá»Įmá»į": 7411,
      "rÃ¬á¹£Ãł": 7412,
      "Ġresp": 7413,
      "72": 7414,
      "ester": 7415,
      "Ġworld": 7416,
      "ĠPan": 7417,
      "undin": 7418,
      "ire.": 7419,
      "Ġpremier": 7420,
      "Å«": 7421,
      "Ġchar": 7422,
      "Ġjiki": 7423,
      "Ġsu.": 7424,
      "anguage": 7425,
      "ohann": 7426,
      "Ġ2020,": 7427,
      "gwa": 7428,
      "gori": 7429,
      "ãĤ": 7430,
      "atis": 7431,
      "olf": 7432,
      "Ġhizo": 7433,
      "Ġlime": 7434,
      "Ġyears": 7435,
      "Ġtsohuwar": 7436,
      "Ġtransl": 7437,
      "gemea": 7438,
      "-áĬ¢": 7439,
      "Ġaure": 7440,
      "áĭ«áĪįáį¢": 7441,
      "áĭ«áĭįáĭ«áĬķ": 7442,
      "áĪ³áĭį": 7443,
      "ĠáĭĵáĪĭáĪĽ": 7444,
      "ÃłnÃł": 7445,
      "Ġáº¹bÃŃ": 7446,
      "Ġáĭ¨áĪĺáĮ£": 7447,
      "ĠáĪĬáĪĨáĬķ": 7448,
      "Ġáĭķáĭį": 7449,
      "ĠolÃ³Ã²": 7450,
      "ĠáĪľáĭ³": 7451,
      "Pope": 7452,
      "ice": 7453,
      "Ø³": 7454,
      "Ġfon": 7455,
      "ĠPal": 7456,
      "gaba": 7457,
      "ryen": 7458,
      "Ġhaifar": 7459,
      "Ġhannun": 7460,
      "ĠInstitute": 7461,
      "-H": 7462,
      "arn": 7463,
      "Ġdab": 7464,
      "ara,": 7465,
      "ĠÙ": 7466,
      "Ġdisp": 7467,
      "áº¹áº¹ráº¹": 7468,
      "áĪĿáīłáĪŃ": 7469,
      "áī³áĪĿ": 7470,
      "gbáº¹ÌĢ": 7471,
      "ĠáĭĪáĭĺ": 7472,
      "Ġáĭ«áĭį": 7473,
      "áīłáĪ®": 7474,
      "áĬķáĭµáĪµáĬĵ": 7475,
      "áĬķáĮįáĪµáīµ": 7476,
      "áī¹áĬķ": 7477,
      "áĮĥáĭĿáĪĽáī½": 7478,
      "nÃ¬s": 7479,
      "ĠáĮ¸áĪĲáįĬ": 7480,
      "ĠáīłáĪŃáĬ«áī³": 7481,
      "ĠáĬłáĪµáī°áĭ³áĭ°áĪŃ": 7482,
      "ĠPÃ³pÃ¹": 7483,
      "Shi": 7484,
      "ĠBC": 7485,
      "other": 7486,
      "59": 7487,
      "pande": 7488,
      "usieurs": 7489,
      "ĠAlexander": 7490,
      "p.": 7491,
      "urt": 7492,
      "gie": 7493,
      "Ġ2006,": 7494,
      "500": 7495,
      "NA": 7496,
      "ayÃ©": 7497,
      "áĬ»": 7498,
      "áĪįáĬĵ": 7499,
      "áĬĲáĮĪ": 7500,
      "áīłáĬłáĪ": 7501,
      "Ġinv": 7502,
      "áį¡áĬł": 7503,
      "190": 7504,
      "áĮ»áįį": 7505,
      "ĠáĬ¢áĬķ": 7506,
      "ĠParis": 7507,
      "ĠlÃ¡Ãłrin": 7508,
      "sy": 7509,
      "Ġganin": 7510,
      "ariya": 7511,
      "Ġharkokin": 7512,
      "Ġambazo": 7513,
      "Ġjamii": 7514,
      "Ġkuliko": 7515,
      "Ġari": 7516,
      "te.": 7517,
      "teur": 7518,
      "able": 7519,
      "papa": 7520,
      "Ð½": 7521,
      "ĠHistory": 7522,
      "koki": 7523,
      "Ġaro": 7524,
      "Ġ1967": 7525,
      "ĠrÃ©gion": 7526,
      "áĮ©": 7527,
      "áº¹áº¹": 7528,
      "áī¥áĬĽ": 7529,
      "áĪ¨áįĪ": 7530,
      "ĠImo": 7531,
      "ĠJáº¹Ìģ": 7532,
      "osentomon": 7533,
      "Ġuko": 7534,
      "áĭ²áĪ±": 7535,
      "Ġkanta": 7536,
      "áĪ¬áĬķ": 7537,
      "Ġ1982": 7538,
      "ĠáĬªáĪİ": 7539,
      "ĠKamusi": 7540,
      "ĠáĬłáĭµáĪŃáĮİ": 7541,
      "ĠáĪļáĬĴáĪµáīµáĪŃ": 7542,
      "usan": 7543,
      "sili": 7544,
      "Ġ1984": 7545,
      "ĠJuli": 7546,
      "eren": 7547,
      "Ġ(d.": 7548,
      "ĠIf": 7549,
      "ĠJon": 7550,
      "irar": 7551,
      "su.": 7552,
      "Ġkudancin": 7553,
      "ĠWash": 7554,
      "Ġinu": 7555,
      "Ġ5.": 7556,
      "Ġimani": 7557,
      "Ġnufin": 7558,
      "Ġfitar": 7559,
      "]]": 7560,
      "ĠáĬ¦áĪŃ": 7561,
      "áĬĲáĪ£": 7562,
      "ĠÃ¬gbÃ¬má»įÌĢ": 7563,
      "Ġáĭ¨áĪļáī£áĪį": 7564,
      "áĪĬáĭ«áĬķ": 7565,
      "Ġhigh": 7566,
      "áĪµáī°áĪŃ": 7567,
      "ĠIslam": 7568,
      "ĠSchool,": 7569,
      "ĠáĪŃáĭķ": 7570,
      "ĠáĬłáĪĽáĬ«": 7571,
      "ĠáĬĹáĪª": 7572,
      "Ġáīłáī°áĪĪáĭŃáĪĿ": 7573,
      "ĠáĮ½áĪķáįĪáīµ": 7574,
      "ĠMoro": 7575,
      "Au": 7576,
      "bor": 7577,
      "ĠÉĵ": 7578,
      "Ġren": 7579,
      "Ġtawa": 7580,
      "iken": 7581,
      "ded": 7582,
      "Ïģ": 7583,
      "Ġsans": 7584,
      "Ġkuta": 7585,
      "Ġkutumia": 7586,
      "ĠTsa": 7587,
      "Ġhivi": 7588,
      "ĠWaislamu": 7589,
      "ĠCount": 7590,
      "Ġ2019.": 7591,
      "-T": 7592,
      "Ġces": 7593,
      "Ġfur": 7594,
      "ĠEr": 7595,
      "Ġlim": 7596,
      "áĪĲáĭŃ": 7597,
      "Ġ1974": 7598,
      "ĠáĭĪáĮ£": 7599,
      "áĭ¨áĬłáĪ": 7600,
      "ĠRec": 7601,
      "ĠáĬ¥áĬķáĭµ": 7602,
      "áĮ£áĪª": 7603,
      "bujoko": 7604,
      "ĠáīłáĪĺáĪµ": 7605,
      "ĠáĪĻáĭļáīĥ": 7606,
      "tumÃ²": 7607,
      "lá»įÌģwá»įÌģ": 7608,
      "ĠáĪĨáĬĸáĪĿ": 7609,
      "Ġplay": 7610,
      "ĠáĮĪáĬķáĭĺáī¥": 7611,
      "Ġtáº¹lifÃŃ": 7612,
      "-i": 7613,
      "limia": 7614,
      "ĠAngel": 7615,
      "Ġwame": 7616,
      "ĠMwaka": 7617,
      "Ġika": 7618,
      "aract": 7619,
      "arufu": 7620,
      "Ġwatsa": 7621,
      "holanzi": 7622,
      "ĠMc": 7623,
      "ried": 7624,
      "hind": 7625,
      "Ġkis": 7626,
      "hil": 7627,
      "Ġgan": 7628,
      "elon": 7629,
      "bá»įÌģá»įÌĢlÃ¹": 7630,
      "Ġoju": 7631,
      "áĭ°áĮĪ": 7632,
      "áĮįáĬĺáīµ": 7633,
      "Ġáĭ°áĮĭ": 7634,
      "ĠáĪģáĪīáĪĿ": 7635,
      "áį²áį±áį»áį¶áį": 7636,
      "áĪĽáĭŃáĪµáĮ¥": 7637,
      "ĠáĪļáĬĴáĪµáī´": 7638,
      "ĠáĭµáĬķáĮĭáĭŃ": 7639,
      "alement": 7640,
      "Ġwit": 7641,
      "ĠBÃŃ": 7642,
      "emu": 7643,
      "Ġhayo": 7644,
      "Ġhttp://": 7645,
      "Ġnahiyar": 7646,
      "ĠIk": 7647,
      "otes": 7648,
      "ument": 7649,
      "Ġ2009,": 7650,
      "Ġang": 7651,
      "Ġconstitu": 7652,
      "Duk": 7653,
      "ÏĤ": 7654,
      "ĠMet": 7655,
      "Ġ(2004)": 7656,
      "Yana": 7657,
      "yr": 7658,
      "ĠkÃ¡Ãł": 7659,
      "Ġmengi": 7660,
      "un.": 7661,
      "áĪĿáĪĮ": 7662,
      "áĪįáĪĿáĬĵ": 7663,
      "ĠpÃŃn": 7664,
      "ĠGasar": 7665,
      "áĮĭáĪª": 7666,
      "ĠÃĮjáº¹ÌĢ": 7667,
      "Ġaskofu": 7668,
      "Ġáº¹ÌĢsÃ¬n": 7669,
      "áī¦áĪŃ": 7670,
      "dÃŃnlá»įÌģgbá»įÌĢn": 7671,
      "Ġtáº¹ÌģnÃ¬s": 7672,
      "Ġcalled": 7673,
      "site": 7674,
      "Ġowo": 7675,
      "ĠgÃ©": 7676,
      "Ġtaba": 7677,
      "Ġ1986": 7678,
      "jumo": 7679,
      "Ġhab": 7680,
      "-d": 7681,
      "AC": 7682,
      "very": 7683,
      "Ġhttp://www.": 7684,
      "74": 7685,
      "uko": 7686,
      "ĠLatin": 7687,
      "iction": 7688,
      "ĠÉĹin": 7689,
      "ĠÂ»,": 7690,
      "Ġsaman": 7691,
      "Ġyear": 7692,
      "bÃ¬": 7693,
      "tá»į": 7694,
      "á»įlÃ¡": 7695,
      "Ġ(áĬłáĪ": 7696,
      "Ġph": 7697,
      "áĪĪáĪ°": 7698,
      "áĭ°áĮĭ": 7699,
      "áĪ«áĪª": 7700,
      "áī³áĪªáĬŃ": 7701,
      "áī£áī±": 7702,
      "áĮ¥áĪ¨áīµ": 7703,
      "áĬ«áĬķ": 7704,
      "áĭĭáĪŃáĭ«": 7705,
      "áĭĿáĬĵ": 7706,
      "áī²áīµ": 7707,
      "ĠVita": 7708,
      "ĠáĪķáĭŃáĭĪáīµ": 7709,
      "jÃłkÃ¡láº¹ÌĢ": 7710,
      "Ġnumber": 7711,
      "Ġjulá»į": 7712,
      "andan": 7713,
      "Ġkabi": 7714,
      "52": 7715,
      "katar": 7716,
      "angwa": 7717,
      "enegal": 7718,
      "Ġsabon": 7719,
      "jejen": 7720,
      "ĠÉĹari": 7721,
      "ĠMisri": 7722,
      "ole": 7723,
      "17)": 7724,
      "ĠAustria": 7725,
      "don": 7726,
      "áĮĲ": 7727,
      "áĭįáĬĵ": 7728,
      "áī½áĪī": 7729,
      "ĠáĬłáĭĪ": 7730,
      "áĭ°áī¡áī¥": 7731,
      "ĠáĪĺáī¥áīµ": 7732,
      "Ġá»įpá»įlá»į": 7733,
      "ĠáĪµáī´": 7734,
      "áĭļáĭ«áĬķ": 7735,
      "ĠáĬĲáīłáĪŃáį¡áį¡": 7736,
      "áĮ¨áīµ": 7737,
      "ĠArgent": 7738,
      "ĠáįĬáĪį": 7739,
      "ÃĪyÃŃ": 7740,
      "Ġ(áĭĪáĭŃáĪĿ": 7741,
      "html": 7742,
      "Ã©c": 7743,
      "andika": 7744,
      "ĠCongress": 7745,
      "Ġ(13": 7746,
      "Ġiyaka": 7747,
      "ĠApp": 7748,
      "ĠYou": 7749,
      "Ġ(10": 7750,
      "ĠRÃ©": 7751,
      "voir": 7752,
      ")áį¢": 7753,
      "dÃ¬ÃŃ": 7754,
      "jÃ¨": 7755,
      "ĠáĮĵ": 7756,
      "áĪ«áĬĴ": 7757,
      "ĠÃ¬s": 7758,
      "ĠPor": 7759,
      "stan": 7760,
      "Ġthree": 7761,
      "Ġáīłáī°áĪĪáĭ«áĭ©": 7762,
      "ĠáīłáĬłáĭ²áĪµ": 7763,
      "ements": 7764,
      "endant": 7765,
      "ĠáįįáīħáĪŃ": 7766,
      "ĠáĬłáĪįáįĭ": 7767,
      "Ġáĭ¨áĬĲáīłáĪ©": 7768,
      "Ġáī¤áī°áĬŃáĪŃáĪµáī²áĭ«áĬķ": 7769,
      "Ġáĭ¨áįĸáĪĪáī²áĬ«": 7770,
      "xim": 7771,
      "ĠHam": 7772,
      "Ġloc": 7773,
      "ĠAngo": 7774,
      "onyesha": 7775,
      "Ġcibiyar": 7776,
      "Ġtabbatar": 7777,
      "yahudi": 7778,
      "yc": 7779,
      "Ġhuwa": 7780,
      "ĠÃį": 7781,
      "enza": 7782,
      "lit": 7783,
      "istori": 7784,
      "istrict": 7785,
      "Nchi": 7786,
      "m.": 7787,
      "à¥": 7788,
      "Ġzar": 7789,
      "BÃ¡": 7790,
      "Jihar": 7791,
      "ii": 7792,
      "zungu": 7793,
      "ĠáĬĶ": 7794,
      "Ġmen": 7795,
      "ĠsÃ³": 7796,
      "Ġáĭ¨áĭķ": 7797,
      "atre": 7798,
      "áĭ«áīµ": 7799,
      "ĠáīłáĪ®": 7800,
      "áĬ«áĭµ": 7801,
      "áįĪáĪ«": 7802,
      "Ġmatu": 7803,
      "ĠilÃ©-Ã¬wÃ©": 7804,
      "ĠáĪķáĮį": 7805,
      "ambia": 7806,
      "áį²áį±áį»áį·áį": 7807,
      "fÃŃrÃŃkÃł": 7808,
      "Babban": 7809,
      "pÃ³": 7810,
      "Ġpeu": 7811,
      "ĠUniversity,": 7812,
      "tra": 7813,
      "Ġphilosop": 7814,
      "son,": 7815,
      "Ġsen": 7816,
      "ĠSho": 7817,
      "Ġzo": 7818,
      "Ġ1979": 7819,
      "Ġ70": 7820,
      "Ġgirm": 7821,
      "Hivyo": 7822,
      "Ġgargajiya": 7823,
      "Ġaz": 7824,
      "li.": 7825,
      "liya": 7826,
      "ĠáīłáĭļáĪģ": 7827,
      "Ġá»įgá»įÌģ": 7828,
      "áĭĿáī¡": 7829,
      "Ġáº¹gbáº¹": 7830,
      "dua": 7831,
      "ĠáīłáĪĺáĮ¨áĪ¨áĪ»": 7832,
      "ĠáĬłáĬķáĭ°": 7833,
      "tÃłrÃŃ": 7834,
      "Ġ(2015": 7835,
      "ĠáįĬáĭ°": 7836,
      "áĮĪáĪĪáĮį": 7837,
      "ĠáĪªáįĲáī¥áĪĬáĬŃ": 7838,
      "ĠáīłáĭĵáĪĪáĪĿ": 7839,
      "ĠáĮłáĪĭ": 7840,
      "Ã¡Ã¡jÃº": 7841,
      "Ġfamilia": 7842,
      "inin": 7843,
      "kas": 7844,
      "bai": 7845,
      "Ġins": 7846,
      "emia": 7847,
      "ĠDay": 7848,
      "Ġjumla": 7849,
      "Ġ1992": 7850,
      "Ġyanayi": 7851,
      "Ġ(2016": 7852,
      "Ġlittafin": 7853,
      "áĪĿáĪµ": 7854,
      "ict": 7855,
      "ĠSahara": 7856,
      "uncil": 7857,
      "-F": 7858,
      "dáº¹Ìģ": 7859,
      "ek": 7860,
      "áī°áĬŀáī½": 7861,
      "áĪħáĪŃ": 7862,
      "ĠGroup": 7863,
      "ĠáĮįáĪ«": 7864,
      "Ġáĭ¨áī°áīĢ": 7865,
      "áĪĬáĪµ": 7866,
      "áĭĵáĪĪáĪĿ": 7867,
      "ĠáĬ¢áĭ¨áĪ±áĪµ": 7868,
      "ĠSol": 7869,
      "ulin": 7870,
      "Ġkan,": 7871,
      "86": 7872,
      "Ġriki": 7873,
      "Ġsakamakon": 7874,
      "ĠLaw": 7875,
      "ĠFound": 7876,
      "ĠDelta": 7877,
      "-N": 7878,
      "Ġ1978": 7879,
      "man,": 7880,
      "ĠannÃ©es": 7881,
      "85": 7882,
      "Ġnatur": 7883,
      "onin": 7884,
      "Ġáĭ¨áĮ¦áĪŃ": 7885,
      "Ġ(3": 7886,
      "ĠáīłáĬŃ": 7887,
      "áĪĪáĪį": 7888,
      "umm": 7889,
      "áįįáī°áĬĽ": 7890,
      "áĭ³áĭĬ": 7891,
      "ĠáĬĲáĭįáį¤": 7892,
      "ĠáĮįáĪį": 7893,
      "ĠYuni": 7894,
      "Ġáĭ°áĪŃ": 7895,
      "Ġáĭ°áī¥áĪ¨": 7896,
      "áĬĶáīµ": 7897,
      "Ġáĭ¨áĬłáĪŃ": 7898,
      "ĠáĪħáĮį": 7899,
      "ĠáīłáĬłáĪľáĪªáĬ«": 7900,
      "Ġkáº¹Ìģká»įÌĢá»įÌģ": 7901,
      "Ġelle": 7902,
      "ĠKid": 7903,
      "Ġtaifa": 7904,
      "Ġmakao": 7905,
      "Ġwenyewe": 7906,
      "ĠBiblia": 7907,
      "Ġ$": 7908,
      "Ġ1966": 7909,
      "illar": 7910,
      "ĠPeter": 7911,
      "Ġmit": 7912,
      "Ġgiga": 7913,
      "Orodha": 7914,
      "wÃ¬": 7915,
      "ĠáĮ»": 7916,
      "ĠáĬ¥áĮ½áĭĭáīµ": 7917,
      "ĠKol": 7918,
      "ĠáĬłáĭ°áĪ¨áĮĪ": 7919,
      "ĠÃłká»į": 7920,
      "áĬĲáĭĵáĬķ": 7921,
      "áĪ³áī¸áĭįáĬķ": 7922,
      "ĠáīłáĪ±": 7923,
      "Ġáĭ¨áĪ¶": 7924,
      "si.": 7925,
      "jiji": 7926,
      "áĪ®áĪŀ": 7927,
      "áĭ®áīµ": 7928,
      "ĠáĬ¥áĬķáĭ°áĬĲáīłáĪŃ": 7929,
      "áĬĴáīµ": 7930,
      "ĠRound)": 7931,
      "ĠáĬłáĪµáī°áĭĭ": 7932,
      "Ġwanao": 7933,
      "áĪµáī³áĬķ": 7934,
      "Ġjiho": 7935,
      "Ġkawai": 7936,
      "ĠáĬ¥áĬķáĬ³áĬķ": 7937,
      "ĠáĭĪáĭĺáī°": 7938,
      "Ġnkan": 7939,
      "ĠIra": 7940,
      "ection": 7941,
      "Ġ1983": 7942,
      "ĠCalifor": 7943,
      "s)": 7944,
      "amare": 7945,
      "as.": 7946,
      "edia": 7947,
      "emble": 7948,
      "toni": 7949,
      "ym": 7950,
      "ĠChe": 7951,
      "ĠKwam": 7952,
      "Ġ2010.": 7953,
      "Ġmats": 7954,
      "Ġshafi": 7955,
      "attle": 7956,
      "issance": 7957,
      "jÃ¬n": 7958,
      "áĭįáĪµ": 7959,
      "ĠKari": 7960,
      "Ġnitori": 7961,
      "ĠáīłáĪ³": 7962,
      "áĬ«áĪŃ": 7963,
      "Ġáĭ¨áī°áĬĲáĪ³": 7964,
      "áīłáīµáį¢": 7965,
      "ĠáĭŃáĮĪáĪĺ": 7966,
      "ĠlÃ¡ÃłrÃŃn": 7967,
      "yáº¹ÌĢwÃ²": 7968,
      "-J": 7969,
      "zani": 7970,
      "ultani": 7971,
      "Ġhana": 7972,
      "ĠRos": 7973,
      "ery": 7974,
      "Ġfadin": 7975,
      "hai": 7976,
      "Ġkufuatana": 7977,
      "ĠB.": 7978,
      "Ġkiasi": 7979,
      "Ġbiyu,": 7980,
      "ĠKasuwan": 7981,
      "III": 7982,
      "Ġfina-finai": 7983,
      "ission": 7984,
      "anne": 7985,
      "Ġprogram": 7986,
      "-áº¹": 7987,
      "firi": 7988,
      "páº¹Ìģ": 7989,
      "áĮ®": 7990,
      "Ġáĭ¨áįĪáĪ¨áĬķáĪ³áĭŃ": 7991,
      "áĭįáĪį": 7992,
      "ĠáĪĺáī³": 7993,
      "Ġmain": 7994,
      "dic": 7995,
      "áį¡áī°": 7996,
      "Ġearly": 7997,
      "ĠZimbab": 7998,
      "ĠáĮīáĪį": 7999,
      "áĪłáī¥": 8000,
      "áĪĺáĪĪáĪµ": 8001,
      "ĠÃ©tait": 8002,
      "Hasa": 8003,
      "ton,": 8004,
      "zung": 8005,
      "enta": 8006,
      "ĠPoli": 8007,
      "istry": 8008,
      "tanga": 8009,
      "Ġmanu": 8010,
      "amini": 8011,
      "ituo": 8012,
      "Waliofariki": 8013,
      "gg": 8014,
      "ull": 8015,
      "tin": 8016,
      "Ġmade": 8017,
      "omm": 8018,
      "oshi": 8019,
      "-á»į": 8020,
      "táº¹": 8021,
      "Ġáĭ¨áįĭ": 8022,
      "áĪµáī²": 8023,
      "áĪĽáĪįáį¢": 8024,
      "áĭ¨áĬķ": 8025,
      "áĪ´áīµ": 8026,
      "ĠyÃ¬ÃŃ.": 8027,
      "ĠáīłáĪ°áĪľáĬķ": 8028,
      "ĠáĭĺáĪĺáī»": 8029,
      "ĠáĪĺáĭĭáĭķáĪį": 8030,
      "Ġdid": 8031,
      "Ġyakin": 8032,
      "ison": 8033,
      "Ġpub": 8034,
      "round": 8035,
      "ama,": 8036,
      "Ġzaune": 8037,
      "Ġ2007,": 8038,
      "position": 8039,
      "Ġyawancin": 8040,
      "ĠFrancis": 8041,
      "ĠChristian": 8042,
      "ĠKifaransa": 8043,
      "ate,": 8044,
      "Ġcas": 8045,
      "ĠNet": 8046,
      "ia.org/": 8047,
      "ĠPhili": 8048,
      "ĠInternet": 8049,
      "hird": 8050,
      "97": 8051,
      "Tari": 8052,
      "uve": 8053,
      "ĠOlo": 8054,
      "ĠFrank": 8055,
      "95": 8056,
      "fáº¹": 8057,
      "ÏĦ": 8058,
      "áĭ¢": 8059,
      "Ġdashi": 8060,
      "Ġrike": 8061,
      "Ġrasu": 8062,
      "ĠáĬłáĪ¥": 8063,
      "áĬ¨áĪ°": 8064,
      "ĠáĮ¥áĭ«áīĦ": 8065,
      "kÃ²rÃ²": 8066,
      "Ġwadannan": 8067,
      "ĠáīłáĪĮáĪĭ": 8068,
      "ĠáĪµáī¥áĪµáī¥": 8069,
      "ĠáĪĬáīĥáĭįáĬķáīµ": 8070,
      "ĠDon": 8071,
      "ĠâĢİ": 8072,
      "Bi": 8073,
      "rich": 8074,
      "ĠAlf": 8075,
      "endera": 8076,
      "B.": 8077,
      "ywa": 8078,
      "mah": 8079,
      "ĠIlu": 8080,
      "orm": 8081,
      "Ġwell": 8082,
      "tains": 8083,
      "Ġakiwa": 8084,
      "wikiped": 8085,
      "-Ã²": 8086,
      "áĭŃáīħ": 8087,
      "ĠwÃ²": 8088,
      "áĭ°áĪŃáĮī": 8089,
      "áĮĪáĭĽ": 8090,
      "Ġáī°áĪĽáĪª": 8091,
      "ĠáĮįáĪªáĬŃ": 8092,
      "Ġáĭ¨áī°áĭĪáĪ°": 8093,
      "ĠÅĦlÃ¡": 8094,
      "áī³áĭĪáīħ": 8095,
      "ĠChurch": 8096,
      "ĠáĪ¥áĪŃáĭĵáīµ": 8097,
      "ĠmÃºláº¹ÌĢ": 8098,
      "tumÃ²:": 8099,
      "ghu": 8100,
      "Ġbeing": 8101,
      "ĠpremiÃ¨re": 8102,
      "omp": 8103,
      "Ġ1977": 8104,
      "Ġmvu": 8105,
      "atsayin": 8106,
      "ĠOko": 8107,
      "vice": 8108,
      "GB": 8109,
      "ÉĻ": 8110,
      "ĠKur": 8111,
      "sitÃ¬": 8112,
      "Ġáĭĳ": 8113,
      "Ġdro": 8114,
      "áĪµáĪĬ": 8115,
      "áĪµáī³áīµ": 8116,
      "Ġ1918": 8117,
      "áĬ«áīµ": 8118,
      "ĠáĪµáī¥": 8119,
      "Ġáĭ¨áĬłáĪĪáĪĿ": 8120,
      "Ġ2008,": 8121,
      "ĠparÃŃ": 8122,
      "Ġ1965": 8123,
      "ortant": 8124,
      "gbÃ©sÃŃ": 8125,
      "áįīáīµ": 8126,
      "Ġáī°áĭĪáĪĪáĭ°": 8127,
      "ĠáĬłáĭįáĪ®áįĵ": 8128,
      "ĠáĪĺáĬĲáĪ»": 8129,
      "Ġtáº¹Ìģláº¹ÌĢ.": 8130,
      "ĠBorno": 8131,
      "ĠDunia": 8132,
      "artar": 8133,
      "Ġjiha": 8134,
      "Par": 8135,
      "tat": 8136,
      "Ġpuis": 8137,
      "bi.": 8138,
      "Ġl'in": 8139,
      "undun": 8140,
      "Ġyanke": 8141,
      "Ġ1950": 8142,
      "ĠWatakatifu": 8143,
      "Ġwi": 8144,
      "Ġ(2006)": 8145,
      "uel": 8146,
      "Ġmajor": 8147,
      "ked": 8148,
      "athan": 8149,
      "ĠpÃºpá»įÌĢ": 8150,
      "áĭŃáĪŃáĪĭáĬķáĭµ": 8151,
      "ĠáĪĺáīĢáĪĺáĮ«": 8152,
      "áĪŀáĬķ": 8153,
      "áī¡áĪŃ": 8154,
      "ĠáīħáĬĿ": 8155,
      "ĠgbÃ³": 8156,
      "áĪ£áĭŃ": 8157,
      "áĪµáī°áĬĽáĭį": 8158,
      "Ã³nÃł": 8159,
      "Ġoluko": 8160,
      "ĠáĪ½áĪį": 8161,
      "rÃ¡lÃŃÃł": 8162,
      "Ġáĭ¶áĪ®": 8163,
      "ĠáĭŃáĪĨáĬĵáĪį": 8164,
      "Ġoruko": 8165,
      "ĠáĪĺáĪ£áĪªáĭ«": 8166,
      "Far": 8167,
      "ĠStudi": 8168,
      "ril": 8169,
      "Ġzane": 8170,
      "Ġchama": 8171,
      "ĠCentral": 8172,
      "ana.": 8173,
      "andard": 8174,
      "Ġtradition": 8175,
      "cel": 8176,
      "Ġdest": 8177,
      "ĠHenry": 8178,
      "ĠMohammed": 8179,
      "arra": 8180,
      "Ġlau": 8181,
      "ĠFe": 8182,
      "ĠGovernment": 8183,
      "ĠSalaam": 8184,
      "pinduzi": 8185,
      "pl": 8186,
      "Ġsanar": 8187,
      "áī°áį¡": 8188,
      "áī°áĭ³": 8189,
      "ti.": 8190,
      "áĭ°áĬķáīµ": 8191,
      "áĪĭáĮħ": 8192,
      "áī£áī£": 8193,
      "ĠGÃºÃºsÃ¹": 8194,
      "ĠJina": 8195,
      "áīłáĪ»": 8196,
      "áĪ©áĬŃ": 8197,
      "áĭķáīĨ": 8198,
      "áĭ©áīµ": 8199,
      "ĠáĬłáĪįáįİ": 8200,
      "Ġáĭ¨áĬ¥áĬķáĮįáĪĬáĭĿ": 8201,
      "Ġáī°áīĢáĪĿ": 8202,
      "ĠáĮ¨áĭĭ": 8203,
      "ĠAustrÃ¡lÃŃÃł": 8204,
      "ĠkÃºkur": 8205,
      "Ġmahaifin": 8206,
      "Ġinganta": 8207,
      "ĠkÃºkurÃº": 8208,
      "Ġsuc": 8209,
      "Ġkeje": 8210,
      "Ġconstru": 8211,
      "kunrin": 8212,
      "fik": 8213,
      "fund": 8214,
      "mir": 8215,
      "Ġpoint": 8216,
      "Ġyasa": 8217,
      "Ġphysi": 8218,
      "Ġimo": 8219,
      "ĠWab": 8220,
      "ĠÂ».": 8221,
      "Ġtenis": 8222,
      "ĠMartin": 8223,
      "Ġkuzaliwa": 8224,
      "ĠWin": 8225,
      "bour": 8226,
      "Ġsiyasan": 8227,
      "Ġjami'ar": 8228,
      "Kuma": 8229,
      "Ġbangaren": 8230,
      "chunguza": 8231,
      "áĬķáĪ°": 8232,
      "áĬķáĬ«": 8233,
      "áĪįáį¤": 8234,
      "ĠAle": 8235,
      "áĬĲáĮį": 8236,
      "áīłáĭ«": 8237,
      "Ġmak": 8238,
      "áįįáī°": 8239,
      "áīħáĪį": 8240,
      "ĠkarÃ¹n": 8241,
      "ĠáĬĲáīłáĪŃáį¤": 8242,
      "ories": 8243,
      "ĠáĪµáĪĿáĪĿáĬĲáīµ": 8244,
      "kÃ²Ã³": 8245,
      "ĠáĪĺáĬķáĮĪ": 8246,
      "ĠáĬ¨áĬłáĬķáĭµ": 8247,
      "áĪŃáĪ±áĪĿ": 8248,
      "ĠáĭŃáī³áĪĺáĬĵ": 8249,
      "dian": 8250,
      "Ġvers": 8251,
      "go.": 8252,
      "Ġkeji": 8253,
      "ĠSecond": 8254,
      "ĠFederal": 8255,
      "ĠSta": 8256,
      "ĠSir": 8257,
      "Ġ1973": 8258,
      "wiki/": 8259,
      "Ġast": 8260,
      "Ġhaya": 8261,
      "Ġhaki": 8262,
      "Ġ2013.": 8263,
      "ĠUsw": 8264,
      "ĠSarkin": 8265,
      "Ġofficial": 8266,
      "cus": 8267,
      "ĠAbe": 8268,
      "ifi": 8269,
      "ĠAnti": 8270,
      "Ġplusieurs": 8271,
      "áī¿": 8272,
      "ĠáĭĬ": 8273,
      "Ġáĭ¨áĪ«": 8274,
      "Ġáĭ¨áĮİ": 8275,
      "Ġáĭ¨áĪĺáĬķ": 8276,
      "Ġlors": 8277,
      "ĠáĪĺáīĢ": 8278,
      "ĠCiv": 8279,
      "ĠÃ¬wÃ¡": 8280,
      "Ġáī°áĮĪáĬĿ": 8281,
      "Ġá»įká»įÌĢ": 8282,
      "ĠáīłáĪ¶": 8283,
      "ĠáĭĪáĭ²áĭ«": 8284,
      "áīĢáĪĿ": 8285,
      "Ġáĭ«áĭ°áĪŃ": 8286,
      "ĠáĪĽáĪ¨": 8287,
      "áī¶áĭ¶": 8288,
      "ĠÃĢyá»įkÃł": 8289,
      "ĠsÃŃnÃº": 8290,
      "otun": 8291,
      "Ġ36": 8292,
      "ĠáĪ¥áĪįáĮ£áĬķ": 8293,
      "áĪķáĪį": 8294,
      "áĪ£áĪ¥": 8295,
      "à¤ĺ": 8296,
      "áįİáĪŃ": 8297,
      "ĠonÃŃmá»įÌĢ": 8298,
      "áī¥áĪ¨áī°": 8299,
      "ĠÃģfÃŃrÃŃkÃł": 8300,
      "ĠÃ¬lera": 8301,
      "Ġfada": 8302,
      "ĠDara": 8303,
      "ĠTurai": 8304,
      "ĠLouis": 8305,
      "duction": 8306,
      "ÉĹi": 8307,
      "ĠAfrilu": 8308,
      "land,": 8309,
      "ĠUm": 8310,
      "Ġ1971": 8311,
      "ois": 8312,
      "ĠP.": 8313,
      "qui": 8314,
      "ĠCommun": 8315,
      "54": 8316,
      "gement": 8317,
      "Ġnoma": 8318,
      "ci.": 8319,
      "Ġvit": 8320,
      "Ġáī£áĪħáĪį": 8321,
      "ĠáĪĿáĬŃáĪŃ": 8322,
      "áĪ¨áĮĭáĮĪ": 8323,
      "áĬ¥áĬķáĭ²áĪģáĪĿ": 8324,
      "Ġáī°áĮ«áĭĭ": 8325,
      "'o": 8326,
      "Ce": 8327,
      "oun": 8328,
      "ĠKon": 8329,
      "uter": 8330,
      "áĪŃáīµáĪ«": 8331,
      "Ġtsakiyar": 8332,
      "Ġnasarar": 8333,
      "car": 8334,
      "onia": 8335,
      "resent": 8336,
      "NN": 8337,
      "xford": 8338,
      "yÃ²": 8339,
      "ËĪ": 8340,
      "Ġmam": 8341,
      "Ġsame": 8342,
      "ĠIya": 8343,
      "Ġ1920": 8344,
      "ĠOsu": 8345,
      "Ġnord": 8346,
      "ĠRes": 8347,
      "Ġnotamment": 8348,
      "hat": 8349,
      "yáº¹Ìģ": 8350,
      "áī®": 8351,
      "Ġkisi": 8352,
      "ĠMji": 8353,
      "áĪĪáĪµ": 8354,
      "áī½áĬ¹": 8355,
      "Ġgidi": 8356,
      "Ġruwan": 8357,
      "áī¥áī»": 8358,
      "ĠTrans": 8359,
      "áĭ¨áĪµ": 8360,
      "áĭ¨áĬ¢áīµáĭ®áĮµáĭ«": 8361,
      "ifiki": 8362,
      "Ġuwan": 8363,
      "Ġáĭ¨áī°áĭĪáĪĪ": 8364,
      "Ġkananan": 8365,
      "áĪģáįį": 8366,
      "»áįī": 8367,
      "wamna": 8368,
      "engwa": 8369,
      "Ġulikuwa": 8370,
      "áĭ¥áĬķ": 8371,
      "Ġáī°áĪ«áĪ®áī½": 8372,
      "ĠÃłmÃ¬-áº¹ÌĢyáº¹": 8373,
      "Ġáīłáī³áĪªáĬŃ": 8374,
      "ĠáĬłáĪµáįĪáĪĭáĮĬ": 8375,
      "ĠáĭŃáĮĪáĪĺáī³áĪįáį¢": 8376,
      "aly": 8377,
      "keji": 8378,
      "ĠtÃ©": 8379,
      "ĠOm": 8380,
      "rise": 8381,
      "Ġperson": 8382,
      "Ã£": 8383,
      "Ġmillion": 8384,
      "tto": 8385,
      "x,": 8386,
      "Ġsour": 8387,
      "isme": 8388,
      "ĠSenegal": 8389,
      "Ġhalin": 8390,
      "Ġzabe": 8391,
      "Ġkiongozi": 8392,
      "Ġ1985": 8393,
      "Ġjam'iyyar": 8394,
      "áĬŃáĬĸ": 8395,
      "Ġyáº¹": 8396,
      "áīĢáĮ½": 8397,
      "áĭĪáĪ¨": 8398,
      "ĠáĪ°áĪĽ": 8399,
      "ĠáĭµáĬķáĮįáĪį": 8400,
      "ĠáĬķáĮ¥áĪ¨": 8401,
      "Ġcontinu": 8402,
      "áĬķáĮīáĪł": 8403,
      "ĠáĭŃáĮĪáĬĽáĪīáį¢": 8404,
      "áĬĺáĭį": 8405,
      "Ġsci": 8406,
      "assi": 8407,
      "ĠNic": 8408,
      "veau": 8409,
      "07": 8410,
      "vy": 8411,
      "zza": 8412,
      "Ġpor": 8413,
      "ĠSab": 8414,
      "ĠChuo": 8415,
      "ulus": 8416,
      "sible": 8417,
      "Ġkakar": 8418,
      "fai": 8419,
      "ungano": 8420,
      "ĠDevelopment": 8421,
      "Ġdukkan": 8422,
      "ĠTuranci": 8423,
      "badili": 8424,
      "Dans": 8425,
      "ode": 8426,
      "ĠDin": 8427,
      "husi": 8428,
      "lot": 8429,
      "yÃ¬": 8430,
      "Ðº": 8431,
      "Ġáĭ¨áĭļáĪħ": 8432,
      "Ġáĭ¨áī´": 8433,
      "ĠáīłáĮ¥áĬķáī³áĭĬ": 8434,
      "áĬĲáĪµ": 8435,
      "áī¥áĪĭ": 8436,
      "usha": 8437,
      "ĠáĬ¨áĭĺ": 8438,
      "ĠÃ¬dÃł": 8439,
      "Ġáī°áī£áĪĪ": 8440,
      "Ã²gÃ¹n": 8441,
      "ĠLife": 8442,
      "Ġáĭ«áĪµáī°": 8443,
      "áī±áĪŃáĬŃ": 8444,
      "Ġáĭ¨áĪļáī£áĪĪáĭį": 8445,
      "Ġáĭ¨áĪļáĬĸáĪŃ": 8446,
      "á»įÌģnÃł": 8447,
      "Ġáĭįáīħáĭ«áĬĸáĪµ": 8448,
      "upi": 8449,
      "áĪłáĪ©": 8450,
      "ĠáĪµáĪŃáĭĵáīµ": 8451,
      "Ġincluding": 8452,
      "áĪŀáĬŃáĪ«áĪ²": 8453,
      "Af": 8454,
      "fen": 8455,
      "Ġfond": 8456,
      "ĠBras": 8457,
      "omini": 8458,
      "rian": 8459,
      "ksi": 8460,
      "wor": 8461,
      "ikata": 8462,
      "eriod": 8463,
      "ĠAlhaji": 8464,
      "Ġ400": 8465,
      "elekea": 8466,
      "Ġshawara": 8467,
      "ĠKikatoliki": 8468,
      "embe": 8469,
      "ĠDuba": 8470,
      "ilway": 8471,
      "Ġany": 8472,
      "usiness": 8473,
      "Ro": 8474,
      "tobi": 8475,
      "ente": 8476,
      "Ġdeath": 8477,
      "Mar": 8478,
      "bÃ¹": 8479,
      "fÃº": 8480,
      "Ġáī«": 8481,
      "Ġmy": 8482,
      "Ġáĭ¨Â«": 8483,
      "Ġ(áĭĺ": 8484,
      "Ġcre": 8485,
      "áĪ«áĪŃ": 8486,
      "Ġá»įká»į": 8487,
      "ĠáīłáĪĪ": 8488,
      "Ġáĭ¨áĪ©": 8489,
      "ĠOlÃ¹": 8490,
      "áĭ²áīµ": 8491,
      "Ġá¹£áº¹ÌĢ": 8492,
      "ĠáĪ°áįĬ": 8493,
      "ĠÃĮjá»įba": 8494,
      "áĪ»áĪ»": 8495,
      "ĠáĭĭáĬķáĮ«": 8496,
      "ĠáĪļáĪµáīµ": 8497,
      "ĠáĭµáĪ¨áĪµáį£": 8498,
      "áįīáį¢": 8499,
      "ĠáīłáĬ¥áĪµ": 8500,
      "áĬħáĪ£áĪ¥": 8501,
      "Ġnomba": 8502,
      "Ġkaláº¹ÌĢ": 8503,
      "ĠáĪĺáĪ°áĪ¨": 8504,
      "áĪĺáĪ°áĪ¨": 8505,
      "ĠdÃłgbÃł": 8506,
      "Alimfuata": 8507,
      "wal": 8508,
      "Ġfasaha": 8509,
      "Ġzao": 8510,
      "ĠÆĻwarar": 8511,
      "Ġamince": 8512,
      "Ġkasuwa": 8513,
      "ine.": 8514,
      "Ġlow": 8515,
      "ĠSoma": 8516,
      "Ġtsara": 8517,
      "Viungo": 8518,
      "Ġshirye-shiryen": 8519,
      "Ġiki": 8520,
      "ĠBon": 8521,
      "wanza": 8522,
      "frican": 8523,
      "Ġtir": 8524,
      "umbe": 8525,
      "ĠDam": 8526,
      "bio": 8527,
      "ĠShehu": 8528,
      "Äĵ": 8529,
      "Ġnational": 8530,
      "Ġ2012.": 8531,
      "Ġdiffer": 8532,
      "ĠEdward": 8533,
      "Ġáĭī": 8534,
      "Ġagbara": 8535,
      "ĠMana": 8536,
      "ĠSim": 8537,
      "Ġkuj": 8538,
      "ĠáĪĺáĪĨáĬķ": 8539,
      "ĠáĭŃáĬĸ": 8540,
      "ĠáĭĪáĮĪ": 8541,
      "ĠáĬĲáĭįáį£": 8542,
      "áįĭáĬķ": 8543,
      "áĪģáĪĪáīµ": 8544,
      "Ġmasarautar": 8545,
      "ĠáĬ¥áĪµáĭ«": 8546,
      "ano,": 8547,
      "Ġkáº¹tÃł": 8548,
      "Ġkáº¹fÃł": 8549,
      "Ġal'umma": 8550,
      "llaye": 8551,
      "Ġmahaifiyar": 8552,
      "ĠKilatini": 8553,
      "ĠâĢ¹âĢ¹": 8554,
      "Kar": 8555,
      "ĠfÃ©": 8556,
      "Ġuse": 8557,
      "Ġsing": 8558,
      "ĠRed": 8559,
      "ĠItalia.": 8560,
      "Ġstu": 8561,
      "Ġsitu": 8562,
      "ĠGlo": 8563,
      "ĠFal": 8564,
      "br": 8565,
      "ange": 8566,
      "Ġshi.": 8567,
      "okras": 8568,
      "Ġchake.": 8569,
      "Ġarewacin": 8570,
      "Ġtakwas": 8571,
      "Ġwatumwa": 8572,
      ".O": 8573,
      "89": 8574,
      "bá»į": 8575,
      "áĬķáī°": 8576,
      "Ġáĭ¨áī»áĭŃáĬĵ": 8577,
      "áĭįáĪ®": 8578,
      "Ãłwá»įn": 8579,
      "Ġojoibi": 8580,
      "áĬĵáį£": 8581,
      "áĪĪáĭµ": 8582,
      "áĭµáĪį": 8583,
      "ĠBern": 8584,
      "áĬĽáĭįáĬķ": 8585,
      "Ġáī°áĭĽ": 8586,
      "ĠáĪĿáĮįáī¥": 8587,
      "sions": 8588,
      "áįįáĪ¬": 8589,
      "áīħáĭ±áĪµ": 8590,
      "Ġeko": 8591,
      "ĠáĪ°áĭĵáīµ": 8592,
      "bangi": 8593,
      "ĠNairo": 8594,
      "ĠáĪįáĬŃ": 8595,
      "ĠáĪĨáĭŃ": 8596,
      "Ġáĭ¨áĬłáĬķáĭµ": 8597,
      "áĮĪáĬĻáīµ": 8598,
      "áīłáī°áĮ¨áĪĽáĪª": 8599,
      "ĠáĭįáĮ¤áīµ": 8600,
      "ds": 8601,
      "tes": 8602,
      "Ð»": 8603,
      "Ġ(6": 8604,
      "ĠCap": 8605,
      "tein": 8606,
      "wos": 8607,
      "Ġtur": 8608,
      "alamu": 8609,
      "ĠTele": 8610,
      "ĠHindi": 8611,
      "Ġrefer": 8612,
      "atik": 8613,
      "ĠAso": 8614,
      "ĠKeb": 8615,
      "Ġsayari": 8616,
      "Ġshaharar": 8617,
      "ĠHanyoyin": 8618,
      "Ġcikak": 8619,
      "ĠKibantu": 8620,
      "furu": 8621,
      "Ġlater": 8622,
      "dÃ¹n": 8623,
      "tary": 8624,
      "Ġáī¬": 8625,
      "Ġawo": 8626,
      "áº¹gáº¹": 8627,
      "áĪµáĮ¡": 8628,
      "Ġáīł17": 8629,
      "ĠSpe": 8630,
      "ĠÃłsÃ¬kÃ²": 8631,
      "áīłáīł": 8632,
      "ĠÃ¬yÃłwÃ³": 8633,
      "ĠÃ¬tÃłgÃ©": 8634,
      "ĠáĭŃáĪĪ": 8635,
      "á¹£ep": 8636,
      "ĠáĭĪáĪ°": 8637,
      "bic": 8638,
      "Ġáĭ¨áī°áĮĪáĬĺ": 8639,
      "ĠáĬ¥áĬĵáīµ": 8640,
      "Ġáī¥áĪĭ": 8641,
      "áĬķáĮįáĭµ": 8642,
      "áĭ©áĬĵáĭŃáīµáĭµ": 8643,
      "ĠZe": 8644,
      "kÃ¬tÃ¬": 8645,
      "Ġaá¹£ojÃº": 8646,
      "ĠÃłkÃ³kÃ²": 8647,
      "ĠáĭįáĭµáĭµáĪŃ": 8648,
      "ĠáĬłáĪįáįĭáī¤áīµ": 8649,
      "ian": 8650,
      "Ġauri": 8651,
      "ĠKore": 8652,
      "bogbo": 8653,
      "ĠUnion": 8654,
      "Ġcompos": 8655,
      "ĠGreek": 8656,
      "ia.org/wiki/": 8657,
      "Akwai": 8658,
      "sta": 8659,
      "áĥ": 8660,
      "ĠAá¹£": 8661,
      "ilÃ©": 8662,
      "ector": 8663,
      "Ġmfumo": 8664,
      "Ġatom": 8665,
      "Ġfal": 8666,
      "rea": 8667,
      "ĠVirgin": 8668,
      "Ġagainst": 8669,
      "bas": 8670,
      "Ñģ": 8671,
      "ĠCup": 8672,
      "Ġ\"C": 8673,
      "anth": 8674,
      "test": 8675,
      "Ø¹": 8676,
      "áĮ§": 8677,
      "time": 8678,
      "Ġgbi": 8679,
      "Ġgano": 8680,
      "áĮįáĭµáĪĿ": 8681,
      "áį¡áĭŃ": 8682,
      "áįĪáĮ¸": 8683,
      "áĪ³áĪĮáĪĿ": 8684,
      "ĠáĪ°áī¥": 8685,
      "áĪĬáīµ": 8686,
      "áĭ°áĪ¨áĮį": 8687,
      "ĠilÃ¨": 8688,
      "ĠáĬªáĬķáĮį": 8689,
      "ĠáįĵáĪŃáī²áĭİáī½": 8690,
      "Ġ(Y": 8691,
      "ĠM.": 8692,
      "Ġfiye": 8693,
      "Ġmatan": 8694,
      "Ġ6.": 8695,
      "Ġlililo": 8696,
      "ridge": 8697,
      "Ġcri": 8698,
      "aniya": 8699,
      "Ġ2009.": 8700,
      "ĠBuhari": 8701,
      "ellow": 8702,
      "ga.": 8703,
      "ĠDani": 8704,
      "Ġthrough": 8705,
      "Ġ1969": 8706,
      "Ġ(2003)": 8707,
      "owever,": 8708,
      "ĠMara": 8709,
      "ĠCons": 8710,
      "ĠJohann": 8711,
      "Ġ1981": 8712,
      "zikin": 8713,
      "Ġbata": 8714,
      "Ġnigb": 8715,
      "áĪĽáĪ¨": 8716,
      "áĪ³áĪ°áī¥": 8717,
      "umbi": 8718,
      "ĠFasaha": 8719,
      "áĭ³áīµ": 8720,
      "rey": 8721,
      "Ġáĭ«áĪĭ": 8722,
      "Ġáĭ«áĪīáīµ": 8723,
      "áįĪáĪ¨": 8724,
      "áīĥáīµ": 8725,
      "Ġwase": 8726,
      "Ġkarshen": 8727,
      "Ġáī£áĪĪáĭį": 8728,
      "áĮłáĪī": 8729,
      "Ġwasanni": 8730,
      "áĪ«áĭĬáīµ": 8731,
      "ĠáĬ¢áīµáĭ®áĮµáĭ«áĭĬ": 8732,
      "ĠFrÃ¡n": 8733,
      "-oÃ²rÃ¹n": 8734,
      "ĠáĬŃáįįáĪĭáĮĪáĪ«áīµ": 8735,
      "ĠáĬ¥áĬķáĪµáĪ³": 8736,
      "ĠYammacin": 8737,
      "áĭ«áĭ«áĭ£": 8738,
      "ĠáĭŀáĬķ": 8739,
      "Ġukoloni": 8740,
      "Ġkur": 8741,
      "ession": 8742,
      "sid": 8743,
      "Ġdesign": 8744,
      "wikipedia.org/wiki/": 8745,
      "100": 8746,
      "TV": 8747,
      "kina": 8748,
      "pya": 8749,
      "yi,": 8750,
      "-18": 8751,
      "abi": 8752,
      "Ġwasi": 8753,
      "uthor": 8754,
      "87": 8755,
      "elo": 8756,
      "olin": 8757,
      "Ġsaka": 8758,
      "ological": 8759,
      "ĠPress,": 8760,
      "Ġáĭ¨áĮįáī¥áĮ½": 8761,
      "Ã¡ÃŃ": 8762,
      "Ġiba": 8763,
      "á»įÌģlÃ¡": 8764,
      "áĪĭáĪĽáĭĬ": 8765,
      "ĠÃ¬pÃŃn": 8766,
      "ĠÃ¬wá»įÌĢ": 8767,
      "Ġáī°áĪ¸": 8768,
      "Ã²Ã³": 8769,
      "áīĢáĪµ": 8770,
      "áīħáĪ¨áī¥": 8771,
      "ĠáĪĪáĬłáĪ": 8772,
      "ĠáĪµáĪľáĬķ": 8773,
      "áĮłáį¢": 8774,
      "áĮĭáĬķ": 8775,
      "poli": 8776,
      "ĠmÃ¡rÃ¹n": 8777,
      "ĠáīłáĪļáĪį": 8778,
      "ĠáįĬáīµ": 8779,
      "ĠÃ²á¹£Ã¨rÃ©kÃ¹nrin": 8780,
      "Ġmáº¹Ìģrin": 8781,
      "ulit": 8782,
      "Ġlangue": 8783,
      "ĠáĪĥáĭŃáĪĽáĬĸ": 8784,
      "ĠáĪ²áīĢáĪ©": 8785,
      "ĠAz": 8786,
      "ĠAkwa": 8787,
      "Ġma'": 8788,
      "ps://": 8789,
      "me,": 8790,
      "Ġsyn": 8791,
      "ĠJari": 8792,
      "ĠWilliams": 8793,
      "gÃł": 8794,
      "jec": 8795,
      "áĬĢ": 8796,
      "light": 8797,
      "Ġlenye": 8798,
      "ĠScience": 8799,
      "Ġhapo": 8800,
      "ĠBirnin": 8801,
      "Ġjimillar": 8802,
      "ĠPasifiki": 8803,
      "64": 8804,
      "Ġdog": 8805,
      "ĠAsa": 8806,
      "ard,": 8807,
      "ual": 8808,
      "Ġtá»įÌģ": 8809,
      "ĠnÇ¹kan": 8810,
      "Ġáīł15": 8811,
      "áĪĺáį¢": 8812,
      "ĠáĪĺáĭ°": 8813,
      "chol": 8814,
      "Ġvon": 8815,
      "ĠáĬŃáī¥": 8816,
      "finan": 8817,
      "Ġolori": 8818,
      "Ġthese": 8819,
      "áī¤áĪį": 8820,
      "ĠáĮĭáĭľ": 8821,
      "áĮ¡áį¢": 8822,
      "ĠáĪĢáī¥": 8823,
      "ĠáīłáĬłáĪĽáĪŃáĬĽ": 8824,
      "áº¹Ìģráº¹Ìģ": 8825,
      "ĠlÃ³rÃŃláº¹ÌĢ": 8826,
      "Ġáī»áĭŃáĬĵ": 8827,
      "ĠfÃ¬dÃŃ": 8828,
      "Ġur": 8829,
      "astern": 8830,
      "ĠIran": 8831,
      "ĠáĪĪáĭĺ": 8832,
      "idd": 8833,
      "Ġ...": 8834,
      "ĠKuma": 8835,
      "tÃ¹": 8836,
      "Ġkufanya": 8837,
      "Ġhuru": 8838,
      "Ġ\"The": 8839,
      "Ġliki": 8840,
      "ĠZiwa": 8841,
      "Ġappe": 8842,
      "Ġwasemaji": 8843,
      "Ġ{": 8844,
      "and,": 8845,
      "ĠDut": 8846,
      "ĠL'": 8847,
      "ĠFer": 8848,
      "ĠCOVID-19": 8849,
      "Historia": 8850,
      "irs": 8851,
      "ĠPulit": 8852,
      "ĠGram": 8853,
      "etnam": 8854,
      "kula": 8855,
      "Ġ80": 8856,
      "wen": 8857,
      "ĠbÃ³": 8858,
      "Ġ(áĬ¥": 8859,
      "ĠáĪĺáĪªáĭİáī½": 8860,
      "uses": 8861,
      "Ġáį³": 8862,
      "ĠáĭŃáĪįáīħ": 8863,
      "Ġáĭ¨áĪļáĮł": 8864,
      "Ġáīµáĭķ": 8865,
      "zi,": 8866,
      "ĠáĬ¥áĬķáĭ°áĪļáĭ«": 8867,
      "ĠlÃ¡tÃłrÃŃ": 8868,
      "ter,": 8869,
      "ĠArts": 8870,
      "Ġáĭ¨áĬ¥áĮįáĪŃ": 8871,
      "tÃ²já»į": 8872,
      "áĮ½áĪĲáįĪ": 8873,
      "pion": 8874,
      "ĠagbÃ¡bá»įÌģá»įÌĢlÃ¹": 8875,
      "âĢºâĢº": 8876,
      "ĠáĭĪáĪ¨áĪ«": 8877,
      "ĠáĪĪáĭįáĮ¥": 8878,
      "Ġdepuis": 8879,
      "áĭķáīĨáī¥": 8880,
      "ĠFrÃ¡nsÃ¬": 8881,
      ":-": 8882,
      "á»": 8883,
      "Ġmbunge": 8884,
      "Ġpap": 8885,
      "ĠCross": 8886,
      "kim": 8887,
      "Ġsab": 8888,
      "lob": 8889,
      "Ġkamfan": 8890,
      "Ġasilimia": 8891,
      "ĠTarayya": 8892,
      "zungum": 8893,
      "Ġ0.": 8894,
      "ĠIgbo": 8895,
      "elli": 8896,
      "Ġsin": 8897,
      "uren": 8898,
      "Ġforme": 8899,
      "ites": 8900,
      "ĠAna": 8901,
      "asile": 8902,
      "Ġrecord": 8903,
      "OrÃŃ": 8904,
      "ango": 8905,
      "Ġmáº¹ÌģrÃ¬n": 8906,
      "Ġsá»įÌĢrá»įÌĢ": 8907,
      "Ġpáº¹Ìģ": 8908,
      "áĭ«áī°": 8909,
      "ĠjÃŃ": 8910,
      "áĬĲáĪ±": 8911,
      "áĪ¨áĮ¥": 8912,
      "áĪ«áĭŃ": 8913,
      "áį¡áĬ¨": 8914,
      "áĮ£áĪįáį¢": 8915,
      "ĠáĪĽáĬŃ": 8916,
      "ĠáīĢáĭ°áĪĿ": 8917,
      "amua": 8918,
      "ĠáĪĪáĪĺáĮĢáĪĺáĪªáĭ«": 8919,
      "áĭ°áĪ¨áĪ°": 8920,
      "ĠyÃ¬ÃŃ,": 8921,
      "dÃ¡sÃŃláº¹ÌĢ": 8922,
      "ĠKuu": 8923,
      "ĠáĬłáĪīáīµáį¢": 8924,
      "ĠÃĪkÃ³.": 8925,
      "Ġshugabar": 8926,
      "ĠáĪĺáĬ®áĬķáĬķ": 8927,
      "Ġtáº¹lifÃŃá¹£": 8928,
      "-p": 8929,
      "AL": 8930,
      "eria": 8931,
      "ĠEdo": 8932,
      "19)": 8933,
      "âĢĻs": 8934,
      "Ġmm": 8935,
      "titu": 8936,
      "ĠTour": 8937,
      "oni.": 8938,
      "kundu": 8939,
      "ĠBened": 8940,
      "Ġinflu": 8941,
      "Ġyaki": 8942,
      "Ġopo": 8943,
      "Ġ1914": 8944,
      "ÆĻo": 8945,
      "pokea": 8946,
      "Ġd'I": 8947,
      "Ġdauke": 8948,
      "ĠPremi": 8949,
      "ĠÆ´ar": 8950,
      "yle": 8951,
      "ØŃ": 8952,
      "ĠáĪ£": 8953,
      "áĪĿáĬķáīµ": 8954,
      "Ã©.": 8955,
      "Ġfáº¹": 8956,
      "áĪĺáĪĿ": 8957,
      "ur,": 8958,
      "ĠIbujoko": 8959,
      "ĠÃ¬á¹£e": 8960,
      "Ġyá»į": 8961,
      "ĠáĪµáī³": 8962,
      "áĪ®áĬķ": 8963,
      "áįĪáĮłáĪ¨": 8964,
      "ĠáīĢáĪŃ": 8965,
      "ĠáĮĪáĭĽ": 8966,
      "áĮĥáĪĿ": 8967,
      "ĠáĬĲáĮĪáĪ¥áī±": 8968,
      "ĠáĪĽáĪĪáīµáĪĿ": 8969,
      "ĠáĬłáĪĿáĪµáīµ": 8970,
      "áį²áį°áį»áį": 8971,
      "ĠáĪļáĬĴáĪµáī´áĪŃ": 8972,
      "áī¶áĭ¶áĬŃáĪµ": 8973,
      "áĬŃáĬĸáĪİáĮĤ": 8974,
      "Ġgun": 8975,
      "log": 8976,
      "ck,": 8977,
      "ĠSudan": 8978,
      "oja": 8979,
      "Ġnye": 8980,
      "Ġdun": 8981,
      "ĠCour": 8982,
      "ari.": 8983,
      "hout": 8984,
      "Ġisi": 8985,
      "At": 8986,
      "Ġkupi": 8987,
      "Ġtakarar": 8988,
      "Ġcewar": 8989,
      "Ġmatakin": 8990,
      "Ġgabashin": 8991,
      "âĢİâĢİ": 8992,
      "chaguliwa": 8993,
      "53": 8994,
      "Kam": 8995,
      "Ġdim": 8996,
      "Ġlat": 8997,
      "ĠDenmar": 8998,
      "83": 8999,
      "áĪŃáīħ": 9000,
      "Ġáĭ¨áĪĪ": 9001,
      "Ġáĭ¨áĮ¥áĬķ": 9002,
      "ĠoÃ²rÃ¹n": 9003,
      "Ġáīł20": 9004,
      "deo": 9005,
      "Ġáĭ¨áĪļáĭĪ": 9006,
      "ÃłnÃŃ": 9007,
      "áĪļáĬķ": 9008,
      "ĠáĮ¥áĪŃ": 9009,
      "Ġgbajumo": 9010,
      "ĠáīłáĪĽáĪµ": 9011,
      "Ġáī´áĪĮ": 9012,
      "ĠáĪĺáĪ³áĪªáĭ«": 9013,
      "69": 9014,
      "mall": 9015,
      "ĠAD": 9016,
      "ĠMiss": 9017,
      "oph": 9018,
      "itabu": 9019,
      "ellement": 9020,
      "of": 9021,
      "ikh": 9022,
      "illes": 9023,
      "Ġkipindi": 9024,
      "Ġakafuatwa": 9025,
      "Ġstru": 9026,
      "ĠaprÃ¨s": 9027,
      "ĠRivers": 9028,
      "en.wikipedia.org/wiki/": 9029,
      "ĠIndiya": 9030,
      "ĠElezo": 9031,
      "AM": 9032,
      "ĠSat": 9033,
      "ĠSing": 9034,
      "ĠGida": 9035,
      "Ġexemp": 9036,
      "à¤ļ": 9037,
      "ĠÙħ": 9038,
      "ĠTown": 9039,
      "ensis": 9040,
      "à¸": 9041,
      "ĠáĪ¾": 9042,
      "ĠdarÃŃ": 9043,
      "áīµáĪµ": 9044,
      "Ġáĭ¨áī³áĭĪ": 9045,
      "áĪµáī¶áī½": 9046,
      "ÃºlÃ©": 9047,
      "ĠÃłwÃ¹já»į": 9048,
      "áĭµáĪ®áĪµ": 9049,
      "Ġáī°áĮ¨áĪĽáĪª": 9050,
      "Ġáĭ¨áĪļáī³": 9051,
      "Ġáĭ¨áĪļáĮĪáĬĺáĭį": 9052,
      "kanna": 9053,
      "ĠáīłáĪĺáīĢ": 9054,
      "ĠáįĪáĪĭ": 9055,
      "ĠonÃŃá¹£": 9056,
      "Ġolud": 9057,
      "Ġáĭ¨áĬ¥áĪµáįĵáĬķáĭ«": 9058,
      "ĠáĬłáĪ¸áĬĲ": 9059,
      "57": 9060,
      "s:": 9061,
      "ĠlÃł": 9062,
      "Ġsadar": 9063,
      "Ġbefore": 9064,
      "Ġasilia": 9065,
      "Rayuwar": 9066,
      "Pia": 9067,
      "ere,": 9068,
      "Ġbun": 9069,
      "unawa": 9070,
      "Ġ1964": 9071,
      "Ġkalenda": 9072,
      "ĠAnambra": 9073,
      "isti": 9074,
      "ĠMada": 9075,
      "fa,": 9076,
      "ĠCouncil": 9077,
      "Ġplace": 9078,
      "Ġcla": 9079,
      "ĠBara": 9080,
      "ĠBunge": 9081,
      "Ġdec": 9082,
      "Ġ1972": 9083,
      "ĠdiffÃ©r": 9084,
      "-Ã¡n": 9085,
      "Bisa": 9086,
      "bes": 9087,
      "wahi": 9088,
      "Ġáĭ¨áī¤áī°": 9089,
      "áĬĵáī±": 9090,
      "ĠgbÃŃ": 9091,
      "ĠáĬ¨áĭį": 9092,
      "áĪĽáĪµ": 9093,
      "Ġmaarufu": 9094,
      "ĠÃ¬wÃł": 9095,
      "ĠyÃ¡": 9096,
      "ĠáĭŃáĬ¨": 9097,
      "Ġáĭ¨áĪĲ": 9098,
      "Ġlaarin": 9099,
      "ĠGud": 9100,
      "ata,": 9101,
      "Ġule": 9102,
      "ĠáīµáĬŃ": 9103,
      "Ġáĭ¨áī°áĪĪ": 9104,
      "Ġenc": 9105,
      "ĠáĮĪáī£": 9106,
      "Ġdescri": 9107,
      "Ġáĭ¨áĪĺáĪµ": 9108,
      "Ġ1952": 9109,
      "Ġaddini": 9110,
      "ardin": 9111,
      "áįķáĪ¬": 9112,
      "ĠolÃ¹gbÃ©": 9113,
      "áĪłáĪ¨áī°": 9114,
      "Ġdauki": 9115,
      "áĬĵáī¸áĭįáĪĿ": 9116,
      "istoire": 9117,
      "ĠáįķáĪ¬áĭļáĭ³áĬķáīµ": 9118,
      "Ġlissa": 9119,
      "ĠáĬ¥áĪµáĬ«áĪģáĬķ": 9120,
      "ĠáĭŃáī³áĪĺáĬĵáĪįáį¢": 9121,
      "jet": 9122,
      "Ġvina": 9123,
      "kasi": 9124,
      "Ġmito": 9125,
      "):": 9126,
      "ĠAja": 9127,
      "inguis": 9128,
      "ciyar": 9129,
      "shinda": 9130,
      "Ġ1945": 9131,
      "ghuli": 9132,
      "Ġdare": 9133,
      "ÃŃÃł": 9134,
      "Ġáĭ¨áĮ£áĪįáĭ«áĬķ": 9135,
      "ĠÃłpapá»įÌĢ": 9136,
      "usal": 9137,
      "áĭ¨áĪģ": 9138,
      "áĪīáį£": 9139,
      "qu'": 9140,
      "áĮłáĬķ": 9141,
      "áĮĭáĭŃ": 9142,
      "chie": 9143,
      "rÃ©sent": 9144,
      "ĠáĪģáĪĪáī°áĬĽáĭį": 9145,
      "Ġáī¤áī°áĪ°áī¥": 9146,
      "ĠkÃ©de": 9147,
      "áĮĮáī³": 9148,
      "ĠáĬłáī¥áĭĽ": 9149,
      "ĠáĭµáĪŃáĮĬ": 9150,
      "ĠáĪŃáīĢáīµ": 9151,
      "áīłáĪ«áĭĬ": 9152,
      "Ġaká»įká»į": 9153,
      "Ġáĭ¨áĬ¤áĪĮáĬŃáīµáĪªáĬŃ": 9154,
      "ĠáĪµáīµáĪĨáĬķ": 9155,
      "ĠkÃ¡Ãłkiri": 9156,
      "BÃ¡kan": 9157,
      "-L": 9158,
      "Ġq": 9159,
      "Ġprom": 9160,
      "Ġáī°áĪµáįĭ": 9161,
      "ĠYesu": 9162,
      "PC": 9163,
      "ey": 9164,
      "ĠHab": 9165,
      "ini.": 9166,
      "Eneo": 9167,
      "ĠMili": 9168,
      "Ġcho": 9169,
      "Ġhukun": 9170,
      "ÉĹe": 9171,
      "ĠWaarabu": 9172,
      "Ġ1962": 9173,
      "uruki": 9174,
      "antake": 9175,
      "Ġyarjejen": 9176,
      "Ġutamaduni": 9177,
      "Ġkowane": 9178,
      "ĠKit": 9179,
      "diyo": 9180,
      "haria": 9181,
      "ĠAss": 9182,
      "ĠSociety": 9183,
      "-áĪ²áĬķ": 9184,
      "IN": 9185,
      "hama": 9186,
      "áĮ»áįī": 9187,
      "áįģ": 9188,
      "áĭ«áī¸áĭį": 9189,
      "Ã¬lÃº": 9190,
      "Ġwá»įÌģ": 9191,
      "ĠÃłá¹£áº¹": 9192,
      "ĠáĪĺáĪĿ": 9193,
      "ĠÃ¬á¹£Ã¨": 9194,
      "ĠPra": 9195,
      "áĬ«áĭĬ": 9196,
      "áĮ£áĮ«": 9197,
      "áĭĽáĪĿ": 9198,
      "ĠáĪįáĭĳ": 9199,
      "ĠáĮ¥áīģáĪŃ": 9200,
      "áĪ®áī½áĬķ": 9201,
      "ĠÃ¡n": 9202,
      "ĠáĭĽáįį": 9203,
      "áīłáĭ°": 9204,
      "ĠDun": 9205,
      "osp": 9206,
      "new": 9207,
      "anzo": 9208,
      "engo": 9209,
      "utres": 9210,
      "refu": 9211,
      "ĠRadio": 9212,
      "attun": 9213,
      "Ġume": 9214,
      "Ġmamaye": 9215,
      "Ġmodern": 9216,
      "Ġ(lafazi": 9217,
      "Ġsupport": 9218,
      "ansu": 9219,
      "Ġatomu": 9220,
      "arth": 9221,
      "Ġmer": 9222,
      "Ġoro": 9223,
      "Ġword": 9224,
      "nie": 9225,
      "ster": 9226,
      "Ġcentury": 9227,
      "ĠFestival": 9228,
      "Lá»įÌģ": 9229,
      "Ohun": 9230,
      "gr": 9231,
      "Ġure": 9232,
      "áĬķáĮłáĪ¨": 9233,
      "ĠmÃ³": 9234,
      "áīµáĪį": 9235,
      "Ġclassi": 9236,
      "ĠáīłáĮİ": 9237,
      "ĠáīłáĭĭáĬĵ": 9238,
      "ĠáĮĤ": 9239,
      "ĠáĬłáĮłáīĥáĪĭáĭŃ": 9240,
      "áĮįáĭ³": 9241,
      "áĮįáĪªáĬŃ": 9242,
      "ĠÃ¬dÃ¬": 9243,
      "ĠÃ¬lÃł": 9244,
      "áĮłáĬĿ": 9245,
      "áĪŀáĪµ": 9246,
      "Ġáī¥áĪĦ": 9247,
      "ÃŃnÃł": 9248,
      "ĠAlger": 9249,
      "ĠorÃŃá¹£irÃŃá¹£i": 9250,
      "ĠáĬłáĪµáīĢáĭµáĪŀ": 9251,
      "Ġáĭ¨áĪĺáĪ¬áīµ": 9252,
      "áĬŃáĪįáīµ": 9253,
      "ĠBaba": 9254,
      "ĠáĪĢáĭŃ": 9255,
      "áįķáĪ®": 9256,
      "ĠGuusu": 9257,
      "áĭĭáĪįáį¡áį¡": 9258,
      "ĠáĪ¶áĪµáīµ": 9259,
      "ĠáĪĽáĭķáĬ¨áĪį": 9260,
      "Ġáī¥áĪŃáĪĥáĬķ": 9261,
      "Ġáīłáī³áī½": 9262,
      "ĠOrile-ede": 9263,
      "áĬ«áī£áī¢áĭį": 9264,
      "já»įÌĢgbá»įÌģn": 9265,
      "áĬ«áĬ¨áĪĪáĬĽáĭį": 9266,
      "áĬķáĮĮáĪį": 9267,
      "ĠáĪĿáĪħáĬķáĭµáĪµáĬĵ": 9268,
      "pos": 9269,
      "vÃ©": 9270,
      "ques,": 9271,
      "Ġmatasa": 9272,
      "ĠWaingereza": 9273,
      "iriwa": 9274,
      "ccen": 9275,
      "Ġduniya,": 9276,
      "Ġkiran": 9277,
      "Ġed": 9278,
      "um)": 9279,
      "Ġhapa": 9280,
      "mÃ³": 9281,
      "gali": 9282,
      "Ġlafi": 9283,
      "Ġkansa": 9284,
      "ĠCoast": 9285,
      "ĠTechn": 9286,
      "ussia": 9287,
      "kya": 9288,
      "nÃ©": 9289,
      "Ġ(14": 9290,
      "Ġfour": 9291,
      "embo": 9292,
      "-ede": 9293,
      "táº¹Ìģ": 9294,
      "wá»įÌģn": 9295,
      "Ġnamba": 9296,
      "áĪŃáĮħ": 9297,
      "Ġáĭ¨áīłáĪĪ": 9298,
      "áĪĿáĪ©": 9299,
      "áĬĵáį¢": 9300,
      "ĠáĬ¥áĪŃáĪµ": 9301,
      "áĭ°áĮįáĪŀ": 9302,
      "áĬŃáī¶": 9303,
      "ĠáĬłáĪĽáĪŃáĬĽ": 9304,
      "ĠáĪµáĬĲ": 9305,
      "Ġáº¹Ìģ": 9306,
      "ĠáīµáĬ©": 9307,
      "ĠáīĢáīłáĪĮ": 9308,
      "Ġáĭ¨áĬłáĪ¦áĪŃ": 9309,
      "woorun": 9310,
      "Ġthen": 9311,
      "Ġ90": 9312,
      "ĠáĭµáĪ¨áĪµ)": 9313,
      "ĠáĬłáĪµáī°áĪ³áĪ°áī¥": 9314,
      "Ġáī°áĪĺáĪ«": 9315,
      "Ġkyau": 9316,
      "ĠHausawa": 9317,
      "Ġwatoto": 9318,
      "ĠáĪĽáĭķáĪ¨áĮį": 9319,
      "Ġáī¥áĪĶáĪ®áī½": 9320,
      "ĠáĬķáĮįáĪ¥áīµ": 9321,
      "ĠáĬ¥áĭįáĬĲáīµ": 9322,
      "ĠáĬłáĮįáĬĿ": 9323,
      "okrasia": 9324,
      "pÃł": 9325,
      "ston": 9326,
      "ĠCompan": 9327,
      "Ġsoja": 9328,
      "63": 9329,
      "f.": 9330,
      "Ġty": 9331,
      "Ġcat": 9332,
      "atique": 9333,
      "ĠHali": 9334,
      "Ġmche": 9335,
      "Ġpou": 9336,
      "Ġiwa": 9337,
      "ĠáĬ¥áĪ³áīµ": 9338,
      "ĠKikuu": 9339,
      "buwar": 9340,
      "Ġuta": 9341,
      "ĠVisiwa": 9342,
      "ĠAfirka.": 9343,
      "Ġ2020.": 9344,
      "Ġshule": 9345,
      "-áĪĿ": 9346,
      "Ġagbe": 9347,
      "Ġáĭ¨áįĢ": 9348,
      "ĠáĬ¥áĭ«áĬķáĭ³áĬķáĭ±": 9349,
      "ĠáĬĲáĮŃ": 9350,
      "ĠáĬĲáĭī": 9351,
      "ĠOxford": 9352,
      "si,": 9353,
[...]
