{
  "version": "1.0",
  "truncation": null,
  "padding": null,
  "added_tokens": [],
  "normalizer": {
    "type": "NFC"
  },
  "pre_tokenizer": {
    "type": "Sequence",
    "pretokenizers": [
      {
        "type": "Split",
        "pattern": {
          "Regex": " ?\\w+| ?[^\\w\\s]+|\\s+"
        },
        "behavior": "Isolated",
        "invert": false
      },
      {
        "type": "ByteLevel",
        "add_prefix_space": false,
        "trim_offsets": true,
        "use_regex": false
      }
    ]
  },
  "post_processor": null,
  "decoder": {
    "type": "ByteLevel",
    "add_prefix_space": true,
    "trim_offsets": true,
    "use_regex": true
  },
  "model": {
    "type": "BPE",
    "dropout": null,
    "unk_token": null,
    "continuing_subword_prefix": null,
    "end_of_word_suffix": null,
    "fuse_unk": false,
    "byte_fallback": false,
    "ignore_merges": false,
    "vocab": {
      "!": 0,
      "\"": 1,
      "#": 2,
      "$": 3,
      "%": 4,
      "&": 5,
      "'": 6,
      "(": 7,
      ")": 8,
      "*": 9,
      "+": 10,
      ",": 11,
      "-": 12,
      ".": 13,
      "/": 14,
      "0": 15,
      "1": 16,
      "2": 17,
      "3": 18,
      "4": 19,
      "5": 20,
      "6": 21,
      "7": 22,
      "8": 23,
      "9": 24,
      ":": 25,
      ";": 26,
      "<": 27,
      "=": 28,
      ">": 29,
      "?": 30,
      "@": 31,
      "A": 32,
      "B": 33,
      "C": 34,
      "D": 35,
      "E": 36,
      "F": 37,
      "G": 38,
      "H": 39,
      "I": 40,
      "J": 41,
      "K": 42,
      "L": 43,
      "M": 44,
      "N": 45,
      "O": 46,
      "P": 47,
      "Q": 48,
      "R": 49,
      "S": 50,
      "T": 51,
      "U": 52,
      "V": 53,
      "W": 54,
      "X": 55,
      "Y": 56,
      "Z": 57,
      "[": 58,
      "\\": 59,
      "]": 60,
      "^": 61,
      "_": 62,
      "`": 63,
      "a": 64,
      "b": 65,
      "c": 66,
      "d": 67,
      "e": 68,
      "f": 69,
      "g": 70,
      "h": 71,
      "i": 72,
      "j": 73,
      "k": 74,
      "l": 75,
      "m": 76,
      "n": 77,
      "o": 78,
      "p": 79,
      "q": 80,
      "r": 81,
      "s": 82,
      "t": 83,
      "u": 84,
      "v": 85,
      "w": 86,
      "x": 87,
      "y": 88,
      "z": 89,
      "{": 90,
      "|": 91,
      "}": 92,
      "~": 93,
      "¡": 94,
      "¢": 95,
      "£": 96,
      "¤": 97,
      "¥": 98,
      "¦": 99,
      "§": 100,
      "¨": 101,
      "©": 102,
      "ª": 103,
      "«": 104,
      "¬": 105,
      "®": 106,
      "¯": 107,
      "°": 108,
      "±": 109,
      "²": 110,
      "³": 111,
      "´": 112,
      "µ": 113,
      "¶": 114,
      "·": 115,
      "¸": 116,
      "¹": 117,
      "º": 118,
      "»": 119,
      "¼": 120,
      "½": 121,
      "¾": 122,
      "¿": 123,
      "À": 124,
      "Á": 125,
      "Â": 126,
      "Ã": 127,
      "Ä": 128,
      "Å": 129,
      "Æ": 130,
      "Ç": 131,
      "È": 132,
      "É": 133,
      "Ê": 134,
      "Ë": 135,
      "Ì": 136,
      "Í": 137,
      "Î": 138,
      "Ï": 139,
      "Ð": 140,
      "Ñ": 141,
      "Ò": 142,
      "Ó": 143,
      "Ô": 144,
      "Õ": 145,
      "Ö": 146,
      "×": 147,
      "Ø": 148,
      "Ù": 149,
      "Ú": 150,
      "Û": 151,
      "Ü": 152,
      "Ý": 153,
      "Þ": 154,
      "ß": 155,
      "à": 156,
      "á": 157,
      "â": 158,
      "ã": 159,
      "ä": 160,
      "å": 161,
      "æ": 162,
      "ç": 163,
      "è": 164,
      "é": 165,
      "ê": 166,
      "ë": 167,
      "ì": 168,
      "í": 169,
      "î": 170,
      "ï": 171,
      "ð": 172,
      "ñ": 173,
      "ò": 174,
      "ó": 175,
      "ô": 176,
      "õ": 177,
      "ö": 178,
      "÷": 179,
      "ø": 180,
      "ù": 181,
      "ú": 182,
      "û": 183,
      "ü": 184,
      "ý": 185,
      "þ": 186,
      "ÿ": 187,
      "Ā": 188,
      "ā": 189,
      "Ă": 190,
      "ă": 191,
      "Ą": 192,
      "ą": 193,
      "Ć": 194,
      "ć": 195,
      "Ĉ": 196,
      "ĉ": 197,
      "Ċ": 198,
      "ċ": 199,
      "Č": 200,
      "č": 201,
      "Ď": 202,
      "ď": 203,
      "Đ": 204,
      "đ": 205,
      "Ē": 206,
      "ē": 207,
      "Ĕ": 208,
      "ĕ": 209,
      "Ė": 210,
      "ė": 211,
      "Ę": 212,
      "ę": 213,
      "Ě": 214,
      "ě": 215,
      "Ĝ": 216,
      "ĝ": 217,
      "Ğ": 218,
      "ğ": 219,
      "Ġ": 220,
      "ġ": 221,
      "Ģ": 222,
      "ģ": 223,
      "Ĥ": 224,
      "ĥ": 225,
      "Ħ": 226,
      "ħ": 227,
      "Ĩ": 228,
      "ĩ": 229,
      "Ī": 230,
      "ī": 231,
      "Ĭ": 232,
      "ĭ": 233,
      "Į": 234,
      "į": 235,
      "İ": 236,
      "ı": 237,
      "Ĳ": 238,
      "ĳ": 239,
      "Ĵ": 240,
      "ĵ": 241,
      "Ķ": 242,
      "ķ": 243,
      "ĸ": 244,
      "Ĺ": 245,
      "ĺ": 246,
      "Ļ": 247,
      "ļ": 248,
      "Ľ": 249,
      "ľ": 250,
      "Ŀ": 251,
      "ŀ": 252,
      "Ł": 253,
      "ł": 254,
      "Ń": 255,
      "áĪ": 256,
      "Ġá": 257,
      "áī": 258,
      "áĬ": 259,
      "áĭ": 260,
      "an": 261,
      "áĮ": 262,
      "Ġáĭ": 263,
      "ĠáĬ": 264,
      "ar": 265,
      "ĠáĪ": 266,
      "áį": 267,
      "in": 268,
      "áĬķ": 269,
      "Ġáī": 270,
      "Ġt": 271,
      "Ġd": 272,
      "Ġa": 273,
      "wa": 274,
      "Ġk": 275,
      "Ġn": 276,
      "áīµ": 277,
      "Ġs": 278,
      "áĪŃ": 279,
      "Ġm": 280,
      "on": 281,
      "er": 282,
      "en": 283,
      "Ġáĭ¨": 284,
      "ya": 285,
      "ĠÃ": 286,
      "áĭį": 287,
      "»į": 288,
      "ÃŃ": 289,
      "es": 290,
      "Ġl": 291,
      "at": 292,
      "łáĪ": 293,
      "áĪĿ": 294,
      "áĪį": 295,
      "á»į": 296,
      "áĪµ": 297,
      "li": 298,
      "un": 299,
      "º¹": 300,
      "Ã©": 301,
      "is": 302,
      "áº¹": 303,
      "he": 304,
      "or": 305,
      "as": 306,
      "am": 307,
      "Ġc": 308,
      "ĠA": 309,
      "Ġya": 310,
      "Ġp": 311,
      "Ġda": 312,
      "áį¢": 313,
      "Ġb": 314,
      "ka": 315,
      "Ġ(": 316,
      "Ġwa": 317,
      "áĬĵ": 318,
      "it": 319,
      "Ġáīł": 320,
      "áī°": 321,
      "áĭ«": 322,
      "áĪĪ": 323,
      "Ġo": 324,
      "ĠáĮ": 325,
      "Ġ1": 326,
      "áº¹Ì": 327,
      "al": 328,
      "áĭŃ": 329,
      "ĠM": 330,
      "áĪĺ": 331,
      "ĠáĬ¥": 332,
      "Ġf": 333,
      "áī½": 334,
      "ur": 335,
      "Ãł": 336,
      "Ġh": 337,
      "Ã¡": 338,
      "ĠáĬł": 339,
      "il": 340,
      "ir": 341,
      "áĭ°": 342,
      "áĬĲ": 343,
      "Ġna": 344,
      "ti": 345,
      "Ġw": 346,
      "Ġr": 347,
      "Ġg": 348,
      "áī¥": 349,
      "áĪ¨": 350,
      "áĮĪ": 351,
      "áĭµ": 352,
      "á»įÌ": 353,
      "us": 354,
      "áĪĭ": 355,
      "ĠáĬĲ": 356,
      "áĮį": 357,
      "ĠS": 358,
      "ĠK": 359,
      "ĠáĪĺ": 360,
      "le": 361,
      "Ãº": 362,
      "and": 363,
      "om": 364,
      "ab": 365,
      "áīł": 366,
      "um": 367,
      "áĪ«": 368,
      "ik": 369,
      "Ã¬": 370,
      "áī³": 371,
      "ĠáĬ¨": 372,
      "ad": 373,
      "ati": 374,
      "Ġthe": 375,
      "Ġj": 376,
      "hi": 377,
      "ĠÃł": 378,
      "ut": 379,
      "áĬŃ": 380,
      "ed": 381,
      "ĠN": 382,
      "Ġta": 383,
      "ĠB": 384,
      "ia": 385,
      "Ġde": 386,
      "áĪĽ": 387,
      "áĪ³": 388,
      "ĠI": 389,
      "Ġ2": 390,
      "áī£": 391,
      "ent": 392,
      "et": 393,
      "Ġáį": 394,
      "el": 395,
      "Ã¨": 396,
      "Ġ19": 397,
      "ĠT": 398,
      "Ġin": 399,
      "ak": 400,
      "áº¹ÌĢ": 401,
      "ĠC": 402,
      "áº¹Ìģ": 403,
      "ai": 404,
      "áĬĽ": 405,
      "Ġáī°": 406,
      "Ġof": 407,
      "ay": 408,
      "á»įÌģ": 409,
      "áĪª": 410,
      "ĠáĭŃ": 411,
      "Ġni": 412,
      "em": 413,
      "ĠáīłáĪ": 414,
      "Ġáĭ¨áĪ": 415,
      "gb": 416,
      "ĠáĬłáĪ": 417,
      "ic": 418,
      "áĪħ": 419,
      "áĮ¥": 420,
      "áĬ¨": 421,
      "áį£": 422,
      "Ġi": 423,
      "¹£": 424,
      "ĠáĪĿ": 425,
      "Ã³": 426,
      "ing": 427,
      "ol": 428,
      "Ġz": 429,
      "ha": 430,
      "ĠP": 431,
      "Ġáĭ¨áĬ": 432,
      "ta": 433,
      "âĢ": 434,
      "ana": 435,
      "ĠáĭĪ": 436,
      "áį¡": 437,
      "Ġla": 438,
      "Ġy": 439,
      "ĠW": 440,
      "ĠnÃŃ": 441,
      "áįį": 442,
      "á»įn": 443,
      "ba": 444,
      "qu": 445,
      "áĭ³": 446,
      "ĠáĬĲáĭį": 447,
      "áīĢ": 448,
      "ara": 449,
      "áĭ¨": 450,
      "ro": 451,
      "ĠáĬ¥áĬķ": 452,
      "00": 453,
      "ul": 454,
      "ĠL": 455,
      "áĭĪ": 456,
      "re": 457,
      "ĠG": 458,
      "ĠD": 459,
      "ani": 460,
      "ĠO": 461,
      "áĪ°": 462,
      "áīħ": 463,
      "ĠJ": 464,
      "ĠÃ¬": 465,
      "ĠF": 466,
      "áĪĮ": 467,
      "áĬ«": 468,
      "ĠáĪĪ": 469,
      "ch": 470,
      "wá»įn": 471,
      "im": 472,
      "Ã¹": 473,
      "ce": 474,
      "os": 475,
      "ĠR": 476,
      "ga": 477,
      "to": 478,
      "id": 479,
      "ĠH": 480,
      "Ġá»į": 481,
      "áĬł": 482,
      "Ġma": 483,
      "Ã²": 484,
      "uk": 485,
      "á¹£": 486,
      "ali": 487,
      "Ġ-": 488,
      "ĠáĪµ": 489,
      "áī¸": 490,
      "Ġáĭ«": 491,
      "Ġto": 492,
      "áĪī": 493,
      "Ġáĭĵ": 494,
      "Ġand": 495,
      "Ġv": 496,
      "ĠE": 497,
      "áīłáĪ": 498,
      "áĭĬ": 499,
      "áĭĭ": 500,
      "uwa": 501,
      "áĪ®": 502,
      "áī±": 503,
      "İáī½": 504,
      "áī¸áĭį": 505,
      "ri": 506,
      "áįĪ": 507,
      "Ãºn": 508,
      "ari": 509,
      "ĠU": 510,
      "ĠtÃŃ": 511,
      "Ġáĭ¨áĪļ": 512,
      "á»įÌĢ": 513,
      "áĭĿ": 514,
      "la": 515,
      "áĮ£": 516,
      "áĪĨ": 517,
      "ĠáĪĽ": 518,
      "ation": 519,
      "ra": 520,
      "ci": 521,
      "are": 522,
      "áĭļ": 523,
      "áī¶": 524,
      "iya": 525,
      "áĪ³áĪĮ": 526,
      "áĮł": 527,
      "uma": 528,
      "ig": 529,
      "áĮī": 530,
      "01": 531,
      "iy": 532,
      "ud": 533,
      "te": 534,
      "ke": 535,
      "áĮĭ": 536,
      "Ġle": 537,
      "ĠáīłáĬ": 538,
      "áĭ®": 539,
      "ÆĻ": 540,
      "ĠáĪĿáĪ³áĪĮ": 541,
      "est": 542,
      "ant": 543,
      "ans": 544,
      "ama": 545,
      "ji": 546,
      "Ġti": 547,
      "ec": 548,
      "ili": 549,
      "ĠáĪ²": 550,
      "Ġor": 551,
      "áĭ²": 552,
      "áĬķáĭµ": 553,
      "ĠáĮį": 554,
      "Ġe": 555,
      "ag": 556,
      "Ġáīµ": 557,
      "op": 558,
      "Ġet": 559,
      "áĭİáī½": 560,
      "Ġáĭĺ": 561,
      "Ġen": 562,
      "ug": 563,
      "áĪ¥": 564,
      "áīĥ": 565,
      "ub": 566,
      "ĠÃ³": 567,
      "ap": 568,
      "áĬĸ": 569,
      "áĪŀ": 570,
      "ers": 571,
      "áĭĺ": 572,
      "Ġkuma": 573,
      "Ġkwa": 574,
      "ini": 575,
      "Ġun": 576,
      "Ġne": 577,
      "ang": 578,
      "Ġáĭ¨áī°": 579,
      "ko": 580,
      "19": 581,
      "hek": 582,
      "ĠáĬ¥áĬĵ": 583,
      "od": 584,
      "Ġal": 585,
      "af": 586,
      "áĬĲáīµ": 587,
      "ot": 588,
      "ĠáĪ°": 589,
      "Ġáī¥": 590,
      "áĬ¥": 591,
      "st": 592,
      "Ġshek": 593,
      "áĪĬ": 594,
      "iki": 595,
      "áĪ©": 596,
      "Ġáĭį": 597,
      "áĪĻ": 598,
      "Ġil": 599,
      "og": 600,
      "Ġ201": 601,
      "iv": 602,
      "ĠÆĻ": 603,
      "Ġwas": 604,
      "ion": 605,
      "áĬķáĮį": 606,
      "ann": 607,
      "Ġ\"": 608,
      "ikin": 609,
      "za": 610,
      "ĠáīĢ": 611,
      "hin": 612,
      "rÃŃ": 613,
      "Ġku": 614,
      "ye": 615,
      "áīłáĪŃ": 616,
      "ist": 617,
      "ĭáĭŃ": 618,
      "Ġáĭ°": 619,
      "di": 620,
      "ĠáĬ¥áĬķáĭ°": 621,
      "ĠY": 622,
      "áĭĽ": 623,
      "Ġáĭ¨áĬłáĪ": 624,
      "que": 625,
      "ĠÃĢ": 626,
      "ĠâĢ": 627,
      "áĪļ": 628,
      "ĠÂ": 629,
      "láº¹ÌĢ": 630,
      "ĠáĬŃ": 631,
      "ÌĢ": 632,
      "Ġsu": 633,
      "bi": 634,
      "áĪİ": 635,
      "Ġdes": 636,
      "zi": 637,
      "Ġas": 638,
      ").": 639,
      "Ãłn": 640,
      "ata": 641,
      "our": 642,
      "har": 643,
      "me": 644,
      "áĮħ": 645,
      "áī²": 646,
      "wan": 647,
      "áī¢": 648,
      "ĠÃłwá»įn": 649,
      "aj": 650,
      "áĬĳ": 651,
      "Ġba": 652,
      "ne": 653,
      "th": 654,
      "áįĭ": 655,
      "ina": 656,
      "ĠáĪį": 657,
      "da": 658,
      "Ġkas": 659,
      "ter": 660,
      "Ġcon": 661,
      "Ġza": 662,
      "ung": 663,
      "asi": 664,
      "Ġkati": 665,
      "ow": 666,
      "áĬĿ": 667,
      "),": 668,
      "Ġáº¹": 669,
      "Ġu": 670,
      "áĪ±": 671,
      "de": 672,
      "Ġth": 673,
      "áį¤": 674,
      "áĪĨáĬķ": 675,
      "Ġon": 676,
      "Ġpar": 677,
      "ere": 678,
      "áĪ½": 679,
      "bo": 680,
      "áĮİ": 681,
      "Ġ200": 682,
      "war": 683,
      "ine": 684,
      "ĠáĪĭáĭŃ": 685,
      "ma": 686,
      "áĭ«áĬķ": 687,
      "Ġan": 688,
      "oka": 689,
      "áĪĪáĭį": 690,
      "Ġáī³": 691,
      "tion": 692,
      "Ġáĭµ": 693,
      "anda": 694,
      "Ġam": 695,
      "áĪŃáĬĽ": 696,
      "Ġcikin": 697,
      "áĭ±": 698,
      "if": 699,
      "Ġis": 700,
      "áĪģ": 701,
      "Ġáī£": 702,
      "Ġre": 703,
      "ĠV": 704,
      "Ġá¹£": 705,
      "waka": 706,
      "sa": 707,
      "áĭļáĪħ": 708,
      "¢áīµ": 709,
      "Ġali": 710,
      "Ġdu": 711,
      "ly": 712,
      "Ġfor": 713,
      "Ġles": 714,
      "ĽáĪŃáĬĽ": 715,
      "¢áīµáĭ®": 716,
      "áĮµ": 717,
      "áĬĴ": 718,
      "áĭķ": 719,
      "áīĨ": 720,
      "á»įÌģn": 721,
      "áĮĢ": 722,
      "ĠáīłáĪĺ": 723,
      "¢áīµáĭ®áĮµ": 724,
      "Ġcom": 725,
      "Ġdaga": 726,
      "áĪĪáīµ": 727,
      "Ġce": 728,
      "rÃ©": 729,
      "ie": 730,
      "Ġshi": 731,
      "áĮ½": 732,
      "una": 733,
      "ĠAf": 734,
      "áĮĪáĪŃ": 735,
      "áĪ¬": 736,
      "ĠÂ«": 737,
      "ess": 738,
      "oj": 739,
      "ĠÃ¨": 740,
      "ov": 741,
      "áī¡": 742,
      "ob": 743,
      "Ġar": 744,
      "ita": 745,
      "áĪµáĮ¥": 746,
      "¢áīµáĭ®áĮµáĭ«": 747,
      "Ġáĭ¨áĬłáĪĽáĪŃáĬĽ": 748,
      "ĠÃłti": 749,
      "ge": 750,
      "áĪ¨áīµ": 751,
      "ada": 752,
      "âĢĻ": 753,
      "ou": 754,
      "we": 755,
      "Ġkatika": 756,
      "Ġ18": 757,
      "ĠAm": 758,
      "áīłáīµ": 759,
      "ĠáĬĲáīłáĪŃ": 760,
      "Ġse": 761,
      "áĭľ": 762,
      "asa": 763,
      "ĠAl": 764,
      "Ġmat": 765,
      "ĠáĮ¥": 766,
      "Ġkut": 767,
      "ac": 768,
      "ok": 769,
      "áĪĺáĬķ": 770,
      "ĠÃĮ": 771,
      "Ġkar": 772,
      "áĪ»": 773,
      "dÃºn": 774,
      "ĠIn": 775,
      "Ġ3": 776,
      "eriya": 777,
      "cin": 778,
      "ĠáĭĪáĭ°": 779,
      "Ġjáº¹Ìģ": 780,
      "ĠáĪĨ": 781,
      "of": 782,
      "rin": 783,
      "ĠáĮĪ": 784,
      "áĪµáīµ": 785,
      "ĠáĬ¨áī°": 786,
      "Ġau": 787,
      "Ã¬n": 788,
      "lÃº": 789,
      "Ġpro": 790,
      "ib": 791,
      "Ġ:": 792,
      "ĠÃĢwá»įn": 793,
      "áī»": 794,
      "Ġmwaka": 795,
      "ÉĹ": 796,
      "ĠAn": 797,
      "ĠsÃŃ": 798,
      "ÅĦ": 799,
      "au": 800,
      "ĠáĬķ": 801,
      "ile": 802,
      "ĠÃ©": 803,
      "Ġkan": 804,
      "ĠlÃ¡": 805,
      "tr": 806,
      "áĭ©": 807,
      "zo": 808,
      "Ġshekar": 809,
      "Ġ.": 810,
      "ance": 811,
      "ve": 812,
      "ement": 813,
      "Ġqu": 814,
      "aka": 815,
      "Ġga": 816,
      "ĠÃ²": 817,
      "áĭĵ": 818,
      "Ã¹n": 819,
      "áįĬ": 820,
      "fu": 821,
      "áĭįáĬķ": 822,
      "áī¶áī½": 823,
      "ire": 824,
      "ah": 825,
      "Ġsh": 826,
      "ika": 827,
      "ĠáĬ¥áĪµ": 828,
      "Â»": 829,
      "ate": 830,
      "Ġje": 831,
      "ĠáĭįáĪµáĮ¥": 832,
      "ĠáĬłáĭŃ": 833,
      "iyar": 834,
      "áĪŃáĮī": 835,
      "ki": 836,
      "Ġmas": 837,
      "Ġest": 838,
      "Ĭáĭľ": 839,
      "je": 840,
      "chi": 841,
      "áĮłáĪ": 842,
      "áĪªáĭ«": 843,
      "áĬĶ": 844,
      "kin": 845,
      "lÃ©": 846,
      "áīĭ": 847,
      "ÃŃn": 848,
      "ĠáĪģ": 849,
      "áĭ¶": 850,
      "ris": 851,
      "Ġol": 852,
      "Ġ199": 853,
      "áĪ²": 854,
      "Ġwat": 855,
      "áĬĽáĭį": 856,
      "áĬłáĪ": 857,
      "Ġili": 858,
      "ĠdÃ©": 859,
      "áī¦": 860,
      "ĠÅĦ": 861,
      "ong": 862,
      "áĭŃáĪĿ": 863,
      "yo": 864,
      "aif": 865,
      "Ġráº¹ÌĢ": 866,
      "ho": 867,
      "áĪŃáĪµ": 868,
      "ber": 869,
      "áĬ¤": 870,
      "áĪľ": 871,
      "Ġá»įdÃºn": 872,
      "Ġáīłáī°": 873,
      "áĪĲ": 874,
      "áĭĻ": 875,
      "pe": 876,
      "amu": 877,
      "áĬ®": 878,
      "pa": 879,
      "ila": 880,
      "Ġke": 881,
      "aba": 882,
      "áī¤": 883,
      "Ġáīħ": 884,
      "Ġpl": 885,
      "áĪĭáĪį": 886,
      "ĠáĬłáĪµ": 887,
      "end": 888,
      "se": 889,
      "ĠáĪ¥": 890,
      "won": 891,
      "ment": 892,
      "dÃ¨": 893,
      "Ġáī¤": 894,
      "si": 895,
      "ĠáĬ«": 896,
      "ĠáīµáĪŃáĮī": 897,
      "Ġáĭ¨áĪĺ": 898,
      "18": 899,
      "áĬ©": 900,
      "und": 901,
      "ĠáĮįáĬķ": 902,
      "áĪªáĬŃ": 903,
      "Ġyi": 904,
      "Ġati": 905,
      "ĠáĬ¥áĬķáĭ²": 906,
      "Ġch": 907,
      "po": 908,
      "gbÃł": 909,
      "anz": 910,
      "ure": 911,
      "ort": 912,
      "ith": 913,
      "ĠáĮĭ": 914,
      "tok": 915,
      "fi": 916,
      "Ġbe": 917,
      "Ġáĭ¨áĬł": 918,
      "Ġshekara": 919,
      "The": 920,
      "áīģ": 921,
      "oc": 922,
      "áĮ¨": 923,
      "yar": 924,
      "Ġmai": 925,
      "ni": 926,
      "Ġts": 927,
      "uu": 928,
      "Ġshekarar": 929,
      "kuwa": 930,
      "áī¹": 931,
      "les": 932,
      "ami": 933,
      "áīłáĪ¨": 934,
      "ĠáĪ²áĪĨáĬķ": 935,
      "ĠNaj": 936,
      "asar": 937,
      "ĠbÃŃ": 938,
      "áį¡áį¡": 939,
      "bÃŃ": 940,
      "kan": 941,
      "ĭáĪĭ": 942,
      "ĠWali": 943,
      "Ġfr": 944,
      "tokasi": 945,
      "Ġwá»įÌģn": 946,
      "áĮĥ": 947,
      "áĬŃáĪį": 948,
      "ij": 949,
      "Ġko": 950,
      "ĠNajeriya": 951,
      "áĪĥ": 952,
      "»áį": 953,
      "Ġat": 954,
      "ban": 955,
      "ĠáīµáĪŃáĮīáĪĻ": 956,
      "uc": 957,
      "awa": 958,
      "ric": 959,
      "bu": 960,
      "ĠáīłáĬł": 961,
      "Ġsi": 962,
      "ĠáĬłáĬķ": 963,
      "adi": 964,
      "Ġaka": 965,
      "áĪ´": 966,
      "enye": 967,
      "Ã¡Ãł": 968,
      "ity": 969,
      "ká»įÌģ": 970,
      "ont": 971,
      "ĠáĪ³": 972,
      "²áį": 973,
      "áī´": 974,
      "Ġ198": 975,
      "wo": 976,
      "ale": 977,
      "art": 978,
      "Ġkutoka": 979,
      "Ġby": 980,
      "áĮŃ": 981,
      "ĠáĪĺáĬķáĮį": 982,
      "ĠâĢĵ": 983,
      "Ġcha": 984,
      "ĠáĮĬáĭľ": 985,
      "oma": 986,
      "ĠáīĢáĬķ": 987,
      "ĠáĭĪáĭŃáĪĿ": 988,
      "Ġáĭĭ": 989,
      "Ġsa": 990,
      "áī³áīµ": 991,
      "Ġ4": 992,
      "ĠItokasi": 993,
      "ane": 994,
      "ond": 995,
      "res": 996,
      "má»į": 997,
      "arin": 998,
      "»Į": 999,
      "oh": 1000,
      "Ġ|": 1001,
      "ĠThe": 1002,
      "ĠZ": 1003,
      "áĪªáĬ«": 1004,
      "oni": 1005,
      "iri": 1006,
      "ue": 1007,
      "Ġ197": 1008,
      "sh": 1009,
      "ano": 1010,
      "Ġ'": 1011,
      "Ġex": 1012,
      "ais": 1013,
      "ĠáĪµáĪĪ": 1014,
      "ĠáĬĵ": 1015,
      "man": 1016,
      "ĠáĬłáĪĪ": 1017,
      "anar": 1018,
      "pp": 1019,
      "áĪ¨áīµáĬĵ": 1020,
      "ĠfÃºn": 1021,
      "ihar": 1022,
      "ĠáĪĬ": 1023,
      "áĮ»": 1024,
      "Ġá¹£e": 1025,
      "Ġ196": 1026,
      "amar": 1027,
      "Ġáī¢": 1028,
      "ĠáįĪ": 1029,
      "ary": 1030,
      "ĠáĬ¥áĪµáĬ¨": 1031,
      "rit": 1032,
      "ĠAr": 1033,
      "áĪĪáĪĿ": 1034,
      "ens": 1035,
      "ayin": 1036,
      "ep": 1037,
      "ts": 1038,
      "Ġwanda": 1039,
      "ĠáīłáĬĭáĪĭ": 1040,
      "ĠáĬķáĮī": 1041,
      "eng": 1042,
      "tic": 1043,
      "ĠtÃ³": 1044,
      "Ġ5": 1045,
      "Ã¡n": 1046,
      "áĪ¥áīµ": 1047,
      "ĠnÃŃn": 1048,
      "áį»áį": 1049,
      "ver": 1050,
      "ĠorÃŃ": 1051,
      "ĠáĭŃáĪħ": 1052,
      "Ã©e": 1053,
      "ĠáĭĺáĪĺáĬķ": 1054,
      "Ġyan": 1055,
      "ord": 1056,
      "áĪ¨áĪµ": 1057,
      "áĬķáĪĿ": 1058,
      "Ġfi": 1059,
      "An": 1060,
      "Ġha": 1061,
      "ĠCh": 1062,
      "já»įÌģ": 1063,
      "ayan": 1064,
      "Ġpe": 1065,
      "ĠáĬŃáįį": 1066,
      "áĪ®áī½": 1067,
      "áĭĭáĪį": 1068,
      "Ġáī°áĪ¨áīµáĬĵ": 1069,
      "áĪķ": 1070,
      "Ġso": 1071,
      "áĮ«": 1072,
      "Ġsun": 1073,
      "ĠáĬ¨áī°áĪĽ": 1074,
      "já»į": 1075,
      "Ġit": 1076,
      "so": 1077,
      "Ġad": 1078,
      "be": 1079,
      "yan": 1080,
      "Ġáº¹ÌĢ": 1081,
      "mi": 1082,
      "ori": 1083,
      "Ġdans": 1084,
      "tÃ©": 1085,
      "200": 1086,
      "áĮĪáĬ": 1087,
      "áĭİ": 1088,
      "Ġbi": 1089,
      "ĠSt": 1090,
      "ard": 1091,
      "fin": 1092,
      "up": 1093,
      "ish": 1094,
      "Ġwith": 1095,
      "ĠáĭĵáĪĺ": 1096,
      "iwa": 1097,
      "ĠnÃ¡Ãł": 1098,
      "Ġac": 1099,
      "ÃĢ": 1100,
      "io": 1101,
      "Ġwali": 1102,
      "áĪŃáĭ«": 1103,
      "ĠáĪĪáĪĺ": 1104,
      "ore": 1105,
      "áįĵ": 1106,
      "Ġáĭķ": 1107,
      "áĮĢáĪĺ": 1108,
      "Ġst": 1109,
      "Ġ20": 1110,
      "annan": 1111,
      "áī°áĬĽ": 1112,
      "Ġune": 1113,
      "Ġmw": 1114,
      "yi": 1115,
      "áĭ´": 1116,
      "mu": 1117,
      "ĠUn": 1118,
      "uli": 1119,
      "Ġmats": 1120,
      "usu": 1121,
      "zali": 1122,
      "á¹£áº¹Ìģ": 1123,
      "áĮįáĪŀ": 1124,
      "oli": 1125,
      "Ġfar": 1126,
      "anin": 1127,
      "oja": 1128,
      "ake": 1129,
      "ĠnÃŃnÃº": 1130,
      "ll": 1131,
      "erÃ©": 1132,
      "Ġzuwa": 1133,
      "afa": 1134,
      "jÃŃ": 1135,
      "ania": 1136,
      "áį¦": 1137,
      "Ġáĭ«áĪį": 1138,
      "ĠrÃ©": 1139,
      "ĠLe": 1140,
      "all": 1141,
      "ame": 1142,
      "Ġdon": 1143,
      "áĭµáĪŃ": 1144,
      "Ġgb": 1145,
      "Ġtare": 1146,
      "jo": 1147,
      "obel": 1148,
      "isha": 1149,
      "Ġ6": 1150,
      "Ġkama": 1151,
      "Ġá»įÌĢ": 1152,
      "ĠáĮĢ": 1153,
      "áĪ¶": 1154,
      "ĠáĬĲáĮĪ": 1155,
      "Ġá»įmá»į": 1156,
      "Ġáįį": 1157,
      "yin": 1158,
      "fa": 1159,
      "ass": 1160,
      "Ġfrom": 1161,
      "Ġhe": 1162,
      "ĠáĬ¢": 1163,
      "Ġab": 1164,
      "20": 1165,
      "ĠNobel": 1166,
      "áī³áĭĪ": 1167,
      "zaliwa": 1168,
      "áī£áĪį": 1169,
      "Ġáīģ": 1170,
      "Ġmut": 1171,
      "áīµáĬķ": 1172,
      "ĠáĪķ": 1173,
      "Ġá»Į": 1174,
      "ĠáĮĭáĪŃ": 1175,
      "ĠáīłáĪĽ": 1176,
      "ence": 1177,
      "ĠlÃ¡ti": 1178,
      "Ġthat": 1179,
      "Ġdi": 1180,
      "abu": 1181,
      "ux": 1182,
      "áĬŃáĪįáīł": 1183,
      "Ġáį¡": 1184,
      "rÃŃÃł": 1185,
      "ala": 1186,
      "ira": 1187,
      "áīĤ": 1188,
      "ell": 1189,
      "ins": 1190,
      "ĠáĭĵáĬŃáĪįáīł": 1191,
      "Ġhi": 1192,
      "áĪİáī½": 1193,
      "áĮ¡": 1194,
      "ĠMat": 1195,
      "áĭ°áĪ¨": 1196,
      "ua": 1197,
      "ÃłÃ¬": 1198,
      "ht": 1199,
      "jÃº": 1200,
      "ern": 1201,
      "ĠáĪļ": 1202,
      "¦áĪŃ": 1203,
      "ĠFr": 1204,
      "Ġáĭ°áĮįáĪŀ": 1205,
      "ĠlÃ³": 1206,
      "Ġqui": 1207,
      "Ġare": 1208,
      "ĠáĬłáĬķáĭµ": 1209,
      "Ġgba": 1210,
      "ĠÉĹ": 1211,
      "áĭ°áĪŃ": 1212,
      "ĠáĬłáĪį": 1213,
      "áī°áĪ¨": 1214,
      "áĪĺáĬĲ": 1215,
      "ĠAd": 1216,
      "Ġmatsayin": 1217,
      "ph": 1218,
      "Ġ195": 1219,
      "iti": 1220,
      "uni": 1221,
      "áĮĪáĬĿ": 1222,
      "..": 1223,
      "Ã¬ÃŃ": 1224,
      "áĪŃáīµ": 1225,
      "Ġ17": 1226,
      "Ġ,": 1227,
      "olog": 1228,
      "Ġnchi": 1229,
      "Ġav": 1230,
      "Ġkuwa": 1231,
      "ĠsÃ¬": 1232,
      "jÃŃrÃŃÃł": 1233,
      "Ġsur": 1234,
      "In": 1235,
      "ĠNÃłÃ¬": 1236,
      "Ġpour": 1237,
      "áĬķáīµ": 1238,
      "av": 1239,
      "Ġpr": 1240,
      "Ġ9": 1241,
      "ká»į": 1242,
      "ash": 1243,
      "ene": 1244,
      "age": 1245,
      "Ġáĭ¨áĬ¢áīµáĭ®áĮµáĭ«": 1246,
      "ĠáĪĺáĬķáĮįáĪ¥áīµ": 1247,
      "ite": 1248,
      "áĬķáĪµ": 1249,
      "áĪĶ": 1250,
      "Ġcomp": 1251,
      "Ġwatan": 1252,
      "ĠNÃłÃ¬jÃŃrÃŃÃł": 1253,
      "ĠMar": 1254,
      "Ã©r": 1255,
      "Ġhar": 1256,
      "Ã©s": 1257,
      "ĠáĪĪáĪĽ": 1258,
      "mo": 1259,
      "mp": 1260,
      "Ġms": 1261,
      "áīłáĪ©": 1262,
      "Ġyake": 1263,
      "Ġsuka": 1264,
      "risto": 1265,
      "arta": 1266,
      "Ġte": 1267,
      "áĬķáīĭ": 1268,
      "eri": 1269,
      "uri": 1270,
      "elle": 1271,
      "Ġhaif": 1272,
      "áī½áĬķ": 1273,
      "áĬª": 1274,
      "Ġagb": 1275,
      "Ġ7": 1276,
      "ĠáĪĨáĬĲ": 1277,
      "Ġáĭ¨áĬĲ": 1278,
      "áĬĵáīµ": 1279,
      "Ġbir": 1280,
      "Ġki": 1281,
      "rika": 1282,
      "ĠáĪįáĮħ": 1283,
      "emi": 1284,
      "Ġhis": 1285,
      "201": 1286,
      "angu": 1287,
      "ĠMare": 1288,
      "apa": 1289,
      "ola": 1290,
      "ast": 1291,
      "ĠáĭµáĪ¨áĪµ": 1292,
      "ĠAb": 1293,
      "ĠáĭĿ": 1294,
      "ition": 1295,
      "áĭļáĭ«": 1296,
      "áįī": 1297,
      "Ġmak": 1298,
      "ede": 1299,
      "aye": 1300,
      "ĠSh": 1301,
      "ill": 1302,
      "amb": 1303,
      "ew": 1304,
      "ff": 1305,
      "kÃł": 1306,
      "Ġáĭ«áĪįáī°": 1307,
      "ofar": 1308,
      "amm": 1309,
      "Ġ8": 1310,
      "aban": 1311,
      "ivers": 1312,
      "áĭ°áī¥": 1313,
      "á¹£Ã¹": 1314,
      "kani": 1315,
      "Ġhuk": 1316,
      "Ã¨dÃ¨": 1317,
      "áī°áĪ¨áĮİ": 1318,
      "az": 1319,
      "000": 1320,
      "ozaliwa": 1321,
      "ĠáĪħ": 1322,
      "áĮĬ": 1323,
      "ĠÆĻasar": 1324,
      "Ġvya": 1325,
      "ĠAs": 1326,
      "ĠáĬ¤": 1327,
      "Ġawon": 1328,
      "ja": 1329,
      "Ġá»įjá»įÌģ": 1330,
      "Ġáĭ¨áĬ¥": 1331,
      "ĠorÃŃláº¹ÌĢ": 1332,
      "Ġáīĭ": 1333,
      "ĠáĪµáĪĿ": 1334,
      "Ġus": 1335,
      "ĠáĪĮ": 1336,
      "ations": 1337,
      "áĪ£": 1338,
      "áĪĨáĬĳ": 1339,
      "ques": 1340,
      "Ġtr": 1341,
      "uzo": 1342,
      "áĪ¸": 1343,
      "emp": 1344,
      "ĠáĬłáĮĪ": 1345,
      "hindi": 1346,
      "áī³áĪį": 1347,
      "ĠáīłáĬ¥": 1348,
      "Ġwasan": 1349,
      "ĠáĪĢ": 1350,
      "lÃ¡": 1351,
      "²áį±": 1352,
      "urs": 1353,
      "ĠNig": 1354,
      "iss": 1355,
      "áĬķáĭ«": 1356,
      "á¹£Ã¨": 1357,
      "ĠáĪĽáĪĪáīµ": 1358,
      "Ãĵ": 1359,
      "che": 1360,
      "áĬĵáĪį": 1361,
      "Ġplus": 1362,
      "áĪĬáĭĿ": 1363,
      "une": 1364,
      "yÃłn": 1365,
      "ĠilÃ©": 1366,
      "pÃŃn": 1367,
      "áĪłáĪ": 1368,
      "ĠáĪĥ": 1369,
      "áī¸áĭįáĬķ": 1370,
      "lis": 1371,
      "inu": 1372,
      "Ba": 1373,
      "ofariki": 1374,
      "ĠáĬķáĮīáĪ¥": 1375,
      "áĬ¨áī°": 1376,
      "Ġwá»įn": 1377,
      "ect": 1378,
      "eria": 1379,
      "áī±áĬķ": 1380,
      "eb": 1381,
      "Ġkw": 1382,
      "áĪµáī°": 1383,
      "kwa": 1384,
      "áĭįáĭ«áĬķ": 1385,
      "int": 1386,
      "ida": 1387,
      "áįķ": 1388,
      "anaz": 1389,
      "Ġque": 1390,
      "áī°áĪ¨áĮİáĪĺ": 1391,
      "Ġ194": 1392,
      "Ġáĭ¨áĪļáĭ«": 1393,
      "lic": 1394,
      "áĪĢ": 1395,
      "ansa": 1396,
      "Ġ16": 1397,
      "ĠTuzo": 1398,
      "jÃ¬": 1399,
      "ors": 1400,
      "áī£áī¢": 1401,
      "ust": 1402,
      "ult": 1403,
      "ces": 1404,
      "Ġ15": 1405,
      "ĠáĬłáĪĺ": 1406,
      "Ġáī³áĪªáĬŃ": 1407,
      "áĬķáĮ": 1408,
      "ĠáīłáĬłáĪ": 1409,
      "16": 1410,
      "Ġáĭ«áĪįáī°áī°áĪ¨áĮİáĪĺ": 1411,
      "²áį±áį»áį": 1412,
      "ĠKar": 1413,
      "Ġjihar": 1414,
      "Ġwak": 1415,
      "áĪĦ": 1416,
      "ĠáĮī": 1417,
      "uh": 1418,
      "ĠáĪ°áĭį": 1419,
      "pin": 1420,
      "anazarta": 1421,
      "Ġfun": 1422,
      "bali": 1423,
      "ĠÃ¬lÃº": 1424,
      "ĠEn": 1425,
      "Ġfa": 1426,
      "áĭĽáīµ": 1427,
      "ĠáīĭáĬķáīĭ": 1428,
      "wam": 1429,
      "ugha": 1430,
      "15": 1431,
      "áĪŀáī½": 1432,
      "ĠMarekani": 1433,
      "âĢĿ": 1434,
      "Ġloka": 1435,
      "Ġay": 1436,
      "áĮ¥áĪŃ": 1437,
      "ous": 1438,
      "ishi": 1439,
      "uniya": 1440,
      "Ġsha": 1441,
      "áĪ«áīµ": 1442,
      "aki": 1443,
      "gun": 1444,
      "Ġáĭ³": 1445,
      "Ġhii": 1446,
      "sÃŃ": 1447,
      "kÃ³": 1448,
      "Ġáį£": 1449,
      "ĠAfrika": 1450,
      "áī£áīµ": 1451,
      "ĠWaliozaliwa": 1452,
      "áī¥áĪŃ": 1453,
      "ĠáĬłáĬ«": 1454,
      "Ġkasance": 1455,
      "bÃ¡": 1456,
      "áĪł": 1457,
      "tern": 1458,
      "Ġ/": 1459,
      "Ġman": 1460,
      "land": 1461,
      "áĪįáĬŃ": 1462,
      "ubwa": 1463,
      "ĠAmer": 1464,
      "Ġáĭ¨áĪĽ": 1465,
      "Ġkus": 1466,
      "lo": 1467,
      "17": 1468,
      "ĠáĬĵáī¸áĭį": 1469,
      "lu": 1470,
      "iyo": 1471,
      "Ġáī¥áĭĻ": 1472,
      "má»įÌĢ": 1473,
      "âĢĵ": 1474,
      "na": 1475,
      "dun": 1476,
      "gbe": 1477,
      "áĪĭáīµ": 1478,
      "áĬ¨áĪį": 1479,
      "ry": 1480,
      "ĠáĭŃáĮĪ": 1481,
      "ĠWaliofariki": 1482,
      "áĪĿáĪ®": 1483,
      "pr": 1484,
      "Ġawá»įn": 1485,
      "Ã¨re": 1486,
      "ational": 1487,
      "Ġpia": 1488,
      "Ġou": 1489,
      "omin": 1490,
      "Ġhu": 1491,
      "aya": 1492,
      "ign": 1493,
      "pÃŃnláº¹ÌĢ": 1494,
      "ĠáĪŀ": 1495,
      "ĠpÃ©": 1496,
      "nin": 1497,
      "ĠáĮł": 1498,
      "áĪ³áĭŃ": 1499,
      "nÃ¬": 1500,
      "ade": 1501,
      "Ġmo": 1502,
      "wÃ©": 1503,
      "gbo": 1504,
      "isa": 1505,
      "uth": 1506,
      "Ã¨s": 1507,
      "ĠáĪĻ": 1508,
      "Ġmu": 1509,
      "abi": 1510,
      "ated": 1511,
      "ĠarÃ¡": 1512,
      "Ġson": 1513,
      "áī³áĭĬ": 1514,
      "ome": 1515,
      "áĪĿáĪħ": 1516,
      "pá»įÌĢ": 1517,
      "Ta": 1518,
      "ĠáĬłáĪµáī°": 1519,
      "Le": 1520,
      "abban": 1521,
      "áĮĤ": 1522,
      "ĠáĮ½": 1523,
      "Ġmk": 1524,
      "Ġcomm": 1525,
      "uta": 1526,
      "Ġ10": 1527,
      "one": 1528,
      "ĠáĮİ": 1529,
      "yÃŃ": 1530,
      "Ġfil": 1531,
      "istor": 1532,
      "ĠKi": 1533,
      "Ġfarko": 1534,
      "kas": 1535,
      "ĠâĢľ": 1536,
      "ľáĪªáĬ«": 1537,
      "áĪĺáĪŃ": 1538,
      "ons": 1539,
      "ĠáĪ³áĭŃ": 1540,
      "Ġlati": 1541,
      "ĠáĬ¥áĬķáĭ³": 1542,
      "anan": 1543,
      "uka": 1544,
      "ote": 1545,
      "áĬķáĭ³": 1546,
      "ĠáĭĭáĬĵ": 1547,
      "ĠáĬ®": 1548,
      "emba": 1549,
      "áĮĨ": 1550,
      "Ġwani": 1551,
      "ĠáīłáĪļ": 1552,
      "áĭ²áĪµ": 1553,
      "ĠÂ»": 1554,
      "anya": 1555,
      "Ġara": 1556,
      "fic": 1557,
      "ars": 1558,
      "ĠáĪĺáĬķ": 1559,
      "áĮįáĪŃ": 1560,
      "ĠáĪĺáĪµ": 1561,
      "lec": 1562,
      "gba": 1563,
      "Ġlá»į": 1564,
      "áī·": 1565,
      "Ġyana": 1566,
      "cc": 1567,
      "áĮłáĪŃ": 1568,
      "rÃ¹n": 1569,
      "Ġáī¤áī°": 1570,
      "ember": 1571,
      "Ġáį¢": 1572,
      "Ġdan": 1573,
      "cl": 1574,
      "áĭĿáī¥": 1575,
      "Ġ=": 1576,
      "ĠNij": 1577,
      "ath": 1578,
      "Ġsab": 1579,
      "áĪĭáĭŃ": 1580,
      "áĮĪáĬĺ": 1581,
      "ille": 1582,
      "Ãª": 1583,
      "ĠerÃ©": 1584,
      "ru": 1585,
      "Ġranar": 1586,
      "Ġbayan": 1587,
      "áįĸ": 1588,
      "min": 1589,
      "ĠwÃł": 1590,
      "ÃĮ": 1591,
      "ĠIs": 1592,
      "Ġile": 1593,
      "ĠYor": 1594,
      "ĠManazarta": 1595,
      "Baada": 1596,
      "Ġ193": 1597,
      "vel": 1598,
      "ĠáĪģáĪī": 1599,
      "ande": 1600,
      "uwar": 1601,
      "Ġbiy": 1602,
      "Ġáĭ¨áĪĨ": 1603,
      "oun": 1604,
      "Ġny": 1605,
      "áĭī": 1606,
      "irin": 1607,
      "ĠMus": 1608,
      "anzania": 1609,
      "Ġmar": 1610,
      "ĠáįĬ": 1611,
      "Ã©es": 1612,
      "Ġ;": 1613,
      "áĬŀ": 1614,
      "yÃ¬n": 1615,
      "llon": 1616,
      "ĠMa": 1617,
      "isi": 1618,
      "Ġiláº¹ÌĢ": 1619,
      "ost": 1620,
      "Ġmshindi": 1621,
      "uwan": 1622,
      "amp": 1623,
      "for": 1624,
      "ĠAg": 1625,
      "ito": 1626,
      "Ġtana": 1627,
      "14": 1628,
      "Ġnot": 1629,
      "ĠáĬłáĪĿ": 1630,
      "áĮĢáĪĺáĪªáĭ«": 1631,
      "ide": 1632,
      "Ġáĭ¨áĪĿ": 1633,
      "à¤": 1634,
      "alis": 1635,
      "ise": 1636,
      "ungiyar": 1637,
      "áĪŃáĪµáī²": 1638,
      "Ġtun": 1639,
      "ukio": 1640,
      "atu": 1641,
      "ats": 1642,
      "áĪĨáĬĲ": 1643,
      "--": 1644,
      "ck": 1645,
      "ese": 1646,
      "ĠáĪĺáĭ°áī¥": 1647,
      "era": 1648,
      "ĠÃ¬t": 1649,
      "Ġhaife": 1650,
      "áĪ«áĭĬ": 1651,
      "ĠSo": 1652,
      "wÃ²": 1653,
      "Ġlokacin": 1654,
      "ĠáĪ°áĭİáī½": 1655,
      "Ġ14": 1656,
      "Ġmasu": 1657,
      "ical": 1658,
      "ind": 1659,
      "anta": 1660,
      "ĠmÃ©": 1661,
      "ĠÃ¨dÃ¨": 1662,
      "Ġbiyu": 1663,
      "rÃŃkÃł": 1664,
      "Ġáīłáĭĺ": 1665,
      "ura": 1666,
      "Ġuk": 1667,
      "ĠkÃŃ": 1668,
      "Ġáī¦": 1669,
      "10": 1670,
      "ĠáĬĲáĮĪáĪŃ": 1671,
      "Ġid": 1672,
      "hich": 1673,
      "Ġkasar": 1674,
      "áįİ": 1675,
      "anu": 1676,
      "Ġka": 1677,
      "ty": 1678,
      "áĪ«áĪį": 1679,
      "Ġita": 1680,
      "rÃ²": 1681,
      "Ġsuna": 1682,
      "199": 1683,
      "itu": 1684,
      "ĠbÃ¡": 1685,
      "áĬķáĮįáĪĬáĭĿ": 1686,
      "ayo": 1687,
      "Ġ12": 1688,
      "iko": 1689,
      "áĪĪáī½": 1690,
      "ĠáĭĵáĪĿ": 1691,
      "áī°áĭį": 1692,
      "Ġáī°áĪĺ": 1693,
      "áī¦áī½": 1694,
      "Ġmata": 1695,
      "lia": 1696,
      "akati": 1697,
      "Ġwh": 1698,
      "ĠolÃ³": 1699,
      "anc": 1700,
      "ze": 1701,
      "áĮ¸": 1702,
      "uru": 1703,
      "12": 1704,
      "ĠMatukio": 1705,
      "ĠTanzania": 1706,
      "Ġzama": 1707,
      "lá»į": 1708,
      "ĠOl": 1709,
      "ĠáĭĵáĪĺáīµ": 1710,
      "anci": 1711,
      "ĠPapa": 1712,
      "NÃŃ": 1713,
      "áį¥": 1714,
      "áĮłáīĢ": 1715,
      "ula": 1716,
      "Ġgud": 1717,
      "\".": 1718,
      "Ġwhich": 1719,
      "ward": 1720,
      "ĠmÃ¡": 1721,
      "áĪĽáĪª": 1722,
      "ĠáīĨ": 1723,
      "ĠIb": 1724,
      "Ġnom": 1725,
      "Ġáĭ¨áĪļáĮĪáĬĿ": 1726,
      "att": 1727,
      "Ġavec": 1728,
      "Ġbirnin": 1729,
      "Ġalikuwa": 1730,
      "ĠNew": 1731,
      "Ġsont": 1732,
      "tÃ¬": 1733,
      "ime": 1734,
      "cho": 1735,
      "áīħáĪĿ": 1736,
      "Ġfara": 1737,
      "ĠCom": 1738,
      "ÃĢwá»įn": 1739,
      "Ġmus": 1740,
      "áĪ¨áĭį": 1741,
      "Ġoá¹£Ã¹": 1742,
      "ĠyÃ¬ÃŃ": 1743,
      "ĠÃĴ": 1744,
      "ĠkÃ³": 1745,
      "iz": 1746,
      "áĮĵ": 1747,
      "Ġmili": 1748,
      "13": 1749,
      "Ġme": 1750,
      "enti": 1751,
      "Ġmag": 1752,
      "áĭŀ": 1753,
      "ĠáĬª": 1754,
      "ĠII": 1755,
      "áįĬáīµ": 1756,
      "illi": 1757,
      "áĮįáī¥": 1758,
      "Ġup": 1759,
      "ĠáĪĿáĬŃ": 1760,
      "ĠAfric": 1761,
      "áĬ¢": 1762,
      "utar": 1763,
      "áĭ±áĪµ": 1764,
      "áĪģáĪĿ": 1765,
      "antar": 1766,
      "ĠáĬ¥áĭ¨": 1767,
      "tÃł": 1768,
      "nÃ¬yÃłn": 1769,
      "emb": 1770,
      "udu": 1771,
      "udi": 1772,
      "ugaban": 1773,
      "Ġwon": 1774,
      "áĬĸáī½": 1775,
      "ereza": 1776,
      "áĪĭáĬķáĭµ": 1777,
      "áĭ³áĬķ": 1778,
      "ĠJam": 1779,
      "ound": 1780,
      "ran": 1781,
      "ose": 1782,
      "yÃ¨": 1783,
      "Ġkáº¹": 1784,
      "Ġhadi": 1785,
      "áįĴ": 1786,
      "irka": 1787,
      "Ġmaj": 1788,
      "tor": 1789,
      "Ġiya": 1790,
      "ingereza": 1791,
      "Maka": 1792,
      "ip": 1793,
      "Ġyawan": 1794,
      "ingi": 1795,
      "ĠáĪĭ": 1796,
      "Ġmji": 1797,
      "Ġáī¤áīµ": 1798,
      "su": 1799,
      "aus": 1800,
      "áĮĮ": 1801,
      "erm": 1802,
      "áĬ¥áĬķ": 1803,
      "º¸": 1804,
      "áĮ¨áĪ¨": 1805,
      "Ġáīĥ": 1806,
      "itÃ©": 1807,
      "áī³áī¸áĭį": 1808,
      "him": 1809,
      "Ġhad": 1810,
      "Ã©n": 1811,
      "iversity": 1812,
      "iku": 1813,
      "áĬłáī¥": 1814,
      "ogo": 1815,
      "Ġkwenye": 1816,
      "ĠÆĻwa": 1817,
      "ĠtÃºn": 1818,
      "Ġapp": 1819,
      "ĠRe": 1820,
      "áĭŃáĪħ": 1821,
      "áĪ¨áĬķ": 1822,
      "Ġhan": 1823,
      "ĠáĪĺáĬ«": 1824,
      "ĠÃ¨nÃ¬yÃłn": 1825,
      "Ġninu": 1826,
      "Ġorile": 1827,
      "ld": 1828,
      "hun": 1829,
      "ĠMas": 1830,
      "áĮ¦": 1831,
      "áĪ¨áĮĥ": 1832,
      "able": 1833,
      "ĠáĪĲ": 1834,
      "ĠNijeriya": 1835,
      "ĠKristo": 1836,
      "Ġlo": 1837,
      "Ġ13": 1838,
      "ĠáĬłáī¥": 1839,
      "ute": 1840,
      "ĠGu": 1841,
      "ĠáĬ¨áĬł": 1842,
      "áĪĪáĭ«": 1843,
      "ally": 1844,
      "áī°áĪŃ": 1845,
      "Ġáī°áīĢ": 1846,
      "Ġlugha": 1847,
      "ĠáĬĲáīłáĪ¨": 1848,
      "ex": 1849,
      "gbÃ©": 1850,
      "Ġinah": 1851,
      "akini": 1852,
      "Ġzai": 1853,
      "áĮĪáĭµ": 1854,
      "áīĨáĮ£": 1855,
      "kÃ²": 1856,
      "ĠáĪĨáĬĸ": 1857,
      "ugh": 1858,
      "áĪ°áĭį": 1859,
      "gr": 1860,
      "Ã§": 1861,
      "Ġsy": 1862,
      "akar": 1863,
      "Ġfir": 1864,
      "ĠáĬłáĮĪáĪŃ": 1865,
      "ĠáīłáĪµ": 1866,
      "ope": 1867,
      "ĠSa": 1868,
      "áĪ¨áĭ³": 1869,
      "áĪīáīµ": 1870,
      "du": 1871,
      "ĠáĬłáī£": 1872,
      "ĠáīłáĬ¢áīµáĭ®áĮµáĭ«": 1873,
      "ther": 1874,
      "mar": 1875,
      "sÃ¬": 1876,
      "dÃŃ": 1877,
      "atar": 1878,
      "áĬĲáĭļáĪħ": 1879,
      "áĭµáĬķ": 1880,
      "ice": 1881,
      "ĠOk": 1882,
      "ĠkÃ²": 1883,
      "áĪĶáĪŃ": 1884,
      "anga": 1885,
      "Ġib": 1886,
      "Makala": 1887,
      "áĪĺáĪµ": 1888,
      "áĪĽáĭĬ": 1889,
      "fe": 1890,
      "áĪ°áī¥": 1891,
      "wamn": 1892,
      "Ġinahusu": 1893,
      "Ġaiki": 1894,
      "ĠáĪ´": 1895,
      "Ġáįķ": 1896,
      "ongo": 1897,
      "Ġser": 1898,
      "áīª": 1899,
      "gu": 1900,
      "amba": 1901,
      "ĠáĭĺáĬķáĭµ": 1902,
      "oro": 1903,
      "ree": 1904,
      "áīµáĬĵ": 1905,
      "áįħ": 1906,
      "Ġáĭ¨áĪ°": 1907,
      "áĮĪáĬĻ": 1908,
      "ká»įÌĢ": 1909,
      "ĠáĮ¨": 1910,
      "hari": 1911,
      "ohn": 1912,
      "alin": 1913,
      "Ġform": 1914,
      "ĠáĮĢáĪĿáĪ®": 1915,
      "áĪĭáī¸áĭį": 1916,
      "Ġ192": 1917,
      "der": 1918,
      "En": 1919,
      "Al": 1920,
      "tre": 1921,
      "áº¹Ìģg": 1922,
      "áĭ¥": 1923,
      "ĠáĪ«": 1924,
      "Ġci": 1925,
      "Ġob": 1926,
      "Ġáī£áĪĪ": 1927,
      "áĮ½áĪĲ": 1928,
      "ited": 1929,
      "ĠWa": 1930,
      "Ġamb": 1931,
      "ĠprÃ©": 1932,
      "áĪŃáĪ±": 1933,
      "Ġáįĵ": 1934,
      "elu": 1935,
      "iji": 1936,
      "ĠNigeria": 1937,
      "duc": 1938,
      "hemu": 1939,
      "Ġdis": 1940,
      "aransa": 1941,
      "ole": 1942,
      "ates": 1943,
      "ĠUniversity": 1944,
      "wÃ¡": 1945,
      "ĠáĬ¢áīµáĭ®áĮµáĭ«": 1946,
      "ike": 1947,
      "usi": 1948,
      "ĠÃ¬gbÃł": 1949,
      "Ġent": 1950,
      "jÃ¡": 1951,
      "Ġinda": 1952,
      "Ġkasa": 1953,
      "ĠáĮ¦áĪŃ": 1954,
      "ĠAfirka": 1955,
      "per": 1956,
      "tÃ²": 1957,
      "ĠLa": 1958,
      "áĭ¨áĪŃ": 1959,
      "Ġáĭ«áĪĪáĭį": 1960,
      "áī¡áī¥": 1961,
      "ĠÃ¡": 1962,
      "pÃ©": 1963,
      "áº¹ÌĢr": 1964,
      "ĠáĮ¸": 1965,
      "ys": 1966,
      "áĬ¤áĪį": 1967,
      "Â«": 1968,
      "Ġáī¥áī»": 1969,
      "Ġwere": 1970,
      "áĬķáĬķ": 1971,
      "uis": 1972,
      "Ġáī°áĭĪ": 1973,
      "áĮ£áĪį": 1974,
      "yáº¹": 1975,
      "enn": 1976,
      "Ġres": 1977,
      "áĭµáĪĿ": 1978,
      "ĠCol": 1979,
      "áĪłáĪ¨": 1980,
      "á»įÌĢn": 1981,
      "áº¹Ìģgáº¹Ìģ": 1982,
      "dÃ¡": 1983,
      "Ġgbo": 1984,
      "ĠáĬ¨áįį": 1985,
      "tÃŃ": 1986,
      "ĥáĭŃ": 1987,
      "ĠáĪĺáĪį": 1988,
      "ĠÃ²á¹£Ã¨": 1989,
      "Ġbu": 1990,
      "Ġáĭ«áĪĪ": 1991,
      "ĠáĭĺáĪĺ": 1992,
      "bar": 1993,
      "ks": 1994,
      "Ġáĭ¨áĭĪ": 1995,
      "com": 1996,
      "ĠdÃ¡": 1997,
      "Ġkim": 1998,
      "áĪĿáĬĵ": 1999,
      "Ġuli": 2000,
      "Ġsam": 2001,
      "ogra": 2002,
      "ĠáĬłáĭį": 2003,
      "áĪįáĮ£": 2004,
      "ois": 2005,
      "La": 2006,
      "Ġmwan": 2007,
      "Ġcewa": 2008,
      "Ġcons": 2009,
      "ĠØ": 2010,
      "Ġzam": 2011,
      "Ġcl": 2012,
      "ĠáĬ¦": 2013,
      "Ġgr": 2014,
      "ĠTh": 2015,
      "áĬĵáĭĬ": 2016,
      "tions": 2017,
      "Ġáī°áĬ¨": 2018,
      "any": 2019,
      "Ġap": 2020,
      "ĠÆĻwallon": 2021,
      "dÃ¬": 2022,
      "Ġmul": 2023,
      "ton": 2024,
      "Ġwana": 2025,
      "go": 2026,
      "áį²áį±áį»áį": 2027,
      "Ġkam": 2028,
      "ase": 2029,
      "gin": 2030,
      "áĬħ": 2031,
      "Ġkafa": 2032,
      "Ġwaka": 2033,
      "Ġaf": 2034,
      "Ùİ": 2035,
      "kun": 2036,
      "umani": 2037,
      "áĪļáĭ«": 2038,
      "Ġpáº¹ÌĢ": 2039,
      "do": 2040,
      "198": 2041,
      "Ġph": 2042,
      "dÃ©": 2043,
      "Th": 2044,
      "ĠáīģáĮ¥áĪŃ": 2045,
      "Ġjáº¹": 2046,
      "Il": 2047,
      "ĠPr": 2048,
      "alme": 2049,
      "cha": 2050,
      "ungu": 2051,
      "ĠáĪ¥áĪŃ": 2052,
      "ĠáĪī": 2053,
      "orn": 2054,
      "erumani": 2055,
      "amoja": 2056,
      "abar": 2057,
      "yÃ©": 2058,
      "fer": 2059,
      "Ġkwan": 2060,
      "Ġduniya": 2061,
      "idi": 2062,
      "isiwa": 2063,
      "vent": 2064,
      "ayar": 2065,
      "oth": 2066,
      "Ġwad": 2067,
      "Ġdake": 2068,
      "umb": 2069,
      "ven": 2070,
      "Ġáĭ¨áīĢ": 2071,
      "ustr": 2072,
      "Ġáĭ¨áĪĨáĬĲ": 2073,
      "Ġáĭ®": 2074,
      "ĠáĬłáīł": 2075,
      "Ġweng": 2076,
      "ĠÃĮpÃŃnláº¹ÌĢ": 2077,
      "áĪ¥áī³áīµ": 2078,
      "ĠÆ": 2079,
      "Ã³n": 2080,
      "áĪŃáĬŃ": 2081,
      "ayi": 2082,
      "ĠáĭĪáĬķ": 2083,
      "á¹£e": 2084,
      "ĠáĮ£": 2085,
      "Éĵ": 2086,
      "ĠáīłáĪĿ": 2087,
      "áī¢áĭ«": 2088,
      "Ġana": 2089,
      "ĠPro": 2090,
      "jen": 2091,
      "ule": 2092,
      "hine": 2093,
      "Ġdaya": 2094,
      "áĬ¦": 2095,
      "Ġsai": 2096,
      "ĠJihar": 2097,
      "Ġiá¹£áº¹Ìģ": 2098,
      "áĮ¨áĪ¨áĪ»": 2099,
      "áĮłáĪ«": 2100,
      "áĮ¤": 2101,
      "áīĥáĪį": 2102,
      "als": 2103,
      "ĠáĪľ": 2104,
      "ĠáīłáĭļáĪħ": 2105,
      "ĠáĭµáĪŃ": 2106,
      "já»įba": 2107,
      "áĪ³áīµ": 2108,
      "áĪľáĬķ": 2109,
      "ĠPar": 2110,
      "akatifu": 2111,
      "ĠBK": 2112,
      "Ġbabban": 2113,
      "Ġáĭ¨áī°áī£": 2114,
      "org": 2115,
      "ÙĦ": 2116,
      "Ġwannan": 2117,
      "Ġyar": 2118,
      "ĠáĪĺáĬ«áĬ¨áĪį": 2119,
      "Ġake": 2120,
      "Ġáī¡": 2121,
      "ema": 2122,
      "ode": 2123,
      "ĠáĬ¨áĪĺ": 2124,
      "Ġwake": 2125,
      "ĠáīłáĪĭáĭŃ": 2126,
      "Ġgáº¹Ìģgáº¹Ìģ": 2127,
      "áĭİáī¹": 2128,
      "ĠIng": 2129,
      "Ġut": 2130,
      "ĠáīłáĭĺáĪĺáĬĲ": 2131,
      "atun": 2132,
      "iaka": 2133,
      "áĮįáĭļ": 2134,
      "ĠBr": 2135,
      "áĬķáĮī": 2136,
      "Ġwatu": 2137,
      "Ġjama": 2138,
      "gion": 2139,
      "áĬ³": 2140,
      "oul": 2141,
      "ume": 2142,
      "ĠáīłáĪ°": 2143,
      "ĠQ": 2144,
      "ĠIta": 2145,
      "Ġtak": 2146,
      "ette": 2147,
      "yÃł": 2148,
      "lin": 2149,
      "ĠDe": 2150,
      "own": 2151,
      "wá»įÌģ": 2152,
      "áīħáĪŃ": 2153,
      "inc": 2154,
      "onn": 2155,
      "alla": 2156,
      "ĠáĬŃáįįáĪĪ": 2157,
      "ĠÃĪ": 2158,
      "ĠtÃł": 2159,
      "áī¥áĪ¨": 2160,
      "áĪĽáĭŃ": 2161,
      "áĪħáĪį": 2162,
      "ĠKarne": 2163,
      "ĠSe": 2164,
      "els": 2165,
      "áº¹Ìģr": 2166,
      "ive": 2167,
      "Ġhukum": 2168,
      "ashin": 2169,
      "ĠáĬłáĪŃ": 2170,
      "Ġalso": 2171,
      "Ġpáº¹ÌĢlÃº": 2172,
      "Ġyankin": 2173,
      "áĪĺáĪĪ": 2174,
      "áĪĿáĪħáĪŃáīµ": 2175,
      "Ġlá»įÌģ": 2176,
      "ĠMe": 2177,
      "ziki": 2178,
      "str": 2179,
      "ku": 2180,
      "Ġsehemu": 2181,
      "Ġcont": 2182,
      "áĭŃáĭĪ": 2183,
      "umi": 2184,
      "gbáº¹Ìģ": 2185,
      "gbÃ¡": 2186,
      "áįĥ": 2187,
      "ende": 2188,
      "uke": 2189,
      "áīĦ": 2190,
      "eno": 2191,
      "50": 2192,
      "ww": 2193,
      "Ġkab": 2194,
      "áĬķáĮįáĪĬáĭĿáĬĽ": 2195,
      "afin": 2196,
      "ena": 2197,
      "ept": 2198,
      "vi": 2199,
      "ants": 2200,
      "ĠwÃ¡": 2201,
      "kasÃŃ": 2202,
      "áĬķáĬĵ": 2203,
      "jÃł": 2204,
      "ĠlÃ³rÃŃ": 2205,
      "bin": 2206,
      "gbÃ¨": 2207,
      "ĠVi": 2208,
      "ĠáĬ¥áĬķáĭ²áĪģáĪĿ": 2209,
      "lÃ³": 2210,
      "Ġmon": 2211,
      "ĠáĪ½": 2212,
      "áīĨáĮ£áĮłáĪŃ": 2213,
      "21": 2214,
      "Ġibi": 2215,
      "fun": 2216,
      "orld": 2217,
      "Ġmkuu": 2218,
      "áº¹ÌģrÃŃkÃł": 2219,
      "Ġnd": 2220,
      "Ġáĭ¨áĮį": 2221,
      "áº¹ÌĢráº¹ÌĢ": 2222,
      "Ġak": 2223,
      "eshi": 2224,
      "ĠAp": 2225,
      "Ġmf": 2226,
      "Ġcent": 2227,
      "Ġáī¦áī³": 2228,
      "jin": 2229,
      "áĮįáĭļáĬłáī¥": 2230,
      "uba": 2231,
      "Ġlakini": 2232,
      "ĠJohn": 2233,
      "áĮģ": 2234,
      "Ġtra": 2235,
      "Ġkamar": 2236,
      "Ġimp": 2237,
      "atin": 2238,
      "áĭ°áīµ": 2239,
      "ory": 2240,
      "Ġpamoja": 2241,
      "annin": 2242,
      "ĠAmáº¹ÌģrÃŃkÃł": 2243,
      "ĠÆĻafa": 2244,
      "gÃºn": 2245,
      "aij": 2246,
      "Ġcomme": 2247,
      "áĭįáĪĿ": 2248,
      "áĪµáī³": 2249,
      "Ġmiaka": 2250,
      "pt": 2251,
      "áĮĪáĬķ": 2252,
      "ĠáīłáīĢ": 2253,
      "áĬŀáī½": 2254,
      "Ġgab": 2255,
      "igh": 2256,
      "Ġsamu": 2257,
      "ĠáĬĲáīłáĪ©": 2258,
      "lex": 2259,
      "eo": 2260,
      "arr": 2261,
      "ĠAc": 2262,
      "lÃ¨": 2263,
      "\",": 2264,
      "áĮĨáī½": 2265,
      "áĭ¬": 2266,
      "áī¤áīµ": 2267,
      "Ġina": 2268,
      "tt": 2269,
      "istoria": 2270,
      "Ġnje": 2271,
      "eth": 2272,
      "Ġáī°áī¥": 2273,
      "chool": 2274,
      "áĪŃáĪµáī²áĭ«áĬķ": 2275,
      "láº¹Ìģ": 2276,
      "Ġmutane": 2277,
      "ĠJanu": 2278,
      "ráº¹": 2279,
      "ank": 2280,
      "áĮ¥áĬķ": 2281,
      "ĠGh": 2282,
      "Ġ11": 2283,
      "ents": 2284,
      "ju": 2285,
      "Ġik": 2286,
      "Ġáīħáĭ±áĪµ": 2287,
      "form": 2288,
      "rÃłn": 2289,
      "áĭķáĪ«": 2290,
      "ĠBen": 2291,
      "Ġtsak": 2292,
      "wÃ³": 2293,
      "Ġwata": 2294,
      "Ġra": 2295,
      "Ya": 2296,
      "lá»įÌģ": 2297,
      "ires": 2298,
      "Ġfirst": 2299,
      "³áĪµ": 2300,
      "áĮįáĭļáĬłáī¥áĪĶáĪŃ": 2301,
      "Ġrep": 2302,
      "ĠáĭŃáĮĪáĬĽ": 2303,
      "Ġ2015": 2304,
      "Ġráº¹": 2305,
      "Ġáĭ¨áĪµ": 2306,
      "ĠOr": 2307,
      "Ġwasu": 2308,
      "ashi": 2309,
      "ude": 2310,
      "Ġtele": 2311,
      "áĪµáĬĵ": 2312,
      "áĬŃáīµ": 2313,
      "ĠÃ²á¹£Ã¨rÃ©": 2314,
      "gi": 2315,
      "Ã´": 2316,
      "Ġduk": 2317,
      "kea": 2318,
      "Ġhas": 2319,
      "ikia": 2320,
      "Ġits": 2321,
      "ĠmÃ¡a": 2322,
      "ĠáĪ¨": 2323,
      "ĠáĪĿáĬŃáĬķáĭ«": 2324,
      "ĠJami": 2325,
      "Ġamba": 2326,
      "ĠIngila": 2327,
      "áĭ¶áī½": 2328,
      "Ġim": 2329,
      "ubu": 2330,
      "kÃ¬": 2331,
      "áĪº": 2332,
      "áī¥áĪ«": 2333,
      "Ġter": 2334,
      "mba": 2335,
      "tique": 2336,
      "Les": 2337,
      "ona": 2338,
      "ĠáĬłáĪī": 2339,
      "Ġdo": 2340,
      "Ġes": 2341,
      "ĠáĪĿáĬķ": 2342,
      "adu": 2343,
      "Ġann": 2344,
      "fani": 2345,
      "Ġdif": 2346,
      "á»įÌģkasÃŃ": 2347,
      "ele": 2348,
      "ham": 2349,
      "Ġgir": 2350,
      "ĠyÃŃ": 2351,
      "ĠtÃłbÃŃ": 2352,
      "low": 2353,
      "Ġ2011": 2354,
      "anen": 2355,
      "ĠkÃ©": 2356,
      "Ġlit": 2357,
      "Ġyin": 2358,
      "ĠáĭŃáī£": 2359,
      "old": 2360,
      "á¹£áº¹": 2361,
      "ĠalÃ¡": 2362,
      "velop": 2363,
      "Ġcan": 2364,
      "ĠTur": 2365,
      "ures": 2366,
      "ĠHar": 2367,
      "áĮĪáĬĵ": 2368,
      "hili": 2369,
      "va": 2370,
      "196": 2371,
      "ĠÃ¨yÃŃ": 2372,
      "Ġrec": 2373,
      "áĭŃáĬķ": 2374,
      "Ġkwanza": 2375,
      "eni": 2376,
      "ays": 2377,
      "//": 2378,
      "ÃłÃ¡": 2379,
      "Ali": 2380,
      "ĠáĬŃáįįáĪį": 2381,
      "Ġáĭ¨áĬĲáīłáĪ¨": 2382,
      "ora": 2383,
      "ĠNov": 2384,
      "áīĢáīµ": 2385,
      "orth": 2386,
      "áĬĴáĭ«": 2387,
      "11": 2388,
      "30": 2389,
      "ĠAmerika": 2390,
      "áī±áĪĿ": 2391,
      "áĬĸáĪŃ": 2392,
      "92": 2393,
      "197": 2394,
      "tu": 2395,
      "its": 2396,
      "ĠMay": 2397,
      "Ġbut": 2398,
      "ĠInd": 2399,
      "://": 2400,
      "ĠAmeric": 2401,
      "ĠSept": 2402,
      "ĠGe": 2403,
      "Ġáĭ²": 2404,
      "Ġsp": 2405,
      "tain": 2406,
      "zini": 2407,
      "ĠáĪŃ": 2408,
      "áĭ°áĪ¨áĮĪ": 2409,
      "Ġ2014": 2410,
      "Ġká»į": 2411,
      "andishi": 2412,
      "oya": 2413,
      "Ġsiku": 2414,
      "ĠonÃŃ": 2415,
      "aul": 2416,
      "áĪĪáī°": 2417,
      "ĠRoma": 2418,
      "ĠáĬłáĬ«áī£áī¢": 2419,
      "rá»įÌĢ": 2420,
      "Ġ190": 2421,
      "ĠáĬ¥áĬķáĮį": 2422,
      "áĮ½áĪĲáįį": 2423,
      "ach": 2424,
      "áĭ¨áīµ": 2425,
      "Ġohun": 2426,
      "Ġgarin": 2427,
      "Ġhal": 2428,
      "Ġdin": 2429,
      "Ġáįĸ": 2430,
      "Ġcol": 2431,
      "oi": 2432,
      "Ġye": 2433,
      "ĠáĬłáīĨáĮ£áĮłáĪŃ": 2434,
      "He": 2435,
      "ert": 2436,
      "ony": 2437,
      "ĠJul": 2438,
      "din": 2439,
      "áĭ®áĬķ": 2440,
      "Ġzili": 2441,
      "Ġ)": 2442,
      "Ġaikin": 2443,
      "ĠMac": 2444,
      "Ġshugaban": 2445,
      "Ġhave": 2446,
      "Ġpos": 2447,
      "Ġeneo": 2448,
      "Ġshir": 2449,
      "Ġlangu": 2450,
      "ĠWar": 2451,
      "Ġpremi": 2452,
      "Ġ[": 2453,
      "ĠáīłáĮį": 2454,
      "áĪ¨áĮį": 2455,
      "ative": 2456,
      "rie": 2457,
      "ĠáĬłáĬķáĭ±": 2458,
      "mes": 2459,
      "iria": 2460,
      "áĪįáīħ": 2461,
      "Ġ2016": 2462,
      "áĬķáĮĭ": 2463,
      "áĪŃáĭĿ": 2464,
      "ĠáĮįáĭĽáīµ": 2465,
      "Ġmakar": 2466,
      "ĠBo": 2467,
      "ĠáĬ¥áĭ«": 2468,
      "Ġmod": 2469,
      "áįĪáĪŃ": 2470,
      "Ġkai": 2471,
      "áĪĿáĬķ": 2472,
      "chini": 2473,
      "bre": 2474,
      "ungo": 2475,
      "Ġtrans": 2476,
      "ebru": 2477,
      "Ġhasa": 2478,
      "ĠolÃ¹": 2479,
      "áĭµáĪŀ": 2480,
      "sc": 2481,
      "ury": 2482,
      "Ġáīłáī¥": 2483,
      "ĠÉĹan": 2484,
      "Ġáīłáĭ°": 2485,
      "áĮİáĪŃ": 2486,
      "ĠáĬ¨áī°áĪŀáī½": 2487,
      "Ġtro": 2488,
      "áĮĪáī£": 2489,
      "ĠáĬłáĪĭ": 2490,
      "Ġfin": 2491,
      "áįĢ": 2492,
      "áĭŃáĬĵ": 2493,
      "áīĢáĭį": 2494,
      "ĠáĬ¥áĬķáĭ°áĪļ": 2495,
      "shi": 2496,
      "Ġsin": 2497,
      "kazini": 2498,
      "Ġwakazi": 2499,
      "phi": 2500,
      "áĮĪáĪĪ": 2501,
      "lÃł": 2502,
      "ĠáĪ¶": 2503,
      "Ġgwamn": 2504,
      "ique": 2505,
      "ĠáĬĥáĭŃ": 2506,
      "Ġcin": 2507,
      "led": 2508,
      "ĠAt": 2509,
      "lem": 2510,
      "son": 2511,
      "ĠáīłáįĬáīµ": 2512,
      "ĠOn": 2513,
      "Ġaut": 2514,
      "áĬĺ": 2515,
      "ĠjÃ¹": 2516,
      "ĠáĭŃáī½": 2517,
      "Ġgbogbo": 2518,
      "ĠJap": 2519,
      "Ġwengi": 2520,
      "Ġáº¸": 2521,
      "ĠlÃ¨": 2522,
      "Ġpo": 2523,
      "hariki": 2524,
      "Ġ2019": 2525,
      "áĪĽáĬĸ": 2526,
      "22": 2527,
      "mÃ¹": 2528,
      "áīµáĪŃ": 2529,
      "áĪĭáĪī": 2530,
      "Ġkya": 2531,
      "yn": 2532,
      "ashe": 2533,
      "áīħáīµ": 2534,
      "áĮ£áĪĿ": 2535,
      "akin": 2536,
      "cip": 2537,
      "ublic": 2538,
      "ves": 2539,
      "ĠáĪĽáĪŃ": 2540,
      "ĠáĪģáĪĪáīµ": 2541,
      "áĪĪáĭ«áĭ©": 2542,
      "ishwa": 2543,
      "ĠáĭŃáī³": 2544,
      "Ni": 2545,
      "áĪı": 2546,
      "áĪĳ": 2547,
      "lish": 2548,
      "áī¥áĪµ": 2549,
      "Ġ2012": 2550,
      "uhamm": 2551,
      "Ġaux": 2552,
      "ĠáĪ¸": 2553,
      "ĠâĢĺ": 2554,
      "kana": 2555,
      "áĬ¬": 2556,
      "áĬŃáĪµ": 2557,
      "Ġsana": 2558,
      "ĠáĪĿáĬķáĮ": 2559,
      "Ġgaba": 2560,
      "áĭĸ": 2561,
      "Ġáī´": 2562,
      "áĪĪáĬķ": 2563,
      "Ġáĭ©": 2564,
      "ĠnÃŃgbÃł": 2565,
      "Ġsec": 2566,
      "Ġmáº¹Ìģ": 2567,
      "Ġjina": 2568,
      "Ġzaidi": 2569,
      "iro": 2570,
      "ĠCon": 2571,
      "ĠáĬłáīłáī£": 2572,
      "ople": 2573,
      "ĠAward": 2574,
      "Ġpas": 2575,
      "mÃŃ": 2576,
      "bÃł": 2577,
      "Ġabo": 2578,
      "ĠAustr": 2579,
      "Ġkubwa": 2580,
      "ĠgbÃ©": 2581,
      "áĪĪáĭŃ": 2582,
      "áĪ«áīħ": 2583,
      "Ġnchini": 2584,
      "Ġmp": 2585,
      "ĠKan": 2586,
      "ĠáĪĮáĪĭ": 2587,
      "zaji": 2588,
      "ĠBe": 2589,
      "alement": 2590,
      "Ġhak": 2591,
      "áī£áĭŃ": 2592,
      "oda": 2593,
      "áĪ°áĪ«": 2594,
      "Ġgro": 2595,
      "enda": 2596,
      "Ġshine": 2597,
      "ĠáĭĺáĪĺáĬĲ": 2598,
      "Ġomo": 2599,
      "amo": 2600,
      "Ġ2006": 2601,
      "³áį": 2602,
      "áĪįáĮį": 2603,
      "olu": 2604,
      "áĪ®áįĵ": 2605,
      "ĠáĭĵáĪĺáī³áīµ": 2606,
      "ĠKing": 2607,
      "áĪĿáĪŃ": 2608,
      "áĪĺáīµ": 2609,
      "ĠáĮ¦áĪŃáĬĲáīµ": 2610,
      "áĪĺáĪ¨": 2611,
      "ĠáĪĥáĭŃ": 2612,
      "áĪŃáĪĺáĬķ": 2613,
      "Ġlili": 2614,
      "lan": 2615,
      "hu": 2616,
      "par": 2617,
      "ĠáĪµáĪ«": 2618,
      "áĪªáĬ«áĭĬ": 2619,
      "jáº¹Ìģ": 2620,
      "á»Į": 2621,
      "Ġpart": 2622,
      "Ġ2010": 2623,
      "Ġáĭ¨áĭį": 2624,
      "Ġáĭ¨áĭĵ": 2625,
      "ĠáĬ¨áĪļ": 2626,
      "ĠáĪµáĪŃ": 2627,
      "Ġáĭ¨áĪĺáĮĢáĪĺáĪªáĭ«": 2628,
      "ĠEng": 2629,
      "Ġray": 2630,
      "Ġbec": 2631,
      "á¹£Ãł": 2632,
      "ĠáĪ²áĭ«": 2633,
      "atic": 2634,
      "ĠX": 2635,
      "ĠFebru": 2636,
      "ĠáĬłáĭŃáĬĲáīµ": 2637,
      "vo": 2638,
      "ĠGhana": 2639,
      "Ġ2018": 2640,
      "anzu": 2641,
      "ĠáĬłáĪ¨": 2642,
      "áĪĲáĬķáĪµ": 2643,
      "áī·áĪį": 2644,
      "Ġá»ĮÌĢ": 2645,
      "Ġkungiyar": 2646,
      "enya": 2647,
      "Ġbaya": 2648,
      "ashen": 2649,
      "kÃłn": 2650,
      "ision": 2651,
      "áĮłáīĥ": 2652,
      "áĮłáĪ¨": 2653,
      "cy": 2654,
      "uti": 2655,
      "áĪįáĪĿ": 2656,
      "áĪįáĭµ": 2657,
      "Ġ2017": 2658,
      "ales": 2659,
      "Ġá»įdun": 2660,
      "Ġtar": 2661,
      "Ġjir": 2662,
      "Ġsá»į": 2663,
      "Ġ2007": 2664,
      "ĠáĭĽ": 2665,
      "áīłáī¥": 2666,
      "onom": 2667,
      "Ġmi": 2668,
      "áĪŃáĭµ": 2669,
      "Ġfam": 2670,
      "áĪĭáĪĿ": 2671,
      "ĠGr": 2672,
      "Ġorin": 2673,
      "áī£áī¸áĭį": 2674,
      "ukan": 2675,
      "Ġbar": 2676,
      "ternational": 2677,
      "enne": 2678,
      "Ġpa": 2679,
      "Ġamfani": 2680,
      "áĪ¬áīµ": 2681,
      "ps": 2682,
      "wn": 2683,
      "Am": 2684,
      "ĠáĬ¨áĭļáĭ«": 2685,
      "idan": 2686,
      "áĭ°áĪį": 2687,
      "áĬĲáĮĪáĪŃ": 2688,
      "áĮįáĪ«": 2689,
      "Ġáį²áį±áį»áį": 2690,
      "jerumani": 2691,
      "Ã¬bÃŃ": 2692,
      "istan": 2693,
      "ĠOkto": 2694,
      "ambo": 2695,
      "ĠáĬ¨áįįáī°áĬĽ": 2696,
      "tar": 2697,
      "áįįáĪ«": 2698,
      "uf": 2699,
      "ĠáĬ¥áĪŃ": 2700,
      "áī£áĪŃ": 2701,
      "lÃ¹": 2702,
      "ted": 2703,
      "ĠHe": 2704,
      "uran": 2705,
      "ĠáĭĪáĪŃ": 2706,
      "Ġhali": 2707,
      "ĠáĬłáĭ²áĪµ": 2708,
      "Ġhaka": 2709,
      "ĠáĬ³áĪµ": 2710,
      "ĠAfrica": 2711,
      "insi": 2712,
      "Ã¹bÃ¡": 2713,
      "ugu": 2714,
      "23": 2715,
      "Ġgasar": 2716,
      "ĠáĬĲáĮĪáĪ¥áī³áīµ": 2717,
      "Ġum": 2718,
      "ĠNaij": 2719,
      "ĠáĪłáĪ": 2720,
      "áĮĢáĪĺáĪŃáĭ«": 2721,
      "ĠáĪĮáĪİáī½": 2722,
      "pos": 2723,
      "ĠáĬ¥áĮħ": 2724,
      "ĠfÃŃ": 2725,
      "Ġmafi": 2726,
      "Ġshiga": 2727,
      "áĬĲáĭį": 2728,
      "Ġtheir": 2729,
      "Ġfim": 2730,
      "Ġmin": 2731,
      "ĠSchool": 2732,
      "iyya": 2733,
      "endele": 2734,
      "ĠáĪĽáĪµ": 2735,
      "ivyo": 2736,
      "eta": 2737,
      "ĠáĪĺáĮł": 2738,
      "ĠáĬ©": 2739,
      "ela": 2740,
      "áĭİáī½áĬķ": 2741,
      "co": 2742,
      "ater": 2743,
      "áĭĮ": 2744,
      "Ġ30": 2745,
      "Ġkup": 2746,
      "ĠAmur": 2747,
      "Ã¬nrin": 2748,
      "aifa": 2749,
      "ĠNaijiria": 2750,
      "ĠáĬłáįį": 2751,
      "Ġthis": 2752,
      "Mwaka": 2753,
      "ĠAng": 2754,
      "alisar": 2755,
      "ĠáĭŃáī£áĪĭáĪį": 2756,
      "Ġmbali": 2757,
      "®áī½": 2758,
      "Ġsiya": 2759,
      "ici": 2760,
      "Ġ2013": 2761,
      "áĭ°áĭį": 2762,
      "ĠáĭĪáīħáīµ": 2763,
      "lah": 2764,
      "áĭĵáīµ": 2765,
      "Ã®": 2766,
      "ĠáĪĺáĪ°": 2767,
      "ĠáĪĿáĭµáĪŃ": 2768,
      "Ġáº¹ÌĢká»įÌģ": 2769,
      "Ġkm": 2770,
      "ilaya": 2771,
      "áīłáĪĭ": 2772,
      "ĠáĪįáĭ©": 2773,
      "yana": 2774,
      "hed": 2775,
      "ĠÃłká»įÌģ": 2776,
      "áįĪáĪ¨áĬķ": 2777,
      "Ġir": 2778,
      "ofin": 2779,
      "aux": 2780,
      "Ġtarehe": 2781,
      "cce": 2782,
      "iyan": 2783,
      "25": 2784,
      "gan": 2785,
      "asu": 2786,
      "ĠMuhamm": 2787,
      "ako": 2788,
      "ikwa": 2789,
      "áī³áĭŃ": 2790,
      "Ġjami": 2791,
      "áįįáīµ": 2792,
      "áī¶áĪµ": 2793,
      "gar": 2794,
      "Ġcour": 2795,
      "anÃ§": 2796,
      "Ġ25": 2797,
      "áĬ¥áĪµ": 2798,
      "ĠÃĮt": 2799,
      "mÃ¬": 2800,
      "ero": 2801,
      "ato": 2802,
      "áī£áĪĪ": 2803,
      "ĠáĭķáĪĪáīµ": 2804,
      "tiv": 2805,
      "ology": 2806,
      "Ġkir": 2807,
      "Ġparti": 2808,
      "Ġáĭľ": 2809,
      "Ġsannan": 2810,
      "ĠÆĻar": 2811,
      "ĠáĭĻ": 2812,
      "Ġche": 2813,
      "áĬ¨áĭļáĪħ": 2814,
      "áįĭáīµ": 2815,
      "Kati": 2816,
      "ich": 2817,
      "áĪµáĪĪ": 2818,
      "áī²áĬ«": 2819,
      "áĮ¨áĪĽáĪª": 2820,
      "pinle": 2821,
      "yp": 2822,
      "Ġcar": 2823,
      "ular": 2824,
      "jáº¹": 2825,
      "iga": 2826,
      "áįĪáĭį": 2827,
      "áĭİáĪµ": 2828,
      "Ã¢": 2829,
      "eral": 2830,
      "ork": 2831,
      "Ãºká»į": 2832,
      "ĠOktoba": 2833,
      "Ġstr": 2834,
      "ingine": 2835,
      "ĠAli": 2836,
      "ĠAre": 2837,
      "ĠBir": 2838,
      "ĠBar": 2839,
      "Un": 2840,
      "ĠáīłáĪŃ": 2841,
      "Ġmaka": 2842,
      "áĪĭáīħ": 2843,
      "iste": 2844,
      "Ġjuu": 2845,
      "Ġwakati": 2846,
      "ett": 2847,
      "ms": 2848,
      "Ø§": 2849,
      "áĮ¢": 2850,
      "ĠáĬłáĭµáĪŃ": 2851,
      "amin": 2852,
      "Ġmah": 2853,
      "ĠáĪĽáĭķ": 2854,
      "Ġdeux": 2855,
      "ĠDes": 2856,
      "áĪ¹": 2857,
      "Ġpoli": 2858,
      "ley": 2859,
      "ima": 2860,
      "ages": 2861,
      "áĪĽáīµ": 2862,
      "Ġáĭ«áĪµ": 2863,
      "agos": 2864,
      "Ar": 2865,
      "thi": 2866,
      "As": 2867,
      "Ġbo": 2868,
      "ĠwÃŃ": 2869,
      "Ġmais": 2870,
      "ĠRD": 2871,
      "Ġone": 2872,
      "itwa": 2873,
      "oman": 2874,
      "áĬ¨áĪĪ": 2875,
      "ĠáīĥáĪį": 2876,
      "ģáĬķ": 2877,
      "áĭ²áĭ«": 2878,
      "joba": 2879,
      "haribi": 2880,
      "wani": 2881,
      "Ġinter": 2882,
      "áĪĭáĭĬ": 2883,
      "Ġáī¥áĪİ": 2884,
      "kÃ¹n": 2885,
      "ely": 2886,
      "ences": 2887,
      "ight": 2888,
      "ĠdÃ©p": 2889,
      "ĠnÃŃpa": 2890,
      "rod": 2891,
      "Ġamma": 2892,
      "ĠáĬłáĪµáī°áĭ³": 2893,
      "Ġother": 2894,
      "shen": 2895,
      "áīłáĪį": 2896,
      "kÃ¨": 2897,
      "Ìģ": 2898,
      "áĬ¢áīµáĭ®áĮµáĭ«": 2899,
      "áĪĭáĬŃ": 2900,
      "áĪªáĭİáī½": 2901,
      "áĪ½áĬķ": 2902,
      "ĠBur": 2903,
      "áī«": 2904,
      "ould": 2905,
      "ĠYorÃ¹bÃ¡": 2906,
      "ussi": 2907,
      "ĠÃłrÃ¹n": 2908,
      "kwai": 2909,
      "hali": 2910,
      "Ġshekaru": 2911,
      "áī¨": 2912,
      "ĠáīµáĪĿáĪħáĪŃáīµ": 2913,
      "áĪĬáĭ«": 2914,
      "Ġ24": 2915,
      "Ġhiyo": 2916,
      "áīłáĭļáĪħ": 2917,
      "ĠPe": 2918,
      "ikali": 2919,
      "ĠItalia": 2920,
      "ĠáĬ¨áĬĲ": 2921,
      "ĠáĬłáĪ«": 2922,
      "ukum": 2923,
      "Ġall": 2924,
      "Ġ21": 2925,
      "áĪ«áĬķ": 2926,
      "wi": 2927,
      "Ġmara": 2928,
      "Ġ&": 2929,
      "áīĢáĪĺ": 2930,
      "Ġáī£áĪħ": 2931,
      "ĠUnited": 2932,
      "Ġá»įjá»įÌģÃ¬bÃŃ": 2933,
      "Ġwho": 2934,
      "áī³áĭį": 2935,
      "isho": 2936,
      "Ġáį²áį": 2937,
      "Ġáī°áĪ«": 2938,
      "ĠUr": 2939,
      "ĠWak": 2940,
      "Ġáĭ¨áī³": 2941,
      "ĠrÃŃ": 2942,
      "wá»įÌĢ": 2943,
      "áº¹ÌģyÃ¬n": 2944,
      "áĭ®áī½": 2945,
      "Ġasili": 2946,
      "ĠMut": 2947,
      "Da": 2948,
      "áįĮ": 2949,
      "Ġalif": 2950,
      "ĠMata": 2951,
      "ĠMt": 2952,
      "áĪ³áĪį": 2953,
      "ĠTar": 2954,
      "Ġ189": 2955,
      "Ġnan": 2956,
      "ĠáĬ¨áĭļáĪħ": 2957,
      "áīĢáĪŃ": 2958,
      "ĠáĪĿáĬŃáĬķáĭ«áīµ": 2959,
      "owo": 2960,
      "usini": 2961,
      "Ġdig": 2962,
      "áĭŃáĭĪáīµ": 2963,
      "pÃ²": 2964,
      "II": 2965,
      "áĭŃáīµ": 2966,
      "áĭ°áĪĿ": 2967,
      "ĠKas": 2968,
      "ĠáĪĦ": 2969,
      "ĠjÃ¡": 2970,
      "okana": 2971,
      "Ġkaratun": 2972,
      "Ġáĭ®áĪĲáĬķáĪµ": 2973,
      "ĠAmurka": 2974,
      "ĠUjerumani": 2975,
      "Ġincl": 2976,
      "aut": 2977,
      "erin": 2978,
      "ĠlÃ©": 2979,
      "cent": 2980,
      "undi": 2981,
      "ĠUf": 2982,
      "ĠáĬ¨áĬłáĪ": 2983,
      "imbo": 2984,
      "ident": 2985,
      "ansu": 2986,
      "Ġbay": 2987,
      "Ġodun": 2988,
      "áīłáĪ«": 2989,
      "Ġhanyar": 2990,
      "ĠáĭŃáĮĪáĬĽáĪį": 2991,
      "Ġpop": 2992,
      "ĠáīłáĭĪ": 2993,
      "Ġyawa": 2994,
      "ĠUingereza": 2995,
      "ĠáīłáĮ£áĪĿ": 2996,
      "Ġmá»įÌģ": 2997,
      "áº¹Ìģáº¹ÌĢ": 2998,
      "port": 2999,
      "omo": 3000,
      "iá¹£áº¹Ìģ": 3001,
      "urin": 3002,
      "Ġses": 3003,
      "áĮĬáĭľ": 3004,
      "ĠáĭŃáī³áĭĪ": 3005,
      "unan": 3006,
      "ĠáĬłáĪĽ": 3007,
      "Ġáī¥áĪŃ": 3008,
      "ros": 3009,
      "ild": 3010,
      "Ġsub": 3011,
      "Ġáį¡áį¡": 3012,
      "owe": 3013,
      "wu": 3014,
      "Ġbuga": 3015,
      "ĠKenya": 3016,
      "áīłáī°": 3017,
      "áĪ³áĭĬ": 3018,
      "ĠbÃŃi": 3019,
      "áĪµáĬķ": 3020,
      "ĠAug": 3021,
      "ĠChin": 3022,
      "Ġ23": 3023,
      "atoli": 3024,
      "ten": 3025,
      "anza": 3026,
      "Ġkif": 3027,
      "Ġilikuwa": 3028,
      "Ġabin": 3029,
      "cess": 3030,
      "yy": 3031,
      "ines": 3032,
      "erv": 3033,
      "ife": 3034,
      "áĪ«áĪ±": 3035,
      "Ġuku": 3036,
      "ĠáĬ£": 3037,
      "ĠAnd": 3038,
      "Ġupande": 3039,
      "red": 3040,
      "áĪ³áī¥": 3041,
      "ĠÃ©t": 3042,
      "Ġkal": 3043,
      "Ġper": 3044,
      "áĮĪáĪ©": 3045,
      "ĠComm": 3046,
      "ĠTe": 3047,
      "lig": 3048,
      "Ġ188": 3049,
      "ĠKis": 3050,
      "ĠáĪ¥áĪ«": 3051,
      "Ġwenye": 3052,
      "áĭĪáĭ°": 3053,
      "ĠFar": 3054,
      "ĠMin": 3055,
      "áĮĭáĪį": 3056,
      "áĮĪáĬĺáĭį": 3057,
      "Ġdur": 3058,
      "Ġju": 3059,
      "kon": 3060,
      "ĠmÃº": 3061,
      "Ġáº¹gbáº¹Ìģ": 3062,
      "194": 3063,
      "Ġlar": 3064,
      "Ġentre": 3065,
      "Kwa": 3066,
      "ĠkÃº": 3067,
      "gbÃ²": 3068,
      "ĠÃ¬já»įba": 3069,
      "dÃŃn": 3070,
      "ĠáĪ±": 3071,
      "ature": 3072,
      "áī¥áīµ": 3073,
      "Ġnyingi": 3074,
      "pen": 3075,
      "ĠÃ¨tÃ²": 3076,
      "ĠÃĵ": 3077,
      "Ġhada": 3078,
      "Ġilu": 3079,
      "zwa": 3080,
      "Ġáĭ¶": 3081,
      "áĬķáī²": 3082,
      "ĠpÃ¨": 3083,
      "ĠáĬłáīĢ": 3084,
      "ĠáĪĺáĪłáĪ¨": 3085,
      "ĠáĪĺáĮ½áĪĲáįį": 3086,
      "áĪ«áĪī": 3087,
      "áĮ£áīµ": 3088,
      "oloni": 3089,
      "gbá»įÌģn": 3090,
      "Ġ2009": 3091,
      "lor": 3092,
      "ĠHaus": 3093,
      "rÃ¨": 3094,
      "áĭĲ": 3095,
      "ĠMal": 3096,
      "Ġbaada": 3097,
      "Ġbeen": 3098,
      "ĠáĬłáīµ": 3099,
      "abe": 3100,
      "ĠáĬłáĪľáĪªáĬ«": 3101,
      "ĠáĭĪáĬķáĭµ": 3102,
      "ĠáĪĪáĬł": 3103,
      "áĬĸáĪ©": 3104,
      "ĠáĮ¥áīħáĪĿ": 3105,
      "ily": 3106,
      "omi": 3107,
      "koa": 3108,
      "urope": 3109,
      "Ġyali": 3110,
      "ĠKusini": 3111,
      "edia": 3112,
      "ĠáĪª": 3113,
      "áĪįáĮ£áĬķ": 3114,
      "illiam": 3115,
      "Ġakan": 3116,
      "Ġáī½": 3117,
      "Ġsan": 3118,
      "ĠMaj": 3119,
      "Ġáĭ°áĪ¨áĮĥ": 3120,
      "Ġsak": 3121,
      "Ġáĭ¨áĪħ": 3122,
      "áĪįáĪµ": 3123,
      "Ġmaso": 3124,
      "Ġkarne": 3125,
      "Ġtsakanin": 3126,
      "mbali": 3127,
      "ĠáĬłáĭ«": 3128,
      "Ġ2020": 3129,
      "ron": 3130,
      "ĠDa": 3131,
      "Ġexp": 3132,
      "ĠáīĭáĬķáīĭáĭİáī½": 3133,
      "ĠayÃ©": 3134,
      "Ġsyst": 3135,
      "Ùħ": 3136,
      "ĠMag": 3137,
      "áĭĪáĪ°": 3138,
      "kÃ¡": 3139,
      "rÃ¬": 3140,
      "áįĲ": 3141,
      "ĠáĬ¥áĮįáĪŃ": 3142,
      "ĠáĪĿáĪµ": 3143,
      "Ġáĭ¨áĬ¤": 3144,
      "ĠáĪ¥áĬĲ": 3145,
      "wÃł": 3146,
      "unia": 3147,
      "erre": 3148,
      "Ġpers": 3149,
      "áĬĵáī¸áĭį": 3150,
      "áĬ¨áīµ": 3151,
      "ĠáĪĽáĬķ": 3152,
      "áĪĬáĬŃ": 3153,
      "Ġvi": 3154,
      "áĪ¨áĪĿ": 3155,
      "áīĥáĪµ": 3156,
      "áĪĽáĬķ": 3157,
      "fanin": 3158,
      "cri": 3159,
      "áĬĻ": 3160,
      "elles": 3161,
      "afi": 3162,
      "áĪŃáĪµáī¶áĪµ": 3163,
      "ĠáĭĪáĬķáĭĿ": 3164,
      "Ġmal": 3165,
      "aim": 3166,
      "áĪĿáĬĲáīµ": 3167,
      "Ġáīłáī³": 3168,
      "ĠhaÉĹ": 3169,
      "use": 3170,
      "áĬĸáĪµ": 3171,
      "Ġind": 3172,
      "Ġbas": 3173,
      "Ġchini": 3174,
      "han": 3175,
      "Ġkad": 3176,
      "Ġáī°áī¥áĪİ": 3177,
      "Ġrub": 3178,
      "unci": 3179,
      "Ġco": 3180,
      "eme": 3181,
      "24": 3182,
      "áĭĭáīĤ": 3183,
      "ĠáĪįáĮĨáī½": 3184,
      "Ġ2008": 3185,
      "Ġtu": 3186,
      "ĠKwa": 3187,
      "Ġ2005": 3188,
      "emia": 3189,
      "ĠYork": 3190,
      "mÃ¬n": 3191,
      "ĠáĭĿáĪŃáĭĿ": 3192,
      "ession": 3193,
      "Ġused": 3194,
      "ĠTr": 3195,
      "ĠTs": 3196,
      "ĠáĮŃ": 3197,
      "uko": 3198,
      "áĬĵáĬķ": 3199,
      "uss": 3200,
      "Ġyanzu": 3201,
      "ĠLagos": 3202,
      "ancin": 3203,
      "áīŃ": 3204,
      "ĠáĬłáįĪ": 3205,
      "Ġmb": 3206,
      "Ã³Ã²": 3207,
      "ĠArewa": 3208,
      "urg": 3209,
      "ings": 3210,
      "Af": 3211,
      "ĠáĮįáī¥": 3212,
      "Ġtari": 3213,
      "ĠMo": 3214,
      "ĠkÃ©k": 3215,
      "áĪĺáĭį": 3216,
      "áĪĭáĭį": 3217,
      "áĭĭáĬķ": 3218,
      "fÃ©r": 3219,
      "Ġmad": 3220,
      "imo": 3221,
      "195": 3222,
      "ĠáĪĺáĬķáĮĪáĭµ": 3223,
      "Ãªme": 3224,
      "ĠAmerican": 3225,
      "âĢİ": 3226,
      "28": 3227,
      "Ġsama": 3228,
      "Ġprin": 3229,
      "urn": 3230,
      "ĠViungo": 3231,
      "ĠBrit": 3232,
      "aribu": 3233,
      "ĠUs": 3234,
      "ct": 3235,
      "áĪĪáī²áĬ«": 3236,
      "Ġáĭ¨áĬ¢": 3237,
      "áĭĬáīµ": 3238,
      "áįĪáĪį": 3239,
      "Ġáī¥áĪĶ": 3240,
      "Ġ2003": 3241,
      "ĠáĮ¥áĬĵáīµ": 3242,
      "Ġkuna": 3243,
      "ery": 3244,
      "Ġwato": 3245,
      "Ġmbalimbali": 3246,
      "sÃłn": 3247,
      "áĭĪáī½": 3248,
      "ĠáĮ¥áĬķ": 3249,
      "ĠÃ¬pÃŃnláº¹ÌĢ": 3250,
      "ĠáĪĺáĪŃ": 3251,
      "áĭĪáĪĪ": 3252,
      "áĮłáīħ": 3253,
      "eneo": 3254,
      "áĪµáįĭ": 3255,
      "ction": 3256,
      "áĬĶáī³": 3257,
      "ĠkÃ©kerÃ©": 3258,
      "Ġpla": 3259,
      "áº¹ÌĢká»įÌģ": 3260,
      "Ġmwandishi": 3261,
      "ood": 3262,
      "lement": 3263,
      "anÃ§ais": 3264,
      "ĠáĪ®": 3265,
      "ĠáĪĪáĪĿ": 3266,
      "áĭĺáĮĭ": 3267,
      "esi": 3268,
      "dÃº": 3269,
      "imb": 3270,
      "áĪŁ": 3271,
      "Ġ28": 3272,
      "ĠÃ¬wÃ©": 3273,
      "Ġ27": 3274,
      "ĠDuniya": 3275,
      "anni": 3276,
      "áĭ«áĪį": 3277,
      "Ġgame": 3278,
      "ĠGre": 3279,
      "ĠáĪīáīĥáĪµ": 3280,
      "ante": 3281,
      "Ġsau": 3282,
      "Ġáī°áĪ°": 3283,
      "aren": 3284,
      "ĠNe": 3285,
      "unge": 3286,
      "27": 3287,
      "Ãī": 3288,
      "áĪ¾": 3289,
      "Ġuh": 3290,
      "ĠÃī": 3291,
      "Ġáīłáĭ¨": 3292,
      "Ġtake": 3293,
      "Ġáĭ¨áĪķ": 3294,
      "áĮłáĭį": 3295,
      "ambar": 3296,
      "áĭķáĪ«áī¥": 3297,
      "aid": 3298,
      "pend": 3299,
      "Ġkn": 3300,
      "Ġgu": 3301,
      "ĠWorld": 3302,
      "Ġcal": 3303,
      "Ġáĭ¨áĬłáĪľáĪªáĬ«": 3304,
      "Ġdomin": 3305,
      "adin": 3306,
      "ain": 3307,
      "Ġsami": 3308,
      "Ġáīłáĭĵ": 3309,
      "áĮ¥áĪ®": 3310,
      "ĠáīħáĪŃ": 3311,
      "uki": 3312,
      "lie": 3313,
      "Ã©t": 3314,
      "Ġji": 3315,
      "áįİáī½": 3316,
      "Ġag": 3317,
      "ĠáĬ¥áĬķáĮĤ": 3318,
      "soci": 3319,
      "Ġcap": 3320,
      "Ġwacce": 3321,
      "Ġsaboda": 3322,
      "ĠTi": 3323,
      "29": 3324,
      "Ġ*": 3325,
      "umia": 3326,
      "Ġáĭ¨áĪļáĪĪáĭį": 3327,
      "overn": 3328,
      "Ç¹": 3329,
      "Ġkul": 3330,
      "60": 3331,
      "91": 3332,
      "ĠKano": 3333,
      "ĠáĬ¨áĬ¥": 3334,
      "Ġhim": 3335,
      "Ġ0": 3336,
      "ondon": 3337,
      "ĠáĮīáĭ³": 3338,
      "ĠEd": 3339,
      "rodha": 3340,
      "yen": 3341,
      "áĪİáīµ": 3342,
      "hm": 3343,
      "ĠáĭĪáĭŃ": 3344,
      "ĠáĬŃáĪį": 3345,
      "atta": 3346,
      "Ġ100": 3347,
      "Ġime": 3348,
      "Ġguda": 3349,
      "áī°áĬķ": 3350,
      "laya": 3351,
      "ĠFrance": 3352,
      "Ġmoja": 3353,
      "lege": 3354,
      "Ġkwamba": 3355,
      "arÃŃ": 3356,
      "Ġras": 3357,
      "It": 3358,
      "umu": 3359,
      "ĠáĬķáĮį": 3360,
      "Katika": 3361,
      "Ġáĭ¨áīµ": 3362,
      "uda": 3363,
      "ism": 3364,
      "ĠSouth": 3365,
      "ĠáĮĮ": 3366,
      "ĠáĬ¥áĬķáĭ²áĪħ": 3367,
      "Ġsamar": 3368,
      "ĠChar": 3369,
      "chn": 3370,
      "Ġnuna": 3371,
      "erman": 3372,
      "umo": 3373,
      "Ġzina": 3374,
      "ĠáĭŃáīĢ": 3375,
      "ĠáīµáĬķ": 3376,
      "Ġno": 3377,
      "Ġconst": 3378,
      "Ġsar": 3379,
      "áī¥áĪ¨áīµ": 3380,
      "ĠáĪģáĪĪ": 3381,
      "ĠáįķáĪ¬": 3382,
      "ĠáĪķáĭĿáī¥": 3383,
      "Ã¬dÃ¬": 3384,
      "ange": 3385,
      "erb": 3386,
      "áĬŃáĪī": 3387,
      "alia": 3388,
      "Ġáī³áĪªáĬ«áĭĬ": 3389,
      "ĠJos": 3390,
      "ĠkÃ³pa": 3391,
      "Ġinto": 3392,
      "Ġmwa": 3393,
      "ĠKe": 3394,
      "ĠKam": 3395,
      "Ġkil": 3396,
      "hel": 3397,
      "ĠáĪĺáĮ¨áĪ¨áĪ»": 3398,
      "áīłáĪ©áīµ": 3399,
      "isp": 3400,
      "Ġ2000": 3401,
      "ilu": 3402,
      "áĬĲáī±": 3403,
      "Ġkafin": 3404,
      "Ġbin": 3405,
      "ered": 3406,
      "kÃº": 3407,
      "ĠáīłáĬĲ": 3408,
      "áĪ¨áĪ°": 3409,
      "oso": 3410,
      "oph": 3411,
      "erian": 3412,
      "ander": 3413,
      "ĠÃ©c": 3414,
      "Ġkawa": 3415,
      "Ġsim": 3416,
      "...": 3417,
      "Ġsababu": 3418,
      "ĠCar": 3419,
      "Ġdir": 3420,
      "Ġdist": 3421,
      "Ġáº¹láº¹Ìģ": 3422,
      "26": 3423,
      "áĪŃáī²": 3424,
      "ĠÃģ": 3425,
      "ĠprÃ©s": 3426,
      "Ġkik": 3427,
      "ĠWest": 3428,
      "ĠJe": 3429,
      "ui": 3430,
      "áĪĺáĪį": 3431,
      "ĠfranÃ§ais": 3432,
      "Ġmto": 3433,
      "áĭįáĪ®áįĵ": 3434,
      "adan": 3435,
      "ĠáĭĿáĪŃáĭĿáĪŃ": 3436,
      "ĠNa": 3437,
      "ĠdÃ©c": 3438,
      "Ã©c": 3439,
      "Ġkuf": 3440,
      ")áį£": 3441,
      "ĠMic": 3442,
      "nÃŃ": 3443,
      "¶áį": 3444,
      "Ġsign": 3445,
      "Ġsome": 3446,
      "Ġrel": 3447,
      "áĬ¨áī°áĪĽ": 3448,
      "ĠAugust": 3449,
      "rÃ³": 3450,
      "Ġpad": 3451,
      "áĪĺáĭµ": 3452,
      "adar": 3453,
      "á»įÌģÃ¬dÃ¬": 3454,
      "áº¹Ìģrá»įÌģÃ¬dÃ¬": 3455,
      "áī°áĭĭáĪį": 3456,
      "áĪħáĬķ": 3457,
      "ĠáīłáĬ©": 3458,
      "ĠáĮįáĭµáĪĿ": 3459,
      "ĠAfrican": 3460,
      "ÙĬ": 3461,
      "apo": 3462,
      "ĠÃ¡st": 3463,
      "Ġzin": 3464,
      "ĠlÃ¡ra": 3465,
      "ĠÃ¡stáº¹Ìģrá»įÌģÃ¬dÃ¬": 3466,
      "ĠáĮĬ": 3467,
      "áīłáĬł": 3468,
      "Ġáįĭ": 3469,
      "ĠáĪģáĬĶáī³": 3470,
      "ĠáĬłáĪĺáīµ": 3471,
      "ĠáĭŃáī½áĪĭáĪį": 3472,
      "iyyar": 3473,
      "áī¤áī°": 3474,
      "Ġkusini": 3475,
      "erg": 3476,
      "Ġ26": 3477,
      "Ġaussi": 3478,
      "ĠUlaya": 3479,
      "Ġmulkin": 3480,
      "áĪ«áĪ²": 3481,
      "osti": 3482,
      "áī»áī¸áĭį": 3483,
      "Ġáĭ¨áĬ¥áĪµ": 3484,
      "ĠAk": 3485,
      "ĠpÃł": 3486,
      "áĮĦ": 3487,
      "Ġáī»": 3488,
      "áĬĲáĪ³": 3489,
      "Ã¨me": 3490,
      "áĭ¨áĪĿ": 3491,
      "ĠOs": 3492,
      "ango": 3493,
      "bÃ¹n": 3494,
      "Ġtsa": 3495,
      "ĠáĬĲáĮ»": 3496,
      "umba": 3497,
      "ĠÆĻasa": 3498,
      "Ġmakarantar": 3499,
      "Ġáī±": 3500,
      "áĪģáĬķ": 3501,
      "yd": 3502,
      "Ġyad": 3503,
      "anzia": 3504,
      "yl": 3505,
      "Ġtwo": 3506,
      "áĭ«áĭĬ": 3507,
      "ĠSar": 3508,
      "ĠáĪĺáĪįáĬŃ": 3509,
      "áĪ¶áī½": 3510,
      "gn": 3511,
      "Ã¡ra": 3512,
      "istory": 3513,
      "gas": 3514,
      "áĪĪáĪĽ": 3515,
      "ĠLib": 3516,
      "ĠáĪļáĬĴ": 3517,
      "wala": 3518,
      "Ġ1960": 3519,
      "áĮįáĬķ": 3520,
      "ĠáįĪáĪŃ": 3521,
      "ĠMusul": 3522,
      "arch": 3523,
      "ulation": 3524,
      "áĭļáīĥ": 3525,
      "Ġtsoh": 3526,
      "ouv": 3527,
      "ved": 3528,
      "40": 3529,
      "ĠáĬŃáĪŃáĪµáī²áĭ«áĬķ": 3530,
      "Ġproduc": 3531,
      "Ġafter": 3532,
      "Ġhivyo": 3533,
      "Ġ22": 3534,
      "ilo": 3535,
      "ĠKik": 3536,
      "Ġ2002": 3537,
      "Ġsamun": 3538,
      "atoliki": 3539,
      "ft": 3540,
      "pÃ¡": 3541,
      "ĠCo": 3542,
      "áĭĪáĮ£": 3543,
      "áĭĭáĬĵ": 3544,
      "Ġfilamu": 3545,
      "tun": 3546,
      "aniya": 3547,
      "Bayan": 3548,
      "ĠPl": 3549,
      "ĠDar": 3550,
      "ĠáĬĲáĮĪáĪ®áī½": 3551,
      "nu": 3552,
      "Wá»įÌģn": 3553,
      "Ġ29": 3554,
      "ĠÃĪkÃ³": 3555,
      "áĭ¨áĬł": 3556,
      "áī´áĭİáĪµ": 3557,
      "Ġmost": 3558,
      "kokin": 3559,
      "áĬ¸": 3560,
      "Ġáīłáĭį": 3561,
      "Ġáī¢áĪĨáĬķ": 3562,
      "ĠáĭĺáĪŃ": 3563,
      "ĠÃ©tÃ©": 3564,
      "Ġcor": 3565,
      "Ġvari": 3566,
      "áĪ«áī¸áĭį": 3567,
      "ĠáĭŃáĪĺáĪµ": 3568,
      "Ġáĭ¨áĪĽáĭŃ": 3569,
      "áĪĽáĬĸáīµ": 3570,
      "igi": 3571,
      "ÙĨ": 3572,
      "Ġro": 3573,
      "Ġgen": 3574,
      "Ġvers": 3575,
      "rÃ©s": 3576,
      "Ġgar": 3577,
      "ĠBa": 3578,
      "Ġáĭ«áĪħáĪį": 3579,
      "ĠÃ©g": 3580,
      "ĠáĭŃáĪħáĪĿ": 3581,
      "ayya": 3582,
      "ics": 3583,
      "Ġher": 3584,
      "Ġsous": 3585,
      "áĪĤ": 3586,
      "áĮĪáĭ°": 3587,
      "áĪĽáĪį": 3588,
      "Ġacc": 3589,
      "Ġsc": 3590,
      "Ġyayin": 3591,
      "endelea": 3592,
      "arly": 3593,
      "atur": 3594,
      "Ġbáº¹ÌĢráº¹ÌĢ": 3595,
      "Ġáįª": 3596,
      "atik": 3597,
      "kar": 3598,
      "vers": 3599,
      "ĠáĪ¦": 3600,
      "ĠáĭŃáĪĨ": 3601,
      "ĠáīłáĪĻ": 3602,
      "ĠáĭµáĪŃáĮħ": 3603,
      "wood": 3604,
      "ĠState": 3605,
      "ĠPart": 3606,
      "ĠNational": 3607,
      "ĠEb": 3608,
      "áįĶ": 3609,
      "ĠLondon": 3610,
      "ĠáĬłáĪĪáĭį": 3611,
      "Ġtab": 3612,
      "Ġtabi": 3613,
      "Ġ1990": 3614,
      "Yan": 3615,
      "ĠgÃ©n": 3616,
      "ĠCl": 3617,
      "áĮĢáĪŃáĪĺáĬķ": 3618,
      "okuwa": 3619,
      "80": 3620,
      "Ġcer": 3621,
      "Ġret": 3622,
      "193": 3623,
      "70": 3624,
      "Ġel": 3625,
      "ĠáĬ¡": 3626,
      "ĠáĬ¥áĬĲ": 3627,
      "áĪīáĪĿ": 3628,
      "áĬ¥áĬķáĮįáĪĬáĭĿáĬĽ": 3629,
      "Ã¨res": 3630,
      "Ġipa": 3631,
      "Ġlong": 3632,
      "Ġjam": 3633,
      ".,": 3634,
      "ĠáĪĺáĮĢáĪĺáĪŃáĭ«": 3635,
      "Ġnombre": 3636,
      "ansi": 3637,
      "Ġ2004": 3638,
      "Ġ1999": 3639,
      "Ġwasa": 3640,
      "Ġlin": 3641,
      "áĮĪáĪį": 3642,
      "ĠáĭŃáĭĺ": 3643,
      "Ġfait": 3644,
      "Ġyao": 3645,
      "Ġwajen": 3646,
      "Wali": 3647,
      "sp": 3648,
      "ĠáĪĿáĬķáĪĿ": 3649,
      "ĠWilliam": 3650,
      "Ġsoci": 3651,
      "ĠáĪĿáĬķáĮ®áī½": 3652,
      "ĠMad": 3653,
      "Ġoffic": 3654,
      "ĠáīłáĪ½": 3655,
      "arabu": 3656,
      "Ġos": 3657,
      "ĠÃ¬dÃŃ": 3658,
      "BC": 3659,
      "Ġkili": 3660,
      "Ġáĭ¨áī£": 3661,
      "Ġsuch": 3662,
      "ĠgbÃł": 3663,
      "Ad": 3664,
      "ĠMk": 3665,
      "áĪ·": 3666,
      "anzi": 3667,
      "áĪĺáĪ°": 3668,
      "ĠáĪĿáĪŃ": 3669,
      "Ġáĭĭáī¢": 3670,
      "áĪĭáĪ´": 3671,
      "moja": 3672,
      "vu": 3673,
      "Ġtemp": 3674,
      "Ġdama": 3675,
      "Ġkud": 3676,
      "áī£áĪĪáĭį": 3677,
      "Ġáī°áįĪ": 3678,
      "áĭ¨áĪ±": 3679,
      "orin": 3680,
      "ulo": 3681,
      "ĠáĪł": 3682,
      "Ġká»įÌģ": 3683,
      "ĠInternational": 3684,
      "ĠjÃ¹lá»į": 3685,
      "ĠáĭŃáĪ°": 3686,
      "Ġáĭ¨áĬ«": 3687,
      "Ġáĭ¨áī°áĪ°": 3688,
      "ĠáĭŃáĪħáĬķ": 3689,
      "áĬ¥áĬķáĭ°": 3690,
      "risti": 3691,
      "ĠIpinle": 3692,
      "áº¹ÌģtÃ¬": 3693,
      "·áį": 3694,
      "áĬķáĭ°": 3695,
      "lim": 3696,
      "áĬŃáĪŃ": 3697,
      "ĠCent": 3698,
      "áīłáĪĪ": 3699,
      "ĠÐ": 3700,
      "ĠTa": 3701,
      "ananan": 3702,
      "ges": 3703,
      "Ġtara": 3704,
      "ĠáĪĺáĪĨáĬĳ": 3705,
      "ĠplÃ¡n": 3706,
      "rop": 3707,
      "lÃŃ": 3708,
      "Ġmab": 3709,
      "ĠUfaransa": 3710,
      "Ġbayyana": 3711,
      "áĬķáĭ±": 3712,
      "Ġmore": 3713,
      "áīłáĪĺ": 3714,
      "ĠÃ¬gbÃłjÃ¡": 3715,
      "Ġthey": 3716,
      "áĪĭáĪĪ": 3717,
      "ĠBah": 3718,
      "Ġiliy": 3719,
      "ĠáĮ½áĪĳ": 3720,
      "ĠáĪĽáĪŃáīĨ": 3721,
      "Ma": 3722,
      "ĠDan": 3723,
      "1892": 3724,
      "mma": 3725,
      "ĠSp": 3726,
      "ĠPet": 3727,
      "Ġbet": 3728,
      "Ġuti": 3729,
      "Ġtas": 3730,
      "rew": 3731,
      "ĠShe": 3732,
      "antu": 3733,
      "Ġmanyan": 3734,
      "ĠáĪ¥áĪŃáĭĪ": 3735,
      "kali": 3736,
      "ĠChi": 3737,
      "ĠAlex": 3738,
      "lectr": 3739,
      "Ġed": 3740,
      "ĠáĪµáĪĻ": 3741,
      "fáº¹Ìģ": 3742,
      "ets": 3743,
      "ĠPort": 3744,
      "Ġyenye": 3745,
      "ashara": 3746,
      "Ġtáº¹Ìģ": 3747,
      "ĠáĮłáĪ": 3748,
      "ĠáĪĺáĭµ": 3749,
      "ĠáĪĺáĪª": 3750,
      "áĭ³áĪŃ": 3751,
      "ĠáĪłáĪ«": 3752,
      "Ġcette": 3753,
      "iriki": 3754,
      "ĠplÃ¡náº¹ÌģtÃ¬": 3755,
      "ĠáĬħ": 3756,
      "ogun": 3757,
      "Ġnaa": 3758,
      "Ġáĭ°áĪ´": 3759,
      "ĠEl": 3760,
      "ĠJanuari": 3761,
      "Ġambayo": 3762,
      "Ġwadanda": 3763,
      "ĠáĪĤ": 3764,
      "ĠáĬłáĪ³": 3765,
      "ements": 3766,
      "áī¶áī½áĬķ": 3767,
      "wahili": 3768,
      "fÃł": 3769,
      "uo": 3770,
      "ÃĴ": 3771,
      "Ġfito": 3772,
      "Ġgina": 3773,
      "áĪĭáĪĽ": 3774,
      "Ġáĭ¨áĪ¥": 3775,
      "ĠáĪĿáĪįáĬŃ": 3776,
      "ĠFor": 3777,
      "fuata": 3778,
      "ĠAbd": 3779,
      "Ġvita": 3780,
      "Ġyadda": 3781,
      "Ġáį¤": 3782,
      "áĪ°áĬķ": 3783,
      "áĭļáĪģ": 3784,
      "áįĪáĪ¨áĬķáĪ³áĭŃ": 3785,
      "dÃł": 3786,
      "Ġpres": 3787,
      "á¹£áº¹ÌĢ": 3788,
      "Ġder": 3789,
      "way": 3790,
      "ĠOb": 3791,
      "ress": 3792,
      "ĠDec": 3793,
      "áĭķáĪį": 3794,
      "ĠÉĹaya": 3795,
      "áĪ¡": 3796,
      "jini": 3797,
      "lamu": 3798,
      "ĠdÃŃ": 3799,
      "Ġmet": 3800,
      "ĠPaul": 3801,
      "ĠAgosti": 3802,
      "Ch": 3803,
      "ĠAbu": 3804,
      "90": 3805,
      "má»įÌģ": 3806,
      "áĪ¯": 3807,
      "ĠáĬĴ": 3808,
      "ĠáĬĸ": 3809,
      "áĪĺáĮ£": 3810,
      "ĠSan": 3811,
      "ĠáĭĪáĪ¨áĭ³": 3812,
      "ĠáĭĪáĮĪáĬķ": 3813,
      "ĠáĬłáĪĪáīĥ": 3814,
      "iye": 3815,
      "ission": 3816,
      "ĠCollege": 3817,
      "illa": 3818,
      "ĠEurope": 3819,
      "ĠmÃ©jÃ¬": 3820,
      "Ġserikali": 3821,
      "Ġpays": 3822,
      "áī½áĭį": 3823,
      "áĪłáĪ«": 3824,
      "ukar": 3825,
      "ĠáĮħ": 3826,
      "hem": 3827,
      "ĠKad": 3828,
      "Ã©d": 3829,
      "Ġinf": 3830,
      "ĠáĬłáĪ¸": 3831,
      "áĮ¥áĪ¨": 3832,
      "áĪ®áĪµ": 3833,
      "ĠáĪ´áīµ": 3834,
      "Ġkaskazini": 3835,
      "ologie": 3836,
      "Ab": 3837,
      "áĬ«áĪį": 3838,
      "peci": 3839,
      "ĠáĭķáĪĪ": 3840,
      "gÃ©": 3841,
      "Ġdang": 3842,
      "Ġaá¹£": 3843,
      "Ġcommun": 3844,
      "áĭĳ": 3845,
      "Ġover": 3846,
      "ĠPh": 3847,
      "Ġkuk": 3848,
      "Ġáĭ¨áĭĺ": 3849,
      "Ġpre": 3850,
      "áĪ³áī¸áĭį": 3851,
      "áĮįáī¥áĮ½": 3852,
      "yá»į": 3853,
      "Ġge": 3854,
      "ĠWas": 3855,
      "Ġnum": 3856,
      "tive": 3857,
      "azama": 3858,
      "ĠáĬłáĮ¥": 3859,
      "áĮĪáī¥": 3860,
      "Ġáī³áĭĭáīĤ": 3861,
      "Ġáīłáī°áĪĪáĭŃ": 3862,
      "áĬ®áī½": 3863,
      "aient": 3864,
      "On": 3865,
      "áº¸": 3866,
      "ĠAnn": 3867,
      "ĠkejÃ¬": 3868,
      "Ġkilom": 3869,
      "ĠáĪº": 3870,
      "ĠáĬ¥áĭį": 3871,
      "áĮĪáīł": 3872,
      "áĭ²áĪħ": 3873,
      "omb": 3874,
      "imu": 3875,
      "áĮ¦áĪŃ": 3876,
      "Ġakwai": 3877,
      "ĠKim": 3878,
      "ĠáīłáĪĮ": 3879,
      "ĠUg": 3880,
      "ĠáĬŃáįįáĪĭ": 3881,
      "ĠJulai": 3882,
      "ado": 3883,
      "78": 3884,
      "Ġjag": 3885,
      "ĠJamh": 3886,
      "áĪ©áīµ": 3887,
      "áĪ±áĪĿ": 3888,
      "ible": 3889,
      "ĠáĬłáĭŃáĭ°": 3890,
      "áĪıáĪį": 3891,
      "Ġont": 3892,
      "Ġhai": 3893,
      "awala": 3894,
      "ĠáĭŃáĪĨáĬĵáĪį": 3895,
      "orun": 3896,
      "áĬ¹": 3897,
      "Ġdai": 3898,
      "ĠáīłáĮ¥": 3899,
      "ĠáĬłáĭ°": 3900,
      "áĭ³áĪĿ": 3901,
      "SB": 3902,
      "gÃ¹n": 3903,
      "ĠGab": 3904,
      "Ġmaeneo": 3905,
      "ĠorÃºká»į": 3906,
      "izikia": 3907,
      "Ġkira": 3908,
      "fan": 3909,
      "rÃł": 3910,
      "ĠMan": 3911,
      "lam": 3912,
      "ĠSec": 3913,
      "ĠAllah": 3914,
      "Ġmwana": 3915,
      "áįĪáīµ": 3916,
      "ones": 3917,
      "ĠKir": 3918,
      "ĠIlÃ©": 3919,
      "ĠgbajÃº": 3920,
      "Ġtit": 3921,
      "Ġint": 3922,
      "wá»į": 3923,
      "ente": 3924,
      "ĠáīłáĪģ": 3925,
      "Ġ1980": 3926,
      "áĪķáĪŃ": 3927,
      "Ġgudanar": 3928,
      "the": 3929,
      "rÃŃn": 3930,
      "tÃ³": 3931,
      "Ġtime": 3932,
      "Ġbáº¹Ìģáº¹ÌĢ": 3933,
      "Ġwe": 3934,
      "áįĳ": 3935,
      "Ġdont": 3936,
      "áĪĺáī±": 3937,
      "áĬĲáĮĪ": 3938,
      "áĪ¨áī¥": 3939,
      "ĠáīĢáĮ¥": 3940,
      "Ġkit": 3941,
      "Ġgidan": 3942,
      "ĠCity": 3943,
      "Ġkuh": 3944,
      "thiop": 3945,
      "oto": 3946,
      "Ġsay": 3947,
      "Ġeff": 3948,
      "ispania": 3949,
      "nÃł": 3950,
      "áĭµáĪ¨áĮį": 3951,
      "ĠÃ¬má»įÌĢ": 3952,
      "áįĪáĪµ": 3953,
      "ween": 3954,
      "ÙĪ": 3955,
      "áĪŃáĭ«áĪĿ": 3956,
      "Ġsou": 3957,
      "Ġhtt": 3958,
      "ĠÃ¬tá»įÌģkasÃŃ": 3959,
      "aro": 3960,
      "ĠáĪ»": 3961,
      "amma": 3962,
      "iter": 3963,
      "ĠPol": 3964,
      "áĪĿáĪħáĪŃ": 3965,
      "ĠáĬ¥áĬķáĮįáĪĬáĭĿ": 3966,
      "yoyin": 3967,
      "ģáĬĳ": 3968,
      "Ġocc": 3969,
      "áĭ³áĪį": 3970,
      "ĠFil": 3971,
      "fuat": 3972,
      "áĮłáĪ©": 3973,
      "ĠáĬĵáīµ": 3974,
      "ĠáĬłáĮĪáĪįáĮį": 3975,
      "dom": 3976,
      "www": 3977,
      "ĠBab": 3978,
      "ĠáĬ¥áĭ¨áī°": 3979,
      "ographi": 3980,
      "ĠáĭŃáī³áĭĪáīĥáĪį": 3981,
      "ĠáĪĺáĪłáĪ¨áīµ": 3982,
      "Ġsiyasa": 3983,
      "Ġloc": 3984,
      "ĠJuni": 3985,
      "Ġmaji": 3986,
      "onde": 3987,
      "ĠagbÃ¨": 3988,
      "san": 3989,
      "¹¢": 3990,
      "Ġnon": 3991,
      "ĠHa": 3992,
      "áĮłáĬĵ": 3993,
      "ĠnÃŃbi": 3994,
      "ĠFizikia": 3995,
      "Daga": 3996,
      "ĠjÃ¡de": 3997,
      "amman": 3998,
      "Ġconsid": 3999,
      "ral": 4000,
      "áĬĹ": 4001,
      "ĠOá¹£Ã¹": 4002,
      "ĠParis": 4003,
      "ĠChina": 4004,
      "tes": 4005,
      "Ġsanya": 4006,
      "Ġlake": 4007,
      "ĠRo": 4008,
      "lÃ³gÃºn": 4009,
      "ĠMuhammad": 4010,
      "orge": 4011,
      "ĠMachi": 4012,
      "Ġmutum": 4013,
      "ĠwÃŃpÃ©": 4014,
      "âĢº": 4015,
      "Ġinclud": 4016,
      "Äģ": 4017,
      "cto": 4018,
      "Ġmá»įÌĢ": 4019,
      "Ġknown": 4020,
      "ĠáĬ¥áĬĲáĭļáĪħ": 4021,
      "áĪ¨áĮĭ": 4022,
      "áįĵáĬķ": 4023,
      "áĬĥ": 4024,
      "rili": 4025,
      "Ġnew": 4026,
      "Ġala": 4027,
      "ĪáĪĿ": 4028,
      "áī£áĭĬ": 4029,
      "Ġkum": 4030,
      "áį²áį": 4031,
      "áĭ°áĮį": 4032,
      "eld": 4033,
      "ĠáĪĽáī´áĭİáĪµ": 4034,
      "ĠdÃ©part": 4035,
      "Ġgabatar": 4036,
      "ĠTiba": 4037,
      "sáº¹ÌĢ": 4038,
      "´áį": 4039,
      "ĠáĬ¬": 4040,
      "ĠáĪµáīµ": 4041,
      "Ġáĭįáĭµ": 4042,
      "ĠParty": 4043,
      "Ġfe": 4044,
      "Ġass": 4045,
      "weza": 4046,
      "Ġmfalme": 4047,
      "Ġáĭ´": 4048,
      "Ġkoma": 4049,
      "asihi": 4050,
      "ather": 4051,
      "Ġatt": 4052,
      "ĠáĪĺáĬĲ": 4053,
      "ĠáĭķáĪĪáī³áīµ": 4054,
      "pá»į": 4055,
      "ulture": 4056,
      "ĠáĪĺáĭĿ": 4057,
      "igizaji": 4058,
      "Ġmutu": 4059,
      "ĠAare": 4060,
      "upe": 4061,
      "iru": 4062,
      "rá»į": 4063,
      "Ġtaka": 4064,
      "ourn": 4065,
      "Ġmahaif": 4066,
      "esa": 4067,
      "Ġáį³áį": 4068,
      "ick": 4069,
      "auti": 4070,
      "Ġayy": 4071,
      "Ġirin": 4072,
      "Ġdara": 4073,
      "Ġkamm": 4074,
      "Ġsupp": 4075,
      "ĠÃłká»įÌģká»įÌģ": 4076,
      "ete": 4077,
      "Ġtangu": 4078,
      "oir": 4079,
      "áĮĪáĭį": 4080,
      "ĠáĮ¥áĬķáī³áĭĬ": 4081,
      "ĠMtakatifu": 4082,
      "ĠKaduna": 4083,
      "ĠHausa": 4084,
      "ies": 4085,
      "ÃĪ": 4086,
      "Ġmita": 4087,
      "uv": 4088,
      "ĠáĬłáĪģáĬķ": 4089,
      "áĭ¨áī°": 4090,
      "ĠáīĢáĬĵáīµ": 4091,
      "ĠáĪŀáīµ": 4092,
      "ĠMei": 4093,
      "Ã©ri": 4094,
      "Ġbak": 4095,
      "ulu": 4096,
      "ian": 4097,
      "áĮĪáĪª": 4098,
      "ĠSal": 4099,
      "ĠáĭŃáĪĭáĪį": 4100,
      "Ġáĭ¨áĪĻ": 4101,
      "áĭ®áĪŃ": 4102,
      "Ġout": 4103,
      "Ġri": 4104,
      "ojÃº": 4105,
      "ĠMashariki": 4106,
      "Ġáīł18": 4107,
      "áĪĽáī½": 4108,
      "ours": 4109,
      "Ãłráº¹": 4110,
      "bert": 4111,
      "bÃ²": 4112,
      "Ġpáº¹": 4113,
      "ombe": 4114,
      "ĠáĭĵáĪĪáĪĿ": 4115,
      "ĠáīłáĬłáĬķáĭµ": 4116,
      "Ġpeke": 4117,
      "ĠEnglish": 4118,
      "isto": 4119,
      "ĠRep": 4120,
      "Ġprogr": 4121,
      "ĠJanuary": 4122,
      "Ġ1991": 4123,
      "Ġndani": 4124,
      "áĪŃáĪµáī²áĭ«": 4125,
      "ĠáįĵáĪŃáī²": 4126,
      "ĠNorth": 4127,
      "uwanci": 4128,
      "ĠDesemba": 4129,
      "Ġprof": 4130,
      "Ġlori": 4131,
      "áĭĪáĪŃ": 4132,
      "ibiyar": 4133,
      "This": 4134,
      "Ġkammala": 4135,
      "Ġinc": 4136,
      "fiya": 4137,
      "jia": 4138,
      "Ġkaribu": 4139,
      "Ġyayi": 4140,
      "Ġfilm": 4141,
      "áįĦ": 4142,
      "áĪĽáĪŃ": 4143,
      "ĠáĭĪáĪ¨": 4144,
      "áįĪáĪĪ": 4145,
      "áĭ®áĪµ": 4146,
      "áĪ»áĭİáī½": 4147,
      "lÃ²": 4148,
      "prÃ¨s": 4149,
      "SBN": 4150,
      "Ġwaje": 4151,
      "Ġáīłáīµ": 4152,
      "áī³áī¸áĭįáĬķ": 4153,
      "Ġkuanzia": 4154,
      "ove": 4155,
      "ĠáĬłáĬķáĭ³": 4156,
      "ler": 4157,
      "ots": 4158,
      "ĠrÃ©gion": 4159,
      "ĠÎ": 4160,
      "Ġaká»į": 4161,
      "á¹£Ã¨lÃº": 4162,
      "Ġjirgin": 4163,
      "ĠagbÃ¨gbÃ¨": 4164,
      "áĪĵ": 4165,
      "áĪĪáī¥": 4166,
      "ĠEx": 4167,
      "áĭĭáīµ": 4168,
      "ĠArm": 4169,
      "ĠAsia": 4170,
      "ĠNigerian": 4171,
      "fÃŃ": 4172,
      "Ġyamma": 4173,
      "Ġwork": 4174,
      "ĠáĪĺáĬķáĮįáĪµáīµ": 4175,
      "ĠLegas": 4176,
      "Ġbirni": 4177,
      "ĠáĬłáĬ«áĪį": 4178,
      "Ġgrand": 4179,
      "Ġhukumar": 4180,
      "ĠAprili": 4181,
      "Ġorig": 4182,
      "Ġpeut": 4183,
      "Ġhann": 4184,
      "Ġbetween": 4185,
      "Ġmeng": 4186,
      "Ġgirma": 4187,
      "Ġsci": 4188,
      "atsina": 4189,
      "áĮ¹": 4190,
      "ital": 4191,
      "áĮįáĪį": 4192,
      "áĮįáī£": 4193,
      "ĠmÃŃ": 4194,
      "ĠÃŃ": 4195,
      "ĠCor": 4196,
      "Ġ1970": 4197,
      "eries": 4198,
      "ger": 4199,
      "Ġdaban": 4200,
      "Ġchake": 4201,
      "ĠáĬ¥áĬķáĪµ": 4202,
      "Ġáī¥áĪĪáĭį": 4203,
      "Ġáĭ°áī¡áī¥": 4204,
      "ower": 4205,
      "áĬĵáĪįáī£áīµ": 4206,
      "áĮłáīĢáĪĿ": 4207,
      "ĠRob": 4208,
      "Ġtal": 4209,
      "Ġjar": 4210,
      "uata": 4211,
      "yr": 4212,
      "Ġkwaikwa": 4213,
      "iew": 4214,
      "Ġhuko": 4215,
      "Ġáĭ¨áĬĲáīłáĪ¨áĭį": 4216,
      "ĠAwards": 4217,
      "gen": 4218,
      "Ġnam": 4219,
      "Ġsake": 4220,
      "Ġpartic": 4221,
      "Ġ2001": 4222,
      "Ġáº¹ni": 4223,
      "áĪ«áĭį": 4224,
      "reat": 4225,
      "áī»áĭŃáĬĵ": 4226,
      "Ġadd": 4227,
      "ĠIII": 4228,
      "ĠáĭŃáĪĺáĪµáĪĭáĪį": 4229,
      "ĠÃłmÃ¬": 4230,
      "ĠSeptemba": 4231,
      "ĠwaÉĹ": 4232,
      "utu": 4233,
      "áĪ©áĬķ": 4234,
      "áĭ¨áĪ±áĪµ": 4235,
      "ĠEm": 4236,
      "ount": 4237,
      "45": 4238,
      "Ġsuke": 4239,
      "esha": 4240,
      "wara": 4241,
      "áīº": 4242,
      "ĠmÃªme": 4243,
      "áĪĮáĬŃáīµ": 4244,
      "ĠáĭµáĪĿ": 4245,
      "ĠáĬŃáĪįáĪį": 4246,
      "ĠáįĪáĪŃáĭĸ": 4247,
      "inst": 4248,
      "Ġfound": 4249,
      "ĠBro": 4250,
      "ĠDis": 4251,
      "inta": 4252,
      "tics": 4253,
      "Ġthan": 4254,
      "áī¼": 4255,
      "ĠáĬķáĮīáĪµ": 4256,
      "ced": 4257,
      "Ġmay": 4258,
      "Ġgida": 4259,
      "áĪįáĭ°": 4260,
      "ĠÃ¬gb": 4261,
      "ches": 4262,
      "uliwa": 4263,
      "dÃ³": 4264,
      "she": 4265,
      "ince": 4266,
      "ĠAde": 4267,
      "Ġleur": 4268,
      "Ġdiv": 4269,
      "ĠsÃ©": 4270,
      "Ġpat": 4271,
      "áī¥áĭĻ": 4272,
      "ush": 4273,
      "Ġáĭ¨áĪļáĪį": 4274,
      "ĠáĪĨáĬĲáĭį": 4275,
      "Ġkudu": 4276,
      "ock": 4277,
      "Ġabout": 4278,
      "ÙĲ": 4279,
      "ĠMon": 4280,
      "Ġ186": 4281,
      "sÃ¹": 4282,
      "ĠBal": 4283,
      "áĬ©áĪį": 4284,
      "Ġmwigizaji": 4285,
      "ká»įÌĢá»įÌģ": 4286,
      "áĮłáīĥáĪĭáĭŃ": 4287,
      "ott": 4288,
      "láº¹": 4289,
      "por": 4290,
      "Ġpub": 4291,
      "omen": 4292,
      "Ã¬mÃ¹": 4293,
      "phy": 4294,
      "score": 4295,
      "Ġuhuru": 4296,
      "áĬĲáīłáĪŃ": 4297,
      "ĠIt": 4298,
      "htt": 4299,
      "Ġwhen": 4300,
      "Ġlab": 4301,
      "ilos": 4302,
      "Ġposs": 4303,
      "Ã³mÃ¬n": 4304,
      "ĠOgun": 4305,
      "ĠYar": 4306,
      "Ġáĭ¨áĪĿáīµ": 4307,
      "vir": 4308,
      "olution": 4309,
      "Ø±": 4310,
      "Ġemp": 4311,
      "Ġname": 4312,
      "Ġkutokana": 4313,
      "ĠÃĮtá»įÌģkasÃŃ": 4314,
      "br": 4315,
      "unif": 4316,
      "áī³áĭ°": 4317,
      "Ġfannin": 4318,
      "Ġuna": 4319,
      "Ġrais": 4320,
      "áĪįáīµ": 4321,
      "ĠáĪ³áĭŃáĪĨáĬķ": 4322,
      "Ġhttp": 4323,
      "Ã¯": 4324,
      "ĠSeptember": 4325,
      "áĭ«áĭį": 4326,
      "ĠáĬłáī£áĪį": 4327,
      "ĠáĪĺáĮ»": 4328,
      "áĪ«áĪµ": 4329,
      "adili": 4330,
      "áī²áĬķ": 4331,
      "but": 4332,
      "Ġako": 4333,
      "Ġkid": 4334,
      "ĠSte": 4335,
      "ĠFebruari": 4336,
      "Ġáīłáīħ": 4337,
      "ĠSha": 4338,
      "Ġif": 4339,
      "ench": 4340,
      "opo": 4341,
      "ĠáĪĽáĪħ": 4342,
      "FA": 4343,
      "anna": 4344,
      "Ġ1993": 4345,
      "ĠRD1": 4346,
      "yÃ¡": 4347,
      "Ġlim": 4348,
      "Ġlanguage": 4349,
      "áī¬": 4350,
      "ĠMak": 4351,
      "ĠáĪĪáĭį": 4352,
      "áĮłáįĭ": 4353,
      "Ġáĭ¨áī°áĪĪáĭ«áĭ©": 4354,
      "Ġáī³áĪĭáīħ": 4355,
      "Ġprincip": 4356,
      "asara": 4357,
      "adem": 4358,
      "esse": 4359,
      "ĠNovemba": 4360,
      "Ġutilis": 4361,
      "wanda": 4362,
      "áĮ³": 4363,
      "ĠáĬĳ": 4364,
      "Ġáĭ¨áĭ°": 4365,
      "Ġáī°áĬĲ": 4366,
      "ĠLes": 4367,
      "ĠRais": 4368,
      "áĪĦáĭµ": 4369,
      "ĠáĪĽáĪµáī³áĭĪ": 4370,
      "Sa": 4371,
      "Ġbiyar": 4372,
      "irc": 4373,
      "Ã²rÃ¹n": 4374,
      "Ġvol": 4375,
      "35": 4376,
      "Ġperm": 4377,
      "ĠáĭĲ": 4378,
      "Ġáĭ¨áĮĪ": 4379,
      "ĠÃłwon": 4380,
      "ĠGerman": 4381,
      "ilia": 4382,
      "áĪĥáĬķ": 4383,
      "ĠáīłáĬ¥áĬķáĮįáĪĬáĭĿáĬĽ": 4384,
      "ĠAhm": 4385,
      "Ġcentury": 4386,
      "ĠBabban": 4387,
      "Ġá»įÌĢpá»įÌĢ": 4388,
      "µáį": 4389,
      "ĠÃª": 4390,
      "ĠáĬłáĭµ": 4391,
      "áĪİáĬķ": 4392,
      "ateur": 4393,
      "ĠSaint": 4394,
      "ollow": 4395,
      "ĠDecember": 4396,
      "Ġaga": 4397,
      "ilar": 4398,
      "Ġdep": 4399,
      "ĠEthiop": 4400,
      "ĠâĢ¢": 4401,
      "ifa": 4402,
      "pele": 4403,
      "ĠStates": 4404,
      "Ġainsi": 4405,
      "rÃº": 4406,
      "ĠcrÃ©": 4407,
      "ĠÃłp": 4408,
      "rig": 4409,
      "ĠYa": 4410,
      "Ġarewa": 4411,
      "áĭ¨áĭį": 4412,
      "Ita": 4413,
      "áĪµáī±": 4414,
      "tá»įÌĢ": 4415,
      "anti": 4416,
      "ĠáĪ©": 4417,
      "Ġáīłáĭļáĭ«": 4418,
      "ĠDav": 4419,
      "ĠOrodha": 4420,
      "Ġkaramar": 4421,
      "áĮłáĪį": 4422,
      "Ġmutanen": 4423,
      "ĠáĪĢáĮĪáĪŃ": 4424,
      "AS": 4425,
      "Ġpelu": 4426,
      "ĠyÃ³Ã²": 4427,
      "asiasa": 4428,
      "ĠWat": 4429,
      "áįįáĬĵ": 4430,
      "áīłáĪĮ": 4431,
      "áĮ¥áĬķáī³áĭĬ": 4432,
      "tim": 4433,
      "Ġmawa": 4434,
      "Ġonly": 4435,
      "ctober": 4436,
      "ĠKáº¹": 4437,
      "ayyar": 4438,
      "áĪ±áĬķ": 4439,
      "Ġáĭ¨áī°áī£áĪĪáĭį": 4440,
      "Sh": 4441,
      "overnment": 4442,
      "Ġbai": 4443,
      "itt": 4444,
      "Ġwilaya": 4445,
      "ĠáĭŃáĭĪ": 4446,
      "Ġáĭ¨áĪĮ": 4447,
      "lack": 4448,
      "áĬĲáīµáĬķ": 4449,
      "Ġimport": 4450,
      "ĠáĭĻáĪªáĭ«": 4451,
      "ĠKemia": 4452,
      "tait": 4453,
      "Ġaliye": 4454,
      "/)": 4455,
      "Ã©rÃ©": 4456,
      "Ġ1998": 4457,
      "áĪŃáĪĭáĬķáĭµ": 4458,
      "áī¶áī¹": 4459,
      "Ġ1994": 4460,
      "áĪ²áĬķ": 4461,
      "ĠáĬ¥áĮħáĮį": 4462,
      "Ġwan": 4463,
      "Ġruwa": 4464,
      "ĠsÃŃláº¹ÌĢ": 4465,
      "ĠÃ²á¹£": 4466,
      "Ġmusul": 4467,
      "Ġkilomita": 4468,
      "AN": 4469,
      "áĪŃáĮį": 4470,
      "ĠáĮĨ": 4471,
      "áīłáĭį": 4472,
      "áĬŃáĪĪ": 4473,
      "áĭ¨áĪĺ": 4474,
      "áī¨áĪŃ": 4475,
      "75": 4476,
      "ption": 4477,
      "ĠMor": 4478,
      "Ġagbe": 4479,
      "Ġpekee": 4480,
      "ĠáįĢ": 4481,
      "áĭŃáĬĲáīµ": 4482,
      "Ġwrit": 4483,
      "hidi": 4484,
      "áĭĺáī¥": 4485,
      "Ġhab": 4486,
      "raz": 4487,
      "Ġunder": 4488,
      "Ġsauran": 4489,
      "ĠShugaban": 4490,
      "wiki": 4491,
      "arar": 4492,
      "Ġlui": 4493,
      "áĬĲáīłáĪ¨": 4494,
      "omon": 4495,
      "áĬ¨áĪŃ": 4496,
      "áĬ«áī£áī¢": 4497,
      "áĪªáī³": 4498,
      "ĠáĬ«áĪį": 4499,
      "Ã©tÃ©": 4500,
      "Ġpri": 4501,
      "ner": 4502,
      "unin": 4503,
      "jeo": 4504,
      "Ġrayuwa": 4505,
      "Ġrasmi": 4506,
      "ĠgÃ©nÃ©r": 4507,
      "Ġtena": 4508,
      "ĠIle": 4509,
      "Ġwote": 4510,
      "akoso": 4511,
      "Ġkuli": 4512,
      "ĠDi": 4513,
      "Ġsucc": 4514,
      "ky": 4515,
      "Ġ%": 4516,
      "Ġang": 4517,
      "Ġojo": 4518,
      "áĬŃáĪŃáĪµáī²áĭ«áĬķ": 4519,
      "imÃ¡": 4520,
      "ject": 4521,
      "rent": 4522,
      "ĠPer": 4523,
      "190": 4524,
      "alo": 4525,
      "áº¹ÌĢáº¹Ìģ": 4526,
      "olly": 4527,
      "cher": 4528,
      "Ġmaza": 4529,
      "yya": 4530,
      "áĮĪáĬĽ": 4531,
      "ĠáĪĺáĪ¨áĮĥ": 4532,
      "ĠáĪĽáĮ£": 4533,
      "áī²áĬŃ": 4534,
      "Ġ1996": 4535,
      "Ùı": 4536,
      "ĠÃłgbÃ©": 4537,
      "âĢ¦": 4538,
      "iver": 4539,
      "Ġreg": 4540,
      "ojoi": 4541,
      "ojoibi": 4542,
      "ams": 4543,
      "ĠDem": 4544,
      "ĠÃªtre": 4545,
      "pl": 4546,
      "Ġrap": 4547,
      "ĠrÃ¨": 4548,
      "eman": 4549,
      "act": 4550,
      "ĠBritish": 4551,
      "Ä«": 4552,
      "ĠáĬłáĬĲ": 4553,
      "áĭĺáĬķ": 4554,
      "tical": 4555,
      "Ġyears": 4556,
      "wai": 4557,
      "ense": 4558,
      "Ġfit": 4559,
      "áĪ³áī°": 4560,
      "ĠáĭŃáī»": 4561,
      "ĠáīłáĪį": 4562,
      "ĠQu": 4563,
      "áĪĪáī°áĬĽáĭį": 4564,
      "ĠáīłáĬ©áĪį": 4565,
      "ouse": 4566,
      "áĬ½": 4567,
      "áĬĭáĪĭ": 4568,
      "áīµáĪĿ": 4569,
      "áĭ«áĪµ": 4570,
      "ĠáĬ¥áĭµ": 4571,
      "ĠáĬ¥áĬķáĭ°áĪĨáĬĲ": 4572,
      "Ġduring": 4573,
      "báº¹ÌĢráº¹ÌĢ": 4574,
      "Ġ1995": 4575,
      "ĠáĪĺáĪĪ": 4576,
      "áĬ¾": 4577,
      "Ã¹gbá»įÌģn": 4578,
      "áī¸áĭĭáĪį": 4579,
      "Ġáĭ¨áĪĨáĬĳ": 4580,
      "Ġzamani": 4581,
      "Ġáĭ©áĬĴ": 4582,
      "ĠNi": 4583,
      "Ġpartie": 4584,
      "ĠgÃŃ": 4585,
      "ough": 4586,
      "Ð°": 4587,
      "amad": 4588,
      "áī¥áĪĬáĬŃ": 4589,
      "ety": 4590,
      "Ġzab": 4591,
      "Ġáĭ«áĪī": 4592,
      "Ġhukumomin": 4593,
      "mon": 4594,
      "run": 4595,
      "ĠMu": 4596,
      "31": 4597,
      "eli": 4598,
      "áĬķáĮ«": 4599,
      "Ġáĭ¨áĪĭ": 4600,
      "áīłáĬĽ": 4601,
      "áĪ«áĪĿ": 4602,
      "Ġáī°áīĭ": 4603,
      "ĠnÃŃnu": 4604,
      "áįĵáĬķáĭ«": 4605,
      "kashin": 4606,
      "Ġáīłáĭ°áī¡áī¥": 4607,
      "sÃ¬n": 4608,
      "Ġduni": 4609,
      "Ġkarni": 4610,
      "Ġprov": 4611,
      "áĭ«áĭ«": 4612,
      "ĠMed": 4613,
      "haa": 4614,
      "áīģáĪŃ": 4615,
      "Ġyau": 4616,
      "lejin": 4617,
      "Ġilimi": 4618,
      "ĠAir": 4619,
      "Ġpeople": 4620,
      "áĬ¡": 4621,
      "áĪĪáĭ°": 4622,
      "Ġop": 4623,
      "iláº¹": 4624,
      "ĠáĪĺáĭĭ": 4625,
      "ĠÃ²un": 4626,
      "ĠáĬ«áĪĮ": 4627,
      "Ġtsarin": 4628,
      "attalin": 4629,
      "ĠÃ©galement": 4630,
      "Ã¼": 4631,
      "Ġlashe": 4632,
      "Ġogun": 4633,
      "á¹£i": 4634,
      "áĭĽáĪ¬": 4635,
      "ocr": 4636,
      "Ġmam": 4637,
      "ĠÃłkÃ³": 4638,
      "amuziki": 4639,
      "Ġmkubwa": 4640,
      "Ġdigiri": 4641,
      "Ġvile": 4642,
      "Ġsystem": 4643,
      "áĮ¼": 4644,
      "Ġbab": 4645,
      "áĬĲáī¶áī½": 4646,
      "ĠáĪĺáī¶": 4647,
      "adaye": 4648,
      "áĮ¥áĪĿ": 4649,
      "áįĪáĬķ": 4650,
      "Ġáĭ¨áī°áĬŃáĪī": 4651,
      "áĪ©áĪĿ": 4652,
      "áī¢áīµ": 4653,
      "ĠdÃ©partement": 4654,
      "lique": 4655,
      "ken": 4656,
      "pas": 4657,
      "Ġkuj": 4658,
      "Ġanci": 4659,
      "Ġbro": 4660,
      "ĠáīłáĬ¨": 4661,
      "ington": 4662,
      "áīĢáĪį": 4663,
      "ions": 4664,
      "Ġ1997": 4665,
      "Ġjus": 4666,
      "Ġterm": 4667,
      "Ġáĭ¨áįĸ": 4668,
      "áĬłáĭŃ": 4669,
      "ford": 4670,
      "ĠTazama": 4671,
      "áī³áī½áĬķ": 4672,
      "osa": 4673,
      "áĪĬáĭ®áĬķ": 4674,
      "áĭ°áĪ¨áĮī": 4675,
      "other": 4676,
      "Ġáº¹láº¹ÌģbÃ¹n": 4677,
      "Ġmis": 4678,
      "76": 4679,
      "ĠáĭŃáĮłáīĢ": 4680,
      "ĠáīłáĪ¨": 4681,
      "Ġcontr": 4682,
      "ĠáĮĪáī¥": 4683,
      "ĠáĭĵáĪĺáī±": 4684,
      "indi": 4685,
      "ef": 4686,
      "Ġalors": 4687,
      "Ġatom": 4688,
      "wana": 4689,
      "áĭµáĪµáīµ": 4690,
      "ĠBer": 4691,
      "áįįáĪªáĬ«": 4692,
      "áĬĳáĪµ": 4693,
      "áĮłáĪĭ": 4694,
      "umma": 4695,
      "Ġmap": 4696,
      "Ġtrad": 4697,
      "Ġwakil": 4698,
      "36": 4699,
      "burg": 4700,
      "áĭ£": 4701,
      "Ġáĭ±": 4702,
      "áĪĪáĭĭáĪį": 4703,
      "gbon": 4704,
      "áĭ¨áĬłáĪ": 4705,
      "áīħáĪµ": 4706,
      "Ġáĭ¨áĪ°áĭį": 4707,
      "Ġkamfanin": 4708,
      "ĠBC": 4709,
      "48": 4710,
      "Ġconf": 4711,
      "ĠÆĺ": 4712,
      "kÃ¹nrin": 4713,
      "Ġáį«": 4714,
      "áĪªáīµ": 4715,
      "ĠáĬłáĪ°": 4716,
      "áĬ¨áĪ«": 4717,
      "ĠáīµáĪįáīħ": 4718,
      "áĬ¥áĮįáĭļáĬłáī¥áĪĶáĪŃ": 4719,
      "itions": 4720,
      "ĠáĪľáīµáĪŃ": 4721,
      "ukuu": 4722,
      "á¹£u": 4723,
      "uct": 4724,
      "Ġmusamman": 4725,
      "Ġkwaikwayo": 4726,
      "ĠSud": 4727,
      "ica": 4728,
      "ĠBahari": 4729,
      "rÃ¡": 4730,
      "áĮĪáĬĲ": 4731,
      "akon": 4732,
      "Ġtout": 4733,
      "Ġthere": 4734,
      "ĠáĪķáĭĿ": 4735,
      "Ġwhere": 4736,
      "Ġáº¸ÌĢ": 4737,
      "ĠáĪĺáĮłáĬķ": 4738,
      "ĠáįķáĪ¬áĭļ": 4739,
      "wali": 4740,
      "Ġtaim": 4741,
      "CO": 4742,
      "aru": 4743,
      "asha": 4744,
      "ĠØ§": 4745,
      "ĠsinimÃ¡": 4746,
      "ĠáĭįáĮ¤": 4747,
      "ĠComp": 4748,
      "bÃº": 4749,
      "ĠKatsina": 4750,
      "ĠáĪ¥áĪĭáĪ´": 4751,
      "Ġ50": 4752,
      "ĠNovember": 4753,
      "urch": 4754,
      "Ġwould": 4755,
      "Ġáĭŀ": 4756,
      "áī£áĪī": 4757,
      "áĪŀáīµ": 4758,
      "Ġterrit": 4759,
      "Ġpáº¹lu": 4760,
      "ating": 4761,
      "pril": 4762,
      "falme": 4763,
      "Ġkila": 4764,
      "adhi": 4765,
      "ulani": 4766,
      "ĠfÃŃÃ¬mÃ¹": 4767,
      "ĠpadÃł": 4768,
      "ouver": 4769,
      "áĬķáĭ³áĪŃ": 4770,
      "ĠáĮįáī¥áĮ½": 4771,
      "ĠáĭŃáī»áĪĭáĪį": 4772,
      "Ġkula": 4773,
      "ĠojÃº": 4774,
      "ause": 4775,
      "ĠgbajÃºmá»įÌĢ": 4776,
      "day": 4777,
      "Ġban": 4778,
      "áĭķáĭĿ": 4779,
      "Ġgroup": 4780,
      "Ġfina": 4781,
      "oss": 4782,
      "oselu": 4783,
      "ĠYamma": 4784,
      "áĬ¨áī°áĪĪáĭį": 4785,
      "Ġzaman": 4786,
      "ĠMajalisar": 4787,
      "Ġmilli": 4788,
      "itin": 4789,
      "ĠMis": 4790,
      "uro": 4791,
      "Ġoffici": 4792,
      "Ġbila": 4793,
      "gozi": 4794,
      "áĪµáī°áĬĽ": 4795,
      "ĠáĬ¨áĪĽ": 4796,
      "áĭ³áĮħ": 4797,
      "áĬłáĬķ": 4798,
      "ĠáĭµáĬķ": 4799,
      "Ġ1976": 4800,
      "ĠáĮ½áĪĳáįį": 4801,
      "Ġiko": 4802,
      "ĠMto": 4803,
      "wÃ¡jÃº": 4804,
      "ĠEmp": 4805,
      "Tare": 4806,
      "ĠIli": 4807,
      "ĠáĪĪáī°": 4808,
      "ĠáĬ¥áĬķáĭ°áī°": 4809,
      "ĠáīłáĪĺáĪĨáĬĳ": 4810,
      "Ġutawala": 4811,
      "ĠSc": 4812,
      "Ġijoba": 4813,
      "ĠFebruary": 4814,
      "áĪĪáĪģ": 4815,
      "áĪ¥áī±": 4816,
      "ists": 4817,
      "ĠáĪħáĭĿáī¥": 4818,
      "áĮİáĪŃáĮİáĪŃ": 4819,
      "34": 4820,
      "Ġmt": 4821,
      "ĠlÃ¡Ãł": 4822,
      "aifaf": 4823,
      "Ġ185": 4824,
      "áº¹ráº¹": 4825,
      "áī½áĪį": 4826,
      "áĭ³áĬķáīµ": 4827,
      "áĬłáĪį": 4828,
      "ĠáĪµáĪĪáĭļáĪħ": 4829,
      "ĠÃ¬tÃłn": 4830,
      "Ġidadi": 4831,
      "ĠKib": 4832,
      "ĠRay": 4833,
      "dÃ¹": 4834,
      "mer": 4835,
      "Ġlambar": 4836,
      "Ġ1992": 4837,
      "Ġjagor": 4838,
      "Ġduniani": 4839,
      "El": 4840,
      "Ġpass": 4841,
      "ĠáĬłáī£áīµ": 4842,
      "áĬ³áĬķ": 4843,
      "ĠáĪĿáĬķáĮŃ": 4844,
      "Ġáĭ¨áĪĺáĮĢáĪĺáĪªáĭ«áĭį": 4845,
      "ĠáĭµáĪŃáĮħáīµ": 4846,
      "ÃłÃł": 4847,
      "ĠwÃ³n": 4848,
      "Ġhukuma": 4849,
      "ĠKiingereza": 4850,
      "oo": 4851,
      "Ġart": 4852,
      "áī§": 4853,
      "ĠáĬłáĭ¨áĪŃ": 4854,
      "áī£áī¥": 4855,
      "Ġáĭ¨áĬĸ": 4856,
      "uku": 4857,
      "ĠáĬŃáĪŃáĪµáī¶áĪµ": 4858,
      "Ġkarkashin": 4859,
      "ĠáįĬáĭ°áĪį": 4860,
      "rÃ²yÃ¬n": 4861,
      "ĠáĪ«áĪµ": 4862,
      "Ġdunia": 4863,
      "ĠCan": 4864,
      "ĠÃłÃ¬": 4865,
      "ulikana": 4866,
      "áĮ¾": 4867,
      "áĪĭáĬķ": 4868,
      "ĠId": 4869,
      "ĠáīłáĪĨ": 4870,
      "áĬ¨áī¥": 4871,
      "áĭĽáĭĿ": 4872,
      "Ġsecond": 4873,
      "ĠáĬłáĭŃáĭ°áĪĪáĪĿ": 4874,
      "aik": 4875,
      "Ġsani": 4876,
      "Ġigb": 4877,
      "istr": 4878,
      "Ġkazi": 4879,
      "elf": 4880,
      "ĠGree": 4881,
      "ras": 4882,
      "Ġtáº¹": 4883,
      "ĠáīłáĪ«": 4884,
      "áĮ¡áīµ": 4885,
      "atikana": 4886,
      "ĠáĬłáĬķáĭ³áĬķáĭµ": 4887,
      "ĠoÃ¹": 4888,
      "ĠKati": 4889,
      "ĠHot": 4890,
      "angi": 4891,
      "amment": 4892,
      "keo": 4893,
      "Ġsunan": 4894,
      "ĠMart": 4895,
      "áĬĿáĬĲáīµ": 4896,
      "ĠáīģáĮ¥": 4897,
      "yon": 4898,
      "Ġere": 4899,
      "Ġlabar": 4900,
      "ĠMil": 4901,
      "esh": 4902,
      "Ġbara": 4903,
      "Ġbang": 4904,
      "ca": 4905,
      "aria": 4906,
      "áĪįáĬķ": 4907,
      "áĪ«áĬ¤áĪį": 4908,
      "ĠOctober": 4909,
      "áīłáĪ¬": 4910,
      "áĭĿáĪĽáī½": 4911,
      "ĠMarch": 4912,
      "ĠáĬłáĪĿáĪĭáĬŃ": 4913,
      "Ġdevelop": 4914,
      "Ġleo": 4915,
      "ĠFaransa": 4916,
      "endo": 4917,
      "áĪŃáĬķ": 4918,
      "áĪµáī¶": 4919,
      "oll": 4920,
      "ĠHen": 4921,
      "ieurs": 4922,
      "ĠáĬ¨áī°áĪĽáĭį": 4923,
      "ĠGeorge": 4924,
      "ĠáīłáĪĻáĪī": 4925,
      "Or": 4926,
      "lished": 4927,
      "Ġkifo": 4928,
      "ÙĴ": 4929,
      "isme": 4930,
      "Ġpublic": 4931,
      "uman": 4932,
      "ĠDel": 4933,
      "ĠJames": 4934,
      "xt": 4935,
      "ĠáĪĺáĪ³": 4936,
      "ĠáĪĺáĮ¥": 4937,
      "áīłáī³áĪį": 4938,
      "ĠáĬ¨áĪ°": 4939,
      "gbá»įÌĢn": 4940,
      "áĬ«áī³": 4941,
      "ĠáĬ¥áĬķáĭ°áĮĪáĬĵ": 4942,
      "Ġthro": 4943,
      "Ġ1967": 4944,
      "ĠáĪĽáĪŃáīĨáĪµ": 4945,
      "let": 4946,
      "ando": 4947,
      "afu": 4948,
      "eph": 4949,
      "Ġdali": 4950,
      "ĠFasihi": 4951,
      "Ġanti": 4952,
      "fore": 4953,
      "áĭ«áĭĿ": 4954,
      "Ġiye": 4955,
      "ĠáīłáĬ¢": 4956,
      "ĠáĬ«áĪĮáĬķáĭ³áĪŃ": 4957,
      "Ġmn": 4958,
      "Ġpá»įÌĢ": 4959,
      "Ġmany": 4960,
      "lá»įpá»įÌĢ": 4961,
      "aifaffun": 4962,
      "ites": 4963,
      "ides": 4964,
      "Ġkáº¹Ìģ": 4965,
      "áīĭáĬķáīĭ": 4966,
      "bÃŃláº¹ÌĢ": 4967,
      "áĬķáĭ³áĬķáĭµ": 4968,
      "áĮİáĪŃáĮİáĪŃáĭ«áĬķ": 4969,
      "ĠJapan": 4970,
      "Ã¡Ã¬": 4971,
      "Ġmace": 4972,
      "ĠAll": 4973,
      "Ġ31": 4974,
      "Ġ|-": 4975,
      "Ġlater": 4976,
      "Ġ()": 4977,
      "Ġnau": 4978,
      "ĠáĪĺáĮ£": 4979,
      "utt": 4980,
      "áĪŀáĬŃ": 4981,
      "ĠáįķáĪ®": 4982,
      "áĮ£áĪįáĭ«áĬķ": 4983,
      "Ġclass": 4984,
      "Ġbecame": 4985,
      "ĠáīłáĪ½áī³": 4986,
      "ĠáĪĽáĮ£áīĢ": 4987,
      "Ġbisa": 4988,
      "ikukuu": 4989,
      "Ġkwallon": 4990,
      "At": 4991,
      "ĠMp": 4992,
      "Ġhut": 4993,
      "\")": 4994,
      "gal": 4995,
      "ĠáĬĹ": 4996,
      "arci": 4997,
      "onne": 4998,
      "áĪįáĮħ": 4999,
      "Ġáī°áĬĵ": 5000,
      "ught": 5001,
      "lÃ¬": 5002,
      "orm": 5003,
      "ĠSw": 5004,
      "ĠdÃ©velop": 5005,
      "rÃ¬n": 5006,
      "Ġkayan": 5007,
      "ĠáĪİ": 5008,
      "áĪįáįį": 5009,
      "áī°áĬĽáĭį": 5010,
      "áĪĺáĪ«": 5011,
      "Ġfollow": 5012,
      "áĪ«áĪ½": 5013,
      "Ġja": 5014,
      "áĪµáīµáĬĵ": 5015,
      "Ġcompos": 5016,
      "anisha": 5017,
      "Ġnyingine": 5018,
      "add": 5019,
      "odi": 5020,
      "Ġ1987": 5021,
      "Ġ1989": 5022,
      "ĠAbdul": 5023,
      "Ġáīłáįį": 5024,
      "ĠKananan": 5025,
      "ĠáĪĿáĬĵáĪįáī£áīµ": 5026,
      "ĠWan": 5027,
      "Ġend": 5028,
      "áĮİáĬķ": 5029,
      "áĬłáĪĿ": 5030,
      "ĠáĬłáĪĪáĪĿ": 5031,
      "áĭ³áĬķáĭ±": 5032,
      "áĭ®áĪŃáĮĬ": 5033,
      "Ġaj": 5034,
      "iran": 5035,
      "Ġnada": 5036,
      "ties": 5037,
      "hard": 5038,
      "2005": 5039,
      "Ġinv": 5040,
      "Ġambao": 5041,
      "áĭ´áīµ": 5042,
      "oa": 5043,
      "ĠCoun": 5044,
      "ÉĹa": 5045,
      "Ġshirin": 5046,
      "Ġáº¹ÌĢyÃł": 5047,
      "Ġbiashara": 5048,
      "bit": 5049,
      "ier": 5050,
      "Ġ1975": 5051,
      "37": 5052,
      "áĪįáīģ": 5053,
      "áĪµáĪĿ": 5054,
      "ĠTari": 5055,
      "chumi": 5056,
      "Ġáīłáī¥áĭĽáīµ": 5057,
      "Ġtsohon": 5058,
      "Se": 5059,
      "stit": 5060,
      "Ġnjia": 5061,
      "onge": 5062,
      "Ġfut": 5063,
      "ĠOrÃŃ": 5064,
      "Ġoloselu": 5065,
      "ĠPress": 5066,
      "Ġkuhusu": 5067,
      "Har": 5068,
      "áī½áĪģ": 5069,
      "ĠinÃº": 5070,
      "Ġáīµáĭį": 5071,
      "ĠáĪįáĭ°áīµ": 5072,
      "Ġáĭ¨áīĢáĬķ": 5073,
      "Ġáĭ¨áĭĵáĪĪáĪĿ": 5074,
      "ĠsÃ¡": 5075,
      "Ġyabo": 5076,
      "alth": 5077,
      "ĠKudu": 5078,
      "ĠArab": 5079,
      "ils": 5080,
      "unga": 5081,
      "áĮĪáīµ": 5082,
      "omas": 5083,
      "Ġáī°áĭĭ": 5084,
      "Ġyote": 5085,
      "Ġvit": 5086,
      "áīłáĪ°": 5087,
      "áĪ¥áĪ«áīħ": 5088,
      "ĠáįĪáĪ¨áĬķ": 5089,
      "áĬªáĭ«": 5090,
      "Ġpremier": 5091,
      "tan": 5092,
      "asan": 5093,
      "ĠJac": 5094,
      "ĠEg": 5095,
      "Ġ40": 5096,
      "Ġciki": 5097,
      "ĠDola": 5098,
      "ĠKanisa": 5099,
      "yyun": 5100,
      "ollywood": 5101,
      "oot": 5102,
      "¹áį": 5103,
      "ºáį": 5104,
      "Ġâ": 5105,
      "ĠáĪ¹": 5106,
      "ĠáīłáĪķ": 5107,
      "áīłáĪī": 5108,
      "uck": 5109,
      "ĠAcadem": 5110,
      "ĠannÃ©es": 5111,
      "oyal": 5112,
      "bÃ¬nrin": 5113,
      "ino": 5114,
      "Ġtri": 5115,
      "Ġshe": 5116,
      "aman": 5117,
      "himu": 5118,
      "ĠGir": 5119,
      "ĠIbadan": 5120,
      "ĠAz": 5121,
      "ĠáīłáĮİáĪŃáĮİáĪŃáĭ«áĬķ": 5122,
      "ĠHistoria": 5123,
      "ĠáĭµáĬķáĮĭ": 5124,
      "ĠáĬłáĮĪáĪ«áīµ": 5125,
      "ista": 5126,
      "Ġhigh": 5127,
      "ĠIr": 5128,
      "ĠtrÃ¨s": 5129,
      "ĠKiswahili": 5130,
      "Ã¶": 5131,
      "Ġdari": 5132,
      "lima": 5133,
      "Ġbaba": 5134,
      "Ġjerin": 5135,
      "osi": 5136,
      "De": 5137,
      "Ġkara": 5138,
      "Ġáĭ¨áī¥": 5139,
      "áĭĪáĪ¨": 5140,
      "ĠáĪįáī¥": 5141,
      "ĠCharles": 5142,
      "ĠnÃ©": 5143,
      "Ġhata": 5144,
      "ĠRaya": 5145,
      "Ġasalin": 5146,
      "Ġlokaci": 5147,
      "ĠSoci": 5148,
      "Ġorigin": 5149,
      "Ġáĭ¨áĪŀ": 5150,
      "Ġvisiwa": 5151,
      "áĭĺáĪĺ": 5152,
      "ivi": 5153,
      "ĠÃĢÃłráº¹": 5154,
      "wezi": 5155,
      "ĠáĪĽáĪµáī³áĭĪáĪ»áĭİáī½": 5156,
      "arac": 5157,
      "Ġprop": 5158,
      "ĠagbÃ¡": 5159,
      "áĬĲáī±áĬķ": 5160,
      "áĪ³áĬķ": 5161,
      "Ġáĭ¨áĬ®": 5162,
      "áĭ«áĬķáĭ³áĬķáĭ±": 5163,
      "ĠáĬŃáįįáĪİáī½": 5164,
      "Ġáĭ¨áĪļáĭ«áĪµ": 5165,
      "Ġeniyan": 5166,
      "ĠBenin": 5167,
      "Ã³mÃ¬nÃł": 5168,
      "alu": 5169,
      "berg": 5170,
      "ful": 5171,
      "Ġáī¶": 5172,
      "Ġáĭ¨áĮ¥": 5173,
      "ĠáĮ«": 5174,
      "Ġá¹£ÃŃ": 5175,
      "Ġá¹£iá¹£áº¹Ìģ": 5176,
      "áĭĵáĬķ": 5177,
      "Ġáĭ³áĪŃ": 5178,
      "ined": 5179,
      "Ġ~": 5180,
      "Ġelle": 5181,
      "atique": 5182,
      "ĠÃłgbÃł": 5183,
      "ĠdÃ©s": 5184,
      "Ġ1982": 5185,
      "ĠEbun": 5186,
      "ĠáĮ³": 5187,
      "ĠáĬłáī¶": 5188,
      "áī¦áīµ": 5189,
      "gent": 5190,
      "Ġces": 5191,
      "Ġpwani": 5192,
      "ĠáĪĽáĪŃáĭ«áĪĿ": 5193,
      "asaha": 5194,
      "Ġext": 5195,
      "iyoyin": 5196,
      "Ġmajalisar": 5197,
      "torÃŃ": 5198,
      "Ġdisc": 5199,
      "Ġmulki": 5200,
      "atan": 5201,
      "ĠCap": 5202,
      "Ġ1983": 5203,
      "ross": 5204,
      "dÃ²": 5205,
      "¸áį": 5206,
      "áī¾": 5207,
      "Ġáĭ¨áĪĪáĭį": 5208,
      "ĠáĬ¨áĪģ": 5209,
      "Ġáī¥áĭĽáīµ": 5210,
      "ific": 5211,
      "áĮĪáĪªáī±": 5212,
      "Ġcity": 5213,
      "rÃ¡n": 5214,
      "ĠMungu": 5215,
      "---": 5216,
      "áĪĪáĪĺ": 5217,
      "ĠKya": 5218,
      "áĪ³áĪ³áĭŃ": 5219,
      "áĬłáīµ": 5220,
      "ĠáĭĿáĪŃáĭ«": 5221,
      "Ġáī¡áĭµáĬķ": 5222,
      "Ġpopulation": 5223,
      "ĠáĪĪáĪĿáĪ³áĪĮ": 5224,
      "Ġise": 5225,
      "Ġmasana": 5226,
      "ĠÂ»,": 5227,
      "ĠMusulunci": 5228,
      "ĠUganda": 5229,
      "col": 5230,
      "Ġwar": 5231,
      "ĠJuly": 5232,
      "áĬķáĪ³áĭĬ": 5233,
      "ĠáĭĪáĪįáĭ°": 5234,
      "ĠáĬ¥áĬķáĭ²áĭ«": 5235,
      "Ġ2091": 5236,
      "sÃŃláº¹ÌĢ": 5237,
      "Ġshug": 5238,
      "Ġ1984": 5239,
      "Åĵ": 5240,
      "Ġ(\"": 5241,
      "ĠBell": 5242,
      "Ġinay": 5243,
      "angue": 5244,
      "Ġkawaida": 5245,
      "áĬ¨1892": 5246,
      "osai": 5247,
      "agne": 5248,
      "Ġáī¢áĪĨáĬķáĪĿ": 5249,
      "báº¹ÌĢ": 5250,
      "sha": 5251,
      "ament": 5252,
      "aly": 5253,
      "usta": 5254,
      "ments": 5255,
      "ĠMutane": 5256,
      "ren": 5257,
      "ĠISBN": 5258,
      "ĠYan": 5259,
      "ĠØ§ÙĦ": 5260,
      "71": 5261,
      "ws": 5262,
      "áĬķáĭ¶": 5263,
      "Ġdini": 5264,
      "Ġáĭ¨áĬ¦": 5265,
      "Ġkaratu": 5266,
      "Ġ1988": 5267,
      "Ġ1979": 5268,
      "ĠSch": 5269,
      "endant": 5270,
      "Ġpeu": 5271,
      "Ġmbili": 5272,
      "ĠIm": 5273,
      "idd": 5274,
      "kiwa": 5275,
      "lÃ©wÃ²": 5276,
      "Ã¤": 5277,
      "Ġáĭ¨áĭ«": 5278,
      "ambu": 5279,
      "rac": 5280,
      "Ġáĭĺáĭ´": 5281,
      "ister": 5282,
      "ĠIndia": 5283,
      "oko": 5284,
      "Ã©m": 5285,
      "omm": 5286,
      "Ġáĭ¨áīĨ": 5287,
      "áĪµáĪĽ": 5288,
      "Ġchar": 5289,
      "Ġred": 5290,
      "Ġáī°áīĥ": 5291,
      "Ġzote": 5292,
      "Ġolu": 5293,
      "ĠáĮłáīħ": 5294,
      "ography": 5295,
      "áī¥áĪ«áĭŃ": 5296,
      "Ġáĭ¨áĭįáĮŃ": 5297,
      "áĪĮáĬŃáīµáĪªáĬŃ": 5298,
      "ĠGo": 5299,
      "39": 5300,
      "ĠApril": 5301,
      "Ġwá»į": 5302,
      "ĠHaifaffun": 5303,
      "Ġbahari": 5304,
      "adio": 5305,
      "oire": 5306,
      "Ġconc": 5307,
      "Ġáīłáī°áĮ¨áĪĽáĪª": 5308,
      "áĪĲáįĬ": 5309,
      "áĪŃáĪ±áĪĿ": 5310,
      "kÃ¹": 5311,
      "zer": 5312,
      "ĠBel": 5313,
      "Ġ1986": 5314,
      "lands": 5315,
      "http": 5316,
      "ĠAcademy": 5317,
      "Ġ1985": 5318,
      "ĠEthiopia": 5319,
      "Åį": 5320,
      "áĪŃáī±": 5321,
      "Ġáĭ¨áĪĢ": 5322,
      "Ġyara": 5323,
      "ĠáĪĪáĬ¥": 5324,
      "áĪĻáīµ": 5325,
      "ĠáĮĪáĭ°": 5326,
      "ĠFrench": 5327,
      "ĠáĭľáĬĵ": 5328,
      "ĠCal": 5329,
      "icha": 5330,
      "Ġ1966": 5331,
      "ĠFranc": 5332,
      "Ġcalled": 5333,
      "Ġláº¹ÌģyÃ¬n": 5334,
      "ĠSun": 5335,
      "tains": 5336,
      "arautar": 5337,
      "ities": 5338,
      "guzi": 5339,
      "ĠáĬĥáĭŃáĪĪ": 5340,
      "volution": 5341,
      "Ġkun": 5342,
      "áĪŃáī£": 5343,
      "ĠáĬłáīħ": 5344,
      "ĠáĪĺáĪ¬áīµ": 5345,
      "ĠáĬ¨áĪĮ": 5346,
      "ĠáĭŃáĪĦ": 5347,
      "áĬ¨áĭļáĭ«": 5348,
      "Ġáĭ¨áĪļáī³áĭĪ": 5349,
      "ĠáĮįáĭĽ": 5350,
      "ĠáĮĪáĬķ": 5351,
      "ret": 5352,
      "ĠBBC": 5353,
      "Ġmwanamuziki": 5354,
      "Ġshirya": 5355,
      "ĠwaÉĹanda": 5356,
      "ĠgÃŃga": 5357,
      "zu": 5358,
      "ĠKongo": 5359,
      "pace": 5360,
      "Wh": 5361,
      "ĠkÃ¡": 5362,
      "ĠbÃł": 5363,
      "Ġ(Â«": 5364,
      "ĠáĬ¥áĬĶ": 5365,
      "Ġigba": 5366,
      "ĠáĪĺáĮ»áĪķ": 5367,
      "usa": 5368,
      "DP": 5369,
      "Ġkis": 5370,
      "illes": 5371,
      "Ġilimin": 5372,
      "Ġmagharibi": 5373,
      "owever": 5374,
      "fia": 5375,
      "Ġáĭ¨áĬŃ": 5376,
      "ĠKa": 5377,
      "ĠPrin": 5378,
      "áĬ«áĪĿ": 5379,
      "Ġáī£áĪį": 5380,
      "ĠáĬ¥áĬķáĮįáĪĬáĭĿáĬĽ": 5381,
      "ĠChristi": 5382,
      "Ġmasa": 5383,
      "áīłáīħ": 5384,
      "áĭ¨áĪļ": 5385,
      "imes": 5386,
      "rahim": 5387,
      "áĭĺáĭį": 5388,
      "áĭĽáĬĽáĭį": 5389,
      "ĠáĪµáĪĪáĪļ": 5390,
      "ĠáĪĺáĪįáĬŃáĭĵ": 5391,
      "gra": 5392,
      "ĠKil": 5393,
      "2004": 5394,
      "Ġresp": 5395,
      "bila": 5396,
      "ID": 5397,
      "áĬĵáĭŃáīµ": 5398,
      "áī°áīµ": 5399,
      "áĭµáĪ¨áĪµ": 5400,
      "Ġáĭ¨áī°áĪĺ": 5401,
      "ĠáĪĻáĪī": 5402,
      "ĠáĬłáĪħ": 5403,
      "inga": 5404,
      "ĠPi": 5405,
      "app": 5406,
      "ĠáīĢáĭ³": 5407,
      "Ġplay": 5408,
      "Ġ1974": 5409,
      "ĠmÃ¬ÃŃ": 5410,
      "áĭµáĬĵ": 5411,
      "chuk": 5412,
      "Ġhuo": 5413,
      "ĠáĬĥáĭŃáĪį": 5414,
      "ym": 5415,
      "ĠRic": 5416,
      "ĠPeople": 5417,
      "ware": 5418,
      "Ġaji": 5419,
      "Ġhaifi": 5420,
      "ĠolÃ³rin": 5421,
      "Ġrubuta": 5422,
      "nia": 5423,
      "Ġwit": 5424,
      "áĬ¨áī³": 5425,
      "áīłáĪ³": 5426,
      "áĬĳáĬķ": 5427,
      "áįĭáĪį": 5428,
      "áĭįáĬķáīµ": 5429,
      "Ġ||": 5430,
      "ĠáĬłáĮĪáĪ®áī½": 5431,
      "Ġáī¥áĪĶáĪ«áĭĬ": 5432,
      "47": 5433,
      "mÃº": 5434,
      "Ġnu": 5435,
      "Ġpuis": 5436,
      "á»įÌģá»įÌĢ": 5437,
      "ĠLou": 5438,
      "Ġprob": 5439,
      "ĠBib": 5440,
      "ĠHukum": 5441,
      "Ġenc": 5442,
      "zation": 5443,
      "ãĥ": 5444,
      "arab": 5445,
      "ĠáĬ¥áĮįáĭļáĬłáī¥áĪĶáĪŃ": 5446,
      "áĮĪáī¡": 5447,
      "áīĢáĭµáĪŀ": 5448,
      "Ġlead": 5449,
      "Ġáĭ¨áī°áįĪ": 5450,
      "Ġáī£áĭŃ": 5451,
      "Ġá»įÌĢkan": 5452,
      "Ġuse": 5453,
      "áĭ°áĪ¨áĮĪáĭį": 5454,
      "ĠáĭĪáĭŃáĬķáĪĿ": 5455,
      "ĠáīĢáĮ¥áĪİ": 5456,
      "ĠRayayyun": 5457,
      "ĠVal": 5458,
      "ĠEs": 5459,
      "á»įÌĢrá»įÌĢ": 5460,
      "Ġmagana": 5461,
      "Ġhalarci": 5462,
      "gÃ¡": 5463,
      "Ġmur": 5464,
      "áī¥áĬķ": 5465,
      "áīłáīĥ": 5466,
      "elon": 5467,
      "ictor": 5468,
      "áĭĪáīħ": 5469,
      "áīłáĪµ": 5470,
      "2006": 5471,
      "Ġfarkon": 5472,
      "ĠKaskazini": 5473,
      "dÃłn": 5474,
      "áĮĪáĪ«áīµ": 5475,
      "Ġjim": 5476,
      "áĬŃáĬķ": 5477,
      "oloj": 5478,
      "ĠDr": 5479,
      "istori": 5480,
      "lymp": 5481,
      "áĪĪáĪĿáĪ³áĪĮ": 5482,
      "Ġmwenye": 5483,
      "áĪ¸áĬĲ": 5484,
      "ĠáĪĽáĮ£áīĢáĪ»": 5485,
      "ĠmÃ¬ÃŃrÃłn": 5486,
      "struc": 5487,
      "Ġmen": 5488,
      "teur": 5489,
      "ubakar": 5490,
      "ĠdiffÃ©r": 5491,
      "Ġlors": 5492,
      "Ġáįİ": 5493,
      "ĠáĭŃáĭ©": 5494,
      "fs": 5495,
      "umwa": 5496,
      "rag": 5497,
      "85": 5498,
      "ĠGl": 5499,
      "Ġ1950": 5500,
      "46": 5501,
      "áĬķáī³": 5502,
      "ĠPat": 5503,
      "Ġthree": 5504,
      "ĠobÃ¬nrin": 5505,
      "ames": 5506,
      "Ġchi": 5507,
      "ĠWaz": 5508,
      "Ð¸": 5509,
      "Ġarm": 5510,
      "Ġgwamnatin": 5511,
      "Ġáĭ¨áįĪ": 5512,
      "Ġgo": 5513,
      "áīħáĭ«": 5514,
      "áĬłáĬķáĭµ": 5515,
      "ĠáĮ¥áĪ©": 5516,
      "áĬĺáīµ": 5517,
      "Ġáī£áĪħáĪŃ": 5518,
      "rid": 5519,
      "ĠNchi": 5520,
      "olojia": 5521,
      "Ġmot": 5522,
      "abo": 5523,
      "eda": 5524,
      "shir": 5525,
      "ÙİÙ": 5526,
      "báº¹Ìģ": 5527,
      "vyo": 5528,
      "Ġcutar": 5529,
      "áĬĵáĮĪ": 5530,
      "áĮįáī£áĪŃ": 5531,
      "ĠáīłáĪħ": 5532,
      "iction": 5533,
      "ĠJune": 5534,
      "ÆĻa": 5535,
      "Ġstate": 5536,
      "ĠáĬłáįįáĪªáĬ«": 5537,
      "Ġtarihi": 5538,
      "77": 5539,
      "taniya": 5540,
      "zed": 5541,
      "Ð¾": 5542,
      "Ġlib": 5543,
      "ribu": 5544,
      "amawa": 5545,
      "ĠMkoa": 5546,
      "Ġkwall": 5547,
      "Ġá¹£Ãł": 5548,
      "ĠKiarabu": 5549,
      "Ġserv": 5550,
      "dÃºgbÃ²": 5551,
      "sociation": 5552,
      "99": 5553,
      "Ġten": 5554,
      "Ġspeci": 5555,
      "Ġlat": 5556,
      "áĪªáĪµ": 5557,
      "olo": 5558,
      "áĬ®áīµ": 5559,
      "2003": 5560,
      "ious": 5561,
      "ĠáīłáĪĽáĪĪáīµ": 5562,
      "Ġkisiwa": 5563,
      "Ġsosai": 5564,
      "igne": 5565,
      "Ġharshen": 5566,
      "jec": 5567,
      "ĠEast": 5568,
      "dá»įÌĢ": 5569,
      "jáº¹ÌĢ": 5570,
      "áĪŃáī¶": 5571,
      "Ġfon": 5572,
      "ĠipÃ²": 5573,
      "ĠVol": 5574,
      "áĭ©áĪµ": 5575,
      "áĮ«áĭĪ": 5576,
      "ĠáĪ³áĭŃáĬķáĪ³áĭĬ": 5577,
      "ĠáįĸáĪĪáī²áĬ«": 5578,
      "áī¥áĪ«áĭŃáĪµáĮ¥": 5579,
      "ĠÃ©tait": 5580,
      "hÃ¹n": 5581,
      "Ġbinc": 5582,
      "ĠRa": 5583,
      "Ġkasuwanci": 5584,
      "ĠAlakoso": 5585,
      "ĠáĬłáĭ³": 5586,
      "áĭµáĪ®": 5587,
      "ĠHispania": 5588,
      "áĬłáĪĪ": 5589,
      "ĠáĮīáĭ³áĭŃ": 5590,
      "ataifa": 5591,
      "itÃ©s": 5592,
      "Ġshida": 5593,
      "Ġitace": 5594,
      "Ġagbegbe": 5595,
      "32": 5596,
      "Ġsans": 5597,
      "ĠMah": 5598,
      "ĠFI": 5599,
      "ĠHan": 5600,
      "oup": 5601,
      "ĠÂ».": 5602,
      "ĠáĪ¬": 5603,
      "Ġomi": 5604,
      "áī³áĬķ": 5605,
      "ĠâĢĶ": 5606,
      "áīĤáīµ": 5607,
      "ĠáĬ¥áĬķáĭ³áĭŃ": 5608,
      "ĠáĭĽáĪ¬": 5609,
      "áĭ®áĪŃáĮĬáĪµ": 5610,
      "Î±": 5611,
      "Ġpili": 5612,
      "ĠHer": 5613,
      "ĠAtlan": 5614,
      "Ġtáº¹ÌĢ": 5615,
      "Ġdro": 5616,
      "ĠMarejeo": 5617,
      "sÃ¬kÃ²": 5618,
      "Ġlá»įÌģwá»įÌģ": 5619,
      "ĠáĬ¨áĪĨáĬĲ": 5620,
      "ĠWe": 5621,
      "áĪ°áĪŃ": 5622,
      "ĠUk": 5623,
      "inea": 5624,
      "áĪłáĪ¨áī°": 5625,
      "ĠáĪļáĬĴáĪµáīµ": 5626,
      "Tana": 5627,
      "uve": 5628,
      "Ġren": 5629,
      "Ġlafiya": 5630,
      "ĠRoman": 5631,
      "Ġiliyo": 5632,
      "Ġ1978": 5633,
      "Ġabub": 5634,
      "Par": 5635,
      "tÃłn": 5636,
      "Ġcas": 5637,
      "ald": 5638,
      "uts": 5639,
      "uter": 5640,
      "gawa": 5641,
      "Ġ1965": 5642,
      "Ki": 5643,
      "Ġsud": 5644,
      "Ġáĭ¨áįį": 5645,
      "Ġáīłáī£": 5646,
      "Ġearly": 5647,
      "áĪľáīµ": 5648,
      "áĬ®áĬĸ": 5649,
      "ĠáĪļáĪĬáĭ®áĬķ": 5650,
      "ĠáīłáĪµáī°": 5651,
      "Ġlá»įÌģdÃºn": 5652,
      "Ġzaben": 5653,
      "win": 5654,
      "alitÃ©": 5655,
      "Ġphilos": 5656,
      "ii": 5657,
      "Ġmade": 5658,
      "ĠMai": 5659,
      "Ġnaf": 5660,
      "ĠOba": 5661,
      "áĪµáī´": 5662,
      "ĠáīłáĬ®": 5663,
      "Ġplusieurs": 5664,
      "Ġáī°áĬ¨áī³": 5665,
      "ait": 5666,
      "nes": 5667,
      "Â°": 5668,
      "Ġani": 5669,
      "ried": 5670,
      "Ġ1981": 5671,
      "ords": 5672,
      "Tarehe": 5673,
      "96": 5674,
      "Ã©lÃ©": 5675,
      "veau": 5676,
      "Ġnumber": 5677,
      "86": 5678,
      "°áį»áį": 5679,
      "Ġneman": 5680,
      "ĠMakar": 5681,
      "Ġfond": 5682,
      "áĭµáĪĺ": 5683,
      "Ġáį»áį": 5684,
      "ĠáĭŃáĮł": 5685,
      "áĬ¨áĪĭ": 5686,
      "ĠáĪµáī¥áĪµ": 5687,
      "Ġáĭ«áĪ³": 5688,
      "Ġáĭ¨áĪļáĪ°": 5689,
      "Ġáĭ¨áĪļáĮĪáĬĻ": 5690,
      "Ġáĭ°áĪ«áĪ²": 5691,
      "áĮŃáĪŃ": 5692,
      "gbegbe": 5693,
      "ĠáĮ¸áī£áĭŃ": 5694,
      "ĠKwalejin": 5695,
      "Ġtáº¹Ìģláº¹ÌĢ": 5696,
      "Ġer": 5697,
      "ĠTan": 5698,
      "ijin": 5699,
      "Ġ1971": 5700,
      "ĠpremiÃ¨re": 5701,
      "Ġmiji": 5702,
      "ĠYe": 5703,
      "ĠDavid": 5704,
      "far": 5705,
      "line": 5706,
      "vision": 5707,
      "ĠGro": 5708,
      "áĪİáĮĤ": 5709,
      "ĠáīħáĪŃáĪµ": 5710,
      "ĠáīµáĪŃáĮīáĪĿ": 5711,
      "Ġkin": 5712,
      "Ġfáº¹Ìģ": 5713,
      "antes": 5714,
      "Ġori": 5715,
      "hind": 5716,
      "Ġbeing": 5717,
      "ĠMov": 5718,
      ");": 5719,
      "fauti": 5720,
      "pÃ¨": 5721,
      "ĠáĪĺáīħ": 5722,
      "Ġvis": 5723,
      "riban": 5724,
      "ÆĻin": 5725,
      "Ġkwam": 5726,
      "iongozi": 5727,
      "áĮħáĪĿ": 5728,
      "ĠNijar": 5729,
      "ĠáĪĥáĭŃáĪĽáĬĸáīµ": 5730,
      "áĬĵáĭŃáīµáĭµ": 5731,
      "kÃŃ": 5732,
      "yth": 5733,
      "Ġlangue": 5734,
      "ural": 5735,
      "eder": 5736,
      "ĠFir": 5737,
      "Ġmashariki": 5738,
      "ories": 5739,
      "Ġwalio": 5740,
      "emple": 5741,
      "zung": 5742,
      "ĠáĬ¥áĪĿáĬĲáīµ": 5743,
      "ĠáĬłáĮĭ": 5744,
      "tiki": 5745,
      "Ġworld": 5746,
      "áĪĭáīģ": 5747,
      "áĪĭáĮĬ": 5748,
      "ago": 5749,
      "ĠáĭįáĮŃ": 5750,
      "áĪĻáĬķ": 5751,
      "Ġ180": 5752,
      "Ø¨": 5753,
      "Ġdhidi": 5754,
      "rian": 5755,
      "tÃłkÃ¬": 5756,
      "ĠÃģf": 5757,
      "ĠBi": 5758,
      "Ġika": 5759,
      "attle": 5760,
      "Tangu": 5761,
      "ĠNÃŃ": 5762,
      "áĬ«áĪŃ": 5763,
      "ĠáĪ²áīĢ": 5764,
      "ĠáĪ²áĪĨáĬĳ": 5765,
      "áī¹áĬķ": 5766,
      "ĠáĮİáĬķ": 5767,
      "ĠáĪĺáĪĨáĬĳáĬķ": 5768,
      "Dans": 5769,
      "Ġ<": 5770,
      "Ġmain": 5771,
      "ĠJean": 5772,
      "Ġnord": 5773,
      "Ġlik": 5774,
      "ĠolÃº": 5775,
      "ument": 5776,
      "ĠÆĻungiyar": 5777,
      "Ġkadhaa": 5778,
      "unifÃ¡": 5779,
      "amaduni": 5780,
      "áĬķáĬŃ": 5781,
      "áĪĭáĪµ": 5782,
      "áĪ°áĪį": 5783,
      "ĠáīłáĬ¦": 5784,
      "ived": 5785,
      "Ġdirect": 5786,
      "jÃ²": 5787,
      "Ġsasa": 5788,
      "Ġyaani": 5789,
      "Ġwao": 5790,
      "Ġwell": 5791,
      "Ġrashin": 5792,
      "irefu": 5793,
      "ĠáĬķáĮīáĪł": 5794,
      "ĠAnnabi": 5795,
      "cle": 5796,
      "Î¿": 5797,
      "33": 5798,
      "Ġá¹¢": 5799,
      "ĠKit": 5800,
      "ĠáĭĪáī³áĭ°": 5801,
      "ĠGwamn": 5802,
      "áīħáĬĵ": 5803,
      "áĮ£áĬķ": 5804,
      "ĠáĪ¥áįįáĪ«": 5805,
      "ĠáĪµáĪĪáĪĨáĬĲ": 5806,
      "ĠáĪ¦áĪµáīµ": 5807,
      "ĠRepublic": 5808,
      "Ġnotamment": 5809,
      "Ġrik": 5810,
      "tokea": 5811,
      "dinin": 5812,
      "ĠJapani": 5813,
      "ĠÃģfrÃŃkÃł": 5814,
      "nam": 5815,
      "áĬķáĭ²": 5816,
      "Ġáĭ¨áīħ": 5817,
      "áĬ¨áĪ¨áĪĿ": 5818,
      "ĠUS": 5819,
      "ĠáĪĿáĪįáĬŃáīµ": 5820,
      "42": 5821,
      "Ġmá»į": 5822,
      "islamu": 5823,
      "Ġing": 5824,
      "ague": 5825,
      "formation": 5826,
      "Ġplace": 5827,
      "ĠJamhuri": 5828,
      "''": 5829,
      "til": 5830,
      "áĪĺáĪ©": 5831,
      "ĠBorn": 5832,
      "Ġthese": 5833,
      "lection": 5834,
      "Wannan": 5835,
      "Ġng": 5836,
      "Ġbayar": 5837,
      "Ġfur": 5838,
      "ĠáĮįáĬķáĬĻ": 5839,
      "anzishwa": 5840,
      "Ġá»įÌĢrá»įÌĢ": 5841,
      "áī¨áĪŃáĪ²": 5842,
      "ĠMari": 5843,
      "Ġsitu": 5844,
      "ĠOm": 5845,
      "Ġosere": 5846,
      "Â²": 5847,
      "Ġfus": 5848,
      "áī£áī³": 5849,
      "áĬ«áĬ¨áĪĪ": 5850,
      "áĪĨáĬĸ": 5851,
      "áĮĭáīµ": 5852,
      "ives": 5853,
      "ĠáĭµáĪį": 5854,
      "áĮĢáīµ": 5855,
      "ellement": 5856,
      "Ġmjini": 5857,
      "ĠShi": 5858,
      "ĠÉĹa": 5859,
      "49": 5860,
      "lla": 5861,
      "xim": 5862,
      "ĠSat": 5863,
      "ĠBay": 5864,
      "ĠBank": 5865,
      "ning": 5866,
      "áĮª": 5867,
      "áĪµáĭ«": 5868,
      "áĬŃáĪ²": 5869,
      "áĭĪáĭŃáĪĿ": 5870,
      "Ġáĭĺáįĭ": 5871,
      "áīĥáĪ´": 5872,
      "bihi": 5873,
      "Ġá¹£Ã¹gbá»įÌģn": 5874,
      "áĬłáĪµ": 5875,
      "Ġ1973": 5876,
      "Ġmajor": 5877,
      "ĠáĭĺáĪĺáĬĵáĭĬ": 5878,
      "ĠáĭŃáīĢáĪ«áĪī": 5879,
      "anzibar": 5880,
      "ĠÃ²á¹£erÃ©": 5881,
      "Ġhawa": 5882,
      "ices": 5883,
      "try": 5884,
      "79": 5885,
      "Ġnatur": 5886,
      "Ġpi": 5887,
      "ĠFM": 5888,
      "Ġkuu": 5889,
      "ĠMusa": 5890,
      "ĠdÃ¡ra": 5891,
      "Ġmpya": 5892,
      "áīĢáĪ¨": 5893,
      "ĠáĪµáĪŀáī½": 5894,
      "Ġconn": 5895,
      "áīłáīµáĬķ": 5896,
      "Ġ1977": 5897,
      "áīħáĪµáīĥáĪ´": 5898,
      "Itokasi": 5899,
      "ĠLugha": 5900,
      "Ġdiffer": 5901,
      "bÃłdÃłn": 5902,
      "ĠBas": 5903,
      "pÃ¹": 5904,
      "áĬķáĮİ": 5905,
      "ĠnÃ¬": 5906,
      "Ġport": 5907,
      "ĠáĬ¨áĭĪ": 5908,
      "entomon": 5909,
      "ayansi": 5910,
      "áīĢáĮ¥": 5911,
      "ÃŃnÃŃ": 5912,
      "Ġáīłáī°áĪĪ": 5913,
      "Ġáĭ«áĪĪáĭįáĬķ": 5914,
      "ĠÆ´": 5915,
      "âĢĶ": 5916,
      "Ġincluding": 5917,
      "ieu": 5918,
      "oju": 5919,
      "=\"": 5920,
      "Ġmemb": 5921,
      "áĪĿáī¥": 5922,
      "áĭ°áĬķ": 5923,
      "áĮĪáĪ«": 5924,
      "ĠáĪĿáĭķáĪ«áī¥": 5925,
      "áĭ²áĭ®": 5926,
      "ĠáīµáĪŃ": 5927,
      "ĠáīµáĪĿáĪħáĪŃ": 5928,
      "à¤ķ": 5929,
      "ĠáĪĺáĪ°áĪ¨áīµ": 5930,
      "áĪµáĪĪáĭļáĪħ": 5931,
      "ÃºsÃ¹": 5932,
      "ella": 5933,
      "ukumbu": 5934,
      "ĠAlexander": 5935,
      "ĠÃłgbÃ©lÃ©wÃ²": 5936,
      "ged": 5937,
      "Ðµ": 5938,
      "Ġ1969": 5939,
      "voir": 5940,
      "dá»įÌģ": 5941,
      "áĪĿáįĴ": 5942,
      "ĠMiji": 5943,
      "ĠNuwa": 5944,
      "áĪĽáĪ½": 5945,
      "ĠIl": 5946,
      "Ġáĭ¨áĪ®": 5947,
      "Ġiá¹£": 5948,
      "Ġsaur": 5949,
      "ĠáĬĲáĮĪáĪł": 5950,
      "38": 5951,
      "pro": 5952,
      "Ġnou": 5953,
      "Ġcoun": 5954,
      "Kuna": 5955,
      "rom": 5956,
      "unda": 5957,
      "ĠNor": 5958,
      "hairi": 5959,
      "âĢľ": 5960,
      "Ġreli": 5961,
      "rise": 5962,
      "ĠAbubakar": 5963,
      "Ġkáº¹ta": 5964,
      "Ġlitta": 5965,
      "Ġtarihin": 5966,
      "Ġtur": 5967,
      "ĠMap": 5968,
      "Ġáĭ¨áĪ´": 5969,
      "áĪ°áīµ": 5970,
      "áĬ¥áĬĲáĭļáĪħ": 5971,
      "Ġthen": 5972,
      "Ġáī°áĪ«áĪ«": 5973,
      "ball": 5974,
      "ĠAlÃ¡": 5975,
      "Ġtsawon": 5976,
      "gaj": 5977,
      "Ġ1962": 5978,
      "ling": 5979,
      "sÃł": 5980,
      "Ġgoma": 5981,
      "ĠnÃŃtorÃŃ": 5982,
      "ĠJana": 5983,
      "ĠUmoja": 5984,
      "ĠáĬŃáĪŃáĪµáī²áĭ«": 5985,
      "ĠáĮĭáĪ«": 5986,
      "anyika": 5987,
      "ÃłÃłyÃ¨": 5988,
      "ict": 5989,
      "ube": 5990,
      "Ġforme": 5991,
      "Ġ1964": 5992,
      "Ġede": 5993,
      "Ġtattalin": 5994,
      "Ġmil": 5995,
      "erc": 5996,
      "ĠGar": 5997,
      "Ġtofauti": 5998,
      "ĠalÃłÃłyÃ¨": 5999,
      "warar": 6000,
      "gbÃ¡yÃ©": 6001,
      "istoire": 6002,
      "Ġlabarai": 6003,
      "Ġáĭ¨áĪĪáĪĿ": 6004,
      "hip": 6005,
      "Ġáį©": 6006,
      "ĠCat": 6007,
      "ĠáĭŃáĭŀ": 6008,
      "ĠáĮĪáĮ½": 6009,
      "Ġ1972": 6010,
      "áĪķáįĪáīµ": 6011,
      "ĠáįĪáĪŃáĭĸáĬķ": 6012,
      "74": 6013,
      "Manazarta": 6014,
      "Wakati": 6015,
      "via": 6016,
      "ĠaprÃ¨s": 6017,
      "apá»įÌĢ": 6018,
      "ourt": 6019,
      "Ġkabisa": 6020,
      "Ġshirye": 6021,
      "ĠpÃłtÃłkÃ¬": 6022,
      "Ġbakwai": 6023,
      "ĠOpen": 6024,
      "hÃłn": 6025,
      "wá»įÌĢn": 6026,
      "ĠáĬĽ": 6027,
      "ĠAgba": 6028,
      "áĭ°áĪµ": 6029,
      "umla": 6030,
      "ayen": 6031,
      "ingia": 6032,
      "áĭ³áĭµ": 6033,
      "ĠáĪµáĪĭ": 6034,
      "ĠáĭįáĪĢ": 6035,
      "ifuata": 6036,
      "finai": 6037,
      "ĠáĭķáĪĪáī°": 6038,
      "ĠáįįáĪ¬": 6039,
      "ministr": 6040,
      "áĬ¥áĬķáĭ²": 6041,
      "chaguzi": 6042,
      "yÃłwÃ³": 6043,
      "á»ĮÌĢ": 6044,
      "Ġdepuis": 6045,
      "Ġdubu": 6046,
      "Ġkumb": 6047,
      "uses": 6048,
      "Â»)": 6049,
      "ĠkÃ¬": 6050,
      "isation": 6051,
      "Ġwurin": 6052,
      "gbáº¹": 6053,
      "otes": 6054,
      "Ġbabbar": 6055,
      "TA": 6056,
      "Ġáĭ¨áĬ¨": 6057,
      "ĠAth": 6058,
      "Ġáĭ¨áĪ±": 6059,
      "Ġ--": 6060,
      "áĭĿáĪĿ": 6061,
      "ĬáĭľáĪĿ": 6062,
      "áĮłáĪĪ": 6063,
      "áĬķáĮĮ": 6064,
      "áī¥áĪŃáĪĥ": 6065,
      "ĠáĬłáĪīáīµ": 6066,
      "88": 6067,
      "Ġkung": 6068,
      "ĠAj": 6069,
      "Ġdec": 6070,
      "áº¹ÌĢyáº¹": 6071,
      "ĠLove": 6072,
      "ĠÃ¬bÃŃláº¹ÌĢ": 6073,
      "ney": 6074,
      "ues": 6075,
      "oly": 6076,
      "55": 6077,
      "Mji": 6078,
      "áĬ£": 6079,
      "áĪĺáĬĵ": 6080,
      "áīłáĬĭáĪĭ": 6081,
      "ĠBraz": 6082,
      "áĬ«áĬ¤áĪį": 6083,
      "ĠáĪįáĮģ": 6084,
      "áĬĽáĭįáĪĿ": 6085,
      "Ġáī¢áĭ«": 6086,
      "ĠAbuja": 6087,
      "Ø¯": 6088,
      "cept": 6089,
      "ĠAustralia": 6090,
      "yu": 6091,
      "Ġkale": 6092,
      "Ġmuda": 6093,
      "unk": 6094,
      "ĠMaka": 6095,
      "Ġyo": 6096,
      "Ġalb": 6097,
      "Ġmuhimu": 6098,
      "emble": 6099,
      "Ġhankali": 6100,
      "Ġmwanasiasa": 6101,
      "Ġpoint": 6102,
      "Ġáĭ¨áīł": 6103,
      "Ġáĭ¨áĮĭ": 6104,
      "ĠMoh": 6105,
      "Ġrem": 6106,
      "ĠáĭŃáĪĺ": 6107,
      "ĠEle": 6108,
      "ĠáĭįáĪĥ": 6109,
      "ĠáīłáĪĺáĪĨáĬķ": 6110,
      "áĪ²áĭ«": 6111,
      "ĠdÃł": 6112,
      "Ġgas": 6113,
      "Ġtayi": 6114,
      "ĠFilm": 6115,
      "ek": 6116,
      "view": 6117,
      "ĠSci": 6118,
      "Ġdesign": 6119,
      "ĠGuinea": 6120,
      "Mar": 6121,
      "Wak": 6122,
      "káº¹Ìģ": 6123,
      "Ġmik": 6124,
      "unis": 6125,
      "ĠáĪĺáĮį": 6126,
      "ĠáĬ¨áĪĿ": 6127,
      "Ġáī°áĮĪ": 6128,
      "ĠWh": 6129,
      "ĠJuli": 6130,
      "ĠFin": 6131,
      "Ġáĭ«áĭĺ": 6132,
      "ĠáīłáĬ¤": 6133,
      "Ġáī£áĪķáĪŃ": 6134,
      "Ġáĭ¨áĬłáĭ¨áĪŃ": 6135,
      "áīĤáĭ«": 6136,
      "Ġayyukan": 6137,
      "áī¨áĪŃáĪ²áī²": 6138,
      "pedia": 6139,
      "unic": 6140,
      "áĮłáīµ": 6141,
      "Ġaina": 6142,
      "ĠAla": 6143,
      "ĠzaÉĵ": 6144,
      "Ġ1963": 6145,
      "Ġá»ĮdÃºn": 6146,
      "las": 6147,
      "áįįáĬķ": 6148,
      "ĠáĪĪáĪļ": 6149,
      "áĬŀáī¹": 6150,
      "cÃ©": 6151,
      "Ġláº¹Ìģ": 6152,
      "ĠCha": 6153,
      "ĠÃ¬l": 6154,
      "Ġ1961": 6155,
      "2007": 6156,
      "ennes": 6157,
      "ĠWakristo": 6158,
      "Ġáīª": 6159,
      "amai": 6160,
      "ĠGreek": 6161,
      "jet": 6162,
      "sÃ³": 6163,
      "ishin": 6164,
      "áĭ«áĪľ": 6165,
      "ĠMont": 6166,
      "Ġdeath": 6167,
      "ĠMayu": 6168,
      "Ġgwamnati": 6169,
      "ĠTV": 6170,
      "ĠEk": 6171,
      "ariya": 6172,
      "ĠÃīt": 6173,
      "Ġgra": 6174,
      "âĢ¹": 6175,
      "Ġrefer": 6176,
      "ĠolÃ³á¹£Ã¨lÃº": 6177,
      "Ġmilima": 6178,
      "ká»įÌĢwÃ©": 6179,
      "Ġkimanin": 6180,
      "Ġá»įÌĢpá»įÌĢlá»įpá»įÌĢ": 6181,
      "ĠáĮĥ": 6182,
      "ĠáĬłáĭĭ": 6183,
      "Ġins": 6184,
      "Ġáī°áĮ½": 6185,
      "ĠáīłáĪĭ": 6186,
      "ĠáĪ²áĪį": 6187,
      "ĠáĪĿáĬķáĮĬáĭľáĪĿ": 6188,
      "ĠáĬłáĪ«áīµ": 6189,
      "ĠdÃº": 6190,
      "Ġprocess": 6191,
      "zing": 6192,
      "ird": 6193,
      "odes": 6194,
      "wili": 6195,
      "ĠáīĦ": 6196,
      "Ġnasara": 6197,
      "Ġsour": 6198,
      "áĭŃáĪģ": 6199,
      "Ġhili": 6200,
      "ĠRÃ©": 6201,
      "áĪīáĬķ": 6202,
      "Ġkasashen": 6203,
      "áī¡áĬķ": 6204,
      "Ġmilioni": 6205,
      "himman": 6206,
      "áĬ¨áī°áĪĽáĭį": 6207,
      "ĠáĪłáĪ«áĭĬáīµ": 6208,
      "AC": 6209,
      "pata": 6210,
      "Ġsame": 6211,
      "ĠIf": 6212,
      "Ġila": 6213,
      "ĠGeorg": 6214,
      "ual": 6215,
      "wÃ¹": 6216,
      "ĠAwá»įn": 6217,
      "Ġwo": 6218,
      "Ġidan": 6219,
      "ĠTurai": 6220,
      "73": 6221,
      "áī¥áĬĽ": 6222,
      "áīłáĬłáĪ": 6223,
      "Ġáī°áĬŃáĪį": 6224,
      "ĠGen": 6225,
      "opa": 6226,
      "Ġany": 6227,
      "ĠáĬłáĪįáī°": 6228,
      "Ġkirk": 6229,
      "ĠáĪĺáĮ»áĪķáįįáīµ": 6230,
      "daban": 6231,
      "ĠDo": 6232,
      "Ġdescri": 6233,
      "Ġjusqu": 6234,
      "Ġlife": 6235,
      "row": 6236,
      "ĠYoh": 6237,
      "ES": 6238,
      "áĬķáī¥": 6239,
      "Ġáĭ¨áįĬ": 6240,
      "áĪªáīĥ": 6241,
      "Ġip": 6242,
      "ĠáĭĪáĮ¥": 6243,
      "ĠDen": 6244,
      "ĠáĪ°áĬĲ": 6245,
      "ĠáĪĬáīĥ": 6246,
      "ĠáīĨáĭŃ": 6247,
      "áĬķáĮīáĪ¥": 6248,
      "áĪįáĪµáįįáĬĵ": 6249,
      "Ġconstitu": 6250,
      "Ġáįªáį»áį": 6251,
      "áĪĨáĬĸáĪĿ": 6252,
      "alli": 6253,
      "Ġref": 6254,
      "ĠMaris": 6255,
      "eriod": 6256,
      "atre": 6257,
      "aso": 6258,
      "ĠowÃ³": 6259,
      "ĠMos": 6260,
      "ĠGÃ³mÃ¬nÃł": 6261,
      "odo": 6262,
      "ateurs": 6263,
      "Ã¡Ã¬sÃŃ": 6264,
      "áĬķáīĢ": 6265,
      "ator": 6266,
      "ĠSer": 6267,
      "áĪªáĬ®áī½": 6268,
      "ĠáĭŃáīĨ": 6269,
      "ĠáĮĮáī³": 6270,
      "ĠáĮĬáĭ®áĪŃáĮĬáĪµ": 6271,
      "95": 6272,
      "Ġkij": 6273,
      "Ġcr": 6274,
      "ikan": 6275,
      "depend": 6276,
      "ĠIbrahim": 6277,
      "ĠapÃ¡": 6278,
      "ĠÆ³": 6279,
      "dÃŃnlÃ³gÃºn": 6280,
      "ands": 6281,
      "gá»įÌģ": 6282,
      "yst": 6283,
      "Ġsal": 6284,
      "Ġmch": 6285,
      "ĠApp": 6286,
      "áĪĪáīĢ": 6287,
      "irgin": 6288,
      "ĠáĬĲáĮ¥": 6289,
      "áĪĽáĭįáĭ«áĬķ": 6290,
      "ĠIjoba": 6291,
      "ĠáįĮ": 6292,
      "Ġmaana": 6293,
      "áī¸áĭī": 6294,
      "anne": 6295,
      "áīģáīµ": 6296,
      "ĠáĪĬáīĢ": 6297,
      "ĠáĬłáĪĺáī³áīµ": 6298,
      "áī·áĬķ": 6299,
      "áĭŀáī½": 6300,
      "ĠáĭŃáĮĪáĬĽáĪī": 6301,
      "72": 6302,
      "::": 6303,
      "ple": 6304,
      "abili": 6305,
      "ĠBan": 6306,
      "Ġthrough": 6307,
      "nÃ©": 6308,
      "ĠKh": 6309,
      "adhim": 6310,
      "uto": 6311,
      "edi": 6312,
      "ĠWatu": 6313,
      "arren": 6314,
      "Ġtradition": 6315,
      "Ġkumbukumbu": 6316,
      "áĪĺáĮ¥": 6317,
      "áĪ¨áĪŃ": 6318,
      "abab": 6319,
      "ayÃ©": 6320,
      "ĠáīłáĪĢ": 6321,
      "áĬ«áĪĦ": 6322,
      "ĠRiver": 6323,
      "áĪĬáĬķ": 6324,
      "áĬķáĮįáĪį": 6325,
      "ĠáĮĪáĭ¥": 6326,
      "ĠáĪĺáĬķáĮįáĪ¥áī³áīµ": 6327,
      "Ġáĭ¨áīĢáĭµáĪŀ": 6328,
      "orÃŃ": 6329,
      "Ġ1968": 6330,
      "2015": 6331,
      "Ġsakand": 6332,
      "mai": 6333,
      "ĠAfr": 6334,
      "Ġ60": 6335,
      "Ġappe": 6336,
      "ĠTo": 6337,
      "áĬĴáĪįáĬŃ": 6338,
      "áįĬáĭ«": 6339,
      "Ġmwisho": 6340,
      "Ġáĭ¨áĪļáĮĪáĬĿáīłáīµ": 6341,
      "áĭŃáĪħáĪĿ": 6342,
      "Ġlilikuwa": 6343,
      "cal": 6344,
      "Ġ(;": 6345,
      "64": 6346,
      "Ġans": 6347,
      "Ġdest": 6348,
      "Ġmapo": 6349,
      "ĠÆĻid": 6350,
      "Ġsune": 6351,
      "Ġcommon": 6352,
      "Ġsupport": 6353,
      "ĠáĬĥ": 6354,
      "ĠáĬ¥áĬ©áĪį": 6355,
      "ĠáĬłáĭĺ": 6356,
      "ĠáįĴ": 6357,
      "ĠPak": 6358,
      "ĠáĪĨáĬĳ": 6359,
      "Ġáĭķáĭµ": 6360,
      "ĠáīłáĬłáĪģáĬĳ": 6361,
      "Awon": 6362,
      "Ġmirefu": 6363,
      "alÃ¡Ã¬sÃŃ": 6364,
      "Ġhuu": 6365,
      "ĠKij": 6366,
      "andard": 6367,
      "abijin": 6368,
      "Ġwadda": 6369,
      "Ġajili": 6370,
      "Ġnafasi": 6371,
      "ances": 6372,
      "áįı": 6373,
      "ĠáīĤ": 6374,
      "áĬĲáĮį": 6375,
      "ĠáĬ¨áī£": 6376,
      "Ġjin": 6377,
      "Ġinayo": 6378,
      "Ġáī°áĮ«": 6379,
      "Ġáĭ¨áĪģ": 6380,
      "ĠÃ¬f": 6381,
      "ÆĻi": 6382,
      "ĠâĢ¹": 6383,
      "ĠáīłáĪĺáī£áĪį": 6384,
      "Ġsyn": 6385,
      "ĠIndiya": 6386,
      "NA": 6387,
      "ria": 6388,
      "estiv": 6389,
      "amia": 6390,
      "Ġfac": 6391,
      "araka": 6392,
      "Ge": 6393,
      "Ġur": 6394,
      "limu": 6395,
      "abin": 6396,
      "ĠBl": 6397,
      "Ġorgan": 6398,
      "obe": 6399,
      "ĠArt": 6400,
      "bele": 6401,
      ")áį¢": 6402,
      "Ġáĭ¨áĮĢáĪŃáĪĺáĬķ": 6403,
      "ĠáĬ¨áĮį": 6404,
      "áĪĽáī¸áĭį": 6405,
      "ĠáīłáĪŀ": 6406,
      "áĭ¨áĪ©": 6407,
      "ĠáĬ¥áĬķáīħáĪµáīĥáĪ´": 6408,
      "ĠFab": 6409,
      "Ġmaf": 6410,
      "Ġáī¥áĪĶáĪŃ": 6411,
      "ĠáĬŃáĪĪáī¥": 6412,
      "ĠáĮĪáī¥áĪ¨": 6413,
      "Ġbien": 6414,
      "áĭ°áĪŃáĮį": 6415,
      "Ġáĭ¨áī°áī£áĪĪ": 6416,
      "ĠáĬłáīĢáįį": 6417,
      "Ġmkoa": 6418,
      "Ġá»įba": 6419,
      "Ġwalikuwa": 6420,
      "ĠJoseph": 6421,
      "Ġmengine": 6422,
      "ĠTanbihi": 6423,
      "Ġmapokeo": 6424,
      "Papa": 6425,
      "ison": 6426,
      "ĠNo": 6427,
      "ĠInstit": 6428,
      "Ġact": 6429,
      "darÃŃ": 6430,
      "áĭ·": 6431,
      "Ġaff": 6432,
      "Ġcika": 6433,
      "ĠáĬ¥áĪĿ": 6434,
      "Ġáĭ¨áĪļáĪ°áĪ«": 6435,
      "ĠáĪĽáĬħ": 6436,
      "áĭ±áīµ": 6437,
      "Ġhizi": 6438,
      "Ġáĭ¨áĬĲáĮĪ": 6439,
      "Ġáĭ¨áĬĲáīłáĪ©áīµ": 6440,
      "ĠreprÃ©s": 6441,
      "Ġáĭ¨áĭĵáĪĺáī±": 6442,
      "Ġrayuwar": 6443,
      "Ġpet": 6444,
      "ĠMex": 6445,
      "anth": 6446,
      "Ġbefore": 6447,
      "Ġ1957": 6448,
      "Ġagainst": 6449,
      "esu": 6450,
      "ĠSin": 6451,
      "ĠIV": 6452,
      "gbÃ³": 6453,
      "onekana": 6454,
      "ĠOlÃ³": 6455,
      "Ġmiliyan": 6456,
      "ĠTarayyar": 6457,
      "á¹£áº¹ÌĢláº¹ÌĢ": 6458,
      "fuatana": 6459,
      "ĠFIFA": 6460,
      "Ġli": 6461,
      "ĠáĬłáĬĵ": 6462,
      "ĠáĬłáĮł": 6463,
      "ĠáĪĺáĬ®": 6464,
      "ĠáĪĺáĪ£": 6465,
      "ĠáĬ¨áĮ¥": 6466,
      "ĠBlack": 6467,
      "áĬ¨áĬĵ": 6468,
      "ĠáĪĬáĭ«": 6469,
      "áĮĬáĭ«": 6470,
      "áĮĬáĭľáĭį": 6471,
      "ĠáīµáĬķáĪ½": 6472,
      "ĠáĪºáĪħ": 6473,
      "ĠáĬłáĮĪáĪįáĮįáĪİáīµ": 6474,
      "ĠRobert": 6475,
      "Ġkur": 6476,
      "Ġsoj": 6477,
      "Ġpu": 6478,
      "irÃŃ": 6479,
      "ĠGod": 6480,
      "ĠJi": 6481,
      "á¹£Ã²": 6482,
      "Ġegbe": 6483,
      "Ġbaadaye": 6484,
      "ĠáĬĲáĮĪáĪ¥áīµ": 6485,
      "Ġ1945": 6486,
      "ografia": 6487,
      "tiques": 6488,
      "ĠQue": 6489,
      "Ġtrois": 6490,
      "ĠKingdom": 6491,
      "Awá»įn": 6492,
      "vis": 6493,
      "Ġdoc": 6494,
      "ĠkÃł": 6495,
      "Ġcre": 6496,
      "áĬĵáĮĪáĪŃ": 6497,
      "áĭŃáĪį": 6498,
      "ĠáĬ¨áĪµ": 6499,
      "áĪ³áĪ°": 6500,
      "ĠáĪµáĬķ": 6501,
      "Ġáĭ«áĪĭáī¸áĭį": 6502,
      "áĪ¥áĪ«": 6503,
      "assan": 6504,
      "Ġ1952": 6505,
      "sÃŃtÃ¬": 6506,
      "Ġwhile": 6507,
      "ĠáīĥáĪĭáīµ": 6508,
      "ĠSah": 6509,
      "resent": 6510,
      "Ġx": 6511,
      "Ġmov": 6512,
      "uniyar": 6513,
      "oks": 6514,
      "Ġ1959": 6515,
      "----": 6516,
      "amani": 6517,
      "Ġdem": 6518,
      "ĠGold": 6519,
      "ĠáĬłáĪµáįĪ": 6520,
      "engo": 6521,
      "ĠáĮĢáĪŃáĪĺáĬķ": 6522,
      "Ġáī°áĪĺáĪ³áĪ³áĭŃ": 6523,
      "ĠáĬłáī£áĪĭáīµ": 6524,
      "Ġáĭ¨áĪĨáĬĲáĭį": 6525,
      "Ġinflu": 6526,
      "áĬ®áĬĸáĪļ": 6527,
      "mÃ²": 6528,
      "wun": 6529,
      "Ġtalla": 6530,
      "Ġboth": 6531,
      "Ġjeshi": 6532,
      "ĠÃ¬dÃ¡": 6533,
      "Ġakoko": 6534,
      "hol": 6535,
      "áĪįáĮĭ": 6536,
      "ĠáĬłáĮį": 6537,
      "ĠÃłÃł": 6538,
      "Ġiwe": 6539,
      "ull": 6540,
      "ester": 6541,
      "kofu": 6542,
      "ĠÃĮbÃłdÃłn": 6543,
      "ĠáĪĪáĪĽáĪµ": 6544,
      "áī£áī¢áĪİáĬķ": 6545,
      "Ġkáº¹rin": 6546,
      "Ġlog": 6547,
      "unt": 6548,
      "ĠPers": 6549,
      "ĠZanzibar": 6550,
      "....": 6551,
      "fanya": 6552,
      "Ġkofin": 6553,
      "Ġsm": 6554,
      "ĠlÃ²": 6555,
      "akan": 6556,
      "Ġwengine": 6557,
      "gajiya": 6558,
      "áĮİáī½": 6559,
      "ĠáĬ¥áĪ«áĪ±": 6560,
      "usin": 6561,
      "omme": 6562,
      "Ġjo": 6563,
      "ĠPal": 6564,
      "Ġáĭ¨áĬ¡": 6565,
      "ĠáĭĵáĭŃáĬĲáīµ": 6566,
      "Ġáĭ¨áĬłáĭįáĪ®áįĵ": 6567,
      "ĠáĮĢáĪĺáĪ¨": 6568,
      "ĠáĬłáĪĿáī£": 6569,
      "ĠáĬŃáįįáĪĭáĮĪáĪŃ": 6570,
      "Ce": 6571,
      "Lakini": 6572,
      "gest": 6573,
      "Ġkundi": 6574,
      "asashen": 6575,
      "neo": 6576,
      "by": 6577,
      "Ùĩ": 6578,
      "ĠMs": 6579,
      "ĠMaria": 6580,
      "pindi": 6581,
      "BA": 6582,
      "ket": 6583,
      "Ġáĭ¨áĪ«áĪ±": 6584,
      "ĠáīłáĬ«": 6585,
      "Ġhilo": 6586,
      "áĬĲáĬĽ": 6587,
      "áĭ³áĪª": 6588,
      "ĠáĮįáĭµ": 6589,
      "¢áīµáĭ®áĮµáĭ«áĬķ": 6590,
      "ĠpÃ©ri": 6591,
      "ĠáĪĺáĪįáĬ©": 6592,
      "Ġáī°áĬ¨áī³áĭŃ": 6593,
      "Ġáĭ°áĪ´áīµ": 6594,
      "56": 6595,
      "cer": 6596,
      "jÃ³": 6597,
      "ased": 6598,
      "ĠEmpire": 6599,
      "ace": 6600,
      "gor": 6601,
      "yota": 6602,
      "98": 6603,
      "áĪŃáĬĵ": 6604,
      "lit": 6605,
      "ĠáĮĦ": 6606,
      "áĬĲáĪ£": 6607,
      "áĪĭáĪĭ": 6608,
      "áĬŃáĪŃáĪµáī¶áĪµ": 6609,
      "ĠBu": 6610,
      "Ġáī°áĭ°áĪŃ": 6611,
      "ĠáĪĿáĪħ": 6612,
      "ĠáĪµáĭ«áĪľ": 6613,
      "ĠáĪ°áĪŃ": 6614,
      "hout": 6615,
      "áĪ¯áĪį": 6616,
      "44": 6617,
      "Agbegbe": 6618,
      "iques": 6619,
      "Ġgbe": 6620,
      "ĠPo": 6621,
      "ĠWomen": 6622,
      "Ġvili": 6623,
      "tein": 6624,
      "stitu": 6625,
      "aja": 6626,
      "2016": 6627,
      "ĠkmÂ²": 6628,
      "ĠÆ³an": 6629,
      "gani": 6630,
      "Ġtatu": 6631,
      "ĠKin": 6632,
      "Ġprodu": 6633,
      "kn": 6634,
      "tá»įÌģ": 6635,
      "Ġgre": 6636,
      "Ġzake": 6637,
      "ĠOff": 6638,
      "áĪİáĪµ": 6639,
      "Ġkabila": 6640,
      "ĠUrusi": 6641,
      "Ġlarge": 6642,
      "Ġhistoria": 6643,
      "ĠOlymp": 6644,
      "ĠáīĢáĭŃ": 6645,
      "Ġmonde": 6646,
      "esab": 6647,
      "Ġhudu": 6648,
      "Ġthem": 6649,
      "Ġnipa": 6650,
      "ĠRoyal": 6651,
      "ĠrÃ©s": 6652,
      "ĠYoruba": 6653,
      "Ġyear": 6654,
      "áº¹ÌĢáº¹ÌģsÃ¬": 6655,
      "ĠYohane": 6656,
      "PC": 6657,
      "Ġiki": 6658,
      "áĬķáĮ»": 6659,
      "ering": 6660,
      "Ġcult": 6661,
      "áĮįáĬĵ": 6662,
      "ĠKai": 6663,
      "áī³áĪĿ": 6664,
      "ĠAlf": 6665,
      "ĠáĮ£áĪį": 6666,
      "áĪªáī³áĬķáĭ«": 6667,
      "Elle": 6668,
      "Ġkina": 6669,
      "iles": 6670,
      "ÃºÃºsÃ¹": 6671,
      "ĠUmar": 6672,
      "Ana": 6673,
      "Ġarea": 6674,
      "ĠIbile": 6675,
      "Ġambako": 6676,
      "Ġmfano": 6677,
      "Ġhakan": 6678,
      "Ġtabb": 6679,
      "ĠHistory": 6680,
      "Ġlangues": 6681,
      "Ġmodern": 6682,
      "Ġpersonn": 6683,
      "gine": 6684,
      "ville": 6685,
      "Ġ+": 6686,
      "Ġáĭ¨áĪį": 6687,
      "ĠáīłáĭŃ": 6688,
      "áĪĪáī±": 6689,
      "ĠáĮ¤": 6690,
      "Ġwu": 6691,
      "eland": 6692,
      "ĠWal": 6693,
      "áĪ°áĪĽ": 6694,
      "Ġáĭ°áī¥": 6695,
      "áīĭáīĭ": 6696,
      "aisari": 6697,
      "ĠAdÃ©": 6698,
      "Ġstruct": 6699,
      "Ġáĭ¨áĪħáĭĿáī¥": 6700,
      "ĠMagharibi": 6701,
      "áįĲáī¥áĪĬáĬŃ": 6702,
      "ĠáĬĽáĭį": 6703,
      "ĠMali": 6704,
      "Ġstat": 6705,
      "2010": 6706,
      "ĠNiger": 6707,
      "Ã©ric": 6708,
      "ĠMw": 6709,
      "Ġjimbo": 6710,
      "ĠWá»įÌģn": 6711,
      "anzisha": 6712,
      "2009": 6713,
      "ĠMkuu": 6714,
      "ĠHukumar": 6715,
      "vy": 6716,
      "enia": 6717,
      "áĭµáĪ¨": 6718,
      "ĠáĪĿáĭķáĪ«": 6719,
      "ĠáĬŃáĪŃ": 6720,
      "Ġáī¤áī¶áī½": 6721,
      "ĠAdam": 6722,
      "Ġáĭ¨áĪĻáĭļáīĥ": 6723,
      "tawala": 6724,
      "Ġasali": 6725,
      "Ġáº¹ÌĢyáº¹": 6726,
      "ĠEnugu": 6727,
      "vient": 6728,
      "ĠBello": 6729,
      "esabiwa": 6730,
      "Ġnational": 6731,
      "ĠSak": 6732,
      "ĠKo": 6733,
      "ombo": 6734,
      "Ã¨ne": 6735,
      "irika": 6736,
      "áĮįáĪĽáĭĬ": 6737,
      "ĠLatin": 6738,
      "áĮĭáĮĪáĪŃ": 6739,
      "ection": 6740,
      "áĬķáĮįáĪ¥áīµ": 6741,
      "áĪİáī¹": 6742,
      "áĪµáīµáĪª": 6743,
      "ĠáĬ¥áĪµáĬ«": 6744,
      "Ġ1958": 6745,
      "Ġáĭ©áĬĴáī¨áĪŃáĪ²áī²": 6746,
      "ĠáĮįáĬķáĬĻáĬĲáīµ": 6747,
      "pond": 6748,
      "Ġ×": 6749,
      "Ġdar": 6750,
      "aje": 6751,
      "ifi": 6752,
      "Ġfamily": 6753,
      "mfuata": 6754,
      "Ġkare": 6755,
      "iláº¹ÌĢ": 6756,
      "ĠSikukuu": 6757,
      "ĠNd": 6758,
      "ĠWam": 6759,
      "imi": 6760,
      "Ġkowa": 6761,
      "Ġagba": 6762,
      "ĠAustria": 6763,
      "áĬŃáĪĿáĬĵ": 6764,
      "ĠáĬ¥áĬķáĭ´áīµ": 6765,
      "Ġele": 6766,
      "ĠáĭĭáĮĭ": 6767,
      "Ġáī°áĪĺáĪį": 6768,
      "Ġtaken": 6769,
      "ĠáĬ¨áĭļáĭ«áĪĿ": 6770,
      "ĠáĪģáĪĪáī°áĬĽ": 6771,
      "Cette": 6772,
      "Jina": 6773,
      "Vi": 6774,
      "kur": 6775,
      "rist": 6776,
      "ĠPa": 6777,
      "ĠPop": 6778,
      "ĠRed": 6779,
      "idar": 6780,
      "Ġelectr": 6781,
      "alaam": 6782,
      "Ġhuadhim": 6783,
      "ĠIsra": 6784,
      "Ġmnamo": 6785,
      "fois": 6786,
      "val": 6787,
      "ĠCong": 6788,
      "ĠDemocr": 6789,
      "bon": 6790,
      "tÃ¡": 6791,
      "Ġgwa": 6792,
      "Ġgaban": 6793,
      "ĠáīłáĪ¥": 6794,
      "olf": 6795,
      "hael": 6796,
      "Ġmahali": 6797,
      "ĠtÃŃtÃŃ": 6798,
      "áĮłáī¥": 6799,
      "áĮ»áįĪ": 6800,
      "áĭ°áī¥áĪ¨": 6801,
      "Ġmoins": 6802,
      "áįĸáĪŃáīµ": 6803,
      "Ġabinci": 6804,
      "ĠhaÉĹa": 6805,
      "Ġhannu": 6806,
      "Au": 6807,
      "con": 6808,
      "ĠCali": 6809,
      "áī¢áĭŃ": 6810,
      "Ġstud": 6811,
      "ĠChristian": 6812,
      "65": 6813,
      "ving": 6814,
      "ishe": 6815,
      "Ġciv": 6816,
      "Ġbl": 6817,
      "ĠKasa": 6818,
      "ĠlÃ¡báº¹Ìģ": 6819,
      "ĠShug": 6820,
      "ĠÃłká»įÌģlÃ©": 6821,
      "ĠÆĻidayar": 6822,
      "estival": 6823,
      "jan": 6824,
      "áĭ«áīĦ": 6825,
      "ĠáĬłáĬŃ": 6826,
      "áĮ½áĭĭáīµ": 6827,
      "ĠáĮ¥áīłáī¥": 6828,
      "áĪĲáĪ´": 6829,
      "ĠáĮ¨áĪĿáĪ®": 6830,
      "ĠáĬłáĪµáī°áĭ³áĭ°áĮį": 6831,
      "Ġkoloni": 6832,
      "Ġsing": 6833,
      "Ġbikin": 6834,
      "ĠCibiyar": 6835,
      "Ġá»įjá»įÌģalÃ¡Ã¬sÃŃ": 6836,
      "Ġautres": 6837,
      "autres": 6838,
      "ĠBest": 6839,
      "Ġville": 6840,
      "):": 6841,
      "pi": 6842,
      "ĠáīłáĮĭ": 6843,
      "Ġáīł16": 6844,
      "ĠáĬłáī¡": 6845,
      "áĭµáīħ": 6846,
      "ĠáĪĪáĭĪ": 6847,
      "áĮĭáī¢áīµ": 6848,
      "Ġáĭĺáĭį": 6849,
      "áĪ¬áĬķ": 6850,
      "ĠáĮĪáĬĵ": 6851,
      "ĠáĪ¥áĮĭ": 6852,
      "Ġ2021": 6853,
      "Ġayáº¹": 6854,
      "ĠáĬłáĭįáĪ«": 6855,
      "Waliozaliwa": 6856,
      "ĠHotuna": 6857,
      "ĠáįĪáĪ¨áĬķáĪ³áĭŃ": 6858,
      "ĠMakarantar": 6859,
      "ĠNuwamba": 6860,
      "07": 6861,
      "ĠKale": 6862,
      "abaki": 6863,
      "ĠChurch": 6864,
      "ambia": 6865,
      "Å«": 6866,
      "ĠIsa": 6867,
      "agen": 6868,
      "ĠhaÉĹin": 6869,
      "ographie": 6870,
      "á»įÌģá»įÌĢlÃ¹": 6871,
      "zon": 6872,
      "ªáĭ«": 6873,
      "Ġáī²": 6874,
      "Ġnit": 6875,
      "áĪĪáīłáīµ": 6876,
      "ĠáĬĲáįĥ": 6877,
      "ĠáĪĺáĪĭ": 6878,
      "ĠáĪĺáĬĸ": 6879,
      "rique": 6880,
      "áĬĴáīµ": 6881,
      "áįĬáĭİáī½": 6882,
      "ĠáĪļáĬ«áĬ¤áĪį": 6883,
      "ĠáĮ½áĪķáįĪáīµ": 6884,
      "ĠáĬªáĭ³áĬķ": 6885,
      "Ġáīłáī¥áĭĻ": 6886,
      "áīĢáĪĺáĮ«": 6887,
      "ĠáĮłáīħáĪĭáĭŃ": 6888,
      "ĠáĪļáĬĴáĪµáīµáĪŃ": 6889,
      "CC": 6890,
      "chni": 6891,
      "Ġregion": 6892,
      "Ġibile": 6893,
      "ĠgboyÃ¨": 6894,
      "rad": 6895,
      "Ġfour": 6896,
      "ĠyÃłn": 6897,
      "ody": 6898,
      "dian": 6899,
      "Ġsym": 6900,
      "ĠMuhammadu": 6901,
      "áĪ¦": 6902,
      "amakon": 6903,
      "Ġoko": 6904,
      "áĭ°áĪŃáĪµ": 6905,
      "ĠáĪĺáī¥": 6906,
      "ĠáĪĺáĮĢáĪĺáĪªáĭ«": 6907,
      "áĪ«áĭįáĭ«áĬķ": 6908,
      "ĠáĪĿáĬĴáĪįáĬŃ": 6909,
      "á»įÌĢkan": 6910,
      "ĠáĪįáĪĽ": 6911,
      "áī¤áī±": 6912,
      "Ġá»Įjá»įÌģ": 6913,
      "Ġappel": 6914,
      "Ġdid": 6915,
      "Ġvo": 6916,
      "ack": 6917,
      "ĠtÃ¬": 6918,
      "ĠKal": 6919,
      "omina": 6920,
      "agn": 6921,
      "jÃ¡de": 6922,
      "light": 6923,
      "ĠBorno": 6924,
      "41": 6925,
      "áĪŃáī³": 6926,
      "Ġcould": 6927,
      "áī°áĬĵ": 6928,
      "áĭ«áĭįáĭ«áĬķ": 6929,
      "áĪĪáĪį": 6930,
      "áĪ³áĭį": 6931,
      "áĮ¥áĬĲáīµ": 6932,
      "ĠáĭĵáĪĭáĪĽ": 6933,
      "Ġáĭ¨áĪĺáĮ£": 6934,
      "ĠáĪĬáĪĨáĬķ": 6935,
      "Ġáĭķáĭį": 6936,
      "áĪµáī°áĪŃ": 6937,
      "ĠáĪľáĭ³": 6938,
      "58": 6939,
      "yle": 6940,
      "urt": 6941,
      "urop": 6942,
      "hiyar": 6943,
      "68": 6944,
      "ĠMary": 6945,
      "viron": 6946,
      "ĠDelta": 6947,
      "sá»į": 6948,
      "tro": 6949,
      "áĪĿáīłáĪŃ": 6950,
      "Ġdawo": 6951,
      "áĪĺáĬĵáĭĬ": 6952,
      "ĠKÃ¡": 6953,
      "ĠIk": 6954,
      "ĠPres": 6955,
      "ĠáĭĪáĭĺ": 6956,
      "Ġáĭ«áĭį": 6957,
      "áīłáĪ®": 6958,
      "áĬķáĭµáĪµáĬĵ": 6959,
      "áĬķáĮįáĪµáīµ": 6960,
      "áĮĥáĭĿáĪĽáī½": 6961,
      "veral": 6962,
      "ĠáĮ¸áĪĲáįĬ": 6963,
      "ĠwÃ¡yÃ©": 6964,
      "áĪµáī³áĬķ": 6965,
      "ĠáīłáĪŃáĬ«áī³": 6966,
      "ĠáĬłáĪµáī°áĭ³áĭ°áĪŃ": 6967,
      "uthor": 6968,
      "ĠLouis": 6969,
      "61": 6970,
      "Láº¹ÌģyÃ¬n": 6971,
      "hÃ¬n": 6972,
      "ĠgÃ©": 6973,
      "Ġjinsi": 6974,
      "ĠDunia": 6975,
      "ĠÃ¬rÃ²yÃ¬n": 6976,
      "ĠlÃ³rÃŃláº¹ÌĢ": 6977,
      "Ġká»įÌģká»įÌģ": 6978,
      "Ġgege": 6979,
      "áĬ»": 6980,
      "Ġcat": 6981,
      "kad": 6982,
      "Ġfili": 6983,
      "elli": 6984,
      "áĮ»áįį": 6985,
      "ĠáĬ¢áĬķ": 6986,
      "ĠAss": 6987,
      "ype": 6988,
      "Ã¬má»įÌĢ": 6989,
      "ojin": 6990,
      "oku": 6991,
      "Ġkanta": 6992,
      "jáº¹s": 6993,
      "Ġderni": 6994,
      "Ġtaimaka": 6995,
      "ĠTer": 6996,
      "ĠJo": 6997,
      "ĠRom": 6998,
      "Ġval": 6999,
      "ĠthÃ©": 7000,
      "ovi": 7001,
      "ension": 7002,
      "áĮ©": 7003,
      "Ġáīł19": 7004,
      "uring": 7005,
      "áĪ¨áįĪ": 7006,
      "áĮįáĬĺáīµ": 7007,
      "Ġtaf": 7008,
      "áĭ¨áĪµ": 7009,
      "ĠLim": 7010,
      "áĬ«áĬķ": 7011,
      "Ġmaisha": 7012,
      "áĮ£áĪª": 7013,
      "Ġ1956": 7014,
      "ĠáĬªáĪİ": 7015,
      "ĠáĪĨáĬĸáĪĿ": 7016,
      "comp": 7017,
      "ĠáĬłáĭµáĪŃáĮİ": 7018,
      "aimakin": 7019,
      "ĠáĬĹáĪª": 7020,
      "John": 7021,
      "cul": 7022,
      "iving": 7023,
      "ĠUnion": 7024,
      "Ġtiti": 7025,
      "Ġmer": 7026,
      "andan": 7027,
      "ables": 7028,
      "ĠyÃł": 7029,
      "ording": 7030,
      "ĠOrÃŃláº¹ÌĢ": 7031,
      "ĠáĬ¦áĪŃ": 7032,
      "ĠSing": 7033,
      "ĠKig": 7034,
      "ĠáĭŃáįĪ": 7035,
      "Ġáĭ¨áĪļáī£áĪį": 7036,
      "áĭ²áĪ±": 7037,
      "Ġuntil": 7038,
      "áĪĬáĭ«áĬķ": 7039,
      "áī¦áĪŃ": 7040,
      "áįīáīµ": 7041,
      "ĠáĪŃáĭķ": 7042,
      "ĠáĬłáĪĽáĬ«": 7043,
      "Ġáīłáī°áĪĪáĭŃáĪĿ": 7044,
      "43": 7045,
      "ĠSu": 7046,
      "Ã¬wÃ©": 7047,
      "atia": 7048,
      "Ġeyi": 7049,
      "ĠKaramar": 7050,
      "cs": 7051,
      "Ġking": 7052,
      "Ġrest": 7053,
      "ĠTai": 7054,
      "áĪĲáĭŃ": 7055,
      "Ġtransl": 7056,
      "03": 7057,
      "Ġpor": 7058,
      "Ġiá¹£áº¹": 7059,
      "ĠáĭĪáĮ£": 7060,
      "quent": 7061,
      "ĠáĬ¥áĬķáĭµ": 7062,
      "istry": 7063,
      "ĠáīłáĪĺáĪµ": 7064,
      "Ġwatakatifu": 7065,
      "áĮ¨áīµ": 7066,
      "Ġ1940": 7067,
      "ĠáĪĻáĭļáīĥ": 7068,
      "ĠáĮĪáĬķáĭĺáī¥": 7069,
      "áīħáĭ«áĬĸáĪµ": 7070,
      "OR": 7071,
      "geme": 7072,
      "Ġmor": 7073,
      "Ġband": 7074,
      "irs": 7075,
      "ĠUm": 7076,
      "Ġpartir": 7077,
      "ĠBrazil": 7078,
      "aire": 7079,
      "hara": 7080,
      "sÃ¡": 7081,
      "Ġkaf": 7082,
      "Ġcro": 7083,
      "ĠIgb": 7084,
      "tress": 7085,
      "Ġatta": 7086,
      "Ġkawo": 7087,
      "Ġkimataifa": 7088,
      "ĠThomas": 7089,
      "Ġrawar": 7090,
      "Ġcheo": 7091,
      "Ġkok": 7092,
      "onia": 7093,
      "áĭ«áīµ": 7094,
      "áĪ«áĪª": 7095,
      "ederal": 7096,
      "imba": 7097,
      "ĠHigh": 7098,
      "áīĥáĪī": 7099,
      "Ġáĭ°áĮĭ": 7100,
      "2014": 7101,
      "ĠáĪģáĪīáĪĿ": 7102,
      "áį²áį±áį»áį¶áį": 7103,
      "áĪĽáĭŃáĪµáĮ¥": 7104,
      "Ġcontinu": 7105,
      "ĠáĪļáĬĴáĪµáī´": 7106,
      "Ġsouvent": 7107,
      "ĠáĭµáĬķáĮĭáĭŃ": 7108,
      "%)": 7109,
      "julo": 7110,
      "Ġseries": 7111,
      "ĠoyÃ¨": 7112,
      "ĠWais": 7113,
      "tres": 7114,
      "Ġ1930": 7115,
      "Ġpermet": 7116,
      "Ġmillion": 7117,
      "97": 7118,
      "tal": 7119,
      "Ġ),": 7120,
      "Ġperiod": 7121,
      "ĠInstitute": 7122,
      "Ġnasar": 7123,
      "áĪĿáĪĮ": 7124,
      "áĪįáĪĿáĬĵ": 7125,
      "ĠáĬ¥áĪŃáĪ±": 7126,
      "áĭ°áĮĪ": 7127,
      "ĠáĪĺáī¥áīµ": 7128,
      "áĮĭáĪª": 7129,
      "áī²áīµ": 7130,
      "ĠVer": 7131,
      "áĬĶáīµ": 7132,
      "Ġaddinin": 7133,
      "ĠáĪķáĭŃáĭĪáīµ": 7134,
      "ological": 7135,
      "Ġkusan": 7136,
      "Ġhaih": 7137,
      "ĠRichard": 7138,
      "unifÃ¡sÃŃtÃ¬": 7139,
      "ĠMy": 7140,
      "angwa": 7141,
      "Ġtemps": 7142,
      "tary": 7143,
      "yer": 7144,
      "ĠÃ¬p": 7145,
      "Ġexemple": 7146,
      "2008": 7147,
      "ternet": 7148,
      "Ġmuziki": 7149,
      "Ġjamii": 7150,
      "Ġkawai": 7151,
      "Ġgargajiya": 7152,
      "ĠIlimi": 7153,
      "Ġndi": 7154,
      "áĪĪáĪ°": 7155,
      "áī³áĪªáĬŃ": 7156,
      "áī£áī±": 7157,
      "áĮ¥áĪ¨áīµ": 7158,
      "áĭĭáĪŃáĭ«": 7159,
      "áĭĿáĬĵ": 7160,
      "ble": 7161,
      "Ġhistori": 7162,
      "ĠKif": 7163,
      "ĠjÃ©": 7164,
      "ĠOlÃº": 7165,
      "allaka": 7166,
      "Ġmáº¹Ìģta": 7167,
      "ĠMichael": 7168,
      "AR": 7169,
      "ency": 7170,
      "osp": 7171,
      "Ġcertain": 7172,
      "rÃ¹": 7173,
      "áĮĲ": 7174,
      "áĭ°áī¡áī¥": 7175,
      "ĠOf": 7176,
      "ĠáĪµáī´": 7177,
      "áĭļáĭ«áĬķ": 7178,
      "áĮłáĬķ": 7179,
      "Ġkusa": 7180,
      "Ġgwamnan": 7181,
      "ĠPhili": 7182,
      "Ġmaa": 7183,
      "ĠIslam": 7184,
      "LÃ¡": 7185,
      "hudi": 7186,
      "historia": 7187,
      "Ġnation": 7188,
      "Ġrangi": 7189,
      "Ãºpá»įÌĢ": 7190,
      "ĠCO": 7191,
      "Ġami": 7192,
      "poque": 7193,
      "rich": 7194,
      "htm": 7195,
      "ĠGrand": 7196,
      "Î¹": 7197,
      "ĠáĮĵ": 7198,
      "áĪ«áĬĴ": 7199,
      "ĠPoli": 7200,
      "áĪĬáĪµ": 7201,
      "Ġáīłáī°áĪĪáĭ«áĭ©": 7202,
      "ĠáīłáĬłáĭ²áĪµ": 7203,
      "ĠáįįáīħáĪŃ": 7204,
      "ĠáĬłáĪįáįĭ": 7205,
      "Ġáī¤áī°áĬŃáĪŃáĪµáī²áĭ«áĬķ": 7206,
      "ydro": 7207,
      "Ġáĭ¨áįĸáĪĪáī²áĬ«": 7208,
      "ráº¹Ìģ": 7209,
      "uel": 7210,
      "Ø©": 7211,
      "Ġcho": 7212,
      "emo": 7213,
      "ids": 7214,
      "Ġelement": 7215,
      "Ġonimo": 7216,
      "Ġá»Įba": 7217,
      "Ġmarubu": 7218,
      "Ġwenyewe": 7219,
      "ĠdÃ©velopp": 7220,
      "ĠPakistan": 7221,
      "Ġtyp": 7222,
      "umm": 7223,
      "Ġarch": 7224,
      "For": 7225,
      "sin": 7226,
      "ĠáĬĶ": 7227,
      "áĬķáĮĢ": 7228,
      "Ġnde": 7229,
      "Ġáĭ¨áĭķ": 7230,
      "áĭįáĬĵ": 7231,
      "áĬĲáĪµ": 7232,
      "ikisho": 7233,
      "ĠáīłáĪ®": 7234,
      "ĠWilaya": 7235,
      "áĭ¨áĬķ": 7236,
      "áĭ¨áĬ¢áīµáĭ®áĮµáĭ«": 7237,
      "áĬ«áĭµ": 7238,
      "ilishi": 7239,
      "abawa": 7240,
      "Ġyanki": 7241,
      "ĠáĪķáĮį": 7242,
      "Ġáĭ¨áĬĲáīłáĪ©": 7243,
      "áį²áį±áį»áį·áį": 7244,
      "ĠáĭŃáī½áĪĭáĪī": 7245,
      "ophi": 7246,
      "elui": 7247,
      "05": 7248,
      "100": 7249,
      "inter": 7250,
      "áĪĿáĪµ": 7251,
      "ĠÃłgbÃ¡yÃ©": 7252,
      "olowo": 7253,
      "qui": 7254,
      "Ġambapo": 7255,
      "jáº¹sÃ¡ra": 7256,
      "nement": 7257,
      "ints": 7258,
      "assi": 7259,
      "ĠáīłáĭļáĪģ": 7260,
      "alog": 7261,
      "áĬĲáĭĵáĬķ": 7262,
      "ico": 7263,
      "áĪħáĪŃ": 7264,
      "ĠWil": 7265,
      "áīĢáĪĿ": 7266,
      "áĭ®áīµ": 7267,
      "apt": 7268,
      "ĠáīłáĪĺáĮ¨áĪ¨áĪ»": 7269,
      "áī¡áĪŃ": 7270,
      "ĠáĬłáĬķáĭ°": 7271,
      "Ġavant": 7272,
      "ĠáįĬáĭ°": 7273,
      "áĪĺáĪĪáĪµ": 7274,
      "ĠAmerica": 7275,
      "áĮĪáĪĪáĮį": 7276,
      "ĠáĪªáįĲáī¥áĪĬáĬŃ": 7277,
      "ĠáīłáĭĵáĪĪáĪĿ": 7278,
      "ĠáĮłáĪĭ": 7279,
      "gÃ³": 7280,
      "rÃºn": 7281,
      "tÃºn": 7282,
      "ĠÙ": 7283,
      "ĠAkin": 7284,
      "Ġidi": 7285,
      "Ġtour": 7286,
      "ĠAnt": 7287,
      "kwas": 7288,
      "Ġcours": 7289,
      "ussia": 7290,
      "ĠHenry": 7291,
      "93": 7292,
      "To": 7293,
      "Ġlet": 7294,
      "ĠLab": 7295,
      "ĠDay": 7296,
      "Ġback": 7297,
      "Lugha": 7298,
      "Wa": 7299,
      "ĠAwon": 7300,
      "áī°áĬŀáī½": 7301,
      "ciyar": 7302,
      "áĪŀáĬķ": 7303,
      "Ġáĭ¨áī°áīĢ": 7304,
      "ivid": 7305,
      "áĭĵáĪĪáĪĿ": 7306,
      "ĠáĬ¢áĭ¨áĪ±áĪµ": 7307,
      "ĠAssociation": 7308,
      "áĬ¨áī°áĪį": 7309,
      "lá»įÌģgbá»įÌĢn": 7310,
      "Ġáĭ¨áĪĪáĭįáĪĿ": 7311,
      "ĠKijerumani": 7312,
      "Ġayáº¹yáº¹": 7313,
      "Ray": 7314,
      "Ġgari": 7315,
      "ĠKab": 7316,
      "ĠRec": 7317,
      "Ġexamp": 7318,
      "ĠNews": 7319,
      "Ġmtu": 7320,
      "irun": 7321,
      "umiwa": 7322,
      "ĠNollywood": 7323,
      "Ġká»įkÃłn": 7324,
      "Ġaure": 7325,
      "Ġáĭ¨áĮ¦áĪŃ": 7326,
      "áĭįáĪµ": 7327,
      "ĠáīłáĬŃ": 7328,
      "ĠáĬ¥áĮ½áĭĭáīµ": 7329,
      "Ġgur": 7330,
      "áįįáī°áĬĽ": 7331,
      "áĭ³áĭĬ": 7332,
      "áĬ«áīµ": 7333,
      "ĠEr": 7334,
      "ries": 7335,
      "áĭĿáī¡": 7336,
      "ĠáĮįáĪį": 7337,
      "ĠáĮįáĪ«": 7338,
      "Ġáĭ°áĪŃ": 7339,
      "Ġáĭ°áī¥áĪ¨": 7340,
      "áĭĽáĪį": 7341,
      "Ġpropos": 7342,
      "Ġáĭ¨áĬłáĪŃ": 7343,
      "Ġ1951": 7344,
      "ĠáĪħáĮį": 7345,
      "ĠáīłáĬłáĪľáĪªáĬ«": 7346,
      "ĠáĬłáĪĭáī¸áĭį": 7347,
      "áįĵáĬķáĬĽ": 7348,
      "ĠáĪĬáīĥáĭįáĬķáīµ": 7349,
      "ĠáĭĪáĭĺáī°": 7350,
      "02": 7351,
      "bes": 7352,
      "Ġaz": 7353,
      "liwa": 7354,
      "ĠSup": 7355,
      "ĠBau": 7356,
      "Ġmach": 7357,
      "okar": 7358,
      "Ġimani": 7359,
      "áº¸ÌĢ": 7360,
      "Ġ1947": 7361,
      "Ġ1948": 7362,
      "Ġappro": 7363,
      "If": 7364,
      "Ġcirc": 7365,
      "Ġpap": 7366,
      "Ġosu": 7367,
      "ĠáĮ»": 7368,
      "áĪĺáĬĵáĪį": 7369,
      "áĭ°áĮĭ": 7370,
      "áĪ³áī¸áĭįáĬķ": 7371,
      "ĠáīłáĪ±": 7372,
      "Ġáĭ¨áĪ¶": 7373,
      "ĠáĬ¥áĬķáĬ³áĬķ": 7374,
      "áīħáĪį": 7375,
      "Ġear": 7376,
      "apon": 7377,
      "ĠáĬ¥áĬķáĭ°áĬĲáīłáĪŃ": 7378,
      "ĠáĬłáĪµáī°áĭĭ": 7379,
      "ĠáįĬáĪį": 7380,
      "Ġgrande": 7381,
      "Ġkyautar": 7382,
      "ĠBiranen": 7383,
      "ĠMpaka": 7384,
      "Ġmambo": 7385,
      "ality": 7386,
      "páº¹ÌĢ": 7387,
      "enga": 7388,
      "Ġgovernment": 7389,
      "ĠSalaam": 7390,
      "ieux": 7391,
      "engene": 7392,
      "Ġwakifuata": 7393,
      "ĠMusic": 7394,
      "63": 7395,
      "ĠáīłáĪ³": 7396,
      "Ġáĭ¨áī°áĬĲáĪ³": 7397,
      "2011": 7398,
      "ĠáĭŃáĮĪáĪĺ": 7399,
      "ĠáĪ¥áĪŃáĭĵáīµ": 7400,
      "ĠáĪĺáĭĭáĭķáĪį": 7401,
      "Re": 7402,
      "pub": 7403,
      "ÏĤ": 7404,
      "ĠÉĵ": 7405,
      "chungu": 7406,
      "Ġuishe": 7407,
      "Ġarziki": 7408,
      "Ġshari": 7409,
      "Ġ1954": 7410,
      "ĠDisamba": 7411,
      "Ġhuadhimisha": 7412,
      "pha": 7413,
      "Ġsol": 7414,
      "Ġsite": 7415,
      "tice": 7416,
      "ĠSab": 7417,
      "inguis": 7418,
      "04": 7419,
      "ness": 7420,
      "áĮ®": 7421,
      "Ġáĭ¨áįĪáĪ¨áĬķáĪ³áĭŃ": 7422,
      "ĠpÃłÃ¡": 7423,
      "Ġweb": 7424,
      "áĭ©áīµ": 7425,
      "áĪ´áīµ": 7426,
      "Ġdonc": 7427,
      "Ġá»įÌĢnÃł": 7428,
      "ashington": 7429,
      "ĠáĮīáĪį": 7430,
      "áĪłáī¥": 7431,
      "ĠSoko": 7432,
      "NÃŃgbÃł": 7433,
      "ĠJamus": 7434,
      "Ġtakriban": 7435,
      "ĠPoland": 7436,
      "500": 7437,
      "She": 7438,
      "atini": 7439,
      "ules": 7440,
      "ĠLi": 7441,
      "ĠUb": 7442,
      "istes": 7443,
      "over": 7444,
      "oft": 7445,
      "mark": 7446,
      "TV": 7447,
      "à¥": 7448,
      "isan": 7449,
      "ĠfÃ¬": 7450,
      "Ġrema": 7451,
      "ĠÃłjá»į": 7452,
      "Ġzao": 7453,
      "Ġkoyar": 7454,
      "Ġyanayin": 7455,
      "ĠArewacin": 7456,
      "Ġzinabaki": 7457,
      "ÃĴun": 7458,
      "ababisha": 7459,
      "amban": 7460,
      "ĠáĬĲáī½": 7461,
      "akana": 7462,
      "olin": 7463,
      "ĠUN": 7464,
      "ĠYo": 7465,
      "2002": 7466,
      "ĠáĭĺáĪĺáī»": 7467,
      "ĠáīłáĪ°áĪľáĬķ": 7468,
      "uropÃ©": 7469,
      "iá¹£áº¹": 7470,
      "Ġkwenda": 7471,
      "ĠÃ²á¹£Ã¨lÃº": 7472,
      "Ġyammacin": 7473,
      "ĠSom": 7474,
      "ĠBak": 7475,
      "rain": 7476,
      "ĠAnti": 7477,
      "ĠGirl": 7478,
      "Ġanim": 7479,
      "Is": 7480,
      "zama": 7481,
      "áĭ¢": 7482,
      "Ġáĭ¨áįĭ": 7483,
      "Ġjá»į": 7484,
      "ĠáĬłáĪ¥": 7485,
      "áĬ¨áĪ°": 7486,
      "ĠDon": 7487,
      "áĪ®áĪŀ": 7488,
      "ĠáĮ¥áĭ«áīĦ": 7489,
      "iriwa": 7490,
      "áĪķáĪį": 7491,
      "ĠItali": 7492,
      "Ġndogo": 7493,
      "ĠáīłáĪĮáĪĭ": 7494,
      "ĠáĪµáī¥áĪµáī¥": 7495,
      "ÑĢ": 7496,
      "eric": 7497,
      "ason": 7498,
      "atif": 7499,
      "ĠEngland": 7500,
      "ĠCongress": 7501,
      "Ġown": 7502,
      "alle": 7503,
      "ĠKaisari": 7504,
      "ĠGa": 7505,
      "Ġmakuu": 7506,
      "ĠÃītats": 7507,
      "66": 7508,
      "tÃº": 7509,
      "Ġtype": 7510,
      "áĭįáĪį": 7511,
      "ĠpÃ¡": 7512,
      "áĭŃáĪŃáĪĭáĬķáĭµ": 7513,
      "áĭ°áĪŃáĮī": 7514,
      "ushe": 7515,
      "ĠáĪĺáī³": 7516,
      "Ġáī°áĪĽáĪª": 7517,
      "ĠEli": 7518,
      "ĠáĮįáĪªáĬŃ": 7519,
      "Ġáĭ¨áī°áĭĪáĪ°": 7520,
      "Ġestab": 7521,
      "ĠáĬĲáīłáĪ¨áī½": 7522,
      "chnology": 7523,
      "ĠáĭŃáĮĪáĪĺáī³áĪį": 7524,
      "Ïģ": 7525,
      "Ġ$": 7526,
      "ĠdÃ¬": 7527,
      "Ġgid": 7528,
      "aika": 7529,
      "ĠJar": 7530,
      "Ġkashe": 7531,
      "ĠArts": 7532,
      "wÃ²rÃ¡n": 7533,
      "ĠSudan": 7534,
      "ootball": 7535,
      "Ġencore": 7536,
      "ĠFabra": 7537,
      "cil": 7538,
      "Ġset": 7539,
      "Ġfois": 7540,
      "ĠâĢİ": 7541,
      "Ġsuccess": 7542,
      "Ku": 7543,
      "PP": 7544,
      "Ġáĭĳ": 7545,
      "Ġmit": 7546,
      "eren": 7547,
      "áĪµáī³áīµ": 7548,
      "ĠAba": 7549,
      "áĭŃáīħ": 7550,
      "umar": 7551,
      "ĠÃłá¹£Ãł": 7552,
      "oles": 7553,
      "ĠáĪµáī¥": 7554,
      "Ġáĭ¨áĪļáĪĺ": 7555,
      "rÃŃwÃ¡": 7556,
      "Ġáĭ¨áĬłáĪĪáĪĿ": 7557,
      "ouest": 7558,
      "ĠáĪ¥áĪįáĮ£áĬķ": 7559,
      "Ġsoit": 7560,
      "2017": 7561,
      "Ġáī°áĭĪáĪĪáĭ°": 7562,
      "ĠáĬłáĭįáĪ®áįĵ": 7563,
      "Ġmpaka": 7564,
      "Ġtaron": 7565,
      "Ġkm2": 7566,
      "áĬĹáĪį": 7567,
      "ĠáĪĺáĬĲáĪ»": 7568,
      "Ġtalabijin": 7569,
      "AM": 7570,
      "irar": 7571,
      "undu": 7572,
      "upi": 7573,
      "BÃŃ": 7574,
      "Ġec": 7575,
      "utes": 7576,
      "ogin": 7577,
      "ohann": 7578,
      "Ã©sÃŃ": 7579,
      "á»įÌĢnÃ¹": 7580,
      "Ġkabla": 7581,
      "kÃ©": 7582,
      "ensi": 7583,
      "áĪµáī²": 7584,
      "Ġdab": 7585,
      "ĠáĪĺáīĢáĪĺáĮ«": 7586,
      "áĪĽáĪ¨": 7587,
      "icin": 7588,
      "ĠPri": 7589,
      "áīħáĭ±áĪµ": 7590,
      "áįĪáĪ«": 7591,
      "ĠáīħáĬĿ": 7592,
      "áĪ£áĭŃ": 7593,
      "áĪµáī°áĬĽáĭį": 7594,
      "ĠIbn": 7595,
      "ĠáĪĿáĬŃáĪŃ": 7596,
      "ĠáĪ½áĪį": 7597,
      "Ġáĭ¶áĪ®": 7598,
      "Ġimportant": 7599,
      "ĠáĪĺáĪ£áĪªáĭ«": 7600,
      "Kar": 7601,
      "wiwa": 7602,
      "Ġneno": 7603,
      "Ġfl": 7604,
      "Ġtakwas": 7605,
      "Ġdev": 7606,
      "Ġipo": 7607,
      "Ġkarshe": 7608,
      "anguage": 7609,
      "Ãªte": 7610,
      "alsafa": 7611,
      "Ġmakabila": 7612,
      "Ġzinaz": 7613,
      "Ø³": 7614,
      "assa": 7615,
      "Ġopp": 7616,
      "ĠSol": 7617,
      "Ġeach": 7618,
      "ĠFrank": 7619,
      "gro": 7620,
      "Ġdamar": 7621,
      "Ġmemba": 7622,
      "onso": 7623,
      "áĪµáĪĬ": 7624,
      "áī°áĭ³": 7625,
      "áĭ°áĬķáīµ": 7626,
      "áĪ¨áī°": 7627,
      "áĮĪáĭĽ": 7628,
      "áĪĭáĮħ": 7629,
      "áīłáĪ»": 7630,
      "Ġkashi": 7631,
      "Ġcontre": 7632,
      "áĭķáīĨ": 7633,
      "fazi": 7634,
      "ĠáĬłáĪįáįİ": 7635,
      "Ġáĭ¨áĬ¥áĬķáĮįáĪĬáĭĿ": 7636,
      "1998": 7637,
      "Ġáī°áīĢáĪĿ": 7638,
      "Ġibn": 7639,
      "ĠáĮ¨áĭĭ": 7640,
      "ĠTrans": 7641,
      "Wakristo": 7642,
      "Ġseveral": 7643,
      "Ġquel": 7644,
      "Ã®t": 7645,
      "usiness": 7646,
      "gon": 7647,
      "já»įÌĢ": 7648,
      "yáº¹ÌĢ": 7649,
      "ypt": 7650,
      "Ġdim": 7651,
      "Ġeto": 7652,
      "Ġacikin": 7653,
      "Ġ1953": 7654,
      "Ġsamo": 7655,
      "Ġziliz": 7656,
      "Ġbecause": 7657,
      "ĠMartin": 7658,
      "ĠTarihi": 7659,
      "mia": 7660,
      "||": 7661,
      "ĠKK": 7662,
      "ĠKu": 7663,
      "áīłáĭ«": 7664,
      "ĠCr": 7665,
      "áīĢáĪµ": 7666,
      "áĪ©áĬŃ": 7667,
      "ĠáĪµáĪĿáĪĿáĬĲáīµ": 7668,
      "Ġfilin": 7669,
      "ĠáĪĺáĬķáĮĪ": 7670,
      "áįİáĪŃ": 7671,
      "ĠáĬ¨áĬłáĬķáĭµ": 7672,
      "áĭ¥áĬķ": 7673,
      "ĠáĭŃáī³áĪĺáĬĵáĪį": 7674,
      "ypti": 7675,
      "ĠMc": 7676,
      "ĠMer": 7677,
      "ĠOá¹£u": 7678,
      "ĠHouse": 7679,
      "á¹£irÃŃ": 7680,
      "agun": 7681,
      "Ġpolitique": 7682,
      "ĠFarans": 7683,
      "Ġsmall": 7684,
      "omp": 7685,
      "ajo": 7686,
      "áī¿": 7687,
      "ĠáĭĬ": 7688,
      "áĬķáĪ°": 7689,
      "Ġáĭ¨áĪ«": 7690,
      "Ġáĭ¨áĮİ": 7691,
      "Ġáĭ¨áĪĺáĬķ": 7692,
      "astern": 7693,
      "Ġcamp": 7694,
      "itude": 7695,
      "áĪĪáĪµ": 7696,
      "áĪĪáĭ±": 7697,
      "áī¥áĪĭ": 7698,
      "áĮĪáĪ¨": 7699,
      "umika": 7700,
      "áī£áī£": 7701,
      "Ġáī°áĮĪáĬĿ": 7702,
      "Ġoften": 7703,
      "ĠáīłáĪ¶": 7704,
      "ĠáĭĪáĭ²áĭ«": 7705,
      "ided": 7706,
      "Ġáĭ«áĭ°áĪŃ": 7707,
      "ĠáĪĽáĪ¨": 7708,
      "áī¶áĭ¶": 7709,
      "though": 7710,
      "áĪ£áĪ¥": 7711,
      "à¤ĺ": 7712,
      "Ġtuntun": 7713,
      "áī¥áĪ¨áī°": 7714,
      "ether": 7715,
      "Ġproduction": 7716,
      "Ġaká»įrin": 7717,
      "Ġá¹£ÃŃá¹£e": 7718,
      "Ġsauransu": 7719,
      "Mah": 7720,
      "Ġsaba": 7721,
      "ĠAw": 7722,
      "Ġ(,": 7723,
      "quement": 7724,
      "ĠVictor": 7725,
      "ammed": 7726,
      "ĠDemocratic": 7727,
      "hab": 7728,
      "Ġaye": 7729,
      "asayansi": 7730,
      "ĠKid": 7731,
      "ĠWah": 7732,
      "off": 7733,
      "2013": 7734,
      "Ġlanguages": 7735,
      "III": 7736,
      "Ġmmoja": 7737,
      "haji": 7738,
      "Ġorder": 7739,
      "Ġáī£áĪħáĪį": 7740,
      "insu": 7741,
      "ĠáĪµáĪŃáĭĵáīµ": 7742,
      "ĠPeter": 7743,
      "áĪ¨áĮĭáĮĪ": 7744,
      "áĬ¥áĬķáĭ²áĪģáĪĿ": 7745,
      "Ġáī°áĮ«áĭĭ": 7746,
      "ĠreprÃ©sent": 7747,
      "89": 7748,
      "lov": 7749,
      "Ã¬lÃº": 7750,
      "ĠBern": 7751,
      "kejÃ¬": 7752,
      "Ġaround": 7753,
      "áĪŃáīµáĪ«": 7754,
      "entifi": 7755,
      "kunan": 7756,
      "ĠRD2": 7757,
      "kÃ¡láº¹ÌĢ": 7758,
      "ĠBauchi": 7759,
      "87": 7760,
      "Duk": 7761,
      "ĠAcc": 7762,
      "iken": 7763,
      "thers": 7764,
      "ĠChamp": 7765,
      "wikipedia": 7766,
      "site": 7767,
      "áī®": 7768,
      "ĠMb": 7769,
      "áĪĺáĪĿ": 7770,
      "áī½áĬ¹": 7771,
      "áī¥áī»": 7772,
      "ututt": 7773,
      "áĭĭáī¸áĭį": 7774,
      "áĪ³áĪĮáĪĿ": 7775,
      "ops": 7776,
      "Ġáĭ¨áī°áĭĪáĪĪ": 7777,
      "ĠáĭµáĬķáĮįáĪį": 7778,
      "áĪģáįį": 7779,
      "»áįī": 7780,
      "Ġactiv": 7781,
      "ĠolÃ¹darÃŃ": 7782,
      "Ġáī°áĪ«áĪ®áī½": 7783,
      "Ġáīłáī³áĪªáĬŃ": 7784,
      "áī§áĪį": 7785,
      "ĠáĬłáĪµáįĪáĪĭáĮĬ": 7786,
      "Pro": 7787,
      "Äĵ": 7788,
      "Ġsens": 7789,
      "ĠNg": 7790,
      "Ġmass": 7791,
      "ĠAngel": 7792,
      "kiya": 7793,
      "Ġmuk": 7794,
      "esp": 7795,
      "Ġland": 7796,
      "Ġcrit": 7797,
      "uriyar": 7798,
      "ĠOyo": 7799,
      "Ġcond": 7800,
      "ÉĹu": 7801,
      "Ġmshairi": 7802,
      "ĠbÃłbÃ¡": 7803,
      "bÃ©": 7804,
      "Ġmort": 7805,
      "ĠáĬłáĭĪ": 7806,
      "áĬŃáĬĸ": 7807,
      "áĭ³áīµ": 7808,
      "áīĢáĮ½": 7809,
      "ĠáĬ¥áĬĵáīµ": 7810,
      "ĠáĪ°áĪĽ": 7811,
      "áįĭáĬķ": 7812,
      "Ġrece": 7813,
      "ĠáĬķáĮ¥áĪ¨": 7814,
      "Ġmash": 7815,
      "áĭ°áĪ¨áĮį": 7816,
      "áĮĪáĬĻáīµ": 7817,
      "áĬķáĮīáĪł": 7818,
      "lementi": 7819,
      "áĬĺáĭį": 7820,
      "St": 7821,
      "jÃ¹": 7822,
      "ãĤ": 7823,
      "Ġsaf": 7824,
      "Ġdefin": 7825,
      "Ġshekarun": 7826,
      "undin": 7827,
      "Ġmakubwa": 7828,
      "udies": 7829,
      "Ġpataki": 7830,
      "Ġabubuwan": 7831,
      "SO": 7832,
      "ĠAsh": 7833,
      "wane": 7834,
      "Ġexpr": 7835,
      "ĠLeague": 7836,
      "ĠMovie": 7837,
      "Ġáĭ¨áĭļáĪħ": 7838,
      "Ġáĭ¨áī´": 7839,
      "ĠáīłáĮ¥áĬķáī³áĭĬ": 7840,
      "ĠSi": 7841,
      "áīłáĬ¥": 7842,
      "áĪ«áĪŃ": 7843,
      "Ġnigba": 7844,
      "ĠáĭĪáĮĪ": 7845,
      "áįįáī°": 7846,
      "Ġáĭ«áĪµáī°": 7847,
      "áī±áĪŃáĬŃ": 7848,
      "ĠUt": 7849,
      "Ġáĭ¨áĪļáĬĸáĪŃ": 7850,
      "Ġáĭ¨áĪļáī£áĪĪáĭį": 7851,
      "áĭ²áīµ": 7852,
      "Ġwasannin": 7853,
      "Ġalip": 7854,
      "áĪłáĪ©": 7855,
      "Ġmean": 7856,
      "áĪŁáĪį": 7857,
      "ĠGabas": 7858,
      "áĪŀáĬŃáĪ«áĪ²": 7859,
      "Ġcig": 7860,
      "ĠAy": 7861,
      "ster": 7862,
      "stant": 7863,
      "2018": 7864,
      "Ġperson": 7865,
      "Ġmv": 7866,
      "enz": 7867,
      "ĠÃº": 7868,
      "ĠAD": 7869,
      "Ġdak": 7870,
      "ĠCam": 7871,
      "ovuti": 7872,
      "face": 7873,
      "hamia": 7874,
      "Bi": 7875,
      "rement": 7876,
      "Ġáī«": 7877,
      "Ġmani": 7878,
      "áĭµáĪį": 7879,
      "ĠáīłáĪĪ": 7880,
      "Ġáĭ¨áĪ©": 7881,
      "áĬłáĪŃ": 7882,
      "áįĪáĪ¨": 7883,
      "raft": 7884,
      "áīĥáīµ": 7885,
      "ĠáĪ°áįĬ": 7886,
      "ĠáĪ°áĭĵáīµ": 7887,
      "áĪ»áĪ»": 7888,
      "ĠáĭĭáĬķáĮ«": 7889,
      "2000": 7890,
      "ĠáĪļáĪµáīµ": 7891,
      "ĠáīłáĬ¥áĪµ": 7892,
      "Ġ1946": 7893,
      "Ġ1939": 7894,
      "áĬħáĪ£áĪ¥": 7895,
      "ights": 7896,
      "ĠGreg": 7897,
      "ĠfranÃ§aise": 7898,
      "ĠáĭįáĮ¤áīµ": 7899,
      "ĠCalifor": 7900,
      "ĠáĬłáĪįáįĭáī¤áīµ": 7901,
      "Ġmwezi": 7902,
      "Ã¡Ã¡": 7903,
      "adamu": 7904,
      "ĠdÃ©but": 7905,
      "ensis": 7906,
      "Ġ80": 7907,
      "esearch": 7908,
      "Ġcontin": 7909,
      "Ġhalafu": 7910,
      "Ġsakandare": 7911,
      "83": 7912,
      "However": 7913,
      "Ġmed": 7914,
      "abwe": 7915,
      "ador": 7916,
      "taire": 7917,
      "Ġassoci": 7918,
      "ĠrÃ©fÃ©r": 7919,
      "52": 7920,
      "54": 7921,
      "AF": 7922,
      "His": 7923,
      "fiki": 7924,
      "Ġáĭī": 7925,
      "ithi": 7926,
      "ĠáĪĺáĪĨáĬķ": 7927,
      "ĠáĭŃáĬĸ": 7928,
      "áĮĭáĬķ": 7929,
      "hinda": 7930,
      "Ġsuiv": 7931,
      "ows": 7932,
      "áĪģáĪĪáīµ": 7933,
      "akazi": 7934,
      "ĠáĬ¥áĪµáĭ«": 7935,
      "ĠIsland": 7936,
      "ĠProgr": 7937,
      "ĠkÃºrÃ²": 7938,
      "Ġparticuli": 7939,
      "ĠáĭŀáĬķ": 7940,
      "ĠâĢ¹âĢ¹": 7941,
      "Ð½": 7942,
      "yam": 7943,
      "unar": 7944,
      "ĠKur": 7945,
      "imar": 7946,
      "ĠJapon": 7947,
      "Id": 7948,
      "Ġmáº¹": 7949,
      "orig": 7950,
      "Ġwur": 7951,
      "ĠWab": 7952,
      "Ġleurs": 7953,
      "bio": 7954,
      "tsu": 7955,
      "ticle": 7956,
      "Ã¡nÃ¬": 7957,
      "Ġhizo": 7958,
      "Ġhaifar": 7959,
      "ĠUsman": 7960,
      "Ġtsohuwar": 7961,
      "ĠFrancis": 7962,
      "gemea": 7963,
      "á¹£irÃŃá¹£i": 7964,
      "test": 7965,
      "áĬķáī°": 7966,
      "Ġáĭ¨áī»áĭŃáĬĵ": 7967,
      "áĭįáĪ®": 7968,
      "áĪµáĮ¡": 7969,
      "Ġbase": 7970,
      "áĪĪáĭµ": 7971,
      "ĠáĪĺáīĢ": 7972,
      "áĬĽáĭįáĬķ": 7973,
      "Ġáī°áĭĽ": 7974,
      "ĠáĪĿáĮįáī¥": 7975,
      "áįįáĪ¬": 7976,
      "ĠLÃ¡": 7977,
      "áĬ«áĪ«": 7978,
      "áĭĺáĪŃ": 7979,
      "ĠáĪįáĬŃ": 7980,
      "ĠáĪĨáĭŃ": 7981,
      "Ġáĭ¨áĬłáĬķáĭµ": 7982,
      "áĮłáĪ«áĪį": 7983,
      "áīłáī°áĮ¨áĪĽáĪª": 7984,
      "ĠsÃ¬n": 7985,
      "Ġjiki": 7986,
      "Ġá»įÌģ": 7987,
      "lafazi": 7988,
      "ĠÉĹin": 7989,
      "2012": 7990,
      "iyoyi": 7991,
      "Ġhannun": 7992,
      "</": 7993,
      "xes": 7994,
      "yá»įÌģ": 7995,
      "Ġáī¬": 7996,
      "Ġkansa": 7997,
      "Ġkaya": 7998,
      "Ġcelui": 7999,
      "ĠAgb": 8000,
      "Ġpou": 8001,
      "Ġáīł17": 8002,
      "tif": 8003,
      "áĮįáĭµáĪĿ": 8004,
      "ĠSil": 8005,
      "emu": 8006,
      "áĬ¨áĪĿ": 8007,
      "ĠGood": 8008,
      "Ġáī¥áĪĭ": 8009,
      "áĪĬáīµ": 8010,
      "áĬķáĮįáĭµ": 8011,
      "áĭ©áĬĵáĭŃáīµáĭµ": 8012,
      "áĮĥáĪĿ": 8013,
      "Ġ70": 8014,
      "Ġiyaka": 8015,
      "imbabwe": 8016,
      "adarwa": 8017,
      "ĠáĭįáĭµáĭµáĪŃ": 8018,
      "ĠSociety": 8019,
      "Ġfonction": 8020,
      "zani": 8021,
      "Ġculture": 8022,
      "Ġtous": 8023,
      "duction": 8024,
      "html": 8025,
      "áº¹n": 8026,
      "Ġoun": 8027,
      "Ġganin": 8028,
      "Ġipinle": 8029,
      "pewa": 8030,
      "Ġharkokin": 8031,
      "Ġambazo": 8032,
      "Ġfitar": 8033,
      "gement": 8034,
      "áĮ§": 8035,
      "orks": 8036,
      "áīłáīł": 8037,
      "ady": 8038,
      "ĠTal": 8039,
      "Ġinternational": 8040,
      "ects": 8041,
      "ĠáĪ°áī¥": 8042,
      "ĠáīĢáĪ¨": 8043,
      "Ġtechni": 8044,
      "Ġ1949": 8045,
      "ĠáįĬáīµ": 8046,
      "áĪ«áĭĬáīµ": 8047,
      "ĠáĬªáĬķáĮį": 8048,
      "ĠáįĵáĪŃáī²áĭİáī½": 8049,
      "struction": 8050,
      "andika": 8051,
      "utan": 8052,
      "okuta": 8053,
      "ĠolÃ³rÃŃ": 8054,
      "Ġdisp": 8055,
      "ĠLaw": 8056,
      "Ġdukkan": 8057,
      "ĠKamusi": 8058,
      "Ġkuliko": 8059,
      "Ġfollowing": 8060,
      "sar": 8061,
      "Ġcur": 8062,
      "itect": 8063,
      "Ġrah": 8064,
      "rey": 8065,
      "cia": 8066,
      "¹áĪŃ": 8067,
      "Ġselon": 8068,
      "ired": 8069,
      "áĪ³áĪ°áī¥": 8070,
      "enta": 8071,
      "ĠOli": 8072,
      "ĠFestival": 8073,
      "Ġáĭ«áĪĭ": 8074,
      "Ġáĭ«áĪīáīµ": 8075,
      "Ġáĭ¨áī°áĮĪáĬĺ": 8076,
      "Ġáī£áĪĪáĭį": 8077,
      "Ġprote": 8078,
      "ĠAnamb": 8079,
      "áĮłáĪī": 8080,
      "áī¤áĪį": 8081,
      "ardin": 8082,
      "kÃ³so": 8083,
      "ĠáīłáĪļáĪį": 8084,
      "ĠáĬ¢áīµáĭ®áĮµáĭ«áĭĬ": 8085,
      "Ġkudancin": 8086,
      "ĠáĬŃáįįáĪĭáĮĪáĪ«áīµ": 8087,
      "ĠáĬ¥áĬķáĪµáĪ³": 8088,
      "áĭ«áĭ«áĭ£": 8089,
      "Ġnufin": 8090,
      "ĠáĪ²áīĢáĪ©": 8091,
      "Far": 8092,
      "bÃ³": 8093,
      "fo": 8094,
      "ĠMand": 8095,
      "Ġfather": 8096,
      "Ġru": 8097,
      "ĠWashington": 8098,
      "Ġactu": 8099,
      "ĠKanada": 8100,
      "ey": 8101,
      "Ġhivi": 8102,
      "ĠStr": 8103,
      "adiyya": 8104,
      "entes": 8105,
      "Ġvie": 8106,
      "team": 8107,
      "Ġkutumia": 8108,
      "Ġwatumwa": 8109,
      "ĠArgent": 8110,
      "angaza": 8111,
      "Ġgirm": 8112,
      "ĠÃłÃ¬sÃłn": 8113,
      "ĠWaislamu": 8114,
      "New": 8115,
      "Ġáĭ¨áĮįáī¥áĮ½": 8116,
      "ĠMiss": 8117,
      "áĪĭáĪĽáĭĬ": 8118,
      "omes": 8119,
      "áĬĽáĪį": 8120,
      "Ġáī°áĪ¸": 8121,
      "ĠáĭĪáĪ°": 8122,
      "ĠLife": 8123,
      "áīħáĪ¨áī¥": 8124,
      "ĠáĪĪáĬłáĪ": 8125,
      "ĠáĪµáĪľáĬķ": 8126,
      "Ġsuite": 8127,
      "ĠAlbert": 8128,
      "tÃ©r": 8129,
      "2019": 8130,
      "ector": 8131,
      "ultani": 8132,
      "Ġáī¥áĪŃáĪĥáĬķ": 8133,
      "]]": 8134,
      "cus": 8135,
      "wÃłÃ¡": 8136,
      "áĬĢ": 8137,
      "Ġoff": 8138,
      "ĠGáº¹ÌĢáº¹ÌģsÃ¬": 8139,
      "Ġwatsa": 8140,
      "ĠhuÉĹu": 8141,
      "Ġsaman": 8142,
      "Ġterme": 8143,
      "fuatwa": 8144,
      "arufu": 8145,
      "AL": 8146,
      "IC": 8147,
      "ensa": 8148,
      "abba": 8149,
      "Ġ1920": 8150,
      "ĠPan": 8151,
      "osh": 8152,
      "81": 8153,
      "Ġáīł15": 8154,
      "Ġoper": 8155,
      "ĠMwaka": 8156,
      "áī½áĪī": 8157,
      "Ġhayo": 8158,
      "Ġnahiyar": 8159,
      "ĠáĪĺáĭ°": 8160,
      "adun": 8161,
      "Ġjumla": 8162,
      "eter": 8163,
      "ĠáĬŃáī¥": 8164,
      "ĠAmani": 8165,
      "ĠÃ²kÃ¨": 8166,
      "lÃ©e": 8167,
      "ĠáĮĭáĭľ": 8168,
      "Ġ1955": 8169,
      "ĠáīłáĬłáĪĽáĪŃáĬĽ": 8170,
      "ominira": 8171,
      "1997": 8172,
      "ĠirÃº": 8173,
      "ĠBurtaniya": 8174,
      "ĠÃ©crit": 8175,
      "nÃº": 8176,
      "Ã¡lÃŃ": 8177,
      "ĠCa": 8178,
      "ĠGasar": 8179,
      "ĠÃ¬á¹£": 8180,
      "lav": 8181,
      "ciya": 8182,
      "Ġkuji": 8183,
      "Ġaskofu": 8184,
      "rison": 8185,
      "Ġchild": 8186,
      "rican": 8187,
      "Ġgroupe": 8188,
      "Ġmengi": 8189,
      "Ġem": 8190,
      "áĬĲáĪ±": 8191,
      "Ġáį³": 8192,
      "ĠáĭŃáĪįáīħ": 8193,
      "ĠáĭŃáĬĲáĮĪ": 8194,
      "ĠLaf": 8195,
      "Ġáĭ¨áĪļáĮł": 8196,
      "Ġáīµáĭķ": 8197,
      "Ġáĭįáīħáĭ«áĬĸáĪµ": 8198,
      "ĠáĬ¥áĬķáĭ°áĪļáĭ«": 8199,
      "illar": 8200,
      "Ġáĭ¨áĬ¥áĮįáĪŃ": 8201,
      "ĠáĪĢáī¥": 8202,
      "áĮ½áĪĲáįĪ": 8203,
      "vention": 8204,
      "Ġfamilia": 8205,
      "âĢºâĢº": 8206,
      "ĠáĭĪáĪ¨áĪ«": 8207,
      "ĠáĪĪáĭįáĮ¥": 8208,
      "nÃ©es": 8209,
      "wari": 8210,
      "Ġdog": 8211,
      "Ġwá»įÌĢn": 8212,
      "Ġtafi": 8213,
      "Ġá»įjá»į": 8214,
      "ĠÃĮlÃº": 8215,
      "Ġ''": 8216,
      "ĠÉĹari": 8217,
      "Ġ90": 8218,
      "Ġsabon": 8219,
      "Ġphys": 8220,
      "emaji": 8221,
      "chukua": 8222,
      "car": 8223,
      "inin": 8224,
      "onti": 8225,
      "ĠWaf": 8226,
      "ĠJama": 8227,
      "udes": 8228,
      "ston": 8229,
      "Ġbr": 8230,
      "áĭ«áī°": 8231,
      "áĭ«áī¸áĭį": 8232,
      "lev": 8233,
      "áī³áĪŃ": 8234,
      "ĠÃłÃ¡": 8235,
      "Ġáĭ¨áĪļáĮĪáĬĺáĭį": 8236,
      "ĠáĪĽáĬŃ": 8237,
      "udo": 8238,
      "uge": 8239,
      "áĭĺáĪĺáĬĲ": 8240,
      "áĬ¥áĬĵ": 8241,
      "ĠáīĢáĭ°áĪĿ": 8242,
      "ĠáĮ¥áĪŃ": 8243,
      "jejen": 8244,
      "Ġhaya": 8245,
      "ĠáĪĪáĪĺáĮĢáĪĺáĪªáĭ«": 8246,
      "ĠáĪĽáĪĪáīµáĪĿ": 8247,
      "Ġmulti": 8248,
      "ĠMisri": 8249,
      "ĠáĪĺáĬ®áĬķáĬķ": 8250,
      "Ġexample": 8251,
      "Ġnorth": 8252,
      "ĠAbi": 8253,
      "ĠSir": 8254,
      "And": 8255,
      "Ġalbum": 8256,
      "Babban": 8257,
      "Ib": 8258,
      "Jihar": 8259,
      "Na": 8260,
      "uch": 8261,
      "Ġláº¹": 8262,
      "atives": 8263,
      "ĠÃłjáº¹sÃ¡ra": 8264,
      "hoto": 8265,
      "ended": 8266,
      "Ġexist": 8267,
      "jenga": 8268,
      "right": 8269,
      "ĠGroup": 8270,
      "ĠSokoto": 8271,
      "59": 8272,
      "dis": 8273,
      "dhi": 8274,
      "ÉĻ": 8275,
      "á¹¢": 8276,
      "ĠáĪ£": 8277,
      "áĪĿáĬķáīµ": 8278,
      "lier": 8279,
      "ĠcÃ´": 8280,
      "Ġhistory": 8281,
      "Ġgouver": 8282,
      "áĬ¨áĪ¨": 8283,
      "Ġáĭ¨áĪļáĭĪ": 8284,
      "áĬ¥áĬĶ": 8285,
      "áĪļáĬķ": 8286,
      "Ġarr": 8287,
      "ĠáĮĪáĭĽ": 8288,
      "áĪĥáĪį": 8289,
      "ĠáĬĲáĮĪáĪ¥áī±": 8290,
      "áĭ°áĪ¨áĪ°": 8291,
      "ĠáĬłáĪĿáĪµáīµ": 8292,
      "Ġformer": 8293,
      "Ġimm": 8294,
      "ĠáĪŃáīĢáīµ": 8295,
      "Ġsince": 8296,
      "áį²áį°áį»áį": 8297,
      "ĠáĪļáĬĴáĪµáī´áĪŃ": 8298,
      "áī¶áĭ¶áĬŃáĪµ": 8299,
      "áĬŃáĬĸáĪİáĮĤ": 8300,
      "Nchi": 8301,
      "sÃ¡n": 8302,
      "Ġabu": 8303,
      "Ġmd": 8304,
      "Ġcibiyar": 8305,
      "Ġgi": 8306,
      "áīłáĭ°": 8307,
      "Ã¬yÃłn": 8308,
      "Ġá»įlá»įÌģ": 8309,
      "ĠÃ©v": 8310,
      "holic": 8311,
      "Ġgabas": 8312,
      "ĠKejÃ¬": 8313,
      "Ġgener": 8314,
      "Ġdifferent": 8315,
      "Ġtabbatar": 8316,
      "Fr": 8317,
      "ker": 8318,
      "Ġschool": 8319,
      "Ġlow": 8320,
      "Ġlanga": 8321,
      "ĠAma": 8322,
      "Ġhuwa": 8323,
      "ugal": 8324,
      "ĠÃ©lec": 8325,
      "respond": 8326,
      "aiss": 8327,
      "áīµáĪį": 8328,
      "áīµáĪµ": 8329,
      "Ġmallaka": 8330,
      "Ġáĭ¨áĪĪ": 8331,
      "Ġáĭ¨áī³áĭĪ": 8332,
      "Ġáĭ¨áĮ¥áĬķ": 8333,
      "áĪ«áĭŃ": 8334,
      "gbá»įÌģ": 8335,
      "áĭ¨áĪį": 8336,
      "Ġvon": 8337,
      "áįĪáĪ©": 8338,
      "otun": 8339,
      "ĠYesu": 8340,
      "ovu": 8341,
      "pain": 8342,
      "ĠáīłáĪĽáĪµ": 8343,
      "ĠáĮłáĬķ": 8344,
      "Ġáī´áĪĮ": 8345,
      "Ġsakamakon": 8346,
      "ĠáĪĺáĪ³áĪªáĭ«": 8347,
      "ĠGi": 8348,
      "imary": 8349,
      "cial": 8350,
      "They": 8351,
      "rict": 8352,
      "Ġintro": 8353,
      "Hivyo": 8354,
      "NN": 8355,
      "ĠspÃ©": 8356,
      "onin": 8357,
      "aster": 8358,
      "itÃ¬": 8359,
      "Ġzaune": 8360,
      "ÃŃnÃº": 8361,
      "ĠolÃ³gun": 8362,
      "Ġikan": 8363,
      "ĠHausawa": 8364,
      "82": 8365,
      "fen": 8366,
      "ĠáĪ¾": 8367,
      "áĪµáī¶áī½": 8368,
      "ĠNaz": 8369,
      "akh": 8370,
      "Ġáī°áĮ¨áĪĽáĪª": 8371,
      "oshi": 8372,
      "áĪ®áĬķ": 8373,
      "ĠáīłáĪĺáīĢ": 8374,
      "ĠáĮ¥áīģáĪŃ": 8375,
      "Ġbegan": 8376,
      "ĠZe": 8377,
      "ĠáįĪáĪĭ": 8378,
      "very": 8379,
      "à¤ļ": 8380,
      "áĬĵáī¸áĭįáĪĿ": 8381,
      "Ġáĭ¨áĬ¥áĪµáįĵáĬķáĭ«": 8382,
      "ĠáĬłáĪ¸áĬĲ": 8383,
      "ĠSahara": 8384,
      "53": 8385,
      "xford": 8386,
      "Ġngu": 8387,
      "ono": 8388,
      "ollo": 8389,
      "Ġyanayi": 8390,
      "Ġtrava": 8391,
      "âĢİâĢİ": 8392,
      "Ġlittafin": 8393,
      "VID": 8394,
      "van": 8395,
      "xi": 8396,
      "ĠSim": 8397,
      "ulin": 8398,
      "enegal": 8399,
      "ĠPremi": 8400,
      "Ġbased": 8401,
      "gua": 8402,
      "mÃ¡": 8403,
      "wÃº": 8404,
      "wahi": 8405,
      "áĪŃáīħ": 8406,
      "Ġmic": 8407,
      "Ġáĭ¨áī¤áī°": 8408,
      "Ġfulani": 8409,
      "ĠKwam": 8410,
      "ĠáĬ¨áĭį": 8411,
      "ĠTri": 8412,
      "Ġáĭ¨áĪĲ": 8413,
      "Ġzane": 8414,
      "ĠFound": 8415,
      "ĠáĪµáī³": 8416,
      "Ġáĭ¨áĪļáī³": 8417,
      "áĮ£áī¸áĭį": 8418,
      "Ġequ": 8419,
      "ĠáīµáĬŃ": 8420,
      "Ġáĭ¨áī°áĪĪ": 8421,
      "koki": 8422,
      "áĬĳáĪĿ": 8423,
      "okacin": 8424,
      "Ġáĭ¨áĪĺáĪµ": 8425,
      "Ġchang": 8426,
      "áĬŃáĪįáīµ": 8427,
      "áĪ®áī½áĬķ": 8428,
      "áįķáĪ¬": 8429,
      "Ġá»ĮÌĢyá»įÌģ": 8430,
      "ĠáįķáĪ¬áĭļáĭ³áĬķáīµ": 8431,
      "Ġtáº¹li": 8432,
      "ĠpÃ©riode": 8433,
      "ĠáĬ¥áĪµáĬ«áĪģáĬķ": 8434,
      "áĭķáīĨáī¥": 8435,
      "ĠÃºn": 8436,
      "Ġpower": 8437,
      "ĠMod": 8438,
      "Ġsouth": 8439,
      "1999": 8440,
      "ulaire": 8441,
      "Ġastr": 8442,
      "Ġmall": 8443,
      "Ġwill": 8444,
      "Ġtaifa": 8445,
      "ception": 8446,
      "ĠYuni": 8447,
      "okan": 8448,
      "ĠbÃŃbÃŃ": 8449,
      "Ġáº¹ÌĢrá»į": 8450,
      "onyesha": 8451,
      "Ġmakao": 8452,
      "ĠsystÃ¨me": 8453,
      "Ġsayensi": 8454,
      "ĠBiblia": 8455,
      "wÃ¹já»į": 8456,
      "57": 8457,
      "gh": 8458,
      "kia": 8459,
      "ram": 8460,
      "Ġáĭ¨áĮ£áĪįáĭ«áĬķ": 8461,
      "áī°áĪĺ": 8462,
      "ĠSara": 8463,
      "áĪĽáĪµ": 8464,
      "Ġ1918": 8465,
      "áĭ¨áĪģ": 8466,
      "ĠDut": 8467,
      "áĮĭáĭŃ": 8468,
      "ĠáīĢáĪŃ": 8469,
      "áĭĽáĪĿ": 8470,
      "ĠáĮĪáī£": 8471,
      "ĠáĪģáĪĪáī°áĬĽáĭį": 8472,
      "Ġáī¤áī°áĪ°áī¥": 8473,
      "ĠáĬłáī¥áĭĽ": 8474,
      "ĠáĭµáĪŃáĮĬ": 8475,
      "áīłáĪ«áĭĬ": 8476,
      "Ġáĭ¨áĬ¤áĪĮáĬŃáīµáĪªáĬŃ": 8477,
      "ĠáĪµáīµáĪĨáĬķ": 8478,
      "Orodha": 8479,
      "Ġcelle": 8480,
      "Ġpin": 8481,
      "ĠCiv": 8482,
      "Ġáī°áĪµáįĭ": 8483,
      "Ġalm": 8484,
      "ÉĹin": 8485,
      "ideo": 8486,
      "Ġkyau": 8487,
      "ĠAngola": 8488,
      "Ġjiho": 8489,
      "Ġversion": 8490,
      "ĠÃ¬dÃŃje": 8491,
      "Ġoluilu": 8492,
      "Ġbuk": 8493,
      "Ġword": 8494,
      "ĠBad": 8495,
      "iaf": 8496,
      "cep": 8497,
      "Ġrequ": 8498,
      "ĠJohnson": 8499,
      "Tari": 8500,
      "bá»įÌĢ": 8501,
      "julikana": 8502,
      "yÃ¬ÃŃ": 8503,
      "áĮ»áįī": 8504,
      "áįģ": 8505,
      "amare": 8506,
      "ĠAust": 8507,
      "Ġfadin": 8508,
      "ĠáĪĺáĪĿ": 8509,
      "ĠáĪĺáĪªáĭİáī½": 8510,
      "áĬ¨áĭį": 8511,
      "Ġzo": 8512,
      "ĠPÃ³": 8513,
      "áĬ«áĭĬ": 8514,
      "áĮ£áĮ«": 8515,
      "ĠáĪįáĭĳ": 8516,
      "Ġshafi": 8517,
      "irobi": 8518,
      "ĠáĭĽáįį": 8519,
      "Ġáīłáī³áī½": 8520,
      "ĠEdward": 8521,
      "áįıáĪį": 8522,
      "ĠAri": 8523,
      "Ġhana": 8524,
      "ĠWag": 8525,
      "Ġev": 8526,
      "ĠamÃ©ric": 8527,
      "ĠInternet": 8528,
      "ĠAgusta": 8529,
      "Ã´le": 8530,
      "Hasa": 8531,
      "ÏĦ": 8532,
      "Ġkitu": 8533,
      "Ġled": 8534,
      "ĠMul": 8535,
      "Ġran": 8536,
      "Ġrike": 8537,
      "ĠÃłdÃºgbÃ²": 8538,
      "ĠNic": 8539,
      "ĠNations": 8540,
      "ĠÃ¬á¹£áº¹ÌĢláº¹ÌĢ": 8541,
      "Ġkufuatana": 8542,
      "ourd": 8543,
      "yote": 8544,
      "ĠdÃºrÃ³": 8545,
      "94": 8546,
      "áĬķáĮłáĪ¨": 8547,
      "ĠáīłáĮİ": 8548,
      "ĠáīłáĭĭáĬĵ": 8549,
      "ĠáĮĤ": 8550,
      "ĠáĬłáĮłáīĥáĪĭáĭŃ": 8551,
      "áĮįáĪªáĬŃ": 8552,
      "ĠRome": 8553,
      "áĮłáĬĿ": 8554,
      "áĪŀáĪµ": 8555,
      "Ġáī¥áĪĦ": 8556,
      "ĠáĬłáĪµáīĢáĭµáĪŀ": 8557,
      "Ġáĭ¨áĪĺáĪ¬áīµ": 8558,
      "Ġ400": 8559,
      "ĠáĪĢáĭŃ": 8560,
      "áįķáĪ®": 8561,
      "ĠáĪ¶áĪµáīµ": 8562,
      "ĠáĪĥáĭŃáĪĽáĬĸ": 8563,
      "ĠáĪĽáĭķáĬ¨áĪį": 8564,
      "Ġáī»áĭŃáĬĵ": 8565,
      "áĬ«áī£áī¢áĭį": 8566,
      "áĬ«áĬ¨áĪĪáĬĽáĭį": 8567,
      "ĠáĪĿáĪħáĬķáĭµáĪµáĬĵ": 8568,
      "ĠáĭŃáĬĲáĮĪáĪ«áĪį": 8569,
      "ige": 8570,
      "Ġkiasi": 8571,
      "Ġcommer": 8572,
      "Waliofariki": 8573,
      "ĠÃ¬dÃŃlÃ©": 8574,
      "ĠSecond": 8575,
      "ĠmÃŃrÃłn": 8576,
      "ĠKibantu": 8577,
      "aponais": 8578,
      "ĠAnambra": 8579,
      "kiri": 8580,
      "uj": 8581,
      "Ġtir": 8582,
      "atures": 8583,
      "ĠFÃ¡": 8584,
      "ĠHindi": 8585,
      "gne": 8586,
      "inrin": 8587,
      "Ġtan": 8588,
      "áĪŃáĮħ": 8589,
      "Ġáĭ¨áīłáĪĪ": 8590,
      "áĪĿáĪ©": 8591,
      "Ġcell": 8592,
      "ĠáĬ¥áĪŃáĪµ": 8593,
      "urar": 8594,
      "áĭ°áĮįáĪŀ": 8595,
      "áĬŃáī¶": 8596,
      "ĠáĭŃáĪĪ": 8597,
      "ĠáĬłáĪĽáĪŃáĬĽ": 8598,
      "tage": 8599,
      "ĠÃ¬s": 8600,
      "ĠFa": 8601,
      "ĠáĪµáĬĲ": 8602,
      "Ġáĭ¨áĪļáįĪ": 8603,
      "ĠáĪ²áĪī": 8604,
      "ĠáīµáĬ©": 8605,
      "áĪ©áĪµ": 8606,
      "ĠáīĢáīłáĪĮ": 8607,
      "Ġáĭ°áĪĿ": 8608,
      "Ġáĭ¨áĬłáĪ¦áĪŃ": 8609,
      "áĭ±áĬķ": 8610,
      "ÉĹi": 8611,
      "Ġfiimu": 8612,
      "ĠáĬłáĪµáī°áĪ³áĪ°áī¥": 8613,
      "Ġáī°áĪĺáĪ«": 8614,
      "Ġyawancin": 8615,
      "ĠáĪĽáĭķáĪ¨áĮį": 8616,
      "áįĲáĪŃ": 8617,
      "Ġáī¥áĪĶáĪ®áī½": 8618,
      "ĠáĬķáĮįáĪ¥áīµ": 8619,
      "ĠAtlantiki": 8620,
      "ĠáĬłáĮįáĬĿ": 8621,
      "ĠKifaransa": 8622,
      "ĠTang": 8623,
      "ĠEc": 8624,
      "ĠAlg": 8625,
      "velopment": 8626,
      "ophy": 8627,
      "62": 8628,
      "So": 8629,
      "Ġdashi": 8630,
      "Ġmta": 8631,
      "atis": 8632,
      "Ġyakin": 8633,
      "Ġbid": 8634,
      "ĠáĬ¥áĪ³áīµ": 8635,
      "Ġwadannan": 8636,
      "yyuka": 8637,
      "ray": 8638,
      "Ġáĭ¨áįĢ": 8639,
      "Ġpol": 8640,
      "ĠáĬ¥áĭ«áĬķáĭ³áĬķáĭ±": 8641,
      "áĭµáĪ®áĪµ": 8642,
      "ĠáĬĲáĮŃ": 8643,
      "ĠáĬĲáĭī": 8644,
      "ĠSm": 8645,
      "áīħáĬķ": 8646,
      "Ġvid": 8647,
      "ĠáīłáĪĽáĭµáĪ¨áĮį": 8648,
      "ĠáĪĺáĬķáįĪáĪµ": 8649,
      "ĠMaur": 8650,
      "ĠáīĨáĭ¨": 8651,
      "ĠáĬłáĭįáĪ«áĮĥ": 8652,
      "Nig": 8653,
      "mani": 8654,
      "táº¹ÌĢ": 8655,
      "Ġakiwa": 8656,
      "times": 8657,
      "rea": 8658,
      "ĠÃ¬gbÃ©": 8659,
      "ĠFulani": 8660,
      "Ġáº¹ran": 8661,
      "endera": 8662,
      "engwa": 8663,
      "Ġbangaren": 8664,
      "lab": 8665,
      "Ġfem": 8666,
      "taka": 8667,
      "ĠGal": 8668,
      "ĠHab": 8669,
      "stan": 8670,
      "Ġforces": 8671,
      "artar": 8672,
      "ethod": 8673,
      "kk": 8674,
      "tak": 8675,
      "Ġlina": 8676,
      "Ġáīłáĭķ": 8677,
      "áĭ«áĪĿ": 8678,
      "ilÃ©": 8679,
      "ĠáĬĲáĮĭ": 8680,
      "Ã¨rÃ¨": 8681,
      "Ġáī°áĮįáī£áĪŃ": 8682,
      "Ġáĭ¨áĪ²": 8683,
      "áį¡-": 8684,
      "ĠáĭĵáįĦ": 8685,
      "ĠÃ²bÃŃ": 8686,
      "chie": 8687,
      "Ġyanke": 8688,
      "2001": 8689,
      "ĠáĭĿáĬĵ": 8690,
      "ampuni": 8691,
      "atsayin": 8692,
      "ĠáĬĲáĮ»áĬĲáīµ": 8693,
      "ĠWilliams": 8694,
      "Ġáī°áīĭáĪĿ": 8695,
      "pasáº¹": 8696,
      "áĬķáĮĮáĪį": 8697,
      "ĠApple": 8698,
      "Ø¹": 8699,
      "ĠMala": 8700,
      "idence": 8701,
      "news": 8702,
      "ards": 8703,
      "publique": 8704,
      "IA": 8705,
      "jwa": 8706,
      "Ġ{": 8707,
      "ĠÃ¬bÃ¡": 8708,
      "teurs": 8709,
      "Ġule": 8710,
      "Ġchama": 8711,
      "Ġshahar": 8712,
      "ĠprÃ©c": 8713,
      "Ġnombreux": 8714,
      "ĠWatakatifu": 8715,
      "bai": 8716,
      "huri": 8717,
      "lar": 8718,
      "áĪ¨áĮ¥": 8719,
      "ĠáĪĺáīĥ": 8720,
      "ĠáĬ¨áĪĭáĭŃ": 8721,
      "ĠáĬ¨áĬĲáĭļáĪħ": 8722,
      "Ġáįħ": 8723,
      "ĠOd": 8724,
      "áīłáĪ½": 8725,
      "áĭļáĪį": 8726,
      "Ġevent": 8727,
      "ĠáīµáĪįáīģ": 8728,
      "áĮłáĪªáĭ«": 8729,
      "áĮ»áįĪáĭį": 8730,
      "áĪĪáĭ«áĭ¨": 8731,
      "Ġáī¡áĭµ": 8732,
      "ouvelle": 8733,
      "ĠáĬ¥áĭįáĬĲáīµ": 8734,
      "Kuma": 8735,
      "lad": 8736,
      "vin": 8737,
      "Ġdoma": 8738,
      "ĠIá¹£áº¹Ìģ": 8739,
      "ental": 8740,
      "Ġlaw": 8741,
      "reg": 8742,
      "auc": 8743,
      "ĠZimbabwe": 8744,
      "Ġpeup": 8745,
      "Ġguerre": 8746,
      "ĠsociÃ©tÃ©": 8747,
      "Åĵuv": 8748,
      "shiryen": 8749,
      "Ã¡lÃŃÃł": 8750,
      "AD": 8751,
      "Ġspe": 8752,
      "ĠSpain": 8753,
      "Ġinap": 8754,
      "Ġ...": 8755,
      "Ġresult": 8756,
      "ĠCentral": 8757,
      "bÃ¬": 8758,
      "insa": 8759,
      "Ġair": 8760,
      "Ġsanar": 8761,
      "áĪĪáĪħ": 8762,
      "ĠáĬ¥áĮį": 8763,
      "ĠáĬĲáįį": 8764,
      "Ġáī°áĭĭáĬĵ": 8765,
      "ĠáīłáĪ¬": 8766,
      "Ġá¹£áº¹": 8767,
      "ĠáįįáĪįáĪµáįįáĬĵ": 8768,
      "ĠáĪķáĮĪ": 8769,
      "ĠáĭĿáĪĿ": 8770,
      "Ġmeji": 8771,
      "arrun": 8772,
      "ĠáĬ¥áĪŃáĮį": 8773,
      "After": 8774,
      "Ġinganta": 8775,
      "69": 8776,
      "Up": 8777,
      "amini": 8778,
      "usal": 8779,
      "etnam": 8780,
      "ĠGra": 8781,
      "ĠYou": 8782,
      "Ġchem": 8783,
      "ĠlÃ©g": 8784,
      "Ã£": 8785,
      "eto": 8786,
      "Ġnipasáº¹": 8787,
      "Ġlau": 8788,
      "ĠÃ¬yÃ¡": 8789,
      "Ġkuzaliwa": 8790,
      "endre": 8791,
      "pokea": 8792,
      "Ġsiyasan": 8793,
      "Ġnamed": 8794,
      "bed": 8795,
      "gari": 8796,
      "sen": 8797,
      "áĪµáī£áĪį": 8798,
      "ĠKol": 8799,
      "áĪ³áĪµ": 8800,
      "Ġiniti": 8801,
      "ĠJon": 8802,
      "áī¡áīµ": 8803,
      "ĠáįįáĪĭ": 8804,
      "Ġ1942": 8805,
      "Ġ1944": 8806,
      "áĮĮáī³": 8807,
      "áīªáĭ¥áĬķ": 8808,
      "áīħáĪŃáī¥": 8809,
      "Ġáĭ¨áĮįáĪªáĬŃ": 8810,
      "century": 8811,
      "áīłáĪ«áī¸áĭį": 8812,
      "áĭĺáĮĭáĮĢ": 8813,
      "Ġáĭ¨áĪļáĪĪáĭįáĬķ": 8814,
      "ĠáĪģáĪĪáī±": 8815,
      "ournal": 8816,
      "ĠáĭµáĪĿáĮ½": 8817,
      "ĠCOVID": 8818,
      "bro": 8819,
      "hesabiwa": 8820,
      "Ġhuma": 8821,
      "ĠKÃ²": 8822,
      "Ġjaponais": 8823,
      "Ġzabe": 8824,
      "ubuce": 8825,
      "ĠUsw": 8826,
      "Ãīt": 8827,
      "ĠáīĢáĭ³áĪĽáĭĬ": 8828,
      "Mat": 8829,
      "ked": 8830,
      "work": 8831,
      "Ġapa": 8832,
      "embe": 8833,
      "ĠLu": 8834,
      "ĠJohann": 8835,
      "udd": 8836,
      "ĠColumb": 8837,
      "ĠáĭĮ": 8838,
      "kai": 8839,
      "ĠáĬ¥áĪ±": 8840,
      "ĠhÃłn": 8841,
      "áĭµáī¥": 8842,
      "áĮįáĪª": 8843,
      "áĮįáĭ³": 8844,
      "ĠáĪĺáĭį": 8845,
      "ikh": 8846,
      "ĠáĬ¨1892": 8847,
      "áĪĽáĭį": 8848,
      "Ġáī°áĮĪáĭ°": 8849,
      "ĠDist": 8850,
      "ĠáĪµáĮĭ": 8851,
      "ĠáĪµáįįáĪ«": 8852,
      "lahi": 8853,
      "ival": 8854,
      "Ġkuv": 8855,
      "haria": 8856,
      "ĠáĪįáĮĨ": 8857,
      "ova": 8858,
      "ĠáĬłáĬķáĮ»": 8859,
      "Ġadministr": 8860,
      "ĠrÃ©g": 8861,
      "erial": 8862,
      "Ġmanuf": 8863,
      "ĠáĬ¥áĭ«áĪĪ": 8864,
      "ĠSarkin": 8865,
      "ĠáĬłáĭ°áĮĭ": 8866,
      "ĠáīłáĪģáĪĪáīµ": 8867,
      "ĠAfrilu": 8868,
      "84": 8869,
      "Ġkub": 8870,
      "Ġplan": 8871,
      "ĠsiÃ¨": 8872,
      "Ġrecord": 8873,
      "Ġcorrespond": 8874,
      "Ġcertains": 8875,
      "Ġemplo": 8876,
      "51": 8877,
      "Ts": 8878,
      "ËĪ": 8879,
      "Î½": 8880,
      "ĠMji": 8881,
      "Ġrana": 8882,
      "Ġruk": 8883,
      "á»įÌģka": 8884,
      "ĠJina": 8885,
      "ido": 8886,
      "Ġá»įwá»įÌģ": 8887,
      "Ġleyin": 8888,
      "ogi": 8889,
      "Ġproper": 8890,
      "ĠgbÃ¡": 8891,
      "Ġtsakiyar": 8892,
      "pá»įlá»į": 8893,
      "ĠJanairu": 8894,
      "Ġnasarar": 8895,
      "chunguza": 8896,
      "Ã»": 8897,
      "áĬĭ": 8898,
      "ared": 8899,
      "Ġáĭ¨áĬķ": 8900,
      "Ġ(),": 8901,
      "áī¥áĪį": 8902,
      "ĠáĪĺáĮ½": 8903,
      "Ġáī°áĪĪ": 8904,
      "ĠáĭŃáĬ¨": 8905,
      "Ġáĭ¨áĬ¬": 8906,
      "áĭ¨áĬ¥": 8907,
      "áī±áīµ": 8908,
      "ĠáĪ°áĪľáĬķ": 8909,
      "Ġáī³áĪªáĬ®áī½": 8910,
      "ĠáīłáĪĺáĬķ": 8911,
      "seed": 8912,
      "áīłáĪ¨áĭį": 8913,
      "Ġstandard": 8914,
      "áĬķáĮĤ": 8915,
      "ĠáīłáīĢáĪŃ": 8916,
      "ĠáĬłáĬĲáĮĭáĮĪáĪŃ": 8917,
      "áĭĽáĪ¬áĭį": 8918,
      "Ġdivers": 8919,
      "Ġhus": 8920,
      "ĠDin": 8921,
      "Ġkananan": 8922,
      "ĠadarÃŃ": 8923,
      "joko": 8924,
      "wÃ²sÃłn": 8925,
      "Ġulikuwa": 8926,
      "Ġinclude": 8927,
      "Ġwithin": 8928,
      "pia": 8929,
      "Ġbata": 8930,
      "itation": 8931,
      "ades": 8932,
      "ĠIya": 8933,
      "Ġzar": 8934,
      "ĠRound": 8935,
      "ĠVirgin": 8936,
      "ĠChuo": 8937,
      "athan": 8938,
      "ential": 8939,
      "well": 8940,
      "ģáĬķáĪĿ": 8941,
      "áĭª": 8942,
      "Ġká»įÌĢ": 8943,
      "Ġkiongozi": 8944,
      "Ġmana": 8945,
      "Ġliss": 8946,
      "ĠMr": 8947,
      "Ġhalin": 8948,
      "áĪ¨áĬ«": 8949,
      "áīłáĬŀáī½": 8950,
      "umin": 8951,
      "ĠNam": 8952,
      "ĠáįĶ": 8953,
      "ĠáĭŃáįĭ": 8954,
      "ĠDam": 8955,
      "áĪĮáīµ": 8956,
      "ĠHars": 8957,
      "Ġver": 8958,
      "áī¶áĬķ": 8959,
      "Ġund": 8960,
      "áĮİáīµ": 8961,
      "áĬłáĪģáĬķ": 8962,
      "Ġtsara": 8963,
      "orea": 8964,
      "wamna": 8965,
      "ughuli": 8966,
      "ĠáĮ£áī¢áĭ«": 8967,
      "Ġlitt": 8968,
      "Ġáĭ¨áī³áĪªáĬŃ": 8969,
      "Ç¹kan": 8970,
      "Ġáī±áĪŃáĬŃ": 8971,
      "ĠdÃŃáº¹ÌĢ": 8972,
      "hematic": 8973,
      "yá»įkÃł": 8974,
      "ĠáīłáĪĨáĬĲ": 8975,
      "ĠáīłáĭŃáįĭ": 8976,
      "Ġsoja": 8977,
      "ĠIran": 8978,
      "ĠFlor": 8979,
      "ĠAsiya": 8980,
      "idae": 8981,
      "ĠDevelopment": 8982,
      "ridge": 8983,
      "Ġtant": 8984,
      "ĠlÃŃ": 8985,
      "Ġyaki": 8986,
      "time": 8987,
      "Ġruwan": 8988,
      "ĠKáº¹Ìģ": 8989,
      "Ġdel": 8990,
      "ĠRadio": 8991,
      "ĠYunifÃ¡sÃŃtÃ¬": 8992,
      "ungano": 8993,
      "ĠÃ²fin": 8994,
      "ĠTuranci": 8995,
      "sy": 8996,
      "uer": 8997,
      "Ðº": 8998,
      "Ġáĭ¨áīĭáĬķáīĭ": 8999,
      "áĪĿáīµ": 9000,
      "áĪµáĪ«áīħ": 9001,
      "áĬĵáī±": 9002,
      "ĠáĬ¥áĭļáĪħ": 9003,
      "ĠáĬ¨áī³": 9004,
      "ĠáĬ¨áĪ¥": 9005,
      "Ġtawa": 9006,
      "aku": 9007,
      "áĮ¥áī³": 9008,
      "reed": 9009,
      "ĠDir": 9010,
      "áĮīáĪŃ": 9011,
      "ĠáĪ²áĭĪ": 9012,
      "ĠáĮįáĪŃ": 9013,
      "Ġnear": 9014,
      "Ġáĭ¨áī°áĪĺáĪ°": 9015,
      "ĠáįĪáīĥ": 9016,
      "ĠáĪĪáĪĺáĮį": 9017,
      "Ġstart": 9018,
      "Ġtex": 9019,
      "ĠáĪħáĭĿ": 9020,
      "ĠáĬ¤áĬķ": 9021,
      "Ġáī´áĭİ": 9022,
      "Ġáī½áĮįáĪŃ": 9023,
      "ĠáįķáĪ¬áĭĿ": 9024,
      "ĠáĪĿáĪŃáĮ«": 9025,
      "áī¾áī½": 9026,
      "ĠáĬ¨áĪĮáĪİáī½": 9027,
      "ĠCalifornia": 9028,
      "Ac": 9029,
      "enant": 9030,
      "isc": 9031,
      "Ġhij": 9032,
      "ĠGovernment": 9033,
      "iven": 9034,
      "Ġkeje": 9035,
      "Ġshawara": 9036,
      "ĠKikatoliki": 9037,
      "Ġpresent": 9038,
      "ĠPaulo": 9039,
      "Ġsayari": 9040,
      "ĠKÃ¡tÃ³": 9041,
      "eror": 9042,
      "ately": 9043,
      "ĠJer": 9044,
      "ulit": 9045,
      "Ġ1922": 9046,
      "ĠMohammed": 9047,
      "origine": 9048,
      "Akwai": 9049,
      "UN": 9050,
      "gÃŃ": 9051,
      "ghan": 9052,
      "guliwa": 9053,
      "áĪ¼": 9054,
      "áĭĶ": 9055,
      "Ġfasaha": 9056,
      "ĠáĬłáĭ°áĪ¨áĮĪ": 9057,
      "Ġgani": 9058,
      "áĪĭáįĬ": 9059,
      "áĪ«áī½": 9060,
      "áĪ«áĬŃ": 9061,
      "Ġdevient": 9062,
      "áĭ³áī¤": 9063,
      "ĠáĭĺáĭŃ": 9064,
      "áĬĸáĪ¨áĭį": 9065,
      "áĬĲáīµáĬĵ": 9066,
      "Ġkasuwa": 9067,
      "Ġamince": 9068,
      "oule": 9069,
      "acc": 9070,
      "áĪ¶áĪµ": 9071,
      "Ġ1943": 9072,
      "ĠáĬ¥áĬķáĭ³áĪį": 9073,
      "Alimfuata": 9074,
      "Ġáī½áĪİ": 9075,
      "ĠáĬ¥áĬķáĪµáĪ³áīµ": 9076,
      "ĠáįķáĪ¬áĭļáĭ°áĬķáīµ": 9077,
      "rasia": 9078,
      "Viungo": 9079,
      "Maj": 9080,
      "rans": 9081,
      "aract": 9082,
      "Ġvik": 9083,
      "ĠVita": 9084,
      "action": 9085,
      "ellow": 9086,
      "Ã©ration": 9087,
      "ĠAle": 9088,
      "Ġhor": 9089,
      "usha": 9090,
      "ĠChe": 9091,
      "gaz": 9092,
      "ĠHam": 9093,
      "Ġshule": 9094,
      "Ġmasarautar": 9095,
      "fihÃłn": 9096,
      "áº¹ÌģrÃ¬n": 9097,
      "Ġreturn": 9098,
      "Ġmahaifiyar": 9099,
      "ĠKilatini": 9100,
      "Pia": 9101,
      "Ð»": 9102,
      "ĠÙħ": 9103,
      "áĮ´": 9104,
      "Ġáĭļ": 9105,
      "ĠImo": 9106,
      "Ġáī°áĮ¨": 9107,
      "áīĢáĬķ": 9108,
      "áĭ¨áĬ«": 9109,
      "áĪ°áī£": 9110,
      "ĠRh": 9111,
      "ĠáĪµáĪį": 9112,
      "Ġvery": 9113,
      "áĭĬáĭį": 9114,
      "áĮ£áĮ£": 9115,
      "Ġey": 9116,
      "ĠáīłáĬłáĬķáĭ³áĬķáĭµ": 9117,
      "ĠáįĪáĪĪ": 9118,
      "ĠáīłáĬĭáĪĭáĪĿ": 9119,
      "áĮĢáĪĺáĪ¨": 9120,
      "ĠrÃ©alis": 9121,
      "áĪ¸áīµ": 9122,
      "ĠáĪĺáĪµáĪĺáĪŃ": 9123,
      "ĠáĬłáĭµáĪŃáĮĪáĭį": 9124,
      "Ġáĭ°áĪ´áī¶áī½": 9125,
      "Ġscience": 9126,
      "Ġáī°áĭ°áĪŃáĮİ": 9127,
      "ĠáĮ¨áĭĭáī³": 9128,
      "Iá¹£áº¹Ìģ": 9129,
      "dÃ¡n": 9130,
      "lus": 9131,
      "met": 9132,
      "Ñģ": 9133,
      "Ġyasa": 9134,
      "Ġborn": 9135,
      "Ġwame": 9136,
      "ĠCast": 9137,
      "ĠDani": 9138,
      "chan": 9139,
      "rait": 9140,
      "igo": 9141,
      "Ġaliy": 9142,
      "okrasia": 9143,
      "Ġ1937": 9144,
      "ĠÃ²á¹£Ã¨rÃ©bÃ¬nrin": 9145,
      "Ġkufanya": 9146,
      "Ġarewacin": 9147,
      "Ġpriv": 9148,
      "ĠkÃłwÃ©": 9149,
      "Hak": 9150,
      "Une": 9151,
      "kw": 9152,
      "itia": 9153,
      "alamu": 9154,
      "hah": 9155,
      "erson": 9156,
      "Ġdue": 9157,
      "There": 9158,
      "Shi": 9159,
      "kÃºn": 9160,
      "ĭáĪħ": 9161,
      "inf": 9162,
      "Ġkwar": 9163,
      "Ġsch": 9164,
      "Ġfiye": 9165,
      "ĠSenegal": 9166,
      "ĠáĭŃáĪĭáĪī": 9167,
      "ĠPasi": 9168,
      "ulus": 9169,
      "áĭĪáĮ¥": 9170,
      "ĠEdo": 9171,
      "áįĪáĮ¥áĪ®": 9172,
      "Ġunivers": 9173,
      "Ġáĭ°áĪ¨áĪ°": 9174,
      "Ġáĭ¨áĬłáĪĿ": 9175,
      "thur": 9176,
      "áīĨáī½": 9177,
      "essor": 9178,
      "ĠÃ¨rÃ²": 9179,
      "Ġmatan": 9180,
      "ĠÃĮjá»į": 9181,
      "ĠáĬ¥áĪµáĬª": 9182,
      "ĠdÃ©fin": 9183,
      "ĠáĮĢáĪĺáĪŃ": 9184,
      "Ġfaire": 9185,
      "anyama": 9186,
      "ĠáĮ¸áĪĵ": 9187,
      "Ġáī°áĭĪáĪĪáĭ±": 9188,
      "áĮ£áĪįáĭ«": 9189,
      "gbÃ¨gbÃ¨": 9190,
      "ĠáĭĪáĪŃáīħ": 9191,
      "Unis": 9192,
      "ĠáĭĺáĪŃáįį": 9193,
      "ĠáĪĺáĮĢáĪĺáĪŃáĭ«áĭį": 9194,
      "ĠHanyoyin": 9195,
      "Ġwá»įÌĢnyÃŃ": 9196,
      "IN": 9197,
      "Pope": 9198,
      "ØŃ": 9199,
      "Ġsera": 9200,
      "Ġclim": 9201,
      "Ġgano": 9202,
      "akta": 9203,
      "ĠPap": 9204,
      "ĠLar": 9205,
      "unawa": 9206,
      "Ġbelie": 9207,
      "Son": 9208,
      "serv": 9209,
      "Ġáī¸": 9210,
      "Ġauri": 9211,
      "Ġfig": 9212,
      "etu": 9213,
      "Ġ1914": 9214,
      "chang": 9215,
      "aries": 9216,
      "cian": 9217,
      "wanza": 9218,
      "lÃ©lÃ³gÃºn": 9219,
      "Ġ500": 9220,
      "Ġáº¹ÌĢka": 9221,
      "Ġterritoire": 9222,
      "yc": 9223,
      "arth": 9224,
      "áĪŃáĪ³": 9225,
      "enu": 9226,
      "Ġáīłáĭ³": 9227,
      "Ġgun": 9228,
      "ĠBattle": 9229,
      "Ġdeg": 9230,
      "aih": 9231,
      "Ġáī°áĬ¨áī°áĪĪáĭį": 9232,
      "ĠFe": 9233,
      "áĪĮáĪµ": 9234,
      "áĮīáĬķ": 9235,
      "áĭ©áĪĿ": 9236,
      "ĠáĬ¥áĬķáĭ²áĪĨáĬķ": 9237,
      "ĠáĪĺáĪįáĭķ": 9238,
      "ĠáīłáĮįáĪªáĬŃ": 9239,
      "erbaij": 9240,
      "ĠSwed": 9241,
      "ĠCouncil": 9242,
      "áĬŃáĬķáĭ®": 9243,
      "Ġcountry": 9244,
      "ĠdÃ©veloppement": 9245,
      "áĬķáĮłáĪ¨áĭ¥": 9246,
      "Mas": 9247,
      "pÃłÃ¡": 9248,
      "ĠtÃº": 9249,
      "Ġmm": 9250,
      "Ġmig": 9251,
      "ĠKuu": 9252,
      "uments": 9253,
      "ulf": 9254,
      "ĠOmo": 9255,
      "gali": 9256,
      "arib": 9257,
      "ĠÃĴgÃ¹n": 9258,
      "Ġbincike": 9259,
      "ĠAv": 9260,
      "Ġabs": 9261,
      "uhari": 9262,
      "Ġ1936": 9263,
      "Ġconsidered": 9264,
      "zikin": 9265,
      "áĬķáĬ©": 9266,
      "Ġsaka": 9267,
      "Ġmes": 9268,
      "Ġáĭ¨áī¡": 9269,
      "Ġcul": 9270,
      "áī°áĪ¨áīµáĬĵ": 9271,
      "umbi": 9272,
      "ĠGomina": 9273,
      "ĠOko": 9274,
      "ĠFasaha": 9275,
      "áĮ£áĭĬ": 9276,
      "ĠáĪ°áĪĭáĪĿ": 9277,
      "Ġwasanni": 9278,
      "áįĭáĪµ": 9279,
      "áĪĨáĬķáĪĿ": 9280,
      "ĠáĭµáĪ¨": 9281,
      "áĭķáīµ": 9282,
      "ĠáĪĨáĬĹáĪį": 9283,
      "Ġcomplex": 9284,
      "ĠáįĬáĪįáĪĿ": 9285,
      "Ġukoloni": 9286,
      "ĠáĬłáī¥áĭ«áī°": 9287,
      "ĠBened": 9288,
      "ĠáĪŃáĭĿ": 9289,
      "ĠfÃŃl": 9290,
      "Ġáĭ¨áĪķáĭĿáī¥": 9291,
      "ĠNairobi": 9292,
      "áĬ¾áĬķ": 9293,
      "ĠYammacin": 9294,
      "arabci": 9295,
      "áĭ¨áĪ©áĪ³áĪĮáĪĿ": 9296,
      "ĠáĪĿáĭķáĪ«áįį": 9297,
      "ĠâĢİâĢİ": 9298,
      "mas": 9299,
      "owa": 9300,
      "ĠBy": 9301,
      "ĠFederal": 9302,
      "ĠeuropÃ©": 9303,
      "agas": 9304,
      "Ġhead": 9305,
      "gÃ¬": 9306,
      "tta": 9307,
      "wango": 9308,
      "rier": 9309,
      "Ġgbá»įÌģ": 9310,
      "ĠProf": 9311,
      "Ġmfumo": 9312,
      "ĠGreat": 9313,
      "ĠShehu": 9314,
      "Ġcontrol": 9315,
      "lÃ¬kÃ¬": 9316,
      "Ġjimillar": 9317,
      "ĠArgentina": 9318,
      "mw": 9319,
      "Ġlike": 9320,
      "oris": 9321,
      "áĪĭáĪĪáī½": 9322,
      "ĠShek": 9323,
      "áĭİáī½áĬĵ": 9324,
      "Ġáī¥áĪ«": 9325,
      "áĬ¥áĬŃáīµ": 9326,
      "ĠáĬŃáī¥áĪŃ": 9327,
      "áī¦áī½áĬķ": 9328,
      "Ġáīłáī°áĪ°": 9329,
      "rick": 9330,
      "Ġáĭ¨áĪļáĭ«áĪ³áĭŃ": 9331,
      "ically": 9332,
      "icial": 9333,
      "ĠáĪĺáĪ°áĪ¨": 9334,
      "ĠáīłáĭĵáĪį": 9335,
      "Ã©rique": 9336,
      "ĠáĬĳáĪ®": 9337,
      "áī¥áĪŃáĪĥáĪĿ": 9338,
[...]
