{
  "version": "1.0",
  "truncation": null,
  "padding": null,
  "added_tokens": [
    {
      "id": 0,
      "content": "<pad>",
      "single_word": false,
      "lstrip": false,
      "rstrip": false,
      "normalized": false,
      "special": true
    },
    {
      "id": 1,
      "content": "<bos>",
      "single_word": false,
      "lstrip": false,
      "rstrip": false,
      "normalized": false,
      "special": true
    },
    {
      "id": 2,
      "content": "<eos>",
      "single_word": false,
      "lstrip": false,
      "rstrip": false,
      "normalized": false,
      "special": true
    }
  ],
  "normalizer": {
    "type": "Sequence",
    "normalizers": [
      {
        "type": "NFC"
      },
      {
        "type": "Prepend",
        "prepend": " "
      }
    ]
  },
  "pre_tokenizer": {
    "type": "Sequence",
    "pretokenizers": [
      {
        "type": "Metaspace",
        "replacement": "▁",
        "prepend_scheme": "never",
        "split": true
      },
      {
        "type": "ByteLevel",
        "add_prefix_space": false,
        "trim_offsets": true,
        "use_regex": false
      }
    ]
  },
  "post_processor": {
    "type": "TemplateProcessing",
    "single": [
      {
        "SpecialToken": {
          "id": "<bos>",
          "type_id": 0
        }
      },
      {
        "Sequence": {
          "id": "A",
          "type_id": 0
        }
      },
      {
        "SpecialToken": {
          "id": "<eos>",
          "type_id": 0
        }
      }
    ],
    "pair": [
      {
        "SpecialToken": {
          "id": "<bos>",
          "type_id": 0
        }
      },
      {
        "Sequence": {
          "id": "A",
          "type_id": 0
        }
      },
      {
        "SpecialToken": {
          "id": "<eos>",
          "type_id": 0
        }
      },
      {
        "SpecialToken": {
          "id": "<bos>",
          "type_id": 0
        }
      },
      {
        "Sequence": {
          "id": "B",
          "type_id": 0
        }
      },
      {
        "SpecialToken": {
          "id": "<eos>",
          "type_id": 0
        }
      }
    ],
    "special_tokens": {
      "<bos>": {
        "id": "<bos>",
        "ids": [
          1
        ],
        "tokens": [
          "<bos>"
        ]
      },
      "<eos>": {
        "id": "<eos>",
        "ids": [
          2
        ],
        "tokens": [
          "<eos>"
        ]
      }
    }
  },
  "decoder": {
    "type": "Sequence",
    "decoders": [
      {
        "type": "ByteLevel",
        "add_prefix_space": true,
        "trim_offsets": true,
        "use_regex": true
      },
      {
        "type": "Strip",
        "content": "▁",
        "start": 1,
        "stop": 0
      },
      {
        "type": "Replace",
        "pattern": {
          "String": "▁"
        },
        "content": " "
      }
    ]
  },
  "model": {
    "type": "Unigram",
    "unk_id": null,
    "vocab": [
      [
        "<pad>",
        0.0
      ],
      [
        "<bos>",
        0.0
      ],
      [
        "<eos>",
        0.0
      ],
      [
        "âĸģ",
        -2.935294343803104
      ],
      [
        ",",
        -4.11596155432138
      ],
      [
        ".",
        -4.153050671936535
      ],
      [
        "n",
        -4.680293624501321
      ],
      [
        "âĸģa",
        -4.7390526351318805
      ],
      [
        "s",
        -4.804573526185843
      ],
      [
        "âĸģya",
        -4.937676802930431
      ],
      [
        "âĸģda",
        -5.018453540930787
      ],
      [
        "âĸģáĭ¨",
        -5.084686543139037
      ],
      [
        "âĸģáīł",
        -5.199406950988267
      ],
      [
        "a",
        -5.200791999472784
      ],
      [
        "âĸģna",
        -5.217335337553944
      ],
      [
        ")",
        -5.312085046647924
      ],
      [
        "e",
        -5.385077246787262
      ],
      [
        "áĬķ",
        -5.4006534724536674
      ],
      [
        "âĸģwa",
        -5.413413743676843
      ],
      [
        "r",
        -5.4713149281261675
      ],
      [
        "o",
        -5.517306444232043
      ],
      [
        "âĸģni",
        -5.567569189246932
      ],
      [
        "âĸģta",
        -5.6018726056768084
      ],
      [
        "áĪĿ",
        -5.6047796411791
      ],
      [
        "-",
        -5.620810912855392
      ],
      [
        "âĸģ(",
        -5.639191712996414
      ],
      [
        "áĬĵ",
        -5.67536077950551
      ],
      [
        "i",
        -5.7162425949129325
      ],
      [
        "âĸģthe",
        -5.749366176199441
      ],
      [
        "âĸģA",
        -5.795254042771759
      ],
      [
        "áį£",
        -5.926116097997342
      ],
      [
        "âĸģof",
        -5.941771200728487
      ],
      [
        "t",
        -5.946978646169985
      ],
      [
        "âĸģnÃŃ",
        -5.948656081084696
      ],
      [
        "âĸģde",
        -5.969988106606227
      ],
      [
        "u",
        -5.993944599207374
      ],
      [
        "âĸģáĬ¨",
        -6.044422297985356
      ],
      [
        "âĸģla",
        -6.048565992458057
      ],
      [
        "âĸģtÃŃ",
        -6.068374387755002
      ],
      [
        "áīµ",
        -6.096110948122641
      ],
      [
        "áį¢",
        -6.110340857665566
      ],
      [
        "áĭį",
        -6.11838166687987
      ],
      [
        "wa",
        -6.151516094865672
      ],
      [
        "ta",
        -6.162276114595008
      ],
      [
        "âĸģti",
        -6.166413491982507
      ],
      [
        "d",
        -6.180420782483898
      ],
      [
        "áĪµ",
        -6.2091443853804815
      ],
      [
        "áĪį",
        -6.248764732204702
      ],
      [
        "le",
        -6.25261892540221
      ],
      [
        "âĸģáĬł",
        -6.2770740193126855
      ],
      [
        "la",
        -6.285315628803412
      ],
      [
        "âĸģáĬĲáĭįáį¢",
        -6.286173131552806
      ],
      [
        "y",
        -6.286802770540778
      ],
      [
        "âĸģ-",
        -6.302567690215296
      ],
      [
        "ni",
        -6.344427152016751
      ],
      [
        "áĪŃ",
        -6.346415213405441
      ],
      [
        "âĸģÃ³",
        -6.34838759690515
      ],
      [
        ":",
        -6.353199925117771
      ],
      [
        "ra",
        -6.358235886448615
      ],
      [
        "ri",
        -6.385826369236733
      ],
      [
        "na",
        -6.415239681164659
      ],
      [
        "ma",
        -6.433774162320546
      ],
      [
        "âĸģin",
        -6.437975587115496
      ],
      [
        "âĸģto",
        -6.457133921065628
      ],
      [
        "âĸģO",
        -6.466202464464548
      ],
      [
        "âĸģand",
        -6.466375210683234
      ],
      [
        "ka",
        -6.502837777060801
      ],
      [
        "re",
        -6.504281514144678
      ],
      [
        "c",
        -6.509786588872636
      ],
      [
        "l",
        -6.549691649459124
      ],
      [
        "m",
        -6.5545565283459695
      ],
      [
        "âĸģÃłwá»įn",
        -6.595413046836361
      ],
      [
        "âĸģku",
        -6.5994723630754635
      ],
      [
        "âĸģáĪĿáĪ³áĪĮ",
        -6.599956420967903
      ],
      [
        "âĸģma",
        -6.632022591386949
      ],
      [
        "áĪĪ",
        -6.632474784131125
      ],
      [
        "âĸģkuma",
        -6.633471168743624
      ],
      [
        "âĸģÃł",
        -6.634828707936972
      ],
      [
        "âĸģI",
        -6.635993114815113
      ],
      [
        "áĭµ",
        -6.6488446611621175
      ],
      [
        "âĸģáĪĪ",
        -6.651675038241507
      ],
      [
        "sa",
        -6.652193403976801
      ],
      [
        "âĸģÃ¬",
        -6.6711027893376045
      ],
      [
        "ba",
        -6.679399190896159
      ],
      [
        "di",
        -6.696586536048116
      ],
      [
        "li",
        -6.715343997660133
      ],
      [
        "âĸģo",
        -6.7165300085328745
      ],
      [
        "âĸģÃĢwá»įn",
        -6.723697326588928
      ],
      [
        "ti",
        -6.733015966831589
      ],
      [
        "te",
        -6.7670469900009405
      ],
      [
        "âĸģkwa",
        -6.769045160451231
      ],
      [
        "da",
        -6.775108819616269
      ],
      [
        "âĸģáī°",
        -6.7752921174874405
      ],
      [
        "áĪĭ",
        -6.787239979581248
      ],
      [
        "k",
        -6.79756959808423
      ],
      [
        "âĸģáĬ¥áĬĵ",
        -6.804215326843238
      ],
      [
        "si",
        -6.809220980365421
      ],
      [
        "mi",
        -6.8094450685331935
      ],
      [
        "âĸģza",
        -6.81918897661517
      ],
      [
        "to",
        -6.824419270358952
      ],
      [
        "âĸģáĭŃ",
        -6.824973651462207
      ],
      [
        "âĸģjáº¹Ìģ",
        -6.843173662278188
      ],
      [
        "âĸģáĪĺ",
        -6.8462731090797
      ],
      [
        "áī¥",
        -6.859600400461641
      ],
      [
        "áī³",
        -6.870656483807133
      ],
      [
        "áį¡",
        -6.871352006230866
      ],
      [
        "âĸģÃłti",
        -6.876295684649685
      ],
      [
        "âĸģne",
        -6.880121316365923
      ],
      [
        "áĬŃ",
        -6.887603698006215
      ],
      [
        "áĪ¨",
        -6.8891945672505095
      ],
      [
        "áīł",
        -6.889842871179468
      ],
      [
        "g",
        -6.890172702853459
      ],
      [
        "ed",
        -6.890514700559045
      ],
      [
        "ya",
        -6.8991831203699
      ],
      [
        "âĸģMa",
        -6.9052130356444135
      ],
      [
        "âĸģle",
        -6.915251053450508
      ],
      [
        "ko",
        -6.91611004788359
      ],
      [
        "de",
        -6.916272872380171
      ],
      [
        "ro",
        -6.918284174976302
      ],
      [
        "áĪ«",
        -6.923149264231105
      ],
      [
        "áĭ«",
        -6.932711213647563
      ],
      [
        "se",
        -6.936087174575961
      ],
      [
        "me",
        -6.958980520157057
      ],
      [
        "áīĢ",
        -6.959116597736148
      ],
      [
        "ye",
        -6.963227398955992
      ],
      [
        "áĭŃ",
        -6.978576560492845
      ],
      [
        "áĮį",
        -6.981708906169805
      ],
      [
        "al",
        -6.984133319650203
      ],
      [
        "p",
        -6.9842195739785495
      ],
      [
        "âĸģba",
        -6.992086412636686
      ],
      [
        "in",
        -6.993410803443014
      ],
      [
        "âĸģE",
        -6.9995174506458415
      ],
      [
        "bi",
        -7.003737525791216
      ],
      [
        "áĪĺ",
        -7.0120799494669175
      ],
      [
        "âĸģet",
        -7.0134599829393025
      ],
      [
        "âĸģáĬ¥áĬķáĭ°",
        -7.024932956766381
      ],
      [
        "h",
        -7.027699486523668
      ],
      [
        "âĸģga",
        -7.027720720167311
      ],
      [
        "âĸģje",
        -7.02772838431685
      ],
      [
        "âĸģM",
        -7.038606177830449
      ],
      [
        "áīħ",
        -7.038674764459195
      ],
      [
        "âĸģcikin",
        -7.041893346208905
      ],
      [
        "âĸģi",
        -7.044860289979265
      ],
      [
        "áĮĪ",
        -7.06081018325844
      ],
      [
        "á",
        -7.0657743503551345
      ],
      [
        "ke",
        -7.07945771577738
      ],
      [
        "áī°",
        -7.083122358334487
      ],
      [
        "âĸģThe",
        -7.083913836303191
      ],
      [
        "áĪĽ",
        -7.084073611859811
      ],
      [
        ").",
        -7.086612799441296
      ],
      [
        "âĸģTa",
        -7.088723589185733
      ],
      [
        "ji",
        -7.090902353239445
      ],
      [
        "âĸģWa",
        -7.097772431397393
      ],
      [
        "lo",
        -7.0986814494058095
      ],
      [
        "\"",
        -7.0994740291073555
      ],
      [
        "áįį",
        -7.102194341846264
      ],
      [
        "áį¤",
        -7.105908761321242
      ],
      [
        "áĬĲ",
        -7.1077522311447385
      ],
      [
        "áĪ°",
        -7.112725983497745
      ],
      [
        "âĸģm",
        -7.118387239865017
      ],
      [
        "âĸģS",
        -7.121288278250532
      ],
      [
        "ki",
        -7.12202804480196
      ],
      [
        "âĸģkan",
        -7.123375197099831
      ],
      [
        "áĪ³",
        -7.127938627592146
      ],
      [
        "po",
        -7.128563607152765
      ],
      [
        "âĸģdaga",
        -7.1286811917523405
      ],
      [
        "âĸģáĪĭáĭŃ",
        -7.1288446661739275
      ],
      [
        "âĸģsÃŃ",
        -7.132517139271501
      ],
      [
        "áī£",
        -7.146200442268977
      ],
      [
        "áĮ¥",
        -7.148846791284884
      ],
      [
        "âĸģá»įdÃºn",
        -7.158836113886133
      ],
      [
        "âĸģ18",
        -7.160595297183171
      ],
      [
        "âĸģsi",
        -7.163045785073891
      ],
      [
        "âĸģkatika",
        -7.163266267230643
      ],
      [
        "âĸģÅĦ",
        -7.173549903107135
      ],
      [
        "âĸģáĭ¨áĪļ",
        -7.17591501932799
      ],
      [
        "áĪħ",
        -7.176651443448836
      ],
      [
        "zi",
        -7.178975954875746
      ],
      [
        "áĭ°",
        -7.193114815264499
      ],
      [
        "ci",
        -7.193949677035745
      ],
      [
        "áĭĭ",
        -7.195443177633944
      ],
      [
        "ga",
        -7.202811391676224
      ],
      [
        "âĸģU",
        -7.210362857280316
      ],
      [
        "âĸģre",
        -7.217791285742422
      ],
      [
        "er",
        -7.218125739804224
      ],
      [
        "âĸģati",
        -7.2219330575579885
      ],
      [
        "f",
        -7.2235447894119496
      ],
      [
        ";",
        -7.2318735396208265
      ],
      [
        "mo",
        -7.231903786242288
      ],
      [
        "áĬ¨",
        -7.232704657200035
      ],
      [
        "âĸģfi",
        -7.235222472267807
      ],
      [
        "áĬ¢áīµáĭ®áĮµáĭ«",
        -7.236805819493297
      ],
      [
        "áĭ³",
        -7.237536011767968
      ],
      [
        "th",
        -7.240821291776015
      ],
      [
        "áī½",
        -7.24113169280923
      ],
      [
        "b",
        -7.2446884052220035
      ],
      [
        "w",
        -7.248805437031834
      ],
      [
        "áĭİáī½",
        -7.249210788324328
      ],
      [
        "),",
        -7.251481486805551
      ],
      [
        "âĸģmwaka",
        -7.254880391219636
      ],
      [
        "ne",
        -7.261142557659603
      ],
      [
        "âĸģki",
        -7.271302534254726
      ],
      [
        "âĸģwá»įÌģn",
        -7.277142485708216
      ],
      [
        "áĬ«",
        -7.277221055181473
      ],
      [
        "Itokasi",
        -7.277957360841324
      ],
      [
        "áĭ¨áĬłáĪĽáĪŃáĬĽ",
        -7.281711450734045
      ],
      [
        "mu",
        -7.281922851287057
      ],
      [
        "âĸģráº¹ÌĢ",
        -7.2823713150966505
      ],
      [
        "áĬĽ",
        -7.289470551255189
      ],
      [
        "âĸģen",
        -7.296030919768894
      ],
      [
        "s,",
        -7.303039245195881
      ],
      [
        "áĭĿ",
        -7.310925397446141
      ],
      [
        "ing",
        -7.312735653203422
      ],
      [
        "ce",
        -7.322021585367464
      ],
      [
        "âĸģáĬ",
        -7.323574190758437
      ],
      [
        "âĸģáĭĪáĭ°",
        -7.323805545881587
      ],
      [
        "es",
        -7.331260261717889
      ],
      [
        "/",
        -7.332383700309512
      ],
      [
        "Ã©",
        -7.338377156520169
      ],
      [
        "âĸģK",
        -7.34258723250778
      ],
      [
        "âĸģdu",
        -7.344277201733343
      ],
      [
        "áĪª",
        -7.3533896681992825
      ],
      [
        "áĮł",
        -7.356994398341119
      ],
      [
        "âĸģ\"",
        -7.3570171813398275
      ],
      [
        "áī±",
        -7.360105878998125
      ],
      [
        "âĸģdes",
        -7.366984756442735
      ],
      [
        "âĸģKi",
        -7.367013104690741
      ],
      [
        "âĸģshi",
        -7.373511701422194
      ],
      [
        "tu",
        -7.374138494099698
      ],
      [
        "pa",
        -7.376569995861983
      ],
      [
        "ru",
        -7.38433039468249
      ],
      [
        "ku",
        -7.38879481792584
      ],
      [
        "fa",
        -7.394398209794005
      ],
      [
        "st",
        -7.3995686104208875
      ],
      [
        "âĸģá¹£e",
        -7.40257733876625
      ],
      [
        "âĸģko",
        -7.409298584927507
      ],
      [
        "áĭ¨",
        -7.413463081378113
      ],
      [
        "âĸģfÃºn",
        -7.41357908383795
      ],
      [
        "áĪī",
        -7.41601901806342
      ],
      [
        "âĸģse",
        -7.421877751925594
      ],
      [
        "âĸģáĬ¥",
        -7.4265854153032915
      ],
      [
        "âĸģBa",
        -7.4279781347236735
      ],
      [
        "áĪ½",
        -7.428401996805876
      ],
      [
        "âĸģWali",
        -7.428723489651283
      ],
      [
        "âĸģdi",
        -7.429087488383768
      ],
      [
        "fi",
        -7.430172230492838
      ],
      [
        "âĸģis",
        -7.430287138959375
      ],
      [
        "lu",
        -7.431211977586672
      ],
      [
        "âĸģyi",
        -7.437462857034353
      ],
      [
        "âĸģLa",
        -7.43929601069847
      ],
      [
        "rin",
        -7.440324325618729
      ],
      [
        "âĸģ|",
        -7.441503729880219
      ],
      [
        "âĸģáĭ«",
        -7.442076566736395
      ],
      [
        "áĬĲáīµ",
        -7.4465284257929145
      ],
      [
        "âĸģtÃ³",
        -7.4481562395572
      ],
      [
        "su",
        -7.455449569983841
      ],
      [
        "âĸģsa",
        -7.455870496155956
      ],
      [
        "âĸģáĭįáĪµáĮ¥",
        -7.4574255610993205
      ],
      [
        "áĮ£",
        -7.460804165576121
      ],
      [
        "âĸģmai",
        -7.461712030802749
      ],
      [
        "an",
        -7.463979970135572
      ],
      [
        "Â»",
        -7.4664370184136875
      ],
      [
        "áĪļ",
        -7.467788586530057
      ],
      [
        "áĪ®",
        -7.467834378770307
      ],
      [
        "'",
        -7.468474547077609
      ],
      [
        "âĸģÂ«",
        -7.470577334247967
      ],
      [
        "âĸģC",
        -7.470633140388356
      ],
      [
        "ly",
        -7.478886525622238
      ],
      [
        "âĸģsu",
        -7.482633229143293
      ],
      [
        "en",
        -7.489181177394078
      ],
      [
        "âĸģshekara",
        -7.493238160371774
      ],
      [
        "ar",
        -7.493658498004928
      ],
      [
        "áīłáīµ",
        -7.501258139239287
      ],
      [
        "be",
        -7.501344110662428
      ],
      [
        "âĸģcha",
        -7.503067259263215
      ],
      [
        "do",
        -7.503738391594286
      ],
      [
        "ja",
        -7.5115762641760995
      ],
      [
        "âĸģce",
        -7.51220964463338
      ],
      [
        "âĸģkutoka",
        -7.515289453534612
      ],
      [
        "âĸģles",
        -7.5185291116801825
      ],
      [
        "âĸģN",
        -7.523914867760466
      ],
      [
        "áĭĪ",
        -7.53199502930117
      ],
      [
        "áĪ©",
        -7.534564119710373
      ],
      [
        "âĸģKa",
        -7.538416539260348
      ],
      [
        "âĸģshekarar",
        -7.543744270858811
      ],
      [
        "âĸģan",
        -7.544005047911536
      ],
      [
        "âĸģbÃŃ",
        -7.544517708155526
      ],
      [
        "âĸģaka",
        -7.54701263935625
      ],
      [
        "âĸģáĭ¨áī°",
        -7.553773997064436
      ],
      [
        "âĸģSa",
        -7.55473891485002
      ],
      [
        "us",
        -7.559361821038015
      ],
      [
        "pe",
        -7.560091675219734
      ],
      [
        "du",
        -7.560233369604035
      ],
      [
        "ge",
        -7.561307141017368
      ],
      [
        "za",
        -7.563169549727604
      ],
      [
        "âĸģau",
        -7.5632431528510065
      ],
      [
        "áī¶",
        -7.5670610012174055
      ],
      [
        "kan",
        -7.567804459721824
      ],
      [
        "nu",
        -7.57058688628104
      ],
      [
        "âĸģÃĮ",
        -7.5709056031236965
      ],
      [
        "áĮĭ",
        -7.577479022276517
      ],
      [
        "âĸģnÃŃnÃº",
        -7.589082803810642
      ],
      [
        "we",
        -7.595591970094908
      ],
      [
        "âĸģke",
        -7.596810602743766
      ],
      [
        "gi",
        -7.605497634778949
      ],
      [
        "âĸģáĪ²",
        -7.606502017684683
      ],
      [
        "âĸģG",
        -7.612349970407616
      ],
      [
        "je",
        -7.623044657234097
      ],
      [
        "âĸģbi",
        -7.62497566913229
      ],
      [
        "âĸģun",
        -7.626259736084471
      ],
      [
        "âĸģáĪĽ",
        -7.630587002981882
      ],
      [
        "âĸģ:",
        -7.631425219003873
      ],
      [
        "x",
        -7.632302104701997
      ],
      [
        "ha",
        -7.63942456088885
      ],
      [
        "âĸģÃĵ",
        -7.644647836533073
      ],
      [
        "âĸģá»įmá»į",
        -7.644737740189024
      ],
      [
        "âĸģlÃ¡ti",
        -7.65007687934861
      ],
      [
        "âĸģfor",
        -7.656018521393175
      ],
      [
        "âĸģF",
        -7.676560729305811
      ],
      [
        "âĸģnÃ¡Ãł",
        -7.678035308914666
      ],
      [
        "âĸģAn",
        -7.678277107213621
      ],
      [
        "bu",
        -7.678773613455839
      ],
      [
        "go",
        -7.680460034269807
      ],
      [
        "âĸģáīµáĪŃáĮīáĪĻ",
        -7.686526117045952
      ],
      [
        "áĪĬ",
        -7.6868375283151575
      ],
      [
        "âĸģu",
        -7.687459917781791
      ],
      [
        "so",
        -7.6876114367118085
      ],
      [
        "un",
        -7.688405497696754
      ],
      [
        "áĪİ",
        -7.689308328312139
      ],
      [
        "âĸģâĢĵ",
        -7.691590274791691
      ],
      [
        "âĸģáĬĲáīłáĪŃáį¢",
        -7.70543781518376
      ],
      [
        "âĸģ1",
        -7.707148903846836
      ],
      [
        "bo",
        -7.707296215371786
      ],
      [
        "âĸģáĪ²áĪĨáĬķ",
        -7.711355698099119
      ],
      [
        "áĭĽ",
        -7.711604328168946
      ],
      [
        "áīĥ",
        -7.714845413525218
      ],
      [
        "âĸģáīĢáĬķ",
        -7.721267624666037
      ],
      [
        "áĪ",
        -7.723416291181428
      ],
      [
        "âĸģwanda",
        -7.723982919367563
      ],
      [
        "âĸģP",
        -7.725349059107433
      ],
      [
        "lÃ©",
        -7.7264395753485005
      ],
      [
        "âĸģsÃ¬",
        -7.731179566779751
      ],
      [
        "on",
        -7.731236733750455
      ],
      [
        "âĸģáĮįáĬķ",
        -7.73135902806604
      ],
      [
        "âĸģNÃłÃ¬jÃŃrÃŃÃł",
        -7.747402210629014
      ],
      [
        "âĸģáĭĪáĭŃáĪĿ",
        -7.751249708261369
      ],
      [
        "áĬ¥",
        -7.753363831754337
      ],
      [
        "âĸģáĮĬáĭľ",
        -7.75597826925744
      ],
      [
        "į",
        -7.756223138861065
      ],
      [
        "áĭĬ",
        -7.759522007254542
      ],
      [
        "âĸģas",
        -7.768234701756464
      ],
      [
        "áĬĿ",
        -7.77422495209785
      ],
      [
        "áĭĺ",
        -7.778703889017198
      ],
      [
        "âĸģwas",
        -7.781556400607272
      ],
      [
        "ment",
        -7.783026491223559
      ],
      [
        "z",
        -7.784773217723767
      ],
      [
        "âĸģT",
        -7.787806433144871
      ],
      [
        "âĸģÃĢ",
        -7.789665831398491
      ],
      [
        "áĬł",
        -7.792713659503976
      ],
      [
        "âĸģpar",
        -7.797759556496407
      ],
      [
        "shi",
        -7.799393071435219
      ],
      [
        "âĸģáīłáĬĭáĪĭ",
        -7.801764633481172
      ],
      [
        "áĬĴ",
        -7.8018140268111225
      ],
      [
        "áīĨ",
        -7.80707534792626
      ],
      [
        "âĸģáĬ¥áĪµáĬ¨",
        -7.809777866244675
      ],
      [
        "áĭįáĬķ",
        -7.810803071710383
      ],
      [
        "ter",
        -7.81181912046417
      ],
      [
        "is",
        -7.812435894620647
      ],
      [
        "s.",
        -7.814409486973588
      ],
      [
        "ng",
        -7.816092880535798
      ],
      [
        "'s",
        -7.817718241440673
      ],
      [
        "yo",
        -7.820967943064337
      ],
      [
        "âĸģest",
        -7.822103596517223
      ],
      [
        "âĸģLe",
        -7.8343853622727515
      ],
      [
        "âĸģka",
        -7.838824975992207
      ],
      [
        "âĸģNobel",
        -7.838842624988933
      ],
      [
        "wo",
        -7.839638654552688
      ],
      [
        "âĸģvi",
        -7.840481714898836
      ],
      [
        "âĸģkama",
        -7.840577254548647
      ],
      [
        "vi",
        -7.844142362751446
      ],
      [
        "âĸģawon",
        -7.848381645384412
      ],
      [
        "áĪĻ",
        -7.8511382765123034
      ],
      [
        "co",
        -7.851565918035197
      ],
      [
        "áĪŀ",
        -7.855277562585922
      ],
      [
        "v",
        -7.859493778934915
      ],
      [
        "âĸģzuwa",
        -7.862037592513278
      ],
      [
        "âĸģáĭĺáĪĺáĬķ",
        -7.862075534930831
      ],
      [
        "man",
        -7.864212420924243
      ],
      [
        "áīģ",
        -7.874389376208526
      ],
      [
        "âĸģáī°áĪ¨áīµ",
        -7.874517550091728
      ],
      [
        "âĸģMi",
        -7.87494741120492
      ],
      [
        "mba",
        -7.876052827081118
      ],
      [
        "âĸģáĬĲáĭį",
        -7.877943008681168
      ],
      [
        "gu",
        -7.879977938993266
      ],
      [
        "áĬ©",
        -7.881870015193183
      ],
      [
        "áī²",
        -7.887182792861266
      ],
      [
        "fu",
        -7.887871348425984
      ],
      [
        "sha",
        -7.889032099339053
      ],
      [
        "âĸģHa",
        -7.889698262306842
      ],
      [
        "Ãł",
        -7.8954513373274935
      ],
      [
        "ation",
        -7.89713659153213
      ],
      [
        "áĪĮ",
        -7.897827519985755
      ],
      [
        "ch",
        -7.899662080428994
      ],
      [
        "ck",
        -7.899976617762073
      ],
      [
        "rÃŃ",
        -7.900579573044592
      ],
      [
        "âĸģby",
        -7.903292092475336
      ],
      [
        "áĪ»",
        -7.905740143823108
      ],
      [
        "âĸģfa",
        -7.907932475136553
      ],
      [
        "zo",
        -7.9091753308545005
      ],
      [
        "âĸģNajeriya",
        -7.913128835516664
      ],
      [
        "âĸģbe",
        -7.915315727560648
      ],
      [
        "it",
        -7.9174956445818
      ],
      [
        "hi",
        -7.918547253548748
      ],
      [
        "âĸģali",
        -7.922316265460767
      ],
      [
        "âĸģgba",
        -7.924307919653598
      ],
      [
        "or",
        -7.926849626464936
      ],
      [
        "âĸģB",
        -7.928673677011236
      ],
      [
        "va",
        -7.932971295028704
      ],
      [
        "âĸģIn",
        -7.936556603333946
      ],
      [
        "âĸģL",
        -7.941342876023052
      ],
      [
        "âĸģáĭĵ.áĪĿ.",
        -7.942181506219603
      ],
      [
        "ur",
        -7.9430527622054665
      ],
      [
        "áįĭ",
        -7.943890032047266
      ],
      [
        "áĪ¬",
        -7.946275915287513
      ],
      [
        "âĸģdon",
        -7.952201698944137
      ],
      [
        "âĸģÃ¬lÃº",
        -7.953326510739156
      ],
      [
        "âĸģ(19",
        -7.95476248896601
      ],
      [
        "âĸģNi",
        -7.958869474422363
      ],
      [
        "âĸģDa",
        -7.962714379867958
      ],
      [
        "âĸģl'",
        -7.9677861444631795
      ],
      [
        "A",
        -7.9695371985917625
      ],
      [
        "ju",
        -7.970150177057681
      ],
      [
        "âĸģso",
        -7.972176977253945
      ],
      [
        "âĸģYa",
        -7.973465175977008
      ],
      [
        "âĸģMo",
        -7.974011815780235
      ],
      [
        "áĭ±",
        -7.975764312105657
      ],
      [
        "âĸģfun",
        -7.977719153679255
      ],
      [
        "âĸģhu",
        -7.97857365767447
      ],
      [
        "âĸģÃ²",
        -7.980766367592231
      ],
      [
        "âĸģáĬłáĭŃ",
        -7.9812895125935786
      ],
      [
        "âĸģ17",
        -7.983341711356264
      ],
      [
        "2",
        -7.984033323613417
      ],
      [
        "âĸģáīłáĪĺ",
        -7.984415606158333
      ],
      [
        "âĸģon",
        -7.989188829888157
      ],
      [
        "âĸģwith",
        -7.9898508000876305
      ],
      [
        "âĸģwatan",
        -7.9910418525101345
      ],
      [
        "áį¡áį¡",
        -7.991177768733113
      ],
      [
        "Ã¡",
        -7.991761562274471
      ],
      [
        "âĸģNa",
        -7.9932952171628155
      ],
      [
        "áī¢",
        -7.993358471788513
      ],
      [
        "áĬĳ",
        -7.9945979408011585
      ],
      [
        "âĸģmatsayin",
        -7.996220047386911
      ],
      [
        "âĸģmi",
        -8.000081447455836
      ],
      [
        "âĸģsuka",
        -8.003014152646399
      ],
      [
        "ve",
        -8.004104577065378
      ],
      [
        "tion",
        -8.005264390759123
      ],
      [
        "âĸģarÃ¡",
        -8.005617259440237
      ],
      [
        "âĸģlati",
        -8.009230663842487
      ],
      [
        "âĸģnchi",
        -8.010195488650089
      ],
      [
        "ran",
        -8.01043070097811
      ],
      [
        "yi",
        -8.011393456021095
      ],
      [
        "á»įÌģ",
        -8.016004116398065
      ],
      [
        "âĸģAl",
        -8.016440143283722
      ],
      [
        "il",
        -8.018819451571355
      ],
      [
        "áĬĸ",
        -8.018939923742186
      ],
      [
        "1",
        -8.019875044075214
      ],
      [
        "âĸģwá»įn",
        -8.020140973098995
      ],
      [
        "awá»įn",
        -8.020164144762274
      ],
      [
        "âĸģ3",
        -8.021598173081523
      ],
      [
        "âĸģáĭŃáĪħ",
        -8.02378904524929
      ],
      [
        "áĬĶ",
        -8.028065981948055
      ],
      [
        "19",
        -8.028449063096627
      ],
      [
        "âĸģáĭ¨áĬł",
        -8.030017672520176
      ],
      [
        "âĸģáĬ¨áī°áĪĽ",
        -8.032247568871567
      ],
      [
        "âĸģáĪµáĪĪ",
        -8.033604280535014
      ],
      [
        "âĸģ2",
        -8.033610985410062
      ],
      [
        "áĮī",
        -8.035746593054208
      ],
      [
        "âĸģlo",
        -8.03968680328885
      ],
      [
        "âĸģkuwa",
        -8.039880475851836
      ],
      [
        "ent",
        -8.043655870153597
      ],
      [
        "jo",
        -8.04366636866492
      ],
      [
        "âĸģwasan",
        -8.044668928641292
      ],
      [
        "âĸģáĮĭáĪŃ",
        -8.048977203783993
      ],
      [
        "áĪĥ",
        -8.050491693059753
      ],
      [
        "áĬ®",
        -8.050605174420854
      ],
      [
        "C",
        -8.053376082676449
      ],
      [
        "che",
        -8.058166948802864
      ],
      [
        "áĮŃ",
        -8.058205085728671
      ],
      [
        "Ī",
        -8.058954065553301
      ],
      [
        "âĸģáĬłáĬķáĭµ",
        -8.06045337191304
      ],
      [
        "gun",
        -8.061526193877189
      ],
      [
        "áĮİ",
        -8.06267836244544
      ],
      [
        "âĸģal",
        -8.065177419939712
      ],
      [
        "âĸģyake",
        -8.067428832657072
      ],
      [
        "áĬĽáĭį",
        -8.067790921994654
      ],
      [
        "âĸģmo",
        -8.068050820244697
      ],
      [
        "âĸģara",
        -8.071242554676484
      ],
      [
        "áĪĺáĬķáĮįáĪ¥áīµ",
        -8.071492488040253
      ],
      [
        "áĭ¶",
        -8.071783436562002
      ],
      [
        "âĸģáĭ°áĮįáĪŀ",
        -8.0739305889948
      ],
      [
        "E",
        -8.08316749164833
      ],
      [
        "âĸģRa",
        -8.0905310731473
      ],
      [
        "âĸģRe",
        -8.09654482721295
      ],
      [
        "âĸģpa",
        -8.097068341540316
      ],
      [
        "áĪ²",
        -8.097752975873716
      ],
      [
        "âĸģha",
        -8.099073309263723
      ],
      [
        "âĢĻ",
        -8.099587709791749
      ],
      [
        "âĸģáĭĵáĬŃáĪįáīł.",
        -8.108254182003487
      ],
      [
        "âĸģáĭµáĪ¨áĪµ",
        -8.108908814371187
      ],
      [
        "mp",
        -8.109760781625218
      ],
      [
        "âĸģD",
        -8.109897648092703
      ],
      [
        "âĸģsun",
        -8.112108379267593
      ],
      [
        "âĸģwÃł",
        -8.115258225811388
      ],
      [
        "âĸģerÃ©",
        -8.116146171075107
      ],
      [
        "chi",
        -8.123020538215723
      ],
      [
        "ÃŃ",
        -8.124770480155048
      ],
      [
        "ozaliwa",
        -8.125759676471844
      ],
      [
        "âĸģvya",
        -8.12670214589238
      ],
      [
        "âĸģpe",
        -8.127889271936969
      ],
      [
        "Ã²",
        -8.129460490894045
      ],
      [
        "âĸģÆĻasar",
        -8.132314563891576
      ],
      [
        "âĸģNÃŃ",
        -8.132721708331443
      ],
      [
        "Ã³",
        -8.134700387130533
      ],
      [
        "âĸģiláº¹ÌĢ",
        -8.134877489454222
      ],
      [
        "âĸģVi",
        -8.137248259311793
      ],
      [
        "wi",
        -8.139945391425847
      ],
      [
        "âĸģPa",
        -8.142431776569667
      ],
      [
        "âĸģfrom",
        -8.144551433330557
      ],
      [
        "âĸģdÃ©",
        -8.144659879545983
      ],
      [
        "âĸģmata",
        -8.146440586944953
      ],
      [
        "lÃ¡",
        -8.147517643184525
      ],
      [
        "6",
        -8.148762188539228
      ],
      [
        "war",
        -8.149640581759574
      ],
      [
        "âĸģson",
        -8.150832037815098
      ],
      [
        "yar",
        -8.154677179483475
      ],
      [
        "âĸģkÃŃ",
        -8.162281004445699
      ],
      [
        "orÃŃláº¹ÌĢ-Ã¨dÃ¨",
        -8.162914103196595
      ],
      [
        "pi",
        -8.164525526540281
      ],
      [
        "ca",
        -8.166053191060417
      ],
      [
        "ir",
        -8.169996914400766
      ],
      [
        "âĸģáĭĪ",
        -8.17041549271555
      ],
      [
        "âĸģÃ¨dÃ¨",
        -8.170891423005651
      ],
      [
        "Ã¬",
        -8.171879144257835
      ],
      [
        "nd",
        -8.175314623599466
      ],
      [
        "âĸģáĪįáĮħ",
        -8.177752012383822
      ],
      [
        "âĸģile",
        -8.178197188434837
      ],
      [
        "ofariki",
        -8.179003059760069
      ],
      [
        "áī¡",
        -8.17903251707978
      ],
      [
        "âĸģ4",
        -8.184539747944163
      ],
      [
        "âĸģ16",
        -8.186570469038388
      ],
      [
        "áĭķ",
        -8.187901907405744
      ],
      [
        "âĸģFa",
        -8.189471914119302
      ],
      [
        "O",
        -8.189546018251361
      ],
      [
        "ll",
        -8.189943240113134
      ],
      [
        "âĸģDe",
        -8.190021937681822
      ],
      [
        "áĬ",
        -8.190040234205345
      ],
      [
        "âĸģSe",
        -8.190131569308193
      ],
      [
        "µ",
        -8.193440904057091
      ],
      [
        "áĭ",
        -8.19490303345204
      ],
      [
        "yan",
        -8.195530294673283
      ],
      [
        "el",
        -8.195916700998854
      ],
      [
        "âĸģáī¢",
        -8.19784891012042
      ],
      [
        "âĸģBo",
        -8.20235457161203
      ],
      [
        "S",
        -8.202604377253712
      ],
      [
        "âĸģdans",
        -8.206728891792192
      ],
      [
        "ine",
        -8.206927728095962
      ],
      [
        "âĸģor",
        -8.208472888668496
      ],
      [
        "âĸģ5",
        -8.208524762356545
      ],
      [
        "âĸģR",
        -8.209178013360523
      ],
      [
        "âĸģpÃ©",
        -8.209541330318011
      ],
      [
        "um",
        -8.214430436228456
      ],
      [
        "âĸģlÃ³",
        -8.215039000421111
      ],
      [
        "ho",
        -8.215660334381495
      ],
      [
        "âĸģjihar",
        -8.221380232553923
      ],
      [
        "âĸģManazarta",
        -8.221814539339467
      ],
      [
        "âĸģlá»į",
        -8.224272342242365
      ],
      [
        "ts",
        -8.224351913692377
      ],
      [
        "I",
        -8.224367216922932
      ],
      [
        "âĸģra",
        -8.224727161733869
      ],
      [
        "âĸģáī£",
        -8.225983793086527
      ],
      [
        "Ã¨",
        -8.228548344708265
      ],
      [
        "áº¹ÌĢ",
        -8.229489630810548
      ],
      [
        "hu",
        -8.229692307055211
      ],
      [
        "âĸģTuz",
        -8.229918076651648
      ],
      [
        "âĸģ15",
        -8.230575519774591
      ],
      [
        "âĸģMarekani",
        -8.232926603297274
      ],
      [
        "âĸģpro",
        -8.234459299776686
      ],
      [
        "âĢĿ",
        -8.241278527739746
      ],
      [
        "ver",
        -8.24205578608718
      ],
      [
        "âĸģKo",
        -8.242190253383134
      ],
      [
        "âĸģtare",
        -8.242584576643356
      ],
      [
        "âĸģoá¹£Ã¹",
        -8.245345047941989
      ],
      [
        "ry",
        -8.24802539652364
      ],
      [
        "âĸģâĢľ",
        -8.249287367076825
      ],
      [
        "âĸģyÃ¬ÃŃ",
        -8.249304089630078
      ],
      [
        "âĸģhii",
        -8.250882267900751
      ],
      [
        "âĸģune",
        -8.252863150873537
      ],
      [
        "âĸģ10",
        -8.25426069450712
      ],
      [
        "âĸģkasance",
        -8.255923896973023
      ],
      [
        "âĸģMat",
        -8.256035305935418
      ],
      [
        "âĸģili",
        -8.257699612648427
      ],
      [
        "âĸģthat",
        -8.258524886364768
      ],
      [
        "áº¹Ìģ",
        -8.260601923920682
      ],
      [
        "âĸģHe",
        -8.26136566293112
      ],
      [
        "áĮħ",
        -8.261517300363002
      ],
      [
        "âĸģá»įjá»įÌģ",
        -8.262222904769118
      ],
      [
        "áī¶áī½",
        -8.262263817633846
      ],
      [
        "D",
        -8.264127029846096
      ],
      [
        "âĸģáĪĽáĪĪáīµ",
        -8.26487821126557
      ],
      [
        "fin",
        -8.268195654509965
      ],
      [
        "4",
        -8.2688197570821
      ],
      [
        "áĭ²",
        -8.269331902497916
      ],
      [
        "rÃ©",
        -8.269391387783466
      ],
      [
        "âĸģGa",
        -8.273851005089233
      ],
      [
        "âĸģpia",
        -8.275015307074733
      ],
      [
        "âĸģáĬ«",
        -8.275863454747096
      ],
      [
        "7",
        -8.276000182591986
      ],
      [
        "P",
        -8.27943384332461
      ],
      [
        "áĭ®",
        -8.279687136533736
      ],
      [
        "yin",
        -8.28044083612873
      ],
      [
        "âĸģhis",
        -8.280731388540397
      ],
      [
        "B",
        -8.281232221703336
      ],
      [
        "dÃ©",
        -8.282938414384182
      ],
      [
        "âĸģyana",
        -8.283841002888623
      ],
      [
        "sta",
        -8.284943930924237
      ],
      [
        "âĸģKu",
        -8.287308040221882
      ],
      [
        "lla",
        -8.287545802274721
      ],
      [
        "áĮ«",
        -8.289080613613285
      ],
      [
        "kin",
        -8.289853351986542
      ],
      [
        "âĸģáĪĪáĪĺ",
        -8.292310638910752
      ],
      [
        "âĸģáĬķáĮīáĪ¥",
        -8.293079036773873
      ],
      [
        "âĸģáĪ°",
        -8.29366355096105
      ],
      [
        "âĸģ6",
        -8.293956138633382
      ],
      [
        "L",
        -8.294346700412968
      ],
      [
        "M",
        -8.296578700936049
      ],
      [
        "áį¦",
        -8.296663323510941
      ],
      [
        "âĸģibi",
        -8.302513134940812
      ],
      [
        "áī´",
        -8.304566495175843
      ],
      [
        "cha",
        -8.304984407024232
      ],
      [
        "âĸģÃ¨nÃ¬yÃłn",
        -8.305564634212628
      ],
      [
        "âĸģBi",
        -8.306081874187136
      ],
      [
        "âĸģtÃºn",
        -8.306584285715402
      ],
      [
        "âĸģáī³áĪªáĬŃ",
        -8.306981571157388
      ],
      [
        "âĸģáĪ°áĭį",
        -8.30785714308717
      ],
      [
        "áĪ±",
        -8.30809227509604
      ],
      [
        "que",
        -8.308117722755737
      ],
      [
        "âĸģcon",
        -8.308359676160125
      ],
      [
        "âĸģáīłáĬł",
        -8.311430480954582
      ],
      [
        "âĸģAfrika",
        -8.311942115049881
      ],
      [
        "áĭ©",
        -8.312870050379704
      ],
      [
        "âĸģ=",
        -8.312984547305831
      ],
      [
        "âĸģina",
        -8.31345794214549
      ],
      [
        "âĸģninu",
        -8.314753621560723
      ],
      [
        "'a",
        -8.314841249753938
      ],
      [
        "5",
        -8.315054617555063
      ],
      [
        "ī°áī°áĪ¨áĮİáĪĺ",
        -8.315462491685631
      ],
      [
        "áĪįáį¢",
        -8.318468174155537
      ],
      [
        "âĸģwon",
        -8.3195409897331
      ],
      [
        "âĸģfarko",
        -8.320487712201869
      ],
      [
        "âĸģ20",
        -8.32238033589251
      ],
      [
        "âĸģPapa",
        -8.32468711493879
      ],
      [
        "âĸģáĭ«áĪįá",
        -8.32762140577196
      ],
      [
        "áĬķáĮį",
        -8.328193589286387
      ],
      [
        "âĸģáī¥áĭĻ",
        -8.328537358036822
      ],
      [
        "he",
        -8.3296668438611
      ],
      [
        "âĸģqui",
        -8.33305390372306
      ],
      [
        "vo",
        -8.334483385387301
      ],
      [
        "âĸģci",
        -8.33647720359113
      ],
      [
        "3",
        -8.33720584282729
      ],
      [
        "áĪķ",
        -8.33739744323679
      ],
      [
        "mshindi",
        -8.342280046686993
      ],
      [
        "áī¸áĭį",
        -8.342528776044576
      ],
      [
        "áĮ½",
        -8.350549937430554
      ],
      [
        "áĬª",
        -8.35515448464438
      ],
      [
        "láº¹ÌĢ",
        -8.355398378317462
      ],
      [
        "âĸģat",
        -8.356344433522851
      ],
      [
        "âĸģSi",
        -8.358847973874271
      ],
      [
        "âĸģilÃ©",
        -8.36078347847258
      ],
      [
        "âĸģdo",
        -8.363057563693282
      ],
      [
        "âĸģhe",
        -8.363503373925242
      ],
      [
        "âĸģbÃ¡",
        -8.363658326066528
      ],
      [
        "âĸģRo",
        -8.366372921910928
      ],
      [
        "fe",
        -8.36689348442344
      ],
      [
        "âĸģhaife",
        -8.371033988409721
      ],
      [
        "âĸģwani",
        -8.375144318414732
      ],
      [
        "les",
        -8.380852690586549
      ],
      [
        "âĸģáº¹",
        -8.381481277256746
      ],
      [
        "gba",
        -8.383350929859851
      ],
      [
        "âĸģmu",
        -8.38418529973535
      ],
      [
        "âĸģranar",
        -8.386434757549962
      ],
      [
        "âĸģJa",
        -8.388550201283778
      ],
      [
        "âĸģsuna",
        -8.389220831872711
      ],
      [
        "she",
        -8.391441454990375
      ],
      [
        "ant",
        -8.391479443390592
      ],
      [
        "âĸģorile-ede",
        -8.391731943355037
      ],
      [
        "âĸģHo",
        -8.392020245648407
      ],
      [
        "son",
        -8.398241290981735
      ],
      [
        "âĸģhadi",
        -8.400029430579613
      ],
      [
        "âĸģáĬĲáĮĪáĪŃ",
        -8.400083331812317
      ],
      [
        "(",
        -8.402432823537813
      ],
      [
        "áĪ¶",
        -8.402861200795748
      ],
      [
        "âĸģáĪµáĪĿ",
        -8.405169480293132
      ],
      [
        "âĸģáĭĵ/áĪĿ",
        -8.405256808735384
      ],
      [
        "nga",
        -8.405806177692375
      ],
      [
        "ion",
        -8.40624573617876
      ],
      [
        "run",
        -8.407246217527348
      ],
      [
        "âĸģtana",
        -8.408312631736624
      ],
      [
        "j",
        -8.408783700758034
      ],
      [
        "âĸģfara",
        -8.409998271255317
      ],
      [
        "âĸģwali",
        -8.410570724331635
      ],
      [
        "áĪ¸",
        -8.410711561914779
      ],
      [
        "áī»",
        -8.411421624976278
      ],
      [
        "nta",
        -8.413392983294406
      ],
      [
        "san",
        -8.414241484456085
      ],
      [
        "âĸģTo",
        -8.415543280809258
      ],
      [
        "ká»į",
        -8.416368081514342
      ],
      [
        "ic",
        -8.416574855792405
      ],
      [
        "âĸģÃ©",
        -8.416667925000223
      ],
      [
        "âĸģá»į",
        -8.418498198140457
      ],
      [
        "âĸģpour",
        -8.419593966927959
      ],
      [
        "_",
        -8.42017391123826
      ],
      [
        "âĸģáĪ",
        -8.420308287277457
      ],
      [
        "âĸģbayan",
        -8.421367405218946
      ],
      [
        "áī¦",
        -8.42241626749672
      ],
      [
        "âĸģ7",
        -8.422941418316794
      ],
      [
        "âĸģáĪĬ",
        -8.4249746123039
      ],
      [
        "âĸģMe",
        -8.427149748265862
      ],
      [
        "âĸģáĭĭáĬĵ",
        -8.427905710271101
      ],
      [
        "âĸģLi",
        -8.428162619200386
      ],
      [
        "ze",
        -8.428678663634733
      ],
      [
        "âĸģáĮį",
        -8.429663669514591
      ],
      [
        "ukio",
        -8.433699356362087
      ],
      [
        "âĸģW",
        -8.434660063438878
      ],
      [
        "T",
        -8.435418955958044
      ],
      [
        "âĸģÃĮpÃŃnláº¹ÌĢ",
        -8.43847986217255
      ],
      [
        "âĸģbiyu",
        -8.438876075985023
      ],
      [
        "âĸģÃĴ",
        -8.439328251373901
      ],
      [
        "âĸģhar",
        -8.439362373095465
      ],
      [
        "sh",
        -8.439388278316796
      ],
      [
        "âĸģmasu",
        -8.44218008627123
      ],
      [
        "bÃŃ",
        -8.44226937573356
      ],
      [
        "âĸģDi",
        -8.443433138832884
      ],
      [
        "âĸģáĪµ",
        -8.443564593606188
      ],
      [
        "mbo",
        -8.444081680197936
      ],
      [
        "est",
        -8.444343915568313
      ],
      [
        "âĸģlokacin",
        -8.446616871720137
      ],
      [
        "âĸģCo",
        -8.446706007537212
      ],
      [
        "âĸģ12",
        -8.44677637810025
      ],
      [
        "et",
        -8.447396257116672
      ],
      [
        "20",
        -8.450489462963754
      ],
      [
        "âĸģMu",
        -8.452286025904435
      ],
      [
        "âĸģCa",
        -8.453956228117704
      ],
      [
        "áĭĵ",
        -8.45523529441259
      ],
      [
        "âĸģáĬ¢",
        -8.455304511272935
      ],
      [
        "kar",
        -8.457797641903118
      ],
      [
        "âĸģ/",
        -8.461246626070498
      ],
      [
        "âĸģkasar",
        -8.461703759212654
      ],
      [
        "ers",
        -8.46631603526428
      ],
      [
        "âĸģ14",
        -8.467609030062189
      ],
      [
        "áĪľ",
        -8.468883408332935
      ],
      [
        "âĸģjáº¹",
        -8.47189316001065
      ],
      [
        "âĸģd'",
        -8.472225338734425
      ],
      [
        "âĸģTanzania",
        -8.47393889794747
      ],
      [
        "âĸģ8",
        -8.479743373338659
      ],
      [
        "âĢĵ",
        -8.48115764804344
      ],
      [
        "âĸģex",
        -8.484399416153567
      ],
      [
        "áĪµáīµ",
        -8.485824592736765
      ],
      [
        "nÃŃ",
        -8.487683145610642
      ],
      [
        "kun",
        -8.488063596733099
      ],
      [
        "tar",
        -8.490246473492821
      ],
      [
        "£",
        -8.492519167175193
      ],
      [
        "N",
        -8.492725337177683
      ],
      [
        "âĸģSo",
        -8.494889169552598
      ],
      [
        "âĸģsur",
        -8.495549786823378
      ],
      [
        "âĸģá»įÌĢ",
        -8.495831849985644
      ],
      [
        "áįķ",
        -8.496404262272158
      ],
      [
        "jÃº",
        -8.496991752393228
      ],
      [
        "âĸģkÃ²",
        -8.498775560834796
      ],
      [
        "áįĬ",
        -8.503672451341785
      ],
      [
        "âĸģiá¹£áº¹Ìģ",
        -8.504530621271705
      ],
      [
        "âĸģBu",
        -8.50824973616051
      ],
      [
        "âĸģzama",
        -8.509130948567314
      ],
      [
        "tes",
        -8.510244536051774
      ],
      [
        "âĸģáĭ¨áĪĺ",
        -8.510611285641248
      ],
      [
        "âĸģ11",
        -8.512059082525147
      ],
      [
        "âĸģSu",
        -8.512950137639146
      ],
      [
        "já»į",
        -8.514202871341295
      ],
      [
        "nt",
        -8.516756427427932
      ],
      [
        "âĸģUniversity",
        -8.516945234225911
      ],
      [
        "nce",
        -8.518140972151402
      ],
      [
        "âĸģáīłáĭļáĪħ",
        -8.519027883103348
      ],
      [
        "âĸģbirnin",
        -8.520062976750749
      ],
      [
        "âĸģgáº¹Ìģgáº¹Ìģ",
        -8.521349058310964
      ],
      [
        "âĸģita",
        -8.523353392921692
      ],
      [
        "âĸģalikuwa",
        -8.524076236065651
      ],
      [
        "R",
        -8.525034412213211
      ],
      [
        "der",
        -8.531355785658256
      ],
      [
        "ul",
        -8.533410082480817
      ],
      [
        "áĪĪáĭį",
        -8.534110860824947
      ],
      [
        "tt",
        -8.534601762603799
      ],
      [
        "land",
        -8.53622227314215
      ],
      [
        "ty",
        -8.538510942843057
      ],
      [
        "âĸģáĬłáĪį",
        -8.540063943956993
      ],
      [
        "at",
        -8.54012193915598
      ],
      [
        "âĸģkati",
        -8.542086350528068
      ],
      [
        "sÃŃ",
        -8.543614639596019
      ],
      [
        "Ãº",
        -8.544284257496745
      ],
      [
        "min",
        -8.544443258205618
      ],
      [
        "âĸģáĬĲ",
        -8.545621425094787
      ],
      [
        "âĸģpáº¹ÌĢlÃº",
        -8.546121106769894
      ],
      [
        "tÃŃ",
        -8.546269695963169
      ],
      [
        "âĸģáĮĪ",
        -8.547129556996268
      ],
      [
        "âĸģli",
        -8.549377944160442
      ],
      [
        "âĸģkasa",
        -8.549739045466591
      ],
      [
        "áĪĢ",
        -8.555979052393893
      ],
      [
        "ction",
        -8.557886536277415
      ],
      [
        "âĸģáĪĺáĭ°áī¥",
        -8.558310284751766
      ],
      [
        "gbo",
        -8.558357155953441
      ],
      [
        "âĸģáīłáĪĽ",
        -8.562152966846675
      ],
      [
        "âĸģáĪ°áĭİáī½",
        -8.563557256369684
      ],
      [
        "]",
        -8.563925719850186
      ],
      [
        "mar",
        -8.565891233649328
      ],
      [
        "âĸģáĭ",
        -8.566549218686509
      ],
      [
        "âĸģ9",
        -8.567380052231687
      ],
      [
        "âĸģana",
        -8.57016043229254
      ],
      [
        "Į",
        -8.570619272182133
      ],
      [
        "âĸģmji",
        -8.57163307439953
      ],
      [
        "âĸģsha",
        -8.572546865299799
      ],
      [
        "am",
        -8.57329322647304
      ],
      [
        "0",
        -8.573717500945055
      ],
      [
        "âĸģcom",
        -8.576990197288195
      ],
      [
        "ire",
        -8.577139816930712
      ],
      [
        "âĸģAli",
        -8.578638910108001
      ],
      [
        "âĸģlugha",
        -8.578641686459834
      ],
      [
        "âĸģamba",
        -8.579527161163686
      ],
      [
        "âĸģáĬ¥áĬķáĭ²",
        -8.579640177773719
      ],
      [
        "âĸģp",
        -8.580749035553158
      ],
      [
        "áĪģ",
        -8.58200869117461
      ],
      [
        "tan",
        -8.583109937205059
      ],
      [
        "âĸģkwenye",
        -8.58346535547215
      ],
      [
        "âĸģco",
        -8.584304681774915
      ],
      [
        "âĸģáĭĺ",
        -8.586392743141085
      ],
      [
        "\".",
        -8.586529175117041
      ],
      [
        "âĸģf",
        -8.589241977928966
      ],
      [
        "áį¥",
        -8.590251596543933
      ],
      [
        "âĸģAmáº¹ÌģrÃŃkÃł",
        -8.591824438568063
      ],
      [
        "ngu",
        -8.59398786235742
      ],
      [
        "Ã¹",
        -8.596002708068898
      ],
      [
        "ana",
        -8.597044056006714
      ],
      [
        "gbe",
        -8.597804766031494
      ],
      [
        "áĮĢ",
        -8.59885702107216
      ],
      [
        "âĸģKristo",
        -8.600890804316439
      ],
      [
        "9",
        -8.60127630389486
      ],
      [
        "âĸģTi",
        -8.6019876837911
      ],
      [
        "áĪªáĭ«",
        -8.603780455936937
      ],
      [
        "ff",
        -8.606560920056202
      ],
      [
        "âĸģNew",
        -8.608757979154447
      ],
      [
        "âĸģsana",
        -8.609153773070105
      ],
      [
        "âĸģáĭĵáĪĿ",
        -8.610100918394636
      ],
      [
        "âĸģ'",
        -8.611192781270693
      ],
      [
        "âĸģbo",
        -8.611334399682216
      ],
      [
        "áĭ´",
        -8.612196918346152
      ],
      [
        "lia",
        -8.612636395812054
      ],
      [
        "F",
        -8.61289885257176
      ],
      [
        "âĸģtun",
        -8.614544201835248
      ],
      [
        "âĸģaiki",
        -8.61580787055755
      ],
      [
        "âĸģou",
        -8.618617908232425
      ],
      [
        "âĸģ13",
        -8.620800808815526
      ],
      [
        "âĸģáĭĵáĪĺáīµ",
        -8.621020696925722
      ],
      [
        "cu",
        -8.621524740965011
      ],
      [
        "âĸģcewa",
        -8.621538085463689
      ],
      [
        "âĸģju",
        -8.621662015716973
      ],
      [
        "âĸģil",
        -8.623595346480222
      ],
      [
        "âĸģáĬ¤",
        -8.62432277757648
      ],
      [
        "âĸģLo",
        -8.627820627858874
      ],
      [
        "tun",
        -8.629125105427986
      ],
      [
        "Baada",
        -8.629757986255271
      ],
      [
        "?",
        -8.630294740964613
      ],
      [
        "âĸģLu",
        -8.632121787833356
      ],
      [
        "vu",
        -8.632964487378684
      ],
      [
        "tÃłbÃŃ",
        -8.63302566914254
      ],
      [
        "ron",
        -8.633356674215118
      ],
      [
        "âĸģdan",
        -8.6341026469948
      ],
      [
        "Jihar",
        -8.634695848103949
      ],
      [
        "âĸģÃ²á¹£Ã¨rÃ©",
        -8.635423532152377
      ],
      [
        "âĸģmÃ¡a",
        -8.637133880676153
      ],
      [
        "âĸģTe",
        -8.63740304129821
      ],
      [
        "âĸģráº¹",
        -8.638886946635461
      ],
      [
        "âĸģque",
        -8.64163547824365
      ],
      [
        "cho",
        -8.64174690613183
      ],
      [
        "âĸģáĬ¨áĭļáĪħ",
        -8.64200108222786
      ],
      [
        "âĸģGu",
        -8.642026404326003
      ],
      [
        "âĸģáĪģáĪī",
        -8.642524778996519
      ],
      [
        "âĸģFi",
        -8.64614701946351
      ],
      [
        "âĸģáį¡",
        -8.64648983202537
      ],
      [
        "áĮ¸",
        -8.646681494765595
      ],
      [
        "áĮ¨",
        -8.647436542307291
      ],
      [
        "áī¤",
        -8.648753562088427
      ],
      [
        "áĪĪáīµ",
        -8.655892926802549
      ],
      [
        "tsa",
        -8.656430992988657
      ],
      [
        "lle",
        -8.659140007537625
      ],
      [
        "ton",
        -8.65950570118057
      ],
      [
        "áī¹",
        -8.659594323892593
      ],
      [
        "áĪĺáĬķ",
        -8.660016349360609
      ],
      [
        "18",
        -8.661016643521743
      ],
      [
        "âĸģkafa",
        -8.662130243536993
      ],
      [
        "áī°áĭį",
        -8.662976572126208
      ],
      [
        "âĸģDo",
        -8.66438565407176
      ],
      [
        "áĪ´",
        -8.664538759317319
      ],
      [
        "âĸģÃ¨yÃŃ",
        -8.665062651983828
      ],
      [
        "âĸģyÃŃ",
        -8.665835781935549
      ],
      [
        "âĸģáĪĪáĪĽ",
        -8.666844793782037
      ],
      [
        "ou",
        -8.669008848099597
      ],
      [
        "âĸģAfirka",
        -8.670082808778902
      ],
      [
        "âĸģpo",
        -8.670728031549917
      ],
      [
        "âĸģá»Į",
        -8.672576719656872
      ],
      [
        "áº¹",
        -8.677109269725362
      ],
      [
        "jÃł",
        -8.67786286971653
      ],
      [
        "°",
        -8.678225877265664
      ],
      [
        "âĸģinda",
        -8.681064748060646
      ],
      [
        "gen",
        -8.68106509512231
      ],
      [
        "nda",
        -8.68233995352068
      ],
      [
        "ren",
        -8.683284948304065
      ],
      [
        "âĸģBe",
        -8.683962214147309
      ],
      [
        "âĸģtu",
        -8.684977169263366
      ],
      [
        "áĪļáĭ«",
        -8.687369498097516
      ],
      [
        "âĸģrÃ©",
        -8.68831085501976
      ],
      [
        "âĸģáĮ¥",
        -8.688931556666171
      ],
      [
        "âĸģKe",
        -8.68914809056411
      ],
      [
        "áįİ",
        -8.690240439951802
      ],
      [
        "tro",
        -8.690636095669523
      ],
      [
        "H",
        -8.690921873342658
      ],
      [
        "tÃ©",
        -8.691022698984922
      ],
      [
        "âĸģKwa",
        -8.691904528545498
      ],
      [
        "ria",
        -8.69296548455455
      ],
      [
        "áīµáĬķ",
        -8.693062112146798
      ],
      [
        "âĸģinahus",
        -8.693161077619278
      ],
      [
        "âĸģohun",
        -8.695200376680928
      ],
      [
        "âĸģomo",
        -8.6952790794611
      ],
      [
        "áīĤ",
        -8.695459882246796
      ],
      [
        "áĬ¤",
        -8.69729375337618
      ],
      [
        "âĸģHar",
        -8.69795314023198
      ],
      [
        "áĪµáī°",
        -8.69843687016339
      ],
      [
        "âĸģNigeria",
        -8.699719924912115
      ],
      [
        "âĸģáī¤áīµ",
        -8.701468407286509
      ],
      [
        "áįī",
        -8.701781852452484
      ],
      [
        "âĸģgaba",
        -8.70485685299304
      ],
      [
        "âĸģáĬĲáīłáĪŃ",
        -8.705200805324694
      ],
      [
        "U",
        -8.70677043132607
      ],
      [
        "âĸģMakal",
        -8.706885559048368
      ],
      [
        "áĪĺáĪį",
        -8.709247645255962
      ],
      [
        "âĸģHi",
        -8.709700796225034
      ],
      [
        "âĸģáīµ",
        -8.71171245889145
      ],
      [
        "âĸģyawan",
        -8.711785269413303
      ],
      [
        "res",
        -8.712554623069737
      ],
      [
        "pin",
        -8.713545094573918
      ],
      [
        "áĪīáį¢",
        -8.715453889099162
      ],
      [
        "âĸģáīĭáĬķáīĭ",
        -8.715696899896365
      ],
      [
        "ngo",
        -8.71571165472121
      ],
      [
        "áĪĲ",
        -8.718520317354146
      ],
      [
        "âĸģme",
        -8.718677198761759
      ],
      [
        "áĮĥ",
        -8.724136362162806
      ],
      [
        "¥",
        -8.725327468340112
      ],
      [
        "=",
        -8.725784598458823
      ],
      [
        "âĸģáĮĢáĪĿáĪ®",
        -8.725957301278799
      ],
      [
        "âĸģáīħ",
        -8.726308488640619
      ],
      [
        "âĸģáº¹ÌĢ",
        -8.727591922524386
      ],
      [
        "láº¹",
        -8.730312286517664
      ],
      [
        "âĸģare",
        -8.730641398216529
      ],
      [
        "âĸģplus",
        -8.731509249329237
      ],
      [
        "K",
        -8.732454090731341
      ],
      [
        "âĸģÆĻwallon",
        -8.733243271937733
      ],
      [
        "âĸģca",
        -8.734793644514404
      ],
      [
        "zu",
        -8.73538646106214
      ],
      [
        "áĭĻ",
        -8.735661172912232
      ],
      [
        "lin",
        -8.738086028122034
      ],
      [
        "âĸģáī³",
        -8.73815645031127
      ],
      [
        "âĸģgbogbo",
        -8.738241158860905
      ],
      [
        "âĸģáĭ«áĪĪ",
        -8.738269328045657
      ],
      [
        "âĸģáĬ¥áĬķáĭ³",
        -8.73973910384529
      ],
      [
        "ique",
        -8.739802723528511
      ],
      [
        "âĸģEn",
        -8.741056867933871
      ],
      [
        "ura",
        -8.743100842849532
      ],
      [
        "dÃ¡",
        -8.746031956438706
      ],
      [
        "din",
        -8.749927865793696
      ],
      [
        "áĪĺáĮĢáĪĺáĪªáĭ«",
        -8.750981843308342
      ],
      [
        "Ã©e",
        -8.751731919422497
      ],
      [
        "á¹£e",
        -8.75190863439419
      ],
      [
        "âĸģáĬłáĮĪáĪŃ",
        -8.753082287671427
      ],
      [
        "âĸģáĭ¨áĪļáĮĪáĬĿ",
        -8.753158140171845
      ],
      [
        "áĮĬ",
        -8.753465360877552
      ],
      [
        "id",
        -8.7545638587212
      ],
      [
        "âĸģAmerika",
        -8.754990337098233
      ],
      [
        "âĸģH",
        -8.75515343708851
      ],
      [
        "âĸģiya",
        -8.755858169492686
      ],
      [
        "âĸģsai",
        -8.75607903448406
      ],
      [
        "nci",
        -8.757968575494084
      ],
      [
        "áīłáĪŃ",
        -8.758030907787628
      ],
      [
        "âĸģáĬĵáī¸áĭįáį¢",
        -8.758170062388459
      ],
      [
        "fo",
        -8.758284252954526
      ],
      [
        "âĸģk",
        -8.760450511407823
      ],
      [
        "âĸģáĭĺáĬķáĭµ",
        -8.760484147455543
      ],
      [
        "âĸģSha",
        -8.761796769059126
      ],
      [
        "áĪ®áī½",
        -8.764597216880638
      ],
      [
        "âĸģáĬ¥áĭ¨",
        -8.76589795119057
      ],
      [
        "ris",
        -8.767038748409545
      ],
      [
        "W",
        -8.768411305029394
      ],
      [
        "áĭī",
        -8.768573241176156
      ],
      [
        "áĮĪáī£",
        -8.768786803196255
      ],
      [
        "cin",
        -8.769941539619316
      ],
      [
        "âĸģ(an",
        -8.770726954620642
      ],
      [
        "âĸģRu",
        -8.770842241625033
      ],
      [
        "âĸģnÃŃgbÃł",
        -8.772321120486769
      ],
      [
        "14",
        -8.77330567393102
      ],
      [
        "âĸģdÃ¡",
        -8.773496495269463
      ],
      [
        "·",
        -8.775916402383842
      ],
      [
        "G",
        -8.77875693432002
      ],
      [
        "ster",
        -8.78075272867715
      ],
      [
        "âĸģMata",
        -8.784233234131298
      ],
      [
        "âĸģHu",
        -8.785259093223084
      ],
      [
        "im",
        -8.786672830481912
      ],
      [
        "16",
        -8.786684201749619
      ],
      [
        "ndo",
        -8.787251449771707
      ],
      [
        "³",
        -8.788303268177888
      ],
      [
        "ity",
        -8.789220018680863
      ],
      [
        "per",
        -8.791253339054483
      ],
      [
        "âĸģtele",
        -8.793569615167689
      ],
      [
        "âĸģáĬ®",
        -8.795810550224314
      ],
      [
        "âĸģwannan",
        -8.796947875190677
      ],
      [
        "âĸģgbÃ©",
        -8.799030033121017
      ],
      [
        "âĸģbabban",
        -8.79917830153535
      ],
      [
        "ther",
        -8.799723530540563
      ],
      [
        "âĸģlÃ¨",
        -8.799856674053261
      ],
      [
        "áĭĪáĮ£",
        -8.799925762033013
      ],
      [
        "âĸģIl",
        -8.800847577060438
      ],
      [
        "âĸģáĬłáĪĪ",
        -8.80207556884843
      ],
      [
        "âĸģdake",
        -8.80314107488617
      ],
      [
        "âĸģBK",
        -8.803879128597018
      ],
      [
        "âĸģáī¥áī»",
        -8.804526318665081
      ],
      [
        "áĬ¥áĬķáĭ²áĪģáĪĿ",
        -8.804529056694367
      ],
      [
        "8",
        -8.80671896846864
      ],
      [
        "lan",
        -8.810704393643407
      ],
      [
        "áĪł",
        -8.811481889850798
      ],
      [
        "âĸģZa",
        -8.814285191019758
      ],
      [
        "âĸģJe",
        -8.814392107146846
      ],
      [
        "âĸģwatu",
        -8.816303192703614
      ],
      [
        "ger",
        -8.817023837645241
      ],
      [
        "âĸģwake",
        -8.81983913168421
      ],
      [
        "âĸģáĬłáĬķ",
        -8.820336170955898
      ],
      [
        "e,",
        -8.82141657815919
      ],
      [
        "âĸģá»įdun",
        -8.821563535514663
      ],
      [
        "áĮĮ",
        -8.821611263678909
      ],
      [
        "áĪĭáī¸áĭį",
        -8.821807171650521
      ],
      [
        "âĸģsá»į",
        -8.82244428599212
      ],
      [
        "âĸģJ",
        -8.822743061437249
      ],
      [
        "áĬķáĪĿ",
        -8.824475478338675
      ],
      [
        "âĸģWá»įÌģn",
        -8.824478464146122
      ],
      [
        "lÃ¨",
        -8.824879291631785
      ],
      [
        "gbÃ¡",
        -8.82535149451603
      ],
      [
        "ting",
        -8.82619521807762
      ],
      [
        "âĸģdaya",
        -8.827557707682786
      ],
      [
        "áĭĭáĪįáį¢",
        -8.829369226383532
      ],
      [
        "áĭįáĭ«áĬķ",
        -8.829804129682515
      ],
      [
        "yu",
        -8.830223277131067
      ],
      [
        "á»įÌĢ",
        -8.832573932120855
      ],
      [
        "wu",
        -8.833290349483006
      ],
      [
        "sehemu",
        -8.833692537842591
      ],
      [
        "âĸģwhich",
        -8.834619455751975
      ],
      [
        "mbi",
        -8.834683518246715
      ],
      [
        "âĸģb",
        -8.834971014965554
      ],
      [
        "âĸģorin",
        -8.835854846627047
      ],
      [
        "âĸģyankin",
        -8.837019917399672
      ],
      [
        "ut",
        -8.837146250024073
      ],
      [
        "kwa",
        -8.83738218201422
      ],
      [
        "kÃ³",
        -8.837652977200216
      ],
      [
        "âĸģáĭ°",
        -8.838353267604136
      ],
      [
        "âĸģake",
        -8.838743554309339
      ],
      [
        "áĪĺáĪŃ",
        -8.840036606591527
      ],
      [
        "âĸģho",
        -8.840465211263055
      ],
      [
        "pÃ¡",
        -8.84096879068963
      ],
      [
        "âĸģCon",
        -8.841782915116758
      ],
      [
        "em",
        -8.84703578367244
      ],
      [
        "âĸģáīģáĮ¥áĪŃ",
        -8.848624162141272
      ],
      [
        "á»į",
        -8.84954882096108
      ],
      [
        "âĸģÆĻafa",
        -8.849552602573251
      ],
      [
        "áĬ¨áī°",
        -8.84974853375533
      ],
      [
        "âĸģCha",
        -8.851559868472894
      ],
      [
        "âĸģKarn",
        -8.857399130543858
      ],
      [
        "áĮĤ",
        -8.858331757164414
      ],
      [
        "âĸģáĪĨáĬĲ",
        -8.859554559847448
      ],
      [
        "âĸģlÃ³rÃŃ",
        -8.860901697668256
      ],
      [
        "âĸģáº¹ÌĢká»įÌģ",
        -8.861530498893934
      ],
      [
        "12",
        -8.862435970983467
      ],
      [
        "áįĴ",
        -8.862445934981295
      ],
      [
        "âĸģja",
        -8.86332535256918
      ],
      [
        "%",
        -8.863426777746024
      ],
      [
        "áī½áĬķ",
        -8.86382616954224
      ],
      [
        "âĸģPo",
        -8.863911099401056
      ],
      [
        "âĸģmkuu",
        -8.864828513882612
      ],
      [
        "âĸģsamu",
        -8.865105488293084
      ],
      [
        "âĸģwÃ¡",
        -8.866605081799042
      ],
      [
        "âĸģg",
        -8.867840758134378
      ],
      [
        "kÃł",
        -8.868564990768778
      ],
      [
        "âĸģ19",
        -8.868915050428903
      ],
      [
        "á»įjá»įÌģÃ¬bÃŃ",
        -8.870016179654368
      ],
      [
        "miaka",
        -8.870035060285822
      ],
      [
        "áįĵ",
        -8.871151221256065
      ],
      [
        "âĸģlakini",
        -8.873041436320594
      ],
      [
        "âĸģáīłáī°",
        -8.87608592302656
      ],
      [
        "tÃł",
        -8.876585367160228
      ],
      [
        "âĸģáĭ¨áĬ",
        -8.877564580546501
      ],
      [
        "tic",
        -8.87851627003399
      ],
      [
        "the",
        -8.878617150196064
      ],
      [
        "âĸģpamoja",
        -8.87875068085217
      ],
      [
        "áĭ°áĪŃ",
        -8.879077140925725
      ],
      [
        "ure",
        -8.880275273169246
      ],
      [
        "âĸģNo",
        -8.880875028748314
      ],
      [
        "âĸģká»į",
        -8.881171974655311
      ],
      [
        "âĸģAr",
        -8.881616587036191
      ],
      [
        "âĸģkamar",
        -8.88215161666046
      ],
      [
        "âĸģnot",
        -8.885861057840401
      ],
      [
        "âĸģGo",
        -8.886292769597972
      ],
      [
        "áī°áĪŃ",
        -8.88723520577148
      ],
      [
        "âĸģYorÃ¹bÃ¡",
        -8.887779107997147
      ],
      [
        "áĮĵ",
        -8.888242144539804
      ],
      [
        "áĭ°áĪ¨",
        -8.889038182810534
      ],
      [
        "bÃ¡",
        -8.890412371683466
      ],
      [
        "âĸģRoma",
        -8.890573511940685
      ],
      [
        "âĸģmutane",
        -8.89064113520413
      ],
      [
        "tre",
        -8.890840393124938
      ],
      [
        "âĸģnje",
        -8.891998122477062
      ],
      [
        "op",
        -8.892048923695876
      ],
      [
        "avec",
        -8.892425071544116
      ],
      [
        "âĸģáīłáĬ",
        -8.89588289383218
      ],
      [
        "âĸģáīĢ",
        -8.896697864408443
      ],
      [
        "áĪĺáĮ£",
        -8.899429021154054
      ],
      [
        "jÃ¬",
        -8.89961093519114
      ],
      [
        "!",
        -8.90082397449959
      ],
      [
        "âĸģshugaban",
        -8.90134360675485
      ],
      [
        "ika",
        -8.902669800311463
      ],
      [
        "âĸģáĬ¥áĬķ",
        -8.903458658953259
      ],
      [
        "âĸģsiku",
        -8.90627663715193
      ],
      [
        "âĸģJu",
        -8.906554737676354
      ],
      [
        "sse",
        -8.907549081706684
      ],
      [
        "11",
        -8.9084882503245
      ],
      [
        "áĮ¦",
        -8.908648074563114
      ],
      [
        "cy",
        -8.909276304949378
      ],
      [
        "âĸģRi",
        -8.910484938560698
      ],
      [
        "áĮ¡",
        -8.910717094611982
      ],
      [
        "âĸģorÃŃ",
        -8.910746073849905
      ],
      [
        "ian",
        -8.9109874726944
      ],
      [
        "kuwa",
        -8.911734731979665
      ],
      [
        "nde",
        -8.912434410114509
      ],
      [
        "âĸģduniya",
        -8.912554600834198
      ],
      [
        "âĸģAde",
        -8.914361580296498
      ],
      [
        "iya",
        -8.915482507376137
      ],
      [
        "âĸģáĪĺáĬ«áĬ¨áĪį",
        -8.916592631369921
      ],
      [
        "âĸģnÃŃpa",
        -8.917300793139471
      ],
      [
        "âĸģáīłáĪĭáĭŃ",
        -8.919655145025523
      ],
      [
        "âĸģÃłrÃ¹n",
        -8.920818778676194
      ],
      [
        "áī¥áĪŃ",
        -8.921229472225452
      ],
      [
        "gbÃł",
        -8.921783649279208
      ],
      [
        "áĪ°áĭį",
        -8.92264851284471
      ],
      [
        "wÃ²",
        -8.924496989683744
      ],
      [
        "ie",
        -8.925030363016187
      ],
      [
        "tta",
        -8.92557731845123
      ],
      [
        "âĸģ2012",
        -8.926271219080157
      ],
      [
        "âĸģMwaka",
        -8.927893423334185
      ],
      [
        "lÃł",
        -8.929050734599224
      ],
      [
        "âĸģ(A",
        -8.929876747721874
      ],
      [
        "âĸģcan",
        -8.930553731131784
      ],
      [
        "gan",
        -8.931084782572102
      ],
      [
        "âĸģMar",
        -8.93171776496647
      ],
      [
        "âĸģwasu",
        -8.933278129065014
      ],
      [
        "âĸģáĪĨáĬĸ",
        -8.93352572852234
      ],
      [
        "ted",
        -8.933806544425016
      ],
      [
        "ance",
        -8.933990792937962
      ],
      [
        "âĸģ;",
        -8.9357837953736
      ],
      [
        "âĸģit",
        -8.937493993204674
      ],
      [
        "age",
        -8.93810416899605
      ],
      [
        "áĭĭáĪį",
        -8.938305795751587
      ],
      [
        "áīµáĪĿáĪħáĪŃáīµ",
        -8.93843335568573
      ],
      [
        "âĸģJohn",
        -8.938535223929168
      ],
      [
        "áĭİáī¹",
        -8.94086677472375
      ],
      [
        "áīłáĭĺáĪĺáĬĲ",
        -8.941151077706019
      ],
      [
        "âĸģáĬ¦",
        -8.941655382422407
      ],
      [
        "kÃ²",
        -8.942013930960623
      ],
      [
        "áĪĨ",
        -8.943658869259687
      ],
      [
        "ste",
        -8.944879766841344
      ],
      [
        "¡",
        -8.947417279339176
      ],
      [
        "âĸģ21",
        -8.948235828890963
      ],
      [
        "âĸģkÃ³",
        -8.949831665425144
      ],
      [
        "âĸģáĬŃ",
        -8.95067260416979
      ],
      [
        "ban",
        -8.951450332438624
      ],
      [
        "áī°áĬĽ",
        -8.951529670673693
      ],
      [
        "âĸģlÃ¡",
        -8.952206022578986
      ],
      [
        "âĸģodun",
        -8.952604337926273
      ],
      [
        "áįĪáĪŃ",
        -8.95343858730183
      ],
      [
        "âĸģÃ¬gbÃł",
        -8.95412324368454
      ],
      [
        "áīª",
        -8.954654203028802
      ],
      [
        "âĸģkwanza",
        -8.956293284818685
      ],
      [
        "áĭ«áĪį",
        -8.958193166227863
      ],
      [
        "âĸģáĬ¥.áĬ¤.áĬł.",
        -8.958390821519732
      ],
      [
        "nÃł",
        -8.960944417188133
      ],
      [
        "âĸģala",
        -8.961582013538855
      ],
      [
        "áĪĨáĬĳ",
        -8.96187137908755
      ],
      [
        "Ãºn",
        -8.963562116047521
      ],
      [
        "âĸģáī¤áī°",
        -8.965841033289694
      ],
      [
        "won",
        -8.968934349279332
      ],
      [
        "nne",
        -8.970176238839587
      ],
      [
        "lar",
        -8.970705649504104
      ],
      [
        "nin",
        -8.971656653132706
      ],
      [
        "âĸģSan",
        -8.971746660107701
      ],
      [
        "mbe",
        -8.972643061094887
      ],
      [
        "âĸģÉĹan",
        -8.972837075803916
      ],
      [
        "ture",
        -8.973968181653502
      ],
      [
        "âĸģ2010",
        -8.974336547764103
      ],
      [
        "áĭļ",
        -8.974725223473206
      ],
      [
        "ser",
        -8.975484940841595
      ],
      [
        "ven",
        -8.976454453163553
      ],
      [
        "âĸģáĬ¨áĬł",
        -8.978197883473776
      ],
      [
        "âĸģáīģ",
        -8.978361475583531
      ],
      [
        "âĸģNe",
        -8.979231122452394
      ],
      [
        "nan",
        -8.980017843396146
      ],
      [
        "uka",
        -8.980281036824627
      ],
      [
        "pá»įÌĢ",
        -8.981178210582447
      ],
      [
        "áĬ¦",
        -8.981305717766038
      ],
      [
        "âĸģgarin",
        -8.98261782451469
      ],
      [
        "âĸģbÃŃi",
        -8.983241018972679
      ],
      [
        "nya",
        -8.98359104925772
      ],
      [
        "má»įÌĢ",
        -8.98385755787867
      ],
      [
        "âĸģÃ¡",
        -8.984531555780833
      ],
      [
        "âĸģáī£áĪĪ",
        -8.98506920641854
      ],
      [
        "âĸģLes",
        -8.985657081537633
      ],
      [
        "âĸģwana",
        -8.985932082530402
      ],
      [
        "âĸģáº¹gbáº¹Ìģ",
        -8.986033616363704
      ],
      [
        "âĸģáī¥",
        -8.986701448100481
      ],
      [
        "âĸģÃ¬já»įba",
        -8.988578731099626
      ],
      [
        "áī±áĬķ",
        -8.989792744764253
      ],
      [
        "âĸģV",
        -8.991139645557594
      ],
      [
        "âĸģkai",
        -8.991824451388021
      ],
      [
        "âĸģAfrica",
        -8.992975156409846
      ],
      [
        "âĸģÃ¨tÃ²",
        -8.993321835644563
      ],
      [
        "âĸģbu",
        -8.993545704269954
      ],
      [
        "âĸģáīħáĭ±áĪµ",
        -8.993905340082689
      ],
      [
        "âĸģáĪ³",
        -8.99625542169583
      ],
      [
        "âĸģFor",
        -8.996502139747342
      ],
      [
        "âĸģÂ»",
        -8.997554602478488
      ],
      [
        "sion",
        -8.9980081649104
      ],
      [
        "10",
        -8.99834607025872
      ],
      [
        "âĸģilu",
        -8.998931632114912
      ],
      [
        "V",
        -8.99946553626705
      ],
      [
        "áĪ¨áĭį",
        -8.999822935370819
      ],
      [
        "áĪĿáį¢",
        -9.00039384442921
      ],
      [
        "âĸģhasa",
        -9.00115932859324
      ],
      [
        "âĸģeneo",
        -9.001748104868138
      ],
      [
        "15",
        -9.002162694058844
      ],
      [
        "dda",
        -9.004505217848022
      ],
      [
        "âĸģ2007",
        -9.00545283168159
      ],
      [
        "âĸģáĭ¨áĪĽ",
        -9.006126414913235
      ],
      [
        "âĸģWe",
        -9.008119736163387
      ],
      [
        "áĪĭáīµ",
        -9.008178077994367
      ],
      [
        "âĸģmá»įÌģ",
        -9.009572141886327
      ],
      [
        "âĸģjama'a",
        -9.009932503060076
      ],
      [
        "âĸģwere",
        -9.01117900774207
      ],
      [
        "âĸģShi",
        -9.013931390749345
      ],
      [
        "âĸģ2013",
        -9.01420675483753
      ],
      [
        "âĸģno",
        -9.014738361109803
      ],
      [
        "ungo",
        -9.016560388189324
      ],
      [
        "âĸģWar",
        -9.016785351782948
      ],
      [
        "âĸģalÃ¡",
        -9.017014713980164
      ],
      [
        "ise",
        -9.01726940894312
      ],
      [
        "âĸģd'un",
        -9.017412696071883
      ],
      [
        "áīĢáĪŃ",
        -9.017467370829628
      ],
      [
        "âĸģáĮİ",
        -9.017601934163181
      ],
      [
        "ĭ",
        -9.018073300115594
      ],
      [
        "âĸģáĬŃáįįáĪĪ",
        -9.018623544690573
      ],
      [
        "vyo",
        -9.019950375304605
      ],
      [
        "iki",
        -9.01998448372198
      ],
      [
        "âĸģSchool",
        -9.020267447554556
      ],
      [
        "âĸģChi",
        -9.022069540893341
      ],
      [
        "âĸģwakazi",
        -9.023414144493142
      ],
      [
        "âĸģ[",
        -9.023924576651316
      ],
      [
        "ight",
        -9.02461570705468
      ],
      [
        "âĸģcomme",
        -9.030225482877041
      ],
      [
        "âĸģamfani",
        -9.03166662986048
      ],
      [
        "âĸģGhana",
        -9.031672465434042
      ],
      [
        "17",
        -9.032391161140243
      ],
      [
        "âĸģFe",
        -9.034430574064297
      ],
      [
        "âĸģwengi",
        -9.034640055729044
      ],
      [
        "dun",
        -9.035928643448688
      ],
      [
        "âĸģGi",
        -9.036201992306662
      ],
      [
        "ces",
        -9.03690139659829
      ],
      [
        "âĸģII",
        -9.036991450462107
      ],
      [
        "âĸģshiga",
        -9.038456218667317
      ],
      [
        "dÃł",
        -9.038638113605403
      ],
      [
        "má»įÌģ",
        -9.03882537948484
      ],
      [
        "âĸģáīĨ",
        -9.041683909433182
      ],
      [
        "kuu",
        -9.041983816869365
      ],
      [
        "âĸģpÃ¨",
        -9.042444705762055
      ],
      [
        "sÃ¬",
        -9.042456953246482
      ],
      [
        "áĭ«áĬķ",
        -9.04374826867635
      ],
      [
        "ká»įÌģ",
        -9.044724221497686
      ],
      [
        "áĪŃáĪµ",
        -9.045455685414264
      ],
      [
        "shin",
        -9.04755255047094
      ],
      [
        "ssa",
        -9.047601101318588
      ],
      [
        "tÃ¬",
        -9.04820365063901
      ],
      [
        "\",",
        -9.049763676084147
      ],
      [
        "áī¸",
        -9.050862593243771
      ],
      [
        "âĸģáĪģáĪĪáīµ",
        -9.05139019672951
      ],
      [
        "fun",
        -9.051413735093671
      ],
      [
        "ence",
        -9.051471202082649
      ],
      [
        "áĪº",
        -9.051691035483643
      ],
      [
        "mb",
        -9.052212292121137
      ],
      [
        "âĸģáĪĢ",
        -9.052503187668922
      ],
      [
        "âĸģjina",
        -9.05283831976497
      ],
      [
        "bÃł",
        -9.05297242355426
      ],
      [
        "âĸģmafi",
        -9.052997483410488
      ],
      [
        "port",
        -9.053995823316752
      ],
      [
        "mer",
        -9.055049877762393
      ],
      [
        "50",
        -9.055365043366816
      ],
      [
        "91",
        -9.05592911756476
      ],
      [
        "má»į",
        -9.056508180229892
      ],
      [
        "âĸģ2011",
        -9.057029057613066
      ],
      [
        "âĸģl'a",
        -9.058118825863628
      ],
      [
        "fan",
        -9.05840741038894
      ],
      [
        "âĸģmara",
        -9.059422172967853
      ],
      [
        "ilikuwa",
        -9.060290372721964
      ],
      [
        "âĸģzaidi",
        -9.061874849023445
      ],
      [
        "âĸģbaya",
        -9.06410441176537
      ],
      [
        "áĭ¬",
        -9.064848061943175
      ],
      [
        "áĮ»",
        -9.065278235420777
      ],
      [
        "yÃł",
        -9.065853848705375
      ],
      [
        "áĬħ",
        -9.065974217038804
      ],
      [
        "oni",
        -9.066574021498552
      ],
      [
        "âĸģkubwa",
        -9.06667984548957
      ],
      [
        "âĸģÃ¬pÃŃnláº¹ÌĢ",
        -9.06703802674795
      ],
      [
        "±",
        -9.068437374872607
      ],
      [
        "âĸģáĮł",
        -9.068439592891359
      ],
      [
        "âĸģáĬŃáįįáĪį",
        -9.068992297777271
      ],
      [
        "con",
        -9.069995884756954
      ],
      [
        "âĸģkÃ©kerÃ©",
        -9.072281454091414
      ],
      [
        "âĸģDu",
        -9.0731194602688
      ],
      [
        "gin",
        -9.073575948029518
      ],
      [
        "âĸģsau",
        -9.073628502805636
      ],
      [
        "i,",
        -9.073744739413177
      ],
      [
        "âĸģ(S",
        -9.073813893816387
      ],
      [
        "sho",
        -9.075313845962885
      ],
      [
        "âĸģnchini",
        -9.075402200376393
      ],
      [
        "âĸģhali",
        -9.075692911805854
      ],
      [
        "vers",
        -9.075717475670867
      ],
      [
        "áīłáĪ¨",
        -9.076900661840577
      ],
      [
        "âĸģJo",
        -9.076986188173723
      ],
      [
        "qu",
        -9.077369808428426
      ],
      [
        "âĸģshine",
        -9.07762571466193
      ],
      [
        "âĸģipa",
        -9.078002775542592
      ],
      [
        "âĸģáĭ«áĪĪáĭį",
        -9.078314849849608
      ],
      [
        "âĸģTu",
        -9.079551523845826
      ],
      [
        "dÃ¬",
        -9.080538946119068
      ],
      [
        "âĸģyin",
        -9.08132293841545
      ],
      [
        "-A",
        -9.082374344014434
      ],
      [
        "ÉĹa",
        -9.082568696135509
      ],
      [
        "âĸģáį",
        -9.083075314524951
      ],
      [
        "¶",
        -9.0838329598167
      ],
      [
        "âĸģdin",
        -9.08405084032309
      ],
      [
        "âĸģItalia",
        -9.08543940573532
      ],
      [
        "âĸģrÃŃ",
        -9.08648984107844
      ],
      [
        "isi",
        -9.086704951067784
      ],
      [
        "40",
        -9.087160287372157
      ],
      [
        "60",
        -9.08720929910856
      ],
      [
        "âĸģ30",
        -9.088700674192202
      ],
      [
        "rÃ²",
        -9.089280266518635
      ],
      [
        "000",
        -9.090166751905485
      ],
      [
        "áĭľ",
        -9.090959827089542
      ],
      [
        "mbu",
        -9.09111207127427
      ],
      [
        "âĸģaikin",
        -9.091389434729916
      ],
      [
        "âĸģMan",
        -9.092722266294388
      ],
      [
        "âĸģsabo",
        -9.093195858576657
      ],
      [
        "âĸģayÃ©",
        -9.09361840510384
      ],
      [
        "pp",
        -9.093780577308788
      ],
      [
        "ite",
        -9.095141013804167
      ],
      [
        "âĸģáĪĮáĪĭ",
        -9.095507357177901
      ],
      [
        "âĸģkungiyar",
        -9.096317769355199
      ],
      [
        "áĬĸáī½",
        -9.09781373888029
      ],
      [
        "âĸģzina",
        -9.098323764944526
      ],
      [
        "ssi",
        -9.098861491742202
      ],
      [
        "âĸģtabi",
        -9.101406952412756
      ],
      [
        "wan",
        -9.102187806480739
      ],
      [
        "âĸģuku",
        -9.103152641913578
      ],
      [
        "áī£áĪį",
        -9.104024366366378
      ],
      [
        "âĸģNijeriya",
        -9.105344983687154
      ],
      [
        "Y",
        -9.105394075890594
      ],
      [
        "âĸģáĬłáĬķáĭ±",
        -9.105846393969728
      ],
      [
        "mÃŃ",
        -9.106210335480812
      ],
      [
        "áĪłáĪ«",
        -9.107161376437642
      ],
      [
        "áĬłáīĨáĮ£áĮłáĪŃ",
        -9.107378691065897
      ],
      [
        "mani",
        -9.107919151867371
      ],
      [
        "âĸģCe",
        -9.107933804868969
      ],
      [
        "áī£áī¸áĭį",
        -9.110087498954854
      ],
      [
        "q",
        -9.110707240017014
      ],
      [
        "men",
        -9.110822099180664
      ],
      [
        "áĮ¤",
        -9.114358940173075
      ],
      [
        "âĸģlâĢĻ",
        -9.114667111766847
      ],
      [
        "âĸģá»ĮÌĢ",
        -9.114997221282984
      ],
      [
        "áĭİ",
        -9.115495873230717
      ],
      [
        "áĭĮ",
        -9.11600262962764
      ],
      [
        "âĸģOktoba",
        -9.116348939232534
      ],
      [
        "80",
        -9.116420602995206
      ],
      [
        "âĸģdis",
        -9.117144267500372
      ],
      [
        "ary",
        -9.117465175996228
      ],
      [
        "áĮįáĪ«",
        -9.117647975973272
      ],
      [
        "ina",
        -9.117765665313168
      ],
      [
        "âĸģáĬłáĬ«áī£áī¢",
        -9.11834969449649
      ],
      [
        "âĸģPro",
        -9.119096471487184
      ],
      [
        "áĬ¬",
        -9.119525685794754
      ],
      [
        "pu",
        -9.119804089115185
      ],
      [
        "âĸģhad",
        -9.122400622145953
      ],
      [
        "âĸģc",
        -9.12296010020582
      ],
      [
        "âĸģkÃ³pa",
        -9.123393116821156
      ],
      [
        "âĸģáº¹láº¹Ìģ",
        -9.124181283567527
      ],
      [
        "âĸģáĬ¨áī°áĪŀáī½",
        -9.125406935507545
      ],
      [
        "nsa",
        -9.125462126764845
      ],
      [
        "âĸģáĮįáĭĽáīµ",
        -9.127089841737902
      ],
      [
        "elle",
        -9.127130972563872
      ],
      [
        "âĸģgasar",
        -9.127399001728651
      ],
      [
        "âĸģPe",
        -9.128600725820151
      ],
      [
        "âĸģ25",
        -9.129360705539359
      ],
      [
        "ÅĦ",
        -9.129441417947001
      ],
      [
        "âĸģalso",
        -9.12988946333612
      ],
      [
        "J",
        -9.131570591608018
      ],
      [
        "ous",
        -9.131988264938435
      ],
      [
        "âĸģwalio",
        -9.132003576839864
      ],
      [
        "bar",
        -9.132542814329568
      ],
      [
        "tin",
        -9.133082788016075
      ],
      [
        "ld",
        -9.133259655533276
      ],
      [
        "âĸģorÃŃláº¹ÌĢ",
        -9.133799112981999
      ],
      [
        "âĸģâĢĺ",
        -9.135187664661792
      ],
      [
        "âĸģonÃŃ",
        -9.13640657779398
      ],
      [
        "âĸģáīłáįĬáīµ",
        -9.137730753889727
      ],
      [
        "yen",
        -9.138893574757489
      ],
      [
        "ani",
        -9.139373992962959
      ],
      [
        "ĺ",
        -9.139743508367598
      ],
      [
        "âĸģ&",
        -9.141707548721293
      ],
      [
        "des",
        -9.142386241671362
      ],
      [
        "âĸģBar",
        -9.142436077000502
      ],
      [
        "âĸģáĬłáĪŃ",
        -9.142656567031922
      ],
      [
        "âĸģDan",
        -9.143652092077449
      ],
      [
        "âĸģ2009",
        -9.143890013423206
      ],
      [
        "mÃ©",
        -9.145462473898792
      ],
      [
        "kÃłn",
        -9.146151285446148
      ],
      [
        "âĸģlÃ¡ra",
        -9.146176649964348
      ],
      [
        "áº¹Ìģrá»įÌģÃ¬dÃ¬",
        -9.146606268482415
      ],
      [
        "âĸģamma",
        -9.147415846889437
      ],
      [
        "âĸģfim",
        -9.147417797156638
      ],
      [
        "dan",
        -9.147603751595184
      ],
      [
        "qui",
        -9.147643907205195
      ],
      [
        "ita",
        -9.14772519989133
      ],
      [
        "á¹£áº¹Ìģ",
        -9.147860913740818
      ],
      [
        "dÃŃ",
        -9.148374937607556
      ],
      [
        "30",
        -9.15034310058584
      ],
      [
        "áĪİáī½",
        -9.150537274858483
      ],
      [
        "ement",
        -9.152336028915744
      ],
      [
        "70",
        -9.152383206381584
      ],
      [
        "âĸģsannan",
        -9.154585322407133
      ],
      [
        "van",
        -9.155345060112843
      ],
      [
        "áįĸ",
        -9.155441617446476
      ],
      [
        "ard",
        -9.15670022552446
      ],
      [
        "ī",
        -9.157074734419506
      ],
      [
        "âĸģmaso",
        -9.157229540866101
      ],
      [
        "áĮģ",
        -9.157350091042119
      ],
      [
        "²",
        -9.157631886468963
      ],
      [
        "Ł",
        -9.158127863902127
      ],
      [
        "áī°áĪĺ",
        -9.158826355938862
      ],
      [
        "rÃłn",
        -9.161039686326554
      ],
      [
        "âĸģtarehe",
        -9.161706118684647
      ],
      [
        "âĸģ2020",
        -9.162255487021554
      ],
      [
        "áĬĵáīµ",
        -9.162529421242787
      ],
      [
        "Ùİ",
        -9.163420135485312
      ],
      [
        "áĪ°áĪ«",
        -9.1642688264118
      ],
      [
        "âĸģsiyasa",
        -9.16434267462818
      ],
      [
        "áĪĺáĭµ",
        -9.164472538139568
      ],
      [
        "os",
        -9.165304708856649
      ],
      [
        "itwa",
        -9.16563439611965
      ],
      [
        "âĸģáĪĮáĪİáī½",
        -9.166832863264393
      ],
      [
        "tur",
        -9.167754417162467
      ],
      [
        "âĸģáĬłáī¥",
        -9.168059966446794
      ],
      [
        "áĪ°áī¥",
        -9.168428011459843
      ],
      [
        "lÃ³",
        -9.16850295734972
      ],
      [
        "âĸģfe",
        -9.169758970399057
      ],
      [
        "pÃ²",
        -9.17108208192278
      ],
      [
        "âĸģmaji",
        -9.17221266736817
      ],
      [
        "gbÃ³",
        -9.17260802293551
      ],
      [
        "mon",
        -9.173181293734858
      ],
      [
        "âĸģáĬłáīłáī£",
        -9.17452950653077
      ],
      [
        "yáº¹",
        -9.175620265406396
      ],
      [
        "Î",
        -9.17650778728483
      ],
      [
        "âĸģwakati",
        -9.176896560698477
      ],
      [
        "âĸģÃĪkÃ³",
        -9.177154396017627
      ],
      [
        "âĸģáĪĥ",
        -9.178805735861918
      ],
      [
        "âĸģáº¸",
        -9.179206328135585
      ],
      [
        "13",
        -9.180205138082393
      ],
      [
        "itÃ©",
        -9.180213533653085
      ],
      [
        "bin",
        -9.181544658307102
      ],
      [
        "âĸģgo",
        -9.181563667359555
      ],
      [
        "ner",
        -9.182805469989708
      ],
      [
        "âĸģáī¦áī³",
        -9.183671325991533
      ],
      [
        "âĸģáĮī",
        -9.183859426996445
      ],
      [
        "âĸģáįĪ",
        -9.184802171304986
      ],
      [
        "áī«",
        -9.186069693952257
      ],
      [
        "âĸģÃ¨",
        -9.187953808902932
      ],
      [
        "âĸģjuu",
        -9.188190926763593
      ],
      [
        "sia",
        -9.18875236518154
      ],
      [
        "-19",
        -9.188933676626704
      ],
      [
        "âĸģAm",
        -9.189418364831994
      ],
      [
        "âĸģÃ¬wÃ©",
        -9.189813185842418
      ],
      [
        "áĬĲáĮĪáĪ¥áī³áīµ",
        -9.190416887878486
      ],
      [
        "âĸģhas",
        -9.19054338817579
      ],
      [
        "âĸģshekaru",
        -9.190596123872284
      ],
      [
        "âĸģLagos",
        -9.190858395901046
      ],
      [
        "âĸģáĬ¨áįįáī°áĬĽ",
        -9.191309065271632
      ],
      [
        "âĸģáĬ¨áĭļáĭ«",
        -9.192287706423237
      ],
      [
        "âĸģ22",
        -9.192337808608318
      ],
      [
        "ical",
        -9.192631869030595
      ],
      [
        "âĸģAla",
        -9.19311922567103
      ],
      [
        "mes",
        -9.193683478709286
      ],
      [
        "áĪ°áĪĽ",
        -9.19423510283788
      ],
      [
        "if",
        -9.195216293549613
      ],
      [
        "âĸģáĮ¦áĪŃáĬĲáīµ",
        -9.195275747345868
      ],
      [
        "âĸģKenya",
        -9.195888382330512
      ],
      [
        "...",
        -9.197384560783963
      ],
      [
        "âĸģIpinle",
        -9.199418204106571
      ],
      [
        "ini",
        -9.20012056207582
      ],
      [
        "âĸģduk",
        -9.200404774064777
      ],
      [
        "âĸģAna",
        -9.200501732605334
      ],
      [
        "âĸģáĭĵáĪĺáī³áīµ",
        -9.200921741330953
      ],
      [
        "âĸģwata",
        -9.202072466443084
      ],
      [
        "âĸģBayan",
        -9.202169916630803
      ],
      [
        "ex",
        -9.202800987629203
      ],
      [
        "âĸģáĭĺáĪĺáĬĲ",
        -9.202810461225535
      ],
      [
        "21",
        -9.202866954525623
      ],
      [
        "âĸģcin",
        -9.203133905313862
      ],
      [
        "âĸģtra",
        -9.203337608391049
      ],
      [
        "âĸģáĪŀ",
        -9.20390577356299
      ],
      [
        "âĸģhada",
        -9.204050672387176
      ],
      [
        "|",
        -9.204593256459855
      ],
      [
        "sin",
        -9.204663428236199
      ],
      [
        "áīĭ",
        -9.205076379585142
      ],
      [
        "ndi",
        -9.20544674465483
      ],
      [
        "ations",
        -9.207116240776143
      ],
      [
        "âĸģfirst",
        -9.208136084228324
      ],
      [
        "âĸģ23",
        -9.209091636124658
      ],
      [
        "âĸģÆĻa",
        -9.209791567510504
      ],
      [
        "âĸģ2008",
        -9.209954544508983
      ],
      [
        "âĸģbáº¹ÌĢráº¹ÌĢ",
        -9.210321621228262
      ],
      [
        "âĸģAugust",
        -9.210370213162122
      ],
      [
        "âĸģOn",
        -9.211519448072412
      ],
      [
        "yÃŃ",
        -9.211980414047503
      ],
      [
        "âĸģhiyo",
        -9.212635326121696
      ],
      [
        "ign",
        -9.212964158088763
      ],
      [
        "âĸģUnited",
        -9.213298895674985
      ],
      [
        "×",
        -9.213827408226958
      ],
      [
        "âĸģpas",
        -9.214310639165438
      ],
      [
        "90",
        -9.214738700443723
      ],
      [
        "âĸģ2005",
        -9.214744955751048
      ],
      [
        "âĸģ24",
        -9.216195573715948
      ],
      [
        "rÃº",
        -9.216255857066223
      ],
      [
        "âĸģjÃ¹lá»į",
        -9.216403539812637
      ],
      [
        "âĸģáĬłáĭŃáĬĲáīµ",
        -9.216617139064729
      ],
      [
        "ola",
        -9.217584393106147
      ],
      [
        "âĸģáĬłáĭ²áĪµ",
        -9.218037010916579
      ],
      [
        "âĸģAs",
        -9.21856810515138
      ],
      [
        "âĸģUjerumani",
        -9.219190404100573
      ],
      [
        "nge",
        -9.219478510909687
      ],
      [
        "han",
        -9.221236190423088
      ],
      [
        "âĸģUingereza",
        -9.221497653473111
      ],
      [
        "nia",
        -9.221663473904187
      ],
      [
        "ol",
        -9.222085262082317
      ],
      [
        "áĪīáīµ",
        -9.222364462376323
      ],
      [
        "yÃ¨",
        -9.222467618883801
      ],
      [
        "ac",
        -9.223139043418547
      ],
      [
        "¸",
        -9.223668723725748
      ],
      [
        "âĸģáĪ³áĭŃ",
        -9.225047317791887
      ],
      [
        "âĸģáĬĲáīłáĪ¨áį¢",
        -9.225407216207703
      ],
      [
        "ges",
        -9.225782708078558
      ],
      [
        "âĸģáīłáĬ¥",
        -9.22653059005965
      ],
      [
        "âĸģAmurka",
        -9.227290343770616
      ],
      [
        "âĸģmÃº",
        -9.229426983648704
      ],
      [
        "ate",
        -9.231866273308022
      ],
      [
        "imu",
        -9.232074129230373
      ],
      [
        "yÃ©",
        -9.23218735502179
      ],
      [
        "ber",
        -9.233721033256323
      ],
      [
        "ÌģtÃ¬",
        -9.233775477177918
      ],
      [
        "âĸģsama",
        -9.234438758631088
      ],
      [
        "áįĢ",
        -9.235205858706799
      ],
      [
        "á¹£",
        -9.23675414459153
      ],
      [
        "uri",
        -9.237093271328979
      ],
      [
        "áį«",
        -9.23894172377696
      ],
      [
        "âĸģhanyar",
        -9.238999424286675
      ],
      [
        "âĸģPi",
        -9.23919734823025
      ],
      [
        "âĸģplÃ¡náº¹",
        -9.239365890530228
      ],
      [
        "áĪ¹",
        -9.24149486164584
      ],
      [
        "kÃ¡",
        -9.242017328824772
      ],
      [
        "âĸģáĭ¨áĪ",
        -9.242053758619651
      ],
      [
        "ÆĻi",
        -9.242216159243004
      ],
      [
        "¹",
        -9.242359322662569
      ],
      [
        "âĸģáĬ³áĪµ",
        -9.242508311059584
      ],
      [
        "red",
        -9.242531945218726
      ],
      [
        "áĪĨáĬķ",
        -9.243441913437344
      ],
      [
        "âĸģkaratun",
        -9.243924555894601
      ],
      [
        "áĭ«áĪµ",
        -9.24455862626234
      ],
      [
        "âĸģnÃŃbi",
        -9.244942466864536
      ],
      [
        "ph",
        -9.245250441804199
      ],
      [
        "kÃº",
        -9.246002317578526
      ],
      [
        "Ń",
        -9.246408665272519
      ],
      [
        "ten",
        -9.247051089220477
      ],
      [
        "âĸģmaka",
        -9.247187393529554
      ],
      [
        "tra",
        -9.24804761763274
      ],
      [
        "gbÃ©",
        -9.248052403738015
      ],
      [
        "llo",
        -9.248385734678784
      ],
      [
        "áĪĺáĮĢáĪĺáĪŃáĭ«",
        -9.248816546872543
      ],
      [
        "âĸģáº¹ni",
        -9.248981080056318
      ],
      [
        "chu",
        -9.249583109910121
      ],
      [
        "âĸģáĬ¨áĪĺ",
        -9.250163409697738
      ],
      [
        "âĸģbuga",
        -9.250553909880452
      ],
      [
        "âĸģPer",
        -9.250824483396713
      ],
      [
        "âĸģGe",
        -9.251361460009045
      ],
      [
        "âĸģáĪįáĭ©",
        -9.25224570826753
      ],
      [
        "âĸģáĪĲ",
        -9.253426808855533
      ],
      [
        "tant",
        -9.253494861981233
      ],
      [
        "âĸģlÃ©",
        -9.2535120139921
      ],
      [
        "âĸģáĭ¨áĪĨáĬĲ",
        -9.253599218393969
      ],
      [
        "âĸģÆĻasa",
        -9.254072696257218
      ],
      [
        "âĸģOá¹£Ã¹",
        -9.254078905797943
      ],
      [
        "end",
        -9.25428510452581
      ],
      [
        "yya",
        -9.256561806600898
      ],
      [
        "áĭµáĬķ",
        -9.256731206484464
      ],
      [
        "âĸģits",
        -9.257798299240314
      ],
      [
        "Katika",
        -9.257805753404288
      ],
      [
        "cc",
        -9.258258162382498
      ],
      [
        "dÃ³",
        -9.259057568880294
      ],
      [
        "zama",
        -9.25915285202327
      ],
      [
        "tter",
        -9.259848221703626
      ],
      [
        "rar",
        -9.260223050327957
      ],
      [
        "âĸģAfrican",
        -9.26182464505365
      ],
      [
        "âĸģáĭĪáīħáīµ",
        -9.263290150852388
      ],
      [
        "âĸģ'yan",
        -9.263311298322693
      ],
      [
        "âĸģShe",
        -9.263325458411177
      ],
      [
        "yÃ¬n",
        -9.263862591705317
      ],
      [
        "ÆĻa",
        -9.264929384089733
      ],
      [
        "âĸģAb",
        -9.2649909166331
      ],
      [
        "âĸģ2003",
        -9.265330190919974
      ],
      [
        "wá»įÌģ",
        -9.265715453887283
      ],
      [
        "rÃ³",
        -9.2661697328729
      ],
      [
        "Jami'ar",
        -9.266384444859614
      ],
      [
        "âĸģmÃ©jÃ¬",
        -9.266513425581064
      ],
      [
        "áĭŀ",
        -9.266550330230514
      ],
      [
        "rodha",
        -9.266831098991915
      ],
      [
        "âĸģáĭŃáĪħáĪĿ",
        -9.267934816152561
      ],
      [
        "áĪĭáĪį",
        -9.268292448918626
      ],
      [
        "gne",
        -9.270509115178584
      ],
      [
        "dia",
        -9.27097246370629
      ],
      [
        "áĬķáĭµ",
        -9.271861285865054
      ],
      [
        "lli",
        -9.272280725387171
      ],
      [
        "âĸģiliyo",
        -9.27260315844148
      ],
      [
        "ada",
        -9.274206424457356
      ],
      [
        "âĸģNajeriya.",
        -9.274223511503285
      ],
      [
        "gar",
        -9.275596410878997
      ],
      [
        "âĸģFo",
        -9.276820700948894
      ],
      [
        "âĸģmwana",
        -9.27727935359082
      ],
      [
        "áĪµáĪĭ",
        -9.27755357476138
      ],
      [
        "âĸģnyingi",
        -9.277600465406671
      ],
      [
        "à¤",
        -9.278172063316426
      ],
      [
        "áī£áīµ",
        -9.278878985093044
      ],
      [
        "om",
        -9.279555683071901
      ],
      [
        "áī³áĪį",
        -9.279616725495107
      ],
      [
        "ist",
        -9.280421468100744
      ],
      [
        "ot",
        -9.28049122566668
      ],
      [
        "ká»įÌĢ",
        -9.280643015839022
      ],
      [
        "ł",
        -9.280676521578952
      ],
      [
        "âĸģáĪĿáĭµáĪŃ",
        -9.281353033720134
      ],
      [
        "áĪ«áīµ",
        -9.281881082827898
      ],
      [
        "âĸģáĭ«áĪµ",
        -9.282183132552223
      ],
      [
        "»",
        -9.282766887818523
      ],
      [
        "ham",
        -9.283047444107392
      ],
      [
        "0,000",
        -9.284413108606671
      ],
      [
        "âĸģáĭķ",
        -9.284536286575069
      ],
      [
        "âĸģbaada",
        -9.2859994729776
      ],
      [
        "âĸģáĭķáĪĪáīµ",
        -9.286097341955644
      ],
      [
        "âĸģwi",
        -9.287090517621303
      ],
      [
        "wá»įn",
        -9.288064607665941
      ],
      [
        "âĸģYork",
        -9.288366339603906
      ],
      [
        "âĸģKusini",
        -9.288375213245555
      ],
      [
        "âĸģguda",
        -9.289462370601289
      ],
      [
        "áĬķáĪµ",
        -9.28996058720768
      ],
      [
        "âĸģbáº¹Ìģáº¹ÌĢ",
        -9.290843235459196
      ],
      [
        "âĸģáĪĻ",
        -9.290887242083723
      ],
      [
        "âĸģorÃºká»į",
        -9.291141935377041
      ],
      [
        "áįĪáĪį",
        -9.291571057267088
      ],
      [
        "âĸģNaijiria",
        -9.291606575293404
      ],
      [
        "âĸģáī¥áĪİ",
        -9.291708279616962
      ],
      [
        "áĪĿáĬŃáĬķáĭ«áīµ",
        -9.292486199996906
      ],
      [
        "âĸģWi",
        -9.293575767353115
      ],
      [
        "baki",
        -9.294213829863118
      ],
      [
        "dy",
        -9.294923851172797
      ],
      [
        "wÃ¡",
        -9.295219924566538
      ],
      [
        "âĸģSouth",
        -9.295285535684755
      ],
      [
        "Ģ",
        -9.296528515624454
      ],
      [
        "lon",
        -9.297808170690555
      ],
      [
        "tor",
        -9.297818678586108
      ],
      [
        "âĸģtsakanin",
        -9.298289390166527
      ],
      [
        "áĪĺáīµ",
        -9.299787411675418
      ],
      [
        "âĸģuli",
        -9.299837675649925
      ],
      [
        "º",
        -9.30031265610667
      ],
      [
        "âĸģbut",
        -9.300556133172481
      ],
      [
        "âĸģáĪĺáĪµ",
        -9.300821491890657
      ],
      [
        "âĸģkarn",
        -9.301232850181554
      ],
      [
        "¼",
        -9.302617877874592
      ],
      [
        "áĬĸáĪŃ",
        -9.30347934496404
      ],
      [
        "âĸģState",
        -9.30356668055206
      ],
      [
        "able",
        -9.304463178993721
      ],
      [
        "lÃº",
        -9.30477187225319
      ],
      [
        "jÃŃ",
        -9.305763498367192
      ],
      [
        "Ø§",
        -9.3058343853876
      ],
      [
        "âĸģ27",
        -9.305989780889433
      ],
      [
        "pÃ©",
        -9.306225987833008
      ],
      [
        "can",
        -9.306600482780663
      ],
      [
        "âĸģY",
        -9.306663668117142
      ],
      [
        "gÃºn",
        -9.307410583668844
      ],
      [
        "nÃ©",
        -9.308018104974089
      ],
      [
        "âĸģmasa",
        -9.308100866017401
      ],
      [
        "áįĥ",
        -9.30826061896153
      ],
      [
        "ah",
        -9.308373549735965
      ],
      [
        "âĸģ28",
        -9.309616506004485
      ],
      [
        "áĮłáĪ«",
        -9.30962893729835
      ],
      [
        "Ã¨re",
        -9.309833067692182
      ],
      [
        "gbÃłjÃ¡",
        -9.310481564175408
      ],
      [
        "âĸģÃ¬má»įÌĢ",
        -9.31094302563925
      ],
      [
        "tá»įÌģkasÃŃ",
        -9.3113050252523
      ],
      [
        "áĬĲáĭį",
        -9.311506721371469
      ],
      [
        "âĸģmutu",
        -9.311708439383004
      ],
      [
        "âĸģ(B",
        -9.312447526374651
      ],
      [
        "bÃ¹n",
        -9.312527568431609
      ],
      [
        "âĸģáĪĨ",
        -9.31303980027068
      ],
      [
        "uni",
        -9.313796162863504
      ],
      [
        "âĸģalif",
        -9.314196586783183
      ],
      [
        "âĸģhave",
        -9.314503007673927
      ],
      [
        "âĸģpre",
        -9.314939166510024
      ],
      [
        "âĸģchini",
        -9.314994203716427
      ],
      [
        "king",
        -9.316482961054476
      ],
      [
        "ments",
        -9.316700214510178
      ],
      [
        "âĸģ(18",
        -9.31672672030609
      ],
      [
        "âĸģÂ«áĭ¨",
        -9.31691809492743
      ],
      [
        "husu",
        -9.317105578127158
      ],
      [
        "âĸģper",
        -9.317191240342268
      ],
      [
        "âĸģáĮ¥áīħáĪĿ",
        -9.317738040857376
      ],
      [
        "âĸģupand",
        -9.319779112148717
      ],
      [
        "âĸģmÃ©",
        -9.321443065890726
      ],
      [
        "âĸģyanzu",
        -9.322421053443371
      ],
      [
        "áį³",
        -9.322481627572234
      ],
      [
        "âĸģmwa",
        -9.323125864243753
      ],
      [
        "âĸģáĭ®áĪĲáĬķáĪµ",
        -9.323198743330444
      ],
      [
        "pá»į",
        -9.323943343805224
      ],
      [
        "âĸģKano",
        -9.324300901463317
      ],
      [
        "áĮĪáĪŃ",
        -9.324772044942458
      ],
      [
        "tte",
        -9.325018112431845
      ],
      [
        "00",
        -9.325920994930188
      ],
      [
        "âĸģgirma",
        -9.326143957041072
      ],
      [
        "mÃº",
        -9.326761221419464
      ],
      [
        "ille",
        -9.32689892072192
      ],
      [
        "âĸģIbi",
        -9.327781789474493
      ],
      [
        "áī¢áĭ«",
        -9.32841965657437
      ],
      [
        "ft",
        -9.32878681689899
      ],
      [
        "ving",
        -9.32882931377922
      ],
      [
        "âĸģáĭ¨áĪļá",
        -9.32894887986525
      ],
      [
        "âĸģwÃŃpÃ©",
        -9.329583558483993
      ],
      [
        "ated",
        -9.329606916704524
      ],
      [
        "gwa",
        -9.330806530333085
      ],
      [
        "Ã©s",
        -9.331025034235191
      ],
      [
        "âĸģgame",
        -9.331317924106918
      ],
      [
        "âĸģgbÃł",
        -9.331590349964852
      ],
      [
        "áĬ¥áĬķáĮįáĪĬáĭĿ",
        -9.332700645496523
      ],
      [
        "įħ",
        -9.332980425524138
      ],
      [
        "âĸģáīłáĮ£áĪĿ",
        -9.33310587774703
      ],
      [
        "pha",
        -9.33329038362126
      ],
      [
        "âĸģwho",
        -9.333297168274886
      ],
      [
        "áĭįáĪĿ",
        -9.333408370717219
      ],
      [
        "y,",
        -9.333472861807927
      ],
      [
        "âĸģáįĵ",
        -9.335196037326781
      ],
      [
        "âĸģáīĥáĪį",
        -9.335256169829186
      ],
      [
        "áĬłáĬķáĭ³áĬķáĭµ",
        -9.336427731576332
      ],
      [
        "âĸģDuniya",
        -9.337731341790372
      ],
      [
        "âĸģáĪĿáĬķ",
        -9.337777163807075
      ],
      [
        "âĸģsp",
        -9.33881122107013
      ],
      [
        "įáĭļáĬłáī¥áĪĶáĪŃ",
        -9.339712025967698
      ],
      [
        "âĸģAare",
        -9.34063467934735
      ],
      [
        "âĢĻa",
        -9.341320514215951
      ],
      [
        "âĸģjÃ¡de",
        -9.342099272883656
      ],
      [
        "danda",
        -9.34247107353183
      ],
      [
        "ism",
        -9.342509834173459
      ],
      [
        "Ãłká»įÌģká»įÌģ",
        -9.343359392264563
      ],
      [
        "áĬĴáĭ«",
        -9.343850813375255
      ],
      [
        "âĸģkuna",
        -9.344544514659948
      ],
      [
        "jáº¹",
        -9.345546945643704
      ],
      [
        "ral",
        -9.345623580258763
      ],
      [
        "ler",
        -9.346886903978788
      ],
      [
        "áĭĭáĬķ",
        -9.347005705588254
      ],
      [
        "áĪ¾",
        -9.347487581215393
      ],
      [
        "áįĪáĪ¨áĬķáĪ³áĭŃ",
        -9.347665450647138
      ],
      [
        "âĸģ26",
        -9.348451020181374
      ],
      [
        "âĸģáĮĭ",
        -9.348991196736192
      ],
      [
        "oro",
        -9.349295707962444
      ],
      [
        "âĸģáĬ£",
        -9.349543898259757
      ],
      [
        "lÃ¹",
        -9.349723472331942
      ],
      [
        "âĸģro",
        -9.350194987953913
      ],
      [
        "âĸģNigerian",
        -9.350499047570008
      ],
      [
        "ħ",
        -9.350695713893948
      ],
      [
        "âĸģmbalimbali",
        -9.350776610354561
      ],
      [
        "nÃº",
        -9.351382572963864
      ],
      [
        "ume",
        -9.352066356427287
      ],
      [
        "bra",
        -9.352316262449708
      ],
      [
        "¯",
        -9.352748390385402
      ],
      [
        "âĸģNational",
        -9.35297331042548
      ],
      [
        "pan",
        -9.35351102304289
      ],
      [
        "25",
        -9.35393381508735
      ],
      [
        "áĬķáĬĵ",
        -9.354244501413467
      ],
      [
        "âĸģáįį",
        -9.354763458709979
      ],
      [
        "es,",
        -9.354952409002784
      ],
      [
        "âĸģri",
        -9.35528196119876
      ],
      [
        "uwa",
        -9.356079718170076
      ],
      [
        "áĭİáī½áĬķ",
        -9.356725364392506
      ],
      [
        "áĬĥ",
        -9.356849540971064
      ],
      [
        "Ø",
        -9.357241912727748
      ],
      [
        "áĪĿáį¡",
        -9.357505901199415
      ],
      [
        "ok",
        -9.358508473787378
      ],
      [
        "isha",
        -9.358739023790292
      ],
      [
        "far",
        -9.358942746935817
      ],
      [
        "âĸģáĪ¥áĪ«",
        -9.359218168710498
      ],
      [
        "âĸģlori",
        -9.359335017199234
      ],
      [
        "âĸģji",
        -9.360536589435062
      ],
      [
        "ngi",
        -9.36099087280631
      ],
      [
        "âĸģmwandishi",
        -9.361347487499703
      ],
      [
        "âĸģhaka",
        -9.361826632800355
      ],
      [
        "âĸģMay",
        -9.362586607575523
      ],
      [
        "âĸģáĪµáĪ«",
        -9.362942543715253
      ],
      [
        "âĸģJi",
        -9.363086368219449
      ],
      [
        "âĸģ2000",
        -9.363907135332877
      ],
      [
        "âĸģfilm",
        -9.364128085619317
      ],
      [
        "wÃ³",
        -9.366070712088806
      ],
      [
        "âĸģother",
        -9.366997635386392
      ],
      [
        "âĸģWorld",
        -9.367363678096002
      ],
      [
        "dha",
        -9.367680715559029
      ],
      [
        "âĸģIlÃ©",
        -9.36782146016952
      ],
      [
        "âĸģl",
        -9.368820203361835
      ],
      [
        "99",
        -9.369151602804525
      ],
      [
        "ud",
        -9.369159531203557
      ],
      [
        "âĸģAmerican",
        -9.369821317740808
      ],
      [
        "áī³áī¸áĭį",
        -9.370344851537766
      ],
      [
        "ano",
        -9.371326501983802
      ],
      [
        "ishi",
        -9.371698139958916
      ],
      [
        "tá»įÌģ",
        -9.372573354585299
      ],
      [
        "âĸģakan",
        -9.372629210121044
      ],
      [
        "âĸģsamar",
        -9.372750504732121
      ],
      [
        "âĸģwacce",
        -9.374795925781251
      ],
      [
        "áĭĪáĪ¨",
        -9.374877346710022
      ],
      [
        "âĸģáĬ¥áĭ«",
        -9.375048224068982
      ],
      [
        "¥áĬķáĮįáĪĬáĭĿáĬĽ",
        -9.375960250182573
      ],
      [
        "âĸģv",
        -9.376636492443827
      ],
      [
        "âĸģáĪįáĮĨáī½",
        -9.377000929880914
      ],
      [
        "ens",
        -9.377331845172382
      ],
      [
        "ni.",
        -9.377493219405522
      ],
      [
        "âĸģSt",
        -9.378230338300579
      ],
      [
        "âĸģáĪ¥áĬĲ",
        -9.379005343131531
      ],
      [
        "áĪĺáĭį",
        -9.379048033001022
      ],
      [
        "âĸģ1960",
        -9.379424524037152
      ],
      [
        "áĮįáĪį",
        -9.38012188922088
      ],
      [
        "âĸģ2004",
        -9.380769185791019
      ],
      [
        "bÃ¬nrin",
        -9.380956161905189
      ],
      [
        "âĸģáĬłáĪģáĬķ",
        -9.381593339240721
      ],
      [
        "ele",
        -9.381672049892403
      ],
      [
        "âĸģáĬ¥áĬĲáĭļáĪħ",
        -9.381706217226293
      ],
      [
        "áĮĪáĭµ",
        -9.382494346590274
      ],
      [
        "âĸģsami",
        -9.382989739481737
      ],
      [
        "âĸģ(áĭ¨",
        -9.38299439291169
      ],
      [
        "ley",
        -9.383023860558978
      ],
      [
        "âĸģtake",
        -9.383224042961473
      ],
      [
        "áĭĪáī½",
        -9.384290905961606
      ],
      [
        "âĸģáĬ¥áĮįáĪŃ",
        -9.38482361915645
      ],
      [
        "âĸģ2002",
        -9.384831941657032
      ],
      [
        "gue",
        -9.384935998479396
      ],
      [
        "âĸģagbÃ¨gbÃ¨",
        -9.385625854409433
      ],
      [
        "rÃ¬",
        -9.385717654653355
      ],
      [
        "âĸģ29",
        -9.387217826388687
      ],
      [
        "ux",
        -9.387498453895628
      ],
      [
        "Ð",
        -9.388206147970424
      ],
      [
        "âĸģInternational",
        -9.389218102521648
      ],
      [
        "xi",
        -9.38970136422173
      ],
      [
        "âĸģLondon",
        -9.390098825852206
      ],
      [
        "âĸģmoja",
        -9.390876200575455
      ],
      [
        "fÃł",
        -9.391702612119376
      ],
      [
        "ring",
        -9.391711915810166
      ],
      [
        "thi",
        -9.39258871180088
      ],
      [
        "âĸģáĪ²áĭ«",
        -9.392662137206948
      ],
      [
        "âĸģBabban",
        -9.392837056713095
      ],
      [
        "áĬ¢",
        -9.393277867805915
      ],
      [
        "âĸģvita",
        -9.393768539309878
      ],
      [
        "âĸģime",
        -9.393863405427012
      ],
      [
        "Ã©es",
        -9.394041161054522
      ],
      [
        "jan",
        -9.394735896570605
      ],
      [
        "áĭ²áĭ«",
        -9.394744908325212
      ],
      [
        "nes",
        -9.39495570541735
      ],
      [
        "âĸģinter",
        -9.395036480909692
      ],
      [
        "qua",
        -9.395154643803009
      ],
      [
        "line",
        -9.395221717652404
      ],
      [
        "âĸģmto",
        -9.395501148232185
      ],
      [
        "âĸģnuna",
        -9.396063230596436
      ],
      [
        "âĸģáĪĺáĮ½áĪĲáįį",
        -9.396380574618167
      ],
      [
        "jÃ¡",
        -9.396522688914871
      ],
      [
        "jin",
        -9.398573337410387
      ],
      [
        "âĸģIle",
        -9.400479050706267
      ],
      [
        "tÃ³",
        -9.400514601775662
      ],
      [
        "ŃáĪŃáĪµáī²áĭ«áĬķ",
        -9.401604881220681
      ],
      [
        "23",
        -9.401865265732994
      ],
      [
        "áī£áĪŃ",
        -9.402088061263246
      ],
      [
        "âĸģ1999",
        -9.403097046218804
      ],
      [
        "áĪ¨áīµ",
        -9.403461156838976
      ],
      [
        "¢",
        -9.40364067646631
      ],
      [
        "âĸģpi",
        -9.405140258958719
      ],
      [
        "ide",
        -9.405668639569143
      ],
      [
        "áī¸áĭįáĬķ",
        -9.405810897541897
      ],
      [
        "âĸģáĭ°áĪ¨áĮĥ",
        -9.406236721733421
      ],
      [
        "áīĭáĬķáīĭáĭİáī½",
        -9.406473128918474
      ],
      [
        "á¹£áº¹",
        -9.407259947721649
      ],
      [
        "áĪĺáĬķáĮįáĪµáīµ",
        -9.408065597412833
      ],
      [
        "âĸģ(áīł",
        -9.408422544150984
      ],
      [
        "áīłáĪĭ",
        -9.40872962692757
      ],
      [
        "lement",
        -9.408737438947117
      ],
      [
        "tive",
        -9.4091692028248
      ],
      [
        "nÃ¡",
        -9.409293748162757
      ],
      [
        "âĸģcar",
        -9.409875896903863
      ],
      [
        "áĮĨ",
        -9.410116389093536
      ],
      [
        "áįĮ",
        -9.410129245725624
      ],
      [
        "láº¹Ìģ",
        -9.410634542176439
      ],
      [
        "áīĦ",
        -9.411555510819714
      ],
      [
        "Awon",
        -9.411846761626029
      ],
      [
        "kia",
        -9.412875246968081
      ],
      [
        "âĸģkafin",
        -9.4132576831082
      ],
      [
        "tawala",
        -9.414424137320022
      ],
      [
        "anci",
        -9.414447082987156
      ],
      [
        "mma",
        -9.41473626083761
      ],
      [
        "âĸģigba",
        -9.414932503102307
      ],
      [
        "for",
        -9.415121615947275
      ],
      [
        "áį¯",
        -9.415401302845996
      ],
      [
        "âĸģÃĮtá»įÌģkasÃŃ",
        -9.416051622861282
      ],
      [
        "´",
        -9.417264081336091
      ],
      [
        "rai",
        -9.417269647209313
      ],
      [
        "gbÃ²",
        -9.417884666051272
      ],
      [
        "rÃ¹n",
        -9.418101512015564
      ],
      [
        "ding",
        -9.419253638565529
      ],
      [
        "our",
        -9.420001998212673
      ],
      [
        "âĸģsababu",
        -9.42044748387329
      ],
      [
        "âĸģÉĹaya",
        -9.420518336281074
      ],
      [
        "âĸģKing",
        -9.42075181484908
      ],
      [
        "âĸģáĪĨáĬĲáį¢",
        -9.421302390293913
      ],
      [
        "rÃ¨",
        -9.422996378427197
      ],
      [
        "âĸģáĭĪáĬķáĭĿ",
        -9.42302204640465
      ],
      [
        "kÃŃ",
        -9.423051798692079
      ],
      [
        "áī¥áĪ«",
        -9.423070312607024
      ],
      [
        "âĸģSun",
        -9.42342997888483
      ],
      [
        "tri",
        -9.423656176423172
      ],
      [
        "raba",
        -9.424207563194916
      ],
      [
        "nÃ¬",
        -9.424233957552548
      ],
      [
        "âĸģdomin",
        -9.42424707274865
      ],
      [
        "áīµáĬĵ",
        -9.424329784064907
      ],
      [
        "âĸģUlaya",
        -9.424417894175823
      ],
      [
        "áĮĪáĬĿ",
        -9.42568156277651
      ],
      [
        "âĸģCollege",
        -9.426285100535004
      ],
      [
        "Å",
        -9.426572789075363
      ],
      [
        "áĬŃáĪŃáĪµáī¶áĪµ",
        -9.426755916305428
      ],
      [
        "áī³áĪįáį¢",
        -9.426837166352446
      ],
      [
        "áĬŃáĪµ",
        -9.42753119739442
      ],
      [
        "âĸģiko",
        -9.427781467664865
      ],
      [
        "já»įÌģ",
        -9.428633240786091
      ],
      [
        "âĸģmá»įÌĢ",
        -9.429279520424654
      ],
      [
        "áĮĪáĭĽ",
        -9.429749651135324
      ],
      [
        "dÃ¨",
        -9.43016806191893
      ],
      [
        "lima",
        -9.430993439857989
      ],
      [
        "200",
        -9.431947155508103
      ],
      [
        "âĸģAgba",
        -9.432943129457529
      ],
      [
        "35",
        -9.435909121447096
      ],
      [
        "stan",
        -9.436054854418472
      ],
      [
        "âĸģáī°áī¥áĪİ",
        -9.436262016415721
      ],
      [
        "âĸģDaga",
        -9.436377502478503
      ],
      [
        "âĸģáĬ¥áĬķáĭ²áĪħ",
        -9.438122652244644
      ],
      [
        "âĸģ1990",
        -9.438363739024085
      ],
      [
        "mili",
        -9.438920518497575
      ],
      [
        "áĮĦ",
        -9.439047445494035
      ],
      [
        "âĸģáĪļ",
        -9.4403000049314
      ],
      [
        "gh",
        -9.440472361529748
      ],
      [
        "âĸģX",
        -9.44101957043905
      ],
      [
        "áĪĪáĪĿ",
        -9.44176714231021
      ],
      [
        "â",
        -9.443307418119257
      ],
      [
        "áĭ¨áĬłáĪľáĪªáĬ«",
        -9.44350975796325
      ],
      [
        "âĸģmakarantar",
        -9.443945045462083
      ],
      [
        "áĪįáĪĿ",
        -9.44397842119307
      ],
      [
        "âĸģÃłwo",
        -9.444369242471124
      ],
      [
        "pata",
        -9.444547145955614
      ],
      [
        "45",
        -9.444578520085072
      ],
      [
        "âĸģagba",
        -9.444993947929973
      ],
      [
        "âĸģL'",
        -9.445208630633077
      ],
      [
        "âĸģáº¸ÌĢ",
        -9.446456628712548
      ],
      [
        "âĸģthis",
        -9.446616338730543
      ],
      [
        "âĸģáĬĲáīłáĪ©áį¢",
        -9.446839214186918
      ],
      [
        "âĸģAu",
        -9.447670881734034
      ],
      [
        "áĪĤ",
        -9.447905919504056
      ],
      [
        "káº¹Ìģ",
        -9.448454521595796
      ],
      [
        "kÃ¹n",
        -9.448604080875096
      ],
      [
        "Ç¹",
        -9.449714260337448
      ],
      [
        "âĸģmulkin",
        -9.4498090463217
      ],
      [
        "ves",
        -9.450214118891706
      ],
      [
        "âĸģkira",
        -9.45053195300458
      ],
      [
        "báº¹ÌĢ",
        -9.450667184180686
      ],
      [
        "âĸģup",
        -9.45083435192733
      ],
      [
        "âĸģmita",
        -9.45129379002385
      ],
      [
        "ang",
        -9.451383933416182
      ],
      [
        "âĸģ(I",
        -9.45157099332112
      ],
      [
        "âĸģ*",
        -9.452068021661336
      ],
      [
        "ak",
        -9.452508206348675
      ],
      [
        "tÃ²",
        -9.45261087471461
      ],
      [
        "form",
        -9.452937484361529
      ],
      [
        "pen",
        -9.453473779477967
      ],
      [
        "âĸģáĪĺáĬķáĮĪáĭµ",
        -9.453599443716678
      ],
      [
        "âĸģyayi",
        -9.454963358426657
      ],
      [
        "âĸģOgun",
        -9.455705767575164
      ],
      [
        "âĸģáīłáī°áĪĪáĭŃ",
        -9.456616214640803
      ],
      [
        "âĸģkoma",
        -9.45672665155953
      ],
      [
        "âĸģform",
        -9.457082291248277
      ],
      [
        "cle",
        -9.4577654299227
      ],
      [
        "áĭ¶áī½",
        -9.458639510047618
      ],
      [
        "âĸģtheir",
        -9.459913803509021
      ],
      [
        "âĸģne.",
        -9.46018910467022
      ],
      [
        "âĸģhivyo",
        -9.46053233173506
      ],
      [
        "âĸģ(M",
        -9.460903953464776
      ],
      [
        "áĭĪáĭ°",
        -9.460908842170458
      ],
      [
        "âĸģmÃ¡",
        -9.46236224948629
      ],
      [
        "âĸģyawa",
        -9.462757501440233
      ],
      [
        "âĸģpelu",
        -9.462943629158286
      ],
      [
        "âĸģbayyana",
        -9.463344717177918
      ],
      [
        "âĸģyÃ³Ã²",
        -9.463370579412778
      ],
      [
        "áįĶ",
        -9.463750953627873
      ],
      [
        "âĸģáĮ¥áĬĵáīµ",
        -9.463999645852791
      ],
      [
        "âĸģfilamu",
        -9.464828364502829
      ],
      [
        "lie",
        -9.465618486040732
      ],
      [
        "áĪħáĬķ",
        -9.466395600248731
      ],
      [
        "com",
        -9.46703888380766
      ],
      [
        "lf",
        -9.46786209910079
      ],
      [
        "anza",
        -9.468056840805973
      ],
      [
        "ÃłÃ¡",
        -9.46828032788282
      ],
      [
        "âĸģáĪīáīĥáĪµ",
        -9.469244369325715
      ],
      [
        "âĸģIt",
        -9.46964844792981
      ],
      [
        "ÙĬ",
        -9.469762871449815
      ],
      [
        "vel",
        -9.469940507738425
      ],
      [
        "95",
        -9.470009102010504
      ],
      [
        "ĵ",
        -9.470026603240902
      ],
      [
        "âĸģáĭŃá",
        -9.470445828636233
      ],
      [
        "ĳ",
        -9.470967687363935
      ],
      [
        "âĸģru",
        -9.47115171402647
      ],
      [
        "âĸģmar",
        -9.47118884620198
      ],
      [
        "bba",
        -9.471234206765828
      ],
      [
        "âĸģCi",
        -9.471338361464216
      ],
      [
        "áĪĽáĪª",
        -9.473561734373472
      ],
      [
        "áĪĬáĭ«",
        -9.473793509181494
      ],
      [
        "âĸģÃ¡s",
        -9.474305197878536
      ],
      [
        "áĭŃáī£áĪĭáĪįáį¢",
        -9.475733140147977
      ],
      [
        "áĭĲ",
        -9.475845110972372
      ],
      [
        "âĸģpart",
        -9.476125614742427
      ],
      [
        "Ùħ",
        -9.476201515725412
      ],
      [
        "wa,",
        -9.476287697080249
      ],
      [
        "sáº¹ÌĢ",
        -9.476663063169234
      ],
      [
        "âĸģáĪµáĪĪáĭļáĪħ",
        -9.477120965063374
      ],
      [
        "vent",
        -9.477673043709029
      ],
      [
        "áĬŃáĪŃáĪµáī²áĭ«",
        -9.477955019593
      ],
      [
        "âĸģsamun",
        -9.479240327517847
      ],
      [
        "gon",
        -9.47956702975379
      ],
      [
        "âĸģáĭ²",
        -9.479620001645408
      ],
      [
        "âĸģâĢ¢",
        -9.479658064835856
      ],
      [
        "âĸģsÃŃláº¹ÌĢ",
        -9.47966201461563
      ],
      [
        "er,",
        -9.480244731641244
      ],
      [
        "âĸģCom",
        -9.480495865424091
      ],
      [
        "01",
        -9.480855745541586
      ],
      [
        "ndu",
        -9.480951162444226
      ],
      [
        "âĸģele",
        -9.481309523351616
      ],
      [
        "âĸģ(C",
        -9.481845102365241
      ],
      [
        "âĸģ(N",
        -9.48218240096758
      ],
      [
        "áĪ½áĬķ",
        -9.4825427263006
      ],
      [
        "lt",
        -9.482584793094343
      ],
      [
        "ģ",
        -9.482654178507548
      ],
      [
        "âĸģFu",
        -9.482791651476253
      ],
      [
        "âĸģáĭ¨áĪĽáĭŃ",
        -9.48295650306547
      ],
      [
        "âĸģáĪĿáĬķáĪĿ",
        -9.483814915787717
      ],
      [
        "âĸģolu",
        -9.485005099246113
      ],
      [
        "âĸģdigiri",
        -9.486715637317502
      ],
      [
        "áī¦áī½",
        -9.487119783365465
      ],
      [
        "áī³áĭŃ",
        -9.48752731749743
      ],
      [
        "âĸģáĭŃáĪħáĬķ",
        -9.487782767054291
      ],
      [
        "áĬķáį¡",
        -9.48826345895597
      ],
      [
        "âĸģ(P",
        -9.490283233516076
      ],
      [
        "âĸģMai",
        -9.49069305796031
      ],
      [
        "96",
        -9.491036011380087
      ],
      [
        "âĸģirin",
        -9.491399057789284
      ],
      [
        "den",
        -9.49150173899899
      ],
      [
        "gbon",
        -9.491995794461992
      ],
      [
        "kwamba",
        -9.49201459904497
      ],
      [
        "âĸģne,",
        -9.493190365322643
      ],
      [
        "tel",
        -9.494574787581577
      ],
      [
        "Ñ",
        -9.496085723802594
      ],
      [
        "âĸģEl",
        -9.496360946821541
      ],
      [
        "âĸģwajen",
        -9.496431608978499
      ],
      [
        "ctor",
        -9.496962661891672
      ],
      [
        "âĸģáįĬ",
        -9.496963892172921
      ],
      [
        "áĭĭáī¢",
        -9.497493182868734
      ],
      [
        "âĸģkusini",
        -9.497836573405602
      ],
      [
        "âĸģgidan",
        -9.498130099530423
      ],
      [
        "âĸģParty",
        -9.498459563276857
      ],
      [
        "gha",
        -9.49953576700765
      ],
      [
        "66",
        -9.499701602231223
      ],
      [
        "âĸģáĬ¥áĬķáĮĤ",
        -9.50158363079943
      ],
      [
        "âĸģIta",
        -9.501977047185978
      ],
      [
        "wÃł",
        -9.50210944294161
      ],
      [
        "ima",
        -9.502311845363053
      ],
      [
        "áĪŃáĪ±",
        -9.502847767820125
      ],
      [
        "áĬ¤áĪį",
        -9.503087643450502
      ],
      [
        "âĸģwo",
        -9.50417684555655
      ],
      [
        "Ĭ",
        -9.50471583734749
      ],
      [
        "âĸģáī³áĪªáĬ«áĭĬ",
        -9.504863421664837
      ],
      [
        "âĸģKáº¹",
        -9.505194994540968
      ],
      [
        "ncin",
        -9.505367797407473
      ],
      [
        "ice",
        -9.505524761185995
      ],
      [
        "á¹£i",
        -9.506314252832357
      ],
      [
        "áįĬáīµ",
        -9.506726728892266
      ],
      [
        "âĸģkáº¹",
        -9.506808490538301
      ],
      [
        "âĸģall",
        -9.506847890905336
      ],
      [
        "tory",
        -9.507145437741158
      ],
      [
        "ilÃ©-áº¹ÌĢká»įÌģ",
        -9.507546441582416
      ],
      [
        "áĪŀáī½",
        -9.509117771919875
      ],
      [
        "âĸģFrance",
        -9.509256240315944
      ],
      [
        "âĸģáĭĪáĪŃ",
        -9.509327174837502
      ],
      [
        "âĸģáĪĭ",
        -9.509769217674739
      ],
      [
        "áĪĺáĪµ",
        -9.51067968252526
      ],
      [
        "áĮ¢",
        -9.511255407821892
      ],
      [
        "'i",
        -9.511968852861127
      ],
      [
        "kÃ©",
        -9.512102380535808
      ],
      [
        "âĸģUfaransa",
        -9.513101498101927
      ],
      [
        "âĸģinayo",
        -9.513125912018799
      ],
      [
        "ª",
        -9.51328054886638
      ],
      [
        "âĸģIndia",
        -9.513433328043899
      ],
      [
        "val",
        -9.51348620892571
      ],
      [
        "âĸģtara",
        -9.514404763237607
      ],
      [
        "93",
        -9.514968523266486
      ],
      [
        "s)",
        -9.515891351096714
      ],
      [
        "âĸģNijeriya.",
        -9.516677731773356
      ],
      [
        "---",
        -9.516988920866659
      ],
      [
        "âĸģaux",
        -9.517756752789106
      ],
      [
        "âĸģáĪĺáĪŃ",
        -9.51886150129724
      ],
      [
        "âĸģÃ²un",
        -9.520114456554921
      ],
      [
        "âĸģAgosti",
        -9.520342711073116
      ],
      [
        "âĸģáĪµáĪĻ",
        -9.521264580283404
      ],
      [
        "âĸģMuhammad",
        -9.521667238598024
      ],
      [
        "âĸģChina",
        -9.522049207141237
      ],
      [
        "âĸģJanuary",
        -9.522190531103675
      ],
      [
        "(ojoibi",
        -9.522889447329526
      ],
      [
        "áį¬",
        -9.522906531067035
      ],
      [
        "âĸģAbi",
        -9.523245711249299
      ],
      [
        "joba",
        -9.524103534782402
      ],
      [
        "ach",
        -9.52442193034219
      ],
      [
        "âĸģmanyan",
        -9.524707271079741
      ],
      [
        "âĸģBen",
        -9.52591445693934
      ],
      [
        "áĪ°áĬķ",
        -9.526416465561663
      ],
      [
        "âĸģAd",
        -9.526989855895792
      ],
      [
        "âĸģogun",
        -9.530262167797561
      ],
      [
        "áīŃ",
        -9.530280630202213
      ],
      [
        "-S",
        -9.530375737940172
      ],
      [
        "âĸģáĪķáĭĿáī¥",
        -9.530977518870902
      ],
      [
        "áį¡áīł",
        -9.531060334585803
      ],
      [
        "[",
        -9.532840246633288
      ],
      [
        "âĸģyenye",
        -9.533482960003305
      ],
      [
        "85",
        -9.53355058901359
      ],
      [
        "âĸģAllah",
        -9.53396189786791
      ],
      [
        "aux",
        -9.534148004308582
      ],
      [
        "Éĵ",
        -9.534431658388716
      ],
      [
        "ive",
        -9.534581123709854
      ],
      [
        "âĸģprÃ©",
        -9.534732814367995
      ],
      [
        "áĪĭáĭĬ",
        -9.53538322659664
      ],
      [
        "kata",
        -9.53553039997355
      ],
      [
        "âĸģMji",
        -9.536157773518369
      ],
      [
        "âĸģgina",
        -9.536195519977262
      ],
      [
        "âĸģAwards",
        -9.536202898509769
      ],
      [
        "âĸģáĬĲáĭįáį¡áį¡",
        -9.536265632653834
      ],
      [
        "asi",
        -9.537056344600574
      ],
      [
        "âĸģÃłmÃ¬",
        -9.537065766722366
      ],
      [
        "ongo",
        -9.537401071788196
      ],
      [
        "lá»į",
        -9.537475936094385
      ],
      [
        "âĸģJanuari",
        -9.537620265040555
      ],
      [
        "âĸģShugaban",
        -9.538040258357011
      ],
      [
        "hun",
        -9.53924885720517
      ],
      [
        "ambayo",
        -9.539485389684986
      ],
      [
        "ling",
        -9.539989761686007
      ],
      [
        "ara",
        -9.54021984557584
      ],
      [
        "ona",
        -9.540905262132277
      ],
      [
        "âĸģáĪł",
        -9.540985078744335
      ],
      [
        "âĸģáĬłáĪĺáīµ",
        -9.5411496917522
      ],
      [
        "âĸģ2015",
        -9.541466165186844
      ],
      [
        "áĪĽáĪŃ",
        -9.541613859265668
      ],
      [
        "âĸģCity",
        -9.54176691594527
      ],
      [
        ">",
        -9.541844505243047
      ],
      [
        "âĸģ100",
        -9.54212801915544
      ],
      [
        "yÃ¡",
        -9.542436832106254
      ],
      [
        "âĸģáĭĿáĪŃáĭĿáĪŃ",
        -9.542915344710462
      ],
      [
        "áī£áĪĪ",
        -9.543107256391224
      ],
      [
        "âĸģáĪ´áīµ",
        -9.543370110943199
      ],
      [
        "wÃ©",
        -9.54342793529695
      ],
      [
        "âĸģkudu",
        -9.543960651960198
      ],
      [
        "âĸģ1991",
        -9.54423523877917
      ],
      [
        "âĸģserikali",
        -9.544510926818258
      ],
      [
        "âĸģkara",
        -9.544640388537097
      ],
      [
        "âĸģone",
        -9.546630667882575
      ],
      [
        "ile",
        -9.5467640520088
      ],
      [
        "âĸģtrans",
        -9.547039086080474
      ],
      [
        "âĸģd'a",
        -9.547731098791772
      ],
      [
        "âĸģ2006",
        -9.547821731178676
      ],
      [
        "áī¥áĪĭ",
        -9.547855655285463
      ],
      [
        "âĸģZi",
        -9.54806869025116
      ],
      [
        "âĸģHer",
        -9.548952895348188
      ],
      [
        "âĸģnÃ¡Ãł.",
        -9.549100717189257
      ],
      [
        "âĸģCar",
        -9.549467017845304
      ],
      [
        "22",
        -9.549551391219719
      ],
      [
        "âĸģBaada",
        -9.550071949276369
      ],
      [
        "áī½áĭį",
        -9.550226847680577
      ],
      [
        "fáº¹Ìģ",
        -9.550234039954496
      ],
      [
        "áĪĭáĭŃ",
        -9.550503764672825
      ],
      [
        "áĪµáĬķ",
        -9.550517619738583
      ],
      [
        "âĸģMutane",
        -9.55092915031499
      ],
      [
        "kÃ¹",
        -9.55141333116637
      ],
      [
        "row",
        -9.552623528325842
      ],
      [
        "eur",
        -9.553369303060233
      ],
      [
        "âĸģIngila.",
        -9.553382157017484
      ],
      [
        "âĸģsinimÃ¡",
        -9.55359187089313
      ],
      [
        "âĸģáĬłáī£",
        -9.554182153141788
      ],
      [
        "ta,",
        -9.554450911278607
      ],
      [
        "áĬ¹",
        -9.554615911867952
      ],
      [
        "âĸģMachi",
        -9.555221808804355
      ],
      [
        "âĸģoni",
        -9.55529322489082
      ],
      [
        "75",
        -9.555575677058922
      ],
      [
        "âĸģHausa",
        -9.55583616066119
      ],
      [
        "tal",
        -9.556538916268746
      ],
      [
        "áį®",
        -9.556744811880604
      ],
      [
        "âĸģzamani",
        -9.556873156482698
      ],
      [
        "âĸģ31",
        -9.559015284022234
      ],
      [
        "âĸģNchi",
        -9.559152161107903
      ],
      [
        "âĸģkaskazini",
        -9.560591219179585
      ],
      [
        "âĸģpadÃł",
        -9.5606280778682
      ],
      [
        "tangu",
        -9.561084630291308
      ],
      [
        "âĸģojÃº",
        -9.562008235547037
      ],
      [
        "âĸģpáº¹lu",
        -9.562229941120972
      ],
      [
        "likuwa",
        -9.562234825861353
      ],
      [
        "cÃ©",
        -9.562537948509092
      ],
      [
        "âĸģHistoria",
        -9.562755757420664
      ],
      [
        "áī»áī¸áĭį",
        -9.563648731343637
      ],
      [
        "par",
        -9.563839238766883
      ],
      [
        "âĸģfÃŃÃ¬mÃ¹",
        -9.56441424749584
      ],
      [
        "âĸģPar",
        -9.564616853315947
      ],
      [
        "cal",
        -9.565596714845135
      ],
      [
        "âĸģgbajÃºmá»įÌĢ",
        -9.566553433343387
      ],
      [
        "âĸģÃĢÃłráº¹",
        -9.566558531533246
      ],
      [
        "âĸģáĪĪáĪĿáĪ³áĪĮ",
        -9.566862128584441
      ],
      [
        "áī·",
        -9.566987391178444
      ],
      [
        "áĪµáī³",
        -9.568574744508501
      ],
      [
        "âĸģJulai",
        -9.568742344044349
      ],
      [
        "âĸģKaduna",
        -9.568747168261167
      ],
      [
        "áĭ¨áĪŃ",
        -9.568787169190495
      ],
      [
        "log",
        -9.569615504255012
      ],
      [
        "maeneo",
        -9.569852233029039
      ],
      [
        "âĸģakwai",
        -9.570430064112978
      ],
      [
        "¿",
        -9.570471093095373
      ],
      [
        "âĸģher",
        -9.570740976504712
      ],
      [
        "âĸģáĬĲáĮĪáĪ®áī½",
        -9.571006479444202
      ],
      [
        "áĪĦ",
        -9.57273025149494
      ],
      [
        "88",
        -9.573330491908301
      ],
      [
        "ule",
        -9.573342863681617
      ],
      [
        "ology",
        -9.57404948494562
      ],
      [
        "¦",
        -9.5745591077841
      ],
      [
        "âĸģáĬª",
        -9.574564558847056
      ],
      [
        "âĸģ2014",
        -9.574985184890341
      ],
      [
        "ari",
        -9.575268331666422
      ],
      [
        "âĸģs'",
        -9.57602263658594
      ],
      [
        "âĸģijoba",
        -9.576369457051076
      ],
      [
        "ord",
        -9.576379836301268
      ],
      [
        "âĸģAsia",
        -9.576427583026021
      ],
      [
        "âĸģMei",
        -9.576773828765813
      ],
      [
        "36",
        -9.576970720679682
      ],
      [
        "âĸģáĬłáĪĪáīĥ",
        -9.577043216594948
      ],
      [
        "iyar",
        -9.577232962994644
      ],
      [
        "âĸģLÃ¡",
        -9.577377183216582
      ],
      [
        "don",
        -9.577455809392063
      ],
      [
        "áĭ³áĪŃ",
        -9.577746462354556
      ],
      [
        "32",
        -9.577759419639438
      ],
      [
        "âĸģáĬłáĭį",
        -9.577783446637543
      ],
      [
        "way",
        -9.578719241819858
      ],
      [
        "âĸģwasa",
        -9.578956858607153
      ],
      [
        "gbÃ¨",
        -9.579459944602085
      ],
      [
        "âĸģáĭ«áĪħáĪį",
        -9.579700466017055
      ],
      [
        "áīº",
        -9.580030431769199
      ],
      [
        "eau",
        -9.580662765383856
      ],
      [
        "87",
        -9.581031300181131
      ],
      [
        "âĸģDar",
        -9.581037558747074
      ],
      [
        "âĸģáĪĿáĬķáĮ®áī½",
        -9.581891937331772
      ],
      [
        "âĸģSeptember",
        -9.582049178908099
      ],
      [
        "âĸģSaint",
        -9.5821008841273
      ],
      [
        "sco",
        -9.58237875085741
      ],
      [
        "âĸģ1,",
        -9.582656488061332
      ],
      [
        "Ìģ",
        -9.58275761027113
      ],
      [
        "âĸģÃ¬tÃłn",
        -9.582759139585857
      ],
      [
        "âĸģ(T",
        -9.58377809520767
      ],
      [
        "âĸģá¹¢",
        -9.58410241417112
      ],
      [
        "áĮĪáĬĵ",
        -9.584751881028193
      ],
      [
        "bon",
        -9.585177825975741
      ],
      [
        "âĸģiye",
        -9.586717007282223
      ],
      [
        "âĸģkaribu",
        -9.586891595541537
      ],
      [
        "âĸģwÃ³n",
        -9.586995900909766
      ],
      [
        "lá»įÌģ",
        -9.58919348785864
      ],
      [
        "áīĢáĭį",
        -9.589333983168643
      ],
      [
        "âĸģáĪģáĬĶáī³",
        -9.590526598395481
      ],
      [
        "âĸģkuanzi",
        -9.590955457697572
      ],
      [
        "½",
        -9.591007717899732
      ],
      [
        "âĸģáĮįáĭµáĪĿ",
        -9.591187108846839
      ],
      [
        "áĭ«áĭį",
        -9.592154137143371
      ],
      [
        "âĸģAdÃ©",
        -9.592596657821062
      ],
      [
        "usi",
        -9.593729942049862
      ],
      [
        "âĸģOlu",
        -9.594952760457737
      ],
      [
        "âĸģáĭĵ",
        -9.595293210567906
      ],
      [
        "âĸģsta",
        -9.595629999383778
      ],
      [
        "97",
        -9.595650904054871
      ],
      [
        "âĸģDecember",
        -9.5960465776135
      ],
      [
        "âĸģJuni",
        -9.596402020391004
      ],
      [
        "áįŃ",
        -9.596434703166917
      ],
      [
        "âĸģYe",
        -9.596520112695494
      ],
      [
        "áĬķáīµ",
        -9.596629993136386
      ],
      [
        "ungu",
        -9.596867081242966
      ],
      [
        "áĬłáĭ²áĪµ",
        -9.597126346383181
      ],
      [
        "âĸģ2001",
        -9.597277758804132
      ],
      [
        "wá»į",
        -9.597335581894043
      ],
      [
        "âĸģMtakatifu",
        -9.59737968917191
      ],
      [
        "áī£áĪī",
        -9.597760622431803
      ],
      [
        "áĬ¸",
        -9.597788386281442
      ],
      [
        "áĬŀáī½",
        -9.599057974504937
      ],
      [
        "âĸģuna",
        -9.599189694894708
      ],
      [
        "âĸģ(20",
        -9.599368544489657
      ],
      [
        "aire",
        -9.600048053363032
      ],
      [
        "âĸģFizikia",
        -9.60027694510101
      ],
      [
        "âĸģGeorge",
        -9.600303016743055
      ],
      [
        "áĭĺáĭį",
        -9.600743472895445
      ],
      [
        "áĪ³áĪį",
        -9.600773546605717
      ],
      [
        "áĬ¨áīµ",
        -9.601898655836841
      ],
      [
        "24",
        -9.601980810949254
      ],
      [
        "re,",
        -9.602778890546535
      ],
      [
        "gÃ©",
        -9.60298474558336
      ],
      [
        "âĸģKar",
        -9.603405144510761
      ],
      [
        "37",
        -9.603527159522242
      ],
      [
        "âĸģhai",
        -9.603555200686248
      ],
      [
        "awa",
        -9.60403530214549
      ],
      [
        "âĸģise",
        -9.604069909209498
      ],
      [
        "anga",
        -9.604118995183828
      ],
      [
        "âĸģÃŃ",
        -9.604207541841962
      ],
      [
        "å",
        -9.604220445005055
      ],
      [
        "86",
        -9.605046616471746
      ],
      [
        "nÃ©e",
        -9.605452851155562
      ],
      [
        "áĭŃáĬķ",
        -9.60562410100294
      ],
      [
        "âĸģáį¡áį¡",
        -9.605753435637986
      ],
      [
        "âĸģ1980",
        -9.605830642639049
      ],
      [
        "kali",
        -9.605970737754358
      ],
      [
        "áĬŃáĪį",
        -9.606639103886021
      ],
      [
        "©",
        -9.608150645174614
      ],
      [
        "âĸģTiba",
        -9.608189778583185
      ],
      [
        "ifi",
        -9.609179233044689
      ],
      [
        "áĭŃáĮĪáĬĽáĪįáį¢",
        -9.609405904470327
      ],
      [
        "áĪĺáĮł",
        -9.609917757665121
      ],
      [
        "tÃ¡",
        -9.610186833061167
      ],
      [
        "áĪ³áī¸áĭį",
        -9.610655857992729
      ],
      [
        "âĸģfáº¹Ìģ",
        -9.610856518943542
      ],
      [
        "âĸģsauran",
        -9.61112263707481
      ],
      [
        "bia",
        -9.61149693800158
      ],
      [
        "âĸģbeen",
        -9.612964734606079
      ],
      [
        "ative",
        -9.613050359193515
      ],
      [
        "âĸģWakristo",
        -9.613863176648891
      ],
      [
        "âĸģáĬłáĭ«",
        -9.61411104273733
      ],
      [
        "âĸģTan",
        -9.614371982372827
      ],
      [
        "act",
        -9.61516614651827
      ],
      [
        "rie",
        -9.615600377974523
      ],
      [
        "âĸģsanya",
        -9.616118664723778
      ],
      [
        "na,",
        -9.617818631609069
      ],
      [
        "áĭ®áĬķ",
        -9.619743509610085
      ],
      [
        "ķ",
        -9.62003397612537
      ],
      [
        "pá»įÌĢlá»įpá»įÌĢ",
        -9.620166116881196
      ],
      [
        "âĸģáĪĺáĮ¨áĪ¨áĪ»",
        -9.620705053129305
      ],
      [
        "âĸģBer",
        -9.621216021987559
      ],
      [
        "âĸģnom",
        -9.621303425528641
      ],
      [
        "áĪĺáĮ¥",
        -9.621639450329978
      ],
      [
        "âĸģ1.",
        -9.622651121106351
      ],
      [
        "tá»į",
        -9.62412207208406
      ],
      [
        "âĸģsani",
        -9.624485881991294
      ],
      [
        "âĸģAwá»į",
        -9.624497355693673
      ],
      [
        "âĸģáĭĵ.áĪĿ",
        -9.62485053603563
      ],
      [
        "áī¤áī°",
        -9.625228655639932
      ],
      [
        "áĭ«áĭĬ",
        -9.625749931487732
      ],
      [
        "âĸģgabatar",
        -9.626449957232065
      ],
      [
        "áĭ³áĬķ",
        -9.62645166513513
      ],
      [
        "âĸģQu",
        -9.62648026802504
      ],
      [
        "áº¹Ìģká»įÌĢá»įÌģ",
        -9.627080623238601
      ],
      [
        "áĪ«áĪį",
        -9.62742554748253
      ],
      [
        "âĸģKemi",
        -9.627557254584145
      ],
      [
        "dhi",
        -9.629148985481859
      ],
      [
        "áĪĽáĭŃ",
        -9.62949576788651
      ],
      [
        "âĸģáĪĺáĪª",
        -9.62964450923541
      ],
      [
        "âĸģáĪĪáĬł",
        -9.630117580620038
      ],
      [
        "âĸģentre",
        -9.63065201949636
      ],
      [
        "ally",
        -9.630713788690116
      ],
      [
        "-1",
        -9.630839622617293
      ],
      [
        "âĸģmfalme",
        -9.631109956331192
      ],
      [
        "âĸģoloselu",
        -9.631690335522686
      ],
      [
        "âĸģáº¹ÌĢyÃł",
        -9.632036171911807
      ],
      [
        "hari",
        -9.632592608319715
      ],
      [
        "nsu",
        -9.633796309849771
      ],
      [
        "áĪĿáį£",
        -9.634279044298633
      ],
      [
        "âĸģáĪ¥áĪŃáĭĪ",
        -9.634367902777146
      ],
      [
        "âĸģWatu",
        -9.634813086019083
      ],
      [
        "mÃ²",
        -9.635357933161309
      ],
      [
        "sÃ©",
        -9.635429135238649
      ],
      [
        "âĸģtaka",
        -9.635987336575768
      ],
      [
        "áĭ°áĬķ",
        -9.636186039603148
      ],
      [
        "48",
        -9.636943267725876
      ],
      [
        "âĸģCor",
        -9.640693834710401
      ],
      [
        "wá»įÌĢ",
        -9.640845301205243
      ],
      [
        "ľ",
        -9.641218982475117
      ],
      [
        "à",
        -9.64130937015311
      ],
      [
        "âĸģFaransa",
        -9.641607408054622
      ],
      [
        "âĸģlake",
        -9.641786011054776
      ],
      [
        "âĸģinÃº",
        -9.642116693330678
      ],
      [
        "áĪ«áĬķ",
        -9.64235650680906
      ],
      [
        "âĸģ1970",
        -9.642447345930503
      ],
      [
        "ions",
        -9.642491128135077
      ],
      [
        "ida",
        -9.64332145197237
      ],
      [
        "âĸģáĪĽáĪŃáīĨáĪµ",
        -9.643362820252655
      ],
      [
        "ne,",
        -9.643752243698419
      ],
      [
        "teur",
        -9.644538033280728
      ],
      [
        "rch",
        -9.64454885289047
      ],
      [
        "âĸģáĭĪáĬķáĭµ",
        -9.644928836832879
      ],
      [
        "rÃł",
        -9.644950918775091
      ],
      [
        "âĸģomi",
        -9.645013150561073
      ],
      [
        "bre",
        -9.64519774954586
      ],
      [
        "âĸģ1993",
        -9.645305179063987
      ],
      [
        "âĸģ2019",
        -9.645427924223771
      ],
      [
        "94",
        -9.64567006177674
      ],
      [
        "68",
        -9.645678089285097
      ],
      [
        "âĸģáīłáĬłáĬķáĭµ",
        -9.645869521487572
      ],
      [
        "Ã®",
        -9.64587614609988
      ],
      [
        "54",
        -9.646288029965152
      ],
      [
        "áĪįáĬŃ",
        -9.646746295394507
      ],
      [
        "âĸģbaba",
        -9.64743587354605
      ],
      [
        "ÙĦ",
        -9.647968008937129
      ],
      [
        "cer",
        -9.64819332232289
      ],
      [
        "áīħáĪŃ",
        -9.648364311188693
      ],
      [
        "dre",
        -9.648446366944864
      ],
      [
        "âĸģJames",
        -9.649046228241279
      ],
      [
        "áįįáīµ",
        -9.649685872286824
      ],
      [
        "âĸģEbu",
        -9.649791775062377
      ],
      [
        "âĸģáĬ¨áĪļ",
        -9.650208123718444
      ],
      [
        "Ï",
        -9.65117028233939
      ],
      [
        "âĸģUn",
        -9.651950771648831
      ],
      [
        "bel",
        -9.652018324245235
      ],
      [
        "ans",
        -9.652338842223276
      ],
      [
        "kara",
        -9.652899359559296
      ],
      [
        "ĥ",
        -9.653644801249385
      ],
      [
        "ville",
        -9.653646900674442
      ],
      [
        "áĪŀáīµ",
        -9.653772582243704
      ],
      [
        "cent",
        -9.653942159060865
      ],
      [
        "âĸģMashariki",
        -9.653985178107593
      ],
      [
        "âĸģkammala",
        -9.653986016935498
      ],
      [
        "âĸģISBN",
        -9.654578306278726
      ],
      [
        "ya,",
        -9.654844884810364
      ],
      [
        "55",
        -9.655232487852139
      ],
      [
        "76",
        -9.655698331899345
      ],
      [
        "âĸģPeople",
        -9.65576821814131
      ],
      [
        "âĸģkejÃ¬",
        -9.655930013598823
      ],
      [
        "âĸģused",
        -9.655963322886775
      ],
      [
        "bá»įÌĢ",
        -9.656107863827831
      ],
      [
        "urs",
        -9.656729185979483
      ],
      [
        "áĭ°áĪĿ",
        -9.656773871948786
      ],
      [
        "92",
        -9.656814456992654
      ],
      [
        "áī¤áīµ",
        -9.6571893052868
      ],
      [
        "âĸģáĭĪáĮĪáĬķ",
        -9.657765271506136
      ],
      [
        "âĸģndani",
        -9.658166697402295
      ],
      [
        "âĸģAward",
        -9.658499932885256
      ],
      [
        "yá»į",
        -9.658570600055315
      ],
      [
        "áĮ£áīµ",
        -9.658638836436268
      ],
      [
        "lÃ²",
        -9.658694357461899
      ],
      [
        "âĸģDesemba",
        -9.659341844980014
      ],
      [
        "64",
        -9.659544240394787
      ],
      [
        "83",
        -9.659909225003691
      ],
      [
        "áį±",
        -9.660156258875883
      ],
      [
        "áī¬",
        -9.66022764940434
      ],
      [
        "Ø±",
        -9.660792299321955
      ],
      [
        "ab",
        -9.660948441452247
      ],
      [
        "âĸģbirni",
        -9.661646851123704
      ],
      [
        "âĸģfo",
        -9.661760407877445
      ],
      [
        "pre",
        -9.662207071285682
      ],
      [
        "âĸģá¹£iá¹£áº¹Ìģ",
        -9.66239579892743
      ],
      [
        "kÃ¨",
        -9.662399338056662
      ],
      [
        "âĸģeniyan",
        -9.662526039310986
      ],
      [
        "shu",
        -9.663450927955513
      ],
      [
        "Z",
        -9.664608556977642
      ],
      [
        "âĸģLegas",
        -9.664829297521036
      ],
      [
        "âĸģ1994",
        -9.664883568777958
      ],
      [
        "âĸģmáº¹Ìģ",
        -9.664893473187393
      ],
      [
        "âĸģOmo",
        -9.665593787612881
      ],
      [
        "âĸģ1998",
        -9.66562961945175
      ],
      [
        "28",
        -9.665916391360131
      ],
      [
        "sÃł",
        -9.666506095068229
      ],
      [
        "âĸģhuko",
        -9.666717507931613
      ],
      [
        "int",
        -9.666895244081921
      ],
      [
        "áį°",
        -9.667181125857757
      ],
      [
        "âĸģmaa",
        -9.667205685156542
      ],
      [
        "58",
        -9.667558651868607
      ],
      [
        "¤",
        -9.66855153698694
      ],
      [
        "33",
        -9.668566456888467
      ],
      [
        "âĸģwe",
        -9.668622273867282
      ],
      [
        "tique",
        -9.668820473844306
      ],
      [
        "ound",
        -9.669426119075876
      ],
      [
        "âĸģaliye",
        -9.669776914683663
      ],
      [
        "âĸģÃłgbÃł",
        -9.669926415717008
      ],
      [
        "âĸģjirgin",
        -9.670134578999381
      ],
      [
        "day",
        -9.670357176829327
      ],
      [
        "bá»į",
        -9.670443436752453
      ],
      [
        "haifi",
        -9.670486347208264
      ],
      [
        "âĸģAprili",
        -9.671296281306505
      ],
      [
        "âĸģeyi",
        -9.671614453325702
      ],
      [
        "âĸģRais",
        -9.671858162038127
      ],
      [
        "Äģ",
        -9.67201465123564
      ],
      [
        "âĸģ1996",
        -9.672132899442122
      ],
      [
        "57",
        -9.672153887604187
      ],
      [
        "ira",
        -9.67224559913345
      ],
      [
        "42",
        -9.672582463202954
      ],
      [
        "âĸģgida",
        -9.672847632491354
      ],
      [
        "lum",
        -9.673100759938823
      ],
      [
        "âĸģkula",
        -9.673231415044349
      ],
      [
        "âĸģAll",
        -9.673417848249276
      ],
      [
        "dina",
        -9.674512235367388
      ],
      [
        "âĸģIs",
        -9.674678738623633
      ],
      [
        "áī³áĭį",
        -9.675112350023205
      ],
      [
        "áĪ¶áī½",
        -9.675186620555317
      ],
      [
        "by",
        -9.6759303972494
      ],
      [
        "áī³áĭĬ",
        -9.676788465645858
      ],
      [
        "nom",
        -9.677038322009274
      ],
      [
        "Ĵ",
        -9.677277650590696
      ],
      [
        "âĸģáĬłáīµ",
        -9.677797277154088
      ],
      [
        "Ã",
        -9.678828695984322
      ],
      [
        "-C",
        -9.679086323170104
      ],
      [
        "áĮįáī£",
        -9.679104804907327
      ],
      [
        "âĸģSeptemba",
        -9.67921897613693
      ],
      [
        "âĸģWest",
        -9.679302644148397
      ],
      [
        "áĭ¨áĪĿ",
        -9.679316846435835
      ],
      [
        "âĸģTh",
        -9.679347825745129
      ],
      [
        "ob",
        -9.679796605281869
      ],
      [
        "áĭįáĪµ",
        -9.68013083456411
      ],
      [
        "rehe",
        -9.680605267574876
      ],
      [
        "âĸģOba",
        -9.681168220129958
      ],
      [
        "áĪ«áī¸áĭį",
        -9.681205325975348
      ],
      [
        "âĸģ0",
        -9.681296490682406
      ],
      [
        "âĸģhukumar",
        -9.681442355671017
      ],
      [
        "âĸģcu",
        -9.68172438551986
      ],
      [
        "áĭ°áī¥",
        -9.683051306551272
      ],
      [
        "¨",
        -9.68311846896407
      ],
      [
        "ps",
        -9.683816379322522
      ],
      [
        "34",
        -9.684615898223024
      ],
      [
        "ráº¹Ìģ",
        -9.684852588545812
      ],
      [
        "áīµáĪŃ",
        -9.685259329644627
      ],
      [
        "ffi",
        -9.685516473447233
      ],
      [
        "áįĭáīµ",
        -9.685586910962808
      ],
      [
        "âĸģáĪĽáĬķ",
        -9.685714138608027
      ],
      [
        "áī¼",
        -9.686537517014205
      ],
      [
        "âĸģzai",
        -9.686576895723526
      ],
      [
        "âĸģláº¹ÌģyÃ¬n",
        -9.686621680338881
      ],
      [
        "âĸģwaje",
        -9.686852554469883
      ],
      [
        "áĪ«áĪµ",
        -9.687606554211456
      ],
      [
        "áĪ©áīµ",
        -9.68803976253194
      ],
      [
        "gg",
        -9.688949915074932
      ],
      [
        "âĸģsake",
        -9.689223799127534
      ],
      [
        "âĸģIngila",
        -9.689251517445758
      ],
      [
        "âĸģhi",
        -9.689687312382599
      ],
      [
        "áĭĪáīħ",
        -9.6898260639475
      ],
      [
        "âĸģchake",
        -9.692363432917837
      ],
      [
        "âĸģáĪģ",
        -9.692518194143805
      ],
      [
        "âĸģ1995",
        -9.692892343534893
      ],
      [
        "lic",
        -9.6932026542022
      ],
      [
        "âĸģá¹£",
        -9.693356582119506
      ],
      [
        "áĬĲáī±",
        -9.69342359961034
      ],
      [
        "63",
        -9.693939248632093
      ],
      [
        "âĸģáĬłáįĪ",
        -9.695868403505013
      ],
      [
        "âĸģdama",
        -9.696018039190243
      ],
      [
        "âĸģnigba",
        -9.696132727027052
      ],
      [
        "âĸģIá¹£áº¹Ìģ",
        -9.69620851711244
      ],
      [
        "âĸģáĬłáĪĿ",
        -9.696338883632885
      ],
      [
        "77",
        -9.696797367793689
      ],
      [
        "65",
        -9.696820809231845
      ],
      [
        "áĭ«áĭĺ",
        -9.697250066233185
      ],
      [
        "zwa",
        -9.697641137630148
      ],
      [
        "âĸģkwaikwayo",
        -9.69764136613555
      ],
      [
        "omi",
        -9.697969723484839
      ],
      [
        "âĸģpá»įÌĢ",
        -9.699408448557499
      ],
      [
        "âĸģinto",
        -9.699768130348726
      ],
      [
        "áĮįáĪŃ",
        -9.69982666159553
      ],
      [
        "âĸģbisa",
        -9.699875836605528
      ],
      [
        "tif",
        -9.699950050331145
      ],
      [
        "âĸģNovember",
        -9.700123559407974
      ],
      [
        "rge",
        -9.700215277231674
      ],
      [
        "one",
        -9.70024437372328
      ],
      [
        "âĸģses",
        -9.700942282176364
      ],
      [
        "áĭļáĭ«",
        -9.701775080846351
      ],
      [
        "âĸģsuke",
        -9.701996743969804
      ],
      [
        "âĸģNajeriya,",
        -9.70210672611389
      ],
      [
        "kere",
        -9.702823626297178
      ],
      [
        "X",
        -9.702828990008646
      ],
      [
        "27",
        -9.70338675939955
      ],
      [
        "áĮĬáĭľ",
        -9.703501717260664
      ],
      [
        "âĸģgÃŃga",
        -9.703889099165789
      ],
      [
        "âĸģwork",
        -9.70397262774862
      ],
      [
        "áĪµáĪ«",
        -9.70409048047662
      ],
      [
        "well",
        -9.704225923339905
      ],
      [
        "âĸģzili",
        -9.704647519458106
      ],
      [
        "tsi",
        -9.704833667379447
      ],
      [
        "áīłáĪį",
        -9.70513776750536
      ],
      [
        "98",
        -9.705607825732514
      ],
      [
        "rÃ¬n",
        -9.705737955404164
      ],
      [
        "ni,",
        -9.705936470761323
      ],
      [
        "oma",
        -9.705985811395712
      ],
      [
        "âĸģáī³áĭĭáīĤ",
        -9.706233214103268
      ],
      [
        "-O",
        -9.70665938579517
      ],
      [
        "cus",
        -9.707054307348102
      ],
      [
        "rant",
        -9.707111938353263
      ],
      [
        "âĸģere",
        -9.708000421964552
      ],
      [
        "áĪĪáĪģ",
        -9.708702573740982
      ],
      [
        "lam",
        -9.708728683259261
      ],
      [
        "04",
        -9.709063197077223
      ],
      [
        "âĸģKati",
        -9.709409230482784
      ],
      [
        "kÃ¹nrin",
        -9.709414567743014
      ],
      [
        "áĮłáĪŃ",
        -9.709707535678344
      ],
      [
        "âĸģmwigizaji",
        -9.710742237939701
      ],
      [
        "âĸģáĪĽáī´áĭİáĪµ",
        -9.71137019035639
      ],
      [
        "âĸģdeux",
        -9.711978360893015
      ],
      [
        "iko",
        -9.71215000376731
      ],
      [
        "âĸģáĪĨáĬĸáĪĿ",
        -9.712427655599079
      ],
      [
        "áĭµáĪĿ",
        -9.712558764885689
      ],
      [
        "âĸģuhuru",
        -9.712629668114081
      ],
      [
        "ward",
        -9.712817458826677
      ],
      [
        "âĸģwato",
        -9.712942606846113
      ],
      [
        "gre",
        -9.71370481436414
      ],
      [
        "âĸģFebruary",
        -9.713899647739678
      ],
      [
        "áĪĥáĭŃáĪĽáĬĸáīµ",
        -9.713931975723671
      ],
      [
        "âĸģ\"A",
        -9.71554584683619
      ],
      [
        "dogo",
        -9.71568368733723
      ],
      [
        "âĸģfannin",
        -9.716433981987649
      ],
      [
        "ori",
        -9.716624238282947
      ],
      [
        "âĸģ(L",
        -9.717625626405567
      ],
      [
        "âĸģáī",
        -9.717849984623424
      ],
      [
        "âĸģFebruari",
        -9.718305834324116
      ],
      [
        "âĸģáĪĺáĪłáĪ¨áīµ",
        -9.718938983926446
      ],
      [
        "áĪĽáĬķ",
        -9.719123172958405
      ],
      [
        "âĸģwaki",
        -9.719591486335403
      ],
      [
        "âĸģMto",
        -9.719619828082166
      ],
      [
        "âĸģáī°á",
        -9.719769043850969
      ],
      [
        "âĸģNor",
        -9.720379406530578
      ],
      [
        "ÆĻ",
        -9.721481461556206
      ],
      [
        "âĸģPaul",
        -9.72214541811773
      ],
      [
        "âĸģlamba",
        -9.722397045256304
      ],
      [
        "âĸģThis",
        -9.722553133261876
      ],
      [
        "\")",
        -9.722923161466685
      ],
      [
        "gano",
        -9.72345808362499
      ],
      [
        "kawa",
        -9.72350483929506
      ],
      [
        "âĸģfito",
        -9.723730821744713
      ],
      [
        "bara",
        -9.723865778467406
      ],
      [
        "âĸģstate",
        -9.724158106990659
      ],
      [
        "hin",
        -9.724169012439265
      ],
      [
        "âĸģChe",
        -9.724593524530434
      ],
      [
        "áĬķáĭ³",
        -9.72497792833052
      ],
      [
        "vis",
        -9.725171581440014
      ],
      [
        "âĸģmutum",
        -9.72582875457567
      ],
      [
        "âĸģIbadan",
        -9.725930609938018
      ],
      [
        "âĸģAt",
        -9.726457847406367
      ],
      [
        "ins",
        -9.726594101818314
      ],
      [
        "âĸģolÃ³rin",
        -9.727122995821926
      ],
      [
        "Ã¡Ãł",
        -9.72766425874348
      ],
      [
        "âĸģwilaya",
        -9.727845808873523
      ],
      [
        "âĸģgu",
        -9.728180835883162
      ],
      [
        "ble",
        -9.728627313279661
      ],
      [
        "56",
        -9.728688760268708
      ],
      [
        "áĬķáĮĭ",
        -9.72872153703813
      ],
      [
        "âĸģáĮ¥áĬķáī³áĭĬ",
        -9.729123962784527
      ],
      [
        "âĸģ(1",
        -9.72948123382996
      ],
      [
        "âĸģNovemba",
        -9.729760289940511
      ],
      [
        "«",
        -9.729935801767631
      ],
      [
        "âĸģá»įÌĢkan",
        -9.731028444323623
      ],
      [
        "âĸģArewa",
        -9.731133310740276
      ],
      [
        "âĸģYo",
        -9.731302247426296
      ],
      [
        "nyi",
        -9.73268271326685
      ],
      [
        "82",
        -9.732811281045285
      ],
      [
        "âĸģSin",
        -9.732852411641115
      ],
      [
        "âĸģParis",
        -9.73331347291401
      ],
      [
        "har",
        -9.733916659970266
      ],
      [
        "ĸ",
        -9.73498642563882
      ],
      [
        "áį©",
        -9.735230376714648
      ],
      [
        "bri",
        -9.735311598983474
      ],
      [
        "bÃº",
        -9.736158539670864
      ],
      [
        "áī½áį¢",
        -9.736245721804465
      ],
      [
        "âĸģafter",
        -9.736882175446414
      ],
      [
        "riya",
        -9.737211773711435
      ],
      [
        "áĬ¨áĪį",
        -9.737939742442768
      ],
      [
        "âĸģáĪµáĪŃ",
        -9.73818396152265
      ],
      [
        "âĸģ2016",
        -9.738947716302597
      ],
      [
        "âĸģBÃŃ",
        -9.73938488401789
      ],
      [
        "âĸģmÃ¬ÃŃrÃłn",
        -9.739406410916374
      ],
      [
        "âĸģ1976",
        -9.739578873282497
      ],
      [
        "up",
        -9.740037047325771
      ],
      [
        "âĸģbiyar",
        -9.740329905030844
      ],
      [
        "29",
        -9.740343852327854
      ],
      [
        "âĸģEthiopia",
        -9.740699604422003
      ],
      [
        "âĸģáĭ¨áĪļáĪĪáĭį",
        -9.741478880537809
      ],
      [
        "âĸģ1997",
        -9.741530335612394
      ],
      [
        "ney",
        -9.741685660762817
      ],
      [
        "áīĥáĪį",
        -9.741686745339463
      ],
      [
        "âĸģáĬķáĮīáĪµ",
        -9.742006402551919
      ],
      [
        "âĸģw",
        -9.74234175474012
      ],
      [
        "bor",
        -9.742623449655726
      ],
      [
        "âĸģtime",
        -9.742916789343848
      ],
      [
        "bÃ©",
        -9.74304005756795
      ],
      [
        "owo",
        -9.743450702581953
      ],
      [
        "ı",
        -9.743681243970924
      ],
      [
        "ili",
        -9.743886143709677
      ],
      [
        "paka",
        -9.744041143497256
      ],
      [
        "46",
        -9.744209397201699
      ],
      [
        "âĢ¦",
        -9.7446492553558
      ],
      [
        "âĸģÐ",
        -9.744700527546922
      ],
      [
        "stra",
        -9.74583192852398
      ],
      [
        "ded",
        -9.746287911582142
      ],
      [
        "âĸģrÃ¨",
        -9.746577457355423
      ],
      [
        "âĸģlanguage",
        -9.746596262055718
      ],
      [
        "âĸģobÃ¬nrin",
        -9.746637986723526
      ],
      [
        "áī°áĬķ",
        -9.74692551194412
      ],
      [
        "Ä",
        -9.747609389879498
      ],
      [
        "lika",
        -9.747633102964649
      ],
      [
        "âĸģNu",
        -9.747822857264659
      ],
      [
        "âĸģráº¹ÌĢ.",
        -9.748655058021303
      ],
      [
        "âĸģAdam",
        -9.748951130773708
      ],
      [
        "app",
        -9.749466856379328
      ],
      [
        "âĸģhukuma",
        -9.75006440743622
      ],
      [
        "karamar",
        -9.75007165992216
      ],
      [
        "ÉĹi",
        -9.750158952176605
      ],
      [
        "rá»įÌĢ",
        -9.750278232274246
      ],
      [
        "ef",
        -9.750759048432055
      ],
      [
        "ors",
        -9.751208617721323
      ],
      [
        "tus",
        -9.752021954263082
      ],
      [
        "âĸģjÃ¹",
        -9.752105565857317
      ],
      [
        "tch",
        -9.752133020211975
      ],
      [
        "ric",
        -9.7523695466558
      ],
      [
        "âĸģáĭķáĪĪáī³áīµ",
        -9.752414802111103
      ],
      [
        "áĭĪáĬķ",
        -9.752780192232205
      ],
      [
        "sar",
        -9.753147997748364
      ],
      [
        "âĸģruwa",
        -9.753411186845138
      ],
      [
        "âĸģÃĪ",
        -9.753463459590739
      ],
      [
        "ants",
        -9.753877206381713
      ],
      [
        "endelea",
        -9.75411832350963
      ],
      [
        "âĸģkÃ¡",
        -9.754305705921796
      ],
      [
        "âĸģdÃ¡ra",
        -9.754815266646919
      ],
      [
        "mm",
        -9.754837109477613
      ],
      [
        "âĸģmutanen",
        -9.75612481580857
      ],
      [
        "ali",
        -9.756272021331142
      ],
      [
        "âĸģáĪ´",
        -9.756590995787803
      ],
      [
        "áĭĪáĪŃ",
        -9.756907149417609
      ],
      [
        "áĬ¥áĮ",
        -9.75754816998899
      ],
      [
        "âĸģdÃŃ",
        -9.757953377691589
      ],
      [
        "âĸģáĬłáĪľáĪªáĬ«",
        -9.758220616146467
      ],
      [
        "ish",
        -9.75851023324699
      ],
      [
        "Ãªt",
        -9.758596222607373
      ],
      [
        "áĬĽáį¦",
        -9.758714028190921
      ],
      [
        "âĸģMusa",
        -9.758735512876783
      ],
      [
        "âĸģMajalisar",
        -9.758982842364013
      ],
      [
        "áĪ³áĭŃ",
        -9.759080629001147
      ],
      [
        "fÃ©",
        -9.75915901417684
      ],
      [
        "áī°áĪ«",
        -9.759161259753824
      ],
      [
        "âĸģtwo",
        -9.759277594785251
      ],
      [
        "âĸģtena",
        -9.759562791129547
      ],
      [
        "âĸģfait",
        -9.759745396858936
      ],
      [
        "âĸģ2018",
        -9.759945548897472
      ],
      [
        "âĸģOctober",
        -9.760010110225517
      ],
      [
        "áĮłáįĭ",
        -9.760553549908694
      ],
      [
        "âĸģkilomita",
        -9.76162226675682
      ],
      [
        "kwe",
        -9.761632105693948
      ],
      [
        "âĸģgi",
        -9.761785108980927
      ],
      [
        "âĸģáĪŀáīµ",
        -9.761925034025765
      ],
      [
        "âĸģmais",
        -9.762385199622257
      ],
      [
        "âĸģMarch",
        -9.76256843529126
      ],
      [
        "fer",
        -9.762604343190382
      ],
      [
        "âĸģkÃº",
        -9.762675270361903
      ],
      [
        "âĸģKasa",
        -9.7627124573069
      ],
      [
        "iti",
        -9.762769633017566
      ],
      [
        "âĸģJina",
        -9.763181650000508
      ],
      [
        "âĸģáīĢáĬĵáīµ",
        -9.763333678834147
      ],
      [
        "áĭ¨áĬĲáīłáĪ¨áĭį",
        -9.763906708916874
      ],
      [
        "âĸģagbÃ¡",
        -9.764175324003329
      ],
      [
        "âĸģáĭ³",
        -9.765284017360155
      ],
      [
        "âĸģmost",
        -9.765464822581091
      ],
      [
        "âĸģagbegbe",
        -9.765599780957002
      ],
      [
        "âĸģrayuwa",
        -9.766025597089182
      ],
      [
        "âĸģbahari",
        -9.766095753366132
      ],
      [
        "ananan",
        -9.766462686373231
      ],
      [
        "âĸģpekee",
        -9.766946396201954
      ],
      [
        "âĸģsunan",
        -9.76735912253777
      ],
      [
        "arin",
        -9.76740819147569
      ],
      [
        "kh",
        -9.767422560907967
      ],
      [
        "sa,",
        -9.767566414579548
      ],
      [
        "âĸģVer",
        -9.767725626638367
      ],
      [
        "âĸģOpen",
        -9.767759113835362
      ],
      [
        "âĸģEle",
        -9.768492230697921
      ],
      [
        "áĪĭáĬķáĭµ",
        -9.76852339467349
      ],
      [
        "jÃ³",
        -9.768673779978819
      ],
      [
        "âĸģáī¥áĪĪáĭį",
        -9.768864423445766
      ],
      [
        "báº¹Ìģ",
        -9.768932982008046
      ],
      [
        "âĸģáīłáĮį",
        -9.769318368664447
      ],
      [
        "fÃŃ",
        -9.769550790090513
      ],
      [
        "âĸģKatsina",
        -9.76958436145345
      ],
      [
        "nor",
        -9.76990311656589
      ],
      [
        "âĸģáĬ¡",
        -9.770650118716445
      ],
      [
        "áĪ¨áĮĭ",
        -9.770760305507466
      ],
      [
        "âĸģ1967",
        -9.770915726551678
      ],
      [
        "âĸģlá»įÌģdÃºn",
        -9.771011251183166
      ],
      [
        "âĸģimp",
        -9.771020318784176
      ],
      [
        "âĸģbara",
        -9.771535139455455
      ],
      [
        "iste",
        -9.771653731858226
      ],
      [
        "gari",
        -9.77181667305338
      ],
      [
        "52",
        -9.77246295347604
      ],
      [
        "81",
        -9.772678063057079
      ],
      [
        "âĸģEx",
        -9.772860070307146
      ],
      [
        "02",
        -9.773464056181037
      ],
      [
        "âĸģáĭĵáĪĪáĪĿ",
        -9.773803530445687
      ],
      [
        "art",
        -9.774157400268525
      ],
      [
        "âĸģ'Yan",
        -9.774927303588814
      ],
      [
        "âĸģBahari",
        -9.77495773393055
      ],
      [
        "âĸģ1987",
        -9.775114409984097
      ],
      [
        "ker",
        -9.775247064054325
      ],
      [
        "shwa",
        -9.775247271445046
      ],
      [
        "âĸģkarni",
        -9.7753871038299
      ],
      [
        "rÃ¹",
        -9.775487754884697
      ],
      [
        "vin",
        -9.77560061547272
      ],
      [
        "lish",
        -9.7756270394496
      ],
      [
        "âĸģ(G",
        -9.77585330086735
      ],
      [
        "dam",
        -9.776007365167327
      ],
      [
        "áĪĪáī½áį¢",
        -9.776277806771738
      ],
      [
        "âĸģkasuwanci",
        -9.776355934568898
      ],
      [
        "âĸģMko",
        -9.776442555315677
      ],
      [
        "âĸģrasmi",
        -9.77699310601784
      ],
      [
        "âĸģáĪįáī¥",
        -9.777016732296458
      ],
      [
        "61",
        -9.77710177911884
      ],
      [
        "á¹£Ãł",
        -9.777506693287094
      ],
      [
        "âĸģáĭ°áī¡áī¥",
        -9.778596959246586
      ],
      [
        "ļ",
        -9.778821445778465
      ],
      [
        "49",
        -9.779365928678164
      ],
      [
        "die",
        -9.779446808857237
      ],
      [
        "fuata",
        -9.77964093012202
      ],
      [
        "âĸģAlakos",
        -9.779752647208582
      ],
      [
        "yon",
        -9.780012668992427
      ],
      [
        "ston",
        -9.7801524130662
      ],
      [
        "âĸģIII",
        -9.780800547190674
      ],
      [
        "38",
        -9.780842242939038
      ],
      [
        "âĸģwote",
        -9.78088716659392
      ],
      [
        "ala",
        -9.78141420181076
      ],
      [
        "84",
        -9.781460356958391
      ],
      [
        "âĸģáįĵáĪŃáī²",
        -9.781644052474283
      ],
      [
        "mpa",
        -9.781724640207779
      ],
      [
        "liwa",
        -9.78217814672671
      ],
      [
        "âĸģEnglish",
        -9.782993889439346
      ],
      [
        "áīłáĪ¬",
        -9.78306940962302
      ],
      [
        "âĸģ1992",
        -9.783845698839752
      ],
      [
        "âĸģáĪĦ",
        -9.78387028378055
      ],
      [
        "26",
        -9.78390980299696
      ],
      [
        "sent",
        -9.78395551815829
      ],
      [
        ")áį£",
        -9.784787723382072
      ],
      [
        "my",
        -9.785277354185927
      ],
      [
        "âĸģáĪ±",
        -9.78547626661313
      ],
      [
        "yadda",
        -9.786143638280539
      ],
      [
        "âĸģlá»įÌģ",
        -9.786162949757383
      ],
      [
        "âĸģáĬłáĬ«áĪį",
        -9.78620230750196
      ],
      [
        "rÃ¡",
        -9.786320108334253
      ],
      [
        "âĸģáĭ¨áĪ°áĭį",
        -9.786342760386935
      ],
      [
        "89",
        -9.786529745971638
      ],
      [
        "âĸģáīłáĭ¨",
        -9.786630495292183
      ],
      [
        "âĸģá»ĮdÃºn",
        -9.787186923382864
      ],
      [
        "áĪ¥áĪ«",
        -9.787367537162938
      ],
      [
        "âĸģWilliam",
        -9.787633340224478
      ],
      [
        "ipÃ²",
        -9.788464243424745
      ],
      [
        "§",
        -9.7884763624624
      ],
      [
        "¾",
        -9.789116114247001
      ],
      [
        "âĸģáĬłáĪ³",
        -9.789683900068084
      ],
      [
        "alÃ¡Ã¬sÃŃ",
        -9.789765133592237
      ],
      [
        "ill",
        -9.790765851865572
      ],
      [
        "âĸģover",
        -9.791435423493901
      ],
      [
        "âĸģhalar",
        -9.791895122885684
      ],
      [
        "âĸģáĪ²á",
        -9.792110751805158
      ],
      [
        "net",
        -9.792163005677846
      ],
      [
        "âĸģáī°áĪ°",
        -9.792654403205411
      ],
      [
        "53",
        -9.792929131409005
      ],
      [
        "tá»įÌĢ",
        -9.793808828771024
      ],
      [
        "iro",
        -9.793902416301039
      ],
      [
        "AN",
        -9.79410623404344
      ],
      [
        "áĪĪáĬķ",
        -9.794145914962616
      ],
      [
        "âĸģPort",
        -9.79449602222881
      ],
      [
        "ráº¹ÌĢ",
        -9.794876674500198
      ],
      [
        "âĸģáĪ¸",
        -9.79543296302029
      ],
      [
        "mÃ³",
        -9.795664180538333
      ],
      [
        "âĸģlá»įÌģwá»įÌģ",
        -9.795842228828377
      ],
      [
        "âĸģFilm",
        -9.795962939156091
      ],
      [
        "âĸģasili",
        -9.796355035777937
      ],
      [
        "áįĪáĭį",
        -9.796520836842976
      ],
      [
        "out",
        -9.796534568620519
      ],
      [
        "ship",
        -9.796862199787435
      ],
      [
        "âĸģ(U",
        -9.797021055066281
      ],
      [
        "âĸģtáº¹",
        -9.797192217375773
      ],
      [
        "Q",
        -9.797677928550439
      ],
      [
        "âĸģBenin",
        -9.797698944093131
      ],
      [
        "âĸģBank",
        -9.79769954065286
      ],
      [
        "wa.",
        -9.797796462874576
      ],
      [
        "bÃ¬",
        -9.79839683769151
      ],
      [
        "áī½áĪģ",
        -9.79881410718528
      ],
      [
        "âĸģáĬ¨áī°áĪĽáĭį",
        -9.799399344109647
      ],
      [
        "now",
        -9.79940971854429
      ],
      [
        "âĸģDr",
        -9.80030309450688
      ],
      [
        "poli",
        -9.800347054129409
      ],
      [
        "âĸģolÃ³",
        -9.800461184764579
      ],
      [
        "âĸģhukumomin",
        -9.80057185462923
      ],
      [
        "áīµáĪ«",
        -9.800671012499908
      ],
      [
        "âĸģGar",
        -9.800745148295544
      ],
      [
        "âĸģAnd",
        -9.800790940545733
      ],
      [
        "âĸģilimi",
        -9.800843815524455
      ],
      [
        "fara",
        -9.801089922691748
      ],
      [
        "âĸģ1975",
        -9.802276008706887
      ],
      [
        "áĮ¥áīħ",
        -9.802576762528076
      ],
      [
        "áĭ«áīµ",
        -9.802819563175053
      ],
      [
        "áĪĿáĬĵáĪįáī£áīµ",
        -9.803449960522816
      ],
      [
        "áĭŃáĪĺáĪµáĪĭáĪį",
        -9.803457178806449
      ],
      [
        "âĸģdâĢĻ",
        -9.803487255503292
      ],
      [
        "tent",
        -9.803574797406736
      ],
      [
        "-20",
        -9.803750004441312
      ],
      [
        "05",
        -9.804187444909566
      ],
      [
        "74",
        -9.80528714856472
      ],
      [
        "31",
        -9.805533574112124
      ],
      [
        "dra",
        -9.805790914266135
      ],
      [
        "47",
        -9.806033055079734
      ],
      [
        "-Ã¬",
        -9.806075276833631
      ],
      [
        "sá»į",
        -9.80646945703463
      ],
      [
        "á¹£áº¹ÌĢ",
        -9.806975911174428
      ],
      [
        "áĪĶ",
        -9.807715567409609
      ],
      [
        "class",
        -9.808312727557535
      ],
      [
        "73",
        -9.808485846995893
      ],
      [
        "03",
        -9.808693391101656
      ],
      [
        "âĸģáī³áĪĭáīħ",
        -9.808980188220499
      ],
      [
        "âĸģvisiwa",
        -9.809693823176243
      ],
      [
        "âĸģtsarin",
        -9.809788890908312
      ],
      [
        "áĪ¨áī¥",
        -9.809968949547894
      ],
      [
        "âĸģáĪ¶",
        -9.810286102320998
      ],
      [
        "part",
        -9.810805128957615
      ],
      [
        "¬",
        -9.811044520302628
      ],
      [
        "such",
        -9.811313596704025
      ],
      [
        "âĸģ2017",
        -9.811445683798027
      ],
      [
        "âĸģbai",
        -9.811530278550979
      ],
      [
        "dÃ²",
        -9.811597491210438
      ],
      [
        "âĸģÃģfrÃŃkÃł",
        -9.81175125244922
      ],
      [
        "500",
        -9.811794674657348
      ],
      [
        "sis",
        -9.8119508709439
      ],
      [
        "tha",
        -9.812782425248294
      ],
      [
        "áĪĽáĭĬ",
        -9.81310115723726
      ],
      [
        "áĪĺáĮ¡",
        -9.813188965097588
      ],
      [
        "âĸģkáº¹ta",
        -9.813371722305174
      ],
      [
        "áĭ°áĪį",
        -9.814465246250784
      ],
      [
        "âĸģá¹£Ã¹gbá»įÌģn",
        -9.814534979605238
      ],
      [
        "âĸģáĬŃáĪįáĪį",
        -9.81467286939273
      ],
      [
        "âĸģpu",
        -9.814766507505148
      ],
      [
        "âĸģlarge",
        -9.815352813596402
      ],
      [
        "ì",
        -9.815928076987841
      ],
      [
        "âĸģmkubwa",
        -9.815928095456277
      ],
      [
        "burg",
        -9.816797075070056
      ],
      [
        "áįª",
        -9.817400011898314
      ],
      [
        "41",
        -9.817532290185664
      ],
      [
        "39",
        -9.818693531419239
      ],
      [
        "stri",
        -9.81905063259997
      ],
      [
        "âĸģbar",
        -9.819483282529657
      ],
      [
        "âĸģbila",
        -9.819605427941154
      ],
      [
        "áĭ®áĪµ",
        -9.820944074186386
      ],
      [
        "ple",
        -9.821245822630585
      ],
      [
        "09",
        -9.82128521899665
      ],
      [
        "áī¥áĪį",
        -9.821467690632609
      ],
      [
        "âĸģ2.",
        -9.82160191539361
      ],
      [
        "press",
        -9.82198572148715
      ],
      [
        "âĸģCol",
        -9.822081343418734
      ],
      [
        "âĸģmore",
        -9.822770460239434
      ],
      [
        "á¹£o",
        -9.822826348400103
      ],
      [
        "ologie",
        -9.822908348899464
      ],
      [
        "âĸģosere",
        -9.822994267333037
      ],
      [
        "59",
        -9.823185163800535
      ],
      [
        "sun",
        -9.823290675288574
      ],
      [
        "âĸģ(D",
        -9.82366986222689
      ],
      [
        "âĸģHan",
        -9.82385516446655
      ],
      [
        "came",
        -9.82449383653623
      ],
      [
        "âĸģ1982",
        -9.824507731339242
      ],
      [
        "âĸģTana",
        -9.824687098358993
      ],
      [
        "âĸģ(K",
        -9.82605447185663
      ],
      [
        "áĭįáĪį",
        -9.826282445840118
      ],
      [
        "âĸģáĪĨáĬĲáĭį",
        -9.826579462748928
      ],
      [
        "âĸģNorth",
        -9.826679474427273
      ],
      [
        "áĮ¥áĪĿ",
        -9.82675370400311
      ],
      [
        "áĭĿáĪĿ",
        -9.827376948667752
      ],
      [
        "âĸģkasashe",
        -9.82739528320079
      ],
      [
        "âĸģÃ²á¹£erÃ©",
        -9.828564526848304
      ],
      [
        "âĸģ1989",
        -9.828877357030667
      ],
      [
        "insi",
        -9.829611200087463
      ],
      [
        "mia",
        -9.829650560533112
      ],
      [
        "ÃĮ",
        -9.830101207074733
      ],
      [
        "áĮĪáī¡",
        -9.830200848849906
      ],
      [
        "mber",
        -9.830387467994381
      ],
      [
        "Agbegbe",
        -9.831430471563532
      ],
      [
        "una",
        -9.831449117868104
      ],
      [
        "áĭĺáĪŃ",
        -9.831876456531923
      ],
      [
        "âĸģshe",
        -9.831978055138073
      ],
      [
        "âĸģDola",
        -9.832364515053474
      ],
      [
        "âĸģkamfanin",
        -9.83281288545723
      ],
      [
        "âĸģRobert",
        -9.833726578439466
      ],
      [
        "79",
        -9.833845054019367
      ],
      [
        "âĸģJamhuri",
        -9.833945031759912
      ],
      [
        "âĸģhata",
        -9.834323878320198
      ],
      [
        "tumia",
        -9.834354447136963
      ],
      [
        "kÃºn",
        -9.834552183330434
      ],
      [
        "âĸģáī°áĭĪ",
        -9.835428414920585
      ],
      [
        "áĪķáĮį",
        -9.83551976442445
      ],
      [
        "ale",
        -9.835673405026197
      ],
      [
        "âĸģaussi",
        -9.836243071752971
      ],
      [
        "le,",
        -9.836539160778177
      ],
      [
        "kokin",
        -9.83671814604751
      ],
      [
        "âĸģmusamman",
        -9.837077978256417
      ],
      [
        "fáº¹",
        -9.837154134426772
      ],
      [
        "áĬ¨áĪŃ",
        -9.837277268290807
      ],
      [
        "rus",
        -9.83790942593771
      ],
      [
        "âĸģEu",
        -9.83910699895636
      ],
      [
        "ra,",
        -9.83952018105921
      ],
      [
        "âĸģCharles",
        -9.840092263216444
      ],
      [
        "âĸģáĪ³áĭŃáĪĨáĬķ",
        -9.84011742692537
      ],
      [
        "ÃŃÃł",
        -9.840156385470438
      ],
      [
        "berg",
        -9.840293750929058
      ],
      [
        "áĭ°áĪµ",
        -9.841277013485719
      ],
      [
        "sÃ¨",
        -9.841308094063885
      ],
      [
        "ek",
        -9.841324846980555
      ],
      [
        "âĸģ(E",
        -9.84141611416176
      ],
      [
        "ved",
        -9.84175833441457
      ],
      [
        "âĸģáĭ¨áĪļáĪį",
        -9.841896969691634
      ],
      [
        "72",
        -9.84191711558944
      ],
      [
        "uru",
        -9.842344182895388
      ],
      [
        "71",
        -9.842750344835506
      ],
      [
        "âĸģÃłgbÃ©lÃ©wÃ²",
        -9.842794308360535
      ],
      [
        "kiwa",
        -9.843356614073524
      ],
      [
        "âĸģva",
        -9.843427266433174
      ],
      [
        "âĸģáĬ¥áĮħáĮį",
        -9.843611723160386
      ],
      [
        "riki",
        -9.844033419890089
      ],
      [
        "âĸģDavid",
        -9.84498238152369
      ],
      [
        "áĬķáį£",
        -9.844997397661196
      ],
      [
        "âĸģ1984",
        -9.845115076388646
      ],
      [
        "âĸģá»įÌĢrá»įÌĢ",
        -9.84514609282586
      ],
      [
        "áĮ¾",
        -9.845571081028709
      ],
      [
        "âĸģnÃŃtorÃŃ",
        -9.845685753683235
      ],
      [
        "âĸģKuna",
        -9.846256357376442
      ],
      [
        "âĸģáĬłáī£áĪį",
        -9.847064609041404
      ],
      [
        "44",
        -9.847692229392745
      ],
      [
        "áĪĭáĪĿ",
        -9.847791373939536
      ],
      [
        "dge",
        -9.847952984312895
      ],
      [
        "áī»áĭŃáĬĵ",
        -9.848166614831566
      ],
      [
        "âĸģcons",
        -9.84850578676339
      ],
      [
        "Ã§",
        -9.848622132178281
      ],
      [
        "âĸģ1988",
        -9.848752099130063
      ],
      [
        "âĸģkila",
        -9.848879927398565
      ],
      [
        "âĸģJapan",
        -9.849447698840837
      ],
      [
        "âĸģOr",
        -9.849955152753878
      ],
      [
        "áĬĵáĪį",
        -9.85029721387547
      ],
      [
        "âĸģUganda",
        -9.850365564022782
      ],
      [
        "âĸģá»Įba",
        -9.850665634647463
      ],
      [
        "âĸģáīłáĭ°áī¡áī¥",
        -9.85093548507064
      ],
      [
        "âĸģapa",
        -9.850940009205457
      ],
      [
        "âĸģáĬłáĭµ",
        -9.851013912685115
      ],
      [
        "âĸģáĪįáĭ°áīµ",
        -9.851504752041947
      ],
      [
        "áĪ°áĮ¥",
        -9.85164435843798
      ],
      [
        "mÃ¹",
        -9.851796646774073
      ],
      [
        "âĸģBri",
        -9.852674579857661
      ],
      [
        "áĬĲáĪ³",
        -9.85297305985073
      ],
      [
        "áĪµáī¥",
        -9.853620579170709
      ],
      [
        "áĭ³áĪį",
        -9.853677182407901
      ],
      [
        "-áĬł",
        -9.854101899013354
      ],
      [
        "âĸģpÃłtÃłkÃ¬",
        -9.854325973676875
      ],
      [
        "ÌĢ",
        -9.854420114012653
      ],
      [
        "win",
        -9.854466533830152
      ],
      [
        "âĸģsome",
        -9.854512040035859
      ],
      [
        "aji",
        -9.855601118858987
      ],
      [
        "pande",
        -9.855769605107639
      ],
      [
        "07",
        -9.855805295754639
      ],
      [
        "áĪŃáĬŃ",
        -9.85638877140596
      ],
      [
        "âĸģFasihi",
        -9.856505414936539
      ],
      [
        "âĸģzaman",
        -9.856698949159627
      ],
      [
        "âĸģ1985",
        -9.856721855352518
      ],
      [
        "áī·áĪįáį¢",
        -9.857012408071562
      ],
      [
        "âĸģalÃłÃłyÃ¨",
        -9.85722978114735
      ],
      [
        "*",
        -9.857320103539147
      ],
      [
        "ken",
        -9.85758901830362
      ],
      [
        "âĸģApril",
        -9.858011999900782
      ],
      [
        "tia",
        -9.859288351735927
      ],
      [
        "âĸģojo",
        -9.860186555169996
      ],
      [
        "áĬłáĬ«",
        -9.860191945488296
      ],
      [
        "led",
        -9.86053569872038
      ],
      [
        "âĸģl'Ã©",
        -9.860553009915861
      ],
      [
        "Ĳ",
        -9.861021895544797
      ],
      [
        "gbáº¹Ìģ",
        -9.861582303971414
      ],
      [
        "gua",
        -9.86165197997466
      ],
      [
        "âĸģáĭ¨áĬĲáīłáĪ¨",
        -9.86178387004129
      ],
      [
        "âĸģutawala",
        -9.861786071281706
      ],
      [
        "âĸģká»įÌģ",
        -9.861879762348284
      ],
      [
        "âĸģStates",
        -9.861900720862636
      ],
      [
        "62",
        -9.862062271376363
      ],
      [
        "âĸģmaza",
        -9.862725403934942
      ],
      [
        "hara",
        -9.86288788633594
      ],
      [
        "âĸģBritish",
        -9.863063663619558
      ],
      [
        "âĸģáĪ«áĪµ",
        -9.863312033999748
      ],
      [
        "áĪĪáĪĽ",
        -9.86363332413491
      ],
      [
        "idadi",
        -9.864110598302343
      ],
      [
        "jÃ²",
        -9.864602524009786
      ],
      [
        "llow",
        -9.864788909644025
      ],
      [
        "âĸģede",
        -9.865163332506611
      ],
      [
        "âĸģkifo",
        -9.86552725340097
      ],
      [
        "âĸģSik",
        -9.865839961851256
      ],
      [
        "âĸģabo",
        -9.865949772843525
      ],
      [
        "âĸģ1983",
        -9.866183788402243
      ],
      [
        "iques",
        -9.866470439253003
      ],
      [
        "âĸģsub",
        -9.86722403822292
      ],
      [
        "pro",
        -9.867312723006716
      ],
      [
        "âĸģKanisa",
        -9.867493436986791
      ],
      [
        "áī³áīµ",
        -9.867863190317987
      ],
      [
        "âĸģlafiya",
        -9.867920130493356
      ],
      [
        "á¹£Ã¨",
        -9.868212120910227
      ],
      [
        "ute",
        -9.86841658956489
      ],
      [
        "âĸģAbu",
        -9.868505211984896
      ],
      [
        "âĸģÃ¬bÃŃláº¹ÌĢ",
        -9.868931358318076
      ],
      [
        "âĸģáĭĻáĪªáĭ«",
        -9.868960520703492
      ],
      [
        "âĸģOla",
        -9.868971838341636
      ],
      [
        "âĸģlili",
        -9.869043371506194
      ],
      [
        "lÃŃ",
        -9.869130822879626
      ],
      [
        "69",
        -9.869277142680165
      ],
      [
        "julikana",
        -9.869666663691437
      ],
      [
        "âĸģsous",
        -9.870175092175574
      ],
      [
        "âĸģolÃ¹",
        -9.870871921660777
      ],
      [
        "ugha",
        -9.871226336083199
      ],
      [
        "âĸģduniani",
        -9.871351764067672
      ],
      [
        "âĸģkarkashin",
        -9.871876738330627
      ],
      [
        "áī°áĭĪáĪĪáĭ°",
        -9.871890726024589
      ],
      [
        "âĸģkisiwa",
        -9.871918488875087
      ],
      [
        "âĸģMaka",
        -9.871921559954075
      ],
      [
        "pr",
        -9.872414412523206
      ],
      [
        "-I",
        -9.872521967684579
      ],
      [
        "áĬ½",
        -9.872915062731648
      ],
      [
        "âĸģLove",
        -9.873125470229375
      ],
      [
        "âĸģPress",
        -9.873203698924515
      ],
      [
        "âĸģáĬ©",
        -9.873279548741975
      ],
      [
        "iv",
        -9.873474235429239
      ],
      [
        "radi",
        -9.873590539321846
      ],
      [
        "âĸģkazi",
        -9.87441875761501
      ],
      [
        "âĸģdunia",
        -9.874673781511705
      ],
      [
        "âĸģ1986",
        -9.87503948693388
      ],
      [
        "position",
        -9.875112986715221
      ],
      [
        "âĸģáĬĵáī¸áĭį",
        -9.875605429076298
      ],
      [
        "tori",
        -9.875630788399349
      ],
      [
        "âĸģayyukan",
        -9.875897595861996
      ],
      [
        "âĸģ(m",
        -9.876240912988955
      ],
      [
        "âĸģHaifaff",
        -9.876312934204579
      ],
      [
        "âĸģMareje",
        -9.876333303193512
      ],
      [
        "ica",
        -9.876368448928964
      ],
      [
        "sashen",
        -9.876555945533434
      ],
      [
        "âĸģIlimi",
        -9.876664311520763
      ],
      [
        "uta",
        -9.876964037390966
      ],
      [
        "âĸģáĬłá",
        -9.87719910658962
      ],
      [
        "âĸģmace",
        -9.877690014664267
      ],
      [
        "âĸģá»Įjá»įÌģ",
        -9.878068193057304
      ],
      [
        "bun",
        -9.878070923479827
      ],
      [
        "mini",
        -9.87857705815902
      ],
      [
        "âĸģpÃł",
        -9.878927948527085
      ],
      [
        "áĬķáī²",
        -9.879245478537257
      ],
      [
        "âĸģtafi",
        -9.879273900517914
      ],
      [
        "âĸģAcademy",
        -9.879281390473029
      ],
      [
        "âĸģ1966",
        -9.879510918156413
      ],
      [
        "bÃ²",
        -9.879527707895
      ],
      [
        "âĸģori",
        -9.879979529899101
      ],
      [
        "âĸģPeter",
        -9.880243601293682
      ],
      [
        "patikana",
        -9.880769109726963
      ],
      [
        "áĭ°áĭį",
        -9.880860393591067
      ],
      [
        "wahi",
        -9.881317225537106
      ],
[...]
