{
  "version": "1.0",
  "truncation": null,
  "padding": null,
  "added_tokens": [
    {
      "id": 0,
      "content": "<pad>",
      "single_word": false,
      "lstrip": false,
      "rstrip": false,
      "normalized": false,
      "special": true
    },
    {
      "id": 1,
      "content": "<bos>",
      "single_word": false,
      "lstrip": false,
      "rstrip": false,
      "normalized": false,
      "special": true
    },
    {
      "id": 2,
      "content": "<eos>",
      "single_word": false,
      "lstrip": false,
      "rstrip": false,
      "normalized": false,
      "special": true
    }
  ],
  "normalizer": {
    "type": "Sequence",
    "normalizers": [
      {
        "type": "NFC"
      }
    ]
  },
  "pre_tokenizer": {
    "type": "ByteLevel",
    "add_prefix_space": false,
    "trim_offsets": true,
    "use_regex": false
  },
  "post_processor": {
    "type": "TemplateProcessing",
    "single": [
      {
        "SpecialToken": {
          "id": "<bos>",
          "type_id": 0
        }
      },
      {
        "Sequence": {
          "id": "A",
          "type_id": 0
        }
      },
      {
        "SpecialToken": {
          "id": "<eos>",
          "type_id": 0
        }
      }
    ],
    "pair": [
      {
        "SpecialToken": {
          "id": "<bos>",
          "type_id": 0
        }
      },
      {
        "Sequence": {
          "id": "A",
          "type_id": 0
        }
      },
      {
        "SpecialToken": {
          "id": "<eos>",
          "type_id": 0
        }
      },
      {
        "SpecialToken": {
          "id": "<bos>",
          "type_id": 0
        }
      },
      {
        "Sequence": {
          "id": "B",
          "type_id": 0
        }
      },
      {
        "SpecialToken": {
          "id": "<eos>",
          "type_id": 0
        }
      }
    ],
    "special_tokens": {
      "<bos>": {
        "id": "<bos>",
        "ids": [
          1
        ],
        "tokens": [
          "<bos>"
        ]
      },
      "<eos>": {
        "id": "<eos>",
        "ids": [
          2
        ],
        "tokens": [
          "<eos>"
        ]
      }
    }
  },
  "decoder": {
    "type": "ByteLevel",
    "add_prefix_space": true,
    "trim_offsets": true,
    "use_regex": true
  },
  "model": {
    "type": "BPE",
    "dropout": null,
    "unk_token": null,
    "continuing_subword_prefix": null,
    "end_of_word_suffix": null,
    "fuse_unk": false,
    "byte_fallback": true,
    "ignore_merges": false,
    "vocab": {
      "<pad>": 0,
      "<bos>": 1,
      "<eos>": 2,
      "!": 3,
      "\"": 4,
      "#": 5,
      "$": 6,
      "%": 7,
      "&": 8,
      "'": 9,
      "(": 10,
      ")": 11,
      "*": 12,
      "+": 13,
      ",": 14,
      "-": 15,
      ".": 16,
      "/": 17,
      "0": 18,
      "1": 19,
      "2": 20,
      "3": 21,
      "4": 22,
      "5": 23,
      "6": 24,
      "7": 25,
      "8": 26,
      "9": 27,
      ":": 28,
      ";": 29,
      "<": 30,
      "=": 31,
      ">": 32,
      "?": 33,
      "@": 34,
      "A": 35,
      "B": 36,
      "C": 37,
      "D": 38,
      "E": 39,
      "F": 40,
      "G": 41,
      "H": 42,
      "I": 43,
      "J": 44,
      "K": 45,
      "L": 46,
      "M": 47,
      "N": 48,
      "O": 49,
      "P": 50,
      "Q": 51,
      "R": 52,
      "S": 53,
      "T": 54,
      "U": 55,
      "V": 56,
      "W": 57,
      "X": 58,
      "Y": 59,
      "Z": 60,
      "[": 61,
      "\\": 62,
      "]": 63,
      "^": 64,
      "_": 65,
      "`": 66,
      "a": 67,
      "b": 68,
      "c": 69,
      "d": 70,
      "e": 71,
      "f": 72,
      "g": 73,
      "h": 74,
      "i": 75,
      "j": 76,
      "k": 77,
      "l": 78,
      "m": 79,
      "n": 80,
      "o": 81,
      "p": 82,
      "q": 83,
      "r": 84,
      "s": 85,
      "t": 86,
      "u": 87,
      "v": 88,
      "w": 89,
      "x": 90,
      "y": 91,
      "z": 92,
      "{": 93,
      "|": 94,
      "}": 95,
      "~": 96,
      "¡": 97,
      "¢": 98,
      "£": 99,
      "¤": 100,
      "¥": 101,
      "¦": 102,
      "§": 103,
      "¨": 104,
      "©": 105,
      "ª": 106,
      "«": 107,
      "¬": 108,
      "®": 109,
      "¯": 110,
      "°": 111,
      "±": 112,
      "²": 113,
      "³": 114,
      "´": 115,
      "µ": 116,
      "¶": 117,
      "·": 118,
      "¸": 119,
      "¹": 120,
      "º": 121,
      "»": 122,
      "¼": 123,
      "½": 124,
      "¾": 125,
      "¿": 126,
      "À": 127,
      "Á": 128,
      "Â": 129,
      "Ã": 130,
      "Ä": 131,
      "Å": 132,
      "Æ": 133,
      "Ç": 134,
      "È": 135,
      "É": 136,
      "Ê": 137,
      "Ë": 138,
      "Ì": 139,
      "Í": 140,
      "Î": 141,
      "Ï": 142,
      "Ð": 143,
      "Ñ": 144,
      "Ò": 145,
      "Ó": 146,
      "Ô": 147,
      "Õ": 148,
      "Ö": 149,
      "×": 150,
      "Ø": 151,
      "Ù": 152,
      "Ú": 153,
      "Û": 154,
      "Ü": 155,
      "Ý": 156,
      "Þ": 157,
      "ß": 158,
      "à": 159,
      "á": 160,
      "â": 161,
      "ã": 162,
      "ä": 163,
      "å": 164,
      "æ": 165,
      "ç": 166,
      "è": 167,
      "é": 168,
      "ê": 169,
      "ë": 170,
      "ì": 171,
      "í": 172,
      "î": 173,
      "ï": 174,
      "ð": 175,
      "ñ": 176,
      "ò": 177,
      "ó": 178,
      "ô": 179,
      "õ": 180,
      "ö": 181,
      "÷": 182,
      "ø": 183,
      "ù": 184,
      "ú": 185,
      "û": 186,
      "ü": 187,
      "ý": 188,
      "þ": 189,
      "ÿ": 190,
      "Ā": 191,
      "ā": 192,
      "Ă": 193,
      "ă": 194,
      "Ą": 195,
      "ą": 196,
      "Ć": 197,
      "ć": 198,
      "Ĉ": 199,
      "ĉ": 200,
      "Ċ": 201,
      "ċ": 202,
      "Č": 203,
      "č": 204,
      "Ď": 205,
      "ď": 206,
      "Đ": 207,
      "đ": 208,
      "Ē": 209,
      "ē": 210,
      "Ĕ": 211,
      "ĕ": 212,
      "Ė": 213,
      "ė": 214,
      "Ę": 215,
      "ę": 216,
      "Ě": 217,
      "ě": 218,
      "Ĝ": 219,
      "ĝ": 220,
      "Ğ": 221,
      "ğ": 222,
      "Ġ": 223,
      "ġ": 224,
      "Ģ": 225,
      "ģ": 226,
      "Ĥ": 227,
      "ĥ": 228,
      "Ħ": 229,
      "ħ": 230,
      "Ĩ": 231,
      "ĩ": 232,
      "Ī": 233,
      "ī": 234,
      "Ĭ": 235,
      "ĭ": 236,
      "Į": 237,
      "į": 238,
      "İ": 239,
      "ı": 240,
      "Ĳ": 241,
      "ĳ": 242,
      "Ĵ": 243,
      "ĵ": 244,
      "Ķ": 245,
      "ķ": 246,
      "ĸ": 247,
      "Ĺ": 248,
      "ĺ": 249,
      "Ļ": 250,
      "ļ": 251,
      "Ľ": 252,
      "ľ": 253,
      "Ŀ": 254,
      "ŀ": 255,
      "Ł": 256,
      "ł": 257,
      "Ń": 258,
      "áĪ": 259,
      "aĠ": 260,
      "Ġá": 261,
      "áī": 262,
      "áĬ": 263,
      "áĭ": 264,
      "nĠ": 265,
      "eĠ": 266,
      "iĠ": 267,
      "ar": 268,
      "an": 269,
      "áĮ": 270,
      "Ġáĭ": 271,
      "ĠáĬ": 272,
      "ĠáĪ": 273,
      ",Ġ": 274,
      "áį": 275,
      "áĬķ": 276,
      "Ġáī": 277,
      "sĠ": 278,
      "in": 279,
      "»į": 280,
      "ÃŃ": 281,
      "at": 282,
      "oĠ": 283,
      "al": 284,
      "er": 285,
      "áīµ": 286,
      "á»į": 287,
      "áĪŃ": 288,
      "Ãł": 289,
      "inĠ": 290,
      "º¹": 291,
      "am": 292,
      "waĠ": 293,
      "yaĠ": 294,
      "uĠ": 295,
      "as": 296,
      "áº¹": 297,
      "Ġáĭ¨": 298,
      "anĠ": 299,
      "daĠ": 300,
      "ak": 301,
      "áĭį": 302,
      "en": 303,
      "Ã©": 304,
      "il": 305,
      "łáĪ": 306,
      "or": 307,
      "arĠ": 308,
      "ik": 309,
      "on": 310,
      "áĪĿ": 311,
      "áĪį": 312,
      "tĠ": 313,
      "áĪµ": 314,
      "is": 315,
      "áº¹Ì": 316,
      "Ã¬": 317,
      "ku": 318,
      "ÃŃĠ": 319,
      "it": 320,
      "Ã¡": 321,
      "naĠ": 322,
      "dĠ": 323,
      "th": 324,
      "ab": 325,
      "áį¢": 326,
      "ir": 327,
      "á»įÌ": 328,
      "un": 329,
      "ur": 330,
      "áĬĵ": 331,
      "Ġáīł": 332,
      "áī°": 333,
      "áĭ«": 334,
      "áĪĪ": 335,
      "Ãº": 336,
      "onĠ": 337,
      "taĠ": 338,
      "ĠáĮ": 339,
      "sh": 340,
      "ch": 341,
      "19": 342,
      "ay": 343,
      "áĭŃ": 344,
      "áĪĺ": 345,
      "ĠáĬ¥": 346,
      "esĠ": 347,
      "el": 348,
      "Ã³": 349,
      "es": 350,
      "áī½": 351,
      "gb": 352,
      ".Ġ": 353,
      "om": 354,
      "Ã¨": 355,
      "ad": 356,
      "ol": 357,
      "ĠáĬł": 358,
      "im": 359,
      "áĭ°": 360,
      "áĬĲ": 361,
      "áī¥": 362,
      "áĪ¨": 363,
      "áĮĪ": 364,
      "áº¹ÌĢ": 365,
      "áĭµ": 366,
      "of": 367,
      "yĠ": 368,
      "áº¹Ìģ": 369,
      "20": 370,
      "á»įÌģ": 371,
      "em": 372,
      "niĠ": 373,
      "áĪĭ": 374,
      "ĠáĬĲ": 375,
      "áĮį": 376,
      "deĠ": 377,
      "ĠáĪĺ": 378,
      "ag": 379,
      "iy": 380,
      "ic": 381,
      ")Ġ": 382,
      "unĠ": 383,
      "áīł": 384,
      "us": 385,
      "¹£": 386,
      "áĪ«": 387,
      "áī³": 388,
      "theĠ": 389,
      "ĠáĬ¨": 390,
      "tiĠ": 391,
      "ul": 392,
      "aĠm": 393,
      "Ã²": 394,
      "ÃłĠ": 395,
      "ok": 396,
      "a,Ġ": 397,
      "Ġ(": 398,
      "wá»į": 399,
      "áĬŃ": 400,
      "Ã©Ġ": 401,
      "áĪĽ": 402,
      "iaĠ": 403,
      "af": 404,
      "ing": 405,
      "áĪ³": 406,
      "um": 407,
      "áī£": 408,
      "aj": 409,
      "enĠ": 410,
      "Ġáį": 411,
      "ofĠ": 412,
      "ek": 413,
      "ali": 414,
      "ac": 415,
      "ut": 416,
      "wan": 417,
      "aĠk": 418,
      "Ã¹": 419,
      "âĢ": 420,
      "áĬĽ": 421,
      "erĠ": 422,
      "Ġáī°": 423,
      "ai": 424,
      "Ã³Ġ": 425,
      "áĪª": 426,
      "ĠáĭŃ": 427,
      "á¹£": 428,
      "ĠáīłáĪ": 429,
      "a.": 430,
      "Ġáĭ¨áĪ": 431,
      "aw": 432,
      "ap": 433,
      "Ġá»į": 434,
      "uk": 435,
      "tr": 436,
      "ĠáĬłáĪ": 437,
      "edĠ": 438,
      "wá»įnĠ": 439,
      "áĪħ": 440,
      "áĮ¥": 441,
      "áĬ¨": 442,
      "áį£": 443,
      "laĠ": 444,
      "ig": 445,
      "ĠáĪĿ": 446,
      "ah": 447,
      "ati": 448,
      "e,Ġ": 449,
      "Ġáĭ¨áĬ": 450,
      "ib": 451,
      "leĠ": 452,
      "id": 453,
      "áį¡": 454,
      "ĠáĭĪ": 455,
      "toĠ": 456,
      "qu": 457,
      "os": 458,
      "re": 459,
      "tÃŃĠ": 460,
      "á»įÌĢ": 461,
      "áº¹ÌĢĠ": 462,
      "kum": 463,
      "áįį": 464,
      "áĭ³": 465,
      "aiĠ": 466,
      "ĠáĬĲáĭį": 467,
      "az": 468,
      "áīĢ": 469,
      "andĠ": 470,
      "áĭ¨": 471,
      "akaĠ": 472,
      "ti": 473,
      "ĠáĬ¥áĬķ": 474,
      "áĭĪ": 475,
      "araĠ": 476,
      "baĠ": 477,
      "Ã¡Ġ": 478,
      "ro": 479,
      "iĠyaĠ": 480,
      "áĪ°": 481,
      "áīħ": 482,
      "áĪĮ": 483,
      "áĬ«": 484,
      "ÆĻ": 485,
      "ĠáĪĪ": 486,
      "nÃŃĠ": 487,
      "áº¹ÌģĠ": 488,
      "ÃºĠ": 489,
      ":Ġ": 490,
      "ish": 491,
      "alĠ": 492,
      "-Ġ": 493,
      "ÃºnĠ": 494,
      "ceĠ": 495,
      "ÃĢ": 496,
      "áĬł": 497,
      "anaĠ": 498,
      "neĠ": 499,
      "isĠ": 500,
      "á»įĠ": 501,
      "ĠáĬĲáĭįáį¢": 502,
      "op": 503,
      "ug": 504,
      "ĠáĪµ": 505,
      "áī¸": 506,
      "nÃŃ": 507,
      "Ġáĭ«": 508,
      "le": 509,
      "ang": 510,
      "áĪī": 511,
      "Ġáĭĵ": 512,
      "i,Ġ": 513,
      "201": 514,
      "entĠ": 515,
      "asĠ": 516,
      "Ã¨Ġ": 517,
      "áīłáĪ": 518,
      "áĭĬ": 519,
      "áĭĭ": 520,
      "ip": 521,
      "áĪ®": 522,
      "shek": 523,
      "iĠwaĠ": 524,
      "áī±": 525,
      "İáī½": 526,
      "ec": 527,
      "áī¸áĭį": 528,
      "zaĠ": 529,
      "200": 530,
      "áįĪ": 531,
      "ot": 532,
      "uwaĠ": 533,
      "kumaĠ": 534,
      "iv": 535,
      "ikaĠ": 536,
      "Ġáĭ¨áĪļ": 537,
      "ash": 538,
      "áĭĿ": 539,
      "etĠ": 540,
      "iyaĠ": 541,
      "og": 542,
      "et": 543,
      "áĮ£": 544,
      "all": 545,
      "áĪįáį¢": 546,
      "Al": 547,
      "áĪĨ": 548,
      "ĠáĪĽ": 549,
      "ob": 550,
      "if": 551,
      "ist": 552,
      "áĭļ": 553,
      "ent": 554,
      "áī¶": 555,
      "Ġk": 556,
      "tok": 557,
      "18": 558,
      "ingĠ": 559,
      "iĠk": 560,
      "áĪ³áĪĮ": 561,
      "Th": 562,
      "áĮł": 563,
      "áĮī": 564,
      "ikinĠ": 565,
      "ub": 566,
      "fr": 567,
      "e.": 568,
      "áĮĭ": 569,
      "akeĠ": 570,
      "and": 571,
      "ĠáīłáĬ": 572,
      "áĭ®": 573,
      "ud": 574,
      "i.": 575,
      "aniĠ": 576,
      "pr": 577,
      "ĠáĪĿáĪ³áĪĮ": 578,
      "ÌĢ": 579,
      "oj": 580,
      "Ã²Ġ": 581,
      "ih": 582,
      "ij": 583,
      "ow": 584,
      "Ã¬Ġ": 585,
      "st": 586,
      "ou": 587,
      "iĠm": 588,
      "wat": 589,
      "amaĠ": 590,
      "ÃĮ": 591,
      "ĠáĪ²": 592,
      "od": 593,
      "áĭ²": 594,
      "av": 595,
      "amb": 596,
      "lÃ¡": 597,
      "áĬķáĭµ": 598,
      "ĠáĮį": 599,
      "Ġáīµ": 600,
      "ed": 601,
      "atiĠ": 602,
      "eĠd": 603,
      "kas": 604,
      "00": 605,
      "áĭİáī½": 606,
      "Ġáĭĺ": 607,
      "for": 608,
      "AĠ": 609,
      "ant": 610,
      "áĪ¥": 611,
      "Ġáº¹": 612,
      "áīĥ": 613,
      "áĬĸ": 614,
      "áĪŀ": 615,
      "áĭĺ": 616,
      "ung": 617,
      "rÃŃ": 618,
      "agaĠ": 619,
      "cikinĠ": 620,
      "Ġáĭ¨áī°": 621,
      "Am": 622,
      "Ch": 623,
      "au": 624,
      "ĠáĬ¥áĬĵ": 625,
      "áĬĲáīµ": 626,
      "jeĠ": 627,
      "ĠáĪ°": 628,
      "wakaĠ": 629,
      "áº¹Ġ": 630,
      "Ġáī¥": 631,
      "áĬ¥": 632,
      "lesĠ": 633,
      "á»įÌģĠ": 634,
      "Mar": 635,
      "á»įÌĢĠ": 636,
      "áĪĬ": 637,
      "áĪ©": 638,
      "Ġá¹£": 639,
      "Ãłwá»įnĠ": 640,
      "ew": 641,
      "Ġáĭį": 642,
      "our": 643,
      "áĪĻ": 644,
      "ov": 645,
      "areĠ": 646,
      "iz": 647,
      "),Ġ": 648,
      "áĬķáĮį": 649,
      "nd": 650,
      "con": 651,
      "ts": 652,
      "ep": 653,
      "ikiĠ": 654,
      "anc": 655,
      "ans": 656,
      "ind": 657,
      "ĠáīĢ": 658,
      "ann": 659,
      "elĠ": 660,
      "199": 661,
      "oc": 662,
      "áīłáĪŃ": 663,
      "ter": 664,
      "ĭáĭŃ": 665,
      "Ġáĭ°": 666,
      "ark": 667,
      "ĠáĬ¥áĬķáĭ°": 668,
      "auĠ": 669,
      "o,Ġ": 670,
      "0Ġ": 671,
      "áĭĽ": 672,
      "adaĠ": 673,
      "Ġáĭ¨áĬłáĪ": 674,
      "up": 675,
      "oĠyaĠ": 676,
      "ĵĠ": 677,
      "iĠnaĠ": 678,
      "shekar": 679,
      "áĪļ": 680,
      "TheĠ": 681,
      "dagaĠ": 682,
      "ÃĢwá»įnĠ": 683,
      "ÉĹ": 684,
      "usĠ": 685,
      "ĠáĬŃ": 686,
      "ng": 687,
      "ÅĦ": 688,
      "estĠ": 689,
      "oy": 690,
      "áĪİ": 691,
      "ÃłtiĠ": 692,
      "com": 693,
      "was": 694,
      "ain": 695,
      "á»įÌģnĠ": 696,
      "aĠyaĠ": 697,
      "l'": 698,
      "uw": 699,
      "Ġá»įd": 700,
      "áĮħ": 701,
      "áī²": 702,
      "bÃŃĠ": 703,
      "áī¢": 704,
      "gaĠ": 705,
      "ation": 706,
      "waĠm": 707,
      "pl": 708,
      "ĠA": 709,
      "anz": 710,
      "oh": 711,
      "Sh": 712,
      "tÃŃĠÃ³Ġ": 713,
      "áĬĳ": 714,
      "iyarĠ": 715,
      "jáº¹ÌģĠ": 716,
      "aĠh": 717,
      "Ġd": 718,
      "áįĭ": 719,
      "ĠáĪį": 720,
      "amm": 721,
      "e-": 722,
      "ion": 723,
      "ÃłnĠ": 724,
      "aĠnaĠ": 725,
      "aif": 726,
      "Â«": 727,
      "a.Ġ": 728,
      "ationĠ": 729,
      "âĢĻ": 730,
      "láº¹ÌĢĠ": 731,
      "1Ġ": 732,
      "áĬĿ": 733,
      "atĠ": 734,
      "a'": 735,
      "áĪ±": 736,
      "ayaĠ": 737,
      "waĠk": 738,
      "wen": 739,
      "áį¤": 740,
      "iniĠ": 741,
      "ej": 742,
      "áĪĨáĬķ": 743,
      "shiĠ": 744,
      "uz": 745,
      "áĪ½": 746,
      ";Ġ": 747,
      "aĠs": 748,
      "ev": 749,
      "áĮİ": 750,
      "5Ġ": 751,
      "daĠk": 752,
      "ĠáĪĭáĭŃ": 753,
      "2Ġ": 754,
      "ers": 755,
      "áĭ«áĬķ": 756,
      "uĠm": 757,
      ").": 758,
      "áĪĪáĭį": 759,
      "198": 760,
      "Â»": 761,
      "Ġáī³": 762,
      "ariĠ": 763,
      "Ġáĭµ": 764,
      "eg": 765,
      "art": 766,
      "Wali": 767,
      "hĠ": 768,
      "áĪŃáĬĽ": 769,
      "atikaĠ": 770,
      "ats": 771,
      "áĭ±": 772,
      "awaĠ": 773,
      "áĪģ": 774,
      "Ġáī£": 775,
      "ong": 776,
      "ex": 777,
      "kanĠ": 778,
      "ráº¹ÌĢĠ": 779,
      "eĠs": 780,
      "wak": 781,
      ",Ġm": 782,
      "eĠm": 783,
      "ataĠ": 784,
      "Ã©r": 785,
      "áĭļáĪħ": 786,
      "¢áīµ": 787,
      "kutok": 788,
      "eb": 789,
      "sÃŃĠ": 790,
      "ajer": 791,
      "inaĠ": 792,
      "ofĠtheĠ": 793,
      "ĽáĪŃáĬĽ": 794,
      "¢áīµáĭ®": 795,
      "áĮµ": 796,
      "áĬĴ": 797,
      "ank": 798,
      "áĭķ": 799,
      "end": 800,
      "áīĨ": 801,
      "Ġá»įdÃºnĠ": 802,
      "áĮĢ": 803,
      "su": 804,
      "wá»įn": 805,
      "ĠáīłáĪĺ": 806,
      "¢áīµáĭ®áĮµ": 807,
      "6Ġ": 808,
      "ill": 809,
      "197": 810,
      "arĠdaĠ": 811,
      "4Ġ": 812,
      "7Ġ": 813,
      "áĪĪáīµ": 814,
      "hu": 815,
      "Ã¨d": 816,
      "lÃºĠ": 817,
      "áĮ½": 818,
      "asiĠ": 819,
      "ez": 820,
      "áĮĪáĪŃ": 821,
      "áĪ¬": 822,
      "196": 823,
      "Ã¬j": 824,
      "3Ġ": 825,
      "ionĠ": 826,
      "Najer": 827,
      "icĠ": 828,
      "Itok": 829,
      "shekaraĠ": 830,
      "Ab": 831,
      "ich": 832,
      "áī¡": 833,
      "siĠ": 834,
      "áĪµáĮ¥": 835,
      "ÃŃn": 836,
      "¢áīµáĭ®áĮµáĭ«": 837,
      "ach": 838,
      "Ġáĭ¨áĬłáĪĽáĪŃáĬĽ": 839,
      "reĠ": 840,
      "air": 841,
      "áĪ¨áīµ": 842,
      "Ã¹Ġ": 843,
      "Ar": 844,
      "ineĠ": 845,
      "pro": 846,
      "ĠáĪĿáĪ³áĪĮĠáĬĲáĭįáį¢": 847,
      "shekararĠ": 848,
      "asarĠ": 849,
      "aĠdaĠ": 850,
      "áīłáīµ": 851,
      "Ġáĭ¨áĬłáĪĽáĪŃáĬĽĠáĪĿáĪ³áĪĮĠáĬĲáĭįáį¢": 852,
      "ĠáĬĲáīłáĪŃ": 853,
      "s,Ġ": 854,
      "áĭľ": 855,
      "ĠáĮ¥": 856,
      "iwaĠ": 857,
      "eh": 858,
      "Ġ1": 859,
      "áĪĺáĬķ": 860,
      "wá»įÌģnĠ": 861,
      "uc": 862,
      "orĠ": 863,
      "áĪ»": 864,
      "any": 865,
      "Afr": 866,
      "Ã¨dÃ¨Ġ": 867,
      "sam": 868,
      "und": 869,
      "oz": 870,
      "ayinĠ": 871,
      "ĠáĭĪáĭ°": 872,
      "ileĠ": 873,
      "ĠáĪĨ": 874,
      "nch": 875,
      "ĠáĮĪ": 876,
      "ass": 877,
      "áĪµáīµ": 878,
      "ani": 879,
      "ĠáĬ¨áī°": 880,
      "ef": 881,
      "anceĠ": 882,
      "»Į": 883,
      "ikuwaĠ": 884,
      "áī»": 885,
      "yiĠ": 886,
      "queĠ": 887,
      "ĠáĬķ": 888,
      "uh": 889,
      "rÃ©": 890,
      "áĭ©": 891,
      ".ĠM": 892,
      "yÃ¬": 893,
      "asaĠ": 894,
      "St": 895,
      "gbaĠ": 896,
      "o.": 897,
      "oĠk": 898,
      "naĠm": 899,
      "nÃ¡": 900,
      "kutokaĠ": 901,
      "oĠm": 902,
      "áĭĵ": 903,
      "áįĬ": 904,
      "áĭįáĬķ": 905,
      "áī¶áī½": 906,
      "lÃ³": 907,
      "nÃŃn": 908,
      "wandaĠ": 909,
      "ÅĦĠ": 910,
      "antĠ": 911,
      "ansĠ": 912,
      "Ad": 913,
      "ess": 914,
      "8Ġ": 915,
      "arinĠ": 916,
      "ĠáĬ¥áĪµ": 917,
      "abb": 918,
      "emb": 919,
      "ĠáĭįáĪµáĮ¥": 920,
      "ell": 921,
      "ĠáĬłáĭŃ": 922,
      "aĠb": 923,
      "Ã¹nĠ": 924,
      "áĪŃáĮī": 925,
      "aĠcikinĠ": 926,
      "An": 927,
      "\"Ġ": 928,
      "iharĠ": 929,
      "aur": 930,
      "inc": 931,
      "desĠ": 932,
      "Ĭáĭľ": 933,
      "shekaraĠtaĠ": 934,
      "ementĠ": 935,
      "áĮłáĪ": 936,
      "9Ġ": 937,
      "uĠyaĠ": 938,
      "áĪªáĭ«": 939,
      "láº¹ÌĢ": 940,
      "yeĠ": 941,
      "áĬĶ": 942,
      "ItokasiĠ": 943,
      "ni": 944,
      "wasĠ": 945,
      "xĠ": 946,
      "áīĭ": 947,
      "ĠáĪģ": 948,
      "áĭ¶": 949,
      "iá¹£": 950,
      "tar": 951,
      "itaĠ": 952,
      "meĠ": 953,
      "âĢĵĠ": 954,
      "ioĠ": 955,
      "wam": 956,
      "ereĠ": 957,
      "áĪ²": 958,
      "orÃŃ": 959,
      "áĬĽáĭį": 960,
      "áĬłáĪ": 961,
      "tÃ³Ġ": 962,
      "u,Ġ": 963,
      "daĠs": 964,
      "omĠ": 965,
      "aut": 966,
      "áī¦": 967,
      "In": 968,
      "áĭŃáĪĿ": 969,
      "urĠ": 970,
      "yaĠK": 971,
      "est": 972,
      "Ġáº¹ÌĢ": 973,
      "ilĠ": 974,
      "es,Ġ": 975,
      "195": 976,
      "áĪŃáĪµ": 977,
      "aĠd": 978,
      "áĬ¤": 979,
      "fÃºnĠ": 980,
      "agb": 981,
      "kar": 982,
      "áĪľ": 983,
      "uf": 984,
      "rinĠ": 985,
      "wa": 986,
      "bay": 987,
      "biĠ": 988,
      "Ġáīłáī°": 989,
      "uneĠ": 990,
      "áĪĲ": 991,
      "áĭĻ": 992,
      "aĠtaĠ": 993,
      "ran": 994,
      "áĬ®": 995,
      "gbÃłĠ": 996,
      "Jam": 997,
      "Un": 998,
      "ieĠ": 999,
      "war": 1000,
      "wh": 1001,
      "áī¤": 1002,
      "Ġáīħ": 1003,
      "ĠáĬłáĪµ": 1004,
      "ĠáĪ¥": 1005,
      "aninĠ": 1006,
      "ugh": 1007,
      "itĠ": 1008,
      "Ġáī¤": 1009,
      "ĠáĬ«": 1010,
      "sÃŃ": 1011,
      "ĠáīµáĪŃáĮī": 1012,
      "Ġáĭ¨áĪĺ": 1013,
      "ÃŃrÃŃ": 1014,
      "Il": 1015,
      "áĬ©": 1016,
      "zuwaĠ": 1017,
      "ny": 1018,
      "Ġá»įm": 1019,
      "par": 1020,
      "ĠáĮįáĬķ": 1021,
      "áĪªáĬŃ": 1022,
      "Nob": 1023,
      "ĠáĬ¥áĬķáĭ²": 1024,
      "aliĠ": 1025,
      "Ġá¹£eĠ": 1026,
      "iw": 1027,
      "ĠÂ«": 1028,
      "ĠáĮĭ": 1029,
      "wit": 1030,
      "byĠ": 1031,
      "Ġáĭ¨áĬł": 1032,
      "atik": 1033,
      "áīģ": 1034,
      "áĮ¨": 1035,
      "tak": 1036,
      "sÃ¬Ġ": 1037,
      "fir": 1038,
      "17": 1039,
      "raĠ": 1040,
      "NobelĠ": 1041,
      "eri": 1042,
      "d'": 1043,
      "jam": 1044,
      "áī¹": 1045,
      "Ġá»įÌĢ": 1046,
      "ityĠ": 1047,
      "Ãłk": 1048,
      "áīłáĪ¨": 1049,
      "acinĠ": 1050,
      "Mak": 1051,
      "ond": 1052,
      "ĠáĪ²áĪĨáĬķ": 1053,
      "awonĠ": 1054,
      "áį¡áį¡": 1055,
      "ĭáĪĭ": 1056,
      "ersĠ": 1057,
      "aĠf": 1058,
      "forĠ": 1059,
      "Ġá»Į": 1060,
      "kĠ": 1061,
      "ha": 1062,
      "áĮĥ": 1063,
      "áĬŃáĪį": 1064,
      "anĠk": 1065,
      "anĠm": 1066,
      "áĪĥ": 1067,
      "»áį": 1068,
      "aĠy": 1069,
      "uĠk": 1070,
      "ĠáīµáĪŃáĮīáĪĻ": 1071,
      "Kar": 1072,
      "NÃł": 1073,
      "aadaĠ": 1074,
      "erÃ©Ġ": 1075,
      "atsayinĠ": 1076,
      "ĠáĬĲáīłáĪŃáį¢": 1077,
      "u.": 1078,
      "iiĠ": 1079,
      "dÃ©": 1080,
      "eng": 1081,
      "ĠáīłáĬł": 1082,
      "ĠáĬłáĬķ": 1083,
      "s.": 1084,
      "áĪ´": 1085,
      "Br": 1086,
      "nÃŃnÃºĠ": 1087,
      "ciĠ": 1088,
      "haif": 1089,
      ".áĪĿ": 1090,
      "eĠdeĠ": 1091,
      "Ġá»įj": 1092,
      "NÃłÃ¬j": 1093,
      "|Ġ": 1094,
      "thĠ": 1095,
      "aliwaĠ": 1096,
      "16": 1097,
      "tur": 1098,
      "194": 1099,
      "Ã¬n": 1100,
      "15": 1101,
      "imb": 1102,
      "duĠ": 1103,
      "har": 1104,
      "ká»įÌģĠ": 1105,
      "ĠáĪ³": 1106,
      "²áį": 1107,
      "aĠg": 1108,
      "áī´": 1109,
      "As": 1110,
      "'sĠ": 1111,
      "bÃŃ": 1112,
      "att": 1113,
      "aĠku": 1114,
      "NÃłÃ¬jÃŃrÃŃ": 1115,
      "Fr": 1116,
      "Ol": 1117,
      "iliĠ": 1118,
      "Ãłn": 1119,
      "y,Ġ": 1120,
      "eoĠ": 1121,
      "áĮŃ": 1122,
      "ĠáĪĺáĬķáĮį": 1123,
      "suĠ": 1124,
      "Ġáĭ¨áĬłáĪĽáĪŃáĬĽĠáĪĿáĪ³áĪĮĠáĬĲáĭįáį¢ĠáīµáĪŃáĮīáĪĻ": 1125,
      "Ã¬y": 1126,
      "ewaĠ": 1127,
      "Pr": 1128,
      "ĠáĮĬáĭľ": 1129,
      "watanĠ": 1130,
      "wall": 1131,
      "daĠm": 1132,
      "ĠáīĢáĬķ": 1133,
      "rÃŃĠ": 1134,
      "Ġáĭĭ": 1135,
      "ĠáĭĪáĭŃáĪĿ": 1136,
      "Ãºn": 1137,
      "áī³áīµ": 1138,
      "por": 1139,
      "eĠ(": 1140,
      "Ġáĭĵ.áĪĿ": 1141,
      "arr": 1142,
      "Ġ-": 1143,
      "aĠl": 1144,
      "amarĠ": 1145,
      "áĪªáĬ«": 1146,
      "Ã¬d": 1147,
      "ais": 1148,
      "wonĠ": 1149,
      "II": 1150,
      "Nig": 1151,
      "ph": 1152,
      "NajeriyaĠ": 1153,
      "unaĠ": 1154,
      "lÃ©": 1155,
      "daĠy": 1156,
      "Ã¨r": 1157,
      "ĠáĪµáĪĪ": 1158,
      "amĠ": 1159,
      "ĠáĬłáĪĪ": 1160,
      "ĠáĬĵ": 1161,
      "ÃĵĠ": 1162,
      "áĪ¨áīµáĬĵ": 1163,
      "áĮ»": 1164,
      "ĠáĪĬ": 1165,
      "a-": 1166,
      "Ġáī¢": 1167,
      "ĠáįĪ": 1168,
      "Ã©t": 1169,
      "wakaĠwaĠ": 1170,
      "mĠ": 1171,
      "ĠáĬ¥áĪµáĬ¨": 1172,
      "parĠ": 1173,
      "ens": 1174,
      "tionĠ": 1175,
      "áĪĪáĪĿ": 1176,
      "Man": 1177,
      "ĠáĬķáĮī": 1178,
      "ĠáīłáĬĭáĪĭ": 1179,
      "áĪ¨áīµáĬĵĠáĪĿáĪ³áĪĮ": 1180,
      "ourĠ": 1181,
      "Walioz": 1182,
      "AnĠ": 1183,
      "bir": 1184,
      "irĠ": 1185,
      "áĪ¥áīµ": 1186,
      "ibiĠ": 1187,
      "nanĠ": 1188,
      "ayeĠ": 1189,
      "lyĠ": 1190,
      "áį»áį": 1191,
      "yaĠk": 1192,
      "ĠáĭŃáĪħ": 1193,
      "lÃ¡tiĠ": 1194,
      "fiĠ": 1195,
      "wal": 1196,
      "ĠáĭĺáĪĺáĬķ": 1197,
      "nÃ¡ÃłĠ": 1198,
      "uĠwaĠ": 1199,
      "áĪ¨áĪµ": 1200,
      "aĠwaĠ": 1201,
      "áĬķáĪĿ": 1202,
      "oĠwaĠ": 1203,
      "ofar": 1204,
      "aryĠ": 1205,
      "Is": 1206,
      "utan": 1207,
      "kuwaĠ": 1208,
      "aĠmatsayinĠ": 1209,
      "ĠáĬŃáįį": 1210,
      "artaĠ": 1211,
      "áĪ®áī½": 1212,
      "áĪķ": 1213,
      "ugab": 1214,
      "lá»įÌģ": 1215,
      "ayy": 1216,
      "áĮ«": 1217,
      "wali": 1218,
      "Ġáī°áĪ¨áīµáĬĵĠáĪĿáĪ³áĪĮ": 1219,
      "ĠáĬ¨áī°áĪĽ": 1220,
      "Waliofar": 1221,
      "pe": 1222,
      "withĠ": 1223,
      "ins": 1224,
      "uzoĠyaĠ": 1225,
      "funĠ": 1226,
      "e.Ġ": 1227,
      "ÆĻasarĠ": 1228,
      "ontĠ": 1229,
      "pÃŃn": 1230,
      "inĠm": 1231,
      "193": 1232,
      "Kan": 1233,
      "diĠ": 1234,
      "inĠtheĠ": 1235,
      "ari": 1236,
      "TuzoĠyaĠ": 1237,
      "láº¹ÌĢ-": 1238,
      "deĠlaĠ": 1239,
      "apaĠ": 1240,
      "olog": 1241,
      "daĠkumaĠ": 1242,
      "Ib": 1243,
      "to": 1244,
      "áĮĪáĬ": 1245,
      "ayĠ": 1246,
      "áĭİ": 1247,
      "gab": 1248,
      "chaĠ": 1249,
      "asuĠ": 1250,
      "Ã¬t": 1251,
      "shir": 1252,
      "Marek": 1253,
      "gr": 1254,
      "ÃĴ": 1255,
      "ĠáĭĵáĪĺ": 1256,
      "edeĠ": 1257,
      "yaĠm": 1258,
      "bÃ¡Ġ": 1259,
      "cl": 1260,
      "ath": 1261,
      "had": 1262,
      "oun": 1263,
      "Ãłr": 1264,
      "tareĠ": 1265,
      "oĠniĠ": 1266,
      "áĪŃáĭ«": 1267,
      "Ã¬lÃºĠ": 1268,
      "amf": 1269,
      "aceĠ": 1270,
      "ĠáĪĪáĪĺ": 1271,
      "tÃŃĠwá»įÌģnĠ": 1272,
      "áįĵ": 1273,
      "ateĠ": 1274,
      "10": 1275,
      "áĮĢáĪĺ": 1276,
      "Ġáĭķ": 1277,
      "fark": 1278,
      "shind": 1279,
      "pos": 1280,
      "áī°áĬĽ": 1281,
      "umb": 1282,
      "fromĠ": 1283,
      "cr": 1284,
      "14": 1285,
      "aisĠ": 1286,
      "chĠ": 1287,
      "áĭ´": 1288,
      "ard": 1289,
      "Ġáĭĵ.áĪĿ.": 1290,
      "daĠkeĠ": 1291,
      "te": 1292,
      "yanaĠ": 1293,
      "alis": 1294,
      "áĮįáĪŀ": 1295,
      "iqu": 1296,
      "láº¹ÌĢ-Ã¨dÃ¨Ġ": 1297,
      "Amer": 1298,
      "ey": 1299,
      "TuzoĠyaĠNobelĠ": 1300,
      "an,Ġ": 1301,
      "ien": 1302,
      "áį¦": 1303,
      "es.": 1304,
      "anĠs": 1305,
      "lá»įĠ": 1306,
      "Ġáĭ«áĪį": 1307,
      "ninĠ": 1308,
      "istor": 1309,
      "maiĠ": 1310,
      "Ġá»įmá»įĠ": 1311,
      "iki": 1312,
      "áĭµáĪŃ": 1313,
      "aĠ(": 1314,
      "ilim": 1315,
      "jiharĠ": 1316,
      "Ak": 1317,
      "waniĠ": 1318,
      "wÃłĠ": 1319,
      "biy": 1320,
      "seĠ": 1321,
      "ĠáĮĢ": 1322,
      "áĪ¶": 1323,
      "fil": 1324,
      "ĠáĬĲáĮĪ": 1325,
      "Ġáįį": 1326,
      "ta": 1327,
      "paĠ": 1328,
      "ĠáĬ¢": 1329,
      "neĠyaĠ": 1330,
      "uj": 1331,
      "se": 1332,
      "fin": 1333,
      "áī³áĭĪ": 1334,
      "amuĠ": 1335,
      "sab": 1336,
      "Ġáīģ": 1337,
      "áīµáĬķ": 1338,
      "shindiĠwaĠ": 1339,
      "rist": 1340,
      "ile-": 1341,
      "ĠáĪķ": 1342,
      "Ã²á¹£": 1343,
      "arÃ¡Ġ": 1344,
      "WaliozaliwaĠ": 1345,
      "er,Ġ": 1346,
      "ĠáĮĭáĪŃ": 1347,
      "..": 1348,
      "ĠáīłáĪĽ": 1349,
      "Ġá»įjá»įÌģ": 1350,
      "ivers": 1351,
      "yÃŃĠ": 1352,
      "ya": 1353,
      "aus": 1354,
      "omb": 1355,
      "ord": 1356,
      "áĬŃáĪįáīł": 1357,
      "Ġáį¡": 1358,
      "bu": 1359,
      "aĠshekaraĠtaĠ": 1360,
      "ĠM": 1361,
      "inuĠ": 1362,
      "adĠ": 1363,
      "yan": 1364,
      "oá¹£": 1365,
      "áĪīáį¢": 1366,
      "per": 1367,
      "Nij": 1368,
      "áīĤ": 1369,
      "tion": 1370,
      "vyaĠ": 1371,
      "ĠáĭĵáĬŃáĪįáīł": 1372,
      "thatĠ": 1373,
      "áĪİáī½": 1374,
      "soĠ": 1375,
      "12": 1376,
      "áĮ¡": 1377,
      "ezaĠ": 1378,
      "áĭ°áĪ¨": 1379,
      "atuk": 1380,
      "BaadaĠ": 1381,
      "inĠk": 1382,
      "sunĠ": 1383,
      "teĠ": 1384,
      "Yor": 1385,
      "gbÃł": 1386,
      "iĠ(": 1387,
      "abuĠ": 1388,
      "ĠáĪļ": 1389,
      "¦áĪŃ": 1390,
      "Or": 1391,
      "nam": 1392,
      "Ġáĭ°áĮįáĪŀ": 1393,
      "jir": 1394,
      "aĠM": 1395,
      "sonĠ": 1396,
      "ĠáĬłáĬķáĭµ": 1397,
      "Ãłwá»įn": 1398,
      "Ã¹n": 1399,
      "âĢĵ": 1400,
      "eur": 1401,
      "org": 1402,
      "donĠ": 1403,
      "áĭ°áĪŃ": 1404,
      "koĠ": 1405,
      "ĠáĬłáĪį": 1406,
      "ouĠ": 1407,
      "ili": 1408,
      "áī°áĪ¨": 1409,
      "kub": 1410,
      "iláº¹ÌĢĠ": 1411,
      "áĪĺáĬĲ": 1412,
      "iá¹£áº¹ÌģĠ": 1413,
      "pÃ©Ġ": 1414,
      "Wak": 1415,
      "zam": 1416,
      "shindiĠwaĠTuzoĠyaĠNobelĠ": 1417,
      "Ã¨n": 1418,
      "quiĠ": 1419,
      "anaĠnaĠ": 1420,
      "ranarĠ": 1421,
      "ageĠ": 1422,
      "Tar": 1423,
      "tÃł": 1424,
      "iya.": 1425,
      "áĮĪáĬĿ": 1426,
      "âĢľ": 1427,
      "áĪŃáīµ": 1428,
      "WaliofarikiĠ": 1429,
      "13": 1430,
      "láº¹Ìģ": 1431,
      "far": 1432,
      "Ã¬w": 1433,
      "oĠnaĠ": 1434,
      "wasanĠ": 1435,
      "olÃ³": 1436,
      "ht": 1437,
      "ouv": 1438,
      "Ok": 1439,
      "áĬķáīµ": 1440,
      "Jan": 1441,
      "embaĠ": 1442,
      "Rom": 1443,
      "Ġáĭ¨áĬ¢áīµáĭ®áĮµáĭ«": 1444,
      "ĠáĪĺáĬķáĮįáĪ¥áīµ": 1445,
      "áĬķáĪµ": 1446,
      "áĪĶ": 1447,
      "umĠ": 1448,
      "aid": 1449,
      "okacinĠ": 1450,
      "pÃŃnláº¹ÌĢĠ": 1451,
      "osĠ": 1452,
      "Ã©-": 1453,
      "wallonĠ": 1454,
      "alikuwaĠ": 1455,
      "iss": 1456,
      "Tanz": 1457,
      "ká»įĠ": 1458,
      "ĠáĪĪáĪĽ": 1459,
      "abbanĠ": 1460,
      "in,Ġ": 1461,
      "oll": 1462,
      "Ã²r": 1463,
      "awá»įnĠ": 1464,
      "aĠt": 1465,
      "haifeĠ": 1466,
      "aniaĠ": 1467,
      "áīłáĪ©": 1468,
      "dun": 1469,
      "ewĠ": 1470,
      "má»įÌĢĠ": 1471,
      "áĬķáīĭ": 1472,
      "aleĠ": 1473,
      "áī½áĬķ": 1474,
      "192": 1475,
      "áĬª": 1476,
      "ia": 1477,
      "sÃ¬": 1478,
      "It": 1479,
      "áĪĭáĪįáį¢": 1480,
      "form": 1481,
      "ÃĪ": 1482,
      "ĠáĪĨáĬĲ": 1483,
      "uku": 1484,
      "Ġáĭ¨áĬĲ": 1485,
      "hal": 1486,
      "Mus": 1487,
      "lÃ©Ġ": 1488,
      "ask": 1489,
      "áĬĵáīµ": 1490,
      "âĢĿ": 1491,
      "ear": 1492,
      "ahĠ": 1493,
      "uwarĠ": 1494,
      "comm": 1495,
      "ĠáĪįáĮħ": 1496,
      "ogb": 1497,
      "Ġ2": 1498,
      ").ĠM": 1499,
      "hisĠ": 1500,
      "i'": 1501,
      "uĠmwakaĠ": 1502,
      "san": 1503,
      "Ãł.": 1504,
      "yarĠ": 1505,
      "imĠ": 1506,
      "afiĠ": 1507,
      "annanĠ": 1508,
      "orÃŃláº¹ÌĢ-Ã¨dÃ¨Ġ": 1509,
      "yakeĠ": 1510,
      "Ã¡n": 1511,
      "ĠáĭµáĪ¨áĪµ": 1512,
      "PapaĠ": 1513,
      "enc": 1514,
      "ĠáĭĿ": 1515,
      "aĠaĠ": 1516,
      "asi": 1517,
      "ajiĠ": 1518,
      "áĭļáĭ«": 1519,
      "Ki": 1520,
      "ser": 1521,
      "áįī": 1522,
      "tor": 1523,
      "ĠáĭĵáĬŃáĪįáīł.": 1524,
      "be": 1525,
      "Ġáĭ«áĪįáī°": 1526,
      "ri": 1527,
      "inger": 1528,
      "piaĠ": 1529,
      "fĠ": 1530,
      "akiĠ": 1531,
      "ern": 1532,
      "áĭ°áī¥": 1533,
      "man": 1534,
      "ukaĠ": 1535,
      "AfrikaĠ": 1536,
      "li": 1537,
      "int": 1538,
      "áī°áĪ¨áĮİ": 1539,
      "jer": 1540,
      "aziĠ": 1541,
      "o-": 1542,
      "tareĠdaĠ": 1543,
      "atiĠyaĠ": 1544,
      "atikaĠm": 1545,
      "ĠáĪħ": 1546,
      "wenyeĠ": 1547,
      "áĮĬ": 1548,
      "itt": 1549,
      "aĠkar": 1550,
      "ĠáĬ¤": 1551,
      "áī£áĪį": 1552,
      ",00": 1553,
      "iya,Ġ": 1554,
      "Ã¹Ġk": 1555,
      "Ġáĭ¨áĬ¥": 1556,
      "icalĠ": 1557,
      "Ġáīĭ": 1558,
      "ĠáĪµáĪĿ": 1559,
      "ĠáĪĮ": 1560,
      "aul": 1561,
      "kus": 1562,
      "=Ġ": 1563,
      "arg": 1564,
      "tanaĠ": 1565,
      "azartaĠ": 1566,
      "ÃĢwá»įn": 1567,
      "áĪ£": 1568,
      "áĪĨáĬĳ": 1569,
      "Ãª": 1570,
      "tern": 1571,
      "áĪ¸": 1572,
      "entr": 1573,
      "ĠáĬłáĮĪ": 1574,
      "Com": 1575,
      "oth": 1576,
      "ĠáīłáĬ¥": 1577,
      "ĠáĪĢ": 1578,
      "indaĠ": 1579,
      "²áį±": 1580,
      "fic": 1581,
      ".ĠItokasiĠ": 1582,
      "aitĠ": 1583,
      "áī¸áĭįáį¢": 1584,
      "Gu": 1585,
      "esh": 1586,
      "dansĠ": 1587,
      "áĬķáĭ«": 1588,
      "oriĠ": 1589,
      "the": 1590,
      "pourĠ": 1591,
      "Ã¬á¹£": 1592,
      "ris": 1593,
      "ĠáĪĽáĪĪáīµ": 1594,
      "ahus": 1595,
      "Ã¬yÃłnĠ": 1596,
      "Joh": 1597,
      "iiĠin": 1598,
      "ationalĠ": 1599,
      "áĪĬáĭĿ": 1600,
      "afinĠ": 1601,
      "antaĠ": 1602,
      "º¸": 1603,
      "emi": 1604,
      "latiĠ": 1605,
      "áĪłáĪ": 1606,
      "otĠ": 1607,
      "ĠáĪĥ": 1608,
      "Afir": 1609,
      "áī¸áĭįáĬķ": 1610,
      "eĠdaĠ": 1611,
      "Nijer": 1612,
      "Ind": 1613,
      "ĠáĬķáĮīáĪ¥": 1614,
      "stĠ": 1615,
      "ile-edeĠ": 1616,
      "OĠ": 1617,
      "áĬ¨áī°": 1618,
      "áī±áĬķ": 1619,
      "eĠofĠ": 1620,
      "kÃ³": 1621,
      "sunaĠ": 1622,
      "waj": 1623,
      "áĪµáī°": 1624,
      "áĭįáĭ«áĬķ": 1625,
      "kasanceĠ": 1626,
      "eĠk": 1627,
      "áįķ": 1628,
      "oci": 1629,
      "189": 1630,
      "alÃ¡": 1631,
      "áī°áĪ¨áĮİáĪĺ": 1632,
      "Ġáĭ¨áĪļáĭ«": 1633,
      "Univers": 1634,
      "eaĠ": 1635,
      "res": 1636,
      "part": 1637,
      "áĪĢ": 1638,
      "waĠnaĠ": 1639,
      "uĠnaĠ": 1640,
      "Ã©eĠ": 1641,
      "andaĠ": 1642,
      "danĠ": 1643,
      "áº¹Ìģg": 1644,
      "a)Ġ": 1645,
      "áī£áī¢": 1646,
      "aĠkwaĠ": 1647,
      "eu": 1648,
      "alaĠh": 1649,
      "on,Ġ": 1650,
      "urk": 1651,
      "abiĠ": 1652,
      "ĠáĬłáĪĺ": 1653,
      "ju": 1654,
      "lugh": 1655,
      "lá»į": 1656,
      "Ġáī³áĪªáĬŃ": 1657,
      "190": 1658,
      "nchiĠ": 1659,
      "wad": 1660,
      "bÃ¡": 1661,
      "áĬķáĮ": 1662,
      "ĠáīłáĬłáĪ": 1663,
      "Ġáĭ«áĪįáī°áī°áĪ¨áĮİáĪĺ": 1664,
      "Ġáĭ«áĪįáī°áī°áĪ¨áĮİáĪĺĠáĪĿáĪ³áĪĮ": 1665,
      "²áį±áį»áį": 1666,
      "po": 1667,
      "pá»įÌĢĠ": 1668,
      "terĠ": 1669,
      "áĪĦ": 1670,
      "El": 1671,
      "aĠn": 1672,
      "ĠáĮī": 1673,
      "icanĠ": 1674,
      "iriĠ": 1675,
      "ĠáĪ°áĭį": 1676,
      "1.": 1677,
      "0.": 1678,
      "oĠ(": 1679,
      "risto": 1680,
      "sc": 1681,
      "áĭĽáīµ": 1682,
      "ĠáīĭáĬķáīĭ": 1683,
      "Ġáĭ¨áĬłáĪĽáĪŃáĬĽĠáĪĿáĪ³áĪĮĠáĬĲáĭįáį¢ĠáīµáĪŃáĮīáĪĻĠáĭ«áĪįáī°áī°áĪ¨áĮİáĪĺĠáĪĿáĪ³áĪĮ": 1684,
      "iliy": 1685,
      "hak": 1686,
      "ashinĠ": 1687,
      "kut": 1688,
      "CĠ": 1689,
      "di": 1690,
      "áĪŀáī½": 1691,
      "JiharĠ": 1692,
      "ráº¹ÌĢ": 1693,
      "sĠ(": 1694,
      "ichĠ": 1695,
      "NÃŃ": 1696,
      "way": 1697,
      "1,Ġ": 1698,
      "áĮ¥áĪŃ": 1699,
      "MakalaĠh": 1700,
      "enceĠ": 1701,
      "iiĠinahus": 1702,
      "amp": 1703,
      "gu": 1704,
      "páº¹ÌĢ": 1705,
      "angu": 1706,
      "MakalaĠhiiĠinahus": 1707,
      "MakalaĠhiiĠinahusuĠmwakaĠ": 1708,
      "áĪ«áīµ": 1709,
      "ru": 1710,
      "ept": 1711,
      "Ġáĭ³": 1712,
      "shindiĠwaĠTuzoĠyaĠNobelĠyaĠ": 1713,
      "ianĠ": 1714,
      "áī£áīµ": 1715,
      "En": 1716,
      "áī¥áĪŃ": 1717,
      "áĪł": 1718,
      "atukioĠ": 1719,
      "ĠáĬłáĬ«": 1720,
      "Ġáį£": 1721,
      "ustr": 1722,
      "sp": 1723,
      "IĠ": 1724,
      "áĪįáĬŃ": 1725,
      "dh": 1726,
      "rap": 1727,
      "edĠtoĠ": 1728,
      "atif": 1729,
      "/áĪĿ": 1730,
      "Ġáĭ¨áĪĽ": 1731,
      "mÃ¡": 1732,
      "ankinĠ": 1733,
      "awanĠ": 1734,
      "we": 1735,
      "áĭĭáĪįáį¢": 1736,
      "Ġáī¥áĭĻ": 1737,
      "egb": 1738,
      "rit": 1739,
      "shugab": 1740,
      "Afirk": 1741,
      "tel": 1742,
      "ehem": 1743,
      "dÃ¡": 1744,
      "ayiĠ": 1745,
      "sĠofĠ": 1746,
      "yÃ¬nĠ": 1747,
      "yaĠKristo": 1748,
      "Ã¨nÃ¬yÃłnĠ": 1749,
      "ousĠ": 1750,
      "kÃ²Ġ": 1751,
      "lin": 1752,
      "áĪĭáīµ": 1753,
      "fi": 1754,
      "ĠáĭŃáĮĪ": 1755,
      "áĬ¨áĪį": 1756,
      "áĪĿáĪ®": 1757,
      "anĠhaifeĠ": 1758,
      "farkoĠ": 1759,
      "akar": 1760,
      "ool": 1761,
      "yaĠKristo).ĠM": 1762,
      "ma": 1763,
      "Ġ(BaadaĠ": 1764,
      "dagaĠcikinĠ": 1765,
      "gaĠwatanĠ": 1766,
      "yÃ¬ÃŃĠ": 1767,
      "Ġ(BaadaĠyaĠKristo).ĠM": 1768,
      "Jul": 1769,
      "orile-edeĠ": 1770,
      "deĠl'": 1771,
      "aik": 1772,
      "Ġáĭĵ/áĪĿ": 1773,
      "uat": 1774,
      "weng": 1775,
      "ĠáĪŀ": 1776,
      "shekararĠ201": 1777,
      "asar": 1778,
      "gbÃ©": 1779,
      "áĪĭáĪį": 1780,
      "mat": 1781,
      "add": 1782,
      "ĠáĮł": 1783,
      "áĪ³áĭŃ": 1784,
      "lak": 1785,
      "olaĠ": 1786,
      "Wa": 1787,
      "yinĠ": 1788,
      "ĠáĪĻ": 1789,
      "tunĠ": 1790,
      "birninĠ": 1791,
      "ubl": 1792,
      "Ing": 1793,
      "áī³áĭĬ": 1794,
      "nÃŃĠá»įdÃºnĠ": 1795,
      "edĠbyĠ": 1796,
      "Sch": 1797,
      "báº¹ÌĢ": 1798,
      "ardĠ": 1799,
      "Ãłw": 1800,
      "abil": 1801,
      "iesĠ": 1802,
      "ishaĠ": 1803,
      "emberĠ": 1804,
      "Ã©sĠ": 1805,
      "áĪĿáĪħ": 1806,
      "ĠáĬłáĪµáī°": 1807,
      "niĠm": 1808,
      "i.Ġ": 1809,
      "áĮĤ": 1810,
      "ĠáĮ½": 1811,
      "Ac": 1812,
      "Col": 1813,
      "pam": 1814,
      "auk": 1815,
      "eriaĠ": 1816,
      "zin": 1817,
      "ĠáĮİ": 1818,
      "InĠ": 1819,
      "jáº¹Ìģ": 1820,
      "ign": 1821,
      "ÆĻwallonĠ": 1822,
      "yanĠ": 1823,
      "ninuĠ": 1824,
      "ilikuwaĠ": 1825,
      "vi": 1826,
      "Ã¬l": 1827,
      "áĪĺáĪŃ": 1828,
      "sun": 1829,
      "tÃŃ": 1830,
      "andeĠ": 1831,
      "tÃºnĠ": 1832,
      "rel": 1833,
      "Vi": 1834,
      "oul": 1835,
      "mar": 1836,
      "ľáĪªáĬ«": 1837,
      "ous": 1838,
      "1-": 1839,
      ")ĠjeĠ": 1840,
      "ĠáĪ³áĭŃ": 1841,
      "\".": 1842,
      "plusĠ": 1843,
      "daĠd": 1844,
      "Ag": 1845,
      "ĠáĬ¥áĬķáĭ³": 1846,
      "shiĠneĠ": 1847,
      "Mat": 1848,
      "Con": 1849,
      "áĬķáĭ³": 1850,
      "ĠáĭĭáĬĵ": 1851,
      "Nigeri": 1852,
      "bayanĠ": 1853,
      "ĠáĬ®": 1854,
      "acc": 1855,
      "bi": 1856,
      "áĮĨ": 1857,
      "áĭ²áĪµ": 1858,
      "ĠáīłáĪļ": 1859,
      "mÃ©": 1860,
      "str": 1861,
      "an.": 1862,
      "peĠ": 1863,
      ".áĬł": 1864,
      "já»įĠ": 1865,
      "áĮįáĪŃ": 1866,
      "oteĠ": 1867,
      "anoĠ": 1868,
      "0,Ġ": 1869,
      "ĠáĪĺáĬķ": 1870,
      "ĠáĪĺáĪµ": 1871,
      "weny": 1872,
      "Ġ(BaadaĠyaĠKristo).ĠMatukioĠ": 1873,
      "áī·": 1874,
      "ra": 1875,
      "comp": 1876,
      "atur": 1877,
      "mentĠ": 1878,
      "ement": 1879,
      "ne": 1880,
      "áĮłáĪŃ": 1881,
      "bal": 1882,
      "manĠ": 1883,
      "Ġáī¤áī°": 1884,
      "maĠ": 1885,
      "Ġáį¢": 1886,
      "áĭĿáī¥": 1887,
      "kul": 1888,
      "ayanĠ": 1889,
      "áĪĭáĭŃ": 1890,
      "wor": 1891,
      "inĠdaĠ": 1892,
      "ia,Ġ": 1893,
      "aikiĠ": 1894,
      "Éĵ": 1895,
      "NÃłÃ¬jÃŃrÃŃÃłĠ": 1896,
      "áĮĪáĬĺ": 1897,
      "zamaĠ": 1898,
      "iqueĠ": 1899,
      "iseĠ": 1900,
      "uniĠ": 1901,
      "áĪĿĠáīł": 1902,
      "All": 1903,
      "ulk": 1904,
      "áº¹Ìģgáº¹ÌģĠ": 1905,
      "antarĠ": 1906,
      "áįĸ": 1907,
      "á»įbaĠ": 1908,
      "min": 1909,
      "2,Ġ": 1910,
      "rÃŃk": 1911,
      "pÃł": 1912,
      "omoĠ": 1913,
      "tsĠ": 1914,
      "anciĠ": 1915,
      "ber": 1916,
      "taĠk": 1917,
      "BK": 1918,
      "jÃ¡": 1919,
      "ĠáĪģáĪī": 1920,
      "à¤": 1921,
      "alinĠ": 1922,
      "okoĠ": 1923,
      "Ġáĭ¨áĪĨ": 1924,
      "saĠ": 1925,
      "áĭī": 1926,
      "áº¹Ìģr": 1927,
      "tiv": 1928,
      "arab": 1929,
      "y.": 1930,
      "Mal": 1931,
      "Ġ:": 1932,
      "sy": 1933,
      "5,Ġ": 1934,
      "eheĠ": 1935,
      "iraĠ": 1936,
      "ĠáįĬ": 1937,
      "prÃ©": 1938,
      "laĠm": 1939,
      "Ed": 1940,
      "áĬŀ": 1941,
      "Ben": 1942,
      "gir": 1943,
      "ishĠ": 1944,
      "2.": 1945,
      "LeĠ": 1946,
      "jáº¹Ġ": 1947,
      "6,Ġ": 1948,
      "--": 1949,
      "tiĠoĠ": 1950,
      "kwaĠ": 1951,
      "áº¹r": 1952,
      "KarneĠyaĠ": 1953,
      "ojaĠnaĠ": 1954,
      "lu": 1955,
      "ĠáĬłáĪĿ": 1956,
      "itsĠ": 1957,
      "áĮĢáĪĺáĪªáĭ«": 1958,
      "ko": 1959,
      "Ġáĭ¨áĪĿ": 1960,
      "gbÃ©Ġ": 1961,
      "wÃ¡": 1962,
      "áĪŃáĪµáī²": 1963,
      "jÃºĠ": 1964,
      "toĠtheĠ": 1965,
      "hur": 1966,
      "ÆĻaf": 1967,
      "áĪĨáĬĲ": 1968,
      "eneoĠ": 1969,
      "ashar": 1970,
      "omaĠ": 1971,
      "Le": 1972,
      "ahar": 1973,
      "ĠáĪĺáĭ°áī¥": 1974,
      "Ãł,Ġ": 1975,
      "8,Ġ": 1976,
      "ia.": 1977,
      "kÃŃĠ": 1978,
      "istr": 1979,
      "áĪ«áĭĬ": 1980,
      "nying": 1981,
      "alaĠ": 1982,
      "ast": 1983,
      "ĠS": 1984,
      "beĠ": 1985,
      "oniĠ": 1986,
      "oá¹£Ã¹Ġk": 1987,
      "Ingil": 1988,
      "Gr": 1989,
      "Tr": 1990,
      "NewĠ": 1991,
      "land": 1992,
      "Ġáĭ¨áĬłáĪĽáĪŃáĬĽĠáĪĿáĪ³áĪĮĠáĬĲáĭįáį¢ĠáīµáĪŃáĮīáĪĻĠáĭ«áĪįáī°áī°áĪ¨áĮİáĪĺĠáĪĿáĪ³áĪĮĠáī°áĪ¨áīµáĬĵĠáĪĿáĪ³áĪĮ": 1993,
      "lat": 1994,
      "ĠáĪ°áĭİáī½": 1995,
      "7,Ġ": 1996,
      "MarekaniĠ": 1997,
      "tsak": 1998,
      "odĠ": 1999,
      "áº¹ÌģrÃŃk": 2000,
      "Ge": 2001,
      "oir": 2002,
      "itÃ©Ġ": 2003,
      "elleĠ": 2004,
      "akinĠ": 2005,
      "hukum": 2006,
      "ten": 2007,
      "intaĠ": 2008,
      "ÃĮpÃŃnláº¹ÌĢĠ": 2009,
      "ail": 2010,
      "áī½áį¢": 2011,
      "adh": 2012,
      "Amáº¹ÌģrÃŃk": 2013,
      "mon": 2014,
      "waiĠ": 2015,
      "ishiĠ": 2016,
      "orinĠ": 2017,
      "ÆĻwallonĠÆĻaf": 2018,
      "2019": 2019,
      "eĠdesĠ": 2020,
      "Gh": 2021,
      "Par": 2022,
      "Wat": 2023,
      "rec": 2024,
      "a:Ġ": 2025,
      "Ġáī¦": 2026,
      "ĠáĬĲáĮĪáĪŃ": 2027,
      "Far": 2028,
      "áįİ": 2029,
      "ManazartaĠ": 2030,
      "Em": 2031,
      "vis": 2032,
      "ominĠ": 2033,
      "ivy": 2034,
      "aĠmwakaĠwaĠ": 2035,
      "ationsĠ": 2036,
      "sik": 2037,
      "Ġáīłáĭĺ": 2038,
      "Â«Ġ": 2039,
      "lÃ¨Ġ": 2040,
      "si": 2041,
      "ÃŃá¹£": 2042,
      "avec": 2043,
      "whichĠ": 2044,
      "4,Ġ": 2045,
      "Dun": 2046,
      "áĬķáĮįáĪĬáĭĿ": 2047,
      "daĠsuk": 2048,
      "aliy": 2049,
      "dar": 2050,
      "Janu": 2051,
      "Har": 2052,
      "Ãły": 2053,
      "áī°áĭį": 2054,
      "Ġáī°áĪĺ": 2055,
      "áī¦áī½": 2056,
      "dakeĠ": 2057,
      "áĪĿáį¢": 2058,
      "áĮ¸": 2059,
      "kÃ³Ġ": 2060,
      "áīµĠáĭ¨": 2061,
      "ÃĮt": 2062,
      "5.": 2063,
      "igh": 2064,
      "ust": 2065,
      "isaĠ": 2066,
      "4.": 2067,
      "cewaĠ": 2068,
      "lokacinĠ": 2069,
      "wamn": 2070,
      "3.": 2071,
      "áĬķĠáĬł": 2072,
      "mwan": 2073,
      "áį¥": 2074,
      "00Ġ": 2075,
      "ÃŃr": 2076,
      "iteĠ": 2077,
      "áĮłáīĢ": 2078,
      ").Ġ": 2079,
      "abaĠ": 2080,
      "ká»įÌĢ": 2081,
      "outĠ": 2082,
      "suk": 2083,
      "iluĠ": 2084,
      "ne,Ġ": 2085,
      "áĪĽáĪª": 2086,
      "kubwaĠ": 2087,
      "Ø§": 2088,
      "na": 2089,
      "ĠáīĨ": 2090,
      "ilÃ©-": 2091,
      "tit": 2092,
      "At": 2093,
      "Ġáĭ¨áĪļáĮĪáĬĿ": 2094,
      "ray": 2095,
      "lim": 2096,
      "auxĠ": 2097,
      "langu": 2098,
      "6.": 2099,
      "fit": 2100,
      "Nov": 2101,
      "Ãłm": 2102,
      "bo": 2103,
      "i-": 2104,
      "fal": 2105,
      "UniversityĠ": 2106,
      "ĠáĭĵáĪĺáīµ": 2107,
      "pol": 2108,
      "ueĠ": 2109,
      "shig": 2110,
      "áĪ¨áĭį": 2111,
      "á»įÌģkas": 2112,
      "ĠáĭĵáĪĿ": 2113,
      "7.": 2114,
      "Ã¨sĠ": 2115,
      "dÃºnĠ": 2116,
      "faraĠ": 2117,
      "Ã¬r": 2118,
      "ele": 2119,
      "iĠkwaĠ": 2120,
      "wÃ¡Ġ": 2121,
      "Ã¨t": 2122,
      "ialĠ": 2123,
      "ect": 2124,
      "kasarĠ": 2125,
      "uli": 2126,
      "eĠd'": 2127,
      "Ã©esĠ": 2128,
      "miĠ": 2129,
      "áĮĵ": 2130,
      "in.": 2131,
      "adeĠ": 2132,
      "ativ": 2133,
      "áĭŀ": 2134,
      "ĠáĬª": 2135,
      "Ã¬m": 2136,
      "áį£Ġáĭ¨": 2137,
      "aun": 2138,
      "e)Ġ": 2139,
      "allyĠ": 2140,
      "Ã©n": 2141,
      "NĠ": 2142,
      ",ĠandĠ": 2143,
      "áĮįáī¥": 2144,
      "Ãºr": 2145,
      "eĠduĠ": 2146,
      "ww": 2147,
      "ĠáĪĿáĬŃ": 2148,
      "wakeĠ": 2149,
      "ajiĠwaĠ": 2150,
      "kuf": 2151,
      "áĬ¢": 2152,
      "áĭ±áĪµ": 2153,
      "áĬķĠáīł": 2154,
      "eth": 2155,
      "ĠáĬ¥áĭ¨": 2156,
      "páº¹ÌĢlÃºĠ": 2157,
      "tan": 2158,
      "gáº¹Ìģgáº¹ÌģĠ": 2159,
      "ĠáĪĺáĭ°áī¥Ġ:": 2160,
      "Um": 2161,
      "obaĠ": 2162,
      "ait": 2163,
      ".áĬ¤": 2164,
      "áĪĭáĬķáĭµ": 2165,
      "áĬĸáī½": 2166,
      "woĠ": 2167,
      "port": 2168,
      "col": 2169,
      "abar": 2170,
      "3,Ġ": 2171,
      "áįĴ": 2172,
      "pel": 2173,
      "ras": 2174,
      "yáº¹Ġ": 2175,
      "ananĠ": 2176,
      "ÆĻar": 2177,
      "yar": 2178,
      "wannanĠ": 2179,
      "ert": 2180,
      "uwanĠ": 2181,
      "reg": 2182,
      "uwan": 2183,
      "yĠofĠ": 2184,
      "ĠáĪĭ": 2185,
      "áĮĮ": 2186,
      "áĭ³áĬķ": 2187,
      "áĬ¥áĬķ": 2188,
      "oĠvyaĠ": 2189,
      "Ã§": 2190,
      "á»Į": 2191,
      "áĮ¨áĪ¨": 2192,
      "pin": 2193,
      "oĠh": 2194,
      "Ġáīĥ": 2195,
      "ian": 2196,
      "áī³áī¸áĭį": 2197,
      "áĬłáī¥": 2198,
      "Ken": 2199,
      "igb": 2200,
      "áīµĠáīł": 2201,
      "ÙĦ": 2202,
      "uv": 2203,
      "oneĠ": 2204,
      "20Ġ": 2205,
      "áĭŃáĪħ": 2206,
      "atedĠ": 2207,
      "188": 2208,
      "Ġáº¹gb": 2209,
      "yak": 2210,
      "Pro": 2211,
      "biyuĠ": 2212,
      "sin": 2213,
      "Ã¨reĠ": 2214,
      "ĠáĪĺáĬ«": 2215,
      "jama'": 2216,
      "ilÃ©Ġ": 2217,
      "jiĠ": 2218,
      "itedĠ": 2219,
      "kun": 2220,
      "áĮ¦": 2221,
      "áĪ¨áĮĥ": 2222,
      "Ray": 2223,
      "gud": 2224,
      "áĪ¨áĬķ": 2225,
      "Austr": 2226,
      "ingĠtheĠ": 2227,
      "gbogb": 2228,
      "Ġ(BaadaĠyaĠKristo).ĠMatukioĠWaliozaliwaĠ": 2229,
      "ambaĠ": 2230,
      "essĠ": 2231,
      "Ph": 2232,
      "aĠranarĠ": 2233,
      "olÃ¹": 2234,
      "aĠshekararĠ": 2235,
      "inĠs": 2236,
      "áĪĿáĬĵ": 2237,
      "ĠáĪĲ": 2238,
      "ajalis": 2239,
      "Af": 2240,
      "pamojaĠnaĠ": 2241,
      "Ã©g": 2242,
      "sehem": 2243,
      "yp": 2244,
      "bas": 2245,
      "Ãī": 2246,
      "Muh": 2247,
      "ĠáĬ¨áĬł": 2248,
      "loĠ": 2249,
      "aĠkatikaĠ": 2250,
      "áĪĪáĭ«": 2251,
      "Nor": 2252,
      "áī°áĪŃ": 2253,
      "Ġáī°áīĢ": 2254,
      "Feb": 2255,
      "Sept": 2256,
      "otoĠ": 2257,
      "ĠáĬĲáīłáĪ¨": 2258,
      "áĭįĠáĭ¨": 2259,
      "Cl": 2260,
      "áīµáĬĵ": 2261,
      "Bir": 2262,
      "idĠ": 2263,
      "áĮĪáĭµ": 2264,
      "áīĨáĮ£": 2265,
      "sÃ¡": 2266,
      "Histor": 2267,
      "ĠáĪĨáĬĸ": 2268,
      "TanzaniaĠ": 2269,
      "âĢĺ": 2270,
      "áĪĺáĬĵ": 2271,
      "ĠáīłáĪµ": 2272,
      "avecĠ": 2273,
      "kung": 2274,
      "áĪ¨áĭ³": 2275,
      "i'arĠ": 2276,
      "rub": 2277,
      "utĠ": 2278,
      "saiĠ": 2279,
      "ĠáīłáĬ¢áīµáĭ®áĮµáĭ«": 2280,
      "ancinĠ": 2281,
      "babbanĠ": 2282,
      ".áĬ¤.áĬł": 2283,
      "LesĠ": 2284,
      "ar,Ġ": 2285,
      "atifuĠ": 2286,
      "astĠ": 2287,
      "áĬĲáĭļáĪħ": 2288,
      "idanĠ": 2289,
      "tÃłbÃŃĠ": 2290,
      "wasanĠÆĻwallonĠÆĻaf": 2291,
      "áĪĺáĪµ": 2292,
      "áĪĶáĪŃ": 2293,
      "Kis": 2294,
      "áīħáĪĿ": 2295,
      "Sp": 2296,
      "áĪĽáĭĬ": 2297,
      "ĠáĬĵáī¸áĭįáį¢": 2298,
      "hany": 2299,
      "iaĠyaĠ": 2300,
      "áĪ°áī¥": 2301,
      "Nai": 2302,
      "ĠáĪ´": 2303,
      "Ġáįķ": 2304,
      "ĠB": 2305,
      "je": 2306,
      "Ġá»įmá»į": 2307,
      "áīª": 2308,
      "ĠáĭĺáĬķáĭµ": 2309,
      "aim": 2310,
      ",Ġmwan": 2311,
      "za": 2312,
      "arĠm": 2313,
      "áĪ°áĭį": 2314,
      "Ġ3": 2315,
      "tÃ¬": 2316,
      "áįħ": 2317,
      "Ġáĭ¨áĪ°": 2318,
      "áĮĪáĬĻ": 2319,
      "ĠáĮ¨": 2320,
      "daĠakaĠ": 2321,
      "ĠáĬłáī¥": 2322,
      "Ã©k": 2323,
      "tun": 2324,
      "Ġáī£áĪĪ": 2325,
      "raph": 2326,
      "idaĠ": 2327,
      "ĠáĮĢáĪĿáĪ®": 2328,
      "Ġáī¤áīµ": 2329,
      "Febru": 2330,
      "allĠ": 2331,
      "itionĠ": 2332,
      "gbÃ¡": 2333,
      "an-": 2334,
      "áĭ¥": 2335,
      "Im": 2336,
      "ĠáĪ«": 2337,
      "áĮ½áĪĲ": 2338,
      "8.": 2339,
      "RD": 2340,
      "kup": 2341,
      "a,Ġm": 2342,
      "Ġáĭ«áĪĪ": 2343,
      "iaĠm": 2344,
      "irinĠ": 2345,
      "Ang": 2346,
      "amil": 2347,
      "jiĠm": 2348,
      "wanzaĠ": 2349,
      "oreĠ": 2350,
      "Ùİ": 2351,
      "áĪŃáĪ±": 2352,
      "Ġáįĵ": 2353,
      "%Ġ": 2354,
      "áĬķĠáĬ¨": 2355,
      "edĠtheĠ": 2356,
      "oph": 2357,
      "áįĬáīµ": 2358,
      "sontĠ": 2359,
      "act": 2360,
      "amfaniĠ": 2361,
      "\",Ġ": 2362,
      "ĠáĬ¢áīµáĭ®áĮµáĭ«": 2363,
      "Ay": 2364,
      "iniĠyaĠ": 2365,
      "akanĠ": 2366,
      "leg": 2367,
      "fÃŃ": 2368,
      "gbaj": 2369,
      "ohunĠ": 2370,
      "Ma": 2371,
      "ĠáĬłáī£": 2372,
      "'Ġ": 2373,
      "zil": 2374,
      "surĠ": 2375,
      "ĠáĮ¦áĪŃ": 2376,
      "fer": 2377,
      "Ãłd": 2378,
      "shenĠ": 2379,
      "utaĠ": 2380,
      "Ã¬k": 2381,
      "JohnĠ": 2382,
      "Ã©,Ġ": 2383,
      "áĭ¨áĪŃ": 2384,
      "Ġáĭ«áĪĪáĭį": 2385,
      "áī¡áī¥": 2386,
      "aveĠ": 2387,
      "ĠáĮ¸": 2388,
      "ĠáĬłáĮĪáĪŃ": 2389,
      "ith": 2390,
      "TaĠ": 2391,
      "onn": 2392,
      "Ġáī¥áī»": 2393,
      "lec": 2394,
      "uĠ(": 2395,
      "áĪĿĠáĭ¨": 2396,
      "oyinĠ": 2397,
      "Jap": 2398,
      "yĠ(": 2399,
      "ukoĠ": 2400,
      "eĠnaĠ": 2401,
      "áī£áĪĪ": 2402,
      "ukĠ": 2403,
      "riĠ": 2404,
      "andĠtheĠ": 2405,
      "Ã¬bÃŃĠ": 2406,
      "áĬ¤áĪį": 2407,
      "ym": 2408,
      "Ġáº¸": 2409,
      "Ġáī°áĭĪ": 2410,
      "anninĠ": 2411,
      "odunĠ": 2412,
      "egbeĠ": 2413,
      "ownĠ": 2414,
      "asoĠ": 2415,
      "aĠmaiĠ": 2416,
      "áĪłáĪ¨": 2417,
      "wah": 2418,
      "dÃŃ": 2419,
      "áĪįáĮ£": 2420,
      "eseĠ": 2421,
      "Viung": 2422,
      "oĠch": 2423,
      "cons": 2424,
      "Ġ\"": 2425,
      "Bar": 2426,
      "Om": 2427,
      "ĥáĭŃ": 2428,
      "áĭĭáĪį": 2429,
      "ashenĠ": 2430,
      "emp": 2431,
      "Oá¹£": 2432,
      "ĠáĪĺáĪį": 2433,
      "jerum": 2434,
      "omin": 2435,
      "anj": 2436,
      "áį£Ġáīł": 2437,
      "qu'": 2438,
      "áĪīáīµ": 2439,
      "ViungoĠvyaĠ": 2440,
      "utaneĠ": 2441,
      "ograph": 2442,
      "áī³áĪįáį¢": 2443,
      "dig": 2444,
      "uch": 2445,
      "áĪĭáī¸áĭį": 2446,
      "bur": 2447,
      "sak": 2448,
      "kud": 2449,
      "Intern": 2450,
      "atunĠ": 2451,
      "ition": 2452,
      "Ãłká»įÌģ": 2453,
      "Ġá»ĮÌĢ": 2454,
      "hadiĠ": 2455,
      "itu": 2456,
      "niĠk": 2457,
      "ÉĹanĠ": 2458,
      "jin": 2459,
      "ĠáĬ¦": 2460,
      "lakiniĠ": 2461,
      "Naijir": 2462,
      "áĪĿĠáĬ¨": 2463,
      "oisĠ": 2464,
      "adiĠ": 2465,
      "LaĠ": 2466,
      "gam": 2467,
      "wá»įÌģ": 2468,
      "-ĠM": 2469,
      "lÃ¡Ġ": 2470,
      "lâĢĻ": 2471,
      "Ġáī°áĬ¨": 2472,
      "ani.": 2473,
      "cent": 2474,
      "nÃŃgbÃłĠ": 2475,
      "euxĠ": 2476,
      "Eng": 2477,
      "ba": 2478,
      "oĠlaĠ": 2479,
      "Pe": 2480,
      "9,Ġ": 2481,
      "finĠ": 2482,
      "dis": 2483,
      "áį²áį±áį»áį": 2484,
      "heĠ": 2485,
      "ĠáĬ¥áĬķáĭ²áĪģ": 2486,
      "tim": 2487,
      "5)Ġ": 2488,
      "tp": 2489,
      "áĬħ": 2490,
      "Lag": 2491,
      "ingerezaĠ": 2492,
      "cinĠ": 2493,
      "//": 2494,
      "áĭįáĪ®": 2495,
      "ongĠ": 2496,
      "ĠáĬ¥.áĬ¤.áĬł": 2497,
      "áĭµáĬķ": 2498,
      "báº¹ÌĢráº¹ÌĢĠ": 2499,
      "esĠdeĠ": 2500,
      "áĪļáĭ«": 2501,
      "nchiniĠ": 2502,
      "al'": 2503,
      "iaĠk": 2504,
      "ĠáīģáĮ¥áĪŃ": 2505,
      "YorÃ¹": 2506,
      "School": 2507,
      "harĠ": 2508,
      "watuĠ": 2509,
      "Shugab": 2510,
      "cul": 2511,
      "Sal": 2512,
      "ItokasiĠÃĢwá»įnĠ": 2513,
      "Qu": 2514,
      "orsĠ": 2515,
      "jinaĠ": 2516,
      "niĠÃ³Ġ": 2517,
      "ÃłrÃ¹nĠ": 2518,
      "ĠáĪī": 2519,
      "Ur": 2520,
      "ĠáĪ¥áĪŃ": 2521,
      "wasanĠÆĻwallonĠÆĻafaĠtaĠ": 2522,
      "Wá»įÌģnĠ": 2523,
      "wo": 2524,
      "ikoĠ": 2525,
      "9.": 2526,
      "Itokasi": 2527,
      "tÃ³": 2528,
      "11": 2529,
      "Ã¨yÃŃĠ": 2530,
      "aĠkanĠ": 2531,
      "Og": 2532,
      "máº¹Ìģ": 2533,
      "kir": 2534,
      "al-": 2535,
      "Des": 2536,
      "ilayaĠ": 2537,
      "Ul": 2538,
      "áĬĵáĪį": 2539,
      "chiĠ": 2540,
      "Ġáĭ¨áĪĨáĬĲ": 2541,
      "Wor": 2542,
      "duc": 2543,
      "ort": 2544,
      "Ġáĭ®": 2545,
      "ihiĠ": 2546,
      "dayaĠ": 2547,
      "iceĠ": 2548,
      "eleĠ": 2549,
      "de": 2550,
      "Tur": 2551,
      "áĪ¥áī³áīµ": 2552,
      "wasanĠÆĻwallonĠÆĻafaĠtaĠÆĻasarĠ": 2553,
      "dab": 2554,
      "ĠáĭĪáĬķ": 2555,
      "áĪŃáĬŃ": 2556,
      "ajalisarĠ": 2557,
      "ĠáĮ£": 2558,
      "ofinĠ": 2559,
      "http": 2560,
      "ack": 2561,
      "is,Ġ": 2562,
      "Fas": 2563,
      "ĠáĬłáīł": 2564,
      "ĠáīłáĪĿ": 2565,
      "Ġá»įdunĠ": 2566,
      "áī¢áĭ«": 2567,
      "iya": 2568,
      "Ujerum": 2569,
      "umm": 2570,
      "://": 2571,
      "Pol": 2572,
      "áĬķĠáĭ«": 2573,
      "Bl": 2574,
      "edĠinĠ": 2575,
      "Sc": 2576,
      "áĬ¦": 2577,
      "kur": 2578,
      "uaĠ": 2579,
      "ostĠ": 2580,
      "Ã¬gbÃł": 2581,
      "áĮ¨áĪ¨áĪ»": 2582,
      "adar": 2583,
      "áĭµáĪĿ": 2584,
      "áĮłáĪ«": 2585,
      "ĠáĪĺáĭ°áī¥Ġ:Ġáī°áĪ¨áīµáĬĵĠáĪĿáĪ³áĪĮ": 2586,
      "áĮ¤": 2587,
      "ungiyarĠ": 2588,
      "Ã¡nĠ": 2589,
      "rew": 2590,
      "wasuĠ": 2591,
      "ĠáĭµáĪŃ": 2592,
      "ĠáĪľ": 2593,
      "áĬķĠáĪĺ": 2594,
      "Car": 2595,
      "áīµĠáĪĺ": 2596,
      "ĠáĬ¨áįį": 2597,
      "Amurk": 2598,
      "ilit": 2599,
      "Will": 2600,
      "contr": 2601,
      "|ĠRD": 2602,
      "IS": 2603,
      "áº¹l": 2604,
      "akwaiĠ": 2605,
      "ká»įÌģ": 2606,
      "orn": 2607,
      "elop": 2608,
      "50": 2609,
      "wereĠ": 2610,
      "iĠkatikaĠ": 2611,
      "Muhamm": 2612,
      "Ġáī¡": 2613,
      "butĠ": 2614,
      "ĠáĪĺáĬ«áĬ¨áĪį": 2615,
      "Ik": 2616,
      "ĠofĠ": 2617,
      "Mag": 2618,
      "áĬķáĬĵ": 2619,
      "áĬķĠáĭ¨": 2620,
      "o.Ġ": 2621,
      "vit": 2622,
      "ĠáīłáĪĭáĭŃ": 2623,
      "áĭİáī¹": 2624,
      "cont": 2625,
      "áĮįáĭļ": 2626,
      "ĠáīłáĭĺáĪĺáĬĲ": 2627,
      "áĬķáĮī": 2628,
      "NigeriaĠ": 2629,
      "Ġá»įjá»įÌģÃ¬bÃŃĠ": 2630,
      "aneĠ": 2631,
      "cour": 2632,
      "(200": 2633,
      "ainĠ": 2634,
      "áĪĺáĪĪ": 2635,
      "áĬ³": 2636,
      "sĠandĠ": 2637,
      "afaĠ": 2638,
      "Ìģ": 2639,
      "lam": 2640,
      "jáº¹": 2641,
      "AĠcikinĠ": 2642,
      "ráº¹Ġ": 2643,
      "ĠáīłáĪ°": 2644,
      "autarĠ": 2645,
      "anĠhaifeĠshiĠ": 2646,
      "Awar": 2647,
      "iveĠ": 2648,
      "Haus": 2649,
      "iyoĠ": 2650,
      "ÃłĠlaĠ": 2651,
      "Bo": 2652,
      "aliaĠ": 2653,
      "Ã²k": 2654,
      "eurĠ": 2655,
      "atol": 2656,
      "4)Ġ": 2657,
      "rik": 2658,
      "10Ġ": 2659,
      "kuuĠwaĠ": 2660,
      "áī¥áĪ¨": 2661,
      "áīħáĪŃ": 2662,
      "ĠáĬŃáįįáĪĪ": 2663,
      "Gre": 2664,
      "aá¹£": 2665,
      "dÃ¡Ġ": 2666,
      "Ã¬s": 2667,
      "naĠk": 2668,
      "áĪĽáĭŃ": 2669,
      "áĪħáĪį": 2670,
      "Ã¬wÃ©Ġ": 2671,
      "WaliofarikiĠKarneĠyaĠ": 2672,
      "samuĠ": 2673,
      "ĠáĬ¥áĪµáĬ¨Ġ": 2674,
      "pá»įÌĢ": 2675,
      "vol": 2676,
      "ableĠ": 2677,
      "ÃŃk": 2678,
      "pad": 2679,
      "iĠdaĠ": 2680,
      "usuĠ": 2681,
      "áĪĿáĪħáĪŃáīµ": 2682,
      "weĠ": 2683,
      "ore": 2684,
      "Ãģ": 2685,
      "mÃ¡aĠ": 2686,
      "Ap": 2687,
      "Fil": 2688,
      "acceĠ": 2689,
      "wandaĠyaĠ": 2690,
      "IlĠ": 2691,
      "istĠ": 2692,
      "áĭŃáĭĪ": 2693,
      ",ĠmshindiĠwaĠTuzoĠyaĠNobelĠyaĠ": 2694,
      "aĠzaĠ": 2695,
      "áįĥ": 2696,
      "áīĦ": 2697,
      ")Ġ(": 2698,
      "jÃ¹": 2699,
      "owoĠ": 2700,
      "upandeĠ": 2701,
      "Ã´": 2702,
      "áīµáį¢": 2703,
      "Ã¨gb": 2704,
      "áĬķáĮįáĪĬáĭĿáĬĽ": 2705,
      "zab": 2706,
      "gbogboĠ": 2707,
      "notĠ": 2708,
      "trans": 2709,
      "ahaif": 2710,
      "Us": 2711,
      "Me": 2712,
      "zaĠm": 2713,
      "shineĠ": 2714,
      "serv": 2715,
      "ayÃ©Ġ": 2716,
      "alsoĠ": 2717,
      "Ġá»įjá»įÌģĠk": 2718,
      "6)Ġ": 2719,
      "tob": 2720,
      "eyĠ": 2721,
      "Georg": 2722,
      "njeĠ": 2723,
      "7)Ġ": 2724,
      "Eur": 2725,
      "áĬķĠáĭŃ": 2726,
      "iliĠyaĠ": 2727,
      "alam": 2728,
      "he": 2729,
      "áīĨáĮ£áĮłáĪŃ": 2730,
      "tareheĠ": 2731,
      "Afric": 2732,
      "Bur": 2733,
      "lÃ³Ġ": 2734,
      "emiĠ": 2735,
      "186": 2736,
      "ĠáĪ½": 2737,
      "áĭįáį¢": 2738,
      "rah": 2739,
      "ound": 2740,
      "zaĠk": 2741,
      "áĪµáī³": 2742,
      "out": 2743,
      "187": 2744,
      "ĠâĢľ": 2745,
      "Jami'arĠ": 2746,
      "Mon": 2747,
      "Was": 2748,
      "imuĠ": 2749,
      "sá»įĠ": 2750,
      "wÃ²Ġ": 2751,
      "láº¹ÌĢĠÃ¨dÃ¨Ġ": 2752,
      "Ġáī¦áī³": 2753,
      "ubaĠ": 2754,
      "ipaĠ": 2755,
      "owĠ": 2756,
      "áĮįáĭļáĬłáī¥": 2757,
      "ĠáĬłáĪŃ": 2758,
      "lÃ³rÃŃĠ": 2759,
      "firstĠ": 2760,
      "jÃ¡Ġ": 2761,
      "á»įk": 2762,
      "áī¥áĪ«": 2763,
      "Agb": 2764,
      "esĠ(": 2765,
      "áĮģ": 2766,
      "asheĠ": 2767,
      "Id": 2768,
      "lex": 2769,
      "idiĠ": 2770,
      "Tanzani": 2771,
      "iakaĠ": 2772,
      "ine": 2773,
      "entsĠ": 2774,
      "UnitedĠ": 2775,
      "tobaĠ": 2776,
      "enyeĠ": 2777,
      "ÃłĠl'": 2778,
      "nchiĠyaĠ": 2779,
      "Ġáº¹ÌĢká»įÌģĠ": 2780,
      "Ã©d": 2781,
      "Ãºká»įĠ": 2782,
      "Brit": 2783,
      "Ã¬dÃ¬": 2784,
      "19Ġ": 2785,
      "ett": 2786,
      "And": 2787,
      "shugabanĠ": 2788,
      "aikinĠ": 2789,
      "áĬŀáī½": 2790,
      "mus": 2791,
      "akarĠ": 2792,
      "otherĠ": 2793,
      "oroĠ": 2794,
      "anaĠk": 2795,
      "ĠáĬĲáīłáĪ©": 2796,
      "atiĠwaĠ": 2797,
      "áĪµáĬĵ": 2798,
      "Ġá»įjá»įÌģÃ¬bÃŃĠnÃŃĠ": 2799,
      "bar": 2800,
      "inter": 2801,
      "sannanĠ": 2802,
      "aĠK": 2803,
      "shekaruĠ": 2804,
      "May": 2805,
      "áĭ¬": 2806,
      "áĮĨáī½": 2807,
      "2-": 2808,
      "áĪ³áīµ": 2809,
      "Marekani": 2810,
      "aÉĹ": 2811,
      "Ġáĭ¨áīĢ": 2812,
      "aĠkas": 2813,
      "ijiĠ": 2814,
      "3)Ġ": 2815,
      "Ġáī°áī¥": 2816,
      "áĪŃáĪµáī²áĭ«áĬķ": 2817,
      "roup": 2818,
      "EnĠ": 2819,
      "cesĠ": 2820,
      "pop": 2821,
      "ejiĠ": 2822,
      "wakaziĠ": 2823,
      "landĠ": 2824,
      "eke": 2825,
      "ashiĠ": 2826,
      "Ġáīħáĭ±áĪµ": 2827,
      "bug": 2828,
      "áĭķáĪ«": 2829,
      "gwamn": 2830,
      "OktobaĠ": 2831,
      "eursĠ": 2832,
      "lik": 2833,
      "alm": 2834,
      "áº¹ÌĢká»įÌģĠ": 2835,
      "oke": 2836,
      "ys": 2837,
      "utuĠ": 2838,
      "báº¹Ìģ": 2839,
      "áĮįáĭļáĬłáī¥áĪĶáĪŃ": 2840,
      "kunĠ": 2841,
      "histor": 2842,
      "ani,Ġ": 2843,
      "ĠáĭŃáĮĪáĬĽ": 2844,
      "soci": 2845,
      "erg": 2846,
      "atuĠ": 2847,
      "ogoĠ": 2848,
      "³áĪµ": 2849,
      "áĪµáĪ«": 2850,
      "Ã¨rÃ©Ġ": 2851,
      "bayaĠ": 2852,
      "ech": 2853,
      "gar": 2854,
      "Ġáĭĵ/áĪĿĠ-": 2855,
      "ene": 2856,
      "Kus": 2857,
      "ĠáĪĿáĬŃáĬķáĭ«": 2858,
      "Wan": 2859,
      "ĠáĪ¨": 2860,
      "bin": 2861,
      "ireĠ": 2862,
      "áĭ¶áī½": 2863,
      "daĠt": 2864,
      "aka": 2865,
      "Ã²á¹£Ã¨": 2866,
      "uss": 2867,
      "wur": 2868,
      "wá»įÌģĠ": 2869,
      ".ĠÃĢwá»įnĠ": 2870,
      "ĠáĬ¨áĪĺ": 2871,
      "Ġá»įdÃºnĠ201": 2872,
      "itiĠ": 2873,
      "esĠetĠ": 2874,
      "áĪº": 2875,
      "lÃŃ": 2876,
      "ĠáīłáĭļáĪħ": 2877,
      "áī£áĪĪáĭį": 2878,
      "áĮ¥áĬķ": 2879,
      "Ã¬nrinĠ": 2880,
      "uleĠ": 2881,
      "lÃ³g": 2882,
      "ĠáĬłáĪī": 2883,
      "Franc": 2884,
      "ush": 2885,
      "vil": 2886,
      "áĮ£áĪį": 2887,
      "1)Ġ": 2888,
      "Min": 2889,
      "Tang": 2890,
      "ayoĠ": 2891,
      "Ã¬já»įbaĠ": 2892,
      "ar.": 2893,
      "wacceĠ": 2894,
      "áī¤áīµ": 2895,
      "eralĠ": 2896,
      "Sou": 2897,
      "azin": 2898,
      "er.": 2899,
      "áĬķáĬķ": 2900,
      "ciĠgab": 2901,
      "NiĠ": 2902,
      "br": 2903,
      "waĠkwaĠ": 2904,
      "balimb": 2905,
      "Oro": 2906,
      "kaĠ": 2907,
      "enn": 2908,
      "áĮĪáĬĵ": 2909,
      "áĮįáĪ«": 2910,
      "Hu": 2911,
      "car": 2912,
      "tonĠ": 2913,
      "endele": 2914,
      "tsakaninĠ": 2915,
      "alit": 2916,
      "Ġáĭ¨áĭĪ": 2917,
      "áĬŃáīµ": 2918,
      "nÃŃpaĠ": 2919,
      "gen": 2920,
      "aduĠ": 2921,
      "ogunĠ": 2922,
      "apoĠ": 2923,
      "Mas": 2924,
      "awoĠ": 2925,
      "arenĠ": 2926,
      "ilaĠ": 2927,
      "Ã¨gbÃ¨Ġ": 2928,
      "erĠ(": 2929,
      "áĮĪáī£": 2930,
      "kumaĠtaĠ": 2931,
      "Itali": 2932,
      "For": 2933,
      "Kam": 2934,
      "Ij": 2935,
      "us,Ġ": 2936,
      "Ġáº¹gbáº¹ÌģĠ": 2937,
      "ldĠ": 2938,
      "hadĠ": 2939,
      "Ã®": 2940,
      "Ġáĭ¨áĬĲáīłáĪ¨": 2941,
      "ĠáĬ¥.áĬ¤.áĬł.": 2942,
      "ristoĠ": 2943,
      "áī³áĭŃ": 2944,
      "ukanĠ": 2945,
      "áĬĴáĭ«": 2946,
      "nom": 2947,
      "25": 2948,
      "ĠáĬŃáįįáĪį": 2949,
      "áĬĸáĪŃ": 2950,
      "\"Ġ(": 2951,
      "err": 2952,
      "odeĠ": 2953,
      "áĪľáĬķ": 2954,
      "amfaninĠ": 2955,
      "Ġ/": 2956,
      "atinĠ": 2957,
      "rá»įÌĢĠ": 2958,
      "Ġáĭ²": 2959,
      "30": 2960,
      "ric": 2961,
      "ĠáĪŃ": 2962,
      "alif": 2963,
      "inay": 2964,
      "Willi": 2965,
      "Ãłti": 2966,
      "Ã³nĠ": 2967,
      "ĠáĭŃáī£": 2968,
      "azamaĠ": 2969,
      "bec": 2970,
      "wÃŃ": 2971,
      "HeĠ": 2972,
      "lor": 2973,
      "Re": 2974,
      "onĠtheĠ": 2975,
      "iyanĠ": 2976,
      "bÃŃiĠ": 2977,
      "Ã©kerÃ©Ġ": 2978,
      "Leg": 2979,
      "Ç¹": 2980,
      "áĪĪáī°": 2981,
      "ingerez": 2982,
      "ĠáĬłáĬ«áī£áī¢": 2983,
      "laf": 2984,
      "iusĠ": 2985,
      "omeĠ": 2986,
      "ĠáĬ¥áĬķáĮį": 2987,
      "áĭ°áĪ¨áĮĪ": 2988,
      "áĮ½áĪĲáįį": 2989,
      "LÃ¡": 2990,
      "isp": 2991,
      "gbá»įÌģnĠ": 2992,
      "fur": 2993,
      "enti": 2994,
      "If": 2995,
      "mag": 2996,
      "farans": 2997,
      "anzaĠ": 2998,
      "Farans": 2999,
      "Orodh": 3000,
      "sur": 3001,
      "Ġáįĸ": 3002,
      "premi": 3003,
      "omiĠ": 3004,
      "áĬķáį¡": 3005,
      "ÃłÃ¡": 3006,
      "áĪ«áĪį": 3007,
      "hanyarĠ": 3008,
      "en,Ġ": 3009,
      "Kik": 3010,
      "odaĠ": 3011,
      "Ãłt": 3012,
      "row": 3013,
      "embaĠ-Ġ": 3014,
      "dÃ©Ġ": 3015,
      "i)Ġ": 3016,
      "uuĠ": 3017,
      "imm": 3018,
      "aÆĻ": 3019,
      "áī£áĭŃ": 3020,
      "Char": 3021,
      "fromĠtheĠ": 3022,
      "iyyarĠ": 3023,
      "wasanĠÆĻwallonĠÆĻafaĠtaĠÆĻasarĠIngil": 3024,
      "ai,Ġ": 3025,
      "yÃŃ": 3026,
      "2)Ġ": 3027,
      "Pl": 3028,
      "áĪįáīħ": 3029,
      "Bab": 3030,
      "unĠm": 3031,
      "Od": 3032,
      "Eb": 3033,
      "Gab": 3034,
      "commeĠ": 3035,
      "n.": 3036,
      "ĠáĬłáīĨáĮ£áĮłáĪŃ": 3037,
      "http://": 3038,
      "áĮĪáĬķ": 3039,
      "yÃ©Ġ": 3040,
      "8)Ġ": 3041,
      "aĠc": 3042,
      "áĬķáĮĭ": 3043,
      "nÃŃĠÃ¬": 3044,
      "ĠáĬłáĬķáĭ±": 3045,
      "jag": 3046,
      "áĪ¨áĮį": 3047,
      "iyas": 3048,
      "anis": 3049,
      "Paul": 3050,
      "kuj": 3051,
      "aniĠyaĠ": 3052,
      "áĪŃáĭĿ": 3053,
      "áĮłáīĥ": 3054,
      "ĠáĮįáĭĽáīµ": 3055,
      "haÉĹ": 3056,
      "publ": 3057,
      "treĠ": 3058,
      "ther": 3059,
      ".ĠMan": 3060,
      "ĠáĬ¥áĭ«": 3061,
      "bl": 3062,
      "Ãłp": 3063,
      "áīĢáĪŃ": 3064,
      "áįĪáĪŃ": 3065,
      "NÃłÃ¬jÃŃrÃŃÃł.": 3066,
      "i:Ġ": 3067,
      "atesĠ": 3068,
      "Jos": 3069,
      "aoĠ": 3070,
      "arib": 3071,
      "áĭµáĪŀ": 3072,
      "áī³áĪį": 3073,
      "VĠ": 3074,
      "áĮĪáĪĪ": 3075,
      "Lond": 3076,
      "nÃłĠ": 3077,
      "awal": 3078,
      "stit": 3079,
      "Ts": 3080,
      "Ã©c": 3081,
      "âĢİ": 3082,
      "áĮİáĪŃ": 3083,
      "ĠáĬ¨áī°áĪŀáī½": 3084,
      "á»įÌģkasÃŃĠ": 3085,
      "L'": 3086,
      "iyeĠ": 3087,
      "15Ġ": 3088,
      "niĠnaĠ": 3089,
      "okac": 3090,
      "ĠáĬłáĪĭ": 3091,
      "tsoh": 3092,
      "iwaĠnaĠ": 3093,
      "Oc": 3094,
      "mb": 3095,
      "áįĢ": 3096,
      "áĭŃáĬĵ": 3097,
      "áį£ĠáĬ¨": 3098,
      "ĠáĬ¥áĬķáĭ°áĪļ": 3099,
      "ilip": 3100,
      "pres": 3101,
      "Ipin": 3102,
      "yad": 3103,
      "áīµáĪŃ": 3104,
      "OrodhaĠyaĠ": 3105,
      "lÃ¡n": 3106,
      "Mad": 3107,
      "yl": 3108,
      "ham": 3109,
      "ĠáĬĥáĭŃ": 3110,
      "ĠáĪ¶": 3111,
      "áĭ°áīµ": 3112,
      "áº¹Ìģrá»įÌģ": 3113,
      "gáº¹Ìģgáº¹ÌģĠbÃŃĠ": 3114,
      "Ã¡st": 3115,
      "ÆĻas": 3116,
      "lughaĠyaĠ": 3117,
      "iĠniĠ": 3118,
      "12Ġ": 3119,
      "baadaĠ": 3120,
      "BKĠ(BaadaĠyaĠKristo).ĠMatukioĠWaliozaliwaĠ": 3121,
      "Ã¡stáº¹Ìģrá»įÌģ": 3122,
      "Ir": 3123,
      "Ġáº¹láº¹Ìģ": 3124,
      "NijeriyaĠ": 3125,
      ",000Ġ": 3126,
      "Europ": 3127,
      "já»į": 3128,
      "áĬĺ": 3129,
      "itaĠceĠ": 3130,
      "osh": 3131,
      "ojo": 3132,
      "Ger": 3133,
      "Najeriya.": 3134,
      "me": 3135,
      "Lib": 3136,
      "prÃ©s": 3137,
      "pÃ¨Ġ": 3138,
      "áī¥áĪµ": 3139,
      "áĪĽáĬĸ": 3140,
      "Wh": 3141,
      "Di": 3142,
      "BabbanĠ": 3143,
      "och": 3144,
      "30Ġ": 3145,
      "ĠáĭŃáī½": 3146,
      "hasĠ": 3147,
      "Musul": 3148,
      "ĠáĪĽáĪŃ": 3149,
      "occ": 3150,
      "ĠáĪģáĪĪáīµ": 3151,
      "áĪĪáĭ«áĭ©": 3152,
      "kungiyarĠ": 3153,
      "tÃ¬Ġk": 3154,
      "emĠ": 3155,
      "wá»įÌĢ": 3156,
      "Ã¹ĠK": 3157,
      "AmerikaĠ": 3158,
      "áĪı": 3159,
      "áĪĳ": 3160,
      "kumaĠm": 3161,
      "áĪ°áĪ«": 3162,
      "Jamhur": 3163,
      "ionsĠ": 3164,
      "DagaĠ": 3165,
      "áīµĠáĬ¨": 3166,
      "War": 3167,
      "fl": 3168,
      "áĬ¬": 3169,
      ",ĠÃ³Ġ": 3170,
      "áĬŃáĪµ": 3171,
      "ĠáĭĺáĪĺ": 3172,
      "mÃ©j": 3173,
      "Ã²á¹£Ã¨rÃ©Ġ": 3174,
      "ĠáĪ¸": 3175,
      "yanz": 3176,
      "kund": 3177,
      "iya.Ġ": 3178,
      "sÃŃláº¹ÌĢĠ": 3179,
      "202": 3180,
      "ughĠ": 3181,
      "Tib": 3182,
      "ustĠ": 3183,
      "mÃ¬n": 3184,
      "ĠáĪĿáĬķáĮ": 3185,
      "Dec": 3186,
      "ackĠ": 3187,
      "áĭĸ": 3188,
      "Ġáī´": 3189,
      "tÃ¬Ġ": 3190,
      "Ġáĭ©": 3191,
      "nÃŃĠibiĠ": 3192,
      "áį¦Ġ": 3193,
      ",000": 3194,
      "sec": 3195,
      "Kas": 3196,
      "táº¹Ìģ": 3197,
      "Ùħ": 3198,
      "azart": 3199,
      "áĭ¨áīµ": 3200,
      "áº¸": 3201,
      "daĠtaĠ": 3202,
      "yaw": 3203,
      "tang": 3204,
      "17Ġ": 3205,
      "Ã¢": 3206,
      "áĪĪáĭŃ": 3207,
      "lÃ¡raĠ": 3208,
      "ĠáĬłáīłáī£": 3209,
      "Be": 3210,
      "Ah": 3211,
      "14Ġ": 3212,
      "s'": 3213,
      "mas": 3214,
      "niĠwá»įÌģnĠ": 3215,
      "utanenĠ": 3216,
      "ĠáĪĮáĪĭ": 3217,
      "jÃº": 3218,
      "yankinĠ": 3219,
      "ameĠ": 3220,
      "abl": 3221,
      "Ã¡stáº¹Ìģrá»įÌģÃ¬dÃ¬": 3222,
      "ight": 3223,
      "tal": 3224,
      "ÃłkÃ³": 3225,
      "]Ġ": 3226,
      "jih": 3227,
      "arch": 3228,
      "Ã¬má»įÌĢĠ": 3229,
      "amaĠm": 3230,
      "ull": 3231,
      "ĠáĭĪáīħ": 3232,
      "ĠáĭĺáĪĺáĬĲ": 3233,
      "pat": 3234,
      "ilis": 3235,
      "bÃ¹nĠ": 3236,
      "ink": 3237,
      "Ãĵ": 3238,
      "al,Ġ": 3239,
      "jáº¹ÌģĠp": 3240,
      "say": 3241,
      "Igb": 3242,
      "Mis": 3243,
      "Ser": 3244,
      "garinĠ": 3245,
      "old": 3246,
      "40": 3247,
      "iop": 3248,
      "Ã©tÃ©Ġ": 3249,
      "³áį": 3250,
      "áīµĠáĬł": 3251,
      "áĪĿáĪŃ": 3252,
      "áĪĺáĪ¨": 3253,
      "áĭ°áĪį": 3254,
      "Kad": 3255,
      "onÃŃ": 3256,
      "Ufarans": 3257,
      "áī±áĪĿ": 3258,
      "ĠáĭĵáĪĺáī³áīµ": 3259,
      "ĠáĪĥáĭŃ": 3260,
      "NewĠYor": 3261,
      "ĠáĮ¦áĪŃáĬĲáīµ": 3262,
      "Kir": 3263,
      "isiĠ": 3264,
      "áĮįáī£": 3265,
      "etteĠ": 3266,
      "NationalĠ": 3267,
      "ina": 3268,
      "áĪŃáĪĺáĬķ": 3269,
      "arĠk": 3270,
      "ĠáĬ¥áĬĵĠáĭ¨": 3271,
      "falmeĠ": 3272,
      "oĠl": 3273,
      "áĪįáĮį": 3274,
      "ĠáĪµáĪ«": 3275,
      "áĪªáĬ«áĭĬ": 3276,
      "ult": 3277,
      "aĠS": 3278,
      "baĠdaĠ": 3279,
      "Ġ-Ġ": 3280,
      "ĠáĪµáĪŃ": 3281,
      "Ġáĭ¨áĪĺáĮĢáĪĺáĪªáĭ«": 3282,
      "Kim": 3283,
      "zaid": 3284,
      "wajenĠ": 3285,
      "Ã¨tÃ²Ġ": 3286,
      "IpinleĠ": 3287,
      "9)Ġ": 3288,
      "wig": 3289,
      "ĠáĪ²áĭ«": 3290,
      "okinĠ": 3291,
      "já»įÌģ": 3292,
      "lamb": 3293,
      "wÃłĠnÃŃĠ": 3294,
      "ĠáĬłáĭŃáĬĲáīµ": 3295,
      "ĠApr": 3296,
      "ĠáĬłáĪ¨": 3297,
      "áĪĲáĬķáĪµ": 3298,
      "Ob": 3299,
      "Yun": 3300,
      "Ã©m": 3301,
      "áĪĭáĪĪ": 3302,
      "áĮłáĪ¨": 3303,
      "akarantarĠ": 3304,
      "dev": 3305,
      "lÃ¡náº¹Ìģ": 3306,
      "ojoibiĠ": 3307,
      "du": 3308,
      "áĪŃáĭµ": 3309,
      "áĪįáĭµ": 3310,
      "2020": 3311,
      "jÃ¡deĠ": 3312,
      "ĠáĬĲáīłáĪ¨áį¢": 3313,
      "des": 3314,
      "áīłáī¥": 3315,
      "ĠáĭŃáī³": 3316,
      "iyaĠtaĠ": 3317,
      "áĭ®áĬķ": 3318,
      "lá»įĠsÃŃĠ": 3319,
      "koaĠwaĠ": 3320,
      "dr": 3321,
      "ĠáĭĽ": 3322,
      "atarĠdaĠ": 3323,
      "áĭįĠáīł": 3324,
      "iĠh": 3325,
      "mak": 3326,
      "ightĠ": 3327,
      "áĭĵáĪĪáĪĿ": 3328,
      "Ã©l": 3329,
      "185": 3330,
      "áĪĿáį¡": 3331,
      "ref": 3332,
      "as,Ġ": 3333,
      "áĬĲáĮĪáĪŃ": 3334,
      "Ġáį²áį±áį»áį": 3335,
      "áįįáĪ«": 3336,
      "áĭįáĪ®áįĵ": 3337,
      "sel": 3338,
      "ilom": 3339,
      "ondĠ": 3340,
      "haveĠ": 3341,
      "kÃ²": 3342,
      "Ã¬gb": 3343,
      "uhur": 3344,
      "orÃŃláº¹ÌĢĠÃ¨dÃ¨Ġ": 3345,
      "Ã¬gbÃłjÃ¡Ġ": 3346,
      "unc": 3347,
      "icsĠ": 3348,
      "tÃ¬ĠkÃ©kerÃ©Ġ": 3349,
      "azarta": 3350,
      "aireĠ": 3351,
      "3-": 3352,
      "ĠáĬ¥áĪŃ": 3353,
      "16Ġ": 3354,
      "Ã¬gbÃłĠ": 3355,
      "ĠáĭĪáĪŃ": 3356,
      "quesĠ": 3357,
      "thisĠ": 3358,
      "resĠ": 3359,
      "WorldĠ": 3360,
      "lÃ¡náº¹ÌģtÃ¬ĠkÃ©kerÃ©Ġ": 3361,
      "ideĠ": 3362,
      "ĠáĬĲáĮĪáĪ¥áī³áīµ": 3363,
      "dif": 3364,
      "ĠáĪłáĪ": 3365,
      "áĮĢáĪĺáĪŃáĭ«": 3366,
      "ĠáĪĮáĪİáī½": 3367,
      "tele.Ġ": 3368,
      "nj": 3369,
      "alementĠ": 3370,
      "ĠáĬ³áĪµ": 3371,
      "eraĠ": 3372,
      "ĠáĬ¥áĮħ": 3373,
      "fÃºn": 3374,
      "gin": 3375,
      "ukuĠ": 3376,
      "shiry": 3377,
      "Comm": 3378,
      "nÃŃĠibiĠÃ¬gbÃłjÃ¡Ġ": 3379,
      "wÃ²": 3380,
      "áĪĭáĪĿ": 3381,
      "iyyaĠ": 3382,
      "sĠdeĠ": 3383,
      "ulik": 3384,
      "lÃ¡náº¹ÌģtÃ¬ĠkÃ©kerÃ©ĠnÃŃĠibiĠÃ¬gbÃłjÃ¡Ġ": 3385,
      "Part": 3386,
      "Abd": 3387,
      "On": 3388,
      "e:Ġ": 3389,
      "aliĠyaĠ": 3390,
      "uĠzaĠ": 3391,
      "ĠáĪĽáĪµ": 3392,
      "ojÃºĠ": 3393,
      "Mor": 3394,
      "ĠáĬ©": 3395,
      "let": 3396,
      "takatifuĠ": 3397,
      "áĭĮ": 3398,
      "atĠtheĠ": 3399,
      "BayanĠ": 3400,
      "theirĠ": 3401,
      "fáº¹ÌģĠ": 3402,
      "oĠtaĠ": 3403,
      "áīµáį£": 3404,
      "ĠáĪĽáĪĪáīµĠáĬĲáĭįáį¢": 3405,
      "Amáº¹ÌģrÃŃkÃł": 3406,
      "Sec": 3407,
      "daĠyaĠ": 3408,
      "kumaĠyaĠ": 3409,
      "jáº¹ÌģĠplÃ¡náº¹ÌģtÃ¬ĠkÃ©kerÃ©ĠnÃŃĠibiĠÃ¬gbÃłjÃ¡Ġ": 3410,
      "11Ġ": 3411,
      "Rob": 3412,
      "MataĠ": 3413,
      "ars": 3414,
      "elyĠ": 3415,
      "AfricanĠ": 3416,
      "overn": 3417,
      "®áī½": 3418,
      "jirg": 3419,
      "akaĠm": 3420,
      "i,Ġm": 3421,
      "ĠAg": 3422,
      "Ex": 3423,
      "cor": 3424,
      "Æĺ": 3425,
      "áĭ°áī¡áī¥": 3426,
      "awa,Ġ": 3427,
      "ĠáĪĿáĭµáĪŃ": 3428,
      "daĠyawanĠ": 3429,
      "Lugh": 3430,
      "nunaĠ": 3431,
      "on.": 3432,
      "áīłáĪĭ": 3433,
      "ĠáĪįáĭ©": 3434,
      "jáº¹ÌģĠplÃ¡náº¹ÌģtÃ¬ĠkÃ©kerÃ©ĠnÃŃĠibiĠÃ¬gbÃłjÃ¡ĠÃ¡stáº¹Ìģrá»įÌģÃ¬dÃ¬": 3435,
      "cap": 3436,
      "áĬĵĠáĭ¨": 3437,
      "forĠtheĠ": 3438,
      "AmericanĠ": 3439,
      "Her": 3440,
      "Mach": 3441,
      "áĪªáĭİáī½": 3442,
      "áįĪáĪ¨áĬķ": 3443,
      "anyaĠ": 3444,
      "eny": 3445,
      "áĪµáĪĪ": 3446,
      "áĮ£áĪĿ": 3447,
      "not": 3448,
      "oleĠ": 3449,
      "Eth": 3450,
      "aud": 3451,
      "naĠku": 3452,
      "Bal": 3453,
      "Ã©ri": 3454,
      "rem": 3455,
      "Afrik": 3456,
      "sup": 3457,
      "lÃ¡ti": 3458,
      "wasanĠk": 3459,
      "ivyoĠ": 3460,
      "isi": 3461,
      "Pop": 3462,
      "dauk": 3463,
      "áī¶áĪµ": 3464,
      "áĬĵĠáīł": 3465,
      "stitut": 3466,
      "âĢ¢": 3467,
      "Colleg": 3468,
      "23": 3469,
      "bor": 3470,
      "ĠáĪĿáĬķ": 3471,
      "popul": 3472,
      "Kud": 3473,
      "SĠ": 3474,
      "red": 3475,
      "ĠáĭķáĪĪáīµ": 3476,
      "iong": 3477,
      "/Ġ": 3478,
      "yÃłĠ": 3479,
      "Ġáĭľ": 3480,
      "áīĢáīµ": 3481,
      "YorÃ¹bÃ¡Ġ": 3482,
      "&Ġ": 3483,
      "King": 3484,
      "ĠáĭĻ": 3485,
      "áĬ¨áĭļáĪħ": 3486,
      "ostiĠ": 3487,
      "áĭĪáĭ°": 3488,
      "filamuĠ": 3489,
      "áĭ²áĪµĠáĬłáīłáī£": 3490,
      "60": 3491,
      "ce,Ġ": 3492,
      "má»įÌģĠ": 3493,
      "ÙĬ": 3494,
      "áī²áĬ«": 3495,
      "áĮ¨áĪĽáĪª": 3496,
      "sesĠ": 3497,
      "áĭ«áĭį": 3498,
      "Ku": 3499,
      "ĠáĬłáĭį": 3500,
      "pasĠ": 3501,
      "Ã¡r": 3502,
      "Dr": 3503,
      "áĭİáĪµ": 3504,
      ",ĠtheĠ": 3505,
      "Ã©.": 3506,
      "kal": 3507,
      "ta,Ġ": 3508,
      "k.": 3509,
      "wÃ©Ġ": 3510,
      "onc": 3511,
      "27": 3512,
      "NÃŃĠ": 3513,
      "ĠØ": 3514,
      "eĠniĠ": 3515,
      "Ãłá¹£": 3516,
      "áĪĭáīħ": 3517,
      "1,": 3518,
      "litt": 3519,
      "UniversityĠofĠ": 3520,
      "pers": 3521,
      "sit": 3522,
      "tabiĠ": 3523,
      "áĮ¢": 3524,
      "ayarĠ": 3525,
      "utum": 3526,
      "ouldĠ": 3527,
      "ver": 3528,
      "centur": 3529,
      "Fiz": 3530,
      "ĠáĪĽáĭķ": 3531,
      "keĠ": 3532,
      "wana": 3533,
      "áĪ¹": 3534,
      "13Ġ": 3535,
      "wambaĠ": 3536,
      "harib": 3537,
      "ationĠofĠ": 3538,
      "(201": 3539,
      "Sain": 3540,
      "aaĠ": 3541,
      "imoĠ": 3542,
      "áĬ¨áĪĪ": 3543,
      "ananĠhukum": 3544,
      "'Y": 3545,
      "Aug": 3546,
      "eauĠ": 3547,
      "ĠáīĥáĪį": 3548,
      "istanĠ": 3549,
      "InternationalĠ": 3550,
      "New": 3551,
      "Ann": 3552,
      "jáº¹ÌģĠplÃ¡náº¹ÌģtÃ¬ĠkÃ©kerÃ©ĠnÃŃĠibiĠÃ¬gbÃłjÃ¡ĠÃ¡stáº¹Ìģrá»įÌģÃ¬dÃ¬.ĠItokasiĠ": 3553,
      "Er": 3554,
      "kunaĠ": 3555,
      "184": 3556,
      "fas": 3557,
      "agesĠ": 3558,
      "sch": 3559,
      "aká»į": 3560,
      "áĬ¢áīµáĭ®áĮµáĭ«": 3561,
      "taĠyiĠ": 3562,
      "áĪĭáĭĬ": 3563,
      "Ġáī¥áĪİ": 3564,
      "samunĠ": 3565,
      "gbajÃº": 3566,
      "ĠáĬ¨áįįáī°áĬĽ": 3567,
      "unanĠ": 3568,
      "gudan": 3569,
      "Op": 3570,
      "Ky": 3571,
      "áĪĭáĬŃ": 3572,
      "áīłáĪį": 3573,
      "ellĠ": 3574,
      "áĮįáĪŃĠáĬ³áĪµ": 3575,
      "He": 3576,
      "¹¢": 3577,
      "mod": 3578,
      "áĭ°áĪĿ": 3579,
      "ĠáĬłáĪµáī°áĭ³": 3580,
      "áī«": 3581,
      "mÃºĠ": 3582,
      "áī¨": 3583,
      "Ġáīłáī¥": 3584,
      "áīłáĭļáĪħ": 3585,
      "ĠáīµáĪĿáĪħáĪŃáīµ": 3586,
      "ĠáĭĭáĬĵĠáĬ¨áī°áĪĽ": 3587,
      "oin": 3588,
      "Iá¹£": 3589,
      "hab": 3590,
      "jiĠwaĠ": 3591,
      "áīµĠáį": 3592,
      "áĬĵĠáĪĺ": 3593,
      "Aj": 3594,
      "MwakaĠ": 3595,
      "lÃº": 3596,
      "ĠáĬłáĪ«": 3597,
      "áīĢáĪĺ": 3598,
      "ĠáĪĪáĪĿ": 3599,
      "rÃ©g": 3600,
      "Dis": 3601,
      "atarĠ": 3602,
      "un,Ġ": 3603,
      "Mashar": 3604,
      "dom": 3605,
      "Ġáī£áĪħ": 3606,
      "IIĠ": 3607,
      "ship": 3608,
      "chang": 3609,
      "Ġáī°áĪ«": 3610,
      "áīĢáĭį": 3611,
      "áĪĬáĭ«": 3612,
      "Ġáĭ¨áĮį": 3613,
      "Se": 3614,
      "zaiĠ": 3615,
      "100": 3616,
      "ortĠ": 3617,
      "als": 3618,
      "orÃºká»įĠ": 3619,
      "18Ġ": 3620,
      "Najeriya,Ġ": 3621,
      "w.": 3622,
      "yab": 3623,
      "áįĮ": 3624,
      "ÃłgbÃ©": 3625,
      "kuwaĠm": 3626,
      "áĭ®áī½": 3627,
      "cut": 3628,
      "ime": 3629,
      "kutokaĠMarekani": 3630,
      "GhanaĠ": 3631,
      "ertĠ": 3632,
      "katikaĠ": 3633,
      "Ġ(áĬ¨": 3634,
      "âĢĶ": 3635,
      "entreĠ": 3636,
      "anb": 3637,
      "TazamaĠ": 3638,
      "lokac": 3639,
      "Ãºgb": 3640,
      "chiniĠyaĠ": 3641,
      "JulaiĠ": 3642,
      "osoĠ": 3643,
      "Bay": 3644,
      "Ug": 3645,
      "ĠáĪĦ": 3646,
      "Ġáĭ®áĪĲáĬķáĪµ": 3647,
      "t,Ġ": 3648,
      "anti": 3649,
      "28": 3650,
      "mÃŃ": 3651,
      "nÃŃbiĠ": 3652,
      "Fiziki": 3653,
      "24": 3654,
      "Cr": 3655,
      "wa.": 3656,
      "Ã¬nĠ": 3657,
      "ĠáĬłáįį": 3658,
      "iaĠ(": 3659,
      "áĭĪáĮ£": 3660,
      "sÃ¬nĠ": 3661,
      "ikeĠ": 3662,
      "AwonĠ": 3663,
      "Dav": 3664,
      "kamarĠ": 3665,
      "á»įÌģk": 3666,
      "áīłáĪ«": 3667,
      "áī³áĭį": 3668,
      "ectĠ": 3669,
      "Ek": 3670,
      "JanuariĠ": 3671,
      "uĠniĠ": 3672,
      "0)Ġ": 3673,
      "lo": 3674,
      "ulĠ": 3675,
      "aâĢĻ": 3676,
      "canĠ": 3677,
      "tab": 3678,
      "beenĠ": 3679,
      "áĮĬáĭľ": 3680,
      "Ġ(áĬ¥": 3681,
      "anĠhaifeĠshiĠaĠshekaraĠtaĠ": 3682,
      "sol": 3683,
      "ureĠ": 3684,
      "Â»Ġ": 3685,
      "Gir": 3686,
      "ĠáĬłáĪĽ": 3687,
      "Ġáī¥áĪŃ": 3688,
      "wish": 3689,
      "áīłáī°": 3690,
      "wakil": 3691,
      "Ġáį¡áį¡": 3692,
      "arwaĠ": 3693,
      "AareĠ": 3694,
      "ÙĨ": 3695,
      "iĠ-Ġ": 3696,
      "Med": 3697,
      "e,Ġm": 3698,
      "n,Ġ": 3699,
      "aĠjiharĠ": 3700,
      "ĠáĬ¨áĪļ": 3701,
      "áĪ³áĭĬ": 3702,
      "ĠáĭŃáī³áĭĪ": 3703,
      "www.": 3704,
      "Award": 3705,
      "ony": 3706,
      "NigerianĠ": 3707,
      "dag": 3708,
      "á¹£eĠ": 3709,
      "lab": 3710,
      "áĬĸáĪµ": 3711,
      "erc": 3712,
      "iĠkar": 3713,
      "uisĠ": 3714,
      "sheĠ": 3715,
      "oseĠ": 3716,
      "ĠdinĠ": 3717,
      "waik": 3718,
      "Uk": 3719,
      "waÉĹ": 3720,
      "ĠáĪ¥áĪ«": 3721,
      "NÃłÃ¬jÃŃrÃŃÃł": 3722,
      "ativeĠ": 3723,
      "Fir": 3724,
      "sim": 3725,
      "inat": 3726,
      "áĪĿáį£": 3727,
      "áĪ«áĪ±": 3728,
      "fÃ©r": 3729,
      "Kh": 3730,
      "lĠ": 3731,
      "má»įÌĢ": 3732,
      "yamm": 3733,
      "ĠáĬ£": 3734,
      "akaĠk": 3735,
      "Ġ(áĭ¨": 3736,
      "áĪ³áī¥": 3737,
      ")Ġáĭ¨": 3738,
      "ment": 3739,
      "áĮĪáĪ©": 3740,
      "yÃ³": 3741,
      "áĬķáī²": 3742,
      "waĠniĠ": 3743,
      "itwaĠ": 3744,
      "áī£áī¸áĭį": 3745,
      "ibiyarĠ": 3746,
      "ĠáĬ¥áĬķáĭ²áĪģáĪĿ": 3747,
      "waikway": 3748,
      "Of": 3749,
      "gunĠ": 3750,
      "umeĠ": 3751,
      "oundĠ": 3752,
      "25Ġ": 3753,
      "amin": 3754,
      "taĠkasanceĠ": 3755,
      "aisĠwaĠ": 3756,
      "tionsĠ": 3757,
      "hadaĠ": 3758,
      "á¹£Ã¨": 3759,
      "osel": 3760,
      "ĠáīĭáĬķáīĭáĭİáī½": 3761,
      "26": 3762,
      "iĠneĠ": 3763,
      "uataĠ": 3764,
      "orig": 3765,
      "ocr": 3766,
      "Yar": 3767,
      "daĠakeĠ": 3768,
      "áĭĪáĪ°": 3769,
      "ier": 3770,
      "commun": 3771,
      "'y": 3772,
      "S.": 3773,
      "iti": 3774,
      "Go": 3775,
      "oryĠ": 3776,
      "ká»į": 3777,
      "ĠáĪ±": 3778,
      "jÃ¹lá»įĠ": 3779,
      "eniĠ": 3780,
      "alikuwaĠm": 3781,
      "Engl": 3782,
      "Atl": 3783,
      "...": 3784,
      "cel": 3785,
      "alib": 3786,
      "ed.": 3787,
      "etaĠ": 3788,
      "io": 3789,
      "la": 3790,
      "Sar": 3791,
      "ihinĠ": 3792,
      "kiĠ": 3793,
      "Az": 3794,
      "gÃŃ": 3795,
      "Ġáĭ¶": 3796,
      "isiwaĠ": 3797,
      "offic": 3798,
      "serik": 3799,
      "áĪįáĪµ": 3800,
      "kn": 3801,
      "áĭĲ": 3802,
      "ĠáĬ¨áĭļáĭ«": 3803,
      "kan": 3804,
      "taf": 3805,
      "tatt": 3806,
      "'yanĠ": 3807,
      "ĠáĬłáĪľáĪªáĬ«": 3808,
      "ĠáĭĪáĬķáĭµ": 3809,
      "ĠáĪĪáĬł": 3810,
      "áĬĸáĪ©": 3811,
      "hakaĠ": 3812,
      "tureĠ": 3813,
      "áĭŃáĬķ": 3814,
      "ĠáĪĺáĮł": 3815,
      "Ġ4": 3816,
      "famil": 3817,
      "ĠáĪª": 3818,
      "agbÃ¨gbÃ¨Ġ": 3819,
      "unt": 3820,
      "inf": 3821,
      "Awá»įnĠ": 3822,
      "Ġáī½": 3823,
      "áįĪáĭį": 3824,
      "Ġáĭ°áĪ¨áĮĥ": 3825,
      "produc": 3826,
      "Uch": 3827,
      "ĠáĬłáĭµáĪŃ": 3828,
      "Ġáĭ¨áĪħ": 3829,
      "iĠyaĠK": 3830,
      "áĪ¬áīµ": 3831,
      "gudaĠ": 3832,
      "girm": 3833,
      "ararĠ": 3834,
      "ÃłgbÃłĠ": 3835,
      "ori": 3836,
      "adinĠ": 3837,
      "fran": 3838,
      "ĠáĪĨáĬĲáį¢": 3839,
      "báº¹Ìģáº¹ÌĢĠ": 3840,
      "hum": 3841,
      "ISB": 3842,
      "conc": 3843,
      "anzish": 3844,
      "ĠáĭĵáĬŃáĪįáīł.ĠáĮį": 3845,
      "rad": 3846,
      "ĠF": 3847,
      "ÃĮj": 3848,
      "wigiz": 3849,
      "ywo": 3850,
      "áĪµáįĭ": 3851,
      "ĠáĪĺáĪ°": 3852,
      "orÃŃĠ": 3853,
      "score": 3854,
      "8-": 3855,
      "áįĲ": 3856,
      "iaĠnaĠ": 3857,
      "Ġáĭ¨áĬ¤": 3858,
      "ĠáĪ¥áĬĲ": 3859,
      "ViungoĠvyaĠnjeĠ": 3860,
      "atolikiĠ": 3861,
      "eanĠ": 3862,
      "hasaĠ": 3863,
      "nuĠ": 3864,
      "áįįáīµ": 3865,
      "áīĥáĪµ": 3866,
      "áĪĬáĬŃ": 3867,
      "samiĠ": 3868,
      "Os": 3869,
      "u.Ġ": 3870,
      "áĬķáį£": 3871,
      "áĪĪáĭ°": 3872,
      "iĠwaĠm": 3873,
      "waf": 3874,
      "AN": 3875,
      "rin": 3876,
      "partic": 3877,
      "rib": 3878,
      "kuh": 3879,
      "áĬĻ": 3880,
      "áĪŃáĪµáī¶áĪµ": 3881,
      "Ã¬dÃŃ": 3882,
      "ĠáĭĪáĬķáĭĿ": 3883,
      "ĠAgostiĠ": 3884,
      "Sik": 3885,
      "le-": 3886,
      "Ġáĭ«áĪµ": 3887,
      "oyÃ¨Ġ": 3888,
      "juuĠyaĠ": 3889,
      "ewarĠ": 3890,
      "21Ġ": 3891,
      "KwaĠ": 3892,
      "Chin": 3893,
      "ÉĹayaĠ": 3894,
      "gid": 3895,
      "amuz": 3896,
      "áĪĿáĬĲáīµ": 3897,
      "umaĠ": 3898,
      "bayyanaĠ": 3899,
      "Kib": 3900,
      "Ã¬b": 3901,
      "iĠyaĠk": 3902,
      "iĠmaiĠ": 3903,
      "Ġáī°áī¥áĪİ": 3904,
      "ĠdesĠ": 3905,
      "áĭĭáīĤ": 3906,
      "AS": 3907,
      "etĠdeĠ": 3908,
      "ĠáīłáīĢ": 3909,
      "ĠáĪįáĮĨáī½": 3910,
      "duniyaĠ": 3911,
      "DuniyaĠ": 3912,
      "alifĠ": 3913,
      "withĠtheĠ": 3914,
      "má»įĠ": 3915,
      "áĬĲáĭį": 3916,
      "Ãłráº¹Ġ": 3917,
      "ĠáĬĲáīłáĪ©áį¢": 3918,
      "nor": 3919,
      "ItĠ": 3920,
      "din": 3921,
      "yawanĠ": 3922,
      ")ĠniĠ": 3923,
      "watoĠ": 3924,
      "ĠáĮ¥áīħáĪĿ": 3925,
      "ĠáĭĿáĪŃáĭĿ": 3926,
      "yank": 3927,
      "áĪįáį£": 3928,
      "asĠtheĠ": 3929,
      "A.": 3930,
      "pre": 3931,
      "wa,Ġ": 3932,
      "iter": 3933,
      "erĠofĠ": 3934,
      "polit": 3935,
      "yayinĠ": 3936,
      "ĠáīłáĮį": 3937,
      "áĪĪáĪĽ": 3938,
      "ĠáĮŃ": 3939,
      "adem": 3940,
      "Ġkm": 3941,
      "sikuĠ": 3942,
      "ĠáĬŃáįįáĪĪĠáĭĺáĪĺáĬķ": 3943,
      "Are": 3944,
      "80": 3945,
      "kaf": 3946,
      "oĠsiĠ": 3947,
      "iĠnaĠm": 3948,
      "walej": 3949,
      "Co": 3950,
      "babb": 3951,
      "aff": 3952,
      "áīŃ": 3953,
      "áīµĠáĭŃ": 3954,
      "ation,Ġ": 3955,
      "tÃŃĠÃ³ĠsÃ¬Ġ": 3956,
      "parti": 3957,
      ".ĠItokasiĠÃĢwá»įnĠ": 3958,
      "2Ġáĭĵ.áĪĿ.": 3959,
      "so": 3960,
      "áĪ¥áĪ«": 3961,
      "incl": 3962,
      "Ber": 3963,
      "Nd": 3964,
      "San": 3965,
      "whoĠ": 3966,
      "JuniĠ": 3967,
      "Wal": 3968,
      "má»į": 3969,
      "áĮĪáĪ«": 3970,
      "ThisĠ": 3971,
      "|ĠRD1-": 3972,
      "24Ġ": 3973,
      "ientĠ": 3974,
      "sub": 3975,
      "arm": 3976,
      "eĠdansĠ": 3977,
      "Alex": 3978,
      "ton": 3979,
      "ven": 3980,
      "Ġáĭ¨áĭį": 3981,
      "usiĠ": 3982,
      "ai.": 3983,
      "ĠáĮįáī¥": 3984,
      "ĠÂ«áĭ¨": 3985,
      "Ãłká»įÌģká»įÌģĠ": 3986,
      "Dem": 3987,
      "asil": 3988,
      "kutokaĠMarekaniĠ": 3989,
      "ĠáĪĺáĬķáĮĪáĭµ": 3990,
      "ÃłmÃ¬": 3991,
      "The": 3992,
      "Cor": 3993,
      "Del": 3994,
      "OrÃŃ": 3995,
      "lÃ¹": 3996,
      "áĪĪáī²áĬ«": 3997,
      "Ġáĭ¨áĬ¢": 3998,
      "áĪ½áĬķ": 3999,
      "eĠdeĠlaĠ": 4000,
      "amiĠ": 4001,
      "usi": 4002,
      "Ethiop": 4003,
      "Mich": 4004,
      "Äģ": 4005,
      "peke": 4006,
      "áĮłáīħ": 4007,
      "Ġáī¥áĪĶ": 4008,
      "ĠáĮ¥áĬĵáīµ": 4009,
      "portĠ": 4010,
      "jagor": 4011,
      "ye": 4012,
      "6-": 4013,
      "ÃłwonĠ": 4014,
      "áĭĪáī½": 4015,
      "ĠáĮ¥áĬķ": 4016,
      "sunanĠ": 4017,
      "iki.": 4018,
      "ginaĠ": 4019,
      "sign": 4020,
      "aih": 4021,
      "awalaĠ": 4022,
      "ĠáĬłáĪģ": 4023,
      "ourn": 4024,
      "anyanĠ": 4025,
      "aĠlokacinĠ": 4026,
      "Pap": 4027,
      "áĭŃáīµ": 4028,
      "ĠáĪĺáĮ½áĪĲáįį": 4029,
      "áĪ®áĪµ": 4030,
      "áĬĶáī³": 4031,
      "áĪĺáĬĵáĭĬ": 4032,
      "padÃłĠ": 4033,
      "fac": 4034,
      "dishiĠ": 4035,
      "áĪĭáĭį": 4036,
      "áĭŃáĭĪáīµ": 4037,
      "wÃŃpÃ©Ġ": 4038,
      "ungu": 4039,
      "dok": 4040,
      "Oy": 4041,
      "ĠáĪ®": 4042,
      "ĠáĬ¨áĬĲ": 4043,
      "áĭĺáĮĭ": 4044,
      "Ni": 4045,
      "dang": 4046,
      "awarĠ": 4047,
      "incip": 4048,
      "áĪŁ": 4049,
      "nÃŃĠÃ¬lÃºĠ": 4050,
      "Pres": 4051,
      "pakaĠ": 4052,
      "sÃ³": 4053,
      "oá¹£Ã¹Ġkáº¹": 4054,
      "ÃŃrÃłnĠ": 4055,
      "LagosĠ": 4056,
      "ĠáĪīáīĥáĪµ": 4057,
      "wilayaĠ": 4058,
      "year": 4059,
      "áĪ¾": 4060,
      "wanz": 4061,
      "Ġáī°áĪ°": 4062,
      "áĭĵáīµ": 4063,
      "a-fin": 4064,
      "baadaĠyaĠ": 4065,
      "antsĠ": 4066,
      "Pet": 4067,
      "áĬĲáĪ³": 4068,
      "áĪ¨áĪĿ": 4069,
      "lÃ³rÃŃ": 4070,
      "peluĠ": 4071,
      "CO": 4072,
      "Sam": 4073,
      "inn": 4074,
      "22Ġ": 4075,
      "mÃ¬": 4076,
      "thro": 4077,
      "ĠáĬłáįĪ": 4078,
      "Ġáĭ¨áĪķ": 4079,
      "stat": 4080,
      "ayyarĠ": 4081,
      "syst": 4082,
      "dur": 4083,
      "áĪ«áĬķ": 4084,
      "aĠgasarĠ": 4085,
      "áĭķáĪ«áī¥": 4086,
      "70": 4087,
      "n'": 4088,
      "endĠ": 4089,
      "autiĠ": 4090,
      "||": 4091,
      "FebruariĠ": 4092,
      "UjerumaniĠ": 4093,
      "onsĠ": 4094,
      "ĠáīłáįĬáīµ": 4095,
      "adiĠyaĠ": 4096,
      "áįĪáĪį": 4097,
      "Ġáĭ¨áĬłáĪľáĪªáĬ«": 4098,
      "Gb": 4099,
      "taĠnaĠ": 4100,
      "aĠmat": 4101,
      "ĠáīħáĪŃ": 4102,
      "sehemuĠyaĠ": 4103,
      "NaijiriaĠ": 4104,
      "saur": 4105,
      "29Ġ": 4106,
      "awan": 4107,
      "esĠofĠ": 4108,
      "áįİáī½": 4109,
      "áĪįáĪĿ": 4110,
      "áĪĺáīµ": 4111,
      "gbá»įÌĢ": 4112,
      "ĠáĬ¥áĬķáĮĤ": 4113,
      "áįĭáīµ": 4114,
      "aĠdun": 4115,
      "kÃ³paĠ": 4116,
      "ĠáĭŃáī£áĪĭáĪįáį¢": 4117,
      "alb": 4118,
      "YaĠ": 4119,
      "ongoĠ": 4120,
      "ĠáĪģáĪĪ": 4121,
      "ShugabanĠ": 4122,
      "Ã²á¹£Ã¨rÃ©": 4123,
      "prof": 4124,
      "kasuwan": 4125,
      "are": 4126,
      "4-": 4127,
      "EĠ": 4128,
      "a;Ġ": 4129,
      "já»įÌģĠ": 4130,
      "ĠáĬłáīĢ": 4131,
      "ĠáĭĪáĭŃ": 4132,
      "Ġáĭ¨áĪļáĪĪáĭį": 4133,
      "sabodaĠ": 4134,
      "pÃ©": 4135,
      "egeĠ": 4136,
      "cess": 4137,
      "áī³áĪªáĬŃ": 4138,
      "ubuĠ": 4139,
      "ext": 4140,
      "ĠáĮīáĭ³": 4141,
      "amfaniĠdaĠ": 4142,
      "wasanĠkwaikway": 4143,
      "yn": 4144,
      "ax": 4145,
      "183": 4146,
      "tech": 4147,
      "has": 4148,
      "pay": 4149,
      "ĠáĬŃáĪį": 4150,
      "wenyeĠm": 4151,
      "okĠ": 4152,
      "umbaĠ": 4153,
      "asharaĠ": 4154,
      "atom": 4155,
      "esp": 4156,
      "WakristoĠ": 4157,
      "UlayaĠ": 4158,
      "Kats": 4159,
      "Ġ5": 4160,
      "opleĠ": 4161,
      "vir": 4162,
      "ĠáīłáĪŃ": 4163,
      "áī¥áĪ¨áīµ": 4164,
      "ammal": 4165,
      "ejÃ¬Ġ": 4166,
      "ĠáĬķáĮį": 4167,
      "De": 4168,
      "nomb": 4169,
      ".Ġ(": 4170,
      "180": 4171,
      "Bel": 4172,
      "Rep": 4173,
      "Ġáį²áį": 4174,
      "aĠkamaĠ": 4175,
      "ĠáĪĽáĬķ": 4176,
      "Â°": 4177,
      "Ġ(200": 4178,
      "MuhammadĠ": 4179,
      "shaw": 4180,
      "franÃ§": 4181,
      "Bah": 4182,
      "maj": 4183,
      "ĠáĮĮ": 4184,
      "aĠkwaĠm": 4185,
      "sinim": 4186,
      "BC": 4187,
      "ÙĪ": 4188,
      "oĠdaĠ": 4189,
      "Bi": 4190,
      "Kal": 4191,
      "Sab": 4192,
      "gw": 4193,
      "ĠáīµáĬķ": 4194,
      "anziaĠ": 4195,
      "ĠáĬ¥áĬķáĭ²áĪħ": 4196,
      "lÃ³gÃºnĠ": 4197,
      "28Ġ": 4198,
      "unĠniĠ": 4199,
      "áĬĲáī±": 4200,
      "ost": 4201,
      "nyingiĠ": 4202,
      "ĠáįķáĪ¬": 4203,
      "illĠ": 4204,
      "lakeĠ": 4205,
      "alip": 4206,
      "21": 4207,
      "en.": 4208,
      "ĠáĪķáĭĿáī¥": 4209,
      "vo": 4210,
      "ensĠ": 4211,
      "áĬŃáĪī": 4212,
      "5Ġ-Ġ": 4213,
      "Ġáī³áĪªáĬ«áĭĬ": 4214,
      "ĠáĭŃáī³áĭĪáīĥ": 4215,
      "PĠ": 4216,
      "una": 4217,
      "vari": 4218,
      "agu": 4219,
      "ĠáĪĺáĪłáĪ¨": 4220,
      "hukumarĠ": 4221,
      "StateĠ": 4222,
      "29": 4223,
      "NchiĠ": 4224,
      "Yamm": 4225,
      "yaĠkasanceĠ": 4226,
      "áĪĪáĬķ": 4227,
      "áĪĺáĭµ": 4228,
      "ĠáĬ¨áĬ¥": 4229,
      "visiwaĠ": 4230,
      "ilÃ©-áº¹ÌĢká»įÌģĠ": 4231,
      "dayaĠdagaĠcikinĠ": 4232,
      "group": 4233,
      "ternĠ": 4234,
      "ia.Ġ": 4235,
      "taraĠ": 4236,
      "Waliozali": 4237,
      "asiasaĠ": 4238,
      "-ĠMtakatifuĠ": 4239,
      "vid": 4240,
      "anyĠ": 4241,
      "amad": 4242,
      "epend": 4243,
      "Ibad": 4244,
      "áĪ¨áĪ°": 4245,
      "ishiĠwaĠ": 4246,
      "ainsĠ": 4247,
      "fÃŃÃ¬m": 4248,
      "27Ġ": 4249,
      "dir": 4250,
      "arz": 4251,
      "áĪŃáī²": 4252,
      "akosoĠ": 4253,
      "Amerik": 4254,
      "Per": 4255,
      "lÃ²Ġ": 4256,
      "taĠm": 4257,
      "áĪĺáĪį": 4258,
      "imat": 4259,
      "Ahm": 4260,
      "KatikaĠ": 4261,
      "OnĠ": 4262,
      "iâĢĻ": 4263,
      "yr": 4264,
      "ĠáĬ¨áĭļáĪħ": 4265,
      "umiaĠ": 4266,
      "ĠáĬĲáĭįáį¡áį¡": 4267,
      "samarĠdaĠ": 4268,
      "ĠáĬĵáī¸áĭį": 4269,
      "aseĠ": 4270,
      "kuk": 4271,
      "JanuaryĠ": 4272,
      "BCĠ": 4273,
      "adil": 4274,
      "Mil": 4275,
      "UingerezaĠ": 4276,
      "anĠhaifeĠtaĠ": 4277,
      "upandeĠwaĠ": 4278,
      "ĠáĭĿáĪŃáĭĿáĪŃ": 4279,
      "juĠ": 4280,
      "aĠÆĻasarĠ": 4281,
      "áĪĽáīµ": 4282,
      "áĭļáĪģ": 4283,
      "taim": 4284,
      "Ġáº¹láº¹ÌģbÃ¹nĠ": 4285,
      "23Ġ": 4286,
      "afterĠ": 4287,
      "enz": 4288,
      "enoĠ": 4289,
      "Octob": 4290,
      "¶áį": 4291,
      "ĠáĬ¥áĬĵĠáīł": 4292,
      "áĬ¨áī°áĪĽ": 4293,
      "Ø§ÙĦ": 4294,
      "gĠ": 4295,
      "u-": 4296,
      "áĭ«áĭĬ": 4297,
      "ock": 4298,
      "iá¹£áº¹Ġ": 4299,
      "ISBNĠ": 4300,
      "bab": 4301,
      "áĬĵáī¸áĭį": 4302,
      "áīłáĬł": 4303,
      "tÃŃĠÃłwá»įnĠ": 4304,
      "ĠáīłáĬ©": 4305,
      "indiĠ": 4306,
      "ĠáĪģáĬĶáī³": 4307,
      "Ø±": 4308,
      "anniĠ": 4309,
      "Kil": 4310,
      "amak": 4311,
      ")Ġáīł": 4312,
      "Ãłj": 4313,
      "áĬĵáĪįáį¢": 4314,
      "taĠhanyarĠ": 4315,
      "ĠáĮĬ": 4316,
      "elsĠ": 4317,
      "Ã¹gbá»įÌģnĠ": 4318,
      "ed,Ġ": 4319,
      "Coun": 4320,
      "tĠofĠ": 4321,
      "Haif": 4322,
      "jim": 4323,
      "anĠ(": 4324,
      "ilion": 4325,
      "áī¤áī°": 4326,
      "kÃ¹n": 4327,
      "áĪ«áĪ²": 4328,
      "jinaĠlaĠ": 4329,
      "al.": 4330,
      "áĮĦ": 4331,
      "Ġáī»": 4332,
      "wá»įĠ": 4333,
      "iĠkamaĠ": 4334,
      "yÃ¬ÃŃ": 4335,
      "Ġá»įjá»įÌģĠ": 4336,
      "kusin": 4337,
      "babbanĠbirninĠ": 4338,
      "includ": 4339,
      "cik": 4340,
      "ific": 4341,
      "2,": 4342,
      "le.": 4343,
      "o:Ġ": 4344,
      "oldĠ": 4345,
      "ĠáĬĲáĮ»": 4346,
      "tsarinĠ": 4347,
      "iny": 4348,
      "Apr": 4349,
      "Ġáī±": 4350,
      "Bib": 4351,
      "áĪĪáī½": 4352,
      "utilis": 4353,
      "Bank": 4354,
      "kamaĠ": 4355,
      "áĬĲáīłáĪ¨": 4356,
      "tÃŃĠÃ³ĠtiĠ": 4357,
      "áĪ¶áī½": 4358,
      "ĠáĪļáĬĴ": 4359,
      "Eg": 4360,
      "suchĠ": 4361,
      "Kit": 4362,
      "má»įÌģ": 4363,
      "ĠáĬ¨áĬłáĪ": 4364,
      "Ilim": 4365,
      "ĠáįĪáĪŃ": 4366,
      "5-": 4367,
      "alim": 4368,
      "áī¥áīµ": 4369,
      "ĠáĪĺáĮ¨áĪ¨áĪ»": 4370,
      "ĠáĭŃáīĢ": 4371,
      "neĠdagaĠ": 4372,
      "áĭļáīĥ": 4373,
      "iweĠ": 4374,
      "Riv": 4375,
      "tron": 4376,
      "JinaĠ": 4377,
      "MwakaĠwaĠ": 4378,
      "lÃł": 4379,
      "vers": 4380,
      "áĭ°áĭį": 4381,
      "ĠáĬŃáĪŃáĪµáī²áĭ«áĬķ": 4382,
      "uoĠ": 4383,
      "ity,Ġ": 4384,
      "ick": 4385,
      "bet": 4386,
      "ne.": 4387,
      "coun": 4388,
      "warĠ": 4389,
      "Ġáįĭ": 4390,
      "ojaĠ": 4391,
      ".ĠManazartaĠ": 4392,
      "yanzuĠ": 4393,
      "walejinĠ": 4394,
      "fim": 4395,
      "mwakaĠ": 4396,
      "yÃłnĠ": 4397,
      "áĪĿáĬķ": 4398,
      "aĠma": 4399,
      "ejÃ¬": 4400,
      "Wah": 4401,
      "kÃ¡": 4402,
      "Ġáĭ¨áĪµ": 4403,
      "áī´áĭİáĪµ": 4404,
      "ĠáĬĲáĮĪáĪ®áī½": 4405,
      "resp": 4406,
      "co": 4407,
      "eziĠ": 4408,
      "Pat": 4409,
      "theyĠ": 4410,
      "MĠ": 4411,
      "áĬ¸": 4412,
      "ifuat": 4413,
      "Marej": 4414,
      "ÃĢwá»įnĠÃ¬t": 4415,
      "wakatiĠwaĠ": 4416,
      "Ġáī¢áĪĨáĬķ": 4417,
      "áĮĪáĬĺáĭį": 4418,
      "pá»įÌĢlá»į": 4419,
      "DĠ": 4420,
      "lil": 4421,
      "raf": 4422,
      "Láº¹Ìģ": 4423,
      "iakaĠm": 4424,
      "nem": 4425,
      "aĠwatanĠ": 4426,
      "ikub": 4427,
      "ĠáĭĺáĪŃ": 4428,
      "iziĠ": 4429,
      "jar": 4430,
      "loriĠ": 4431,
      "áĪĺáĮ£": 4432,
      "Mart": 4433,
      "áī»áī¸áĭį": 4434,
      "Ġáĭ¨áĪĽáĭŃ": 4435,
      "DecemberĠ": 4436,
      "TanaĠ": 4437,
      "Al-": 4438,
      "eff": 4439,
      "vy": 4440,
      "aĠr": 4441,
      "zinaz": 4442,
      "Hen": 4443,
      "Hot": 4444,
      "ayyaĠ": 4445,
      "áĮĪáĭ°": 4446,
      "affunĠ": 4447,
      "aussiĠ": 4448,
      "ĠáĭŃáĮĪáĬĽáĪįáį¢": 4449,
      "ananĠhukumominĠ": 4450,
      "Gen": 4451,
      "udiĠ": 4452,
      "Arab": 4453,
      "Gl": 4454,
      "kuz": 4455,
      "áĪĤ": 4456,
      "awai": 4457,
      "oĠkatikaĠ": 4458,
      "aĠkasanceĠ": 4459,
      "tsohonĠ": 4460,
      "yÃ³Ã²Ġ": 4461,
      "JamesĠ": 4462,
      "nau": 4463,
      "wÃ³nĠ": 4464,
      "ĠáĬłáīµ": 4465,
      "ungan": 4466,
      "ammanĠ": 4467,
      "ini": 4468,
      "Waz": 4469,
      "ba.": 4470,
      "dâĢĻ": 4471,
      "reeĠ": 4472,
      "Hukum": 4473,
      "rom": 4474,
      "ĠáĪ¦": 4475,
      "okeaĠ": 4476,
      "ĠáīłáĪĻ": 4477,
      "áĪ±áĪµ": 4478,
      "wararr": 4479,
      "ĠáĭµáĪŃáĮħ": 4480,
      "risti": 4481,
      "Wom": 4482,
      "muĠ": 4483,
      "áįĶ": 4484,
      "tÃŃĠaĠ": 4485,
      "aĠsh": 4486,
      "utt": 4487,
      "trav": 4488,
      "tÃłĠ": 4489,
      "utiĠ": 4490,
      "áĪĺáĭį": 4491,
      "esab": 4492,
      "ing,Ġ": 4493,
      "daĠsaur": 4494,
      "áī·áĪįáį¢": 4495,
      "gbajÃºmá»įÌĢĠ": 4496,
      "0-": 4497,
      "Tim": 4498,
      "áĭĭáĬĵ": 4499,
      "AĠwatanĠ": 4500,
      "áĮĢáĪŃáĪĺáĬķ": 4501,
      "isaĠgaĠ": 4502,
      "gÃ©n": 4503,
      "KenyaĠ": 4504,
      "ĠáĬ¡": 4505,
      "áĪĺáĪ°": 4506,
      "ĠáĬ¥áĬĲ": 4507,
      "áº¹Ìģká»įÌĢ": 4508,
      "HaifaffunĠ": 4509,
      "Es": 4510,
      "Lov": 4511,
      "-áĬł": 4512,
      "ÃłrÃŃ": 4513,
      "áĭ°áĬķ": 4514,
      "yaĠKemi": 4515,
      "ÃĢwá»įnĠáº¹láº¹ÌģbÃ¹nĠ": 4516,
      "á»įÌģkasÃŃ": 4517,
      "gameĠdaĠ": 4518,
      "oseluĠ": 4519,
      "ki": 4520,
      "Fin": 4521,
      "DolaĠ": 4522,
      "okuwaĠ": 4523,
      "Ġ(áīł": 4524,
      "áĬ¨áīµ": 4525,
      "áįĪáĮ¥": 4526,
      "Waliofariki": 4527,
      "shindiĠwaĠTuzoĠyaĠNobelĠyaĠKemi": 4528,
      "Ã²rÃ¹nĠ": 4529,
      "eneoĠlaĠ": 4530,
      "pap": 4531,
      "ism": 4532,
      "iwaĠk": 4533,
      "áĬķáĭ±": 4534,
      "nÃ¡Ãł.": 4535,
      "sababuĠ": 4536,
      "ĠáĪĿáĬķáĮ®áī½": 4537,
      "cin": 4538,
      "7-": 4539,
      "páº¹l": 4540,
      "sukaĠ": 4541,
      "ĠáīłáĪ½": 4542,
      "ĠáĪĿáĬķáĪĿ": 4543,
      "iĠyaĠm": 4544,
      "ÃĢÃłráº¹Ġ": 4545,
      "uguĠ": 4546,
      "nÃŃnuĠ": 4547,
      "ĠApriliĠ": 4548,
      "Waliozaliwa": 4549,
      "Roma,Ġ": 4550,
      "Hisp": 4551,
      "Cap": 4552,
      "áĪµáĭ«": 4553,
      "ipoĠ": 4554,
      "ijobaĠ": 4555,
      "lambarĠ": 4556,
      "âĢ¹": 4557,
      "FAĠ": 4558,
      "dro": 4559,
      "áĪ·": 4560,
      "ikanĠ": 4561,
      "Ã¬f": 4562,
      "áĪĭáĪ´": 4563,
      "aĠkasarĠ": 4564,
      "kask": 4565,
      "Ġ17": 4566,
      "Ġáĭĭáī¢": 4567,
      "26Ġ": 4568,
      "Ro": 4569,
      "Sark": 4570,
      "men": 4571,
      "hiyoĠ": 4572,
      "uelĠ": 4573,
      "áĮĪáĪį": 4574,
      "ĠáĪĿáĪŃ": 4575,
      "http://www.": 4576,
      "Alexand": 4577,
      "ĠáĪł": 4578,
      "daiĠ": 4579,
      "t-": 4580,
      "Ġáĭ¨áĬ«": 4581,
      "Ġáĭ¨áī°áĪ°": 4582,
      "arkonĠ": 4583,
      "1Ġ-Ġ": 4584,
      "ziliz": 4585,
      "ĠáĪĿáĬŃáĬķáĭ«áīµ": 4586,
      "nolog": 4587,
      "uĠK": 4588,
      "uĠM": 4589,
      "ce": 4590,
      "aux": 4591,
      "laĠk": 4592,
      "Ãłb": 4593,
      "áīłáĪĺ": 4594,
      "atikaĠk": 4595,
      "Amáº¹ÌģrÃŃkÃłĠ": 4596,
      "loc": 4597,
      "elec": 4598,
      "·áį": 4599,
      "Ãłg": 4600,
      ".ĠK": 4601,
      "ĠáĪĺáĪŃ": 4602,
      "ĠáĪĺáĪįáĬŃ": 4603,
      "icaĠ": 4604,
      "áĬŃáĪŃ": 4605,
      "áīłáĪĪ": 4606,
      "day": 4607,
      "akk": 4608,
      "agbaĠ": 4609,
      "áĭ²áĭ«": 4610,
      "uĠmasoĠ": 4611,
      "therĠ": 4612,
      "Ng": 4613,
      "tiĠwonĠ": 4614,
      "ÃĮb": 4615,
      "ungeĠ": 4616,
      "wandaĠakaĠ": 4617,
      "daĠsukaĠ": 4618,
      "mi": 4619,
      "rá»įĠ": 4620,
      "opoĠ": 4621,
      "AĠranarĠ": 4622,
      "ÅĦĠá¹£": 4623,
      "áīĨáĪµ": 4624,
      "ĠáĮ½áĪĳ": 4625,
      "áĬ¥áĬķáĭ°": 4626,
      "Stat": 4627,
      "addin": 4628,
      "AllahĠ": 4629,
      "bel": 4630,
      "áĪĭáĪĽ": 4631,
      "âĢº": 4632,
      "larg": 4633,
      "nÃ¬": 4634,
      "aticĠ": 4635,
      "áĭĪáĪŃ": 4636,
      "with": 4637,
      "ajiĠwaĠfilamuĠ": 4638,
      "Kiswah": 4639,
      "GeorgeĠ": 4640,
      "FI": 4641,
      "Aw": 4642,
      "anaĠnaĠm": 4643,
      "ĠáĪµáĪĻ": 4644,
      "Ãłwá»įnĠá»įjá»įÌģÃ¬bÃŃĠnÃŃĠ": 4645,
      "alÃ¡Ã¬": 4646,
      "ful": 4647,
      "ariĠwaĠ": 4648,
      "áĬĵáĭĬ": 4649,
      "ĠáĮłáĪ": 4650,
      "Ã³mÃ¬n": 4651,
      "enĠm": 4652,
      "Ġáįª": 4653,
      "idayarĠ": 4654,
      "áĭ³áĪŃ": 4655,
      "mÃ¡aĠÅĦĠ": 4656,
      "ĠáĪłáĪ«": 4657,
      "sal": 4658,
      "ron": 4659,
      "ĠáĬħ": 4660,
      "olon": 4661,
      "nÃŃnÃºĠerÃ©Ġ": 4662,
      "ĠáĪ¥áĪŃáĭĪ": 4663,
      "uriĠ": 4664,
      "nÃŃĠÃĮpÃŃnláº¹ÌĢĠ": 4665,
      "Ġáĭ°áĪ´": 4666,
      "Abub": 4667,
      "nÃŃnÃº": 4668,
      "ÃĴg": 4669,
      "faĠ": 4670,
      "takeĠ": 4671,
      "ItaĠ": 4672,
      "deuxĠ": 4673,
      "lav": 4674,
      "ĠáĪĤ": 4675,
      "ĠáĬ¥áĮįáĪŃĠáĬ³áĪµ": 4676,
      "okeĠ": 4677,
      "ĠáĬłáĪ³": 4678,
      "áĮłáĭį": 4679,
      "TazamaĠpiaĠ": 4680,
      "ĠduĠ": 4681,
      "Up": 4682,
      "tuĠ": 4683,
      "struc": 4684,
      "dukĠ": 4685,
      "Ġáĭ¨áĪ¥": 4686,
      "ĠáĪĿáĪįáĬŃ": 4687,
      "sÃŃĠnÃŃĠ": 4688,
      "Rayayy": 4689,
      "EbunĠ": 4690,
      "97": 4691,
      "d,Ġ": 4692,
      "Ã¼": 4693,
      "SeptemberĠ": 4694,
      "''": 4695,
      "Maj": 4696,
      "ĠáĬłáĭ«": 4697,
      "aguz": 4698,
      "áĭĪáīħ": 4699,
      "daĠkar": 4700,
      "sikuĠyaĠ": 4701,
      "jama'aĠ": 4702,
      "Fasih": 4703,
      "áįĪáĪ¨áĬķáĪ³áĭŃ": 4704,
      "nas": 4705,
      "Josep": 4706,
      "Soci": 4707,
      "ana'": 4708,
      "onlyĠ": 4709,
      "conn": 4710,
      "Uingerez": 4711,
      "Vol": 4712,
      "áĪµáįĵ": 4713,
      "á»įÌģá»įÌĢ": 4714,
      "Ġá»įdÃºnĠ200": 4715,
      "áĪ¡": 4716,
      "iedĠ": 4717,
      "dominĠ": 4718,
      "anenĠ": 4719,
      "áĭķáĪį": 4720,
      "Comp": 4721,
      "Ġáº¸ÌĢ": 4722,
      "Ð°": 4723,
      ":ĠTheĠ": 4724,
      "awak": 4725,
      "fimĠ": 4726,
      "sáº¹ÌĢĠ": 4727,
      "áĪ¯": 4728,
      "ĠáĬĴ": 4729,
      "ĠáĬĸ": 4730,
      "áī¥áĭĻ": 4731,
      "age": 4732,
      "ĠáĭĪáĪ¨áĭ³": 4733,
      "arkashinĠ": 4734,
      "ĠáĬłáĪĪáīĥ": 4735,
      "Dar": 4736,
      "ation.": 4737,
      "ollywo": 4738,
      "duk": 4739,
      "yst": 4740,
      "Makar": 4741,
      "FebruaryĠ": 4742,
      "MajalisarĠ": 4743,
      "Pas": 4744,
      "pÃ¡": 4745,
      "pass": 4746,
      "áĪĽáĬķ": 4747,
      "áĭĭáĬķ": 4748,
      "áĪłáĪ«": 4749,
      "digir": 4750,
      "Lak": 4751,
      "bang": 4752,
      "otaĠ": 4753,
      "rang": 4754,
      "âĢ¦": 4755,
      "tre": 4756,
      "trad": 4757,
      "MkoaĠwaĠ": 4758,
      "gidanĠ": 4759,
      "ĠáĮħ": 4760,
      "ingu": 4761,
      "entom": 4762,
      "aniĠdaĠ": 4763,
      "iquesĠ": 4764,
      "weenĠ": 4765,
      "isionĠ": 4766,
      "iranĠ": 4767,
      "twoĠ": 4768,
      "class": 4769,
      "-áº¹ÌĢ": 4770,
      "90": 4771,
      "áĭİáī½áĬķ": 4772,
      "unguĠ": 4773,
      "plac": 4774,
      "pÃ¨ĠnÃŃĠ": 4775,
      "ilomitaĠ": 4776,
      "mill": 4777,
      "VI": 4778,
      "mulk": 4779,
      "akatifuĠ": 4780,
      "Ã¬bÃŃ": 4781,
      "áī°áĬķ": 4782,
      "áĪĪáī½áį¢": 4783,
      "ĠáĬłáĪ¸": 4784,
      "áĭ¨áĪĿ": 4785,
      "áĭ¨áĬł": 4786,
      "ojaĠwaĠ": 4787,
      "hukumaĠ": 4788,
      "1892Ġáĭĵ.áĪĿ.": 4789,
      "wenyew": 4790,
      "'YanĠ": 4791,
      "onĠ(": 4792,
      "binĠ": 4793,
      "áĪİáīµ": 4794,
      ")áį£": 4795,
      "fus": 4796,
      "masuĠ": 4797,
      "kuuĠ": 4798,
      "Ġáį¤": 4799,
      "birniĠ": 4800,
      "danĠwasanĠÆĻwallonĠÆĻafaĠtaĠÆĻasarĠIngil": 4801,
      "Lou": 4802,
      "saf": 4803,
      "aientĠ": 4804,
      "ott": 4805,
      "áĭĳ": 4806,
      "áĪĺáĪ«": 4807,
      "ĠáĪĺáĮĢáĪĺáĪŃáĭ«": 4808,
      "over": 4809,
      "9Ġ-Ġ": 4810,
      "ĠáĭķáĪĪ": 4811,
      "ĠK": 4812,
      "OlÃ³": 4813,
      "á»įnĠ": 4814,
      "Ã¬pÃŃnláº¹ÌĢĠ": 4815,
      "áĬĵĠáĬ¨": 4816,
      "ojÃº": 4817,
      "aĠyaĠk": 4818,
      "áĮįáī¥áĮ½": 4819,
      "ikiaĠ": 4820,
      "áĮĪáī¥": 4821,
      "Ã²unĠ": 4822,
      "áĭ²áĪħ": 4823,
      "Ġáī³áĭĭáīĤ": 4824,
      "wamnanĠ": 4825,
      "Ġáīłáī°áĪĪáĭŃ": 4826,
      "Ã¬tÃłnĠ": 4827,
      "WilliamĠ": 4828,
      "3,": 4829,
      "div": 4830,
      "nadaĠ": 4831,
      "ĠáĪº": 4832,
      "orunĠ": 4833,
      "ĠáīłáĮ£áĪĿ": 4834,
      "ĠáĬ¥áĭį": 4835,
      "áĮĪáīł": 4836,
      "áĭĺáĪŃ": 4837,
      "áĬ®áī½": 4838,
      "arÃ¡ĠAmáº¹ÌģrÃŃkÃł": 4839,
      "work": 4840,
      "gbeĠ": 4841,
      "imp": 4842,
      "princip": 4843,
      "mÃŃĠ": 4844,
      "áĮ¦áĪŃ": 4845,
      "áĭ°áĮį": 4846,
      "ĠáīłáĪĮ": 4847,
      "progr": 4848,
      "ĠáĬŃáįįáĪĭ": 4849,
      "torÃŃĠ": 4850,
      "ráº¹ÌĢ.": 4851,
      "iongoz": 4852,
      "enez": 4853,
      "ole": 4854,
      "ifÃ¡": 4855,
      "consid": 4856,
      "45": 4857,
      "WilayaĠ": 4858,
      "jiniĠ": 4859,
      "onaĠ": 4860,
      "oloj": 4861,
      "Ã²g": 4862,
      "Ã²yÃ¬nĠ": 4863,
      "press": 4864,
      "Ġáº¹niĠ": 4865,
      "ba,Ġ": 4866,
      "pir": 4867,
      "neĠaĠ": 4868,
      "intoĠ": 4869,
      "un.": 4870,
      "ĠkwaĠ": 4871,
      "Adam": 4872,
      "aĠfanninĠ": 4873,
      "sanyaĠ": 4874,
      "oirĠ": 4875,
      "Ä«": 4876,
      "áĬ¹": 4877,
      "unciĠ": 4878,
      "áĪ³áī¸áĭį": 4879,
      "áįĪáĪµ": 4880,
      "overĠ": 4881,
      "ĠáĬłáĭŃáĭ°": 4882,
      "BaadaĠyaĠ": 4883,
      "Â»Ġ(": 4884,
      "Cong": 4885,
      "alil": 4886,
      "daĠh": 4887,
      "akoĠ": 4888,
      "doĠ": 4889,
      "ÃłÃły": 4890,
      "áĮ¥áĪ¨": 4891,
      "iliyanĠ": 4892,
      "áĪįáĮ£áĬķ": 4893,
      "páº¹luĠ": 4894,
      "aliz": 4895,
      "ifeĠ": 4896,
      "sar": 4897,
      "'yarĠ": 4898,
      "binc": 4899,
      "iev": 4900,
      "oot": 4901,
      "áº¹ÌĢáº¹Ìģ": 4902,
      "identĠ": 4903,
      "ÃĢwá»įnĠáº¹láº¹ÌģbÃ¹nĠNobelĠ": 4904,
      "Can": 4905,
      "Ibrah": 4906,
      "kulaĠ": 4907,
      "ursĠ": 4908,
      "áĪĺáī±": 4909,
      "áĮįáĪį": 4910,
      "ĠáīłáĪģ": 4911,
      "AlÃ¡": 4912,
      "ĠáīĢáĮ¥": 4913,
      "shekararĠ200": 4914,
      "áĪķáĪŃ": 4915,
      "láº¹ÌģyÃ¬nĠ": 4916,
      "áįĳ": 4917,
      "áĪ¨áī¥": 4918,
      "Ã©ĠparĠ": 4919,
      "áĭĬáīµ": 4920,
      "ĠkanĠ": 4921,
      "wadan": 4922,
      "ÃłgbÃ©lÃ©": 4923,
      "faitĠ": 4924,
      "urr": 4925,
      "ĠAfr": 4926,
      "Ãºs": 4927,
      "CharlesĠ": 4928,
      ",ĠM": 4929,
      "áĭµáĪ¨áĮį": 4930,
      "áīłáĪ©áīµ": 4931,
      "TibaĠmwakaĠwaĠ": 4932,
      "waz": 4933,
      "app": 4934,
      "Port": 4935,
      "7Ġ-Ġ": 4936,
      "contin": 4937,
      "Æ´": 4938,
      "ĠáĪ»": 4939,
      "Ãłf": 4940,
      "áĭįáĪĿ": 4941,
      "iyoy": 4942,
      "áĪĿáĪħáĪŃ": 4943,
      "ĠáĬ¥áĬķáĮįáĪĬáĭĿ": 4944,
      "Te": 4945,
      "a\"Ġ": 4946,
      "pÃŃ": 4947,
      "angaz": 4948,
      "âĢĿĠ": 4949,
      "prÃ©sent": 4950,
      "áĬĽáį¦Ġ": 4951,
      "áĭĪáĪ¨": 4952,
      "kutokaĠnchiĠyaĠ": 4953,
      "áĮłáĪ©": 4954,
      "Manazarta": 4955,
      "poss": 4956,
      "ĠáĬłáĮĪáĪįáĮį": 4957,
      "91": 4958,
      "alum": 4959,
      "Sen": 4960,
      "Thom": 4961,
      "áĪ¨áĮĭ": 4962,
      "ĠáĭŃáĪĺáĪµ": 4963,
      "rayuwaĠ": 4964,
      "ĠáĬ¥áĭ¨áī°": 4965,
      "her": 4966,
      "hel": 4967,
      "ĠH": 4968,
      "WestĠ": 4969,
      "fan": 4970,
      "herĠ": 4971,
      "ĠáĪĺáĪĨáĬĳ": 4972,
      "iĠmwaĠ": 4973,
      "Ã³mÃ¬nÃłĠ": 4974,
      "Mu": 4975,
      "owaĠ": 4976,
      "35": 4977,
      "bil": 4978,
      "mostĠ": 4979,
      "awá»įn": 4980,
      "áĬĵáĬķ": 4981,
      "aidiĠ": 4982,
      "edĠasĠ": 4983,
      "áĭ®áĪµ": 4984,
      "Ãłwá»įnĠÃ¨nÃ¬yÃłnĠ": 4985,
      "kutokanaĠnaĠ": 4986,
      "NovemberĠ": 4987,
      "mark": 4988,
      "áĬĹ": 4989,
      "ilos": 4990,
      "ie": 4991,
      "Ba": 4992,
      "CityĠ": 4993,
      "kumb": 4994,
      "isteĠ": 4995,
      "inst": 4996,
      "esiĠ": 4997,
      "oloniĠ": 4998,
      "toĠgbaĠ": 4999,
      "áĮ£áīµ": 5000,
      "Ġáº¹ÌĢyÃłĠ": 5001,
      "aĠyankinĠ": 5002,
      "ĠáĪĥáĭŃáĪĽáĬĸ": 5003,
      "Ã©cr": 5004,
      "ementsĠ": 5005,
      "a)": 5006,
      "der": 5007,
      "9-": 5008,
      "utionĠ": 5009,
      "TareheĠ": 5010,
      "sinimÃ¡Ġ": 5011,
      "UN": 5012,
      "new": 5013,
      "olĠ": 5014,
      "wang": 5015,
      "ayans": 5016,
      "ĠáĬ¥áĬĲáĭļáĪħ": 5017,
      "áī£áĪŃ": 5018,
      "ĠáĭŃáĪĨ": 5019,
      "iĠwaĠk": 5020,
      "tele.ĠItokasiĠÃĢwá»įnĠ": 5021,
      "bak": 5022,
      "áĬĥ": 5023,
      "OctoberĠ": 5024,
      "Ãīt": 5025,
      "ierĠ": 5026,
      "mataĠ": 5027,
      "áī£áĭĬ": 5028,
      "prot": 5029,
      "wengiĠ": 5030,
      "Ghan": 5031,
      "já»įÌģĠk": 5032,
      "gl": 5033,
      "BritishĠ": 5034,
      "Sud": 5035,
      "aĠB": 5036,
      "áį²áį": 5037,
      "neĠnaĠ": 5038,
      "ĠáĪĽáī´áĭİáĪµ": 5039,
      "oireĠ": 5040,
      "Atlant": 5041,
      ".ĠÃĢ": 5042,
      "on-": 5043,
      "Ġd'": 5044,
      "origin": 5045,
      "´áį": 5046,
      "ĠáĬ¬": 5047,
      "kumaĠk": 5048,
      "ĠáĪµáīµ": 5049,
      "áĮĭáĪį": 5050,
      "Ġáĭįáĭµ": 5051,
      "áĪģáĬķ": 5052,
      "ilÃ©": 5053,
      "37": 5054,
      "idg": 5055,
      "ģáĬĳ": 5056,
      "Ġáĭ´": 5057,
      "abub": 5058,
      "á»įÌģn": 5059,
      "ali.": 5060,
      "pá»įÌĢlá»įpá»įÌĢĠ": 5061,
      "temp": 5062,
      "aĠmap": 5063,
      "ÙĲ": 5064,
      "oloseluĠ": 5065,
      "import": 5066,
      "Ġá»įÌĢkanĠ": 5067,
      "haifiĠ": 5068,
      "kÃŃĠÃ³Ġ": 5069,
      "ĠáĭĪáīħáīµ": 5070,
      "jirginĠ": 5071,
      "Mb": 5072,
      "ons": 5073,
      "isĠtheĠ": 5074,
      "US": 5075,
      "dat": 5076,
      "yenyeĠ": 5077,
      "áĪ«áĪīáį¢": 5078,
      "iwaĠkuwaĠ": 5079,
      "ĠáĬłáĪĺáīµ": 5080,
      "DolaĠlaĠ": 5081,
      "ĠáĭķáĪĪáī³áīµ": 5082,
      "alik": 5083,
      "Ã©p": 5084,
      "jum": 5085,
      "leyĠ": 5086,
      "BĠ": 5087,
      "ráº¹": 5088,
      "ellesĠ": 5089,
      "áĮįáĬķ": 5090,
      "áĭ¨áĪ±áĪµ": 5091,
      "wigizajiĠwaĠfilamuĠ": 5092,
      "betweenĠ": 5093,
      "leĠm": 5094,
      "Mt": 5095,
      "dam": 5096,
      "iyy": 5097,
      "ahiĠ": 5098,
      "Braz": 5099,
      "Turk": 5100,
      "ienĠ": 5101,
      "atanĠ": 5102,
      "abinc": 5103,
      "aiĠnaĠ": 5104,
      "aĠniĠ": 5105,
      "Ã©lÃ©": 5106,
      "ont": 5107,
      "uduĠ": 5108,
      "Ã¨meĠ": 5109,
      "ers,Ġ": 5110,
      "fÃłĠ": 5111,
      "ambay": 5112,
      "oĠkwaĠ": 5113,
      "Bell": 5114,
      "exp": 5115,
      ".,Ġ": 5116,
      "elek": 5117,
      "bÃł": 5118,
      "lamuĠ": 5119,
      "sakeĠ": 5120,
      "iyasaĠ": 5121,
      "áĮłáĬĵ": 5122,
      "harĠzuwaĠ": 5123,
      "BKĠ(BaadaĠyaĠKristo).ĠMatukioĠWaliozaliwaĠWaliofarikiĠKarneĠyaĠ": 5124,
      "ĠáĮ¥áĬķáī³áĭĬ": 5125,
      "eliĠ": 5126,
      "oĠmak": 5127,
      "Vic": 5128,
      "lÃłĠ": 5129,
      "usul": 5130,
      "utumĠ": 5131,
      "RaisĠwaĠ": 5132,
      "hat": 5133,
      "sing": 5134,
      "asalinĠ": 5135,
      "adayeĠ": 5136,
      "ÆĻasaĠ": 5137,
      "tsar": 5138,
      "ÃĢwá»įnĠá»įjá»įÌģÃ¬bÃŃĠnÃŃĠ": 5139,
      "34": 5140,
      "Mac": 5141,
      "Map": 5142,
      "au,Ġ": 5143,
      "36": 5144,
      "atun": 5145,
      "ret": 5146,
      "imaninĠ": 5147,
      "áī³áĭ°": 5148,
      "áĪĽáī½": 5149,
      "ĠáĭŃáĭĺ": 5150,
      "áĪħáĬķ": 5151,
      "ĠáīĢáĬĵáīµ": 5152,
      "askazin": 5153,
      "Ġ'": 5154,
      "leurĠ": 5155,
      "ipin": 5156,
      "whenĠ": 5157,
      ".ĠÃĮ": 5158,
      "áĮĪáĪª": 5159,
      "Ġáĭ¨áĪĻ": 5160,
      "áĭ¨áī°": 5161,
      "áĭ®áĪŃ": 5162,
      "ndÃŃn": 5163,
      "áĪ»áĭİáī½": 5164,
      "ĠáĭŃáĪħáĬķ": 5165,
      "áº¹Ìģká»įÌĢá»įÌģĠ": 5166,
      "Ã¯": 5167,
      "ammaĠ": 5168,
      "wing": 5169,
      "nip": 5170,
      "inÃºĠ": 5171,
      "ikish": 5172,
      "áĪ«áĪµ": 5173,
      "fÃŃÃ¬mÃ¹Ġ": 5174,
      "alsĠ": 5175,
      "itinĠ": 5176,
      "aboutĠ": 5177,
      "Jum": 5178,
      "tas": 5179,
      "kasaĠ": 5180,
      "Tun": 5181,
      "ĠáĪĿáĪµ": 5182,
      "ĠáĭĵáĪĪáĪĿ": 5183,
      "ĠáīłáĬłáĬķáĭµ": 5184,
      "Ġá»įmá»įĠorÃŃláº¹ÌĢ-Ã¨dÃ¨Ġ": 5185,
      "alinĠarz": 5186,
      "ahariĠyaĠ": 5187,
      "ity": 5188,
      "ymp": 5189,
      "edĠbyĠtheĠ": 5190,
      "Waf": 5191,
      "olu": 5192,
      "umiĠ": 5193,
      "ÃĢwá»įnĠÃ¨nÃ¬yÃłnĠ": 5194,
      "áī»áĭŃáĬĵ": 5195,
      "tanaĠdaĠ": 5196,
      "áĪłĠáĬĲáĮĪ": 5197,
      "shiĠneĠdanĠwasanĠÆĻwallonĠÆĻafaĠtaĠÆĻasarĠIngil": 5198,
      "ĠáįĵáĪŃáī²": 5199,
      "Arg": 5200,
      "zaidiĠ": 5201,
      "Ġáĭ«áĪħáĪį": 5202,
      "oyeĠ": 5203,
      "áĪŃáĪµáī²áĭ«": 5204,
      "Ny": 5205,
      "Born": 5206,
      "Pal": 5207,
      "Ut": 5208,
      "Ã¶": 5209,
      "ĪáĪĿ": 5210,
      "áįĦ": 5211,
      "áĪĽáĪŃ": 5212,
      "ĠáĭĪáĪ¨": 5213,
      "áįĪáĪĪ": 5214,
      "aniĠ(": 5215,
      "alikuwaĠmwan": 5216,
      "nit": 5217,
      "oku": 5218,
      "oodĠ": 5219,
      "abr": 5220,
      "amba": 5221,
      "Lat": 5222,
      "áĪįáĭ°": 5223,
      "adha": 5224,
      "áī³áī¸áĭįáĬķ": 5225,
      "iĠkoĠ": 5226,
      "2Ġ-Ġ": 5227,
      "ĠáĬłáĬķáĭ³": 5228,
      "amarĠhukumaĠ": 5229,
      "JulyĠ": 5230,
      "pÃłt": 5231,
      "Ãģfr": 5232,
      "prim": 5233,
      "Mah": 5234,
      "WannanĠ": 5235,
      "fuataĠ": 5236,
      "ief": 5237,
      "entiĠ": 5238,
      "Alber": 5239,
      "ifoĠch": 5240,
      "dagaĠbayaĠ": 5241,
      "nÃŃnÃºĠÃłwá»įnĠ": 5242,
      "ĠáīĢáĬķĠáīłáĬ¢áīµáĭ®áĮµáĭ«": 5243,
      "Ã¨rÃ¨Ġ": 5244,
      "lá»įÌģdÃºnĠ": 5245,
      "Ã¹n-": 5246,
      "ĠáĪ´áīµ": 5247,
      "sk": 5248,
      "áĪĵ": 5249,
      "AlakosoĠ": 5250,
      "auy": 5251,
      "ĠáĪĺáĬķáĮįáĪµáīµ": 5252,
      "amarĠhukumarĠ": 5253,
      "á»ĮÌĢ": 5254,
      "endeleaĠku": 5255,
      "bad": 5256,
      "pÃ¨": 5257,
      "yĠandĠ": 5258,
      "thanĠ": 5259,
      "ĠáĪĺáĪª": 5260,
      "nÃŃĠá»įjá»įÌģĠk": 5261,
      "ĠkatikaĠ": 5262,
      "gh": 5263,
      "encesĠ": 5264,
      "kÃº": 5265,
      "anarĠ": 5266,
      "áĮ¹": 5267,
      ".Ġ-": 5268,
      "ĠáĪĺáĭµ": 5269,
      "áĪ°áĬķ": 5270,
      "nÃŃĠorÃŃláº¹ÌĢ-Ã¨dÃ¨Ġ": 5271,
      "ansuĠ": 5272,
      "FizikiaĠmwakaĠwaĠ": 5273,
      "gÃ©nÃ©r": 5274,
      "ĠáĪ¥áĪŃáĭĪĠáĪĺáĬķáĮįáĪ¥áīµ": 5275,
      "dontĠ": 5276,
      "labar": 5277,
      "suc": 5278,
      "RĠ": 5279,
      "Ġáī¥áĪĪáĭį": 5280,
      "AfrikaĠKus": 5281,
      "fitoĠ": 5282,
      "ÃªtreĠ": 5283,
      "Rich": 5284,
      "etĠleĠ": 5285,
      "8Ġ-Ġ": 5286,
      "OpenĠ": 5287,
      "Gwamn": 5288,
      "hy": 5289,
      "rá»įÌĢ": 5290,
      "undĠ": 5291,
      "Ġáĭ°áī¡áī¥": 5292,
      "takrib": 5293,
      "ÃģfrÃŃk": 5294,
      "arc": 5295,
      "III": 5296,
      "KanananĠhukumominĠ": 5297,
      "fina-fin": 5298,
      "TĠ": 5299,
      "Roy": 5300,
      "imaĠ": 5301,
      "ishwaĠ": 5302,
      "ndaniĠyaĠ": 5303,
      "Abuj": 5304,
      "shirinĠ": 5305,
      "et,Ġ": 5306,
      "Christi": 5307,
      "thernĠ": 5308,
      "perm": 5309,
      "Wam": 5310,
      "gasarĠ": 5311,
      "rab": 5312,
      "áīº": 5313,
      "áĪĮáĬŃáīµ": 5314,
      "ĠáĬķáĮīáĪµ": 5315,
      "film": 5316,
      "ĠáĬłáĬ«áĪį": 5317,
      "darÃŃĠ": 5318,
      "ĠáįĪáĪŃáĭĸ": 5319,
      "Æ³": 5320,
      "áĪĪáī¥": 5321,
      "Ã³Ġá¹£eĠ": 5322,
      "áĬĲáīłáĪŃ": 5323,
      "áĬĲáī¶áī½": 5324,
      "a'aik": 5325,
      "ĠáĭµáĪĿ": 5326,
      "scien": 5327,
      "sehemuĠ": 5328,
      "score0": 5329,
      "rĠ": 5330,
      "vin": 5331,
      "val": 5332,
      "aar": 5333,
      "Ùı": 5334,
      "áī¼": 5335,
      "awaĠdaĠ": 5336,
      "Ġ16": 5337,
      "shekaraĠtaĠ201": 5338,
      "ile": 5339,
      "hi": 5340,
      "natur": 5341,
      "almeĠ": 5342,
      "áĪĭáĪīáį¢": 5343,
      "aunaĠ": 5344,
      "Oá¹£Ã¹ĠK": 5345,
      "tanguĠ": 5346,
      "hor": 5347,
      "jÃłĠ": 5348,
      "anzib": 5349,
      "eux": 5350,
      "itz": 5351,
      "achĠ": 5352,
      "Yoh": 5353,
      "Ġ200": 5354,
      "Ġá¹¢": 5355,
      "artĠ": 5356,
      "tiqu": 5357,
      "waĠkatikaĠ": 5358,
      "áĪŃáĭ«áĪĿ": 5359,
      "rubutaĠ": 5360,
      "crÃ©": 5361,
      "Â²": 5362,
      "som": 5363,
      "Ġ10": 5364,
      "Uh": 5365,
      "a,": 5366,
      "igbaĠ": 5367,
      "jul": 5368,
      "iaĠyaĠK": 5369,
      "Ġáĭ¨áĪļáĪį": 5370,
      "tÃŃĠÃ³Ġjáº¹ÌģĠ": 5371,
      "áĮłáīĥáĪĭáĭŃ": 5372,
      "Ayy": 5373,
      "hann": 5374,
      "tho": 5375,
      "ilosoph": 5376,
      "31Ġ": 5377,
      "Tanb": 5378,
      "ix": 5379,
      "rashinĠ": 5380,
      "Ã¤": 5381,
      "arabuĠ": 5382,
      "áĬ¨áĪ«": 5383,
      "iâĢĻarĠ": 5384,
      "ali,Ġ": 5385,
      "agn": 5386,
      "stud": 5387,
      "Had": 5388,
      "bÃ¬nrinĠ": 5389,
      "áĪįáį¡áį¡": 5390,
      "Ã¨g": 5391,
      "ĠáĪĺáĬĲ": 5392,
      "Najeriya": 5393,
      "IlÃ©-": 5394,
      "Ġáĭ¨áĪĿáīµ": 5395,
      "pÃłtÃłk": 5396,
      "el,Ġ": 5397,
      "John": 5398,
      "SchoolĠ": 5399,
      "web": 5400,
      "ablaĠ": 5401,
      "ĠáĭŃáĪ°": 5402,
      "idadiĠyaĠ": 5403,
      "ĠáĬ¥áĬķáĪµ": 5404,
      "ÃłtiĠÃłwá»įnĠ": 5405,
      "áĬ©áĪį": 5406,
      "indaĠtaĠ": 5407,
      "Sikuku": 5408,
      "entomonĠ": 5409,
      "Zanzib": 5410,
      "ekĠ": 5411,
      "6Ġ-Ġ": 5412,
      "Cal": 5413,
      "def": 5414,
      "Nuw": 5415,
      "aĠJiharĠ": 5416,
      "áĪįáįį": 5417,
      "iref": 5418,
      "áĪĪáĭ±": 5419,
      "ĠáĬłáĮ¥": 5420,
      "áĮĪáĭį": 5421,
      "Ġáī°áĬĲ": 5422,
      "Janair": 5423,
      "Republ": 5424,
      "Bro": 5425,
      "Je": 5426,
      "lÃ¨": 5427,
      "lÃ¹Ġ": 5428,
      "Ġ(201": 5429,
      "áĪĦáĭµ": 5430,
      "NÃŃĠá»įdÃºnĠ201": 5431,
      "ĠáĪ³áĭŃáĪĨáĬķ": 5432,
      "Sat": 5433,
      "tu": 5434,
      "awa.": 5435,
      "Iv": 5436,
      "ãĥ": 5437,
      "áĭ°áĮĭ": 5438,
      "zaÉĵ": 5439,
      "|-Ġ": 5440,
      "engineĠ": 5441,
      "Fren": 5442,
      "Arew": 5443,
      "Su": 5444,
      "kÃŃ": 5445,
      "Ð¸": 5446,
      "ĠáĪĺáĭĿ": 5447,
      "Ã²finĠ": 5448,
      "ĠáĪĽáĪħ": 5449,
      "ojuĠ": 5450,
      "dansĠleĠ": 5451,
      "ĠáĬŃáĪįáĪį": 5452,
      "es)Ġ": 5453,
      "eĠdÃ©": 5454,
      "sĠinĠ": 5455,
      "ruwaĠ": 5456,
      "áī¬": 5457,
      "áĮ³": 5458,
      "áĮłáįĭ": 5459,
      "Ġáĭ¨áī°áĪĪáĭ«áĭ©": 5460,
      "Ġáī³áĪĭáīħ": 5461,
      "jerinĠ": 5462,
      "gÃŃgaĠ": 5463,
      "usĠ(": 5464,
      "ollow": 5465,
      "Academ": 5466,
      "activ": 5467,
      "auĠm": 5468,
      "cetteĠ": 5469,
      "do": 5470,
      "ĠáĬĳ": 5471,
      "alÃłÃły": 5472,
      "áĪµáī±": 5473,
      "useĠ": 5474,
      "ĠáĭĪáĮĪáĬķ": 5475,
      "ĠáĪĪáĭį": 5476,
      "etĠlaĠ": 5477,
      "UmojaĠwaĠ": 5478,
      "AgbegbeĠ": 5479,
      "ĠáĪĽáĪµáī³áĭĪ": 5480,
      "moĠ": 5481,
      "ĠáĭĲ": 5482,
      "cinĠk": 5483,
      "Ġáĭ¨áīµ": 5484,
      "ÆĻir": 5485,
      "ovutiĠ": 5486,
      "ĠáĪ²áĪĨáĬķĠáĭŃáĪħ": 5487,
      "Ġáĭ¨áĬłáĪĽáĪŃáĬĽĠáĪĿáĪ³áĪĮĠáĬĲáĭįáį¢ĠáīµáĪŃáĮīáĪĻĠáĪĺáĭ°áī¥Ġ:Ġáī°áĪ¨áīµáĬĵĠáĪĿáĪ³áĪĮ": 5488,
      "olÃ³rinĠ": 5489,
      "ĠáīłáĬ¥áĬķáĮįáĪĬáĭĿáĬĽ": 5490,
      "lughaĠ": 5491,
      "Air": 5492,
      "JuneĠ": 5493,
      "play": 5494,
      "Ø¨": 5495,
      "Shir": 5496,
      "eĠdeĠl'": 5497,
      "jÃ¬Ġ": 5498,
      "tof": 5499,
      "µáį": 5500,
      "expl": 5501,
      "peutĠ": 5502,
      "yaaniĠ": 5503,
      "ÃĪkÃ³Ġ": 5504,
      "balimbaliĠ": 5505,
      "call": 5506,
      "ary": 5507,
      ".ĠB": 5508,
      "Den": 5509,
      "mÃ¹Ġ": 5510,
      "yayiĠ": 5511,
      "áĭ³áĪĿ": 5512,
      "obÃ¬nrinĠ": 5513,
      "tsawonĠ": 5514,
      "ion,Ġ": 5515,
      "autresĠ": 5516,
      "Wash": 5517,
      "Lagos": 5518,
      "intern": 5519,
      "ifĠ": 5520,
      "crip": 5521,
      "Sah": 5522,
      "hukoĠ": 5523,
      "ibleĠ": 5524,
      "áįĪáīµ": 5525,
      "waĠmasoĠ": 5526,
      "wakatiĠ": 5527,
      "ciĠgabaĠdaĠ": 5528,
      "beg": 5529,
      "isc": 5530,
      "atsay": 5531,
      "ItaliaĠ": 5532,
      "ĠáĪ©": 5533,
      "áĪŃáĮį": 5534,
      "ĠáĬĲáĭįáį¢Ġáĭ¨": 5535,
      "áĮłáĪį": 5536,
      "ÃĪkÃ³": 5537,
      "ĠáĪĢáĮĪáĪŃ": 5538,
      "Democr": 5539,
      "Tanzania": 5540,
      "overnmentĠ": 5541,
      "ryĠ": 5542,
      "aĠNajeriyaĠ": 5543,
      "igu": 5544,
      "áīłáĪĮ": 5545,
      "yÃ¬n": 5546,
      "aĠgarinĠ": 5547,
      "Ãłn.": 5548,
      "okeoĠyaĠ": 5549,
      "áĮ¥áĬķáī³áĭĬ": 5550,
      "oss": 5551,
      "Mut": 5552,
      "nasar": 5553,
      "vic": 5554,
      "áĬķĠ(": 5555,
      "áī½áĭį": 5556,
      "áĬĲáĮĪ": 5557,
      "Ġáĭ¨áī°áī£áĪĪáĭį": 5558,
      "wÃ¡jÃºĠ": 5559,
      "DanĠ": 5560,
      "-d": 5561,
      "Ã©lec": 5562,
      "aĠmas": 5563,
      "mÃº": 5564,
      "sá»į": 5565,
      "yauĠ": 5566,
      "aĠlaĠ": 5567,
      "áĬķáĭ°": 5568,
      "áĬķĠáĪĪ": 5569,
      "áĬķĠáĪµáĪĿ": 5570,
      "inz": 5571,
      "áį¢Ġáīł": 5572,
      "áī°áĭĭáĪįáį¢": 5573,
      "áĪĭáĪī": 5574,
      "usin": 5575,
      "Ġáĭ¨áĪĮ": 5576,
      "á»įÌĢn": 5577,
      "ceĠtaĠ": 5578,
      "oup": 5579,
      "amaĠdaĠ": 5580,
      "áĬĽáĭįĠáĬŃáįįáĪĪĠáĭĺáĪĺáĬķ": 5581,
      "áº¹ráº¹Ġ": 5582,
      "intaĠnaĠ": 5583,
      "NewĠYorkĠ": 5584,
      "ĠáĭĻáĪªáĭ«": 5585,
      "amuzikiĠ": 5586,
      "wid": 5587,
      "Ġ6": 5588,
      "eĠtaĠ": 5589,
      "aĠwas": 5590,
      "arans": 5591,
      "áº¹s": 5592,
      "áĭ«áĪµ": 5593,
      "elez": 5594,
      "gbÃ³": 5595,
      "aĠkoĠ": 5596,
      "kumbu": 5597,
      "áī¶áī¹": 5598,
      "agbÃ¡": 5599,
      "ĠáĪĨáĬĲáĭį": 5600,
      "IjobaĠ": 5601,
      "ĠáĬ¥áĮħáĮį": 5602,
      "MayĠ": 5603,
      "hiiĠ": 5604,
      "aiss": 5605,
      "Val": 5606,
      "ĠáĮĨ": 5607,
      "áĭŃáĬĲáīµ": 5608,
      "áī½áĪį": 5609,
      "aĠmwakaĠ": 5610,
      "áĬŃáĪĪ": 5611,
      "ambayoĠ": 5612,
      "áī¨áĪŃ": 5613,
      "75": 5614,
      "a,Ġk": 5615,
      "3Ġ-Ġ": 5616,
      "Fed": 5617,
      "tall": 5618,
      "arciĠ": 5619,
      "ikip": 5620,
      "long": 5621,
      "yáº¹": 5622,
      "ÃłgbÃ¡": 5623,
      "ijiĠyaĠ": 5624,
      "áĭĺáī¥": 5625,
      "awaĠnaĠ": 5626,
      "Ã²á¹£erÃ©Ġ": 5627,
      "olÃ³á¹£Ã¨": 5628,
      "Hous": 5629,
      "hom": 5630,
      "takaĠ": 5631,
      "endaĠ": 5632,
      "ici": 5633,
      "ograf": 5634,
      "territ": 5635,
      "ayenĠ": 5636,
      "áī½áĪģ": 5637,
      "áĮĪáĬĽ": 5638,
      "awezaĠ": 5639,
      "áĬ¨áĪŃ": 5640,
      "áĬ«áī£áī¢": 5641,
      "shindiĠwaĠTuzoĠyaĠNobelĠyaĠKemiaĠmwakaĠwaĠ": 5642,
      "EnglishĠ": 5643,
      "AgbaĠ": 5644,
      "jÃ¹Ġ": 5645,
      "áĮĪáĬĲ": 5646,
      "áĪªáī³": 5647,
      "Ġá¹£Ã¹gbá»įÌģnĠ": 5648,
      "ĠáĬ«áĪį": 5649,
      "iwonĠ": 5650,
      "AnĠhaifeĠ": 5651,
      "etoĠ": 5652,
      ".ĠH": 5653,
      "opĠ": 5654,
      "ainsiĠ": 5655,
      "KingĠ": 5656,
      "o)Ġ": 5657,
      "upĠ": 5658,
      "cas": 5659,
      "oĠchaĠ": 5660,
      "ÃłgbÃł": 5661,
      "olÃº": 5662,
      "ÆĻungiyarĠ": 5663,
      "áį¤Ġáīł": 5664,
      "jam'": 5665,
      "thĠcentur": 5666,
      "IIIĠ": 5667,
      "Nijeriya.": 5668,
      "HukumarĠ": 5669,
      "Ful": 5670,
      "Wil": 5671,
      "nouv": 5672,
      "abis": 5673,
      "ÃªmeĠ": 5674,
      "ministr": 5675,
      "Som": 5676,
      "lang": 5677,
      "Pak": 5678,
      "oĠtiĠ": 5679,
      "áĬŃáĪŃáĪµáī²áĭ«áĬķ": 5680,
      "idiĠyaĠ": 5681,
      "ĠáĪĽáĮ£": 5682,
      "oĠyaĠk": 5683,
      "Nijeriya.Ġ": 5684,
      "bro": 5685,
      "Reg": 5686,
      "sos": 5687,
      "inĠ(": 5688,
      "William": 5689,
      "âĢ¢ĠM": 5690,
      "fun": 5691,
      "iĠtaĠ": 5692,
      "Ġáĭ¨áĭĵ": 5693,
      "áī£áĪįáį¢": 5694,
      "áįįáĪªáĬ«": 5695,
      "áĭ¨áĪĺ": 5696,
      "áī²áĬŃ": 5697,
      "harshenĠ": 5698,
      "gabatarĠdaĠ": 5699,
      "al'umm": 5700,
      "su.": 5701,
      "dec": 5702,
      "in-": 5703,
      "jiĠmkuuĠwaĠ": 5704,
      "Stud": 5705,
      "RobertĠ": 5706,
      "22": 5707,
      "italĠ": 5708,
      "abij": 5709,
      "compos": 5710,
      "sabab": 5711,
      "wajeĠ": 5712,
      "áī¥áĪŃáĪĥ": 5713,
      "adhim": 5714,
      "ĠáĭŃáī½áĪĭáĪįáį¢": 5715,
      "ÃĵĠk": 5716,
      "ighĠ": 5717,
      "e)": 5718,
      "Oh": 5719,
      "Ġáĭ¨áī³": 5720,
      "eniyanĠ": 5721,
      "ÃŃĠÃ³Ġ": 5722,
      "áĪ³áī°": 5723,
      "Ġáī°áįĪ": 5724,
      "ĠáīłáĪį": 5725,
      "osereĠ": 5726,
      "zabenĠ": 5727,
      "ĠáĭĵáĬŃáĪįáīł.ĠáĮįáĭµáĪĿ": 5728,
      "ĠáĭŃáī³áĭĪáīĥáĪįáį¢": 5729,
      "euĠ": 5730,
      "ique,Ġ": 5731,
      ";Ġ(": 5732,
      "áĬ½": 5733,
      "áĬĭáĪĭ": 5734,
      "áĪŃ-": 5735,
      "yaĠyiĠ": 5736,
      "ĠáĬ¥áĭµ": 5737,
      "áĪ«áī¸áĭį": 5738,
      "antuĠ": 5739,
      "áīĥáĪį": 5740,
      "ĠáĬ¥áĬķáĭ°áĪĨáĬĲ": 5741,
      "DavidĠ": 5742,
      "âĢ¢ĠMtoĠ": 5743,
      "Dam": 5744,
      "abab": 5745,
      "MarchĠ": 5746,
      "BestĠ": 5747,
      "Ele": 5748,
      "eyiĠ": 5749,
      "annaĠ": 5750,
      "jimb": 5751,
      "liv": 5752,
      "mesĠ": 5753,
      "áĬ¾": 5754,
      "ĠáĬłáĭ²áĪµ": 5755,
      "kasaĠdaĠ": 5756,
      "Ġáĭ¨áĪĨáĬĳ": 5757,
      "dabanĠ": 5758,
      "Ġáĭ¨áĬĲáīłáĪ¨áĭį": 5759,
      "áĪĪáī°áĬĽáĭį": 5760,
      "Ġáĭ©áĬĴ": 5761,
      "AnnabiĠ": 5762,
      "vitaĠ": 5763,
      "inv": 5764,
      "Alb": 5765,
      "CibiyarĠ": 5766,
      "da": 5767,
      "ox": 5768,
      "wá»įÌĢĠ": 5769,
      "woteĠ": 5770,
      "zur": 5771,
      "insuĠ": 5772,
      "onÃŃá¹£": 5773,
      "áĭ«áĭ«": 5774,
      "áī¥áĪĬáĬŃ": 5775,
      "áº¹ÌĢláº¹ÌĢĠ": 5776,
      "áī£áĪī": 5777,
      "áĬĳáĪµ": 5778,
      "d'unĠ": 5779,
      "KÃ¡": 5780,
      "anim": 5781,
      "áĬķáĮ«": 5782,
      "áīłáĬĽ": 5783,
      "Ġáī°áīĭ": 5784,
      "ojoj": 5785,
      "fÃºnĠÃłwá»įnĠ": 5786,
      "shiryaĠ": 5787,
      "yaĠmutuĠ": 5788,
      "knownĠ": 5789,
      "gbá»įÌĢnĠ": 5790,
      "kumbukumb": 5791,
      "Ã©qu": 5792,
      "SouthĠ": 5793,
      "vileĠ": 5794,
      "alesĠ": 5795,
      "aiĠdaĠ": 5796,
      "ezĠ": 5797,
      "áĬłáĪĿ": 5798,
      "is.": 5799,
      "owev": 5800,
      "Rh": 5801,
      "iĠaĠ": 5802,
      "Alg": 5803,
      "Ne": 5804,
      "Yul": 5805,
      "ta.": 5806,
      "áĬ¡": 5807,
      "áī£áĪħ": 5808,
      "áĬ«áĪį": 5809,
      "ĠáĬ«áĪĮ": 5810,
      "Ġá»įÌĢd": 5811,
      "sÃ¬kÃ²Ġ": 5812,
      "nyingineĠ": 5813,
      "áĮłáīĢáĪĿ": 5814,
      "Î±": 5815,
      "Ð¾": 5816,
      "aminĠ": 5817,
      "byĠtheĠ": 5818,
      "Americ": 5819,
      "fáº¹Ìģ": 5820,
      "arĠs": 5821,
      "oni": 5822,
      "aziniĠ": 5823,
      "ĠáĪĪáĬ¥": 5824,
      "Ġáĭ«áĪī": 5825,
      "áĭĽáĪ¬": 5826,
      "áĪ±áĪĿ": 5827,
      "agbegbeĠ": 5828,
      "Ã©galementĠ": 5829,
      ",ĠmshindiĠwaĠTuzoĠyaĠNobelĠyaĠTibaĠmwakaĠwaĠ": 5830,
      "ÃĮbÃłd": 5831,
      "cy": 5832,
      "alorsĠ": 5833,
      "aya,Ġ": 5834,
      "le,Ġ": 5835,
      "áĮ¼": 5836,
      "tĠ(": 5837,
      ".ĠItokasi": 5838,
      "4Ġ-Ġ": 5839,
      "áīģáĪŃ": 5840,
      "uĠkwaĠ": 5841,
      "argaj": 5842,
      "nÃŃĠá»įdÃºnĠ201": 5843,
      "ĠáĪ«áĪµ": 5844,
      "Dur": 5845,
      "Hak": 5846,
      "low": 5847,
      "rest": 5848,
      "aiz": 5849,
      "angĠ": 5850,
      "biyarĠ": 5851,
      "kafinĠ": 5852,
      "wouldĠ": 5853,
      "apr": 5854,
      "ossĠ": 5855,
      "Ġáĭ¨áī°áĬŃáĪī": 5856,
      "ÃĢwá»įnĠÃĮt": 5857,
      "ĠáĭįáĪµáĮ¥Ġáĭ¨áĪļáĮĪáĬĿ": 5858,
      "KanoĠ": 5859,
      "ÃĢwá»įnĠÃ¨nÃ¬yÃłnĠalÃłÃły": 5860,
      "TanbihiĠ": 5861,
      "ĠAb": 5862,
      "FranceĠ": 5863,
      "TVĠ": 5864,
      "dÃ¬": 5865,
      "ÙĴ": 5866,
      "inform": 5867,
      "ere": 5868,
      "ondeĠ": 5869,
      "áĮĪáĭĽ": 5870,
      "áº¹Ìģm": 5871,
      "nÃŃtorÃŃĠ": 5872,
      "lá»įÌģwá»įÌģĠ": 5873,
      "wá»įÌģn": 5874,
      "0Ġ-Ġ": 5875,
      "aelĠ": 5876,
      "dog": 5877,
      "spec": 5878,
      "GÃ³mÃ¬nÃłĠ": 5879,
      "bat": 5880,
      "láº¹": 5881,
      "táº¹ÌĢ": 5882,
      "áī³áī½áĬķ": 5883,
      "baĠtaĠ": 5884,
      "com/": 5885,
      "ariĠtaraĠ": 5886,
      "KanisaĠ": 5887,
      "hadiĠk": 5888,
      "áĭ°áĪ¨áĮī": 5889,
      "TarayyarĠ": 5890,
      "ĠáĪŀáīµ": 5891,
      "ne,ĠdaĠkeĠ": 5892,
      "n.k.": 5893,
      "áº¸ÌĢ": 5894,
      "kÃ¹nrinĠ": 5895,
      "ini.": 5896,
      ".ĠS": 5897,
      "Institut": 5898,
      "ualĠ": 5899,
      ",ĠS": 5900,
      "ĠáīłáĪ¨": 5901,
      "ubuc": 5902,
      "ocinĠ": 5903,
      "áĬłáĪį": 5904,
      "jami'": 5905,
      "walikuwaĠ": 5906,
      "ĠáĭĵáĪĺáī±": 5907,
      "aikiĠaĠmatsayinĠ": 5908,
      "Iá¹£áº¹ÌģĠ": 5909,
      "ĠáīłáĬ©áĪį": 5910,
      "MakarantarĠ": 5911,
      "AnaĠ": 5912,
      "Bak": 5913,
      "wap": 5914,
      "velop": 5915,
      "aĠG": 5916,
      "Litt": 5917,
      "Ø¯": 5918,
      "anĠNajeriyaĠ": 5919,
      "áĭįáĪµ": 5920,
      "engaĠ": 5921,
      "áĭµáĪµáīµ": 5922,
      "áĬĿáĬĲáīµ": 5923,
      "ĠáĮĪáī¥": 5924,
      "áĮłáĪĭ": 5925,
      "AfirkaĠtaĠ": 5926,
      "Ġáī¤áī°ĠáĬŃáĪŃáĪµáī²áĭ«áĬķ": 5927,
      "Ã¬sÃłnĠ": 5928,
      "numb": 5929,
      "Ath": 5930,
      "onek": 5931,
      ")ĠáĬ¨": 5932,
      "=\"": 5933,
      "lasheĠ": 5934,
      "pÃ²Ġ": 5935,
      "áĭ£": 5936,
      "Ġáĭ±": 5937,
      "atiĠyaĠm": 5938,
      "Ã¬bÃŃláº¹ÌĢĠ": 5939,
      "toĠgbaĠEbunĠ": 5940,
      "iki,Ġ": 5941,
      "umoĠ": 5942,
      "airesĠ": 5943,
      "erb": 5944,
      "trouv": 5945,
      "Jon": 5946,
      "oÃ¹Ġ": 5947,
      "ren": 5948,
      "rank": 5949,
      "iyoyinĠ": 5950,
      "ĠáĬłáĪ°": 5951,
      "Alim": 5952,
      "ĠáīµáĪįáīħ": 5953,
      "YorÃ¹bÃ¡": 5954,
      "ĠáĪľáīµáĪŃ": 5955,
      "LegasĠ": 5956,
      "kuhusuĠ": 5957,
      "Centr": 5958,
      "abinĠ": 5959,
      "cheĠ": 5960,
      "Lab": 5961,
      "estĠunĠ": 5962,
      "KunaĠ": 5963,
      "Lu": 5964,
      "áĬķáĭ²": 5965,
      "áĭįáĪį": 5966,
      "áĪĪáĪģ": 5967,
      "okanaĠnaĠ": 5968,
      "áĪİáĬķ": 5969,
      "nÃ¡Ãł,Ġ": 5970,
      "ĠáĪķáĭĿ": 5971,
      "nameĠ": 5972,
      "gwamnatinĠ": 5973,
      "KadunaĠ": 5974,
      "Offic": 5975,
      "ĠáįķáĪ¬áĭļ": 5976,
      "log": 5977,
      "esĠandĠ": 5978,
      "100Ġ": 5979,
      "fordĠ": 5980,
      "Lim": 5981,
      "Rad": 5982,
      "Ãį": 5983,
      "intĠ": 5984,
      "ĠáĭįáĮ¤": 5985,
      "ĠáĪ¥áĪĭáĪ´": 5986,
      "pÃłÃ¡Ġ": 5987,
      "Ġáĭ¨áĪ°áĭį": 5988,
      "ĠáīłáĭĺáĪĺáĬĲĠáĭ®áĪĲáĬķáĪµ": 5989,
      "ilioniĠ": 5990,
      "writ": 5991,
      "Sak": 5992,
      "ĠáįĢ": 5993,
      "Ġáĭŀ": 5994,
      "áīĢáĪį": 5995,
      "áīĢáĭµáĪŀ": 5996,
      "áīħáĪµ": 5997,
      "wakaz": 5998,
      "zamaniĠ": 5999,
      "asarautarĠ": 6000,
      "Ã¬rÃ²yÃ¬nĠ": 6001,
      "ĠáĮ½áĪĳáįį": 6002,
      "a),Ġ": 6003,
      "cre": 6004,
      "Ã©rÃ©Ġ": 6005,
      "wayĠ": 6006,
      "amaĠk": 6007,
      "unĠM": 6008,
      "ident": 6009,
      "báº¹ÌģĠ": 6010,
      "jour": 6011,
      "áīµáĪĿ": 6012,
      "awĠ": 6013,
      "áĬ¨áįį": 6014,
      "ipÃ²Ġ": 6015,
      "ingĠtoĠ": 6016,
      "daĠyakeĠ": 6017,
      "lÃ©Ġráº¹ÌĢĠ": 6018,
      "áĬķáĭ³áĪŃ": 6019,
      "ĠáĮįáī¥áĮ½": 6020,
      "aĠp": 6021,
      "Åį": 6022,
      "áĭķáĭĿ": 6023,
      "CC": 6024,
      "Wad": 6025,
      "aniĠk": 6026,
      "Ã³Ġá¹£": 6027,
      "ĠkatikaĠm": 6028,
      "Ã¬dÃŃĠ": 6029,
      "ĠáĭŃáĪħáĪĿ": 6030,
      "atukio": 6031,
      "áĬ¨áī°áĪĪáĭį": 6032,
      "fasah": 6033,
      "AD": 6034,
      "jÃ©Ġ": 6035,
      "oĠM": 6036,
      "áĪµáī°áĬĽ": 6037,
      "Ġáīłáĭ¨": 6038,
      "ĠáĬłáĬĲ": 6039,
      "ĠáĬłáĭµ": 6040,
      "us.": 6041,
      "wandaĠkeĠ": 6042,
      "áĭ³áĮħ": 6043,
      "ĠáĭµáĬķ": 6044,
      "ĠáīģáĮ¥": 6045,
      "Ãłwá»įnĠá»įmá»įĠ": 6046,
      "dÃ¡raĠ": 6047,
      "Kur": 6048,
      "ji": 6049,
      "ordĠ": 6050,
      "IbrahimĠ": 6051,
      "Ã©eĠparĠ": 6052,
      "itaceĠ": 6053,
      "ÆĻidayarĠ": 6054,
      "ĠáĬ¥áĬķáĭ°áī°": 6055,
      "ĠáīłáĪĺáĪĨáĬĳ": 6056,
      "aĠkung": 6057,
      "Ã¨resĠ": 6058,
      "ÃºrÃ²Ġ": 6059,
      "t.": 6060,
      "wer": 6061,
      "Ã³p": 6062,
      "enĠ(": 6063,
      "opol": 6064,
      "earlyĠ": 6065,
      "ina,Ġ": 6066,
      "ÃĢĠ": 6067,
      "Wais": 6068,
      "lÃ²": 6069,
      "ine,Ġ": 6070,
      "áĬ¨áī¥": 6071,
      "áĪ¥áī±": 6072,
      "ÅĦĠk": 6073,
      "ÃŃnÃºĠ": 6074,
      "tÃŃĠwá»įÌģnĠbÃŃĠ": 6075,
      "áĮİáĪŃáĮİáĪŃ": 6076,
      "mÃ©jÃ¬Ġ": 6077,
      "Jer": 6078,
      ",ĠleĠ": 6079,
      "conom": 6080,
      "KĠ": 6081,
      "nje": 6082,
      "noĠ": 6083,
      "ood": 6084,
      "ÃºÃºs": 6085,
      "áĭ³áĬķáīµ": 6086,
      "ÅĦĠá¹£eĠ": 6087,
      "ĠáĪµáĪĪáĭļáĪħ": 6088,
      "pÃŃnláº¹ÌĢ": 6089,
      "ĠáĪħáĭĿáī¥": 6090,
      "atib": 6091,
      "izoĠ": 6092,
      "tÃ²": 6093,
      "autaĠ": 6094,
      "faf": 6095,
      "Ġ7": 6096,
      "áĬķĠáĪĪáĪĺ": 6097,
      "alk": 6098,
      "ĠáĪĺáĪ¨áĮĥ": 6099,
      "ajiliĠyaĠ": 6100,
      "áį¡áĭ¨": 6101,
      "tÃŃĠÃ³ĠÅĦĠ": 6102,
      "ileĠniĠ": 6103,
      "IbileĠ": 6104,
      "LondonĠ": 6105,
      "awalaĠwaĠ": 6106,
      "ĠáĪĿáĬķáĮŃ": 6107,
      "JosephĠ": 6108,
      "Sun": 6109,
      "arew": 6110,
      "ever": 6111,
      "Kum": 6112,
      "Ã©s": 6113,
      "erĠandĠ": 6114,
      "2006": 6115,
      "avy": 6116,
      "les": 6117,
      "yam": 6118,
      "áī§": 6119,
      "ikiĠwaĠ": 6120,
      "ĠáīłáĮ¥": 6121,
      "ĠáĬłáī£áĪį": 6122,
      ")ĠnaĠ": 6123,
      "áī£áī¥": 6124,
      "apÃ¡Ġ": 6125,
      "iyaĠdaĠ": 6126,
      "ĠáĬŃáĪŃáĪµáī¶áĪµ": 6127,
      "yanaĠdaĠ": 6128,
      "áĬªáĭ«": 6129,
      "ĠáįĬáĭ°áĪį": 6130,
      "ĠáįķáĪ®": 6131,
      ".ĠÃĢwá»įnĠÃ¬t": 6132,
      "áįĪáĮ¥áĪ®": 6133,
      "etiĠ": 6134,
      "estiv": 6135,
      "tainĠ": 6136,
      "4,": 6137,
      "hut": 6138,
      "naf": 6139,
      "tabb": 6140,
      "áĮ¾": 6141,
      "Ã¬gbÃ©": 6142,
      "ĠáīłáĪĨ": 6143,
      "Ġáĭ¨áĬĸ": 6144,
      "ĠáĬ¥áĬķáĬ³": 6145,
      "ishaĠm": 6146,
      "ambaz": 6147,
      "maĠÅĦĠ": 6148,
      ",ĠmwandishiĠ": 6149,
      "shirye-": 6150,
      "daĠyawanĠjama'aĠ": 6151,
      "tattalinĠarz": 6152,
      "Láº¹ÌģyÃ¬nĠ": 6153,
      "ĠáĬłáĭŃáĭ°áĪĪáĪĿ": 6154,
      "udaĠ": 6155,
      "1)": 6156,
      "C.": 6157,
      "Ter": 6158,
      "Sil": 6159,
      "Sol": 6160,
      "fÃł": 6161,
      "ĠáīłáĪ«": 6162,
      "tif": 6163,
      "ĠáĬłáĬķáĭ³áĬķáĭµ": 6164,
      "fad": 6165,
      "ie,Ġ": 6166,
      "ilsĠ": 6167,
      "lev": 6168,
      "Kwam": 6169,
      "áĪµáī¶": 6170,
      "ayáº¹": 6171,
      "oft": 6172,
      "ĠáĪĺáĮ»": 6173,
      "osiĠ": 6174,
      "áĬłáĭŃ": 6175,
      "áĪµáĪ«áīħ": 6176,
      "ĠáĪĽáĪŃáīĨáĪµ": 6177,
      "gudanarĠdaĠ": 6178,
      "ammalaĠkar": 6179,
      "ĠáīłáĪĻáĪī": 6180,
      "ES": 6181,
      "ium": 6182,
      "ĠÐ": 6183,
      "irg": 6184,
      "áīłáĪ¬": 6185,
      "áĭĭáīµ": 6186,
      "áĭĿáĪĽáī½": 6187,
      "ĠáĬłáĪĿáĪĭáĬŃ": 6188,
      "AP": 6189,
      "cal": 6190,
      "moreĠ": 6191,
      "pris": 6192,
      "d.Ġ": 6193,
      "e),Ġ": 6194,
      "moj": 6195,
      "partĠ": 6196,
      "pia": 6197,
      "uĠdaĠ": 6198,
      "áĪ«áĪĿ": 6199,
      "2007Ġ": 6200,
      "áĭĺáĬķ": 6201,
      "ÉĹauk": 6202,
      "huadhim": 6203,
      "ĠáĪļáĪĬ": 6204,
      "pÃłtÃłkÃ¬Ġ": 6205,
      "LĠ": 6206,
      "erv": 6207,
      "FĠ": 6208,
      "egem": 6209,
      "South": 6210,
      "Dev": 6211,
      "Ot": 6212,
      "áĪ³áĪį": 6213,
      "áĭ¨áĭį": 6214,
      "áĬ«áī³": 6215,
      "ĠáĬ¥áĬķáĭ°áĮĪáĬĵ": 6216,
      "ĠáĮĢáĪĿáĪ®ĠáĬ¥áĪµáĬ¨Ġ": 6217,
      "ĠáīłáĪ½áī³": 6218,
      "alÃ¡Ã¬sÃŃĠnÃŃĠ": 6219,
      "KanananĠhukumominĠjiharĠ": 6220,
      "48": 6221,
      "We": 6222,
      "gn": 6223,
      "ing.": 6224,
      "gur": 6225,
      "ly": 6226,
      ".ĠL": 6227,
      "empl": 6228,
      "Olymp": 6229,
      "AwardĠ": 6230,
      "cikiĠ": 6231,
      "sil": 6232,
      "zakeĠ": 6233,
      "Ãłgb": 6234,
      "obiĠ": 6235,
      "ĠáīłáĬ¢": 6236,
      "áī²áĬķ": 6237,
      "áĪģáĪī": 6238,
      "áĮĬáĪµ": 6239,
      "IjobaĠIbileĠ": 6240,
      "ĠáĬ«áĪĮáĬķáĭ³áĪŃ": 6241,
      "Î¿": 6242,
      "Portug": 6243,
      "Kais": 6244,
      "ranĠ": 6245,
      "yth": 6246,
      "okanĠ": 6247,
      "fe": 6248,
      "hivyoĠ": 6249,
      "aĠtiĠ": 6250,
      "abakiĠ": 6251,
      "áīłáĭį": 6252,
      "ĠáĪĪáī°": 6253,
      "ectiv": 6254,
      "ChinaĠ": 6255,
      "áīĭáĬķáīĭ": 6256,
      "AfrikaĠyaĠ": 6257,
      "ÃĢwá»įnĠá»įjá»įÌģ": 6258,
      "áĬķáĭ³áĬķáĭµ": 6259,
      "MarejeoĠ": 6260,
      "áĮİáĪŃáĮİáĪŃáĭ«áĬķ": 6261,
      "dep": 6262,
      "pri": 6263,
      "Ã©taitĠ": 6264,
      "Scien": 6265,
      "cit": 6266,
      "uceĠ": 6267,
      "azz": 6268,
      "AliĠ": 6269,
      "ollywoodĠ": 6270,
      "VisiwaĠ": 6271,
      "mp": 6272,
      "mor": 6273,
      "nomĠ": 6274,
      "pá»į": 6275,
      "yaliy": 6276,
      "áĪµáĪĽ": 6277,
      "Ġáį«": 6278,
      "áĪŀáĬŃ": 6279,
      "arkokinĠ": 6280,
      "áĭĽáĭĿ": 6281,
      "Ġá»ĮdÃºnĠ": 6282,
      "ari'": 6283,
      "wengi,Ġ": 6284,
      "áĮ£áĪįáĭ«áĬķ": 6285,
      "ĠáĪĽáĮ£áīĢ": 6286,
      "follow": 6287,
      "istaĠ": 6288,
      "franÃ§ais": 6289,
      "DarĠ": 6290,
      "Str": 6291,
      "Wab": 6292,
      "band": 6293,
      "meĠm": 6294,
      "yiĠm": 6295,
      "ijer": 6296,
      "ĠáĬĹ": 6297,
      "áĪįáĮħ": 6298,
      "Ġáī°áĬĵ": 6299,
      "owÃ³Ġ": 6300,
      "áĪ©áīµ": 6301,
      "aĠyaĠm": 6302,
      "yanay": 6303,
      "aularĠ": 6304,
      "Ã¬lÃº": 6305,
      "YunifÃ¡": 6306,
      "ĠáĬłáĪģáĬķ": 6307,
      "ÃĢwá»įnĠá»įjá»įÌģalÃ¡Ã¬sÃŃĠnÃŃĠ": 6308,
      "centr": 6309,
      "perĠ": 6310,
      "manyĠ": 6311,
      "gan": 6312,
      "pour": 6313,
      "ami": 6314,
      "o,Ġm": 6315,
      "ThomasĠ": 6316,
      "Kig": 6317,
      "pá»įĠ": 6318,
      "wez": 6319,
      "ĠáĪİ": 6320,
      "áĭ«áĭĿ": 6321,
      "ĠáĪĺáī¶": 6322,
      "áĪ«áĪ½": 6323,
      "ekoĠ": 6324,
      "aĠkatikaĠm": 6325,
      "lambarĠyab": 6326,
      "Gar": 6327,
      "Luc": 6328,
      "wardĠ": 6329,
      "Mov": 6330,
      "Oj": 6331,
      "c.": 6332,
      "lib": 6333,
      "Ðµ": 6334,
      "aya.": 6335,
      "wand": 6336,
      "Ev": 6337,
      "eyeĠ": 6338,
      "him": 6339,
      "akaf": 6340,
      "ĠáĪĿáĬĵáĪį": 6341,
      "angl": 6342,
      "niĠá»įdunĠ": 6343,
      "Ã¬dÃ¡": 6344,
      "áĭ³áĬķáĭ±": 6345,
      "sinimÃ¡ĠÃłgbÃ©lÃ©": 6346,
      "ĠáĪĿáĬĵáĪįáī£áīµ": 6347,
      "99": 6348,
      "Ver": 6349,
      "dak": 6350,
      "ĠAug": 6351,
      "(199": 6352,
      "dÃ³": 6353,
      "ic,Ġ": 6354,
      "áĪįáīģ": 6355,
      "ĠáĬłáī£áīµ": 6356,
      "áĬ¥áĮįáĭļáĬłáī¥áĪĶáĪŃ": 6357,
      "waĠkwanzaĠ": 6358,
      "Ġ15": 6359,
      "Frank": 6360,
      "OgunĠ": 6361,
      "AgbegbeĠIjobaĠIbileĠ": 6362,
      "38": 6363,
      "qĠ": 6364,
      "whereĠ": 6365,
      "gargaj": 6366,
      "ºáį": 6367,
      "áĬķĠáīłáĪĺ": 6368,
      "taĠfarkoĠ": 6369,
      "ational": 6370,
      "lá»į.": 6371,
      "ilÃ©-iá¹£áº¹ÌģĠ": 6372,
      "RayuwarĠ": 6373,
      "nemanĠ": 6374,
      "-áº¹ÌĢyáº¹Ġ": 6375,
      "91Ġáĭĵ.áĪĿ.": 6376,
      "agenĠ": 6377,
      "aeĠ": 6378,
      "afuĠ": 6379,
      "leĠdeĠ": 6380,
      "SaintĠ": 6381,
      "son": 6382,
      "ikuuĠ": 6383,
      "áĮĪáī¡": 6384,
      "iliminĠ": 6385,
      "iaĠkatikaĠ": 6386,
      "imataif": 6387,
      "áĮİáĪŃáĮİáĪŃáĭ«áĬķĠáĬ«áĪĮáĬķáĭ³áĪŃ": 6388,
      "oaĠ": 6389,
      "ithĠ": 6390,
      "ammentĠ": 6391,
      "suchĠasĠ": 6392,
      "47": 6393,
      "AM": 6394,
      "bÃłĠ": 6395,
      "gá»įÌģ": 6396,
      "rig": 6397,
      "uish": 6398,
      "zan": 6399,
      "onyĠ": 6400,
      "itoĠ": 6401,
      "2091Ġáĭĵ.áĪĿ.": 6402,
      "Ġáī°áĭĭ": 6403,
      "azarinĠ": 6404,
      "áīłáĪ°": 6405,
      "Ġáī£áĪį": 6406,
      "auriĠ": 6407,
      "dÃ©part": 6408,
      "ĠáįĪáĪ¨áĬķ": 6409,
      "eneoĠyaĠ": 6410,
      "áĪ¥áĪ«áīħ": 6411,
      "AbubakarĠ": 6412,
      "ijerum": 6413,
      "pÃ¡Ġ": 6414,
      "ving": 6415,
      "DansĠ": 6416,
      "banĠ": 6417,
      "met": 6418,
      "gidaĠ": 6419,
      "s)Ġ": 6420,
      "¹áį": 6421,
      "aĠshekararĠ201": 6422,
      "ĠáĪ¹": 6423,
      "áĬķĠáĪĽ": 6424,
      "gbÃ¡Ġ": 6425,
      "ĠáīłáĪķ": 6426,
      "trÃ¨sĠ": 6427,
      "áįįáĬĵ": 6428,
      "áĬłáĬķ": 6429,
      "lead": 6430,
      "áīłáĪī": 6431,
      "Alh": 6432,
      "áĭ®áĪŃáĮĬáĪµ": 6433,
      "Moh": 6434,
      "osp": 6435,
      "isĠ(": 6436,
      "ts,Ġ": 6437,
      "B.": 6438,
      "anal": 6439,
      "ajuĠ": 6440,
      "cultur": 6441,
      "Kih": 6442,
      "KwalejinĠ": 6443,
      "áĪªáīµ": 6444,
      "ĠáĭµáĬķáĮĭ": 6445,
      "ĠáĬłáĮĪáĪ«áīµ": 6446,
      "âĢİâĢİ": 6447,
      "áĪıáĪįáį¢": 6448,
      "Iy": 6449,
      "Mo": 6450,
      "RoyalĠ": 6451,
      "iel": 6452,
      "jus": 6453,
      "eroĠ": 6454,
      "mayĠ": 6455,
      "typ": 6456,
      "táº¹l": 6457,
      "ceĠdakeĠ": 6458,
      "ĠáĪįáī¥": 6459,
      "AnĠginaĠ": 6460,
      "BKĠ(BaadaĠyaĠKristo).ĠMatukioĠ": 6461,
      "á»įkÃłn": 6462,
      "amakonĠ": 6463,
      "ĠáĪĽáĪµáī³áĭĪáĪ»áĭİáī½": 6464,
      "eshiĠ": 6465,
      "StatesĠ": 6466,
      "ObaĠ": 6467,
      "Rev": 6468,
      "Ġáĭ¨áĪŀ": 6469,
      "ignĠ": 6470,
      "toĠjeĠ": 6471,
      "toĠbeĠ": 6472,
      "kumaĠmaiĠ": 6473,
      "andik": 6474,
      "Ġá¹£ÃŃá¹£": 6475,
      "ayyukanĠ": 6476,
      "indaĠyaĠ": 6477,
      "Ġ(BaadaĠyaĠKristo).ĠMatukioĠWaliozaliwaĠWaliofarikiĠKarneĠyaĠ": 6478,
      "AlakosoĠAgbaĠ": 6479,
      "uteĠ": 6480,
      "ion.": 6481,
      "paysĠ": 6482,
      "Hany": 6483,
      "MaiĠ": 6484,
      "underĠ": 6485,
      "EastĠ": 6486,
      "Kif": 6487,
      "Nair": 6488,
      "iĠzaĠ": 6489,
      "áĪµáĪį": 6490,
      "áĬĲáī±áĬķ": 6491,
      "ĠáĪĺáĮ¥": 6492,
      "Ã©ĠdeĠ": 6493,
      "Ġáĭ¨áĬ®": 6494,
      "áĭ«áĬķáĭ³áĬķáĭ±": 6495,
      "ĠáĬŃáįįáĪİáī½": 6496,
      "thatĠtheĠ": 6497,
      "Ã²rÃ²Ġ": 6498,
      "Ġáĭ¨áĪļáĭ«áĪµ": 6499,
      "Ġáĭ³áĪŃ": 6500,
      "aliye": 6501,
      "premierĠ": 6502,
      "TazamaĠpiaĠOrodhaĠyaĠ": 6503,
      "YohaneĠ": 6504,
      "'estĠ": 6505,
      "AT": 6506,
      "WarĠ": 6507,
      "idd": 6508,
      "languageĠ": 6509,
      "usieursĠ": 6510,
      "Kul": 6511,
      "hiy": 6512,
      "Ġáī¶": 6513,
      "ĠáĮ«": 6514,
      "amfan": 6515,
      "uatanaĠnaĠ": 6516,
      "ÃłwÃ³Ġ": 6517,
      "ViungoĠvyaĠnje": 6518,
      "yaddaĠ": 6519,
      "a).": 6520,
      "zoĠ": 6521,
      "ajir": 6522,
      "foreĠ": 6523,
      "39": 6524,
      "Ear": 6525,
      "yÃ¨Ġ": 6526,
      "aĠwasanĠ": 6527,
      "áĬķáĪ³áĭĬ": 6528,
      "ĠáĮ³": 6529,
      "ĠáĪĺáĪ³": 6530,
      "ĠáĭŃáĮłáīĢ": 6531,
      "áį£Ġ": 6532,
      "jáº¹ÌģĠá»įmá»įĠ": 6533,
      "DesembaĠ": 6534,
      "Dok": 6535,
      "Sok": 6536,
      "Åĵ": 6537,
      "ĠØ§ÙĦ": 6538,
      "eĠsurĠ": 6539,
      "Ash": 6540,
      "Kor": 6541,
      "gaĠm": 6542,
      "etĠlesĠ": 6543,
      "Que": 6544,
      "Res": 6545,
      "kÃ¨Ġ": 6546,
      "¸áį": 6547,
      "áī¾": 6548,
      "áĬķáĭ¶": 6549,
      "iláº¹ÌĢ": 6550,
      "áī³áī½": 6551,
      "ahaliĠ": 6552,
      "re.": 6553,
      "aĠbir": 6554,
      "Ġáº¹ÌĢyáº¹Ġ": 6555,
      "OlÃº": 6556,
      "ĠáīĢáĬķĠáį²áį±áį»áį": 6557,
      "ÃĢwá»įnĠÃ¬tá»įÌģkasÃŃĠ": 6558,
      "áĮĪáĪªáī±": 6559,
      "FrenchĠ": 6560,
      "hadiĠkifoĠch": 6561,
      "Nam": 6562,
      "Ùĩ": 6563,
      "const": 6564,
      ".ĠT": 6565,
      "taĠfaraĠ": 6566,
      "áĪ³áĪ³áĭŃ": 6567,
      "Ã³ĠsÃ¬Ġ": 6568,
      "áīĢáĪ¨": 6569,
      "Ġáī¥áĭĽáīµ": 6570,
      "áį¤Ġáĭ¨": 6571,
      "ember": 6572,
      "oá¹£Ã¹ĠK": 6573,
      "ĠáĭĿáĪŃáĭ«": 6574,
      "---": 6575,
      "Sala": 6576,
      "ĠáĪĪáĪĿáĪ³áĪĮ": 6577,
      "JulaiĠ-Ġ": 6578,
      "kaskazin": 6579,
      "aan": 6580,
      "ge": 6581,
      "toutĠ": 6582,
      "annÃ©esĠ": 6583,
      "NewĠYork": 6584,
      "BBCĠ": 6585,
      "Dut": 6586,
      "Larab": 6587,
      "áĬķáĭ°áĪŃ": 6588,
      "iláº¹": 6589,
      "gboyÃ¨Ġ": 6590,
      "adir": 6591,
      "ĠáĭŃáī»": 6592,
      "ĠáĭĪáĪįáĭ°": 6593,
      "wakifuat": 6594,
      ",ĠmwigizajiĠwaĠfilamuĠ": 6595,
      "daĠyawaĠ": 6596,
      "sakand": 6597,
      "upandeĠwaĠm": 6598,
      "OrÃŃláº¹ÌĢ-Ã¨dÃ¨Ġ": 6599,
      "Ãłn,Ġ": 6600,
      "ĠáīłáĮİáĪŃáĮİáĪŃáĭ«áĬķĠáĬ«áĪĮáĬķáĭ³áĪŃ": 6601,
      "Ã²:Ġ": 6602,
      "obj": 6603,
      "MariaĠ": 6604,
      "ĠáĪ²áĪĨáĬķáį£": 6605,
      "Ã¬tÃłg": 6606,
      "yaĠmwakaĠ": 6607,
      "ĠáĬĲáĮĪáĪŃĠáĮįáĬķ": 6608,
      "lÃ¡raĠÃłwá»įnĠ": 6609,
      "digiriĠnaĠ": 6610,
      "shiĠneĠdanĠwasanĠÆĻwallonĠÆĻafaĠtaĠÆĻasarĠIngila.": 6611,
      "aprÃ¨sĠ": 6612,
      "FM": 6613,
      "Way": 6614,
      "re,Ġ": 6615,
      "Bau": 6616,
      "baiĠ": 6617,
      "nuf": 6618,
      "ika": 6619,
      "ká»įÌĢĠ": 6620,
      "lilikuwaĠ": 6621,
      "atab": 6622,
      "áī°áį¢": 6623,
      "Ġáĭ¨áĬ¦": 6624,
      "áĪ©áĪĿ": 6625,
      "áĪ²áĬķ": 6626,
      "ĠáīĢáĬķĠáĪĽáĪĪáīµĠáĬĲáĭįáį¢": 6627,
      "fiĠs": 6628,
      "ĠáĬłáīĨáĮ£áĮłáĪŃĠ(áĬ¨": 6629,
      "1892Ġáĭĵ.áĪĿ.ĠáĮĢáĪĿáĪ®ĠáĬ¥áĪµáĬ¨Ġ": 6630,
      "ĠáīĢáĬķĠáīłáĬ¢áīµáĭ®áĮµáĭ«ĠáĬłáīĨáĮ£áĮłáĪŃĠ(áĬ¨": 6631,
      "1892Ġáĭĵ.áĪĿ.ĠáĮĢáĪĿáĪ®ĠáĬ¥áĪµáĬ¨Ġ2091Ġáĭĵ.áĪĿ.": 6632,
      "ĠáīĢáĬķĠáīłáĬ¢áīµáĭ®áĮµáĭ«ĠáĬłáīĨáĮ£áĮłáĪŃĠ(áĬ¨1892Ġáĭĵ.áĪĿ.ĠáĮĢáĪĿáĪ®ĠáĬ¥áĪµáĬ¨Ġ2091Ġáĭĵ.áĪĿ.": 6633,
      "Mand": 6634,
      "rÃ¨Ġ": 6635,
      "tain": 6636,
      "influ": 6637,
      "YanaĠ": 6638,
      "haih": 6639,
      "kejÃ¬Ġ": 6640,
      "ild": 6641,
      "apá»įÌĢĠ": 6642,
      "áīħáĭ±áĪµ": 6643,
      "Ġáĭĺáĭ´": 6644,
      "áĭ©áĪµ": 6645,
      "Philip": 6646,
      "Ġáĭ¨áīĢáĬķĠáĪµáĪĿ": 6647,
      "Ġ(áĬ¥áĬķáĮįáĪĬáĭĿáĬĽ": 6648,
      "FirstĠ": 6649,
      "ĠáĪ²áĪĨáĬķĠáĭŃáĪħĠáīĢáĬķĠáīłáĬ¢áīµáĭ®áĮµáĭ«ĠáĬłáīĨáĮ£áĮłáĪŃĠ(áĬ¨1892Ġáĭĵ.áĪĿ.ĠáĮĢáĪĿáĪ®ĠáĬ¥áĪµáĬ¨Ġ2091Ġáĭĵ.áĪĿ.": 6650,
      "ĠáīłáĬ¥áĬķáĮįáĪĬáĭĿáĬĽĠáĪ²áĪĨáĬķĠáĭŃáĪħĠáīĢáĬķĠáīłáĬ¢áīµáĭ®áĮµáĭ«ĠáĬłáīĨáĮ£áĮłáĪŃĠ(áĬ¨1892Ġáĭĵ.áĪĿ.ĠáĮĢáĪĿáĪ®ĠáĬ¥áĪµáĬ¨Ġ2091Ġáĭĵ.áĪĿ.": 6651,
      "ĠáīłáĮİáĪŃáĮİáĪŃáĭ«áĬķĠáĬ«áĪĮáĬķáĭ³áĪŃĠáĭ¨áīĢáĬķĠáĪµáĪĿ": 6652,
      "ĠáīłáĮİáĪŃáĮİáĪŃáĭ«áĬķĠáĬ«áĪĮáĬķáĭ³áĪŃĠáĭ¨áīĢáĬķĠáĪµáĪĿĠáīłáĬ¥áĬķáĮįáĪĬáĭĿáĬĽĠáĪ²áĪĨáĬķĠáĭŃáĪħĠáīĢáĬķĠáīłáĬ¢áīµáĭ®áĮµáĭ«ĠáĬłáīĨáĮ£áĮłáĪŃĠ(áĬ¨1892Ġáĭĵ.áĪĿ.ĠáĮĢáĪĿáĪ®ĠáĬ¥áĪµáĬ¨Ġ2091Ġáĭĵ.áĪĿ.": 6653,
      "Peop": 6654,
      "FIFAĠ": 6655,
      "cert": 6656,
      "aph": 6657,
      "wasĠtheĠ": 6658,
      "áīłáīĥ": 6659,
      "usedĠ": 6660,
      "Ġáī°áīĥ": 6661,
      "ĠáĭŃáĭĪ": 6662,
      "Ġá»įÌĢrá»įÌĢĠ": 6663,
      "NÃŃgbÃłĠ": 6664,
      "ĠáĮłáīħ": 6665,
      "jáº¹sÃ¡": 6666,
      "áī¥áĪ«áĭŃ": 6667,
      "OktobaĠ-Ġ": 6668,
      "ĠáĬĥáĭŃáĪį": 6669,
      "uhuruĠ": 6670,
      "áĪĮáĬŃáīµáĪªáĬŃ": 6671,
      "Mit": 6672,
      "tryĠ": 6673,
      "ipeĠ": 6674,
      "d'uneĠ": 6675,
      "e\"Ġ": 6676,
      "Ã©ĠenĠ": 6677,
      "PopeĠ": 6678,
      "kinĠ": 6679,
      "áĪŃáī±": 6680,
      "daĠnaĠ": 6681,
      "á¹£ir": 6682,
      "áīĢáĮ¥": 6683,
      "iĠmwakaĠ": 6684,
      "Ġá¹£iá¹£áº¹ÌģĠ": 6685,
      "ĠáĮĪáĭ°": 6686,
      "Ġáīłáī°áĮ¨áĪĽáĪª": 6687,
      "áĪĲáįĬ": 6688,
      "Ġá»įÌĢpá»įÌĢlá»įpá»įÌĢĠ": 6689,
      "askof": 6690,
      "burg": 6691,
      "elopmentĠ": 6692,
      "Sel": 6693,
      "amu": 6694,
      "becameĠ": 6695,
      "s.Ġ": 6696,
      "reĠdeĠ": 6697,
      "team": 6698,
      "iensĠ": 6699,
      "FarkonĠ": 6700,
      "Mex": 6701,
      "Tech": 6702,
      "lov": 6703,
      "áĬķĠáĪĪáĪĽ": 6704,
      "áī°áĬĽáĭį": 6705,
      "áĪĪáĪĺ": 6706,
      "Ġáĭ¨áĪĢ": 6707,
      "aniĠm": 6708,
      "watakatifuĠ": 6709,
      "tarihinĠ": 6710,
      "sÃŃtÃ¬Ġ": 6711,
      "AnĠhaifiĠ": 6712,
      "BiranenĠ": 6713,
      "ĠáĬĥáĭŃáĪĪ": 6714,
      "Ġáĭ¨áĪĺáĮĢáĪĺáĪªáĭ«áĭį": 6715,
      "sanĠ": 6716,
      "sousĠ": 6717,
      "2010": 6718,
      "RomanĠ": 6719,
      "Ã´t": 6720,
      "3)": 6721,
      "85": 6722,
      "ikuĠ": 6723,
      "exist": 6724,
      "IbnĠ": 6725,
      "Pers": 6726,
      "Rec": 6727,
      "bÃº": 6728,
      "áĭŃáĪŃ": 6729,
      "Ġá»įbaĠ": 6730,
      "Ġáĭ¨áĪļáī³áĭĪ": 6731,
      "ĠáĮįáĭĽ": 6732,
      "AĠshekararĠ": 6733,
      "áĬłáĪĪ": 6734,
      "ĠáĬłáĪĪáĪĿ": 6735,
      "fiel": 6736,
      "jáº¹ÌģĠá»įÌĢkanĠ": 6737,
      "ninuĠawonĠ": 6738,
      "A)Ġ": 6739,
      "assanĠ": 6740,
      "dansĠlesĠ": 6741,
      "(Ġ": 6742,
      "Jar": 6743,
      "ial": 6744,
      "1.Ġ": 6745,
      "Sing": 6746,
      "bá»įÌģá»įÌĢ": 6747,
      "foisĠ": 6748,
      "áº¹taĠ": 6749,
      "shair": 6750,
      "ĠáĬ¥áĬĶ": 6751,
      "ĠáĬłáĭ¨áĪŃ": 6752,
      "áĮįáĪªáĬŃ": 6753,
      "agharib": 6754,
      "áĬ¨áĭļáĭ«": 6755,
      "áĪ°áĪŃ": 6756,
      "áīłáīµĠáĮĬáĭľ": 6757,
      "ĠáĮĪáĬķ": 6758,
      "karniĠnaĠ": 6759,
      "aĠyakeĠ": 6760,
      "ayyuk": 6761,
      "aĠmapokeoĠyaĠ": 6762,
      "irefu": 6763,
      "46": 6764,
      "</": 6765,
      "Bon": 6766,
      "auc": 6767,
      "Kin": 6768,
      "ers.": 6769,
      "2019,Ġ": 6770,
      "kiraĠ": 6771,
      "ensiĠ": 6772,
      "ayarĠdaĠ": 6773,
      "ĠáĬłáĭ²áĪµĠáĬłáīłáī£": 6774,
      "Arch": 6775,
      "áĪµáīµáĬĵ": 6776,
      "tarih": 6777,
      "aĠgab": 6778,
      "NovembaĠ": 6779,
      "Ã¨tÃ²": 6780,
      "Italia": 6781,
      "present": 6782,
      "Fabr": 6783,
      "philosoph": 6784,
      "Sw": 6785,
      "himĠ": 6786,
      "amanĠ": 6787,
      "ake.": 6788,
      "stand": 6789,
      "eas": 6790,
      "gwamnanĠ": 6791,
      "aĠkwenyeĠ": 6792,
      "identi": 6793,
      "áĪ°áĪĽ": 6794,
      "áĭĽáĬĽáĭį": 6795,
      "ÃĵĠjáº¹ÌģĠ": 6796,
      "EneoĠ": 6797,
      "haÉĹinĠ": 6798,
      "Ġáīłáī¥áĭĽáīµ": 6799,
      "waÉĹan": 6800,
      "Hel": 6801,
      "insĠ": 6802,
      "ernĠ": 6803,
      "Ã³n": 6804,
      "dansĠlaĠ": 6805,
      "\"M": 6806,
      "Kol": 6807,
      "Sup": 6808,
      "2019Ġ": 6809,
      "BahariĠyaĠ": 6810,
      "Sim": 6811,
      "duĠm": 6812,
      "oÃ²rÃ¹nĠ": 6813,
      "ones": 6814,
      "alich": 6815,
      "ĠáĬłáĪħ": 6816,
      "áĭ³áĪį": 6817,
      "áĭĺáĭį": 6818,
      "áĪ©áį¢": 6819,
      "ĠáīĢáĭ³": 6820,
      "ĠáĪµáĪĪáĪļ": 6821,
      "ĠáĪĻáĪī": 6822,
      "ĠAgostiĠ-Ġ": 6823,
      "ĠáĪĺáĪįáĬŃáĭĵ": 6824,
      "bincik": 6825,
      "Do": 6826,
      "Trans": 6827,
      "DP": 6828,
      "Ġ*": 6829,
      "ekaĠ": 6830,
      "wÃ³Ġ": 6831,
      "eĠzin": 6832,
      "atar": 6833,
      "taĠzamaĠ": 6834,
      "áĭµáĪ¨áĪµ": 6835,
      "ĠáĪĺáĪĪ": 6836,
      "aĠmakarantarĠ": 6837,
      "Ġáį³áį": 6838,
      "áįįáĮ¥": 6839,
      "Ġáī£áĭŃ": 6840,
      "ĠáīĢáĬķĠ-": 6841,
      "Guine": 6842,
      "ráº¹ÌĢ,Ġ": 6843,
      "Ãłká»įÌģlÃ©Ġráº¹ÌĢĠ": 6844,
      "iakaĠmirefu": 6845,
      "abakiĠsikuĠ": 6846,
      "dem": 6847,
      "idarĠ": 6848,
      "2018": 6849,
      "ambr": 6850,
      "ĠAr": 6851,
      "Â»,Ġ": 6852,
      "DeĠ": 6853,
      "Kong": 6854,
      "envir": 6855,
      "ingsĠ": 6856,
      "ector": 6857,
      "Egyp": 6858,
      "bisaĠgaĠ": 6859,
      "áīłáīħ": 6860,
      "ajaĠ": 6861,
      "áīłáĪ³": 6862,
      ",ĠmshindiĠwaĠTuzoĠyaĠNobelĠyaĠKemiaĠmwakaĠwaĠ": 6863,
      "ĠáĬłáĮĪáĪ®áī½": 6864,
      "dhidiĠyaĠ": 6865,
      "áĬ¥áĬķáĭ²": 6866,
      "aimakinĠ": 6867,
      ",ĠmshindiĠwaĠTuzoĠyaĠNobelĠyaĠFizikiaĠmwakaĠwaĠ": 6868,
      "Roma,Ġhuadhim": 6869,
      "ĠkatikaĠmiakaĠmirefu": 6870,
      "DarĠesĠ": 6871,
      "wakifuataĠmapokeoĠyaĠ": 6872,
      "wakifuataĠmapokeoĠyaĠRoma,Ġhuadhim": 6873,
      "Cali": 6874,
      "ickĠ": 6875,
      "Bas": 6876,
      "Ly": 6877,
      "wanaĠ": 6878,
      "anyik": 6879,
      "áĪŃáī£": 6880,
      "áĬĵáĭŃáīµ": 6881,
      "shin": 6882,
      "ĠáĬ¥áĮįáĭļáĬłáī¥áĪĶáĪŃ": 6883,
      "ÃĮlÃºĠ": 6884,
      "áĪŀáīµ": 6885,
      "JamiâĢĻarĠ": 6886,
      "Ġáī¥áĪĶáĪ«áĭĬ": 6887,
      "ĠáĭĪáĭŃáĬķáĪĿ": 6888,
      "WakristoĠwengi,Ġ": 6889,
      "ĠáīĢáĮ¥áĪİ": 6890,
      "uisheĠzin": 6891,
      "WakristoĠwengi,ĠwakifuataĠmapokeoĠyaĠRoma,Ġhuadhim": 6892,
      "uisheĠzinabakiĠsikuĠ": 6893,
      "tarĠ": 6894,
      "AR": 6895,
      "elaĠ": 6896,
      "qu'ilĠ": 6897,
      "5)": 6898,
      "Yes": 6899,
      "pyaĠ": 6900,
      "Ġ~": 6901,
      "áĬķáĬŃ": 6902,
      "eneĠ": 6903,
      "Ġáī°áĮįáī£": 6904,
      "ĠáĭŃáĪĦ": 6905,
      "áĭ³áĭµ": 6906,
      "áīłáĪµ": 6907,
      "aniĠnaĠ": 6908,
      "watum": 6909,
      "Ġáĭ¨áī°áĪĺ": 6910,
      "ionalĠ": 6911,
      "insaĠ": 6912,
      "aribuĠ": 6913,
      "thoughĠ": 6914,
      "ablaĠyaĠ": 6915,
      "Fabrair": 6916,
      "ikiped": 6917,
      "hiv": 6918,
      "age,Ġ": 6919,
      "leĠofĠ": 6920,
      "33": 6921,
      "sir": 6922,
      "viv": 6923,
      "áĮĪáĪ«áīµ": 6924,
      "wann": 6925,
      "and,Ġ": 6926,
      "ambaoĠ": 6927,
      "ationĠdeĠ": 6928,
      "undum": 6929,
      "uhim": 6930,
      "tionĠofĠ": 6931,
      "áĪĪáĪĿáĪ³áĪĮ": 6932,
      "AkwaiĠ": 6933,
      "yawan": 6934,
      "áĪ¸áĬĲ": 6935,
      "BirninĠ": 6936,
      "jeshiĠ": 6937,
      "kuduĠmasoĠ": 6938,
      "ÃºgbÃ²Ġ": 6939,
      "onyesh": 6940,
      "pakaĠuisheĠzinabakiĠsikuĠ": 6941,
      "toĠgbaĠEbunĠNobelĠ": 6942,
      "ĠáĪĽáĮ£áīĢáĪ»": 6943,
      "pas": 6944,
      "appar": 6945,
      "formĠ": 6946,
      "Russ": 6947,
      "kuch": 6948,
      "takenĠ": 6949,
      "med": 6950,
      "áį¡áīł": 6951,
      "ArewacinĠ": 6952,
      "AnĠginaĠbirninĠ": 6953,
      "Sul": 6954,
      "TV": 6955,
      "AlexanderĠ": 6956,
      "inap": 6957,
      "emistr": 6958,
      "Chur": 6959,
      "esternĠ": 6960,
      "áĪªáĪµ": 6961,
      "awarĠdaĠ": 6962,
      "uĠkatikaĠ": 6963,
      "ĠáĬłáĪīáį¢": 6964,
      "Ġáī£áĪħáĪŃ": 6965,
      "FebruariĠ-Ġ": 6966,
      "HotunaĠ": 6967,
      "aguziĠwaĠ": 6968,
      "tofautiĠ": 6969,
      "AlimfuataĠ": 6970,
      "appl": 6971,
      "aineĠ": 6972,
      "nombre": 6973,
      "Mur": 6974,
      "fond": 6975,
      "iĠlaĠ": 6976,
      "a'sĠ": 6977,
      "unic": 6978,
      "gbá»įÌģĠ": 6979,
      "ĠáĪĺáĮ£": 6980,
      "á»įÌĢrá»įÌĢĠ": 6981,
      "ĠáĮ¥áĪ©": 6982,
      "áĬłáĪµ": 6983,
      "tÃŃtÃŃĠ": 6984,
      "rubut": 6985,
      "LughaĠzaĠ": 6986,
      "Ros": 6987,
      "150": 6988,
      "IleĠ": 6989,
      "Mk": 6990,
      "sens": 6991,
      "yoteĠ": 6992,
      "ement,Ġ": 6993,
      "2)": 6994,
      "cheoĠ": 6995,
      "ĠáīłáĪħ": 6996,
      "rÃŃnĠ": 6997,
      "rayuw": 6998,
      "SeptembaĠ": 6999,
      "bornĠ": 7000,
      "JuniĠ-Ġ": 7001,
      "nasaraĠ": 7002,
      "cinĠkofinĠ": 7003,
      "Publ": 7004,
      "onneĠ": 7005,
      "Nk": 7006,
      "amoĠ": 7007,
      "aĠsunĠ": 7008,
      "filmĠ": 7009,
      "zoteĠ": 7010,
      "ine.": 7011,
      "áĭµáĪĺ": 7012,
      "áį¡áĬ¥": 7013,
      "2014": 7014,
      "ĠáĪĽáĪŃáĭ«áĪĿ": 7015,
      "ÃłkÃ¡": 7016,
      "ĠáīłáĪĽáĪĪáīµ": 7017,
      "nÃŃĠÃ¬pÃŃnláº¹ÌĢĠ": 7018,
      "ĠáĬ¥áĬķáĮįáĪĬáĭĿáĬĽ": 7019,
      "torĠ": 7020,
      "amer": 7021,
      "Islam": 7022,
      "roĠ": 7023,
      "althĠ": 7024,
      "requ": 7025,
      "issionĠ": 7026,
      "titiĠ": 7027,
      "dÃ¨Ġ": 7028,
      "iograf": 7029,
      "kÃłĠ": 7030,
      "lem": 7031,
      "áĪŃáĮİ": 7032,
      "abi": 7033,
      "Ã¨yÃŃ": 7034,
      "round": 7035,
      "áīħáĭ«": 7036,
      "Ġáīµáĭį": 7037,
      "ainstĠ": 7038,
      "wendaĠ": 7039,
      "ongoz": 7040,
      "178": 7041,
      "áĮ«áĭĪ": 7042,
      "wallonĠkaf": 7043,
      "ĠáĪ³áĭŃáĬķáĪ³áĭĬ": 7044,
      "al'ad": 7045,
      "ĠáįĸáĪĪáī²áĬ«": 7046,
      "áī¥áĪ«áĭŃáĪµáĮ¥": 7047,
      "D-": 7048,
      "Rash": 7049,
      "ana,Ġ": 7050,
      "oper": 7051,
      "Laf": 7052,
      "acr": 7053,
      "Shek": 7054,
      "uck": 7055,
      "dÃ©c": 7056,
      "500": 7057,
      "Cent": 7058,
      "Hat": 7059,
      "pal": 7060,
      "áĬķáī³": 7061,
      "á»įdÃºnĠ": 7062,
      "ahiyarĠ": 7063,
      "ÃĮá¹£": 7064,
      "1999Ġ": 7065,
      "uĠyaĠm": 7066,
      "aliwaĠnaĠ": 7067,
      "peopleĠ": 7068,
      "anĠsiyas": 7069,
      "NÃŃĠá»įdÃºnĠ": 7070,
      "biasharaĠ": 7071,
      "ĠáĮīáĭ³áĭŃ": 7072,
      "DarĠesĠSala": 7073,
      "oung": 7074,
      "emat": 7075,
      "2015Ġ": 7076,
      "Argent": 7077,
      "49": 7078,
      "Kog": 7079,
      "Tal": 7080,
      "apt": 7081,
      "2007": 7082,
      "InĠtheĠ": 7083,
      "workĠ": 7084,
      ")ĠáĬ¥áĬĵ": 7085,
      "Ile-": 7086,
      "ĠáĪ¬": 7087,
      "áĬķĠáĭ¨áĪļ": 7088,
      "akokoĠ": 7089,
      "iloĠ": 7090,
      "áĬłáĬķáĭµ": 7091,
      "2016": 7092,
      "kasashenĠ": 7093,
      "wá»įn.": 7094,
      "akarant": 7095,
      "ĠáĬ¥áĬķáĭ³áĭŃ": 7096,
      "shigaĠ": 7097,
      "DesembaĠ-Ġ": 7098,
      "ĠáĭĽáĪ¬": 7099,
      "babbarĠ": 7100,
      "Ġáī³áĪªáĬ«áĭĬĠáĪĽáĪµáī³áĭĪáĪ»áĭİáī½": 7101,
      "kumbukumbuĠzaĠ": 7102,
      "ĠáĪĺáĪįáĬŃáĭĵĠáĪĿáĭµáĪŃ": 7103,
      "Kut": 7104,
      "atak": 7105,
      "ughtĠ": 7106,
      "179": 7107,
      "Cath": 7108,
      "ikiĠk": 7109,
      "afr": 7110,
      "2000Ġ": 7111,
      "laterĠ": 7112,
      "rasm": 7113,
      "wamb": 7114,
      "zoĠyaĠ": 7115,
      "ĠáĬłáī¶": 7116,
      "acikinĠ": 7117,
      "atiqu": 7118,
      "Art": 7119,
      "Prim": 7120,
      "org/": 7121,
      "wengineĠ": 7122,
      "ĠáīłáĭĺáĪĺáĬĲĠáĪīáīĥáĪµ": 7123,
      "ahaifiy": 7124,
      "shipĠ": 7125,
      "ĠáĬłáįĪĠáī³áĪªáĬŃ": 7126,
      "ĠáĪļáĬĴáĪµáīµ": 7127,
      "kumbukumbuĠzaĠwatakatifuĠ": 7128,
      "peri": 7129,
      "ingtonĠ": 7130,
      "AugustĠ": 7131,
      "AwardsĠ": 7132,
      "tir": 7133,
      "Greg": 7134,
      "piaĠm": 7135,
      "Å«": 7136,
      "as.": 7137,
      "asayans": 7138,
      "Ġáīłáīµ": 7139,
      "áĭ«áĪį": 7140,
      "akaĠdaĠ": 7141,
      "plusieursĠ": 7142,
      "nÃ¡Ãł": 7143,
      "áĬ®áĬĸ": 7144,
      "atikaĠkar": 7145,
      "attaf": 7146,
      "Isra": 7147,
      "grand": 7148,
      "nchiĠzaĠ": 7149,
      "wÃ¡yÃ©Ġ": 7150,
      "ĠáīłáĪµáī°": 7151,
      "ĠáĭµáĪŃáĮħáīµ": 7152,
      "Ġáĭĭáī¢ĠáĪĿáĬķáĮ®áī½": 7153,
      "hiĠ": 7154,
      "someĠ": 7155,
      "Island": 7156,
      "siteĠ": 7157,
      "ator": 7158,
      "ibuĠ": 7159,
      "kÃ¬": 7160,
      "áĪŃáī¶": 7161,
      "enneĠ": 7162,
      "itanĠ": 7163,
      "Ġáįİ": 7164,
      "áĮ¥áĪĿ": 7165,
      "áįĪáĪĭ": 7166,
      "ĠáīłáĬ®": 7167,
      "1980": 7168,
      "ĠáĬĵáīµáį¢": 7169,
      "ĠáīłáĬĭáĪĭĠáĬ¥áĪµáĬ¨": 7170,
      "positionĠ": 7171,
      "áįĸáĪĪáī²áĬ«": 7172,
      "Australi": 7173,
      "ĠáĮ¸áī£áĭŃ": 7174,
      "ĠkatikaĠmiakaĠmirefu).ĠM": 7175,
      "\")Ġ": 7176,
      "LeoĠ": 7177,
      "cell": 7178,
      "gÃ¡": 7179,
      "Ãł-": 7180,
      "MarisĠ": 7181,
      "Hind": 7182,
      "sáº¹Ìģ": 7183,
      "tÃº": 7184,
      "taw": 7185,
      "yaraĠ": 7186,
      "yautarĠ": 7187,
      "°áį»áį": 7188,
      "áĪµáī´": 7189,
      "ismĠ": 7190,
      "Ã²s": 7191,
      "Ġáį»áį": 7192,
      "áĬ«áĪŃ": 7193,
      "ĠáĪµáī¥áĪµ": 7194,
      "2012Ġ": 7195,
      "Ġáĭ¨áī°áī£áĪĪ": 7196,
      "Ġáĭ°áĪ«áĪ²": 7197,
      "tÃŃĠÃ³ĠwÃłĠnÃŃĠ": 7198,
      "IlÃ©Ġ": 7199,
      "istoriaĠ": 7200,
      "ÙİÙ": 7201,
      "JamhuriĠyaĠ": 7202,
      "JanuariĠ-Ġ": 7203,
      "pekeeĠ": 7204,
      "Ġ~Ġ": 7205,
      "adu": 7206,
      "off": 7207,
      "agul": 7208,
      "177": 7209,
      "Dir": 7210,
      "runĠ": 7211,
      "wuĠ": 7212,
      "ah,Ġ": 7213,
      "ityĠofĠ": 7214,
      "namoĠ": 7215,
      "rewĠ": 7216,
      "AfricaĠ": 7217,
      "barĠ": 7218,
      "hank": 7219,
      "rÃº": 7220,
      "áĬķĠáĬ¥áĬĵ": 7221,
      "áĬķáĮİ": 7222,
      "ini,Ġ": 7223,
      "oĠs": 7224,
      "áĪĭáīģ": 7225,
      "áĬ¨áĪĭ": 7226,
      "áĪİáĮĤ": 7227,
      "ItokasiĠÃłwá»įnĠá»įjá»įÌģÃ¬bÃŃĠnÃŃĠ": 7228,
      "ĠáīħáĪŃáĪµ": 7229,
      "áĮŃáĪŃ": 7230,
      "relig": 7231,
      ".ĠÃĢwá»įnĠÃĮt": 7232,
      "hadaĠdaĠ": 7233,
      "ĠáĮĬáĭ®áĪŃáĮĬáĪµ": 7234,
      "ijobaĠib": 7235,
      "áĬĵáĭŃáīµáĭµ": 7236,
      "Po": 7237,
      "alg": 7238,
      "Keny": 7239,
      "(N": 7240,
      "BÃ¡": 7241,
      "Flor": 7242,
      "Sur": 7243,
      "pwan": 7244,
      "ÃłÃ¬sÃłnĠ": 7245,
      "asiliĠyaĠ": 7246,
      "áº¹n": 7247,
      "ominaĠ": 7248,
      "áĭµáĪ®": 7249,
      "afiĠk": 7250,
      "appe": 7251,
      "áĬ¨áī³": 7252,
      "áĭĪáĭŃáĪĿ": 7253,
      "áĮĭáī¢": 7254,
      "wasaĠ": 7255,
      "haribiĠ": 7256,
      "táº¹Ìģláº¹ÌĢ": 7257,
      "alikuwaĠmshindiĠwaĠTuzoĠyaĠNobelĠyaĠ": 7258,
      "ItaĠceĠ": 7259,
      "LakiniĠ": 7260,
      "Maz": 7261,
      "U.": 7262,
      "amat": 7263,
      "own": 7264,
      "sou": 7265,
      "illeĠ": 7266,
      "2009": 7267,
      "2006Ġ": 7268,
      "Champ": 7269,
      "dÃºr": 7270,
      "eeĠ": 7271,
      "udeĠ": 7272,
      "ĠáĬ¥áĪĿáĬĲáīµ": 7273,
      "áĮĪáĪ¨": 7274,
      "áĪ«áĪįáį¢": 7275,
      "ultur": 7276,
      "tÃŃĠwá»įnĠ": 7277,
      "áĪĮáĪİáī½": 7278,
      "Ġáĭ¨áĪļáĮĪáĬĻ": 7279,
      "Alit": 7280,
      "áĮłáī¥": 7281,
      "ĠáĭįáĮŃ": 7282,
      "ÅĦĠjáº¹ÌģĠ": 7283,
      "falmeĠm": 7284,
      "asiasaĠwaĠ": 7285,
      "DolaĠlaĠRom": 7286,
      "WakristoĠwengi,ĠwakifuataĠmapokeoĠyaĠRoma,ĠhuadhimishaĠ": 7287,
      "Hung": 7288,
      "Nic": 7289,
      "cer": 7290,
      "uy": 7291,
      "2014Ġ": 7292,
      "ĠAn": 7293,
      "undiĠ": 7294,
      "UgandaĠ": 7295,
      "trib": 7296,
      "ent,Ġ": 7297,
      "Â».": 7298,
      "NorthĠ": 7299,
      "Gáº¹ÌĢáº¹Ìģ": 7300,
      "Mos": 7301,
      "aish": 7302,
      "thor": 7303,
      "áĪĪáĭµ": 7304,
      "ĠáĪ²áĪĨáĬĳ": 7305,
      "odiĠ": 7306,
      "áĬŀáī¹": 7307,
      "rikic": 7308,
      "PaulĠ": 7309,
      "Ġáī°áĪ«áĪ«": 7310,
      "KatsinaĠ": 7311,
      "isti": 7312,
      "1999": 7313,
      "notammentĠ": 7314,
      "CN": 7315,
      "inĠK": 7316,
      "uneĠs": 7317,
      "luiĠ": 7318,
      "Sin": 7319,
      "iumĠ": 7320,
      "áīµĠáī°": 7321,
      "onom": 7322,
      "ĠáĬ¥áĪŃáĪ±": 7323,
      "áĮįáĬĺ": 7324,
      "igab": 7325,
      "ĠáīłáĬ¦": 7326,
      "edik": 7327,
      "Ġáī°áĬ¨áī³": 7328,
      "MusulunciĠ": 7329,
      "50Ġ": 7330,
      "IV": 7331,
      "ress": 7332,
      "tot": 7333,
      "2020Ġ": 7334,
      "ictĠ": 7335,
      "Sheh": 7336,
      "atureĠ": 7337,
      "MuhammaduĠ": 7338,
      "HispaniaĠ": 7339,
      "DemocraticĠ": 7340,
      "Plat": 7341,
      "rÃłnĠ": 7342,
      "wÃŃĠ": 7343,
      "áĭ°áĪµ": 7344,
      "ĠáĭŃáĪĭáĪįáį¢": 7345,
      "ĠáĭĪáī³áĭ°": 7346,
      "2011Ġ": 7347,
      "ĠáĪ¥áįįáĪ«": 7348,
      "ĠáĬ¥áĬķáĭ²áĭ«": 7349,
      "NÃłÃ¬jÃŃrÃŃÃł,Ġ": 7350,
      "ĠáĪµáĪĪáĪĨáĬĲ": 7351,
      "ĠáĬ¨áī°áĪĽĠáĬĲáĭįáį¢": 7352,
      "Ã¬kÃ¬Ġ": 7353,
      "tsohuwarĠ": 7354,
      "ĠáĪ¦áĪµáīµ": 7355,
      "ilÃ©Ġáº¹ÌĢká»įÌģĠ": 7356,
      "ayáº¹yáº¹Ġ": 7357,
      "Ach": 7358,
      "Jac": 7359,
      "cu": 7360,
      "ra'": 7361,
      "aĠL": 7362,
      "owever,Ġ": 7363,
      "Wag": 7364,
      "mu": 7365,
      "edĠinĠtheĠ": 7366,
      "UnionĠ": 7367,
      "RichardĠ": 7368,
      "3.Ġ": 7369,
      "68": 7370,
      "gáº¹": 7371,
      "áĪĿĠáĪĪ": 7372,
      "ĠáĬłáīħ": 7373,
      "tro": 7374,
      "edĠonĠ": 7375,
      "áĬ«áĪĿ": 7376,
      "ĠáĭµáĪį": 7377,
      "áĪ²áī²": 7378,
      "wadandaĠ": 7379,
      "|ĠRD2-": 7380,
      ".ĠManazarta": 7381,
      "WilayaĠyaĠ": 7382,
      "á¹£irÃŃá¹£": 7383,
      "Ram": 7384,
      "ne.Ġ": 7385,
      "er'sĠ": 7386,
      "awa": 7387,
      "ibnĠ": 7388,
      "LouisĠ": 7389,
      "Bad": 7390,
      "pleĠ": 7391,
      "Ã²n": 7392,
      "evenĠ": 7393,
      "2ĠâĢĵĠ": 7394,
      "Duk": 7395,
      "tÃºn": 7396,
      "wÃł": 7397,
      "inrinĠ": 7398,
      "Ã©po": 7399,
      "arĠtaĠ": 7400,
      "Ã¡Ã¡": 7401,
      "áĭĺáĪĺ": 7402,
      "ovi": 7403,
      "tÃŃĠÃ³ĠwÃłĠ": 7404,
      "kanĠnÃ¡ÃłĠ": 7405,
      "ĠáĮįáĬķáĬĻ": 7406,
      "Fasah": 7407,
      "MeiĠ": 7408,
      "ĠáĬłáįįáĪªáĬ«": 7409,
      "NchiĠzaĠ": 7410,
      "AF": 7411,
      "Ø©": 7412,
      "Angel": 7413,
      "lit": 7414,
      "aij": 7415,
      "uwa,Ġ": 7416,
      "TovutiĠ": 7417,
      "bilaĠ": 7418,
      "tum": 7419,
      "ulaĠ": 7420,
      "áĬ«áĬ¨áĪĪ": 7421,
      "ĠáĪµáĪĭ": 7422,
      "iyaĠnaĠ": 7423,
      "áĪĨáĬĸ": 7424,
      "áĭ²áĭ®": 7425,
      "Arm": 7426,
      "iá¹£áº¹Ìģ": 7427,
      "áĬ®áīµ": 7428,
      "lokacinĠdaĠ": 7429,
      "PeterĠ": 7430,
      "sĠofĠtheĠ": 7431,
      "Christ": 7432,
      "Tel": 7433,
      "dinĠ": 7434,
      "imbab": 7435,
      "áĮª": 7436,
      "áĪĿĠáĪĨáĬĲ": 7437,
      "áĬŃáĪ²": 7438,
      "áī£áī³": 7439,
      "áĬ¨áĪ¨áĪĿ": 7440,
      "ĠáĪ²áīĢ": 7441,
      "ĠáīµáĪŃ": 7442,
      "Ġáĭĺáįĭ": 7443,
      "ĠáĭĺáĪĺáĬĵáĭĬ": 7444,
      "áīĥáĪ´": 7445,
      "ĠáĭįáĪĥ": 7446,
      "ÃĢwá»įnĠarÃ¡Ġ": 7447,
      "ÅĦĠd": 7448,
      "associ": 7449,
      "áĭ´áīµ": 7450,
      "ÃĪyÃŃĠ": 7451,
      "ehemuĠ": 7452,
      "daĠdamaĠ": 7453,
      "kubwaĠyaĠ": 7454,
      "Progr": 7455,
      "nÃŃgbÃłĠtÃŃĠ": 7456,
      "wurinĠ": 7457,
      "falmeĠwaĠ": 7458,
      "ĠáĪĺáĮ¨áĪ¨áĪ»ĠáĭµáĪ¨áĪµ": 7459,
      "ama,Ġ": 7460,
      "2.Ġ": 7461,
      "ant,Ġ": 7462,
      "à¤ķ": 7463,
      "áĬķĠáī°": 7464,
      "univers": 7465,
      "char": 7466,
      "gbáº¹ÌģĠ": 7467,
      "utamad": 7468,
      "áĪ°áĪį": 7469,
      "s,ĠandĠ": 7470,
      "KiingerezaĠ": 7471,
      "áĪµáįĵáĬķáĭ«": 7472,
      "áīħáĪµáīĥáĪ´": 7473,
      "ĠáīłáĬĭáĪĭĠáĬ¥áĪµáĬ¨ĠáĭĵáĪĺáī±": 7474,
      "Ġ8": 7475,
      "anteĠ": 7476,
      "berg": 7477,
      "jej": 7478,
      "ubli": 7479,
      "edĠtoĠtheĠ": 7480,
      "wellĠ": 7481,
      "aĠdagaĠ": 7482,
      ",ĠÃłtiĠ": 7483,
      "Ãłjáº¹sÃ¡": 7484,
      "ajiĠm": 7485,
      "nÃŃĠÃłwá»įnĠ": 7486,
      "ĠáĪµáĪŀáī½": 7487,
      "leursĠ": 7488,
      "2005Ġ": 7489,
      "Ġáīłáī°áĪĪ": 7490,
      "sÃŃwÃ¡jÃºĠ": 7491,
      "arri": 7492,
      "phys": 7493,
      "FilmĠ": 7494,
      "Burtan": 7495,
      "yammacinĠ": 7496,
      "fimĠdinĠ": 7497,
      "RayayyunĠM": 7498,
      "aĠkungiyarĠ": 7499,
      "lineĠ": 7500,
      "versĠ": 7501,
      "akĠ": 7502,
      "enaĠ": 7503,
      "trod": 7504,
      "ae": 7505,
      "daĠg": 7506,
      "56": 7507,
      "ooĠ": 7508,
      "pow": 7509,
      "zĠ": 7510,
      "ariĠyaĠ": 7511,
      "athĠ": 7512,
      "Ġáĭ¨áĭĵáĪĪáĪĿ": 7513,
      "illaĠ": 7514,
      "ĠáĬ¥áĪĿ": 7515,
      "áĪĽáĪį": 7516,
      "áĪĽáĪ½": 7517,
      "2017": 7518,
      "2010Ġ": 7519,
      "ĠáīµáĪĿáĪħáĪŃ": 7520,
      "ĠáĬ¥áĬķáĭ°Ġáī°": 7521,
      "áĮħáĪĿ": 7522,
      "lá»įÌģwá»įÌģ": 7523,
      "BabbanĠbirninĠ": 7524,
      "Abdull": 7525,
      "MachiĠ-Ġ": 7526,
      "áĪµáĪĪáĭļáĪħ": 7527,
      "mÃ¬ÃŃrÃłnĠ": 7528,
      "bre": 7529,
      "pĠ": 7530,
      "ata,Ġ": 7531,
      "itaĠm": 7532,
      "ufuĠ": 7533,
      "sĠtoĠ": 7534,
      "ombeĠ": 7535,
      "hav": 7536,
      "kwaĠm": 7537,
      "asaliĠ": 7538,
      "áĪĿáįĴ": 7539,
      "Ġáīłáĭį": 7540,
      "olanz": 7541,
      "Ã²Ġk": 7542,
      "Ġáĭ¨áĪ®": 7543,
      "ĠáĪĿáĭķáĪ«áī¥": 7544,
      "stateĠ": 7545,
      "áĪģáĪĪáīµ": 7546,
      "nigb": 7547,
      "ilimaĠyaĠ": 7548,
      "ĠáĬĲáĮĪáĪł": 7549,
      "lughaĠzaĠ": 7550,
      "Ġáī¡áĭµáĬķ": 7551,
      "ĠáĭŃáīĢáĪ«áĪīáį¢": 7552,
      "HanyoyinĠ": 7553,
      "nes": 7554,
      "u:Ġ": 7555,
      "ikĠ": 7556,
      "aĠmak": 7557,
      "appro": 7558,
      "establ": 7559,
      "ootb": 7560,
      "Zimbab": 7561,
      "d.": 7562,
      "pil": 7563,
      "ty": 7564,
      "á¹¢": 7565,
      "pÃº": 7566,
      "áĭµáĬĵ": 7567,
      "aidĠ": 7568,
      "ĠáĭŃáĭ©": 7569,
      "Ġáĭ¨áĪ´": 7570,
      "ipp": 7571,
      "áįĪáĬķ": 7572,
      "Ġáĭ¨áī°áĭĪ": 7573,
      "áĬķáĮįáĪį": 7574,
      "áĪİáĪµ": 7575,
      "inĠmall": 7576,
      "áĮ¡áīµ": 7577,
      "haka,Ġ": 7578,
      "daĠtakeĠ": 7579,
      "gener": 7580,
      "shirye-shiry": 7581,
      "HisĠ": 7582,
      "Jo": 7583,
      "ari,Ġ": 7584,
      "aganaĠ": 7585,
      "2015": 7586,
      "ste": 7587,
      "1960": 7588,
      "calledĠ": 7589,
      "1),Ġ": 7590,
      "lati": 7591,
      "sm": 7592,
      "esĠtheĠ": 7593,
      "1960Ġ": 7594,
      "Prof": 7595,
      "Bos": 7596,
      "e).": 7597,
      "mÃ¡Ġ": 7598,
      "niĠsikuĠyaĠ": 7599,
      "aĠkarkashinĠ": 7600,
      "Ġá»įÌģ": 7601,
      "áĬłáīµ": 7602,
      "2008": 7603,
      "obinĠ": 7604,
      "iĠkanĠ": 7605,
      "waÆĻ": 7606,
      "ĠáĮĭáĪ«": 7607,
      "WakatiĠwaĠ": 7608,
      "girmaĠ": 7609,
      "daban-": 7610,
      "Ġáī¥áĪŃáĪĥ": 7611,
      "KiswahiliĠ": 7612,
      "ipinleĠ": 7613,
      "Ant": 7614,
      "ote.": 7615,
      "organis": 7616,
      "timeĠ": 7617,
      "riv": 7618,
      "ĠáĬłáĮĭ": 7619,
      "tÃŃĠÃłká»įÌģlÃ©Ġráº¹ÌĢĠ": 7620,
      "ingĠofĠ": 7621,
      "eĠdagaĠ": 7622,
      "áĬ¥áĬĲáĭļáĪħ": 7623,
      "ĠáĬŃáĪŃáĪµáī²áĭ«": 7624,
      "ĠáĮĪáĮ½": 7625,
      "aĠfaraĠ": 7626,
      "yaoĠ": 7627,
      "má»įÌĢĠsÃŃĠ": 7628,
      "AfirkaĠ": 7629,
      "ĠáĮ½áĪķ": 7630,
      "serikaliĠyaĠ": 7631,
      "Sikukuu": 7632,
      "ijobaĠibileĠniĠ": 7633,
      "ĠáīłáĬĭáĪĭĠáĬ¥áĪµáĬ¨ĠáĭĵáĪĺáī±ĠáĪĺáĮ¨áĪ¨áĪ»ĠáĭµáĪ¨áĪµ": 7634,
      "jejen": 7635,
      "anay": 7636,
      "airĠ": 7637,
      "âĢĶĠ": 7638,
      "aÃ®": 7639,
      "Associ": 7640,
      "(yaĠ": 7641,
      "300": 7642,
      "57": 7643,
      "AĠk": 7644,
      "ZiwaĠ": 7645,
      "fa": 7646,
      "ĠáĬĽ": 7647,
      "alamaĠ": 7648,
      "orukoĠ": 7649,
      "chaĠm": 7650,
      "ĠáĭĪáĮĪ": 7651,
      "azim": 7652,
      "iĠkwaĠm": 7653,
      "ĠáĭįáĪĢ": 7654,
      "taronĠ": 7655,
      "áĪ²áĭ«": 7656,
      "áĪľáīµ": 7657,
      "dÃ©velop": 7658,
      "ĠáĭķáĪĪáī°": 7659,
      "farkonĠ": 7660,
      "ĠáįįáĪ¬": 7661,
      "TarihinĠ": 7662,
      "rasmiĠ": 7663,
      "SeptembaĠ-Ġ": 7664,
      "birniĠne,ĠdaĠkeĠ": 7665,
      "ijobaĠibileĠniĠIpinleĠ": 7666,
      "eo": 7667,
      "memb": 7668,
      "emaĠ": 7669,
      "ambul": 7670,
      "ãĤ": 7671,
      "ara,Ġ": 7672,
      "alij": 7673,
      "ologyĠ": 7674,
      "villeĠ": 7675,
      "Maur": 7676,
      "Ox": 7677,
      "gre": 7678,
      "jaĠ": 7679,
      "já»įÌĢ": 7680,
      "owan": 7681,
      "Ġáĭ¨áĪ±": 7682,
      "ezek": 7683,
      "áĮłáĪĪ": 7684,
      "bayarĠdaĠ": 7685,
      "Ġáĭ¨áĬĲáīłáĪ©": 7686,
      "áĬķáĮĮ": 7687,
      "adhiĠyaĠ": 7688,
      "ĠáĪĿáĬķáĮĬáĭľ": 7689,
      "Kasuwan": 7690,
      "ĠáĪļáĪĬáĭ®áĬķ": 7691,
      "Ø³": 7692,
      "antiĠ": 7693,
      "YorubaĠ": 7694,
      "throughĠ": 7695,
      "1=": 7696,
      "ixĠ": 7697,
      "ton,Ġ": 7698,
      "am,Ġ": 7699,
      "erĠofĠtheĠ": 7700,
      "AdÃ©": 7701,
      "baraĠ": 7702,
      "no": 7703,
      "vip": 7704,
      "áĬ£": 7705,
      "áĬķáīĢ": 7706,
      "daĠsh": 7707,
      "Ġáīłáīħ": 7708,
      "againstĠ": 7709,
      "áĬ«áĬ¤áĪį": 7710,
      "ihÃłnĠ": 7711,
      "ChuoĠ": 7712,
      "áĪİáī¹": 7713,
      "ĠáĪįáĮģ": 7714,
      "Ġá»ĮbaĠ": 7715,
      "Ġáī¢áĭ«": 7716,
      "ĠáĭĺáĪĺáĬķĠáĬłáīĨáĮ£áĮłáĪŃ": 7717,
      "....": 7718,
      "zamanĠk": 7719,
      "htm": 7720,
      "MachiĠ": 7721,
      "ÉĹayaĠdagaĠcikinĠ": 7722,
      "Ġáĭ¨áĭįáĮŃ": 7723,
      "ĠáĪĺáĪłáĪ¨áīµ": 7724,
      "taimak": 7725,
      "ikubwaĠ": 7726,
      "áī¨áĪŃáĪ²áī²": 7727,
      "ĠáĪĺáĮ»áĪķ": 7728,
      "WakristoĠwengi,ĠwakifuataĠmapokeoĠyaĠRoma,ĠhuadhimishaĠkumbukumbuĠzaĠwatakatifuĠ": 7729,
      "5,": 7730,
      "gig": 7731,
      ");Ġ": 7732,
      "Fre": 7733,
      "bid": 7734,
      "anaĠm": 7735,
      "asc": 7736,
      "ilich": 7737,
      "unz": 7738,
      "efuĠ": 7739,
      "tÃ¡": 7740,
      "áĪĪáį¢": 7741,
      "ĠáĪĺáīħ": 7742,
      "áīĥáĭįáĬķ": 7743,
      "waoĠ": 7744,
      "zamaĠm": 7745,
      "aimak": 7746,
      "bÃłbÃ¡Ġ": 7747,
      "kam": 7748,
      "amiaĠ": 7749,
      "5ĠâĢĵĠ": 7750,
      "ElleĠ": 7751,
      "Califor": 7752,
      "Zamb": 7753,
      "eredĠ": 7754,
      "onimoĠ": 7755,
      "ugg": 7756,
      "awaĠk": 7757,
      "bit": 7758,
      "tanĠ": 7759,
      "áĪįáīµ": 7760,
      "Ã¡lÃŃ": 7761,
      "áĬŃáĪŃáĪµáī¶áĪµ": 7762,
      "ĠáīłáĬ¤": 7763,
      "waĠmwakaĠ": 7764,
      "ShiĠneĠ": 7765,
      "Ġáī£áĪķáĪŃ": 7766,
      "uhimuĠ": 7767,
      "Ġáĭ¨áĬłáĭ¨áĪŃ": 7768,
      "walit": 7769,
      "áīĤáĭ«": 7770,
      "uchum": 7771,
      "MasharikiĠ": 7772,
      "nau'": 7773,
      "wadandaĠsuk": 7774,
      "olÃ³á¹£Ã¨lÃºĠ": 7775,
      "Group": 7776,
      "mis": 7777,
      "agoĠ": 7778,
      "UnitedĠStatesĠ": 7779,
      "babaĠ": 7780,
      "2013Ġ": 7781,
      "Dani": 7782,
      "Tai": 7783,
      "bikinĠ": 7784,
      "kÃ¹": 7785,
      "kÃºĠ": 7786,
      "tash": 7787,
      "atsĠ": 7788,
      "Ġ(áĬł": 7789,
      "awaiĠ": 7790,
      "áĬ¨áĪ°": 7791,
      "lÃ¡báº¹ÌģĠ": 7792,
      "ĠáīłáĪĺáĪĨáĬķ": 7793,
      "ilimiaĠ": 7794,
      "olÃ¹darÃŃĠ": 7795,
      "esaĠ": 7796,
      "Bibl": 7797,
      "Ġáīª": 7798,
      "ularĠ": 7799,
      "ammedĠ": 7800,
      "atingĠ": 7801,
      "Ġáīłáĭĵ": 7802,
      "áĭ«áĪľ": 7803,
      "áĪĭáĪµ": 7804,
      "tÃŃĠkÃ²Ġ": 7805,
      "tiĠá¹£eĠ": 7806,
      "áįĪáĪ«": 7807,
      "iĠkatikaĠm": 7808,
      "areĠnaĠ": 7809,
      "ansu.": 7810,
      "ĠAd": 7811,
      "uhimm": 7812,
      "áĮ»áįĪ": 7813,
      "ologieĠ": 7814,
      "link": 7815,
      "BeninĠ": 7816,
      "NovembaĠ-Ġ": 7817,
      "auniyarĠ": 7818,
      "baadayeĠ": 7819,
      "Wá»įÌģnĠbÃŃĠ": 7820,
      "MayuĠ": 7821,
      "KamusiĠ": 7822,
      "egeĠbiĠ": 7823,
      "SarkinĠ": 7824,
      "ungeĠlaĠ": 7825,
      "pÃŃnláº¹ÌĢĠá»ĮÌĢ": 7826,
      "OL": 7827,
      "e;Ġ": 7828,
      "Ġ20": 7829,
      "imboĠ": 7830,
      "can": 7831,
      "ectionĠ": 7832,
      "ĠdonĠ": 7833,
      "MichaelĠ": 7834,
      "Gud": 7835,
      "cir": 7836,
      "kim": 7837,
      "aĠj": 7838,
      "una,Ġ": 7839,
      "taĠsamuĠ": 7840,
      "ĠáĮĥ": 7841,
      "áĭŃáĪģ": 7842,
      "gbÃ²": 7843,
      "áĮĪáīµ": 7844,
      "Ã¹d": 7845,
      "ĠáīłáĪĭ": 7846,
      "ĠáĬĲáĭįáį¢ĠáĬ¨": 7847,
      "queĠleĠ": 7848,
      "ĠáĬłáĪĪáĭįáį¢": 7849,
      "HenryĠ": 7850,
      "sosaiĠ": 7851,
      "Hol": 7852,
      "mil": 7853,
      "cher": 7854,
      "etsĠ": 7855,
      "ojoĠ": 7856,
      "a.ĠM": 7857,
      "Hab": 7858,
      "Ju": 7859,
      "Langu": 7860,
      "ĠáīĦ": 7861,
      "kuw": 7862,
      "thÃ©": 7863,
      "thenĠ": 7864,
      "gbáº¹Ìģ": 7865,
      ".ĠÃĵĠ": 7866,
      "áĪ¨áĪŃ": 7867,
      "Ġáĭ¨áĪļáĪ°": 7868,
      "ĠáĮįáĭµ": 7869,
      "AĠshekararĠ201": 7870,
      "ansaĠ": 7871,
      "1998": 7872,
      "ĠáĬłáĪĪáĭį": 7873,
      "Naijiria.Ġ": 7874,
      "jihoh": 7875,
      "ĠáĭķáĪĪáīµĠáīłáĬĭáĪĭĠáĬ¥áĪµáĬ¨ĠáĭĵáĪĺáī±ĠáĪĺáĮ¨áĪ¨áĪ»ĠáĭµáĪ¨áĪµ": 7876,
      "jirginĠsam": 7877,
      "NuwambaĠ": 7878,
      "AlhajiĠ": 7879,
      "táº¹lif": 7880,
      "yaĠmwakaĠ(yaĠ": 7881,
      "shairiĠ": 7882,
      "\"TheĠ": 7883,
      "test": 7884,
      "August": 7885,
      "COVI": 7886,
      "vij": 7887,
      "urg": 7888,
      "ĠAugustĠ": 7889,
      "AC": 7890,
      "Festiv": 7891,
      "Pul": 7892,
      "Wap": 7893,
      "bÃ³": 7894,
      "tay": 7895,
      "Ġáĭ¨áī£": 7896,
      "áĭ«áĭĺ": 7897,
      "ĠáĬĲáĮ¥": 7898,
      "áĬŃáĬķ": 7899,
      "ĠáĪįáĭ°áīµ": 7900,
      "lá»įÌģgbá»įÌĢnĠ": 7901,
      "auseĠ": 7902,
      "ĠáĬłáĪįáī°": 7903,
      "beingĠ": 7904,
      "Ã¬á¹£áº¹ÌĢláº¹ÌĢĠ": 7905,
      "hakanĠ": 7906,
      "ulkiĠ": 7907,
      "istĠofĠ": 7908,
      "talabij": 7909,
      "Amerika.Ġ": 7910,
      "ĠApriliĠ-Ġ": 7911,
      "ĠáĭŃáĪĨáĬĵáĪįáį¢": 7912,
      "abubuwanĠ": 7913,
      "40Ġ": 7914,
      "Fl": 7915,
      "ForĠ": 7916,
      "bah": 7917,
      "produ": 7918,
      "COVID-": 7919,
      "Bol": 7920,
      "Dan": 7921,
      "anch": 7922,
      "2004": 7923,
      "dubuĠ": 7924,
      "found": 7925,
      "sasaĠ": 7926,
      "tour": 7927,
      "tayiĠ": 7928,
      "á»įrÃŃĠ": 7929,
      "Ġáĭ¨áīĨ": 7930,
      "áĪĿĠáĪĺ": 7931,
      "thereĠ": 7932,
      "chaĠk": 7933,
      "áĪĺáĮ¥": 7934,
      "ĠáĬłáĭ³": 7935,
      "áĭµáĪ¨": 7936,
      "ĠáĬ¨áĪĽ": 7937,
      "áĪªáīĥ": 7938,
      "ahud": 7939,
      "ĠáĭĪáĮ¥": 7940,
      "áī¸áĭĭáĪįáį¢": 7941,
      "etĠl'": 7942,
      "ĠáĪ°áĬĲ": 7943,
      "áĭĵáĬķ": 7944,
      "aĠkuanziaĠ": 7945,
      "ĠáĬķáĮīáĪłĠáĬĲáĮĪ": 7946,
      "ilimiĠ": 7947,
      "ĠáīĨáĭŃ": 7948,
      "Ġáĭ¨áĪļáĮĪáĬĿáīłáīµ": 7949,
      "áĬķáĮīáĪ¥": 7950,
      "Ã²á¹£Ã¨lÃºĠ": 7951,
      "diffÃ©r": 7952,
      "njiaĠ": 7953,
      "ĠáĮĮáī³": 7954,
      "pÃŃnĠ": 7955,
      "equ": 7956,
      "Ã¨.": 7957,
      "2005": 7958,
      "premiÃ¨reĠ": 7959,
      "Bag": 7960,
      "dist": 7961,
      "haliĠ": 7962,
      "ÑĢ": 7963,
      "Ã¬,Ġ": 7964,
      "uka": 7965,
      "tionn": 7966,
      "PartyĠ(": 7967,
      "Hon": 7968,
      "TaĠkasanceĠ": 7969,
      "Zar": 7970,
      "biliĠ": 7971,
      "daid": 7972,
      "gÃ©": 7973,
      "raj": 7974,
      "sark": 7975,
      "taif": 7976,
      "aĠÅĦĠ": 7977,
      "aldĠ": 7978,
      "áĪĪáīĢ": 7979,
      "Ġáį©": 7980,
      "utawalaĠ": 7981,
      "áĪªáĬ®áī½": 7982,
      "Ġáĭ«áĪ³": 7983,
      "jáº¹ÌģĠÃ²á¹£Ã¨rÃ©Ġ": 7984,
      "aĠhar": 7985,
      "aĠhadaĠ": 7986,
      "aĠdukĠ": 7987,
      "áī³áĭĪáīĢ": 7988,
      "áīĤáīµ": 7989,
      "secondĠ": 7990,
      "áĬ¨áĭļáĪħĠáĭķáĪĪáīµĠáīłáĬĭáĪĭĠáĬ¥áĪµáĬ¨ĠáĭĵáĪĺáī±ĠáĪĺáĮ¨áĪ¨áĪ»ĠáĭµáĪ¨áĪµ": 7991,
      "áĬĵĠáĪĺáĭĭ": 7992,
      "ĠáĭŃáĪĺáĪµáĪĭáĪįáį¢": 7993,
      "ĠkatikaĠmiakaĠmirefu).ĠMpakaĠuisheĠzinabakiĠsikuĠ": 7994,
      "Liv": 7995,
      "Mod": 7996,
      "souv": 7997,
      "Î¹": 7998,
      "ans,Ġ": 7999,
      ",000.": 8000,
      "cat": 8001,
      "ale,Ġ": 8002,
      "Gi": 8003,
      "Nik": 8004,
      "buk": 8005,
      "bahar": 8006,
      "daraĠ": 8007,
      "mÃŃrÃłnĠ": 8008,
      "sanaĠ": 8009,
      "ara.": 8010,
      "Ã¬.": 8011,
      "ĠáīłáĬĲ": 8012,
      "ĠáĬ¥áĪ±": 8013,
      "deĠm": 8014,
      "áĪĽáĭįáĭ«áĬķ": 8015,
      "ĠáįĮ": 8016,
      "Ġáī°áĮ½": 8017,
      "áīħáĬĵ": 8018,
      "áī¸áĭī": 8019,
      "ubwaĠ": 8020,
      "ĠáĪ²áĪį": 8021,
      "ambakoĠ": 8022,
      "á»įÌĢĠsÃŃĠ": 8023,
      "induz": 8024,
      "oĠyaĠm": 8025,
      "áįĬáĭ«": 8026,
      "ĠáĪĬáīĢ": 8027,
      "eshim": 8028,
      "ĠáĬłáĪĺáī³áīµ": 8029,
      "GrandĠ": 8030,
      "UsmanĠ": 8031,
      "Dep": 8032,
      "Societ": 8033,
      "ellaĠ": 8034,
      "omor": 8035,
      "Ã¨s": 8036,
      "aureĠ": 8037,
      "AsiaĠ": 8038,
      "Bern": 8039,
      "Law": 8040,
      "Mc": 8041,
      "diniĠ": 8042,
      "u)Ġ": 8043,
      "yaĠs": 8044,
      "ĠáĭŃáĬĲ": 8045,
      "ĠáīłáĪĢ": 8046,
      "áĬ¨áĬĲ": 8047,
      "áĬ«áĪĦ": 8048,
      "samoĠ": 8049,
      "ĠáĮĪáĭ¥": 8050,
      "ellementĠ": 8051,
      "bÃŃbÃŃĠ": 8052,
      "ĠáĪĺáĬķáĮįáĪ¥áī³áīµ": 8053,
      "askaziniĠ": 8054,
      "Kiingerez": 8055,
      "áĭŀáī½": 8056,
      "ÃĢwá»įnĠáº¹láº¹ÌģbÃ¹nĠNobelĠnÃŃnÃºĠ": 8057,
      "asayansiĠwaĠ": 8058,
      "Tak": 8059,
      "AbuĠ": 8060,
      "ts.": 8061,
      "Columb": 8062,
      "ZanzibarĠ": 8063,
      "Kip": 8064,
      "PP": 8065,
      "PortĠ": 8066,
      "cibiyarĠ": 8067,
      "yÃ¡": 8068,
      "chez": 8069,
      "olud": 8070,
      "áĭµáĪį": 8071,
      "Ã²p": 8072,
      "áĪ³áĪįáį¢": 8073,
      "She": 8074,
      "ráº¹ÌĢĠnÃŃĠ": 8075,
      "áĬĴáĪįáĬŃ": 8076,
      "tarihiĠ": 8077,
      "Ġá»įÌĢnÃłĠ": 8078,
      "seed": 8079,
      "duniaĠ": 8080,
      "omaĠsh": 8081,
      "zauneĠ": 8082,
      "TaĠkumaĠ": 8083,
      "disc": 8084,
      "patakiĠ": 8085,
      "UfaransaĠ": 8086,
      "Ġáįªáį»áį": 8087,
      "troisĠ": 8088,
      "8ĠâĢĵĠ": 8089,
      "bis": 8090,
      "ienn": 8091,
      "Gid": 8092,
      "HasaĠ": 8093,
      "nÃ¬Ġ": 8094,
      "ĠáĬĥ": 8095,
      "áĪµáĪĿ": 8096,
      "shaf": 8097,
      "ĠáĬ¥áĬ©áĪį": 8098,
      "Ã¨-": 8099,
      "a,ĠkumaĠ": 8100,
      "Ġáī°áĬŃáĪį": 8101,
      "Ġáĭ¨áĪģ": 8102,
      "áĭ¨áĪļ": 8103,
      "anzuĠ": 8104,
      "aĠdaĠkumaĠ": 8105,
      "ĠáĪĨáĬĳ": 8106,
      "áĭ°áĪŃáĮį": 8107,
      "ĠáīłáĬłáĪģáĬĳ": 8108,
      "AllĠ": 8109,
      "áįĸáĪĬ": 8110,
      "TaĠyiĠ": 8111,
      "jinsiĠ": 8112,
      "iakaĠyaĠ": 8113,
      "yaĠmutuĠaĠshekaraĠtaĠ": 8114,
      "aĠbirninĠ": 8115,
      "Vit": 8116,
      "a/": 8117,
      "tat": 8118,
      "establish": 8119,
      "civ": 8120,
      "oliĠ": 8121,
      "view": 8122,
      "SanĠ": 8123,
      "lif": 8124,
      "máº¹Ìģr": 8125,
      "tyĠ": 8126,
      "yá»įĠ": 8127,
      "arsaĠ": 8128,
      "áįı": 8129,
      "ĠáīĤ": 8130,
      "irdĠ": 8131,
      "áĪĪáĭĭáĪįáį¢": 8132,
      "áĭ°áĮĪ": 8133,
      "áįĪáĪ¨": 8134,
      "ĠáĮĪáī¥áĪ¨": 8135,
      "eĠkwaĠ": 8136,
      "waĠnaĠPapaĠ": 8137,
      "ahararr": 8138,
      "shigaĠcikinĠ": 8139,
      "HistoriaĠyaĠ": 8140,
      "gwamnatiĠ": 8141,
      "WanasayansiĠwaĠ": 8142,
      "kasuwanciĠ": 8143,
      "olojiaĠ": 8144,
      "ambayoĠniĠ": 8145,
      "lambarĠyaboĠtaĠ": 8146,
      "6)": 8147,
      "Av": 8148,
      "uallyĠ": 8149,
      "reprÃ©sent": 8150,
      "GB": 8151,
      "Sir": 8152,
      "2004Ġ": 8153,
      "ambal": 8154,
      "88": 8155,
      "hÃłnĠ": 8156,
      "yawaĠ": 8157,
      "theseĠ": 8158,
      "esĠinĠ": 8159,
      "á¹£áº¹ÌģĠ": 8160,
      "ĠáīłáĪŀ": 8161,
      "appel": 8162,
      "Ġá»įlá»įÌģ": 8163,
      "ĠáĬ¥áĬķáīħáĪµáīĥáĪ´": 8164,
      "Ġáī¥áĪĶáĪŃ": 8165,
      "ĠáĬŃáĪĪáī¥": 8166,
      "ĠáĪĬáĭ«": 8167,
      "NÃŃĠá»įjá»įÌģĠk": 8168,
      "ÃłwÃ©Ġ": 8169,
      "Ã¬má»įÌĢ": 8170,
      "MeiĠ-Ġ": 8171,
      "includingĠ": 8172,
      "aizariĠwaĠ": 8173,
      "yaut": 8174,
      "ise": 8175,
      "uraĠ": 8176,
      "adin": 8177,
      "ĠkoĠ": 8178,
      "eph": 8179,
      "âĢĻĠ": 8180,
      "point": 8181,
      "Domin": 8182,
      "hud": 8183,
      "tedĠ": 8184,
      "aroĠ": 8185,
      "arĠg": 8186,
      "reas": 8187,
      ",ĠmaisĠ": 8188,
      "mafiĠ": 8189,
      "aĠÆĻar": 8190,
      "áĭ·": 8191,
      "akam": 8192,
      "aĠmar": 8193,
      "áĬ¨áĬĵ": 8194,
      "2003": 8195,
      "áĭ²áĪ±": 8196,
      "jeĠijobaĠibileĠniĠIpinleĠ": 8197,
      "áĪ©áĬķ": 8198,
      "huÉĹ": 8199,
      "agbÃ¡Ġ": 8200,
      "karatunĠ": 8201,
      "Ġáī¤áī¶áī½": 8202,
      "ÃĮtum": 8203,
      "Ġáī°áĬ¨áī³áĭŃ": 8204,
      "TanguĠ": 8205,
      "áĬ¨áī°áĪĽáĭį": 8206,
      "oluiluĠ": 8207,
      "ÃºÃºsÃ¹Ġ": 8208,
      "yas": 8209,
      "formeĠ": 8210,
      "industr": 8211,
      "Don": 8212,
      "nen": 8213,
      "or,Ġ": 8214,
      "MjiĠ": 8215,
      "Tsak": 8216,
      "yaĠzamaĠ": 8217,
      "Ġáĭ¨áĪĪáĭį": 8218,
      "arĠdaĠk": 8219,
      "áĪĿáī¥": 8220,
      "áĪµáĬķ": 8221,
      "shah": 8222,
      "ĠáĬ¨áĪĨáĬĲ": 8223,
      "ulti": 8224,
      "áĪ³áĪ°": 8225,
      "leyinĠ": 8226,
      "asĠaĠ": 8227,
      "epoĠ": 8228,
      "1990": 8229,
      "shekarunĠ": 8230,
      "ÉĹinĠ": 8231,
      "1970": 8232,
      "prov": 8233,
      "olÃ³rÃŃĠ": 8234,
      "áĮĬáĭ«": 8235,
      "Oá¹£Ã¹Ġk": 8236,
      "ĠáīµáĬķáĪ½": 8237,
      "ĠáĪºáĪħ": 8238,
      "VitaĠ": 8239,
      "boĠ": 8240,
      "EdwardĠ": 8241,
      "PeopleĠ": 8242,
      "Book": 8243,
      "IbadanĠ": 8244,
      "Ġ9": 8245,
      "atum": 8246,
      "toĠm": 8247,
      "2012": 8248,
      "2008Ġ": 8249,
      "continu": 8250,
      "FederalĠ": 8251,
      "Dang": 8252,
      "Gold": 8253,
      "Mlim": 8254,
      "nipaĠ": 8255,
      "ram": 8256,
      "áĬķáĮĢ": 8257,
      "inj": 8258,
      "asiĠyaĠ": 8259,
      "Ã³r": 8260,
      "oluk": 8261,
      "ĠáĪĪáĪļ": 8262,
      "ambapoĠ": 8263,
      "ÃĴá¹£": 8264,
      "ĠáīĥáĪĭáīµ": 8265,
      "ĠáĭĺáĪĺáĬĲĠáĪĽáī´áĭİáĪµ": 8266,
      "::": 8267,
      "Bill": 8268,
      "seri": 8269,
      "es-": 8270,
      "usesĠ": 8271,
      "placeĠ": 8272,
      "DeltaĠ": 8273,
      "DonĠ": 8274,
      "fonc": 8275,
      "crib": 8276,
      "personn": 8277,
      "oinsĠ": 8278,
      "67": 8279,
      "DubaĠ": 8280,
      "KamfaninĠ": 8281,
      "NollywoodĠ": 8282,
      "Ru": 8283,
      "áĭŃáĪį": 8284,
      "awaÆĻ": 8285,
      "ĠáĪµáĬķ": 8286,
      "áįĵáĬķ": 8287,
      "ĠáĮĢáĪŃáĪĺáĬķ": 8288,
      "Ġáī°áĪĺáĪ³áĪ³áĭŃ": 8289,
      "bothĠ": 8290,
      "BlackĠ": 8291,
      "ĠáĪĺáĪ°áĪ¨áīµ": 8292,
      "áĮ¥áĪ¨ĠáĬĲáĮĪáĪ®áī½": 8293,
      "takribanĠ": 8294,
      "áĬ®áĬĸáĪļ": 8295,
      "God": 8296,
      "J.": 8297,
      "icationĠ": 8298,
      "MartinĠ": 8299,
      "inaĠm": 8300,
      "kush": 8301,
      "igneĠ": 8302,
      "ijeĠ": 8303,
      "athemat": 8304,
      "DukĠ": 8305,
      "Hor": 8306,
      "HarĠ": 8307,
      "dÃŃn": 8308,
      "ana.": 8309,
      "amÃ©r": 8310,
      "astron": 8311,
      "Ġáĭ¨áĮ¥": 8312,
      "áĪįáĮĭ": 8313,
      "ĠáīłáĭĪ": 8314,
      "ulikuwaĠ": 8315,
      "Ġáĭ¨áĪļáĪ°áĪ«": 8316,
      "ungum": 8317,
      "anci,Ġ": 8318,
      "ĠáĪįáĪĽ": 8319,
      "endantĠ": 8320,
      "ĠáīłáĪĺáī£áĪį": 8321,
      "aĠfiĠ": 8322,
      "áįĸáĪŃáīµ": 8323,
      "tuntunĠ": 8324,
      "ĠáĬłáīĢáįį": 8325,
      "AlbertĠ": 8326,
      "ShehuĠ": 8327,
      "ĠáĮįáĬķáĬĻáĬĲáīµ": 8328,
      "etr": 8329,
      "ana": 8330,
      "2016Ġ": 8331,
      "ashir": 8332,
      "CentralĠ": 8333,
      "ibit": 8334,
      "2000": 8335,
      "izeĠ": 8336,
      "----": 8337,
      "kit": 8338,
      "many": 8339,
      "puisĠ": 8340,
      "sour": 8341,
      "tá»įÌĢ": 8342,
      "yÃ¡Ġ": 8343,
      "áĮİáī½": 8344,
      "asáº¹Ġ": 8345,
      "ĠáĬ¥áĪ«áĪ±": 8346,
      "ĠáĬ¨áĪ°": 8347,
      "Ġáĭ¨áĬ¡": 8348,
      "ĠáĭĵáĭŃáĬĲáīµ": 8349,
      "ĠáĪĽáĬħ": 8350,
      "auyaĠ": 8351,
      "proj": 8352,
      "áī¦áĪŃ": 8353,
      "whileĠ": 8354,
      "Ġáĭ¨áĬłáĭįáĪ®áįĵ": 8355,
      "parĠleĠ": 8356,
      "ĠáĮĢáĪĺáĪ¨": 8357,
      "ĠáĬłáĪĿáī£": 8358,
      "publish": 8359,
      "Girl": 8360,
      "electr": 8361,
      "'YanĠwasanĠÆĻwallonĠÆĻafaĠtaĠÆĻasarĠIngil": 8362,
      "ĠáĬŃáįįáĪĭáĮĪáĪŃ": 8363,
      "2=": 8364,
      "Mir": 8365,
      "akh": 8366,
      "ivid": 8367,
      "aĠhu": 8368,
      "Pan": 8369,
      "Ð½": 8370,
      "Premi": 8371,
      "YankinĠ": 8372,
      "kunanĠ": 8373,
      "a,ĠnaĠ": 8374,
      "ĠáįĴ": 8375,
      "Ġáī°áĮ«": 8376,
      "á»įÌĢkanĠ": 8377,
      "ĠáĪµáĭ«áĪľ": 8378,
      "kumaĠanĠ": 8379,
      "1997": 8380,
      "aĠnaĠm": 8381,
      "¢áīµáĭ®áĮµáĭ«áĬķ": 8382,
      "tÃŃĠwá»įÌģnĠÅĦĠ": 8383,
      "olÃ³gunĠ": 8384,
      "tsakiyarĠ": 8385,
      "jama'aĠaĠ": 8386,
      "ĠáĪĺáĪįáĬ©": 8387,
      "Seneg": 8388,
      "ĠáĪĽáĪŃáīĨáĪµĠáĭ°áĮįáĪŀ": 8389,
      "atikaĠkarneĠyaĠ": 8390,
      "Ham": 8391,
      "IN": 8392,
      "fon": 8393,
      "arsĠ": 8394,
      "ots": 8395,
      "crit": 8396,
      "Saint-": 8397,
      "\".Ġ": 8398,
      "Civ": 8399,
      "en'sĠ": 8400,
      "oweĠ": 8401,
      "centuryĠ": 8402,
      "Cour": 8403,
      "Pier": 8404,
      "Tor": 8405,
      "ias": 8406,
      "oÆĻ": 8407,
      "tá»įÌģĠ": 8408,
      "Ã¬p": 8409,
      "ĠáĮĦ": 8410,
      "áī½áĪī": 8411,
      "áĪĭáĪĭ": 8412,
      "ĠáĪĿáĪħ": 8413,
      "áĭ³áĪª": 8414,
      "áĭ¨áĪ©": 8415,
      "Ġáĭ«áĪĭáī¸áĭį": 8416,
      "áĮĭáīµ": 8417,
      "Ġáĭ¨áī°áī£": 8418,
      "oĠmwakaĠ": 8419,
      "karneĠyaĠ": 8420,
      "Marekani.": 8421,
      "áĪµáī°áĪŃ": 8422,
      "wá»įÌĢny": 8423,
      "áĪįáĪµáįįáĬĵ": 8424,
      "ÃĮjá»įbaĠ": 8425,
      "Ġáĭ¨áĭĵáĪĺáī±": 8426,
      "tersĠ": 8427,
      "Petr": 8428,
      "Fat": 8429,
      "ÏĤ": 8430,
      "4)": 8431,
      "P.": 8432,
      "UĠ": 8433,
      "á»įd": 8434,
      "áĪŃáī³": 8435,
      "ÃłrinĠ": 8436,
      "akanaĠnaĠ": 8437,
      "áĬĲáĬĽ": 8438,
      "aĠmasuĠ": 8439,
      "Ã²bÃŃĠ": 8440,
      "aciĠ": 8441,
      "ÆĻwararr": 8442,
      "1990Ġ": 8443,
      "parĠlesĠ": 8444,
      "ĠáĮ£áĪį": 8445,
      "DisambaĠ": 8446,
      "ĠáĪĿáĪįáĬŃáīµ": 8447,
      "AcademyĠ": 8448,
      "KÃ¡tÃ³": 8449,
      "lom": 8450,
      "yoĠ": 8451,
      "avantĠ": 8452,
      "evisionĠ": 8453,
      "organ": 8454,
      "beforeĠ": 8455,
      "rÃ©gionĠ": 8456,
      "tradition": 8457,
      "Victor": 8458,
      "Aá¹£": 8459,
      "newĠ": 8460,
      "zim": 8461,
      "er-": 8462,
      "almarĠ": 8463,
      "English": 8464,
      "Denmark": 8465,
      "PÃ³p": 8466,
      "kÃ¹Ġ": 8467,
      "nonĠ": 8468,
      "anaĠkwaĠ": 8469,
      "áĬķáĮ»": 8470,
      "thod": 8471,
      "Ġáīłáĭļáĭ«": 8472,
      "áĪĪáī±": 8473,
      "áīłáī³áĪįáį¢": 8474,
      "usammanĠ": 8475,
      "iaĠniĠ": 8476,
      "atiĠawá»įnĠ": 8477,
      "nigbaĠ": 8478,
      "áĬłáĪģ": 8479,
      "áī¦áīµ": 8480,
      "randeĠ": 8481,
      "ĠáĬłáĪĪáį¢": 8482,
      "tareĠdaĠm": 8483,
      "lakin": 8484,
      "School,Ġ": 8485,
      "á»įkÃłĠ": 8486,
      "occup": 8487,
      "sayensiĠ": 8488,
      "Pasif": 8489,
      "áĪªáī³áĬķáĭ«": 8490,
      "Ãłjáº¹sÃ¡raĠ": 8491,
      "Vir": 8492,
      "pp": 8493,
      "rag": 8494,
      "Ïģ": 8495,
      "ity.": 8496,
      "charg": 8497,
      "isĠaĠ": 8498,
      "ance,Ġ": 8499,
      "Ġ1.": 8500,
      "worl": 8501,
      "LoveĠ": 8502,
      "nov": 8503,
      "ajeĠ": 8504,
      "pet": 8505,
      "islamuĠ": 8506,
      "ĠáĮ¤": 8507,
      "es.Ġ": 8508,
      "ĠáĬłáĭĭ": 8509,
      "áĭµáīħ": 8510,
      "a,ĠdaĠ": 8511,
      "aĠkatiĠyaĠ": 8512,
      "toĠwaĠ": 8513,
      "ishinĠ": 8514,
      "ÃĢy": 8515,
      "iĠkwenyeĠ": 8516,
      "ÃĮjá»įĠ": 8517,
      "Ġáĭ°áī¥": 8518,
      "waĠkar": 8519,
      "áīĭáīĭ": 8520,
      "ilĠestĠ": 8521,
      "kuwaĠnaĠ": 8522,
      "ogboĠ": 8523,
      "Acc": 8524,
      ")ĠjeĠosereĠ": 8525,
      "ĠáĬłáī£áĪĭáīµ": 8526,
      "Oá¹£uĠK": 8527,
      "DagaĠbayaĠ": 8528,
      "ulikanaĠ": 8529,
      "ĠáĭľáĬĵĠáĪĺáĭĭ": 8530,
      "Ġáĭ¨áĪħáĭĿáī¥": 8531,
      "áįĲáī¥áĪĬáĬŃ": 8532,
      "BahariĠ": 8533,
      "YammacinĠ": 8534,
      "jimill": 8535,
      "Ġáĭ©áĬĴáī¨áĪŃáĪ²áī²": 8536,
      "ĠáĪ³áĭŃáĬķáĪ³áĭĬĠáĮ¸áī£áĭŃ": 8537,
      "OneĠ": 8538,
      "Ã©v": 8539,
      "uni": 8540,
      "edĠandĠ": 8541,
      "ainesĠ": 8542,
      "Found": 8543,
      "uruĠ": 8544,
      "istsĠ": 8545,
      "eje": 8546,
      "aisonĠ": 8547,
      "bakwaiĠ": 8548,
      "fath": 8549,
      "hÃ¬nĠ": 8550,
      "ux": 8551,
      "anoĠyaĠ": 8552,
      "áĬĵáĮĪáĪŃ": 8553,
      "ĠáĪĿáĭķáĪ«": 8554,
      "áĭĿáĪĿ": 8555,
      "ĠáīĢáĭŃ": 8556,
      "wasem": 8557,
      "walip": 8558,
      "Ġáĭ¨áĬĲáĮĪ": 8559,
      "prÃ©c": 8560,
      "ominiraĠ": 8561,
      "AmurkaĠ": 8562,
      "áĬĲáĮĪáĪŃĠáĮįáĬķ": 8563,
      "ĠáĬłáĪ«áīµ": 8564,
      "awaidaĠ": 8565,
      "Ġáĭ¨áĪĻáĭļáīĥ": 8566,
      "y-": 8567,
      "||Ġ": 8568,
      "Ital": 8569,
      "AsĠ": 8570,
      "Ig": 8571,
      "alish": 8572,
      "a,ĠM": 8573,
      "ingĠandĠ": 8574,
      "Chil": 8575,
      "GovernmentĠ": 8576,
      "Kab": 8577,
      "hul": 8578,
      "wag": 8579,
      "áĪĪáīłáīµ": 8580,
      "áī¥áĬĽ": 8581,
      "áĮįáĪĽáĭĬ": 8582,
      "Ġáī°áĮĪ": 8583,
      "2013": 8584,
      "2003Ġ": 8585,
      "otunĠ": 8586,
      "áĮĭáĪ«": 8587,
      "áĮĭáĮĪáĪŃ": 8588,
      "ĠáĪ°áĪŃ": 8589,
      "áĬķáĮįáĪ¥áīµ": 8590,
      "ĠáĬ¥áĬķáĭ°ĠáĬĲáīłáĪŃ": 8591,
      "queĠlesĠ": 8592,
      "ĠáĬ¥áĪµáĬ«": 8593,
      "áº¹rin": 8594,
      "jiĠmkuuĠ": 8595,
      "ilitaryĠ": 8596,
      "GreekĠ": 8597,
      "caract": 8598,
      "egeme": 8599,
      "YunifÃ¡sÃŃtÃ¬Ġ": 8600,
      "áįĪáĪĭáĮĬ": 8601,
      "falmeĠmkuuĠwaĠ": 8602,
      "Tro": 8603,
      "maz": 8604,
      "Ã£": 8605,
      "an'": 8606,
      "ebr": 8607,
      "RepublicĠ": 8608,
      "Li": 8609,
      "domĠ": 8610,
      "v.": 8611,
      "vu": 8612,
      "ĠáĪĺáĬ®": 8613,
      "áĬŃáĪĿáĬĵ": 8614,
      "áĭĿáī¡": 8615,
      "antak": 8616,
      "engenez": 8617,
      "ĠáĭĭáĮĭ": 8618,
      "ĠáĪĬáīĥáĭįáĬķ": 8619,
      "zamanĠ": 8620,
      "Ġáī°áĪĺáĪį": 8621,
      ",ĠmwanamuzikiĠ": 8622,
      "cutarĠ": 8623,
      "system": 8624,
      "ĠáĪģáĪĪáī°áĬĽ": 8625,
      "ĠáĪĥáĭŃáĪĽáĬĸáīµ": 8626,
      "utane": 8627,
      "oneĠofĠtheĠ": 8628,
      "Fer": 8629,
      "pur": 8630,
      "sor": 8631,
      "vonĠ": 8632,
      "ÉĻ": 8633,
      "e,ĠleĠ": 8634,
      "ienneĠ": 8635,
      ")áį¢": 8636,
      "KungiyarĠ": 8637,
      "aal": 8638,
      "jÃŃ": 8639,
      "áĮįáĪĪ": 8640,
      "aĠkwall": 8641,
      "ĠáĭŃáīĨ": 8642,
      "ĠáīłáĪ¥": 8643,
      "prom": 8644,
      "áī¢áĭŃ": 8645,
      "suf": 8646,
      "Ġ12": 8647,
      "áĪµáīµáĪª": 8648,
      "Ġá»Įjá»įÌģĠk": 8649,
      "Ãłn-": 8650,
      "áĮ»áįį": 8651,
      "ique.": 8652,
      "Ãłwá»įnĠáº¹": 8653,
      "áĭ°áī¥áĪ¨": 8654,
      "ÃłdÃºgbÃ²Ġ": 8655,
      "wasanĠkwaikwayoĠ": 8656,
      "Kifarans": 8657,
      "ĠáĪļáĬĴáĪµáīµáĪŃ": 8658,
      "KÃ¡tÃ³l": 8659,
      "66": 8660,
      "Bul": 8661,
      "sev": 8662,
      "naĠM": 8663,
      "ĠkmÂ²": 8664,
      "o'": 8665,
      "itÃ©sĠ": 8666,
      "elim": 8667,
      "truc": 8668,
      "BÃŃĠ": 8669,
      "D.": 8670,
      "Eos": 8671,
      "aĠJami'arĠ": 8672,
      "Ġáĭ¨áĪĭ": 8673,
      "áĭ«áīĦ": 8674,
      "áĬĲáĪ£": 8675,
      "áĭµáĪľ": 8676,
      "áį£ĠáĪĪ": 8677,
      "ĠáĭĪáĮ£": 8678,
      "2011": 8679,
      "2009Ġ": 8680,
      "ĠáĬŃáĪŃ": 8681,
      "ĠáĮ¥áīłáī¥": 8682,
      "aĠdonĠ": 8683,
      "áĪĲáĪ´": 8684,
      "Tarih": 8685,
      "Ã¬wá»įÌĢ": 8686,
      "ĠáĮ¨áĪĿáĪ®": 8687,
      "fÃŃl": 8688,
      "áĭ°áĪ¨áĮĪáĭį": 8689,
      "inkinĠ": 8690,
      "enyeĠm": 8691,
      "ÃĮjáº¹ÌĢ": 8692,
      "Ã¬dÃŃjeĠ": 8693,
      "ArewaĠ": 8694,
      "\"m": 8695,
      "Mab": 8696,
      "transl": 8697,
      "Hum": 8698,
      "R.": 8699,
      "Ze": 8700,
      "couldĠ": 8701,
      "lerĠ": 8702,
      "uny": 8703,
      "refer": 8704,
      "bienĠ": 8705,
      "surĠleĠ": 8706,
      "KatikaĠm": 8707,
      "atiĠm": 8708,
      "áī°áīµ": 8709,
      "adj": 8710,
      "áĪĽáī¸áĭį": 8711,
      "Ġáī°áĭ°áĪŃ": 8712,
      "process": 8713,
      "áįĬáĭİáī½": 8714,
      "ĠáĪ¥áĮĭ": 8715,
      "ĠáīµáĪŃáĮīáĪĿ": 8716,
      "farkoĠnaĠ": 8717,
      "TarihiĠ": 8718,
      "daĠsauranĠ": 8719,
      "kulaĠdaĠ": 8720,
      "ĠáįĪáĪ¨áĬķáĪ³áĭŃ": 8721,
      "áīħáĭ«áĬĸáĪµ": 8722,
      "Ġáĭ¨áĪļáĮĪáĬĿáīłáīµĠáĪĺáĪįáĬŃáĭĵĠáĪĿáĭµáĪŃ": 8723,
      "Buh": 8724,
      "Batt": 8725,
      "MyĠ": 8726,
      "ger": 8727,
      "high": 8728,
      "sid": 8729,
      "ĠC": 8730,
      "Ãªt": 8731,
      "neyĠ": 8732,
      "BAĠ": 8733,
      "Kon": 8734,
      "islam": 8735,
      "ceĠquiĠ": 8736,
      "eptĠ": 8737,
      "Allah": 8738,
      "itÃ©ĠdeĠ": 8739,
      "(m": 8740,
      "PiaĠ": 8741,
      "dÃºgb": 8742,
      "son,Ġ": 8743,
      "yun": 8744,
      "ªáĭ«": 8745,
      "ĠâĢ¹": 8746,
      "Ġáī²": 8747,
      "Ġáīłáĭ°áī¡áī¥": 8748,
      "áī°áĬĵ": 8749,
      "esc": 8750,
      "ĠáĬłáĭĺ": 8751,
      "niĠÃłwá»įnĠ": 8752,
      "ĠáĬĲáįĥ": 8753,
      "ÆĻan": 8754,
      "Ġáĭ¨áĪĺáĮ£": 8755,
      "nye": 8756,
      "haifarĠdaĠ": 8757,
      "Ã¬yÃ¡Ġ": 8758,
      "ĠáĪļáĬ«áĬ¤áĪį": 8759,
      "ĠáĬłáĪµáī°áĭ³áĭ°áĮį": 8760,
      "áīĢáĪĺáĮ«": 8761,
      "ĠáĮłáīħáĪĭáĭŃ": 8762,
      "ĠáĬĽáĭį": 8763,
      "Por": 8764,
      "Ãºn,Ġ": 8765,
      "ies,Ġ": 8766,
      "shidaĠ": 8767,
      "ubĠ": 8768,
      "ward": 8769,
      "enseĠ": 8770,
      "ardsĠ": 8771,
      "Congres": 8772,
      "-áĬ¢": 8773,
      "400": 8774,
      "bish": 8775,
      "hus": 8776,
      "rÃ¹nĠ": 8777,
      "ruku": 8778,
      "zak": 8779,
      "ÆĬ": 8780,
      "áĪ¦": 8781,
      "at,Ġ": 8782,
      "áº¹tÃł": 8783,
      "Ã¨Ã¨": 8784,
      "ĠáĪĺáĪ¬áīµ": 8785,
      "iyuĠ": 8786,
      "áĪ«áĭįáĭ«áĬķ": 8787,
      "ĠáĪĿáĬĴáĪįáĬŃ": 8788,
      "aziĠyaĠ": 8789,
      "ĠáĭĵáĪĭáĪĽ": 8790,
      "uwaĠdaĠ": 8791,
      "áĮĭáĪª": 8792,
      "Ġáĭĺáĭį": 8793,
      "Jama'": 8794,
      "áī¤áī±": 8795,
      "Ãłká»į": 8796,
      "alikuwaĠPap": 8797,
      "KiarabuĠ": 8798,
      "áĪ£áĪªáĭ«": 8799,
      "Viet": 8800,
      "ulkinĠ": 8801,
      "jÃ¡d": 8802,
      "HistoriaĠ": 8803,
      "Ã²kÃ¨Ġ": 8804,
      "arewacinĠ": 8805,
      "ĠáĭķáĪĪáī°ĠáĪŀáīµ": 8806,
      "KÃ¡tÃ³lÃ¬kÃ¬Ġ": 8807,
      "Ye": 8808,
      "poĠ": 8809,
      "artic": 8810,
      "eĠsiĠ": 8811,
      "CollegeĠ": 8812,
      "Round": 8813,
      "foundĠ": 8814,
      "hij": 8815,
      "uxĠ": 8816,
      "ambarĠ": 8817,
      "ations": 8818,
      "e'sĠ": 8819,
      "Ø¹": 8820,
      "amarĠdaĠ": 8821,
      "áĭ«áĪįáį¢": 8822,
      "áĭ«áĭįáĭ«áĬķ": 8823,
      "ĠáĬłáĬĵ": 8824,
      "áĭ°áĪŃáĪµ": 8825,
      "áĪ«áĪª": 8826,
      "okiĠ": 8827,
      "e,ĠtheĠ": 8828,
      "áĬķáĮįáĪµáīµ": 8829,
      "iĠnaĠku": 8830,
      "nguv": 8831,
      "áĬĽáĭįáĪĿ": 8832,
      "agbaraĠ": 8833,
      "OlÃ¹": 8834,
      "ĠáīĢáĬķĠ": 8835,
      "ĠáĪĬáĪĨáĬķ": 8836,
      "tÃŃĠwá»įÌģnĠtiĠ": 8837,
      "Ġáĭķáĭį": 8838,
      "Kiarab": 8839,
      "shiĠneĠÉĹanĠ": 8840,
      "kudancinĠ": 8841,
      "ĠáĪľáĭ³": 8842,
      "profess": 8843,
      "ĠáĭĺáĪĺáĬķĠáĬłáīĨáĮ£áĮłáĪŃĠáĭ¨áĭĵáĪĺáī±": 8844,
      "iko": 8845,
      "sameĠ": 8846,
      "Pulitz": 8847,
      "Mung": 8848,
      "futĠ": 8849,
      "aĠÃ©tÃ©Ġ": 8850,
      "th-": 8851,
      "actĠ": 8852,
      "e,ĠandĠ": 8853,
      "áĪĲáĭŃ": 8854,
      "IlĠestĠ": 8855,
      "Tanzania.": 8856,
      "offici": 8857,
      "Distr": 8858,
      "dÃŃĠ": 8859,
      "kÃ¬Ġ": 8860,
      "siyas": 8861,
      "áĪĿáīłáĪŃ": 8862,
      "naĠfarkoĠ": 8863,
      "Ã³á¹£": 8864,
      "áº¹ÌĢ,Ġ": 8865,
      "áĮįáĬĵ": 8866,
      "ĠáĬ¨áĭĪ": 8867,
      "Ã²wÃ²Ġ": 8868,
      "ĠáĭĪáĭĺ": 8869,
      "áīłáĪ®": 8870,
      "áįĪáĮłáĪ¨": 8871,
      "áĬķáĭµáĪµáĬĵ": 8872,
      "oyiĠ": 8873,
      "3ĠâĢĵĠ": 8874,
      "firam": 8875,
      "áĮĥáĭĿáĪĽáī½": 8876,
      "TuzoĠyaĠNobelĠyaĠ": 8877,
      "ĠáĬ¢áĭ¨áĪ±áĪµ": 8878,
      "yanayinĠ": 8879,
      "olÃ³Ã²": 8880,
      "uatwaĠnaĠPapaĠ": 8881,
      "comput": 8882,
      "ĠáĬªáĭ³áĬķ": 8883,
      "ĠáĮ¸áĪĲáįĬ": 8884,
      "OmoĠ": 8885,
      "ĠáĬłáĪµáī°áĭ³áĭ°áĪŃ": 8886,
      "yearsĠ": 8887,
      "jam'iyyarĠ": 8888,
      "ÃĢwá»įnĠÃ¨nÃ¬yÃłnĠalÃłÃłyÃ¨Ġ": 8889,
      "jusqu'": 8890,
      "ĠáĭŃáī»áĪĭáĪįáį¢": 8891,
      "hap": 8892,
      "ient": 8893,
      "el.": 8894,
      "administr": 8895,
      "erĠlesĠ": 8896,
      "aig": 8897,
      "2002Ġ": 8898,
      "franÃ§aisĠ": 8899,
      "donn": 8900,
      "gameĠ": 8901,
      "Et": 8902,
      "KwaĠm": 8903,
      "iung": 8904,
      "oitwaĠ": 8905,
      "pup": 8906,
      "táº¹ÌĢĠ": 8907,
      "áĬ»": 8908,
      "áĪŃáį£": 8909,
      "áīłáĬłáĪ": 8910,
      "actionĠ": 8911,
      "actor": 8912,
      "1994Ġ": 8913,
      "6ĠâĢĵĠ": 8914,
      "jami'arĠ": 8915,
      "tÃŃĠwá»įÌģnĠsÃ¬Ġ": 8916,
      "aĠkarniĠnaĠ": 8917,
      "Ġáī¥áĭĻĠáĮĬáĭľ": 8918,
      "AareĠorile-edeĠ": 8919,
      "JinaĠlakeĠ": 8920,
      "lilil": 8921,
      "fusk": 8922,
      "nipasáº¹Ġ": 8923,
      "'YanĠwasanĠÆĻwallonĠÆĻafaĠtaĠÆĻasarĠIngila": 8924,
      "fÃŃlmÃ¹Ġ": 8925,
      "Gal": 8926,
      "HighĠ": 8927,
      "Sk": 8928,
      "doc": 8929,
      "nin": 8930,
      "icallyĠ": 8931,
      "ationĠdesĠ": 8932,
      "acheĠ": 8933,
      "pourĠlaĠ": 8934,
      "vik": 8935,
      "wel": 8936,
      "yay": 8937,
      "4.Ġ": 8938,
      "C)Ġ": 8939,
      "Lá»įÌģ": 8940,
      "Red": 8941,
      "WesternĠ": 8942,
      "faÉĹ": 8943,
      "uiĠ": 8944,
      "áĮ©": 8945,
      "áĪĿĠáĭŃ": 8946,
      "áī£áī±": 8947,
      "utarĠ": 8948,
      "utawalaĠwaĠ": 8949,
      "áĭ¨áĬłáĪ": 8950,
      "2012,Ġ": 8951,
      "áĮĢáīµ": 8952,
      "aĠbug": 8953,
      "Ġáº¹ÌĢrá»įĠ": 8954,
      "ÃĵĠtÃºnĠ": 8955,
      "ÃĴunĠ": 8956,
      "biyu,Ġ": 8957,
      "ĠáĬ¢áĬķ": 8958,
      "Ã²rÃ¡nĠ": 8959,
      "EnuguĠ": 8960,
      "ĠáĬªáĪİ": 8961,
      "yake.": 8962,
      "JamhuriyarĠ": 8963,
      "2020,Ġ": 8964,
      "capit": 8965,
      "áĮĬáĭľáĭį": 8966,
      "ÃĢÃłráº¹Ġiláº¹ÌĢĠ": 8967,
      "amarĠhukumaĠceĠdakeĠ": 8968,
      "ElezoĠyaĠ": 8969,
      "jimboĠlaĠ": 8970,
      "AlimfuataĠPapaĠ": 8971,
      "EosentomonĠ": 8972,
      "A,Ġ": 8973,
      "govern": 8974,
      "pÃ©ri": 8975,
      "aĠz": 8976,
      "etĠdesĠ": 8977,
      "ionn": 8978,
      "untilĠ": 8979,
      "Pow": 8980,
      ":Ġ\"": 8981,
      "166": 8982,
      "Ãªm": 8983,
      "87": 8984,
      "Kijerum": 8985,
      "Ref": 8986,
      "coll": 8987,
      "fam": 8988,
      "ĠáĬ¦áĪŃ": 8989,
      "waĠnaĠm": 8990,
      "asilimiaĠ": 8991,
      "isk": 8992,
      "ĠáĬ¥áĮ½": 8993,
      "ustaĠ": 8994,
      "áĪ³áĭį": 8995,
      "ument": 8996,
      "áĪĬáĭ«áĬķ": 8997,
      "egunĠ": 8998,
      "huoĠ": 8999,
      "áĭįáĬķĠáĭ¨": 9000,
      "ĠáĪ²áĪĨáĬķĠáīł": 9001,
      "eĠkatikaĠ": 9002,
      "fiimuĠ": 9003,
      "ParisĠ": 9004,
      "UmarĠ": 9005,
      "ĠáĪŃáĭķ": 9006,
      "lokaciĠ": 9007,
      "ĠáĬłáĪĽáĬ«": 9008,
      "Ġkm2Ġ": 9009,
      "ĠáĬĹáĪª": 9010,
      "Ġáīłáī°áĪĪáĭŃáĪĿ": 9011,
      "KamusiĠElezoĠyaĠ": 9012,
      "ÃĮjá»įĠKÃ¡tÃ³lÃ¬kÃ¬Ġ": 9013,
      "KamusiĠElezoĠyaĠKik": 9014,
      "las": 9015,
      "ËĪ": 9016,
      "onj": 9017,
      "abĠ": 9018,
      "Marc": 9019,
      "Ã©rÃ©": 9020,
      "Ass": 9021,
      "University,Ġ": 9022,
      "59": 9023,
      "AikinĠ": 9024,
      "eiĠ": 9025,
      "pi": 9026,
      "Ã¨,Ġ": 9027,
      "LokacinĠ": 9028,
      "Obas": 9029,
      "derĠ": 9030,
      "fed": 9031,
      "fÃŃrÃŃ": 9032,
      "raisĠ": 9033,
      "sen": 9034,
      "wareĠ": 9035,
      "à¥": 9036,
      "chamaĠ": 9037,
      "1918": 9038,
      "ĠáĬłáī¡": 9039,
      "áįįáĪ¬": 9040,
      "ĠáĪĪáĭĪ": 9041,
      "áĮ£áĪª": 9042,
      "TheyĠ": 9043,
      "áĬ¥áĪµ": 9044,
      "Ã¬dÃŃn": 9045,
      "ujokoĠ": 9046,
      "Oktob": 9047,
      "JanarĠ": 9048,
      "ĠáĪĻáĭļáīĥ": 9049,
      "máº¹ÌģtaĠ": 9050,
      "akaoĠmak": 9051,
      "ĠáĭĺáĪĺáĬĲĠáĪĽáĪŃáīĨáĪµĠáĭ°áĮįáĪŀ": 9052,
      "âĢºâĢº": 9053,
      "ĠáįĪáĪŃáĭĸáĬķ": 9054,
      "nufinĠ": 9055,
      "2),Ġ": 9056,
      "CE": 9057,
      "Est": 9058,
      "Nap": 9059,
      "Ta": 9060,
      "maisĠ": 9061,
      ",ĠK": 9062,
      "adam": 9063,
      "stant": 9064,
      "ChristianĠ": 9065,
      "giv": 9066,
      "000": 9067,
      "1991Ġ": 9068,
      "propos": 9069,
      "eĠ(200": 9070,
      "tion,Ġ": 9071,
      "yaĠfaraĠ": 9072,
      "abarĠ": 9073,
      "niĠodunĠ": 9074,
      "aiĠtaĠ": 9075,
      "áĪĮáĪĭ": 9076,
      "ewa,Ġ": 9077,
      "Ġáĭ°áĮĭ": 9078,
      "uzikiĠ": 9079,
      "takwasĠ": 9080,
      "ĠáįĬáĪį": 9081,
      "WatuĠ": 9082,
      "Ġáĭ«áĪĪáĭįáĬķ": 9083,
      "JapaniĠ(": 9084,
      "áį²áį±áį»áį¶áį": 9085,
      "adarÃŃĠ": 9086,
      "áĪĽáĭŃáĪµáĮ¥": 9087,
      "aká»įrinĠ": 9088,
      "ĠáĪļáĬĴáĪµáī´": 9089,
      "ĠáĭµáĬķáĮĭáĭŃ": 9090,
      "ĠáĮĪáĬķáĭĺáī¥": 9091,
      "wom": 9092,
      "inĠaĠ": 9093,
      "Â»)": 9094,
      "orĠofĠ": 9095,
      "9ĠâĢĵĠ": 9096,
      "RiverĠ": 9097,
      "Sm": 9098,
      "num": 9099,
      "well": 9100,
      "aye.": 9101,
      "ekeĠ": 9102,
      "2018Ġ": 9103,
      "amboĠ": 9104,
      "pointĠ": 9105,
      "6,": 9106,
      "Jig": 9107,
      "ÏĦ": 9108,
      "áĪĿáĪĮ": 9109,
      "ĠáĬłáĮł": 9110,
      "usal": 9111,
      "wanaf": 9112,
      "áį¡áĬł": 9113,
      "azi": 9114,
      "ĠáĬ¥áĬķáĭµ": 9115,
      "Ã¬yÃłn": 9116,
      "ologicalĠ": 9117,
      "Ã¬á¹£Ã¨": 9118,
      "áī£áī¢áĪİáĬķ": 9119,
      "ká»įÌĢwÃ©Ġ": 9120,
      "Ġáī¡áĭµ": 9121,
      "Magharib": 9122,
      "áĪĺáĪĪáĪµ": 9123,
      "Ã¬dÃŃlÃ©Ġ": 9124,
      "Counc": 9125,
      "UpandeĠ": 9126,
      "AnĠhaifeĠshiĠ": 9127,
      "akafuatwaĠnaĠPapaĠ": 9128,
      "dim": 9129,
      "threeĠ": 9130,
      "abor": 9131,
      "construc": 9132,
      "Libr": 9133,
      "Fur": 9134,
      "itiesĠ": 9135,
      "oyonĠ": 9136,
      "ender": 9137,
      "uff": 9138,
      "(S": 9139,
      "(198": 9140,
[...]
